[PAD]
[UNK]
[CLS]
[SEP]
[MASK]
!
"
#
$
%
&
'
(
)
*
+
,
-
.
/
0
1
2
3
4
5
6
7
8
9
:
;
<
=
>
?
@
[
\
]
^
_
a
b
c
d
e
f
g
h
i
j
k
l
m
n
o
p
q
r
s
t
u
v
w
x
y
z
{
|
}
~
£
§
«
®
°
±
²
³
µ
·
»
½
×
ß
à
á
â
ã
ä
å
æ
ç
è
é
ê
ë
ì
í
î
ï
ð
ñ
ò
ó
ô
ö
÷
ø
ù
ú
û
ü
ý
ā
ă
ć
č
đ
ē
ě
ħ
ī
ı
ł
ŋ
ō
ś
ş
š
ū
ž
ơ
ư
ǎ
ǐ
ǔ
ɔ
ə
ɛ
ɪ
ʃ
ʊ
ʔ
ʰ
ˈ
ː
́
̍
̤
ά
έ
ή
ί
α
β
γ
δ
ε
η
θ
ι
κ
λ
μ
ν
ξ
ο
π
ρ
ς
σ
τ
υ
φ
χ
ψ
ω
ό
ύ
ώ
а
б
в
г
д
е
ж
з
и
й
к
л
м
н
о
п
р
с
т
у
ф
х
ц
ч
ш
ъ
ы
ь
э
я
ё
і
ј
ּ
א
ב
ה
ו
י
ל
מ
ע
ר
ש
ת
آ
أ
إ
ا
ب
ة
ت
ث
ج
ح
خ
د
ذ
ر
ز
س
ش
ص
ط
ع
غ
ف
ق
ك
ل
م
ن
ه
و
ى
ي
َ
ُ
ِ
ّ
ْ
ک
ی
ܐ
ं
क
ग
ज
ण
त
द
न
प
ब
म
य
र
ल
व
श
ष
स
ह
ा
ि
ी
ु
े
ो
्
া
ก
ข
ฃ
ค
ฅ
ฆ
ง
จ
ฉ
ช
ซ
ฌ
ญ
ฎ
ฏ
ฐ
ฑ
ฒ
ณ
ด
ต
ถ
ท
ธ
น
บ
ป
ผ
ฝ
พ
ฟ
ภ
ม
ย
ร
ฤ
ล
ฦ
ว
ศ
ษ
ส
ห
ฬ
อ
ฮ
ฯ
ะ
ั
า
ำ
ิ
ี
ึ
ื
ุ
ู
ฺ
เ
แ
โ
ใ
ไ
ๅ
ๆ
็
่
้
๊
๋
์
ํ
๐
๑
๒
๓
๔
๕
๖
๗
๘
๙
ກ
ຄ
ງ
ຈ
ຊ
ດ
ທ
ນ
ປ
ພ
ມ
ຣ
ລ
ວ
ສ
ຫ
ອ
ະ
ັ
າ
ຳ
ິ
ີ
ື
ູ
ົ
ເ
່
້
་
င
စ
တ
န
မ
ရ
လ
သ
ာ
ိ
ု
ေ
း
်
ა
დ
ე
ზ
თ
ი
ლ
მ
ნ
ო
რ
ს
უ
ჷ
ჽ
ჿ
ក
គ
ង
ជ
ត
ទ
ន
ប
ព
ម
យ
រ
ល
វ
ស
អ
ា
ិ
ី
ុ
េ
ំ
័
្
ḥ
ṣ
ṭ
ạ
ả
ễ
ệ
ố
ỽ
ἀ
ῖ
–
—
‘
’
“
”
†
•
…
′
‹
›
€
℃
™
→
−
√
∞
≈
≠
≤
≥
⊕
⊙
█
▪
●
☆
♠
♣
♥
、
。
《
》
「
」
あ
い
う
え
お
か
が
き
く
け
こ
さ
し
じ
す
せ
た
ち
っ
つ
て
で
と
ど
な
に
の
は
へ
ま
み
め
も
や
よ
ら
り
る
れ
を
ん
ァ
ア
ィ
イ
ウ
ェ
エ
オ
カ
ガ
キ
ギ
ク
グ
ケ
コ
ゴ
サ
ザ
シ
ジ
ス
ズ
セ
タ
ダ
チ
ッ
ツ
テ
デ
ト
ド
ナ
ニ
ネ
ノ
ハ
バ
パ
ヒ
ビ
フ
ブ
プ
ベ
ボ
マ
ミ
ム
メ
モ
ャ
ュ
ョ
ラ
リ
ル
レ
ロ
ン
・
ー
一
七
三
上
下
不
世
东
中
主
之
九
事
二
五
京
人
仁
今
仙
代
仮
仲
会
伝
何
作
使
侯
保
信
傳
元
光
全
八
公
六
共
出
利
前
劉
動
化
北
区
十
千
华
南
原
县
叉
古
可
台
史
司
合
吉
同
名
后
君
吳
周
命
和
唐
嘉
四
园
国
國
園
土
地
城
場
士
夏
夜
夢
大
天
太
夫
奇
女
如
妃
娘
子
字
孝
学
孫
學
宇
安
宋
宗
定
宣
宮
家
寧
寺
将
將
小
少
山
島
川
州
工
市
帝
師
平
年
府
度
康
廣
建
式
张
張
後
御
徳
德
心
忠
思
怪
恭
情
惠
愛
慈
慶
懿
成
我
戦
戰
手
政
敬
文
新
方
族
日
昌
明
星
春
昭
是
時
景
書
曹
最
會
月
有
朝
木
本
朱
李
村
条
東
松
林
校
梁
楊
楚
橋
機
歌
正
武
死
殿
氏
民
水
永
汉
江
河
治
法
泰
洪
流
海
清
湖
源
漢
火
無
物
特
犬
玄
玉
王
理
生
田
界
白
百
的
皇
盛
相
省
真
知
石
社
祖
神
福
秀
秋
秦
空
立
章
節
紅
經
縣
羅
美
義
老
者
聖
胡
臣
自
興
舞
良
色
花
英
茶
華
葉
藏
藤
蘭
虎
行
西
見
親
記
語
貞
貴
赤
超
越
趙
路
車
軍
通
道
郎
郡
部
郭
都
鄭
里
重
野
金
鉄
長
門
間
阮
阳
阿
院
陳
陵
陽
隆
雄
雲
電
青
面
韓
音
順
顯
風
飛
香
馬
高
魏
魔
黃
黄
黒
龍
龙
가
경
고
공
구
국
군
기
김
나
남
다
대
도
동
라
리
무
문
민
박
비
사
서
선
성
세
소
수
스
시
신
씨
아
안
영
왕
요
우
원
윤
의
이
인
자
장
정
제
조
종
주
지
하
한
화
후
︎
！
（
）
，
．
：
～
￼
##ฟ
##อ
##ร
##์
##เ
##ม
##n
##u
##c
##a
##p
##ป
##็
##น
##ก
##า
##ล
##ง
##ะ
##ช
##ต
##ิ
##ห
##บ
##ื
##ไ
##่
##ใ
##้
##ท
##ศ
##แ
##จ
##ี
##ย
##ฝ
##ั
##ส
##ด
##ึ
##ถ
##ค
##ว
##พ
##ธ
##ข
##ุ
##ำ
##โ
##๊
##ษ
##ู
##ฐ
##ภ
##ฺ
##ณ
##l
##y
##t
##r
##e
##ซ
##ฉ
##ฑ
##8
##9
##5
##0
##ฏ
##4
##3
##ฮ
##ผ
##ญ
##2
##6
##s
##v
##ๆ
##ฎ
##7
##ฯ
##ฒ
##1
##d
##h
##o
##ฤ
##ฬ
##ó
##i
##g
##ή
##μ
##ο
##ς
##m
##k
##て
##こ
##れ
##か
##と
##も
##ฆ
##๋
##w
##b
##x
##á
##ฌ
##°
##z
##f
##q
##๒
##๕
##๙
##๓
##๐
##×
##®
##ê
##è
##ๅ
##γ
##α
##σ
##ά
##ω
##☆
##י
##ת
##ö
##๔
##๘
##ํ
##ō
##ー
##ド
##ン
##̍
##ē
##ρ
##υ
##ν
##๗
##ú
##à
##ò
##j
##л
##а
##г
##о
##ч
##е
##с
##т
##и
##я
##인
##レ
##é
##๑
##๖
##н
##в
##ຈ
##ົ
##້
##າ
##ຄ
##ຳ
##ສ
##ັ
##ນ
##す
##나
##아
##ा
##ह
##ッ
##ク
##マ
##エ
##グ
##æ
##η
##ܐ
##न
##त
##³
##ジ
##у
##д
##б
##к
##ו
##ô
##ケ
##ç
##ã
##ŋ
##ˈ
##ː
##ɪ
##ə
##ί
##ë
##े
##व
##ी
##í
##λ
##ε
##θ
##έ
##ι
##ð
##シ
##テ
##ฃ
##स
##्
##प
##ि
##종
##ц
##ǐ
##ě
##ア
##イ
##ダ
##キ
##ノ
##コ
##화
##м
##ш
##ī
##ā
##→
##は
##る
##ا
##ن
##ز
##ع
##و
##ロ
##パ
##ì
##य
##ं
##क
##ù
##ァ
##ナ
##ル
##フ
##タ
##ل
##ك
##م
##ي
##ة
##š
##τ
##²
##ツ
##َ
##ْ
##س
##د
##र
##म
##ُ
##ِ
##ی
##п
##성
##장
##군
##의
##ف
##ح
##ạ
##デ
##ィ
##ス
##사
##β
##р
##ラ
##ム
##왕
##후
##ち
##の
##く
##ı
##제
##자
##ü
##を
##ệ
##ы
##й
##ư
##ʰ
##ر
##ビ
##공
##℃
##ṭ
##ä
##￼
##ş
##ブ
##っ
##원
##đ
##ฦ
##ß
##မ
##ိ
##ု
##ရ
##်
##တ
##စ
##ǎ
##з
##ъ
##េ
##រ
##ី
##្
##ា
##オ
##ュ
##ל
##ả
##つ
##い
##ອ
##ງ
##ູ
##ჷ
##დ
##თ
##え
##리
##і
##ボ
##ø
##ニ
##ギ
##サ
##ï
##リ
##대
##ǔ
##メ
##́
##ど
##♥
##ج
##ј
##ق
##ب
##ま
##で
##ă
##ʊ
##ь
##ฅ
##ش
##ه
##ت
##ຣ
##ط
##ר
##î
##ი
##ნ
##민
##선
##수
##κ
##э
##ລ
##ວ
##다
##가
##씨
##≈
##â
##ɛ
##ū
##국
##주
##û
##ე
##ა
##ດ
##ີ
##ស
##ង
##អ
##ប
##ំ
##♣
##き
##영
##ズ
##도
##ទ
##ម
##ល
##ž
##£
##ु
##ग
##ន
##ត
##ក
##お
##ら
##な
##ミ
##ャ
##ん
##ज
##δ
##φ
##남
##구
##た
##វ
##័
##å
##김
##ע
##지
##−
##ύ
##ś
##︎
##ṣ
##ḥ
##យ
##±
##რ
##ლ
##ჿ
##ό
##χ
##ł
##ى
##ּ
##א
##π
##ჽ
##მ
##ო
##ć
##ာ
##ေ
##ण
##̤
##～
##じ
##う
##よ
##х
##া
##ະ
##요
##ố
##ल
##č
##ທ
##ິ
##ト
##™
##ガ
##プ
##ື
##ʃ
##ّ
##သ
##ý
##່
##ک
##ɔ
##ब
##ễ
##ェ
##ເ
##ウ
##무
##إ
##½
##ມ
##ຫ
##ກ
##ພ
##기
##ុ
##င
##း
##이
##ិ
##ñ
##カ
##គ
##ξ
##န
##ה
##라
##ψ
##あ
##し
##が
##さ
##أ
##경
##ф
##안
##ზ
##ປ
##غ
##へ
##한
##소
##ព
##ជ
##ώ
##လ
##고
##せ
##ῖ
##ს
##ो
##ョ
##ຊ
##세
##خ
##や
##조
##동
##ザ
##セ
##비
##ネ
##チ
##り
##מ
##ベ
##ב
##ذ
##ص
##스
##み
##ơ
##モ
##시
##द
##ж
##문
##신
##우
##≥
##ハ
##श
##ث
##ש
##하
##უ
##め
##√
##서
##バ
##ё
##정
##박
##ゴ
##≤
##آ
##ष
##ヒ
##け
##윤
##に
##ʔ
##ħ
##♠
##ỽ
##⊕
##÷
##µ
##€
##≠
##∞
##█
##●
##ἀ
##าร
##อง
##ี่
##ระ
##ที่
##่า
##การ
##ัน
##็น
##้า
##่อ
##ป็น
##ละ
##่ง
##ใน
##ับ
##ีย
##าย
##าก
##ด้
##าม
##ั้
##เป็น
##ของ
##ัง
##ือ
##าน
##ัก
##ได้
##ร์
##มี
##ื่อ
##คร
##ประ
##าง
##ิน
และ
##้น
##ให
##ว่า
##ั้ง
##รา
##เร
##อย
##่น
##มา
##หน
##่ว
##หล
##และ
##ริ
##เม
##เก
##อก
##เท
##ิด
##จาก
##ัด
##เล
##พระ
##ดย
##เด
##รร
##คว
##ึ่ง
##าว
##เข
##ู้
##อน
##ให้
##ติ
##กล
##กับ
##ม่
##ตร
##ภา
##่าง
##oc
##ู่
##อร์
##เพ
##ี้
##ความ
##ki
wi
##จะ
##ัว
##ไป
doc
wiki
##ึง
ใน
##รับ
##วิ
##ั้น
##าล
##เส
##ัย
##ทย
##รั
เป็น
##วย
##่อง
##นา
##เจ
##้อง
##ทาง
##ปี
##รง
##าส
##ูก
##นี้
25
##ต่
##อา
##ราช
##ุด
##อบ
##หม
##ลง
##วัน
##เทศ
##กัน
##ผู้
##่ม
##ทำ
##เว
##ิง
##ไม่
โดย
##ียน
##สม
##อยู่
##วง
##เน
##ri
##ิก
##ื่อง
##้อ
##เช
##้าน
##le
th
##ึ้น
##ชา
##คม
##ใช
##กร
##ตัว
##้าง
##it
ซึ่ง
##ขึ้น
##ษา
##ia
##ต่อ
##ึก
##อล
##ed
##รือ
##เป
##บบ
##ือง
##ใช้
##ย์
##ชน
##รรม
##นั้น
มี
##ออก
##โดย
##ลา
##ียง
##ตั้ง
##tt
##รก
##rl
##rg
##ด้วย
##ภาพ
##ps
cu
##rid
##ดี
htt
##edia
id
org
##ถึง
##วน
##คน
https
tit
##pedia
title
wikipedia
url
##ิต
curid
##ัญ
##เซ
##งาน
##ีก
##คล
##ห่ง
##ค์
##ิม
เม
##ี่ย
20
##่วน
##แล
##สำ
##ณะ
##าร์
##อย่าง
##โล
##ิล
##ธิ
##มาก
##ทั้ง
##นัก
##้ำ
##ทั
##รัฐ
##ประเทศ
##เอ
##รี
##เจ้า
##เมือง
19
##จำ
##ก็
##ตร์
ที่
##เต
##ชื่อ
##หาร
##เห
##สร
##สาม
##ต์
##แห่ง
ได้
##เบ
ประ
##ิส
##ส์
##ุน
##ณ์
##ุม
แต่
##อด
##กระ
##ถูก
##่าย
##ัต
##้ว
##สุด
##ครั้ง
##ัล
##เข้า
##แก
##ลัง
##าศ
การ
##หนึ่ง
##ยัง
##วันที่
##เมื่อ
##็จ
##ทร
##ดับ
##แบบ
##บุ
##ไทย
##ปร
##แส
##ดง
##สิ
พระ
##็ก
##ได้รับ
##วม
##โร
##บริ
##ารถ
##วัด
##นิ
##หา
เพ
##ศึก
##ือน
##เรียน
##ที
##ตาม
##ผล
##ชี
##่าน
หรือ
##ักษ
##บัน
##แรก
##พิ
##้าย
##ช่ว
##องค์
##กว่า
##สู
##ส่วน
##ปล
##่อน
##ุก
##ต่าง
##ันธ
##อม
##แต่
##แข
##เพื่อ
##ียว
##เกิด
##มน
##เขา
##ศาส
##สน
##ตุ
##ใหญ
##่วม
##สถ
##าท
##มิ
##จัก
##สร้าง
##จัด
##กำ
##ด์
##ในการ
##หน้า
##ิ่ม
##ชาติ
##ใจ
เมื่อ
##ต้อง
##าะ
##ดิ
##ัม
##คือ
##เค
##สามารถ
##ตำ
##น์
##ใหญ่
##ัติ
##ต้
##ว่าง
##ที่มี
##จุ
##00
##ุ่ม
##ุ่น
##เรื่อง
##ตะ
##เหล
##เรีย
##ายน
##er
##on
##กรรม
##ยา
##ีน
##รู
##ื่น
##แน
##ศึกษา
เข
##อีก
##แล้ว
##เย
##แสดง
##มห
##เคร
##นำ
##โลก
##ประก
##ชาว
##แต
##หว่าง
##่าว
##ื้น
##ื้อ
##ยุ
##ัส
##ธรรม
##้อม
##ดน
##ยน
##ูล
##สอง
##ต้น
##ังห
##หลัง
##พันธ
##แท
##รม
##ฤษ
##ฐาน
##ตรี
##ดู
##เภ
##คำ
##กา
##โอ
24
##ุง
##หลาย
##เศ
##ัจ
255
##เพลง
##หรือ
##เลือ
##ังหวัด
##เธ
##ญา
##ิจ
##หมาย
##โม
##an
##ในปี
##สุ
##พร
##จักร
##สง
##้อย
##แข่ง
##มีการ
##เดียว
##ังก
##ดา
##ทรง
##วก
##พระราช
##จึง
##สี
##าลัย
คือ
##ใต้
##สา
##ชาย
201
ปี
##in
##อุ
##พล
##เฉ
เช
##าวิ
##อัน
##ม้
##ัฒ
##ทยาลัย
##บาล
##ทธิ
10
##ทธ
##ขัน
##น้ำ
##ไว
##วิต
##ซึ่ง
##วรร
##ใหม่
##แก่
##ดิน
##โน
ของ
ประเทศ
##จน
##นวน
##หรับ
##ที่สุด
##พบ
##พื้น
##ัจจุ
##ศาสตร์
##แข่งขัน
##ัจจุบัน
##ช่วง
##้ง
##ด้าน
##ดำ
##พรร
##ปก
##ห์
##ซี
##ครอง
##รู้
##สห
##ณา
##ราย
คน
จาก
##สูง
##้อน
##โรง
##บท
##ทำให้
##ิว
##en
##เปล
##อำ
##ระหว่าง
##บน
##เด็จ
##ศ์
##ั่ง
##ชีวิต
##ยม
##สาร
##บล
##อยู่ใน
##าด
เจ
##เตอร์
##โก
##รูป
##อื่น
##or
##กลาง
##ี่ยว
##สถาน
##ยก
เช่น
##เริ่ม
##บ้าน
##ไฟ
##เลือก
##หลัก
##ภู
ผู้
เก
##ตก
##ี่ยน
##ตะวัน
##ar
##เอง
##ที่จะ
##วี
##ว์
##เล่น
##เหน
##ชม
##อส
##าวิทยาลัย
##at
##รวม
##รัก
##ูน
##ร่วม
##ปฏ
##ดัง
##ไว้
ทำ
##เธอ
##กลุ่ม
เพื่อ
##โต
##เวลา
##บอล
##ยนตร์
##มาณ
##หัว
##คุ
##al
##บาง
##หมด
##เสียง
##แหน
ในปี
##ส่ง
##แผ
##ากาศ
##แหน่ง
ต่อ
##กุ
##ทีม
##แพ
##ภาษา
##เมริ
เด
##เสีย
##ภาค
##กล่าว
##ั่น
##แทน
##้าร
##เปลี่ยน
200
หลัง
##ตน
##วงศ์
##ลาย
##มัน
##ลักษ
##นาด
##เครื่อง
##ราะ
##ญิง
จึง
##เหนือ
##จำนวน
##สมา
##วด
##อาจ
##ท์
##กี
18
##ติด
##ซ์
##ืน
##โด
##ตำแหน่ง
##กอง
##กลับ
##่อย
254
##วิทย
##จากการ
##เด็จพระ
##เดือน
##เห็น
##วา
##ยะ
ส่วน
##ธี
##เขต
##ุต
##อากาศ
##การณ์
##สมัย
##ยาย
##ตอน
##ิศ
##เง
##ณฑ
##ตา
##เหตุ
##นด์
##es
##อะ
##ทั่ว
##อิน
##คัญ
##รส
##หญิง
##ิ่ง
##เอก
##สัง
##แม
##เล็ก
##สำคัญ
##อเมริ
##แบ
##ุทธ
##้ม
##มีความ
##พระองค์
##ภาพยนตร์
คว
##ลูก
##ัท
##ภาย
##ชนะ
##ขนาด
##คณะ
##ก่อ
##โย
##ประกอบ
##ทุก
##ชิก
##็ม
##ังกฤษ
##ระดับ
##ล์
##ช่วย
##หลวง
##ลำ
##ได้รับการ
##เพียง
##บัติ
##จังหวัด
##เช่น
##นาย
##ผ่าน
##เปิด
ซึ่งเป็น
##ายุ
##ทัพ
##รถ
##กิจ
##ทะ
##สาย
##คราม
เน
##ชั้น
##จีน
##ทหาร
##รีย
##เดิน
##ป์
##เภอ
จน
##โซ
จะ
##ic
อย
##ตี
##ี่ป
##พัฒ
##เกี่ยว
##้วย
##ี่ปุ่น
##ฟ้า
##บาท
##โรงเรียน
##ากร
##แป
##สำหรับ
ระ
รวม
อา
##ชิ
##เขียน
##สัญ
##บรร
##เมื่อวันที่
##ระบบ
ภา
##เซีย
##็บ
##อกจาก
เอ
##นาง
ความ
##ประมาณ
15
##ทั้งหมด
ต่อมา
##นาม
ทำให้
##แต่ง
##ริง
##สิน
##วัล
##อัล
##เดิม
##จาร
##ปฏิ
นัก
##่วย
##พันธ์
เจ้า
##พื้นที่
##กำลัง
##ปัจจุบัน
##ิร์
##เท่า
##ภูมิ
##็ด
##อังกฤษ
##อิ
##ญี่ปุ่น
12
สม
##เทพ
##เกม
##สมเด็จพระ
##เป็นที่
##ธาน
##วจ
กล
##แลนด์
##ฬา
##คา
##โปร
##มาจาก
##ประช
##คาร
##โคร
##ion
##ละคร
##ษัท
##สงคราม
##เพิ่ม
ก็
##ุตบอล
##ก่อน
##ประชา
##ั้ม
##คิด
##แนว
##แรง
##เรือ
หม
##นน
##เวณ
##สัน
##ปกครอง
##เงิน
##พวก
##รอบ
##็ง
##ฝ่าย
##is
##วาง
##างวัล
##าช
##กรุง
##ไร
##ียม
เขา
##พาะ
##สิ่ง
##สัม
##ื่องจาก
##โบ
##สหรัฐ
##สมาชิก
##สิทธิ
##โทร
##ร้อง
##ถือ
##ประส
##เป็นผู้
##โท
ทั้ง
นอกจาก
##โค
##เฟ
##ไม้
##ทางการ
##ุษ
##สะ
##โอล
##จิ
11
##อาณา
เท
##มือ
##พุทธ
253
the
หลังจาก
##เชื่อ
##นาน
##ัฐ
##ในประเทศ
##บู
##โจ
ตั้ง
##เร็จ
วัน
##สู่
##จริง
##ทาน
##สัต
##ตั้งแต่
##เกล
##ฤดู
##ครั้งแรก
##คุณ
##เฉพาะ
##บิน
##ิลป
##ดาว
##ผลิต
16
จังหวัด
##ิมป
##เคย
สำ
##นคร
##ทัศ
##ขณะ
##คง
##ท้าย
##อฟ
##ประจำ
##ิมปิก
##ฟุตบอล
##ร้อน
##ศัก
##ตัด
##ค่า
##ื่อน
##เนิน
##แค
##คริส
##บั้ม
##แชม
##มหาวิทยาลัย
##เดียวกัน
ไม่
##ังส
##หว
##ทอง
##หน้าที่
##มาร
##พัฒนา
##ษฐ
##ิ่น
##คู่
เกิด
##ชนิด
##น้อย
##อันดับ
##เผ
##รั่ง
##อเมริกา
##ธาร
17
##ลักษณะ
##สาว
##ดูก
##ชุด
##ศรี
##เกิดขึ้น
##ากฏ
14
##ริญ
##โอลิมปิก
30
##as
##ตู
##ไม่มี
##กีฬา
##กรม
##สำเร็จ
##นิยม
13
อำ
##มุ
##ี้ย
##ไข
##เนื้อ
##เหม
##ลงาน
##ยู
คร
##ตะวันออก
เส
##ชิง
##เป็นการ
##ประกาศ
##ทำงาน
##้าม
##สัตว์
##มนตรี
##ไม่ได้
##ทัศน์
##เข้าร
##รั่งเศ
##พระเจ้า
##พ์
##เส้น
199
##าป
##การศึกษา
##อาหาร
##รั่งเศส
##ุ์
##สิ้น
000
##ยาว
ให
##พรรค
##จะมี
##ol
##บริเวณ
##การแข่งขัน
##เรียก
##ไม
##ชัน
##เคล
โรง
##us
##ขา
##รางวัล
##แม่
##ในช่วง
ปัจจุบัน
เล
มา
##วล
ตัว
##อาณาจักร
##ันท
โดยมี
##ข้าง
##ราบ
##ณี
##ซา
##ที่เป็น
ด้วย
23
##อนุ
นาย
หน
##ีย์
##om
##เมตร
##ข้อ
##บุรี
##พู
เร
##ค้า
##ศิลป
##ตรง
ถึง
##el
##รอง
##รัส
##บัญ
##จุด
##วรรษ
##พิม
##ทั่วไป
##ลอด
##แชมป์
##ัณฑ
##กรา
##ดำเนิน
##60
##ดีต
เซ
##้าว
##ต่อมา
##เชีย
##กุล
##กล้
ตาม
กับ
##เกี่ยวกับ
##ไล
##รายการ
จำ
##am
##ครั้งที่
##แดน
##ฝรั่งเศส
##นาจ
เห
##ังสือ
##ยุค
##ac
##สภา
##หนด
##โครง
##บรม
##ว่าเป็น
##อต
##ดิ์
##ชัย
ให้
##ผิด
##เนีย
##เศษ
##แบ่ง
##ไซ
##เหลือ
##่วง
##เฮ
แล
##ลอง
##เลือกตั้ง
##re
##พันธุ์
มห
##สอน
มิ
##ลิ
##โมสร
##เหล่า
##ใด
##แผ่น
##ซิ
แห่ง
##อร
ทาง
##แตก
##เกาะ
##ทะเล
##ิดา
##แปลง
##ตะวันตก
##อายุ
##เหมือน
##ปรากฏ
##อัลบั้ม
##นาคม
##กฎ
##สำนัก
ดัง
##เอา
เพราะ
##กรรมการ
##แยก
##ของเขา
##้อมูล
##ราว
##ตัน
##ยาน
##ูนย์
อย่าง
##ปัญ
##รัฐบาล
##ผลงาน
##ธิบ
##วัติ
##ให้กับ
##กลาย
##บี
##แดง
##โรค
##พิมพ์
##ทรวง
##เตร
##ียบ
##ดังกล่าว
##หย
##เวีย
##หนึ่งใน
##เรียกว่า
##ro
##อยู่ที่
##สู้
##บริษัท
สิง
##ขาย
##รักษา
##บริหาร
of
##แห่งชาติ
##ต่างๆ
##เดินทาง
##คุม
กัน
##โป
##พลัง
##รัช
ได้แก่
##อี
นอกจากนี้
ได้รับ
##ธารณ
##่น้ำ
21
##ช่อง
##ระยะ
##ของการ
##จะเป็น
##โทรทัศน์
##ุธ
##จับ
##อิส
สถ
##20
##รุ่น
##ป่า
##ลาด
##ทำการ
##เวล
บริ
##ท้อง
##ับสน
##กาย
##าคม
ตำ
##ี่ยม
พระองค์
##มัก
##ดนตรี
รัฐ
##รุ
##61
##สุดท้าย
วิ
##อำนาจ
##กาล
##et
##ทิศ
##หาคม
##เด็ก
เนื่องจาก
##ภัย
##เสน
##ตรา
##ที่ย
##เกล้า
##กัด
##บุตร
##ันธ์
##ษัต
##ษัตริ
ก่อน
##าศาส
##็อก
##ศาสนา
##หนังสือ
##รณ์
##ลาคม
##ุล
##ปฏิบัติ
เว
ครั้ง
ออก
##ชีพ
##มาย
##ฐานะ
##ษัตริย์
สา
##เภท
##ัพ
##ยาม
##ในวันที่
##ประเทศไทย
##ปลาย
##ข้อมูล
##วัฒ
##ริม
##ุษย์
##ตำบล
##พา
##คคล
##62
##ากล
##จิก
##ใบ
##รัฐมนตรี
##าศาสตร์
ราย
##มากกว่า
##ประวัติ
in
##หนัก
##และการ
##สังคม
##มหา
##เร็
##ั่ว
กระ
แล้ว
198
##ัช
##กองทัพ
##คริสต์
##รูปแบบ
##ing
##ัตร
##ลีก
##ลี
โรงเรียน
##ภาคม
เมือง
##ใกล้
##เดีย
##ถ่าย
##ไต
##ยายน
##เวอร์
เมื่อวันที่
252
##ฤดูร้อน
##เลข
##ดูกาล
##กำหนด
##il
อำเภอ
##แต่ละ
##ปรับ
##ul
##ท่า
##่อม
##ไปยัง
##วัง
##ฤษภาคม
##ภายใน
ภาย
##วิน
##ับสนุน
##ชอบ
##หมู่
##ด็จ
##รู้จัก
##ียร
##เศร
##าระ
##วร
22
##ิป
##ันวา
##ปิด
251
##บวน
##แผน
##กราคม
##ป้อง
##ษฎ
##ควบ
##อำเภอ
ตุ
##ันวาคม
และมี
##ครอบ
มหาวิทยาลัย
##ถิ่น
##ขน
##พิเศษ
ชื่อ
##เซล
สำหรับ
##ินี
##รวจ
##ตาย
เธ
##ษายน
##จัย
อง
##ทย์
##สัญญา
และเป็น
##เซอร์
##ยอด
##สนาม
##แมน
##โรป
##ุมภาพ
หล
##เข้าร่วม
##ุมภาพันธ์
##ซู
##สุข
##หาย
##ังกัด
##ไอ
##จัดการ
##ติน
##สนับสนุน
##ักษ์
##ที่ใช้
##ประธาน
##แฟ
##กว
##ออกมา
##ถุน
##ออกจาก
##ทั่ง
##ี้ยง
แม้
##ent
สุ
##เติ
##ศูนย์
##ou
สิงหาคม
##พร้อม
##วิชา
##ต่อไป
##วิธี
##ย้าย
##ประชาชน
##เชื้อ
##ก์
##หลังจาก
##63
##ยอม
ล้าน
##ถุนายน
##ร่าง
##บา
##เจน
##ลด
ทรง
##ฤศ
##จิกายน
##ch
##สถานี
##เพราะ
##บับ
##สอบ
##ฤศจิกายน
##ต้องการ
##เร็ว
##nd
##ักษร
##50
##แหล
##ท่าน
##มนุษย์
##พรรดิ
คณะ
เค
##ูป
ยัง
29
##บอก
##สื
##คอม
##ไฟฟ้า
##เข้ามา
##การ์
##บาทสมเด็จพระ
##หนึ่งของ
และได้
##ิโล
##แพร
##คะ
##แม่น้ำ
##หน่าย
##หน่วย
##บุคคล
##อีกครั้ง
##วิทยา
##ลักษณ์
##พอ
##ศัย
##ดำรง
สาม
##แอน
##ภาษ
##ประสบ
##นี
##ึด
##สั่ง
##โช
##ัคร
##หลี
##ราษฎ
##ทิ
##ัตถ
##กับการ
##แนน
##กรณ์
##เท่านั้น
##กลายเป็น
ตุลาคม
เป็นต้น
##นะ
##คล้าย
##ปลา
##ิริ
##ควบคุม
##id
##อุป
อัน
##เสียชีวิต
อีก
##ียร์
##รบ
##วรรษที่
##นต์
##เกษ
##จบ
st
##าบัน
##ราชการ
##บัง
##เต็ม
##อาศัย
##ารี
##ทั้งสอง
##ตลอด
##เชิง
กรก
##os
##จำหน่าย
##เคลื่อน
##แข็ง
##เลี้ยง
##พิธี
##รก็
กรกฎ
กรกฎาคม
##จิต
##กระทรวง
##มะ
##ใส
##70
##ถนน
##ามี
##สิทธิ์
พร
##ค้น
##ยุโรป
##เกิน
##เลือด
มีนาคม
##ศักดิ์
##สโมสร
##ปรา
##เกา
เพลง
##ขอ
##99
ระหว่าง
กันยายน
##าวะ
##68
##จอม
##64
##กระทั่ง
##นม
ที
##ษ์
##ตระ
##ัป
##ของประเทศ
##ราชวงศ์
พฤษภาคม
##ขาว
พระเจ้า
##อร์ด
##โอก
##แตกต่าง
##๊ก
##อป
##ธารณรัฐ
##อาร์
##ัธ
แม
ประก
##ชื่อว่า
##พ่อ
##วัย
##เสนอ
##แผ่นดิน
##ิโลเมตร
##ปกติ
##ิช
##ยิ่ง
##ทด
##เปอร์
##ออส
##ลิง
ใช
##แซ
##บริการ
##75
##ราชอาณาจักร
ผล
##คอน
##ตอบ
##ตัดสิน
##ไรก็
มกราคม
ธันวาคม
##ปาก
กุมภาพันธ์
##ศต
##ภิ
ch
##ลำดับ
##ร้อย
##สี่
##ธิการ
##78
##โพ
##สหรัฐอเมริกา
##ct
##ที่ไม่
##จนถึง
##สัมพันธ์
เมษายน
##เก็บ
##ประเภท
##ยายาม
##73
##ริ่ม
##ส่วนใหญ่
##เศรษฐ
##ของพระ
เริ่ม
##็ต
##ทรั
##โอลิมปิกฤดูร้อน
##71
##มอง
##72
##พี
##เอเชีย
##ชุม
##ad
กร
##าลี
##แจ
##ครัว
##กฎหมาย
##ห้อง
##ว่าการ
##ให้เป็น
##ป้องกัน
##ก่อตั้ง
เป็นนัก
##แพร่
##รียญ
##ฝั่ง
##แสง
##ตรวจ
##ation
28
มีการ
##กระจ
##พย
##็อง
วัด
##อาคาร
##ฝึก
##กะ
##แย
##สูตร
##79
##ราณ
##40
เธอ
##ที่น
##ประวัติศาสตร์
##คืน
##ยี
##พูด
##ต่อสู้
##เลีย
##ฉาย
##ือก
##อดีต
##มวย
##เลย
##วิทยาศาสตร์
##กูล
##ไท
##ม์
มิถุนายน
ในการ
จากนั้น
##ทุน
ใช้
พฤศจิกายน
##ก็ได้
##พยายาม
ตำบล
##คัด
คำ
##69
##แถ
##าะห์
##สวน
##เกาหลี
##ัธยม
ในช่วง
##สูงสุด
##65
##การปกครอง
##ข่าว
##48
ขณะ
##สล
100
##วิจัย
##ประชากร
##ศึกษ
##เก่า
##พัน
##th
บุ
##เคราะห์
##iv
##พยา
##ขยาย
##จันท
##พย์
##สื่อ
##เสด็จ
##อาการ
##โบราณ
##ธิบดี
##เกิล
##แพทย์
##ยังมี
##จร
##ธา
##ปัญหา
##ารา
##เนื่อง
##พี่
##เข้าไป
##เดอร์
##คโน
##รถไฟ
##ครู
##ธุ
##เอส
##ทัน
##ศตวรรษที่
จัด
##ร้าย
##สืบ
อัล
##ยึด
##ทร์
##ที่เกิดขึ้น
##em
##เอล
##ู้น
##ตนเอง
##หิน
##บุญ
##านี
##43
##10
##คโนโล
250
##ฤดูกาล
##45
##ขนาดใหญ่
##เปลี่ยนแปลง
##ผู้แทน
##โอรส
##เหตุการณ์
ไป
สามารถ
##ปริ
##ชื่อเสียง
##เฉียง
##บาย
##ตัวเอง
##านคร
โร
##มอ
ในวันที่
และการ
##ยนต์
##จัดตั้ง
##โอกาส
##ราษฎร
##ที่ได้
อย่างไรก็
##เหล่านี้
##นัด
##สาห
##ระเบ
##ิติ
##อาว
##ดวง
##คโนโลยี
##ต่ำ
##ัค
##จี
##พัก
อยู่
##วาย
##um
##ter
##ที่ถูก
##แพ้
##ต้าน
##ได
##ี่ยง
เมตร
##ียด
##กิน
##ไน
##สถาป
##วรรณ
##ig
##โครงการ
##ืช
##ทู
##เลิศ
##อ่อน
80
##ธิป
##ที่สุดใน
##ผสม
##ทุ
เหตุ
##จำนวนมาก
##รกิจ
##น้อง
##ริก
##เชื่อม
##ขณะที่
##พยาบาล
##พระชน
##สึก
พระราช
รวมทั้ง
##เชียง
##อักษร
##หมายถึง
##อยู่หัว
##คะแนน
##นิว
##มง
##เฉล
##อุด
##มาเป็น
กอง
วันที่
##สภาพ
##ยังคง
##ออกแบบ
เคร
##นธรรม
##สกุล
##12
เบ
##ra
##านุ
##บวนการ
##คับ
##ศาล
##าค
##30
ชาว
ภาพ
##ประตู
บาง
กลุ่ม
##กว้าง
##ประโย
##ริญญา
##ติก
##ขับ
##แม้
##ทึก
##เผย
##เจ้าอยู่หัว
##พระราชทาน
##วะ
##วิล
##ฉบับ
##42
##ทับ
##ชั่น
กำ
##สรร
##ออกไป
##รมัน
##ข้าม
##แก้
ซี
##49
##มัธยม
##เสริม
##คดี
##เจริญ
##ด้วยการ
##นับ
วง
##ปล่อย
##อาชีพ
ยู
##18
ประกอบ
##ชัด
##ซิง
##กรุงเทพ
##สถานที่
##มาน
พร้อม
##อื่นๆ
พรร
##โจม
สห
##การเมือง
##st
ถูก
##เอ็ม
##หาก
##ม่า
##ชน์
##แหล่ง
##ก่อสร้าง
##นู
##นายก
##อาร
พล
##จารย์
##ดอก
##มากขึ้น
ภาษา
##ในเดือน
##ธรรมชาติ
กรม
##เนิด
##ประชุม
##ไม่สามารถ
##เพื่อน
จำนวน
##od
##ot
##ภัณฑ
##คนที่
##เคียง
รวมถึง
##เที่ย
##เดียวกับ
##บันทึก
นิ
##เด่น
##มหานคร
##ล่า
##ธุรกิจ
##19
##อรมน
##กลับมา
##พาน
##ของผู้
##อินเดีย
##ตาร์
##เทคโนโลยี
##นว
##ล้อม
##ว่าจะ
##ดำรงตำแหน่ง
##ิญ
##เยอ
##สถาบัน
##ยุทธ
##ag
##สิง
##58
##ียรติ
for
##อัต
##ขุน
##13
##นก
##ขึ้นมา
##อค
##มิตร
##วีป
##ริน
##ความสำเร็จ
##ข้อง
##สต์
หมาย
##จักรพรรดิ
##ความเป็น
##เพศ
##ีบ
##โปรด
อาจ
##ได้เป็น
##าธิบดี
อุ
##พืช
##พฤ
##ตระกูล
##สังกัด
##ณฑล
##อรมนี
##แต่งตั้ง
##เนื่องจาก
##ไปด้วย
##แปล
##ขาด
##เซลล์
##ฤษฎ
##อย่างมาก
ดังนั้น
##ทธิ์
##เกษตร
##ภัณฑ์
##บูรณ์
##นี้เป็น
ทีม
##าก็
##ไหว
##แห
##ัตถุ
##กำเนิด
##ดูแล
บริษัท
##ประกอบด้วย
ซึ่งมี
##ขัด
##ออกอากาศ
##เปน
##ทำลาย
##นอก
##ุย
##เยี่ยม
##ูง
##รัสเซีย
##มร
##ความรู้
จัก
249
##ดอน
##เบิร์
##เป็นนัก
##ผู้แทนราษฎร
##ศา
##ทีมชาติ
##สมรส
##เบอร์
##ผู้น
##ค่าย
##ow
##บัญญ
##ฟิล
##งาม
##ดินแดน
##าราง
องค์
##เศรษฐกิจ
50
##53
##ดัน
##วัฒนธรรม
##ปริญญา
เรื่อง
##ออกเป็น
งาน
##op
##มวล
##รัง
##อเมริกัน
##ซิล
27
##52
##ไฮ
##ประโยชน์
##โฮ
##ร่
##ออสเตร
เดือน
##ครอบครัว
##กลง
##สิบ
##ใส่
##ขั้น
26
##ชาร์
##สมบัติ
##ิตย์
โดยเฉพาะ
##สวรร
##ควร
##เมื่อปี
แก
ตั้งแต่
##เกียรติ
##จะต้อง
##คณะกรรมการ
##ประสาท
##พระพุทธ
นำ
##แรกของ
##เกี่ยวข้อง
##ยศ
##ชร
##ภาวะ
เขต
##บรมราช
##อุต
##ยิง
##ในปัจจุบัน
##พวกเขา
##ดำเนินการ
##เยอรมัน
##สนใจ
##โดน
##บทบาท
##วบ
##59
##บัญญัติ
##เริ่มต้น
สมเด็จพระ
##ng
##าร์ก
##เทอร์
เดอะ
##ur
##ในประเทศไทย
##ัณฑิต
จักร
##สภาผู้แทนราษฎร
##เกต
อย่างไรก็ตาม
ขึ้น
##ไหล
##นำไป
##อิต
re
##ตำรวจ
แต่ก็
##พง
##โจมตี
กรุง
##80
เหตุการณ์
##ภายใต้
##ของพระองค์
##ร้าง
##ช่วยเหลือ
##เป็นทางการ
##บาด
กิโลเมตร
##ce
##ตาล
##ซาน
##เยาว
##ท้องถิ่น
##and
##ทธิพล
##จน์
##เยอรมนี
##ของเธอ
##นิก
##ตลาด
##ซึ่งเป็น
##มอบ
เป็นผู้
##จะถูก
เครื่อง
##ay
##แก้ว
##ที่มีความ
##ุณ
##สั้น
##อ้าง
##สาน
เข้า
##ด้วยกัน
##ตัวละคร
##ที่สำคัญ
##สำนักงาน
##เทียบ
##ผิว
##อีกด้วย
##พลังงาน
##หนี
##ในโอลิมปิกฤดูร้อน
หลังจากนั้น
##มิน
##อห์
##ทบ
##ปรุง
##ปืน
##่าร
##ืด
##ดาห์
##ครั้งนี้
##ออน
##คู
##ทรัพย์
มีความ
##เหล็ก
##ชนะเลิศ
##ปา
##ยาก
##โทษ
##เที่ยว
##ติดต่อ
##im
##ิบ
##ป่วย
##วรรดิ
##คำว่า
##เจ็บ
##พระบาทสมเด็จพระ
##ธง
##ีโอ
##89
##82
##กระจาย
แบ
##แอ
ไม
##สมัคร
##นวย
##ธาตุ
##ทวีป
##เกล้าเจ้าอยู่หัว
##ทน
##ลิน
##ย่อย
##แฮ
##ช์
##อยู่กับ
##ศพ
##มาตร
พวก
ถ้า
##ut
##บังคับ
##39
ว่า
เฮ
##ศิลปะ
##จา
##จันทร์
ตอน
##ในระดับ
##ได้รับความ
##ธิดา
31
##ทัย
##ใช่
##หัส
##ทศ
##พิจาร
##ในสมัย
อิน
##ฟอร์
##มั่น
##ชก
40
ด้าน
##เบิล
##74
สี
##ที่สอง
##เลย์
##ทราบ
ในเดือน
##ลึก
##มาะ
ลูก
##ประชาธิป
##มากมาย
##ดุ
อี
##รุน
##เรือน
อดีต
##เรา
##นำมา
##ราม
##เลิก
##หุ
##กุม
##ัปดาห์
##ทางด้าน
##ขนาดเล็ก
นา
##ดนาม
ราช
##ริย
##ยืน
##วิทยาลัย
น้ำ
##เบล
##ไตย
##ปะ
##วัตถุ
##ล่าง
##เลอร์
##ศักราช
##ตูน
##พม่า
##ฆ่า
##็ค
##ิค
##อยู
เรีย
##สงค์
##มากที่สุด
##้วน
##32
##เข้าสู่
จนกระทั่ง
##หนาว
##สาหกรรม
##เถ
##มหาส
se
##ต่างประเทศ
##บัญชา
##สมาคม
##ir
##76
##เกอร์
##เซ็น
##อิทธิพล
##และมี
##ดังนี้
ที่มี
##วิด
##กำกับ
ท่าน
##สมอง
นับ
##บัล
##วร์
##ซึ
พบ
##น่า
##สิก
##ต่อต้าน
##กษัตริย์
##เล่า
##ซื้อ
##พาก
##ชิงแชมป์
##อำนวย
##ได้แก่
##สเตอร์
##กรณี
##บำ
##รัม
##เครือ
##คาร์
##อห์น
##แน่น
##การใช้
##ลับ
##จง
ในขณะที่
##41
##เธอร์
##ธานี
##ใคร
and
##ศิ
เส้น
##ชั่ว
##un
##รุนแรง
สมา
##ขณะนั้น
##ูด
ลำ
##รอย
##แกรม
##คลุม
##และความ
##ers
##เสร
##เหรียญ
##มหาก
##ในฐานะ
##ศิลปิน
##เส้นทาง
##ล้าน
##ประสงค์
##ทำหน้าที่
##ชิ้น
##สาธารณรัฐ
##ที่อยู่
##ไปได้
โอ
##เชิญ
##บัณฑิต
สาย
##เสร็จ
##ไปถึง
##สุน
##สมบูรณ์
##อาท
##เอ็น
##วัส
##าบ
##อิตาลี
จำกัด
##ที่ดี
##มูล
al
##ระบุ
##ามา
##องค์กร
##ให้น
##สาท
##ซิงเกิล
##หัวหน้า
##พิษ
##55
##เรน
##88
##พระยา
##ภูมิภาค
##พระชนม์
##คัดเลือก
de
##ผ้า
##ง่าย
##กันใน
##ฤษฎี
##ap
นาง
##คลอง
##33
##เมน
##ยอมรับ
##บิดา
##อุดม
##ประสบความสำเร็จ
หาก
ชน
หมู่
##22
##ร่วมกับ
##เวียต
##เติม
##ลู
##การแสดง
##ผู้นำ
##จำเป็น
##ร่างกาย
##ตัดสินใจ
##จักรวรรดิ
ยก
##สูญ
เกิดเมื่อวันที่
##เหมาะ
##ื้อง
2554
##โดยการ
##หนัง
##อาทิตย์
##พิจารณา
##ไกล
##คอ
##โรมัน
##ตั้งอยู่
##เปิดตัว
##เดน
และยัง
สร้าง
##ตะวันออกเฉียง
##วิร์
##เป็นพระ
##อย่างเป็นทางการ
##นักงาน
##ซาก
##นักเรียน
##ดาร
##หนอง
##ลาว
##เทศบาล
##เช่นกัน
00
##ธิบาย
##ของตน
##ทอด
##ือบ
##11
##พบกับ
##พิว
##นูญ
br
เวลา
##พื้นฐาน
##่ำ
##แกน
##อุตสาหกรรม
##าชาติ
##โซเวียต
##est
##สากล
##เพิ่มขึ้น
##เรียง
รายชื่อ
##ได้ถูก
##กันว่า
##ของชาว
##โฟ
##ให้แก่
##กิ
##เป็นที่รู้จัก
##ให้เกิด
##นี้มี
หมายถึง
##สเต
จนถึง
##ญาณ
##ได้รับรางวัล
##ัพท์
##ตกลง
2012
##เสมอ
##ประทับ
##ห่าง
##เด็จพระราช
ภาพยนตร์
##จ่าย
2550
##ทางทิศ
##ญาต
##ลาม
##ใช้เป็น
##จึงได้
มัน
กี
##จำกัด
##สเปน
##เอฟ
##ทดลอง
##นาถ
##เวียดนาม
อาร์
##โครงสร้าง
##จด
เหตุการณ์ที่เกิดขึ้น
##ผน
##คว้น
##พิธ
##สด
##ธรรมนูญ
##นายกรัฐมนตรี
##ื่อย
##บดี
##เซน
##หลักฐาน
##เวน
##เหลือง
##โตะ
##มุม
##วิหาร
ร่วม
##กระแส
##ษก
##ฟู
##ทีวี
##ทา
##og
##ard
##ระเบิด
##โกะ
เป็นการ
##พิวเตอร์
##ารย์
##แท้
##ov
##ทั่วโลก
##วิจาร
##กรี
##ประกวด
##รอ
##อาจารย์
##ขวาง
##77
##ช้าง
##คริสต์ศตวรรษที่
และใน
##ลม
##ัมภ
##ต่อเนื่อง
##สัญลักษณ์
##จิตร
เปิด
##หลาก
##เลน
##สาขา
##เข้าใจ
##เอน
##ภาษาอังกฤษ
##กลม
นั้น
ครั้งที่
##29
##สึ
##อากาศยาน
##เพชร
##เป็นตัว
##วิจารณ์
60
เข้าร
##เบียน
รอบ
##ae
##44
##หยุด
##อฟริ
##โยบาย
##เพลิง
sh
##มหากษัตริย์
##ห้า
##66
##ไก
##ุฒ
##พบว่า
##เรื่องนี้
ระบบ
##จิน
##ได้อย่าง
##วิชาการ
##าลง
สถานี
##ศัพท์
##ิกส์
##บางส่วน
##คี
##ฆ์
2551
ได้รับการ
##สมาชิกสภาผู้แทนราษฎร
##หมายเลข
จึงได้
##เดอะ
##ฟ์
##ล้ม
##ส่วนหนึ่งของ
##อลเลย์
##จะได้
##เวิร์
##ab
##มารดา
##ไช
ประกอบด้วย
รูป
##ิกา
##มณฑล
ปลา
##ก็คือ
##วิทยุ
##ศูนย์กลาง
##เทน
##แอล
##อาวุธ
##ภายหลัง
##ไม่น
2016
##ขว
##ยกรรม
##เกมส์
2010
com
##ท่อง
##โมง
##ปฏิบัติการ
##ชุมชน
##ษฐาน
##มัธยมศึกษา
##ทางการเมือง
บ้าน
##เจอร์
##ไบ
##กระทำ
##อิง
##ิสต์
##เยาวชน
##แวด
##าร์ด
##แฟน
##อลเลย์บอล
##สมุ
##ฤดูหนาว
โซ
##กัม
##ปีที่
พรรค
##เนอร์
##อู
##ราก
##ยัน
2553
##51
##ัวร์
ขณะที่
##สหราชอาณาจักร
อะ
รุ่น
##ทาย
##รายงาน
##บก
##จู
##โลกครั้งที่
##หวัง
##เวท
##ครึ่ง
##เขียว
##ถ้า
ne
##ินส์
##นานาชาติ
##กง
##83
ตาราง
สโมสร
##ฮ์
##บุก
##หาง
##รีส์
##แพง
##ทำให้เกิด
โปร
##ถวาย
##ขึ้นเป็น
##เบีย
##เตรียม
##ปรับปรุง
##ลอ
##ขึ้นใน
##รี่
##คาด
บท
##คราว
ในประเทศ
##มาร์
##อยุธ
##ทิ้ง
##โคล
##สก
ก่อ
79
##ออฟ
##ph
##เครื่องบิน
##หาราช
##สหภาพ
##การที่
ชั้น
##นิท
##คต
##เคมี
##ทูต
##คอมพิวเตอร์
##รน
##ซ้อน
##กุฎ
##ไปใน
2014
##อลล
##ข่าย
##ิตย
##เห็นว่า
##ine
ตั้งอยู่
##สัญญาณ
##เหย
##สินค้า
##มุทร
เดิม
##เรียบ
##ณห
##ประธานาธิบดี
##67
หัว
##มอน
##ไว้ใน
##ฟา
##กระดูก
##โดด
##กระบวนการ
##เชียงใหม่
เจ้าชาย
##รัชกาล
##ันที่
##ชีว
อิ
##อฟริกา
##็กซ์
##ัตยกรรม
##ริส
##แค่
##อธิบาย
##ได้ใน
2549
##แตกต่างกัน
##พระนาม
##อาจจะ
ชนิด
2555
แพ
##ผู้เล่น
พิ
แต
##หะ
##หลากหลาย
##ุป
##คลื่น
##เป้า
รับ
##ข้าว
ถนน
##สัปดาห์
##ายัง
##วย์
##ยังไม่
##อล์
##แถบ
โค
##สงครามโลกครั้งที่
##ประหาร
##ปลูก
2008
ดี
##ค้นพบ
##หมู่บ้าน
##ประดิ
เป
##ประพันธ์
##เข้ม
##อัตรา
##เดี่ยว
##ที่ตั้ง
##เพื่อให้
##หัวใจ
##ความคิด
เข้าร่วม
##ประชาธิปไตย
สาธารณรัฐ
ไอ
##เอียด
##เจ้าชาย
##ศี
##ิร์ต
##ถม
##ที่เกิด
##แนะ
##ศว
##ิตยสาร
เหตุการณ์ที่เกิดขึ้นใน
to
##เน้น
เคย
2557
##หัน
##แด
##เรื่องราว
##จุล
##แย้ง
เจ้าหญิง
##สิ้นสุด
##านา
##ได้มีการ
##ula
##ครบ
##สวย
##สังหาร
ต้อง
อาท
##อำนวยการ
มัก
##ในยุค
##ไข่
ลิ
เขาได้
##ไพ
##บโต
##คณ
##กิจกรรม
##เหลี่ยม
##ละเอียด
##เมอร์
##กด
##ให้บริการ
##ท่องเที่ยว
คุณ
##กิจการ
an
##มักจะ
##โภ
รถ
##รัตน
##แวดล้อม
ดู
2018
##าชการ
##ตัวอย่าง
##แรกที่
##ang
##รวด
##พันธมิตร
##ประสิทธิ
##ยอดเยี่ยม
##ฟื้น
##เย็น
ห้อง
##บัญชาการ
##โข
##แคล
##เษก
##นักแสดง
สมัย
ดร
##แข่งขันกีฬา
##นาว
##การศึกษ
##โดยสาร
##การ์ตูน
##ักษณะ
กล่าว
con
##ภิเษก
##54
##แต่งงาน
##อยุธยา
เทศ
##อิสระ
##หลักสูตร
##องค์การ
โคร
##ของพระเจ้า
##โฆ
##ak
##ess
##ก็จะ
##สยาม
2560
##แกร
2561
##อร์ก
##เมีย
##วงการ
##ร่วมกัน
2552
##ชัดเจน
##ชู
##ได้มี
##คำสั่ง
##เฉลิม
2015
##เปลี่ยนชื่อ
form
##ากับ
##อันดับที่
##นอร์
2559
##28
##ได้ว่า
##ทั้งสิ้น
##ฟี
##eri
70
##ซ้าย
ดังนี้
##มณ์
##ธร
ภายหลัง
##เป็นคน
##เกล้าฯ
เซน
##แต่ว
##รัฐธรรมนูญ
##เลียน
##ต่อการ
สังกัด
##สูติ
##สมุทร
##มาตรฐาน
##นอง
##38
พุทธ
##ขอบ
##ถาม
##เสียหาย
##ุ่ง
##ที่ดิน
##แสดงโดย
##พฤติ
##ลุ
##ฟิลิป
##ัศ
##เป็นเจ้า
โม
##วิธีการ
##พายุ
##เติบโต
##ลอน
ถือ
##เว้น
##ยุติ
##หนา
##ว่าการกระทรวง
##เลื่อน
##พูชา
##ลังก์
##มติ
##กระทบ
อน
##ฝน
##ร้าน
##ชาวไทย
##โรงพยาบาล
##ไข้
##เวย์
##วาด
##90
##ทฤษฎี
##เหนือของ
##อนุญาต
##มุ่ง
##รอด
##ในเรื่อง
##เกร
##ฉาก
##ip
##ซิส
##ทุ่ง
##โอน
##สำรวจ
##มีชีวิต
##ใต้ของ
##สงฆ์
เมื่อปี
##กล่าวว่า
##ปริมาณ
ซู
##เวลาน
##มิส
##ปิ
##ปราสาท
ช่วง
##เกือบ
##วงศ์เธอ
##ใช้งาน
sp
โจ
##ย่อ
##เทียม
##ใช้ใน
##ปล้ำ
จากการ
##อ่าน
##สตรี
##นท์
แอน
##แห่งประเทศไทย
##ซิน
##ไปตาม
แบบ
##อะไร
##็อน
##หู
##ร่วมมือ
ปร
โดยใช้
2556
แม้ว่า
ทั้งนี้
2558
##กรุงเทพมหานคร
32
##ังก์
##รียบ
##ปลอด
##แนวคิด
บน
##านิ
##พร้อมกับ
un
##เข้าแข่งขัน
##ซัน
เฟ
##เวที
ได้มีการ
##ีน้ำ
##ราชย์
ตลอด
##ทศวรรษ
##มิวน
##ในเขต
##แอฟริกา
หลัก
##มส์
##47
##แก่น
ar
##บิ
##คัพ
##คว้า
##ความสัมพันธ์
##ฟัง
บาท
##ประทาน
##กู
##รัต
##อุปกรณ์
##ity
##ความสามารถ
2013
##ฮา
##สัญญ
##เหลว
##15
##เปรียบ
2562
##แคว้น
##จ์
##if
##เอาชนะ
ออกอากาศ
##วิก
##ปรึก
##ออสเตรเลีย
องศา
##ขนส่ง
อำเภ
##ขาวิ
##av
##ศร
##ne
อัลบั้ม
##ภาร
##ปร่าง
##เขาได้
##จะไม่
ภู
##ที่สามารถ
su
2011
##ตัวของ
##ซีรีส์
ตัวอย่าง
เหล
##เป็นครั้งแรก
##ม้า
##ปฏิก
##โส
##หมุน
สหรัฐ
ชนะ
##สังเกต
##ที่นั่ง
pro
##บัลลังก์
##วาร
##ิวัติ
##เว็บ
##ปราบ
##โดนี
##รวดเร็ว
##เดช
##เหมาะสม
##ist
##จ้าง
##และเป็น
##กล่าวถึง
##นาการ
##ค่อย
##รายได้
##ให้ความ
##มุข
##ี้ยว
##โกล
##ฤทธิ์
##ในเมือง
หลังจากที่
##โบสถ
##ค่อน
##ลก
##าศัย
##ive
##ั้ว
2017
##เกาหลีใต้
formula
พระบาทสมเด็จพระ
##ร้องเพลง
##เจ้าหญิง
##นั่ง
##แนะนำ
##อย่างยิ่ง
รอง
บริเวณ
##ทยาน
##บรา
##ปฏิวัติ
##าระดับ
##ell
##ปินส์
สง
##ซุ
ฤดูกาล
##ช่าง
##ีด
โดยการ
##ที่เมือง
##เกียว
##เหตุผล
##แห่งนี้
##คาม
##ไล่
ลักษณะ
##ของอ
ภาค
มหา
##กบ
##ยุก
##ที่เรียกว่า
##ิ้น
##ธ์
##ประสิทธิภาพ
##เรื่อย
##35
##วุฒ
##ของนัก
##หลง
##คุ้ม
##การค้า
มาก
be
นอกจากนั้น
##โดนีเซีย
##ชะ
จักรพรรดิ
##เสธ
##ิยม
##็อค
##ตีพิมพ์
##ติเมตร
##บูร
##ud
##บัว
##ที่มีการ
##สงบ
le
##สลาย
##ถัด
##ธน
##วาน
##หนุ่ม
##ทราย
##นโยบาย
##เสรี
##ที่ทำ
ส่ง
##วาล
##วิช
##มาถึง
##วกาศ
รางวัล
##ษฐ์
##เพาะ
##พยพ
##ว่ามี
##เสื้อ
##นาคาร
##เพล
ชุด
##โต้
##31
##ยังเป็น
##รักษ์
##ถัง
##81
##สร้างขึ้น
##เล่ม
##ที่ใหญ่
##รู้สึก
##ปลด
มาร์
กองทัพ
##เบื้อง
แส
##เดียน
เฉ
2006
##เมะ
##ไซต์
##เคลื่อนไหว
##ate
ทุก
สิ่ง
##igh
##ปลอดภัย
2548
##เปียน
##ฟิก
##ยาง
##ฮิ
##วิดีโอ
##ทะเบียน
##ทิน
##เต็ด
##คนิค
ไม่มี
##ชล
##ของรัฐ
##สีขาว
##จัดขึ้น
##พิส
##ห้าม
##บุร
ไทย
##พรรณ
##เผยแพร่
##ออ
พื้น
##เท้า
##ก็มี
##ฐม
##ที่ได้รับ
##56
##ตราย
##โดยใช้
##มัง
##กลับไป
##สามัญ
##ถือเป็น
##บาดเจ็บ
2009
##เสือ
##ด้วยความ
##แปร
##สำหรับการ
##เด็จพระราชินี
90
##ยิน
##รรยา
##แก้ไข
แผ
เต
เซนติเมตร
##นาดา
##ขวัญ
##46
##หน่วยงาน
##เซนต์
##ด้านการ
##ทุกคน
##็อป
##เลียม
##ณิช
##สิ่งที่
ปีก
รัก
กระทรวง
##ิปต์
##ใกล้เคียง
##เคน
##ทันที
##ดาน
เนื้อ
หม่อม
ภายใต้
##วบรวม
##พระราชวัง
อาทิ
##เสิร์ต
แปล
2007
##ราคา
##ริยา
ใบ
##โนะ
##มิว
กรุงเทพ
##ฮ่อง
##ซึ่งมี
##สาบ
แฟ
##เน็ต
##มหาสมุทร
##เชื่อว่า
##โดยเฉพาะ
##ฟัน
เพื่อให้
##จอมเกล้าเจ้าอยู่หัว
500
##สถาปัตยกรรม
##การสอน
##หลอด
##ที่มีชื่อเสียง
##te
##ไลน์
##ก้าว
##เธอร์แลนด์
##ส่งเสริม
##เชื้อสาย
##ซึม
##อิเล็ก
สมาชิก
##กษ์
เย
เป็นพระ
##คอย
##โปรแกรม
as
##ุส
##ฬาลง
##แต่วันที่
##เวียน
##คณิต
##เทิง
##ขัดแย้ง
หนึ่ง
##ผลให้
##อพยพ
##ไร้
##ต่อไปนี้
##เกี่ยวข้องกับ
##ค่อนข้าง
##57
##กิโลเมตร
##เดล
##เกส
##ภูเขา
##อลลาร์
ศาส
##ชิน
##แจ้ง
##สระ
##ณฑ์
##art
##ไนเต็ด
ช่อง
##ปฏิเสธ
มาร
##อนาค
ท่า
##คุก
ดำ
##อวกาศ
##สาธารณ
ชา
##บาร์
##ฮี
##เสี่ยง
##เล็กน้อย
##กรุ
##ภาพยนตร์เรื่อง
##สะพาน
##เนียม
รัฐบาล
ประมาณ
2547
##ิร์น
ดาว
##ที่พบ
##ชี้
##หอ
##บ้าง
##เลเซีย
##แสน
##ตราจารย์
โครง
##พน
##อุณห
##เอ็ด
##ทดสอบ
##จะใช้
##กัมพูชา
##การบิน
##สุขภาพ
ปรากฏ
##ไตร
##ัฟ
##หง
##ภพ
##เพิ่มเติม
##ขวา
##สนอง
##โปรดเกล้าฯ
กา
##ari
##รัชสมัย
อังกฤษ
##ลอนดอน
ฝ่าย
ศรี
##ตั้งแต่ปี
##สวรรค์
##ัทธิ
##าลา
##ศิล
##ob
##สีน้ำ
##ภรณ์
##พี่น้อง
โก
##แรม
##สัก
ก่อตั้ง
##ผู้ที่
##สื่อสาร
##โฆษ
##ุยส์
ปล
##92
##84
เท่า
##นิส
ลง
##พระนาง
##คัน
##กองกำลัง
##ตำนาน
##นิตยสาร
te
##ปาป
##นี้ได้
##แวร์
##ตรวจสอบ
เหรียญ
##ฝี
ระดับ
##ในเวลา
##ียิปต์
##รวมถึง
##กราน
##ชำ
นก
##85
เทศบาล
##เขาก็
##หม่อม
##เนื้อหา
##เป้าหมาย
##รายชื่อ
##เร็ง
##ฟิลิปปินส์
##อารมณ์
35
เข้าร่วมแข่งขันกีฬา
##ข้า
##ัฏ
##หาส
โดยที่
คำว่า
##สวรรคต
##ดิโอ
รายการ
ผ่าน
##ue
##ลำตัว
##ดก
ประตู
##ตุเกส
##บุรุษ
ระหว่างวันที่
##ใช้อ
##ัตรู
##รัน
##ล้าง
วิน
##วิส
##เฉลี่ย
##ใช้ในการ
##แร
อีกทั้ง
##ชาร์ต
##ีร์
##รูปร่าง
##หลักของ
##พรี
วิล
แซ
##นี้จะ
##ฉลอง
##ฤต
##ไปที่
##เผ่า
##we
##เชียน
##่ย
##ลดลง
##ทางหลวง
##คนหนึ่ง
##บางครั้ง
##โดยตรง
แสดง
##โดยไม่
##สีมา
ประธาน
##บ่อย
##ถอน
ใกล้
##สะด
##ในงาน
##ซับ
##กิ่ง
##อำเภ
##ตีน
##ืม
##บัตร
##ราชา
##ผู้มี
##อเร
##เต้น
##ขุนนาง
##ฝัง
##ั้งเดิม
##ระยะเวลา
##เมืองหลวง
สนาม
##จอร์
##หก
##สถานะ
##พระบรม
##ในขณะนั้น
##21
##รุ่ง
##ผิดชอบ
##ความรู้สึก
##เมิน
##all
แทน
##23
##สไต
##เป็นหนึ่งใน
##คอมมิวน
##ส่วนของ
##กลัว
บี
##รวบรวม
##อินโดนีเซีย
##ฬาลงกรณ์
##ในโอลิมปิก
##ให้มี
##สถิติ
cl
##ie
ดอก
##ษย์
คา
##เทคนิค
ผลงาน
##ชายฝั่ง
##ไชย
##ศิลป์
โบ
##กีฬ
##ในชื่อ
##ได้รับความนิยม
คล
##พ่าย
แบ่ง
##ผม
##ประถม
190
แฮ
##ปริญญาตรี
พุทธศักราช
เรือ
##สถาปนา
##สีแดง
##เนส
##โฉ
##พยากร
วี
##ที่รู้จัก
ต้น
##ไปแล้ว
2004
ศูนย์
2000
หน้า
วงศ์
##เมียร์
##แลก
นัด
ยุ
##าต
##ผู้หญิง
##ไหม
ภายใน
##ราน
##ถี
##เป็นสมาชิก
##การเลือกตั้ง
แต่ใน
อาคาร
##เท่ากับ
##ไม่เกิน
##พฤติกรรม
##ซีน
ละ
##ชาวอเมริกัน
##ซะ
##เฟอร์
##25
##ast
##หร
##ของวง
##ข์
เรียกว่า
##ant
##ออร์
##เคิล
##โชว์
##วิ่ง
##ในรูปแบบ
##แหลม
##อนาคต
##โตร
##โภค
##ี้ยน
แข
##อริ
##เจ้าหน้าที่
ดิ
##นี่
##้ามเนื้อ
##บรรจุ
ไร่
##36
##เยื่อ
##สร้างความ
##ไส
เกม
##ายนอก
สาขา
##สมรสกับ
##สนิท
##เมล
##ผู้ป่วย
##โพธิ
##ทัล
จุด
##ปฐม
##ian
##สิ้นพระชนม์
##โดยทั่วไป
##าจ
##ไต้
##ศัตรู
##เล่นใน
##คอมมิวนิสต์
##ว่าร
##วช
##คุณภาพ
##ขึ้นไป
##14
##แลน
sc
##ของตนเอง
##ติดตาม
##ระหว่างประเทศ
##วิลด์
##สาเหตุ
โท
##การทำงาน
##ให้เห็น
##โร่
##ที่อยู่ใน
สถาบัน
##เพณี
จี
##กำแพง
##ain
##ภาษาไทย
##คอนเสิร์ต
##พระนคร
##ช้า
##บันเทิง
##โปร์
ศิลป
รา
##ชาญ
แนว
ชี
##เรือง
##ขนาน
##เนเธอร์แลนด์
##่นั้น
##ย้ายไป
##ออสเตรีย
##ที่สูง
##ครองราชย์
ตรง
##ผลกระทบ
##เมนต์
##แขน
คู่
##รษ
##มีลักษณะ
##รัชกาลที่
##ชัก
##จนกระทั่ง
##พระบรมราช
##วิศว
##โปรตุเกส
##ผ่า
##ของโลก
##คิ
tr
##ลบ
##แต่อ
##เพื่อการ
##เชื่อมต่อ
เอก
##ทุกวัน
##รวมทั้ง
สถาน
##และผู้
##สภ
##ศรีอยุธยา
##อาหรับ
จิ
ฉบับ
##คอร์
##หลายคน
ผลิต
##ซิต
ประเภท
##ธารณะ
##บอน
##ชื่น
หลวง
##ลอย
39
##ฉัน
##ชวน
##ระบ
##มาก่อน
ร่วมกับ
##ดั้งเดิม
##ทยา
##เขตร
##ตรอน
##เจ้าน
##ดีย์
##ดุล
##ื่อม
##แบร์
##ชนิดหนึ่ง
##มงคล
##87
##24
##พิธภัณฑ์
##ร้อยละ
##ทายาท
##ประดับ
##ัดแปลง
##สอด
##ของคน
##ทางตอน
##ไม่นาน
##ักดิ์
##ace
เป็นบุตร
##าราม
ph
##สาธารณะ
##มั่นคง
##ที่เคย
##น้ำหนัก
##ขั้ว
##มาจากการ
##สันตะ
##พระราชบัญญัติ
##กันเป็น
ประจำ
##ในการแข่งขัน
แจ
##ction
##พงษ์
##ต้า
##สว
##ิจฉ
##แท้จริง
##ib
##ได้ดี
บรร
##เครือข่าย
##37
##ของความ
##ฝัน
##ปัก
ไว
##our
จอห์น
##แอร์
##ที่สาม
##ฏิ
##ก็ตาม
2019
##งบ
ต่อมาในปี
##แคนาดา
##บิล
##ผี
##โดร
##ทั้งคู่
##สถานการณ์
##มาแล้ว
##86
##เจ้าของ
##ly
##เรียนการสอน
จะมี
##กวน
##16
##สวม
เอฟ
##เรียนรู้
##มหาราช
##อาส
##พระมหากษัตริย์
##ดูด
หน่วย
##มายัง
##ารีส
##เชล
##โฆษณา
##นักร้อง
##๋ว
##ซ้ำ
##ปรึกษา
##สะสม
##ไพร
และได้รับ
##ack
##ัณ
##ลาน
##ตาก
##ัมภีร์
##อรี
2535
##เสาร์
##คนแรก
##ตะวันตกเฉียง
โดยเป็น
##หรือไม่
ข้อ
##ซอฟ
##ยอง
ก็ได้
##หลาน
##ซี่
##ภายนอก
##สป
##กบฏ
##แบน
##กี่
##34
##ที่เหลือ
##สโมสรฟุตบอล
##รินทร์
##ิริยา
##รุง
แม่
##เดนม
##กรด
##ทุม
##คโปร์
is
##้ล
##หลบ
##สันตะปาป
##อยู่อ
พร้อมกับ
##รงค์
##ในวัน
##ฬาลงกรณ์มหาวิทยาลัย
แค
##้วง
##น้ำมัน
เปล
##เบิร์ก
##โดยมี
##ตุ้น
##ซูเปอร์
##ปัจ
##ฮัน
##กลิ่น
##ry
##พระราชโอรส
am
##สต
อำเภอเมือง
##สูญเสีย
##ร็อก
##ผัส
ในสมัย
จบ
##วิเคราะห์
##วีเดน
##ที่ผ่าน
on
และในปี
##กล้อง
##ปีก
##หลายครั้ง
2539
##อาณ
##ราง
##ความผิด
##ยกเลิก
he
##ตัวแทน
มีชื่อ
โย
##ดื
##ดม
##เกี่ยวกับการ
##รับผิดชอบ
นคร
##รับรอง
##กัง
##ระหว่างการ
##ประเมิน
##17
##ใหม
##มี่
##ญญาณ
##สติ
##นักกีฬา
##อัง
##ไปเป็น
##ภารกิจ
##พ้น
##พาณิช
##อัส
45
##อัก
โฮ
##เกณฑ์
##ที่เขา
##ในพื้นที่
##ดึง
##๊ะ
2546
##วยอร์ก
##ย่อง
##อนด์
แต่อ
##ลด์
##อันตราย
##ดร
สงคราม
ไฟ
##เสนา
##เดนมาร์ก
##จำลอง
จุ
##อท
ex
##ชิด
##เสม
##อาณาเขต
##ong
##บาน
##ของตัวเอง
##ส่วนตัว
โดยได้
##ซิฟิก
##อียิปต์
##รัตน์
##ตี้
##เบิร์ต
##ประชาชาติ
องค์การ
##โปแลนด์
##วางแผน
##นิกาย
##ทองคำ
##อยาก
ก่อนที่จะ
##ในกลุ่ม
##เกิดการ
พระองค์เจ้า
##กรอบ
##ดาบ
ปีก่อน
##มู
##ก่อนหน้า
##ที่ทำให้
เกาะ
##เดินทางไป
##เอช
สาร
##ฤกษ์
##เวิร์ด
##พนม
##มหาด
##ในรอบ
##อยู่บน
##งะ
##บะ
2005
##นิวเคล
##เด็น
bl
แต่ไม่
##แทนที่
##คิว
##เรียกร
บุญ
##สะดวก
ติด
##ใต้ดิน
##สำคัญของ
ขนาด
##ณุ
##เข้ากับ
แปลว่า
สหรัฐอเมริกา
##ub
ภาษ
##พัง
##สนธิ
##ens
วิทยาลัย
##ในที่สุด
##ย่าง
2544
##ถึงความ
##ตูดิโอ
##ขบวน
##ภิก
##อิสลาม
ก่อนจะ
##ศักดิ์สิทธิ์
##ซาร์
##ษฐา
##ปัญญา
##ฟ่า
##ที่โรงเรียน
##เซียน
##มเห
##้อก
##ของกลุ่ม
เจ้าฟ้า
##ินทร์
pl
##านี้
##ผลิตภัณฑ์
คะ
พัน
##ากลาง
##รัชญา
##ศึกษาธิการ
##เหล่านั้น
##ที่ว่า
##กล้า
##ประสาน
##คือการ
##ยืนยัน
##ดาล
##ลิส
##อลลาร์สหรัฐ
##ไหน
##เหมือนกับ
กรุงเทพมหานคร
##ของนาย
##และได้
##ขาวิชา
ในปัจจุบัน
##ติดเชื้อ
2543
##กล้ามเนื้อ
##แพทย
ac
##ai
##สิ่งมีชีวิต
มะ
##ลงทุน
เอส
##เอกชน
ซึ่งจะ
##ตั้งชื่อ
##ในจังหวัด
##ok
##สุวรรณ
สำนักงาน
##านิคม
##อุณหภูมิ
##พูล
##ลัก
300
##กรุณา
##ิมะ
เดอ
##ปารีส
##ศาสน
##ญาติ
2542
##เธอก
##อว์
##ล่ม
##พรหม
##สหภาพโซเวียต
##บิด
##ให้การ
##ละครโทรทัศน์
##ภรรยา
##ยุบ
นิว
สะ
##สิ่งแวดล้อม
มิล
2545
109
##สีดำ
##มีส่วน
ในฐานะ
##บวก
แก้
นำแสดงโดย
##ปาง
##บัญชี
##เทว
##สว่าง
##ที่ได้รับการ
##ติดกับ
##ความหมาย
##ประเพณี
##ปู
##เวียง
##ถาน
##เขาส
##ิจฉัย
##ข้าร
##โดดเด่น
โรค
##เจดีย์
##ถู
แผ่น
##ุษย
##โลหะ
##คล้ายกับ
##มงกุฎ
##ิยาย
##เสบ
##per
##นุม
##ต้นไม้
##เว็บไซต์
##เทียน
ฟุตบอล
นาที
##มิล
##ในแต่ละ
##uc
##คาท
##กระตุ้น
##ฟื้นฟู
มีลักษณะ
##เปิดเผย
##ฮ่องกง
##ริช
##พอใจ
นั่น
##ไปทาง
##คติ
##ดัดแปลง
##คนเดียว
##บัด
33
##รังสี
##ห่างจาก
##บุคล
##วางจำหน่าย
##ถ่ายทอด
##นวณ
##เทียบกับ
##ment
##ไม่ใช่
##สัมผัส
เป็นนักแสดง
##ข้อความ
##เป็นเวลา
##เก็ต
2540
##มาเลเซีย
##ชาน
##ไม่ให้
##ราชบัลลังก์
เขียน
##pt
พระนาง
##ขุด
##ดื่ม
##ดี้
##บวช
##็กซิ
##ชิต
หลาย
##ในด้าน
##ธนาคาร
##นอน
##มีผู้
##ประการ
##เห็นได้
เรา
##มรดก
##ากา
##อายุได้
##ight
##ามิ
##สมเด็จพระเจ้า
##les
##โว
##ิ้ล
##ิจิ
##อัคร
##ผูก
##รรถ
##ความจริง
##คาบ
ถึงแม้
##ดะ
##และนัก
##ิตติ
##ราชสีมา
ตะ
##อาย
##เครื่องยนต์
##์ม
##สวยงาม
##ของมัน
##สตาร์
เป็นเมือง
##ass
##ทรงพระ
##แชมเปียน
##มัส
##มเหสี
##อดุล
จีน
##ตุลาคม
##ริด
##นาร
##นั่น
เสียง
ชั่ว
##อนุม
คาร์
##รักษ
##ure
##สงครามโลกครั้งที่สอง
##แปซิฟิก
##ill
##อลิก
##สถานีโทรทัศน์
##ก็ยัง
##ของมนุษย์
##ทัพบ
##เคลื่อนที่
##มาตั้งแต่
##ษุ
##เอกราช
##ไว้ว่า
##ปรากฏตัว
##27
##ของพวกเขา
##เจ็ด
##ิฟ
##ในตอน
##ไวรัส
##หนังสือพิมพ์
##แห้ง
##ชัยชนะ
##เขตร้อน
พื้นที่
##การผลิต
##เป็นฝ่าย
เป็นภาพยนตร์
##ตอบสนอง
กลับ
##เปีย
##อย่างดี
##เบิลยู
ชิน
##รหัส
##เอกสาร
##ประดิษฐ์
ทะ
##ฝีมือ
##คนอื่น
หนังสือ
fr
##ติดต่อกับ
##ีกา
78
เหม
##โกร
##ทักษ
##ord
##ถือว่า
##ฟรี
##นั้นมี
นอกจากนี้ยัง
##one
##กว้างขวาง
##ยกย่อง
col
##จำเป็นต้อง
##งค์
##อย่างรวดเร็ว
##ศิษย์
##เมียร์ลีก
##คณิตศาสตร์
##แทรก
##แรงงาน
##ชุมนุม
99
##ถี่
##จุลจอมเกล้าเจ้าอยู่หัว
##นัย
##ภาพของ
##แก๊
##เข้าไปใน
##ยึดครอง
##หุ้น
##ท้อน
##ักดี
##แม่เหล็ก
##เกินไป
##ในอดีต
โล
##หัก
##ทัวร์
##พรรดิน
##ปฏิรูป
##ศิริ
##วิญญาณ
##คุณสมบัติ
##นั้นเป็น
##เชอร์
49
##เฝ
ตารางกิโลเมตร
##ศล
ประเทศไทย
##อาณานิคม
##act
สัต
##ort
##ธิราช
##โบสถ์
##จม
##ดิว
ซา
##ซอน
ลี
##แช
##อุทยาน
##อุดมศึกษา
และความ
##หวัน
##กำจัด
##ชั่วคราว
##เข้ารับ
##อว
สโมสรฟุตบอล
##ในระบบ
##ational
กิ
##วินิจฉัย
##ของรัฐบาล
##ต่อจาก
นี้
##โห
คณะกรรมการ
##งบประมาณ
พี
มีผู้
##คำนวณ
เอ็ม
##ลฯ
ทั้งสอง
##โตเกียว
##รถยนต์
##บรมวงศ์เธอ
inter
##เป็นอันดับ
เนื่อง
##โค้ง
##บราซิล
##ฟิน
##26
##เปิล
มาจาก
##ไปจาก
##การศึกษาระดับ
##มิได้
พอ
ไท
##ในทาง
##ลัทธิ
##สวีเดน
##ที่สร้าง
ทอง
##ประกัน
และเมื่อ
##ทัพบก
จู
##เชี่ยว
##ฮัม
##ประสูติ
##พื้นเมือง
##หมู่เกาะ
##บรรดา
##รภ
##บรรยาย
##ลล์
ma
##พาณิชย์
ฯลฯ
##ตอม
##ราเอล
##ฟอร์ด
wo
##ปุ
เช่นเดียวกับ
##สรรค์
sy
##เผา
##ทาร
##ภูมิพล
##รด
##ท่าอากาศยาน
##สแต
##โหล
##ิโอ
##ความเร็ว
##องค์ประกอบ
สัง
##ตาราง
แต่ละ
##ทรอน
2002
##ที่มา
##เช่นนี้
##นิติ
##หนาแน่น
##รณ
##ถ่ายภาพ
##ขั้นตอน
##ชายของ
ประเทศญี่ปุ่น
ล้านบาท
ตลอดจน
##เป็นอย่างมาก
##พระชนม
พรรษา
##ไปสู่
bo
##จอห์น
##จัน
อักษร
##พนักงาน
##ขอน
##ประสบการณ์
en
##นิวยอร์ก
##บทความ
##บทอด
##เรียกร้อง
แม่น้ำ
##ังก์ชัน
##ยับ
##ระเบียบ
##หาด
สกุล
##ในภาค
##คัมภีร์
##อีกหลาย
##ปกป้อง
me
สยาม
##เจ้าพระยา
##อัด
##เวิลด์
ซึ่งได้
##รำ
##มีนาคม
##าวา
##ราชสมบัติ
เสด็จ
##นรี
##อดุลย
##มีย
ชาย
##แพร่หลาย
##กลา
##ความร้อน
##เศร้า
ชั่วโมง
##จอ
##ระบอบ
##ฮิต
##าวร
##ซับซ้อน
หมู่บ้าน
พระองค์ทรง
##ภายใต้การ
##na
##เป็นจำนวนมาก
##โนม
##ดาวเคราะห์
##ไม่อ
##ที่กำลัง
##ลำดับที่
##หมื่น
##เมริเดียน
##เดอ
##ทอ
##อกับ
##หลุยส์
##sh
##ชิงชนะเลิศ
##แปลก
##ในรายการ
##ก็เป็น
การแข่งขัน
##ธนบุรี
##ครอบคลุม
##วิวัฒ
##พ่ายแพ้
วอลเลย์บอล
##ปั้น
##ลงเล่น
##คาทอลิก
##ูจน์
##กอ
แต่ง
ธง
##การจัด
##เป็นรูป
##สรุป
##ระหว่างวันที่
##มกราคม
##ทักษ์
##แรกใน
##ที่สุดของ
##แต่งเพลง
##นิธิ
##บอกว่า
##ปัจจัย
##ฟิส
1980
##ทั้งหลาย
1990
##ิร์ล
โช
##วาส
##ภูมิพลอดุลย
##ยาส
##ังการ
##บูชา
##บรรพ
##รัฐสภา
##แปด
เป็นหนึ่งใน
##แบ่งเป็น
##โระ
กีฬา
##ทรี
##กรีก
##ซัส
##ถ่ายทำ
##๋ง
##ตะวันออกเฉียงใต้
##ในบริเวณ
##พจน์
##ฆาต
##บริโภค
##ศาสตร
##ธรรมดา
##โน้ม
เด็ก
##บริหารส่วน
##จะมีการ
##คมนาคม
##แนล
##ก๊ก
พ่อ
59
##ขาธิการ
##เกีย
##คลัง
##เขมร
##ผู้คน
##ศก
##ect
ค่า
##วอลเลย์บอล
##ติดตั้ง
อันดับ
2538
##แค้น
##ารุ
##ไห
##างค์
##ฮาร์
##โขทัย
##นิษฐาน
##เตะ
##แขวง
##่งดัง
##ก็ถูก
##อภิเษก
##ous
##นักศึกษา
ด้วยการ
##รองรับ
##เอาไว้
##แร่
##ต่อสู้กับ
##พลาด
##เวช
คริส
ส่วนใหญ่
##เชี่ยวชาญ
##ไม่กี่
##เจอ
##็กซิโก
##ary
##น้อยกว่า
##ซิม
##พฤษภาคม
##วิถี
##รีบ
##บำรุง
##ดารา
##ทางช่อง
##กันยายน
##แน่
##ory
##อย่างต่อเนื่อง
##็ญ
##เทอร์เน็ต
##บอร์ด
##และพระ
ที่เป็น
##ราษฎร์
##ภิกษุ
แต่เมื่อ
ระยะ
##แอนด์
##หุ่น
##ans
##สละ
ปรา
##ธันวาคม
##มัด
##ชายแดน
##ตะวันออกของ
##เจร
##ัทธ
##การสร้าง
เอ็น
##สลับ
##ราชสำนัก
##หลังจากที่
##อร์ต
ยกเว้น
##หนึ่งที่
##ครั้งแรกใน
##นัน
##าซ
##ลงมา
##ให้มีการ
##สืบทอด
##สหประชาชาติ
##ภาษี
รัช
##ความเชื่อ
##ขึ้นอยู่กับ
##เข้าถึง
##ตกแต่ง
##พิสูจน์
##ป้าย
##สิงคโปร์
ได
##ญ้า
เล่ม
##สุดท้ายของ
##เวอร์พูล
##หลังจากนั้น
##สตูดิโอ
##วรรณกรรม
##ต่างกัน
##เหมือนกัน
##ระยะทาง
##คริสต์ทศวรรษ
นอก
2003
สน
สาว
##ที่สุดในโลก
##ไซด์
##สวัส
##มวยปล้ำ
กม
##วัตร
##ามาก
##ดิส
##เทา
you
##อร์แลนด์
##ความรัก
##เซิล
##ท้า
##นาค
##อุบัติ
อันเป็น
##นำไปสู่
พวกเขา
##เมษายน
##ค้าน
##รรศ
##รุก
##เบา
##เสา
##เปลือก
##มีพระ
##ของท่าน
##พิทักษ์
##สีเหลือง
##สีเขียว
##โอลิมปิกฤดูร้อนครั้งที่
##ยิว
1992
75
##เสื่อม
##ไม่เคย
ไฮ
##วิศวกรรม
##ยุกต์
##มหาดไทย
##เขตการปกครอง
สัญ
ซิง
##เซฟ
##แฮม
##ลาก
##ลงไป
##ปวด
##หวาน
##เก่าแก่
##ical
##คริสต
##กึ่ง
##เป็นเมือง
1996
##ตรงข้าม
##เวศ
##ิ้ง
ครอบ
##สะท้อน
##แบ่งออกเป็น
##เนียง
##ที่น่า
##ต่ำกว่า
บางครั้ง
##รษะ
##บางอย่าง
##ประท
##ทำได้
##เตน
##อยู่อาศัย
##นีย์
##ori
สอง
##เตือน
wh
##qu
##ภักดี
##รุกราน
or
ลู
##ปรัชญา
##ิณ
##กุมาร
##ial
##มิถุนายน
##พรีเมียร์ลีก
##ไส้
mus
##เป็นที่ตั้ง
ไซ
รู
##แอบ
##ach
ต่าง
##เครื่องมือ
##oh
##มิวสิก
โน
##โซล
##แอต
##มวลชน
##ซ่อน
##ดั้ม
##ถึงการ
นักแสดง
##โรห์
##เก้า
##ปรากฏใน
##สัย
##ice
##เซอร์แลนด์
##ทรัพย์สิน
##วัสดุ
ออส
##รับรู้
##หลุม
##พงศ์
ล้านคน
##เทศกาล
2020
##ครี
อนุ
##หลอดเลือด
##เป็นส่วนหนึ่งของ
##ิสถาน
##ถูกต้อง
##ลิข
##เพลงที่
นายก
34
##ปูน
##ทางเพศ
##ทำนอง
เข้าร่วมแข่งขันกีฬาโอลิมปิกฤดูร้อนครั้งที่
##มารี
##เจาะ
##ลีย์
##าส์
##end
โด
##วัยวะ
##คาย
##จักรวาล
โต
##ถ้วย
##านั้น
##พิพิธภัณฑ์
##แคบ
##กรีซ
##หร่าน
ซึ่งทำให้
##เบน
ad
##ของไทย
##ath
##aw
##เนื้อที่
##เมริเดียนที่
##รกี
##พัด
ประกาศ
##สลิม
ละคร
ตั้งแต่ปี
##เช่นเดียวกับ
##โด่งดัง
##ศรีธรรม
42
##สวิต
##ยุทธ์
และผู้
##เทือก
ศาล
##าที
ช่วย
สิริ
##มามี
##ff
ได้มี
##คู่กับ
##คอล
##ศึกษาต่อ
แขวง
##กติ
##กุน
##ล้อ
อาจหมายถึง
##ลายเป็น
##อาศัยอยู่ใน
##ประถมศึกษา
สัตว์
##ปาล
##ชื่อดัง
##ธรรมศาสตร์
##ของตัว
##อาวาส
##ควิ
##ที่ไม่มี
##เร่ง
##ให้ผู้
##ขอนแก่น
##พฤศจิกายน
##มาด
ปัญ
##ครรภ
##ได้สำเร็จ
##เยียม
##ซ่า
##เอเชียน
##ได้เข้า
##จิตใจ
##ได้ถึง
##ประมวล
##แผ่
##ชื่อของ
##เล็กซาน
อยู่ใน
##ถัดมา
ไร
##เนียน
##ตั้งใจ
##ใกล้ชิด
##เสก
##ฮั่น
##iz
800
เรียก
##บาส
##ถัมภ
##ราชธานี
โครงการ
ขุน
##ใช้จ่าย
##ป้อม
##คล้อง
2541
บุตร
##รับประทาน
##ดวงอาทิตย์
##ริยะ
##สมเด็จพระราชินี
##ที่ต้อง
##ของบริษัท
##เลกุล
ยาว
##มิติ
##แพทยศาสตร์
คะแนน
##ver
48
##ถาวร
##สมัยใหม่
##ตะวันออกเฉียงเหนือ
กฎ
##เลส
ญี่ปุ่น
##ge
36
##ัมพันธ์
##ายก
##เตียน
##ทรัพยากร
##แน่นอน
##เลี่ยง
##บาก
##ซุน
##เป็นต้น
##อาน
##ถอด
##รายละเอียด
##ich
##งคล
##ลส์
##ชิญ
##ขัง
2531
##ลัย
##รีย์
##ของญี่ปุ่น
##จากโรงเรียน
##โรมา
##iss
##ตั้งแต่วันที่
##สุโขทัย
##รู้ว่า
##ปัส
##ยื่น
##หน้าน
##ค้นหา
##ซิตี
และมีการ
##อร์น
##เกิดจาก
เสีย
##อิสราเอล
wwe
##พัฒน
2537
##อนุมัติ
##ลิก
##ฝูง
##วงดนตรี
##ศีรษะ
##ของจังหวัด
และต่อมา
##ทางเศรษฐกิจ
##ม่วง
##ริต
##เลือกตั้งสมาชิกสภาผู้แทนราษฎร
##ครรภ์
##ใย
##เชสเตอร์
##สาธารณสุข
##ถูกล
##ขลา
##พระราชพิธี
##ปฏิกิริยา
##ชาวอังกฤษ
##พระพุทธรูป
สำนัก
คอน
เทพ
##จนถึงปัจจุบัน
หญิง
##เซต
##ล้มเหลว
##ของเมือง
##รรมา
##สิงหาคม
##ที่มาจาก
##ah
##ได้ประกาศ
##สองคน
pri
ยังมี
##ถัมภ์
##ก๊
##เคาร
##พนธ์
##กรกฎ
##คลาส
##โยง
สูง
##ชญ
##ชาวบ้าน
ธรรม
##เกราะ
##ik
##อยด์
co
##อินเตอร์
##ข้าราชการ
##เคียงกับ
##se
##มาร่วม
เพียง
##สไตน์
##ดยอด
##ทูล
##คลึง
ยอด
##น่าน
##เม็กซิโก
##นิยาย
##อาจมี
##สันตะปาปา
##บันดาล
##ถือว่าเป็น
มิส
##ห้วย
##แง
##สรรพ
##จดหมาย
##ตื่น
##ส่วนมาก
##คิดว่า
และถูก
##แสดงใน
กำกับ
##แฝ
##อนุรักษ์
##ตินา
##ผู้โดยสาร
##รีน
##ุกร์
##ี๋
##ขาน
##หอม
##ตำหนัก
##ลอบ
##จัดอันดับ
##คาส
##อาด
##ปู่
##เป็นที่นิยม
##ส้ม
ตั้งอยู่ที่
##เบส
150
วิธี
##กรกฎาคม
##ลี่
ยา
##เกะ
##ช่วยให้
##หุ้ม
##ังการี
##งา
##สงสัย
##เต็มที่
##ือด
##สมุด
ตำแหน่ง
38
หลักสูตร
##ละลาย
sch
##ลงใน
##rld
##ก่อให้เกิด
##ond
##ดิต
##สุทธิ์
##โยธ
##อัลบั้มชุด
##นำเสนอ
##พระพุทธศาสนา
เกิดวันที่
ตัวอย่างเช่น
##ปาน
##กัส
##93
##เลง
52
##อินเทอร์เน็ต
มน
แท
##โรงงาน
##แบค
##ock
##ยังได้
##ศรีธรรมราช
โป
##กรณ
##เกิดความ
##เอกลักษณ์
##พรรคการเมือง
##ผ่านการ
##ถิ่นฐาน
##ล่าสุด
##ัข
##นครราชสีมา
##ide
##ฟิสิกส์
##ยากาศ
##ในฤดูกาล
##orm
##ศาสตราจารย์
##ครอบครอง
##มืด
pr
##ัตย์
53
##จัง
##io
##ปทุม
##ย่าน
##คบ
##โคน
##ืบ
##91
แรง
##อลล์
##อย่างหนึ่ง
เป็นที่
ฟุต
##โหม
ปลาย
55
##ที่ประเทศ
##ฉายา
##คุ้มครอง
อีกด้วย
##วิวัฒนาการ
##ตลก
##ลงนาม
##แผ่นดินหมายเลข
##กาน
44
##ทาส
##ec
หลังจากการ
##โทรศัพท์
##แถว
ครู
##เตอร์เทน
##ish
ปฏิ
##ward
##หนู
##ถอย
##ซอ
เหมือน
##กุมภาพันธ์
##ครีบ
2534
อัต
##จรร
กรรม
##หมู
แต่มี
##เข้าชิง
และสามารถ
##เอะ
##อล์ฟ
##เฝ้า
##ของระบบ
##นี้คือ
##เปลี่ยนชื่อเป็น
##ึ้ง
##อาศัยอยู่
##อุบล
ใกล้เคียงกับ
##ดอลลาร์สหรัฐ
##โรม
##มิด
##นวนิยาย
##โปรตีน
รับบท
##ประจ
##อตแลนด์
##ปรี
##ส่วนหนึ่ง
แชม
##รถไฟฟ้า
สมาคม
สัน
##กวี
##ความปลอดภัย
400
##ในหลาย
รูปแบบ
##ังหวะ
##วัฒน์
##วุฒิส
อู
##หลาด
สวน
##ทางสังคม
##นิยาม
##คล้ายคลึง
##ไต้หวัน
##ถ้ำ
##สันติ
##สายพันธุ์
ยูไนเต็ด
ที่เมือง
##อย่างน้อย
หนึ่งใน
##าวิหาร
world
โดยทั่วไป
##อลิ
โรงพยาบาล
ดวง
##ความต้องการ
##่อยู่
##โซน
1998
##ฮิน
##เข้าร่วมการแข่งขัน
##แหวน
##อภิ
##ว่าจะเป็น
##จัดทำ
##กอน
##บร
##ิกาย
2001
##ฝึกสอน
นิ้ว
##กวม
##ตกาล
##เผชิญ
##นิวเคลียร์
##ุกรรม
แอ
##นิน
##ิฟอร์
##ลวด
##พระเกียรติ
##พิพาก
##ศิลา
##มวยสากล
##ivers
##็ส
ทหาร
##ใช้เวลา
##ดอร์
##ert
##ศาจ
ฮิ
##ยักษ์
##ในนาม
##ฟังก์ชัน
##ล้วน
##เป็นของ
##ขึ้นโดย
ประสูติ
##พรรดินี
##เช้า
##แก่อ
##อัม
##ไอร์แลนด์
##ทำร้าย
##รัฐประหาร
##สนุก
ในประเทศไทย
##ทุกปี
##ปราการ
##แผนการ
##idae
โดยจะ
##ก็ไม่
##ผนัง
##สีน้ำตาล
##ไทร
##ชั้นมัธยมศึกษา
เทศบาลตำบล
ทั้งหมด
##ทะเลสาบ
วาง
##อะตอม
อดี
##ดาร์
##รรณ
##ทีเรีย
##ใช้น
##ไว้ที่
##ตรงกับ
##เชส
##แว
##เสนอชื่อ
##ในภาษา
##เป็นหลัก
อุป
##กาก
##พระโอรส
การใช้
พระบรมราช
##ost
##เซิน
##หิต
##มาใช้
##เลขาธิการ
##ถูกจับ
##กี้
ในตอน
##ทิศทาง
##ริยยศ
##แกรนด์
สุด
##สเป
##ขึ้นในปี
##มุสลิม
##ประดิษฐาน
กำหนด
และได้รับการ
##ผ่านทาง
##ศีล
##แลกเปลี่ยน
กุ
##ของพวก
##เบลเยียม
##ประเด็น
##กรอง
##อาจเป็น
##บรรด
##ตช์
##98
##ยาวนาน
##เหยื่อ
##แคน
ราชวงศ์
##บูร์
##ถา
##ดังต่อไปนี้
##ove
##ร่วมงาน
##age
##อ่าว
##เฉิน
##ายา
อาหาร
##เหรียญทอง
ลา
##ราชภ
ฟิล
##าศักดิ์
##ความว่า
##จากประเทศ
##ดาษ
##นิสัย
##มาตรา
##สั่งให้
##แกร่ง
##ผิดปกติ
##อิหร่าน
##ปราม
##กรุงศรีอยุธยา
##ประท้วง
##ประยุกต์
##อักเสบ
ชาร์
##เทวี
##เข็ม
##ต์แวร์
##หายไป
1960
##ระหว่างปี
##ิฟอร์เนีย
##ในที่
##ลิขสิทธิ์
##โกส
##หาวิทยาลัย
##หลายอย่าง
##บางคน
##ุข
##เขายัง
##สรณ์
##สถานีรถไฟ
41
จุฬาลงกรณ์มหาวิทยาลัย
##amp
##ของแต่ละ
2536
##ประหลาด
43
##โอง
##ไกร
##แมลง
อายุ
##ที่แตกต่างกัน
##ออกฉาย
##ก่อการ
fl
##ชีส์
##เป็นแบบ
##ประมุข
##อี้
##พิก
##หล่อ
##ดาวน์
##เวลาส
เป็นการแข่งขัน
##นาซี
จึงทำให้
##ของโรงเรียน
##ผัน
##ซาเบ
##จาน
ข้อมูล
ดิน
##กู้
##ดน้ำ
##กลางเมือง
##อัญ
##ของกองทัพ
man
##เพียงพอ
##ลุง
##ตามที่
##รับบท
##ตัวเป็น
##เพลย์
ตน
##วาท
##พิน
##คว้าแชมป์
##95
##ys
##ในตำแหน่ง
##ปีชีส์
##นส์
##ase
กษัตริย์
ต่อมาได้
##โนมัติ
##มล
##ug
อย่างไรก็ดี
##เมล็ด
นอกจากนี้ยังมี
new
##เขามี
##จะได้รับ
รี
บู
##ผู้ใหญ่
##ric
##ขบวนการ
##วี่
##ผู้ใช้
##จึงมี
##กรุณาโปรดเกล้าฯ
##เคารพ
หัวหน้า
##เครื่องหมาย
##ริยาภรณ์
##ในระยะ
##ของมหาวิทยาลัย
มีบุตร
##โมเลกุล
##ore
##แถลง
##สัญญากับ
##ไค
##อ้างอิง
##ได้จาก
##ทั้งสาม
##คำถาม
##พรรษา
2533
##ต้ม
##เซียม
##สาวของ
##ust
##รองชนะเลิศ
##นวิหาร
##พะ
##ละติน
##ชั้นสูง
1988
##ทรอนิกส์
##เบก
##แปลว่า
##ปี่
180
ครั้น
##บำบัด
จันท
##เบต
ด้วยความ
##ตะวันตกของ
##ดาราศาสตร์
##ขนม
ro
##้ย
##ย่า
##อเรีย
##กอก
##ตอง
อาร
##ซาม
##ต่างชาติ
##จาค
คิด
๒๕
##โอะ
บุคคล
##เมต
##ชิล
##๋า
##อรี่
ทางหลวง
พระพุทธ
1999
กีฬ
##สัช
##ตามลำดับ
comp
##จะสามารถ
##พระทัย
##็ป
##เคยเป็น
##ทั่วประเทศ
##เปลี่ยนเป็น
##บรรยากาศ
##นี้ว่า
##เยือน
##ให้นัก
##อบรม
at
บาร์
##ปน
##นตรี
##ark
##นับถือ
ในที่สุด
##มังกร
##ละครเรื่อง
##ยุติธรรม
##เวลานั้น
##หลาบ
##สมควร
##หลักการ
##สิงห์
##อ้างว่า
##กาง
##ศรั
##ำลัง
##บูล
##เรส
##อยัง
##หญ้า
##หลบหนี
##สบ
##ที่บ้าน
##เพน
##94
##สวิตเซอร์แลนด์
##จรา
##สนม
##ปลดปล่อย
##ระบาด
##ทรา
##จืด
##กำกวม
##มณี
##เพียงแค่
##ปรากฏการณ์
##บ่ง
##ท่อ
##เพ็ญ
ในทาง
##กันอย่าง
##เชื้อเพลิง
##็อต
##อิสริยยศ
##ก้าน
##ที่ยัง
##พัฒนาการ
##ความยาว
##เธอได้
##อุบัติเหตุ
##ผา
##สูงกว่า
สำเร็จ
##ชนบท
เขายัง
##เครียด
คอม
##ชายา
##สำคัญในการ
##สกี
##สนธิสัญญา
##โมน
##กุศล
##็ท
##หัด
##ธยา
##ออกเสียง
รวมไปถึง
##โจว
##จาง
##ในทวีป
##จอด
##แสดงความ
##ยน้ำ
##บันดาลใจ
เพื่อน
จอม
##มาส
##สังเคราะห์
univers
##บาร
##เสถ
##อีสาน
##อัตโนมัติ
##96
##ไขมัน
คริ
##ในสหรัฐอเมริกา
##เยซู
โดยเฉพาะอย่างยิ่ง
##พาย
##ซัม
##ของฝ่าย
##คริสตกาล
##แตกต่างจาก
##สัมพันธ์กับ
##หลีก
มหาชน
37
##ll
##อนุภาค
##เป็นภาษา
ตรงกับ
พระยา
เชียง
##ประกอบไปด้วย
##นอร์เวย์
##ทำประตู
##ผลัก
##กลางของ
##ดำเนินงาน
##บอย
##เรต
##ทธา
ประจำปี
แต่ว่า
##ื่อนไข
##พูน
##ผู้ชม
##โลกรัม
##รอน
เป็นเพลง
วา
นักร้อง
##เม็ด
ร้อย
##ลุก
ถือเป็น
##กังวล
##ดย์
##nt
##กันดี
1984
##ii
##นักบุญ
##ได้รับเลือก
ยุทธ
##จะทำให้
##คลิน
##โรงแรม
##ล่วง
##วัต
เพิ่ม
##ออนไลน์
##เจีย
##วงกลม
##ะนั้น
อาณา
##อัย
ตามลำดับ
##นัดที่
##อนุญาตให้
##แนก
##ชาวจีน
พี่
##ย้อน
##ซ่อม
##เป็นอาหาร
##โองการ
##ตึก
##ราชภัฏ
##สันหลัง
##งู
##ความถี่
มีผลงาน
##การต่อสู้
ดำรง
##เสถียร
##ได้ด้วย
เง
##คนไข้
เกร
โพ
##ตัวไป
##ที่ต้องการ
##แกะ
##มาก็
ชื่อเล่น
การ์
##จารึก
##ิเม
##การทำ
##ตอนปลาย
##จอร์จ
##กซ์
##man
##ขอให้
##แอตแลน
##ประชาธิปัตย์
##ในโอลิมปิกฤดูหนาว
##เออร์
##พลเรือน
##แชมเปียนส์
ap
##เนื้อเรื่อง
##มวยไทย
คิม
##ด่าน
ซึ่งใน
##ทุกอย่าง
##เรียบร้อย
ขอ
##ยี่
##าสม
ทะเล
##ัทร
##ช่วงเวลา
##ระบุว่า
##โพล
2563
##ก้าวหน้า
อาจารย์
##ฝุ่น
##ตัวอักษร
car
ไล
##ve
##ที่มหาวิทยาลัย
##yp
##จราจร
##มด
##ช่อ
##หอย
##วดี
##ประจำปี
สิ
##กลอง
##บริสุทธิ์
พง
##ปลายปี
##สลัก
นับเป็น
##ร่อง
##มีผลงาน
##ทรงเป็น
##เดียม
##สุร
##พื้นผิว
##ร์รี่
go
##ซีแลนด์
เบล
##คาร์บอน
##สิต
##เทือกเขา
no
เอา
##ทริก
##ศุกร์
##หนี้
##หลายแห่ง
##ance
จะต้อง
##ผู้เป็น
##ภาคใต้
จอร์
##บวร์
##อิสริยาภรณ์
2519
##ความกำกวม
##ีก็
##แต่งงานกับ
##พิพากษา
สหราชอาณาจักร
##พากย์
ชิ
##ail
##ชาติน
##สังฆ
##up
##ขี้
##ผสาน
##ปฏิส
##จังหวะ
##ักษา
##วุฒิ
##ตอบรับ
##่อย่าง
รัฐมนตรี
##ทีมชาติไทย
##เวลานาน
##ลือ
##สร้างสรรค์
##อิรัก
120
##อวัยวะ
##ลาส
##ใดๆ
##ได้โดย
##ริเริ่ม
ชู
##อนิ
สัปดาห์
แมน
##ทยาศาสตร์
##ฐานะเป็น
##ฝา
##bo
##ผลิ
85
โดยใน
##รัชทายาท
##ทางทหาร
##ไม่มีการ
##ออกมาจาก
##วัยรุ่น
##ปริญญาโท
แหล
##ยูไนเต็ด
##สำเนียง
##มูลค่า
อำเภอบ
ท่าอากาศยาน
##ทั้งใน
##ไทยแลนด์
วิก
แสง
##สามารถใช้
##มารับ
##เข้ารอบ
##สุดา
##หลายชนิด
สมเด็จพระราชินี
แก้ความกำกวม
##พรม
##พระที่นั่ง
##ลาออกจาก
##พื้นดิน
##ได้นำ
##สัญชาติ
1970
กำลัง
และใช้
##ค่าใช้จ่าย
##cl
##และถูก
ประชา
##สังคมนิยม
##ดอกไม้
##แต่งตั้งเป็น
72
##วรวงศ์เธอ
##เมื่อเดือน
##ไหม้
##สอดคล้อง
ท้อง
##ด้า
##ยง
##ัตน
##เสมือน
##az
##บูรณะ
##กันและ
##ดับเบิลยู
##แต่นั้น
##ากิ
##แซม
ผู้น
##นี้ถูก
##ใหญ่ของ
สุข
ab
##ence
##พัฒน์
อยุ
##มรดกโลก
##็อบ
##ว้าง
##รัมย์
62
##มาได้
##บริหารส่วนตำบล
##กัก
##ที่แสดง
##เสพ
##ชาวญี่ปุ่น
ตั้งอยู่ใน
สมเด็จพระเจ้า
##การพัฒนา
##สนเทศ
##สุล
##เนียร์
##กรุงเทพฯ
##ย้ายมา
##ธิปไตย
##ผัก
##ทุกข์
##ปราบปราม
##ในอนาคต
##ไม่เป็น
##โคจร
1994
it
##ิกซ์
##สัตว์เลี้ยง
บา
##มอร์
##เขน
##ทางเดิน
##จัดการแข่งขัน
โปรด
##อุ่น
##เนชัน
ชัย
ปาก
##กัล
##แรงบันดาลใจ
##สุนทร
my
##เสริ
##ุค
##ต่าน
##อย่างหนัก
##แก๊ส
##ในกรุง
##เงื่อนไข
##มีความหมาย
2532
ก่อนที่
##ใกล้กับ
แพ้
##หมอ
cor
##97
##ปะทะ
เป็นชื่อ
##เล่นให้กับ
##ตุรกี
1997
ในการแข่งขัน
##การ์ด
##ในสงคราม
อยุธยา
2527
ประวัติ
##ล็อก
##ซอง
มีพื้นที่
##วน์
##ชั่วโมง
##ยีน
##ron
##กระสุน
##รัฐมนตรีว่าการกระทรวง
##ในเวลาต่อมา
##ดจ์
##แสวง
##บริจาค
##นามว่า
##ชิงแชมป์โลก
##อเมริกาเหนือ
2529
##เธอก็
love
##ามหาวิทยาลัย
คัน
นาม
##เฮนรี
##ขีด
##แข็งแรง
##กระจก
##ขึ้นครองราชย์
อาการ
##พันปี
##พระชนมายุ
##ale
##ื้อน
เหล่า
##มีความสามารถ
##มะเร็ง
สุน
##ตั
พลเอก
##ามัย
95
##เอียง
##ยั้ง
##สร้างเป็น
##เอ็ดเวิร์ด
ได้ถูก
##๊ป
##หัสบดี
ศึก
intern
##หมวด
##ภาษาส
##วอ
##ชนนี
##สามี
##แห่งหนึ่ง
##คณะรัฐมนตรี
##สำเร็จราชการ
2518
##วิชาชีพ
ส่งผลให้
##อิเล็กทรอนิกส์
กิโลกรัม
นี่
##ผ่อน
##แข็งแกร่ง
##ตับ
##กันดั้ม
มิว
##ลัน
##านต์
##ข้างเคียง
##โพธิ์
ดยุก
##การบริหาร
##ทรีย์
2530
เริ่มต้น
##ทิว
##จญ
##มากนัก
im
##ที่ทรง
##ปีศาจ
65
##ค้าง
##ในวงการ
##ท่วม
##ของอังกฤษ
##เปิดสอน
##อิม
2523
น้อง
##ลุ่ม
##มีชื่อเสียง
##กุมารี
##ซอฟต์แวร์
##ทักษะ
##ทริ
##ตั้งอยู่ใน
ภูมิ
##ให้ได้
##ทางกาย
##เพิ่ง
เปลี่ยน
##ram
แต่การ
##อู่
##ิดล
##พี่ชาย
##ขับไล่
##แขก
##การะ
##เยาว์
##เรย์
##ตัวผู้
ปริ
##กุฎราช
##สวามี
##ฮะ
##หลอก
##บาต
##เอเชียนเกมส์
##โยธิน
47
##ัตสึ
สถาป
##ภิบาล
##เดียวกันกับ
##ประหารชีวิต
ชุม
เชื่อ
##คาน
##แบคทีเรีย
##สภาวะ
##ในสังกัด
##ขึ้นเมื่อ
ประช
##อนุชา
##แคลิฟอร์เนีย
we
คุ
##สำรอง
การศึกษา
ศาสตราจารย์
51
ed
##แห่งความ
##พันธุกรรม
##บวร
##ระลึก
โดยเริ่ม
##คุย
##ท่าเรือ
##สุนัข
##อัตราการ
##ฟุตบอลโลก
##ดัม
##สิริ
##เหง
##พิตร
##หมัด
##กาญ
##แผนก
พลัง
มณฑล
ทั้งคู่
##นัดดา
##ณุโลก
##ในรัฐ
award
##นึก
##ตามมา
##หายใจ
##ยืม
##นิ้ว
##สี่เหลี่ยม
##เชษฐา
##จันทน์
ไมล์
##วุฒิสภา
##หัตถ
##ในวงศ์
##สันนิษฐาน
##คิม
##พระราชินี
##ทศวรรษที่
ซิงเกิล
##ในโลก
##ของประชาชน
##โต๊ะ
##ฮอล
##ดยุก
ผู้เป็น
##พระราชดำเนิน
และจะ
##โมะ
พัฒ
และทรง
##โลหิต
##ใบไม้
##วัตถุประสงค์
##รุ่งเรือง
สิ้น
##ซาเบธ
##จัดงาน
และให้
##ข้น
##หน้านั้น
##นิเวศ
##มหาวิหาร
##สหพันธ์
เส้นเมริเดียนที่
dis
โดยมีการ
##เกมอน
##บพิตร
##ชื้น
##ับถือ
##วงจร
##ที่วัด
##ตอนต้น
##ทหารบก
##ไฮโดร
##สวด
##ามารถ
##รวมตัว
##สู้รบ
##ออสการ์
##ที่ชื่อ
##เกิดจากการ
เป็นนักฟุตบอล
##สัด
##สู่วง
##ตู้
##ตัม
และพระ
รู้
##ที่เขียน
ซึ่งต่อมา
##เศรษฐศาสตร์
##ในยุโรป
##มน้ำ
##ลายู
##มองเห็น
วัฒ
##ซอล
##ในตัว
##ความมั่นคง
240
ฝรั่งเศส
##เปรียบเทียบ
คู
##ern
##ก่อนที่จะ
##มุมมอง
##ทารก
cent
##ผ่
##อุส
กิจ
##เจมส์
บิดา
##โก้
2522
##แมตช์
แผน
##ite
##กองทัพบก
##น้ำตาล
กก
##เพื่อเป็น
##โรมาเนีย
แยก
##ที่ไม่ได้
##กลายมาเป็น
##รวมกัน
สภา
##ดิบ
71
##อังคาร
วิทยา
##ของดาว
##และไม่
##ภาษณ์
##ครั้งนั้น
##เจ้าร
##สุริย
##สิ้นสุดลง
ราว
##โศก
##ความจำ
ในอดีต
##พระบาทสมเด็จพระจุลจอมเกล้าเจ้าอยู่หัว
##ขั้วโลก
##ที่นิยม
##เกษตรศาสตร์
##ฟต์
##ได้ออก
##มุน
##หลังจากการ
##ัศวิน
เท่านั้น
โดยให้
##yl
ทิศ
##ว่ายน้ำ
##้อยกว่า
##ส่วนท้องถิ่น
##แม่น
##ครั้งแรกในปี
##เณ
##ซีเรีย
ตั้งแต่วันที่
##ข้อตกลง
##ere
##บางชนิด
##ของพระนาง
ซูเปอร์
##อำเภอเมือง
##เถียง
##ใช้ชื่อ
##เภสัช
##เวลส์
##olog
ตัน
##ire
##สัมพันธมิตร
##ประชาส
##ื้อย
##ความขัดแย้ง
##เช่า
##ใช้ชีวิต
##จำแนก
##แวน
##เทิล
##เลอ
##ไมโคร
##บ่อยครั้ง
##ฬิกา
##เกิ้ล
##เจ้าเมือง
##ในแนว
##เวอร์ชัน
##เสด็จสวรรคต
1991
ดำเนิน
ศิลปิน
##ัญญ
##เกษตรกรรม
##มอบหมาย
##ธงชาติ
##เซโล
##องค์ที่
จึงมี
ซึ่งเป็นการ
##นครศรีธรรมราช
แป
##ากลับ
##กั้น
ในเวลา
##เชื่อมโยง
##ไปจนถึง
ในงาน
##เอกซ์
เอช
##ยิ่งขึ้น
##นเร
##ต้อน
สมรส
##สัตว์ป่า
##ไก่
##อิเล็กตรอน
##เทิร์น
ในยุค
##ทางศาสนา
พระราชทาน
##ด้านหน้า
##เสริฐ
##ในพระ
กำกับโดย
##คิง
##อาชญ
##เท่ากัน
##จอมพล
##เชียงราย
##ผืน
##ทางอากาศ
##หรือการ
ผู้เล่น
ในระหว่าง
##็อล
##แผล
##ด่วน
##ควัน
##ดำริ
54
##ลี้
##แอม
##หลังการ
##ธรรมเนียม
##เพลงนี้
##กำหนดให้
qu
##าร์ค
##ดิวเซอร์
ชม
##ทางรถไฟ
##แท่น
ind
##เอ็นเอ
ชีวิต
64
##อดี
600
sm
##หม้อ
เกี่ยว
ปา
##วส์
##ปฏิทิน
gen
##านนท์
##ได้ง่าย
มาส
ในวัน
##นิค
##คริสเตียน
##ก้อน
มูล
##จำพวก
##แหง
##มียอด
##่ห์
##เจก
##สู่อ
##แทบ
##เจนตินา
68
##เป็นเรื่อง
##บ้านเมือง
##แซน
2528
##เดย์
##ดงาม
##สัมภาษณ์
##แย่ง
##ดวงจันทร์
##พึ่ง
##ออกซิ
##โจร
##อาคารเรียน
58
ตี
##ท่อน
##มาของ
##ศรัทธา
##บวร์ค
เคล
##คลับ
##ำนัก
##พุทธเจ้า
##สกอตแลนด์
##ทำเป็น
##สงขลา
##สะอาด
ผลิตโดย
ภาวะ
##ผู้จัดการ
##สารสนเทศ
เป็นต้นมา
##สำนักพิมพ์
2515
##ที่แท้จริง
##หลุด
##จิ๋ว
มีประชากร
##ลำบาก
มือ
##ชลบุรี
มิน
ศิ
เดิน
##สายการบิน
##ผ่าตัด
##เขียนบท
โทร
##ผลการ
##ดูเหมือน
พันธ
เคน
##คลอด
##บิว
##มหิดล
##จดทะเบียน
หอ
##การเล่น
##เต้
เอล
##ทำความ
##ลังกา
##ได้ส่ง
##กระดาษ
##และเทคโนโลยี
มู
##ศวร
เศร
##ฮังการี
##เป็นลูก
##แชมป์โลก
##ฟอร์ม
##เปร
หมวด
##แดด
ในขณะ
ฮา
##rit
##นอกจาก
##๋อ
##ด้านบน
##บรรทุก
##ด้านล่าง
##ิศว
เจ้าของ
##ash
ทฤษฎี
##าน้ำ
แอล
##ตัวเมีย
##นั้นจะ
##ทีน
##ศรีนคร
##เป็นผล
##เจ้าฟ้า
##วิชัน
##ขี่
##จุฬา
##จึงต้อง
##ครั้งที่สอง
กรรมการ
##ได้ว่าเป็น
##ูกิ
##เอ็กซ์
##นำมาใช้
##อาราม
โคล
##ร่ม
##มูลนิธิ
จิน
##อับ
##und
##เนตร
all
##ies
มหาส
ไข
##ครั้งใหญ่
เธอได้
1995
##ome
##sp
##ool
##บันทึกเสียง
##มากที่สุดใน
##จักรยาน
##พระราชธิดา
สเต
##เราะ
##ามะ
##สาข
##เป็นการทั่วไป
##านุกรม
##โรจน์
108
##กุหลาบ
##ในวง
##นิพนธ์
##เบื้องต้น
แต่น
มุ
##ในภาพยนตร์
##้อบ
เสียชีวิต
ดำรงตำแหน่ง
em
##เจริญเติบโต
##คาบสมุทร
##จะให้
##เปลี่ยนไป
##ากรรม
##รัญ
##เชน
##ถ่วง
##กระดับ
##น้ำทะเล
เกิดเมื่อ
##ถุง
1972
##จัดเป็น
##ในเกม
##าวน์
ฟา
ฮัน
##เก่ง
##อย่างกว้างขวาง
##เขตพื้นที่
92
##ได้ทำการ
##ame
pol
##แอส
89
##รับราชการ
##ผู้ชาย
la
##ซีก
##สามเหลี่ยม
##จุดเริ่มต้น
61
ตรา
##แกล
##เปอร์เซีย
##บัส
##ที่เกี่ยวข้อง
##อุทิศ
##ซื่อ
##พบใน
##ของโรค
ค่ำ
##แมว
##กลาโหม
##โยน
##ของคณะ
ในกรณี
##ัปตัน
ถึงแม้ว่า
ทว่า
##อยู่แล้ว
##สนับสนุนจาก
##แง่
##แอนิเม
##โหลด
##ยอ
##เบร
##โกสิน
63
pe
##ากะ
##ทรรศ
##าวุธ
##ไร่
##มหาภูมิพลอดุลย
46
ทางช่อง
##พิธีกร
##ile
##ของส
ยุค
ผู้นำ
##ธิต
##เฟร
##ศิลปากร
##ไม่อาจ
##เล็กๆ
##พากษ์
อัตรา
##ดัช
##บรรเลง
##ควิชา
##ของประเทศไทย
##ได้ยิน
##พลเอก
##ปรากฏว่า
แหล่ง
##วาระ
##ann
กิน
##สุพรรณ
##เปล่า
และอีก
##ชนิดนี้
##ตานี
##กลีบ
##อุโบสถ
##นี้น
##ร่วมมือกับ
##ท้าว
##การแพทย์
##หลับ
##ด้านหลัง
##แผ่นดินไหว
นายกรัฐมนตรี
เปร
##อธิการ
กล่าวคือ
หรือชื่อ
##ปลอม
81
ซม
##นั้นได้
เขาก็
##สาขาวิชา
##ว่าราชการ
1993
อเมริ
##โยะ
โดยไม่
2525
##โขง
##เล็กซานเดอร์
##คุณค่า
##วิกฤต
ดับ
##ียส
##จากความ
##ก็สามารถ
##ตลอดเวลา
##โรมันคาทอลิก
##ากระ
##ตรงกัน
ตระ
รอย
##ปอด
##ที่เธอ
##ัตช์
##ที่ใช้ในการ
มากกว่า
##การรักษา
##มีผล
##ism
##เทป
โนะ
เจมส์
##ของจีน
ที่นั่ง
ศาสนา
##พำนัก
##ผู้อำนวยการ
##พร้าว
ผู้ที่
##เลือกตั้งเป็น
##ในลักษณะ
##จึงเป็น
ประเทศจีน
110
เห็น
##การเขียน
และนัก
##ชาวเยอรมัน
สถานีรถไฟ
##จรรย์
##หลีกเลี่ยง
##อนิเมะ
##ผู้เข้าแข่งขัน
##ชมพู
##จิตรกรรม
##โง
##ายน้ำ
##ork
##คลาสสิก
##คลินิก
##ลิม
##ซัล
และยังมี
##เจอกับ
##เคอร์
##ไซม์
##เซโลนา
มีจำนวน
74
##หมิง
หม่อมเจ้า
##แคร
วิลเลียม
##ตัวเลข
##ยุทธการ
##ยำ
##ไม่ค่อย
##ของราชวงศ์
##ส่วนประกอบ
##วีดี
##หากิน
แด
##att
##จริต
##ุภ
##เหว
ออสเตร
ag
##คัส
##ft
##โธ
พบว่า
##พระศพ
##กีตาร์
##ign
ไม่ได้
83
##ซิก
##นำโดย
##สถานีวิทยุ
##พฤหัสบดี
##อุบลราชธานี
##ผลักดัน
##พญา
##ลูกทุ่ง
##เอเชียตะวันออกเฉียงใต้
##รังส
##ในครั้งนี้
##มีชื่อ
##ชำระ
82
##ะฮ์
##ซัค
ในภาษา
สาขาวิชา
กลายเป็น
##ขึ้นที่
57
คง
##ออง
##ทางวิทยาศาสตร์
คลอง
##ใหม่ของ
##นึง
##ไทยเป็นการทั่วไป
##ทัศน
##eth
##ติดต่อกัน
##เบอร์ลิน
##ฟ้อง
##แสดงว่า
##บุตรชาย
ขั้น
##ส่อง
##อินโด
##เกลือ
ไม่ใช่
##ในประวัติศาสตร์
##ซึมเศร้า
gr
##ตรัง
##เจียง
##หัวเมือง
##ที่มีลักษณะ
##จับกุม
2526
##แชมเปียนส์ลีก
เศรษฐ
mon
##ติช
สมรสกับ
##ไผ่
##พิชิต
##คีรี
##ล่มสลาย
ในชื่อ
##pl
##ของเข
##สิทธ
หรือการ
88
##ประมง
comm
2524
##ต้นแบบ
เซอร์
รถไฟ
ทา
##ให้เห็นว่า
##ปลัด
ก็จะ
อาณาจักร
##แนวทาง
##แม้แต่
##ผิวหนัง
##เทศบาลตำบล
art
แกร
##เลก
##แขวน
##ราหม
##พระองค์ทรง
ห่าง
##กระบ
##ในการสร้าง
##ครบรอบ
##โกสินทร์
##ความไม่
##เดร
##นาญ
93
##พรรคประชาธิปัตย์
เรื่องราว
##ฝาก
##ครั้งสุดท้าย
##จบการศึกษา
##อย่างไร
##อยู่น
สะพาน
##วิท
##อันเป็น
##เจ้านาย
##จิตรกร
university
##ัคซีน
##พิษณุโลก
##บรู
พร้อมทั้ง
##บังคับให้
คอร์
##บรรลุ
##อาร์เจนตินา
##พิธีก
##ฝ่า
##สำเร็จการศึกษา
##เรื่องการ
##สูงขึ้น
เสม
##มาต
##มหาศ
##หลักทรัพย์
เบน
##เมอ
##าน์
##มนุษย
101
##๊ด
##ความเสี่ยง
กระทั่ง
รัชกาล
gl
##ค้าขาย
##ear
##ประกาศว่า
ตัด
##จอง
##อุดร
##แหล่งน้ำ
##มีโอกาส
ในเมือง
2517
##ชื่นชอบ
##วิเศษ
กู
##ำนาจ
##ประจำการ
ประชากร
##ตั้งอยู่ที่
##ชนิดอื่น
ด้วยเหตุ
##ตาร
##ายณ์
##อย่างรุนแรง
##น้ำแข็ง
##เป็นที่ตั้งของ
##โดยรวม
##บาลี
##แห่งปี
##ต่างจาก
##ทางการแพทย์
##เกาหลีเหนือ
##ต่อกัน
จัดเป็น
##กุฎราชกุมาร
##ลัด
ของประเทศ
##เฉลิมพระเกียรติ
##สู่วงการ
##ศนา
##เวส
##เนล
##ind
##อุทยานแห่งชาติ
##คนโต
##โชกุน
##กระจายพันธุ์
ไมเคิล
##ต้องใช้
##ปกคลุม
แถ
##เครน
##เห็นด้วย
##ในสมัยนั้น
สภาพ
##ส่งผล
##เนื้อเยื่อ
แก้ว
บิ
98
##ญ์
##กลไก
##สิ่งก่อสร้าง
##สมัครเล่น
##ปักกิ่ง
มีพระ
##มป์
##กฤษฎ
##ผู้บัญชาการ
##ปลาส
##ุกเฉิน
##คูณ
##สมการ
##ลิป
##ฟิล์ม
##สวัสดิ์
ครอบครัว
เป็นคำ
##เทล
##จากมหาวิทยาลัย
##ัฐมนตรี
pre
บรา
##ศาว
##ึน
##คอง
##ส่วนที่
##บทุก
##ธรณี
จิต
##บอส
##บรรพบุรุษ
gre
##เดือด
##ชิงตัน
2516
หมู่ที่
แคว้น
ไช
##ัชน
##าท์
##เรียล
เพื่อเป็น
##เข้าร่วมแข่งขัน
นิยม
##เตอร์เทนเมนต์
##ยกทัพ
##เลือกตั้งสมาชิกสภาผู้แทนราษฎรไทยเป็นการทั่วไป
##เห็นชอบ
##ลูกด้วย
##แป้ง
##ปกครองส่วนท้องถิ่น
##ศาสตรบัณฑิต
##ันท์
##กองทัพเรือ
##มานาน
##ของฝรั่งเศส
##สมเด็จ
ที่ได้
##คุ้มกัน
##พบได้
##เหนือจาก
##โชค
อุทยาน
##อำเภอบ
##ถ์
ต่อจาก
สุดท้าย
##ลวง
##งับ
##คาว
และเริ่ม
ประเทศฝรั่งเศส
##บุคลิก
##เมา
##บ่อ
##พร้อมกัน
##เด็จพระราชาธิบดี
1989
##ium
##อนามัย
##ชาวฝรั่งเศส
##เช่นเดียวกัน
##ros
##จญภัย
##เภา
##anc
##ขอบเขต
##rop
##มีบทบาท
##โปเลียน
แฟน
##ภูมิศาสตร์
ดยุกแห่ง
บรม
อาศัย
##ร่วง
##ber
##ัญชนะ
##ไลท์
พิธี
เกล
##old
นั่นคือ
บิล
ร่าง
เกา
##พึง
##ได้เริ่ม
##ปรารถ
##พลเมือง
##ท้องที่
ล้านดอลลาร์สหรัฐ
##ก่อนหน้านี้
##เจรจา
mod
ฐาน
##นรา
##แม่ทัพ
##ฮาว
##เมฆ
##จึงถูก
##ช่วยว่าการกระทรวง
##กวาด
##ก๊าซ
##ิ้ม
##ดีเด่น
##ป็อป
##ลึ
##อกัน
##ตั้งถิ่นฐาน
international
##ทบุรี
##ัคคี
ป่า
##ดัก
##หมาก
ได้รับรางวัล
##ทันสมัย
##งก
##พุ
1945
##คาล
##ที่เหมาะสม
2520
##กุ้ง
##โรล
##เป็นตัวแทน
##อเน
##่อีก
##บลู
เป็นนักร้อง
##แอง
##แก้ปัญหา
##เรนซ์
##โกรธ
##ler
ลิเวอร์พูล
เจน
##ผลไม้
##เนา
##ยืด
##อร์ส
##ลูกชาย
##โค้
##ที่ผ่านมา
##ซากิ
##คริสตจักร
ลีก
วัง
##เรียบเรียง
##ัซ
ซึ่งสามารถ
##เจ้าอาวาส
160
tim
อิส
##ข้อก
##ix
##ราชสุดา
##สะเท
##ลพ
##ภาพที่
##งานวิจัย
##ัสเซีย
##าระหว่าง
##วิลเลียม
ประกอบไปด้วย
##ขึ้นเมื่อวันที่
##พลาส
##สีน้ำเงิน
tri
แต่ถ้า
ออกจำหน่าย
##ยอดขาย
##ันต์
เป็นคน
ww
##ชาล
##ep
##สมทบ
##ชนชั้น
##ประทับใจ
gu
##พาร
##ปีเตอร์
##ดาวเทียม
##ในประเทศญี่ปุ่น
##ทิพย์
##ใกล้เคียงกับ
##โฉม
cou
##พีเดีย
อดีตร
##มนตร์
##หลายปี
##อายุไม่เกิน
res
##มกลาง
##สกัด
##ของทีม
##เนะ
##ศาสนาคริสต์
พิม
##ต้นฉบับ
##อาจจะเป็น
ยิ่ง
##ซ้อม
##ระบบการ
##เทศบาลเมือง
เสน
##มีอำนาจ
##อย่างไม่
กล่าวว่า
ดา
##โหว
##รับใช้
##ขับเคลื่อน
##ความสูง
##ฉุกเฉิน
##ในห้อง
##่นี้
##บรรณา
##แอตแลนติก
73
ศิริ
##เลต
##เจลิส
2500
##จัดจำหน่าย
ขับ
##ในชีวิต
##ในพระเจ้า
##ได้ใช้
##ักษณ์
##ในปีค
##ิวะ
##โตน
##มีความยาว
##เข้มข้น
##ที่เรียก
##ที่ดีที่สุด
##การประกวด
##ประจุ
##วิชั่น
##กิตติ
##สายตา
##ฟาโรห์
##ฮินดู
##เค้า
สตาร์
ในรัฐบาล
##ยับยั้ง
##เวสต์
##ส่งออก
##เดิมว่า
##ฝึกหัด
ไว้
##อเมริกาใต้
##กันระหว่าง
##ร้องโดย
##นิวซีแลนด์
มนุษย์
##วอน
##สาวรีย์
##ากลุ่ม
##ผสมผสาน
มิลลิ
##ในความ
##ทางประวัติศาสตร์
##ินีนาถ
##ล้านนา
##เรื่อยๆ
อาส
##อิล
2511
##แผนที่
##บึง
##าร์ต
##พันธรัฐ
##ุบ
##ress
##เซา
##หาญ
##ทัด
##ฮู
##การทดลอง
##รัศ
##ผ่านมา
##ที่ใหญ่ที่สุด
เหรียญทอง
##ปัน
##ะเร็ง
##ตอเรีย
##ในรูป
##คำตอบ
##ไรเดอร์
จง
##นุ
##ว่าด้วย
##หัวหน้าพรรค
ปราสาท
ตระกูล
700
##ขง
##ินิ
เป็นที่รู้จัก
##ขึ้นเพื่อ
เมล
##นางเจ้า
ริ
##ธิวาส
##จักรพรรดินี
เลข
##อัญเชิญ
102
##แซง
##ศาลา
##สไตล์
music
##๋อง
##เดส
##โมย
##อภัย
##มีอยู่
##เซม
กว้าง
เอน
##กวาง
##ไม่ดี
##โดวส์
##ราหมณ์
##โพร
##ามาร
##ซัง
##ภาคเหนือ
เซลล์
cont
##ปวง
##ษี
##กันได้
##ต้นปี
##ยูฟ่า
##กูร
##เสพติด
##พยายามที่จะ
##เพชรบุรี
##หมา
##สปีชีส์
##งานของ
ปัจจุบันคือ
##ปราคา
1968
##ยิ่งใหญ่
##ทวี
##ไปกับ
##สุรินทร์
##ผสมพันธุ์
##ึม
##นาที
##ิตา
ที่จะ
กะ
##สุก
##ของพรรค
##ไปทางทิศ
##พราน
##ันทึก
##เอลิ
84
ตัวละคร
##รุ่นที่
1964
##ทรรศน์
##ลอส
130
##บุคลากร
##ดอง
##หนะ
##รับเชิญ
##นี้ยัง
##ition
กรมหลวง
##หุ่นยนต์
##การเปลี่ยนแปลง
##บนเกาะ
และไม่
##นาฏ
##เต็มไปด้วย
##จักรวรรดิโรมัน
แคล
##ตามกฎหมาย
##ในการทำ
##แอป
##ีสถาน
##ลี้ภัย
##เข้าเรียน
##แกเรีย
##สาวะ
##ทราบว่า
##แต่งตั้งให้
ในฤดูกาล
##ผ่านไป
##แคระ
##มารวม
##คู่แข่ง
##บุรีรัมย์
##วัช
##สมัครรับ
สถานที่
##ปรารถนา
ชอบ
##อธ
##โอด
##แก่กรรม
##สลาก
##สรรค
##คิน
และเป็นผู้
##ัตน์
##ปืนใหญ่
##เสื้อผ้า
1976
##เคียว
จะได้
##งดงาม
##เจ้าพระ
##ทิเบต
บิน
กระทรวงศึกษาธิการ
##แคว
##เพื่อที่จะ
เอ็ด
##มีส่วนร่วม
##แลง
##ขึ้นใหม่
##เบิก
##วินัย
##ได้สร้าง
##ความนิยม
##วิพากษ์
##เต่า
##ตาซี
##ics
end
##ชรา
##ผลประโยชน์
##อโร
##กับพระ
##มีค่า
##รัตนโกสินทร์
มัง
##ที่เกี่ยวข้องกับ
##ตรดิต
##ล์ม
2521
ยังคง
ธนาคาร
##ในภูมิภาค
##มาลา
##พุธ
##bs
##ารคาม
##ของสัตว์
##แรน
##ผึ้ง
##ระดับสูง
##แอนเจลิส
##ไอน
##เงินรางวัล
##เร้า
##เด็ด
เขามี
##เหมือง
##เลขที่
ที่ย
##รื้อ
##จู่
##จะทำ
##ได้รับพระราชทาน
##วุ่น
##โปล
##ที่กำหนด
##สัดส่วน
##ราชอิสริยาภรณ์
สตี
เป็นโรงเรียน
##คำแนะนำ
joh
##พับ
##ทางโทรทัศน์
77
วร
##ปรัสเซีย
##หยา
##ดัตช์
จะเป็น
##ลาล
##จัต
เป็นกลุ่ม
อนึ่ง
พายุ
##ทรงจำ
##ยาร
##ที่ให้
##เขาก
##uk
mag
##ติมาก
##แมค
จัดตั้ง
##สุสาน
เวล
##ที่จะเป็น
ทั่ว
##ื้อก
##ภาว
สิงห์
##แย่
##ก้า
##ma
##ประเสริฐ
section
##ความรุนแรง
##ิร์ฟ
เบอร์
เฉพาะ
school
##บรรดาศักดิ์
รัชกาลที่
นี
##พุ่ม
##เขาร
##แผง
##แมนเชสเตอร์
##พ่อแม่
##อัป
##บันได
##วัว
##ได้มา
hy
ปิ
##ชุน
##เกรง
##การเงิน
##ดาวฤกษ์
##ย่างใด
##ม่ำ
##ขึ้นกับ
##เพลงประกอบ
##เทพเจ้า
##พายุหมุน
และทำให้
เป็นซิงเกิล
##คริสต์ศักราช
##ต้านทาน
##ชีวภาพ
บุน
##ท็อป
หลังการ
##มีความสำคัญ
##รายงานว่า
ตะวัน
##เป็นชาว
##กลืน
##ไปทั่ว
##ลูกค้า
##stem
##ดุสิต
##รรมาธิการ
##ในโรงเรียน
##ังคับ
ในเขต
##eral
ของโลก
##ปรับตัว
##ound
##ลอก
##บี้
##วิจิตร
##รานซิส
##แอนิเมชัน
mo
##ได้รับบาดเจ็บ
##สองนัด
ปีก่อนคริสตกาล
##ต้นกำเนิด
##แรงดัน
##เกียรติยศ
สป
##ได้รับอิทธิพล
##เข้าชิงรางวัล
##ประชาสัมพันธ์
มม
##ป้องกันการ
##ก็ทรง
2475
##ข้างต้น
##องค์กรปกครองส่วนท้องถิ่น
คริสต์
##ิดีโอ
##ขี
##เดิล
##เบญ
##จัดแสดง
##ular
ไม้
##๊ค
##ที่ผลิต
##โปรโม
##พุทธศาสนา
##มงกุฎเกล้าเจ้าอยู่หัว
mar
##อบี
##เข้าด้วยกัน
##ภูมิอากาศ
เล่น
##กับการแสดงโดย
##มินทร
##สแตน
##สับสน
##คำแหง
##กาฬ
##ult
##ขันธ์
เป็นอดีต
76
ฤดู
##วอล
##พัทธ
##ชุดที่
##รถถัง
ให้กับ
##เฮอร์
##เฉลิมฉลอง
##ฟิ
##ตำรา
##จากการแข่งขัน
##อาวุ
##เป็นเจ้าของ
##คิดค้น
คล้าย
##ตรดิตถ์
ตา
##จากเมือง
เงิน
##ความร่วมมือ
ทรงพระ
##ปรึกษ
##เวียงจันทน์
จันทร์
โฟ
##ัจฉ
##ชุดนี้
##ประชาชนจีน
##มีอายุ
##ความเสียหาย
##ถูกทำลาย
##พิการ
##กดดัน
##โบล
##บริเตน
##จำนวนหนึ่ง
##มหาสมุทรแปซิฟิก
แอร์
##ถก
##รัด
##ขโมย
##ออกจำหน่าย
##จิตวิทยา
56
##แบล
##ที่จังหวัด
##่ออก
ที่ประเทศ
##การปกครองของ
team
##ปราย
##ตอนแรก
##คุกคาม
##มอส
##โรคม
กลีบ
##สนามบิน
67
ประธานาธิบดี
พันล้าน
##ลัพ
##ทัว
##ฮอร์
##ความช่วยเหลือ
##แล้ง
##และสังคม
ผู้อำนวยการ
##ที่เกิดจาก
##คนไทย
##ซีดี
##เงา
##เซียส
##ปัต
##ไม่ยอม
##ภูเขาไฟ
##ยธรรม
##ของเกม
##านิติ
##ว่าเขา
##เกน
##เฟน
##ในหมู่
##ไว้ได้
2503
##yn
##ลำปาง
##ชิป
ต่อมาเมื่อ
นักเรียน
มิลลิเมตร
##ทางเลือก
##งานเขียน
##กระโดด
##ครั้งแรกเมื่อ
ออกฉาย
##เกษม
##จบลง
##eric
##มหรือ
##ากรีก
##นนิส
##ลาการ
##คัดค้าน
##อาณาเขตติดต่อกับ
##inal
par
##อภ
##สนามกีฬา
##นารายณ์
##สุ่ม
##oph
##ชวา
ปีเดียวกัน
##กันในชื่อ
##จมูก
##ศาวดาร
gro
##หนาน
##ปรมินทร
##มีการใช้
##แฟชั่น
##เถร
ele
ขอบ
##สภาพแวดล้อม
เหน
##สบาย
##be
##การชก
##ตั้งแต่อ
ลำดับ
##สูญพันธุ์
##สมเด็จพระราชินีนาถ
วิศว
##ผัง
##การจัดการ
##ในขณะที่
##อาชีว
##ถูกส่ง
เมื่อถึง
##หลวงพ่อ
1987
ประชาชน
##ความดัน
##ยูโร
##ชื่นชม
ทวีป
##พระอิสริยยศ
##เจ้าภาพ
##ตกเป็น
เสือ
##รอว์
##ตัวตาย
##ต่อม
##ลาออก
##แต่งกาย
1986
ชาติ
โกล
##อาญา
##ส่งผลให้
##สอบสวน
##พระพุทธเจ้า
จบการศึกษา
##xt
ทำหน้าที่
เปิดตัว
##ย็อง
##ัชฌ
##ปริญญาเอก
ข้า
##ของเซลล์
##ดีน
##สะกด
##ปัสสาวะ
ในรอบ
เป็นปลา
ธี
##ริยุ
ข้าว
##ดิจิ
##จอมเกล้า
##ในวัย
##พระธาตุ
##ของปี
##ได้เพียง
ปฏิบัติ
##iki
##ติส
##พลี
##โจโฉ
##เวลากลาง
##ปรับเปลี่ยน
66
##ในกรณี
##มาศ
ไม่ว่าจะเป็น
##โบราณคดี
##ฤติ
##เป็นประจำ
1950
##ลักษณะของ
แมค
ตอนที่
ass
trans
##ในระหว่าง
##ิตี้
##หัวข้อ
เทียบ
##ฟินแลนด์
##ลงโทษ
##แยกตัว
##ียบัตร
ant
##ห่วง
##เกียร์
##เช่นนั้น
กฎหมาย
##พอล
##ได้อีก
##ติ้ง
##ความสนใจ
##ความสงบ
##พื้นบ้าน
เขาจึง
##เอ็มเอ็ม
##ฟลอ
##ปฏิบัติหน้าที่
per
##ตนา
##ยว
##ร์รี
2513
##เณร
##เครื่องดนตรี
##ฝึกฝน
##ไธ
##ออกไซด์
##ภาษาจีน
2512
แจ็ก
##แอก
คนที่
##อาวุโส
##คฤ
##ของสมเด็จพระ
with
##นักฟุตบอล
##ซื้อขาย
วินาที
ชินวัตร
##วูด
##เมรุ
##ผู้ปกครอง
มีขนาด
##สงวน
##แบ่งแยก
##ตลอดกาล
##เอนไซม์
##โคลน
##iat
เวอร์
##อุปถัมภ์
##ออล
##ปัง
##เท็จ
##เข้าชม
##กลางและ
el
##อิจิ
##อยู่เสมอ
##สาธิต
ระบุ
##สหรัฐฯ
##ปุ่ม
##เพอร์
##รีม
##พาหนะ
เกาหลี
##ลัพธ์
อับ
##แสดงให้เห็น
##นาถบพิตร
system
##นอม
##กล้วย
เดวิด
##นำไปสู่การ
##ความสะดวก
##นิษฐา
##จุฬาลงกรณ์มหาวิทยาลัย
จากมหาวิทยาลัย
##ชั้นนำ
##ัศจรรย์
##คนละ
##โอลิมปิกฤดูหนาว
ชิ้น
##ในภายหลัง
##ใบหน้า
แบ่งเป็น
##ก่อนที่
ร้อง
##ผู้ครอง
##หลังคา
##กลับคืน
##ree
##กำกับภาพยนตร์
ทอม
##พาส
ที่ใช้
##ที่มีอยู่
##พรมแดน
##ซิด
##อตโต
##เวทมนตร์
##กติกา
บรมนาถบพิตร
ge
##ยูน
##กระท
##มนต์
140
##ขัดขวาง
##หนีไป
##เซนอล
##แต่อย่างใด
ธน
##ที่ทำการ
##ในทุก
##แพน
ไปยัง
##คลาย
##ก็ต้อง
##เชียร์
##การใช้งาน
##ชิร
##อัสสัม
##บิต
##โรงภาพยนตร์
##ลูกสาว
##ปรก
##วัตถ
##ซีเกมส์
##สารประกอบ
##ปาเล
เส้นทาง
##ที่หนึ่ง
##รัล
##ไม่พอใจ
##ิชาร์ด
##รามคำแหง
ร้าน
##สั่น
##ของสหรัฐอเมริกา
##บล็อก
##ดส์
และเพลง
เพชร
##แนวโน้ม
พระราชวัง
##พระบรมราชโองการ
##รวย
##ขนา
##ในส่วน
##สมดุล
ที่ถูก
##ฟลาย
##ฉะ
##เรด
##ให้ใช้
##กล่าวหา
##เที่ยง
##ใหญ่ม
ยกตัวอย่าง
##ชักชวน
ปอนด์
##ฟวี่
##ซีย์
##กระบอก
##are
##เทพรัตน
ภายใต้การ
##ลวดลาย
ดินแดน
##ในอัลบั้ม
##บางส่วนของ
94
##son
##ภาษาม
##มัล
##พุ่ง
##พราหมณ์
##กับความ
##นี้เอง
##โรคมะเร็ง
นอร์
##ของชาติ
##านุภาพ
##วิทย์
##เป็นนักแสดง
now
##นียบัตร
##มากถึง
##ที่มีขนาดใหญ่
##ศตวรรษ
##ัธยมศึกษา
##ก็เริ่ม
##โดะ
##ทดแทน
ธิดา
##ตอนที่
##ไม่มีใคร
##วิลล์
us
##จำคุก
##ane
##พระราชวงศ์
##ชมหาราช
##เลื้อย
เป็นพืช
##อย่างเดียว
##ิสิ
##ตามธรรมชาติ
##ในบาง
##ทางแยก
##เฟีย
##แจก
##ปริศนา
##ในเชิง
##och
##ata
##บัม
##ตามแนว
##อคอย
##ทำหน้าที่เป็น
##เอลิซาเบธ
##โนน
สถิติ
ตำนาน
##พยัญชนะ
##ดิจิทัล
##ดำน้ำ
act
##มิต
##จาม
##ที่ปรึกษา
##กล่อง
##สิ่งของ
##อนุสรณ์
##ความเป็นจริง
op
##อส์
##ราฟ
##เที่ยวบิน
##ในโอลิมปิกเยาวชน
2499
##เจ็บปวด
##อ่าง
##กรรมาธิการ
##ทางวัฒนธรรม
##เชิด
##เฟล
##ฉลาด
##ขึ้นจาก
##แรกคือ
##ไทน์
##ประโยค
สิน
##รนด์
##ตรัส
เมื่อเดือน
##กราฟ
##วงศ
##็อกซ์
กำกับการแสดงโดย
ห้องเรียน
##นัล
##หด
##จิง
##ในไทย
##อนุบาล
แต่เดิม
##คัล
##ผจญภัย
##form
##ได้ไป
##และพัฒนา
##โปรดิวเซอร์
กระบวนการ
##แอฟริกาใต้
เชียงใหม่
##au
##ภค
##าริ
หมู่เกาะ
ซัน
สืบ
##ซอย
##วิชัย
แต่ท
คิ
##นายทหาร
##มหาภูมิพลอดุลยเดช
##อรา
##การก่อสร้าง
##ไฟล์
##own
##บำเพ็ญ
##ัฟกาน
##มหาศาล
##ทซ์
##ยิด
##โรก
##ที่จัด
##รูปทรง
170
จัน
ท้าว
มารี
##ร์ก
##เวต
##พร่อง
##ป่าไม้
ทุกวัน
ศิลปะ
##พระราม
##อาเซียน
##โคก
มหาวิทยาลัยธรรมศาสตร์
##เสนาบดี
##ฉีด
##ได้ให้
##โดยบริษัท
##อันศักดิ์สิทธิ์
รวมผล
ออร์
##มีจำนวน
##เดชมหาราช
##นิม
##ขาม
##ฉัตร
##หลั่ง
##ดีขึ้น
เพื่อที่จะ
##อภิเษกสมรส
##ติง
##สุดของ
องค์กร
มีความยาว
##สอดคล้องกับ
##แห่งการ
##ank
##ใหม่ที่
##กองทหาร
##ick
##ปรมินทรมหาภูมิพลอดุลยเดช
ฉัน
##ซั่น
##ของนาง
##ตั้งครรภ์
##เซส
##าระบบ
2514
หลวงพ่อ
##ฟุ
##แคม
##เล็บ
##นิ่ง
##สีสัน
##เดินทางมา
##ศาสนาพุทธ
##โพรง
91
ทักษ
วิทยาเขต
##๋น
##สมรรถ
##เหนียว
##ธิเบ
##สมาชิกของ
##ลพบุรี
##ัฟกานิสถาน
##ยังสามารถ
##เขียนภาพ
##บัลแกเรีย
##ดึก
โดยผู้
##ตั้งเป็น
##สตัน
##คั่ง
และจาก
##แขนง
##ศรีนคริน
ขวบ
##หฺ
##มีประชากร
เป็นตัวละคร
##ont
เขาเป็น
##ประจำวัน
##ชันษา
##สถาปนิก
##เหย้า
##จิม
##ral
##ได้พบกับ
1985
##ริยุปราคา
หย
ฮี
##สุลต่าน
##โหวต
##ำหนด
##ในสังคม
##เขื่อน
##อุดรธานี
##ังคม
##ักแสดง
##ตัวเมือง
##เผือก
สุวรรณ
##านุการ
so
##บาป
##ครัฐ
##เมเนีย
##สมมติ
##พ้นจาก
ใต้
##ผู้อื่น
##อย่างมี
##int
เพราะว่า
แม็ก
##ถกเถียง
และนาง
##บริวาร
##ทำให้เกิดการ
มหาสมุทร
##เพื่อไทย
##อเมริก
ควร
##วิดีโอเกม
โลก
##ของเรา
##คนแรกของ
##วารสาร
##อิฐ
##น้องชาย
รวมผลสองนัด
บันทึก
##จล
##ธนู
##ในหนังสือ
##กล่า
##อุตรดิตถ์
##สั่งการ
##แน่ชัด
one
##ันดับ
##จุดประสงค์
##หยาง
##รากฐาน
##ฟาร์
##้ต
##โดยรอบ
##เกิดเป็น
ต่อมาใน
##ดึงดูด
best
ทู
##ต่อปี
1940
##ศักย
ขน
##แมง
##ose
##สำนักงานคณะกรรมการ
##รัศมี
คิง
##ข่ม
##รณรงค์
##ร่วมสมัย
เจ้าหน้าที่
##แฝด
##์ตูน
##ผิดพลาด
##กระทรวงมหาดไทย
##ตาน
##บริติช
##มหาสารคาม
แบล
##รวมกับ
##ปราศ
สหภาพ
##ทุกวันนี้
##ทรงพระกรุณาโปรดเกล้าฯ
##คล้ายคลึงกับ
ซิล
##อยู่ภายใต้
##พระราชบิดา
##อุปสรรค
##การเรียนการสอน
##ส่วนร่วม
##พัฒนาม
ปริญญา
##ung
##สุดยอด
##ซากะ
อิต
##ไต้ฝุ่น
ซาน
อุต
##เป็นพิเศษ
##และใช้
2507
##โฟร์
##ตะวันตกเฉียงเหนือ
รัตน
##ว่
##สามก๊ก
##แม่นยำ
ผม
##หิ
##ขึ้นชก
##สะเกษ
อย่างเช่น
ดนตรี
##สโล
##กระต
rec
##หุบ
john
นพ
##โคม
##ฎก
##ตามหา
##สัตว์เลี้ยงลูกด้วย
##โวล
##ชำนาญ
##ร่า
##คลี
ต่อมาในวันที่
##อัลบั้มที่
##ฆ่าตัวตาย
โครงสร้าง
##วุ่นวาย
##พระศรี
##ตร้า
##lex
พระครู
##นำเข้า
มิวสิก
##nc
##ถล่ม
และที่
##วิภาค
คือการ
##ด้านข้าง
ลาว
##ในแบบ
##ในสกุล
##จรวด
##เถระ
war
##คอร์ด
##ของเหลว
##ราชทูต
##หลายๆ
##มิวสิกวิดีโอ
ห่างจาก
##ผู้ทรง
##ัญญา
##อตต์
##มอญ
##ดาม
##ียา
##ได้ทรง
##ก่อนหน้านั้น
##เชื่อถือ
รายงาน
##จะมีความ
##พรรคคอมมิวนิสต์
จิตร
##มีขนาด
##เจ้าจอม
##็กซัส
เอเชีย
##หยัด
##ดูแลของ
เป็นรายการ
ประพันธ์
##คนใหม่
เกษ
##เสียใจ
##เป็นนักร้อง
##นั่นเอง
##งส์
ปัญหา
แชมป์
นิตยสาร
##ตง
##bc
##ภาพเขียน
##ina
##ในน้ำ
##และสามารถ
##สมุน
##กระจายเสียง
##อาชญากรรม
พิน
##เป็นเพียง
##ประมวลผล
##ภคินี
##จอก
พระเจ้าบรมวงศ์เธอ
champ
นับตั้งแต่
##เลิฟ
##คณะสงฆ์
##เข้าร่วมกับ
รุ่นที่
พืช
##อัศวิน
##ระงับ
##ครุ
ซึ่งถูก
##เรื่องที่
##ors
##พระนามว่า
##พยากรณ์
##ฟุต
##ปลง
เจริญ
##เสียด
สุร
##โฟน
ฟิลิป
บ้าง
##ละเม
##เป็นกลุ่ม
แต่เนื่องจาก
##สนับสนุนการ
##arl
##ทก
##ของเอ
##เบรีย
##เงียบ
ii
king
##นี้ก็
##เช็ก
##พลู
##ทีมที่
เข้ามา
##สกฤต
##แคลน
##หาสน์
อุปกรณ์
จอร์จ
##ออกซิเจน
กิ่ง
โอล
##ทางวิชาการ
##นนทบุรี
##เผด็จ
##วรวิหาร
##บรมราชกุมารี
##ทางหลวงแผ่นดินหมายเลข
##บิก
star
##อ่อนแอ
##านิติบัญญัติ
##คูล
##ผู้บริหาร
##นั้นก็
ปู
ปืน
##นั้นๆ
การจัด
##ซิงเกิ้ล
##แฟนตาซี
สู
##ปิต
##แล้วเสร็จ
##ชาวยิว
##เทพรัตนราชสุดา
##วัคซีน
##ผง
##ในเครือ
เพื่อเป็นการ
##ร่ำ
จักรวรรดิ
ราชอาณาจักร
##ติมากรรม
##ตัวที่
##ประเทศจีน
##ทหารเรือ
##บีบ
บทความ
##คัม
##โอม
##เป็นจำนวน
##แสดงออก
##ห้าง
##บริดจ์
ปกติ
##ให้ไป
##นั้นเอง
พระโอรส
##กันไป
##รีด
การทำ
##ทหารราบ
หมวดหมู่
คี
##พวง
##พระธรรม
##จินต
##เยา
##ทิล
##ดรู
##สมบท
##แกง
##ซาเล
ให้เป็น
##ลิเวอร์พูล
คืน
ไน
##งานที่
##กาแฟ
##เดินทางไปยัง
##สิบสอง
รัฐมนตรีว่าการกระทรวง
ฟัน
จึงเป็น
##ได้รับการยอมรับ
##จริงจัง
##ปิฎก
##ดิจิต
##เรื่องของ
เที่ย
ในบาง
##ความสัมพันธ์ระหว่าง
ระยะทาง
ก้าน
##ภาพถ่าย
##สูร
##ภูเก็ต
แนวคิด
##ต้อนรับ
##นัง
##me
##ในปีพ
##กองทัพอากาศ
##เซ็นสัญญากับ
เปอร์
##ลิค
##ความผิดปกติ
แสน
##ox
เล่า
##มั่นใจ
##พากัน
##ทริกซ์
des
##ที่ปรากฏ
##าวเวอร์
##ธิบดีกรม
##วิกตอเรีย
##ไปอย่าง
##เนปาล
##ฤดูกาลที่
##พิกัด
##โปเกมอน
##ไหล่
##แฮร์รี่
##ไฮโดรเจน
ser
##ชิมะ
##ตรร
##ในคริสต์ศตวรรษที่
##รบกวน
##เนชันแนล
๒๔
##กรุ่น
ระหว่างปี
##ไรก็ตาม
ยกตัวอย่างเช่น
##เองก็
##ภาคต่อ
##จินดา
ครีบ
ซุน
##ฟอน
##ุรัส
##ญแจ
##การต่างประเทศ
##ปากีสถาน
##เสร็จสิ้น
eng
##เรก
ในนัดที่
##โดยมาก
gi
##co
##วิพากษ์วิจารณ์
##ฟอส
##นารี
fe
พา
##มลายู
##และให้
##เจียน
##แต่ละคน
วอลเลย์บอลชาย
สิทธิ
##เรซ
##ana
##เรื่อยมา
อัง
##อนา
##แตน
##โซม
##ยูเครน
##เดินทางกลับ
##ที่ยิ่ง
##เสรีภาพ
ไพ
##รมย์
ในปีพ
min
ฉะนั้น
##ตัวตน
แต่จะ
##สิบปี
##ake
มารดา
เผ
##ค่ำ
##ธุ์
##ุระ
##เป็นผู้นำ
##โล่
ประการ
การที่
##ในการเลือกตั้ง
##ภาษากรีก
##ของพระบาทสมเด็จพระ
##สืบสวน
##อาชีวศึกษา
##พลา
##ียณ
##ความแตกต่าง
1979
##บ้านเกิด
ปัจจุบันมี
##สู้กับ
##aceae
ในรัชสมัย
##ลงคะแนน
มาตรา
##ศาสนาอิสลาม
##มุ่งหมาย
วรรณ
##ปราช
##การคลัง
ลิง
##ของทั้งสอง
##ได้กลายเป็น
สำหรับการ
##โภช
##กฤษฎีกา
รหัส
##มาแต่
##ให้อยู่ใน
ที่จังหวัด
##ปกครองตนเอง
##น้องสาว
ไม่น
##ตั้งอยู่บน
##ดาราจักร
cr
part
##ราชบุรี
##เนอ
##ชัญ
##เปญ
##ตามแบบ
##เซมเบิร์ก
เธอก
##เจกต์
##ทีเดียว
##แท็ก
ทำให้เกิด
##เนียล
##ade
##เป็นเจ้าภาพ
##ทัต
##พลัน
กิตติ
##ให้เขา
##ฉลาม
##ในตลาด
##กำไร
##ภูมิประเทศ
##อุดมสมบูรณ์
ทางหลวงแผ่นดินหมายเลข
##ในช่วงปี
##กระบี่
##ของจักรพรรดิ
ออกมา
##บาร์เซโลนา
##หลุยส์ที่
##ต้อ
##เนื่องจากการ
##ปฏิกรณ์
##บัญชีรายชื่อ
##โกสลา
##ละเมิด
##ier
##ข้อเสนอ
##ร้ายแรง
##สำนักงานเขตพื้นที่
##ราม่า
##ขาภิบาล
##สูงสุดของ
2505
##ดิก
##แต่ก็
##ส่งสัญญาณ
##แบ็ก
##นิสิต
##โน้มถ่วง
##ไอออน
##ที่นี่
##ราษฎร์ธานี
##ัชนี
##กัว
##ขึ้นทะเบียน
##ปล้น
1982
สยามบรมราชกุมารี
##ใต้น
##ของน้ำ
##iam
##นิจ
2491
ค่าย
##บุน
และนาย
##ตุ๊ก
พระราชโอรส
คาด
##ฝรั่ง
##ซัว
##เนต
##อย่างสูง
##แห่งรัฐ
103
##กองทุน
ความยาว
ถึงปี
##ความสามารถในการ
##ของบุคคล
##ith
##โดยนัก
##้าระ
หมายเหตุ
##ภาระ
##เลค
พระที่นั่ง
##เวลาที่
แม้ว่าจะ
ชิง
##ในญี่ปุ่น
เป็นประธาน
##ออกอัลบั้ม
##ภูมิส
ก็มี
##พงศาวดาร
##นราธิวาส
##พายุหมุนเขตร้อน
champion
##king
##แห่งราชวงศ์
โรเบิร์ต
##uri
##ทางเข้า
##อยู่ระหว่าง
##ติดอันดับ
##อิสร
##หวัด
##ky
##ภายในประเทศ
##ณีย์
##ที่มีชื่อว่า
##พวกมัน
ทางด้าน
##จับสลาก
##ตรวจจับ
##ที่เก่าแก่
##วิทยาการ
##เลื่อนชั้น
##การทำงานของ
เหนือ
##ได้ทั้ง
สนธิ
##บอร์
##ไถ
แต่ต่อมา
##เรียกชื่อ
##ค่ายเพลง
##มุก
##ายการ
##อาหารและ
สังกัดพรรค
##เคว
##โถ
##โญ
##ในแถบ
##ทางทะเล
##นำของ
##กองเรือ
##สุขุม
2495
##หน้าต่าง
##ตอนกลาง
เลย
##ตรงกันข้าม
##ลีน
##ตัก
##พ้อง
##เลือกตั้งเป็นสมาชิกสภาผู้แทนราษฎร
พอล
สื่อ
##ในรุ่น
กรณี
##ไทม์
2498
##เล่าปี่
##้ก
##าทรง
##ูลู
##ที่สุดคือ
เจ้าเมือง
##โหด
##ทราน
มิติ
li
##ของเด็ก
##สำนึก
แต่ยัง
##คุณธรรม
1983
พิพิธภัณฑ์
##สังฆราช
ผิว
##จนา
##เป็นประธาน
##พระมหา
##เพื่อสร้าง
เซ็น
##ปฏิบัติงาน
กรมหมื่น
พงษ์
พม่า
##ครา
##แกม
##นางแบบ
##ทวีปยุโรป
sec
สังคม
##แพล
โดยปกติ
##ชมรม
met
net
##ual
##คอส
##หลิน
##เท็น
##ประเทศญี่ปุ่น
แม้จะ
##พูดถึง
##พักผ่อน
##น่าจะเป็น
ท้องที่
##ลย์
##ถั่ว
##ฉก
##มีอาการ
##หนาม
ในขณะนั้น
##แล้วย
การเลือกตั้ง
ประเทศอังกฤษ
##บทประพันธ์
##สมาธิ
##ภาพยนตร์เรื่องนี้
##ทางการเงิน
เทคโนโลยี
##ท้องฟ้า
##ที่ไม่ใช่
po
##ไปรษ
##นั้นคือ
##เมนท์
ชล
ยาน
##ช่วยในการ
สาข
##ูไร
##ทางใต้
1948
##หญิงสาว
##ลำไส้
##บริหารธุรกิจ
พร้อมด้วย
##ดิจิตอล
แช
##ทวาร
##สม่ำ
ฮาร์
ไบร
##ปั่น
##โรดม
นักเขียน
##กาญจน
ลิน
และมีความ
##ศาสนิก
##กระทรวงศึกษาธิการ
##ใหม่อีก
พัฒนา
บุนนาค
##ทำสงคราม
##ทั้งสี่
##ควบคุมการ
สุนทร
เป็นไม้
##อยู่ด้วย
มุ่ง
แอม
##บัต
##เชย
ที่ซึ่ง
##แบ่งกลุ่ม
2510
##หรี่
เป็นเวลา
##เหลียง
##ศาสตร์และ
##โกสลาเวีย
by
##ราชมงคล
##ไม่ถึง
##โมโตะ
##อำนาจของ
งานวิจัย
มักจะ
วางจำหน่าย
##อั
##อรรถ
##ล่าว
##บ้า
##ในชั้น
##ียู
##เซอ
1956
ร้อยละ
##วู
##ากอน
##เมดิ
##ต้องมี
ผู้ซึ่ง
##ชาร์ล
##เมทัล
##แม่น้ำโขง
##ขั้นพื้นฐาน
##บังคับบัญชา
##อ้วน
##วอร์
##ฮาร์ด
##อายุน
mas
##คงที่
##แฝง
ด้วยเหตุนี้
##ลึกลับ
##ที่โดดเด่น
##ซอฟท์
##จันทร
bro
up
##พระนครศรีอยุธยา
##าสมัคร
##อาระ
##มิก
##การประชุม
##ากฎ
##เรียว
##หมั้น
105
104
ออสเตรเลีย
900
ไก
##จานุ
##ology
##เผด็จการ
##รวมไปถึง
##โซ่
##เพิ่มความ
##ตระหนัก
##เป็นอัน
##ได้จัด
##นเรศวร
##ลอร์ด
##ที่อยู่อาศัย
##ียัง
##ของเพลง
##สาคร
##กางเขน
##ที่ประสบความสำเร็จ
##ที่ได้รับความนิยม
วิทยาศาสตร์
##ขยายตัว
super
รัง
##ครั้งหนึ่ง
##สิริก
##ระดับน้ำทะเล
##สงครามกลางเมือง
มอ
##สตา
##โหมด
##ซาว
##เพรส
##มิช
##พุทธศตวรรษที่
ตารางวา
##เบื้องหลัง
จา
##สามัคคี
national
sing
##ารัฐ
##วิทยาเขต
2508
##มินิ
เทศบาลเมือง
##ประสานงาน
##เหตุให้
##อินทรีย์
##แบง
##เลี้ยงดู
ขณะเดียวกัน
##ไหลผ่าน
##ถ่าน
##วิกิ
##บางกอก
เครื่องบิน
##erm
##ฉายาว่า
เสมอ
##ทอม
##โอบ
##มีพื้นที่
##สินธุ์
หนอง
##หยวน
##บุญธรรม
เครือ
##ราชินี
##มหาชน
##เนื่องมาจาก
##เอฟซี
##เผชิญหน้า
##ax
##เหร
ได้นำ
##ส่วนผสม
สาเหตุ
##ิติ์
ลด
##ก้น
##หิมะ
##พาท
##หมวก
##ผู้เสียชีวิต
##คุ้ง
##ิร์ด
##ละครเวที
##ครั้งแรกเมื่อวันที่
##โบราณสถาน
##กัปตัน
##ชัง
##ซ่ง
##เป็นวัน
##เป็นอย่างดี
##ใช้กับ
##แลม
##พันปีหลวง
เกี่ยวกับ
วอล
##และทรง
##แด่
87
##ที่พระ
##เทนนิส
##สมภพ
กระจ
##แมนติก
จุล
##หนุน
##ชาติไทย
##ประกอบอาชีพ
##ตรงกลาง
ออกแบบ
##ฟีลด์
##เบกษา
##พญ
##ในรัชสมัย
##ความลับ
##โกเลีย
##สัตย์
##เกล็ด
##ไมเคิล
##แจง
ฟาโรห์
##ทาวน์
##จตุ
##กลนคร
##รงก์
ซึ่งการ
##ล้อมรอบ
##รอดชีวิต
รักษา
##ผูกพัน
แต่ทว่า
##ในทะเล
การแสดง
##โมส
จะถูก
1981
##หันมา
##นาวี
##วอชิงตัน
##ตัส
##หาน
##บอง
##กลอน
##สุริยะ
##ไลฟ์
##จะเริ่ม
##แบบจำลอง
##เกษียณ
##เซ็นสัญญา
##โมงค์
##ตะวันตกเฉียงใต้
##ชาตินิยม
##โค่น
##ปัตตานี
มีเพียง
เพอร์
##ทรัล
2501
##ผนวก
สนามกีฬา
##fer
##ได้ทำ
##หย่า
ไปจนถึง
soc
ฟู
##vel
##คนสำคัญ
##ไรด์
##กรีต
ฟี
##ที่ราบ
##ในบ้าน
##เป็นแหล่ง
##สูงถึง
##ude
##ทักษิณ
##มาดริด
##ปานกลาง
##รังสิต
##กันของ
##ara
##เครื่องดื่ม
ซัม
มอน
สต
##แทร
##ในกีฬา
##พิชัย
##ได้รับการเสนอชื่อ
##กิจจานุ
##ูปถัมภ์
หม่อมราชวงศ์
ดับเบิลยู
##กติก
##บง
##ในครอบครัว
##กุฏ
##สเตชัน
เดินทาง
##ลาง
1978
##ตะเภา
##ก่อตัว
##ลิ้น
##เทคโนโลยีราชมงคล
##เข้
##กลู
##ราชวิทยาลัย
##กันมาก
การสร้าง
##ไทยทีวี
หรือที่รู้จัก
##แต่เพียง
##จีเรีย
รอบคัดเลือก
##วิศวกรรมศาสตร์
##อพ
##แบบนี้
##ตะกอน
##ทำงานใน
##โพธิสัตว์
##การศึกษาระดับปริญญาตรี
##มศักดิ์
##ดอย
##ดีเอ็นเอ
##โนเสาร์
##สนามแม่เหล็ก
สี่
##กิง
##หนึ่งคน
##ายนาม
##รูปแบบของ
เปิดสอน
##ถัดไป
##เชื่อมต่อกับ
##อาก
2506
องค์การบริหารส่วนตำบล
##ชั้นมัธยมศึกษาปีที่
##สมัครรับเลือกตั้ง
อุด
แต่ถูก
กรด
##สาธารณชน
ช่าง
เอม
##าร่วม
##ไปกว่า
##เสด็จพระราชดำเนิน
##ยุทธศาสตร์
##คาร์ล
##ship
รอ
##ได้รับตำแหน่ง
##แต่ไม่
##เธอยัง
##ศรีสะเกษ
เมืองหลวง
##านุวงศ์
##อารยธรรม
##เทพรัตนราชสุดาฯ
##นอล
##ระดม
##กันว่าเป็น
##กระเป
##ผลผลิต
##สูบ
##สูท
##ใหญ่อ
##ยกฐานะ
##ุษฎ
##นิติศาสตร์
##เรล
##ฤดูใบไม้
##จัดขึ้นที่
ep
ณัฐ
หิน
##ข้อบ
##ทางจิต
##ปีด
##โดยตลอด
##สามัญศึกษา
##ฆาตกรรม
##ริค
##เทีย
##เตา
ไม่สามารถ
##ute
อีกทั้งยัง
ในขณะเดียวกัน
ฮิต
##อิก
##ระวัง
##ประสิทธิ์
มีอาณาเขตติดต่อกับ
##ด้วยเช่นกัน
##้วาง
##เมื่อเทียบกับ
##สุทธิ
##ขับร้อง
##สมุทรปราการ
ช้าง
แกรม
ใส
##อัฟกานิสถาน
##ฮอต
##และวัฒนธรรม
##เจได
##อย่างชัดเจน
พรหม
##ower
##ตส์
##พิง
##สีทอง
##ตลอดทั้ง
##แผ่นดินใหญ่
ซิน
อิล
##ซาย
##ชนเผ่า
##แล้วก็
##แพร่กระจาย
กองกำลัง
โซน
##ชีววิทยา
พิมพ์
##ย่อม
##เอเธ
##แท่ง
##enc
##eng
##กรุงธนบุรี
จังหวัดนคร
##พิธีเปิด
##ธิด
##ee
##าวี
ประสบ
##หมายความว่า
##วัฒนา
##เหรียญรางวัล
แน
##จากผู้
##เดรีย
1952
##ประกาศนียบัตร
##มากเกินไป
##ทั้งปวง
##สีช่อง
##orn
##รุป
##แม่น้ำเจ้าพระยา
##บุคคลที่
##ส่วนใหญ่เป็น
สัญลักษณ์
##ศักยภาพ
high
##ของสโมสร
##ภาครัฐ
1930
2489
##มุติ
หลุยส์
##ปฏิกิริ
##เป็นฝ่ายชนะ
เนื่องจากการ
##ศาสนิกชน
##บอด
##ในป่า
##ในแง่
ในเรื่อง
##ชีวิตของ
ลิตร
##ก่อการร้าย
##ได้ที่
##เยอร์
##เวลล์
บรู
ใจ
##มกุฎราชกุมาร
##ในอีก
##ามัก
##ค้นคว้า
##ชิม
##ฑา
##การัง
##มาให้
##มาช่วย
เป็นละครโทรทัศน์
##ประกาศผล
##เรื่องราวของ
แกรนด์
##สิริกิติ์
อิม
##ตึง
ในวงศ์
##นี้ทำให้
##ขาดแคลน
ข้าง
ถ่าย
##พระสงฆ์
##ความพยายาม
##แห่งราชอาณาจักร
##มหาม
##เดินเรือ
##ยูนิ
##นิวเคลียส
เอด
##ใช้การ
เรียง
##กษ
##ดยาว
##กระนั้น
1975
##อมรับ
ปีเตอร์
##เฮล
##อีกครั้งหนึ่ง
##ตระเวน
##หันไป
##เทวดา
##ควันโด
##สมร
1920
มาเป็น
##ต้องการให้
##พ่อค้า
##สื่อมวลชน
##ปล่อยตัว
กว่า
##ชั้นใน
##ยูร
##ยากจน
##กิจจานุเบกษา
ทัน
##ฟท์
##คำร้อง
##เฟซ
เว็บ
##อุปสมบท
##เกินกว่า
##ปาเลสไตน์
##ที่ยิ่งใหญ่
##แห่งหนึ่งใน
##สถิต
##คัดออก
cy
##อ้อม
##ได้ยาก
##ผู้ช่วย
##เซย์
##รักไทย
เที่ยว
97
กระดูก
แต่ก็มี
86
มาน
##วต
มีเนื้อที่
##ปุระ
ปก
##ดรา
##อบอุ่น
ที่สามารถ
##ตุลาการ
##ภาพยนตร์ไทย
##ก่อนจะ
##ที่นั่น
##บังคับใช้
ang
##เซอร์เบีย
##ิสิทธิ์
ทรู
##ลืม
##ใต้อ
##บีซี
##ชิ้นส่วน
ประวัติศาสตร์
##สมณ
www
กัม
##เป็นอันดับที่
##เสวย
##เป่า
ที่กรุง
##พอดี
เปลือก
วัฒนธรรม
##ราญ
ซึ่งปัจจุบัน
ได้ประกาศ
##ส์และ
##หลายเรื่อง
##เพลงของ
##นามสกุล
##ประชาม
##พี่สาว
##ement
##คัง
##ซาล
##ปีต่อมา
ซึ่งอาจ
ประเทศเยอรมนี
##บ้านเรือน
int
##สังเกตการณ์
##ังข
##สามคน
##เครื่องราชอิสริยาภรณ์
##เข้ารหัส
##land
##จะไม่มี
##คลาน
##ปลุก
##น้ำท่วม
##เพียงคนเดียว
เจ้าจอม
##พูดภาษา
##การออกแบบ
##ชาด
แต่กลับ
##สหกรณ์
##ที่ถูกต้อง
หัวใจ
##ของกษัตริย์
##และชาว
กลาง
ปรากฏว่า
enter
ชุมชน
##รเทศ
##คีย์
##ไว้วาง
##สำคัญใน
##มีความสัมพันธ์
##วาดภาพ
2490
##นิเมะ
##คำสอน
หลี่
##ตอบแทน
ใช้ชื่อ
##ave
##ข้าศึก
นิส
##ือย
##ได้แสดง
##พุทธศักราช
##ทำงานที่
ตีพิมพ์
##สม่ำเสมอ
##เป็นไปได้
##หลอม
##อาบ
##บริษ
##มองว่า
##อัสสัมชัญ
nowiki
##การเป็น
##ทางเหนือ
##ชีวน
##เลขานุการ
##ซัก
##เทร
##กันกับ
##ชาติพันธุ์
sub
##โหลก
##พาด
##เคร่ง
เดล
##แนวร่วม
ก่อนหน้า
##ไอซ์
##สภานิติบัญญัติ
ขั้นตอน
##ของวัด
tra
##port
##ฎีกา
##๋ย
##ที่เพิ่มขึ้น
##ันดา
ในสหรัฐอเมริกา
ประเทศเกาหลีใต้
##อินทร์
น้ำมัน
center
จาง
แดน
##ไคร
##ผลลัพธ์
##เป็นที่ยอมรับ
##จริงๆ
##จดจำ
##ไอน้ำ
ev
ทิ
สัม
อัคร
##ได้ตาม
##กันอยู่
##ative
##รอก
##ple
##ตัวนำ
##ต่างหาก
##มหาย
##ยุ่ง
##ิวัฒ
##เซลเซียส
2502
##ยิ้ม
##พาร์ก
##ของภาษา
เป็นอำเภอ
##นิช
##ส่วนพระองค์
##เคยมี
##โปรดเกล้า
อินเดีย
##ยินดี
จอมพล
##ชุก
##หรู
##วอร์ด
##ขระ
##โขน
##ฮาน
##ris
##เขตแดน
##เพิ่มมากขึ้น
##เชียล
##สืบเชื้อสาย
เยอรมนี
##ร่วมงานกับ
##อัฐ
##ของตระกูล
##ict
##กระจุก
##สืบราชบัลลังก์
จนถึงปัจจุบัน
##อาสนวิหาร
##ของสหรัฐ
##ประกอบการ
##ูปแบบ
ste
##แม้ว่า
สก
##ออตโต
##ไต่
##โมเดล
##คุ้น
##ภูมิใจ
##เกตบอล
แพทย์
จด
##กระเพาะ
##วาเกีย
##ากรุ
##ชิพ
น้ำหนัก
แผ่นดิน
##ชิลี
##คีน
##ฮิล
##ของพืช
##สนาน
ลำตัว
##ลักเซมเบิร์ก
##ฮาวาย
##นิง
##ทนา
##ที่เกี่ยวกับ
ทำงาน
ความสัมพันธ์
เพลงนี้
##บุกเบิก
##จนกว่า
##เฮาส์
##พอที่จะ
##ควรจะ
เข้าสู่
##เซ็นเตอร์
bar
บอก
##ย็อน
##ัมน
##iel
##เทรา
inst
คณ
##ในอังกฤษ
##ของสมาคม
##เกี่ยวข้องกับการ
##อ็อง
##สถานศึกษา
##ตำแหน่งกอง
ไมโคร
##ที่เกิดจากการ
##ท้าทาย
อิตาลี
##ฟี่
##เอิญ
##ไทยรักไทย
##จริงแล้ว
เวช
##ออกมาเป็น
เนื้อหา
##ฟอง
##ลิ่ง
##ญญ
##ฆัง
##และสัตว์
##เนชั่น
##ดีกว่า
แต่เป็น
##น้อยมาก
##ขนานที่
##มอบหมายให้
time
##ไทยทีวีสีช่อง
sw
##๊อป
##ey
##วงษ์
2488
##จึงทรง
##ริมณฑล
colle
##เม็ดเลือด
##อธิการบดี
##ถ้วน
##เปี้ยน
##ปเปิล
##พบกัน
##เสด็จไป
##ทิ้งระเบิด
แกรมมี่
##af
##นวล
##บรรพ์
##ถอนตัว
ประเทศสวิตเซอร์แลนด์
##นายพล
##พอสมควร
2509
##เซ็นต์
af
##ความคิดเห็น
##สุพรรณบุรี
ขบวนการ
##ba
##ที่หลากหลาย
##ได้มากกว่า
##ทางเคมี
##เชือก
##เคลือบ
2504
อุณห
องศาตะวันออก
แต่อย่าง
##ขม
##ood
และในวันที่
##ควีน
##อลา
##พลิก
นักวิชาการ
ดอลลาร์สหรัฐ
##sc
##โรส
##แมรี
##ทะลุ
##คอนกรีต
##ปลายทาง
can
mem
##มั่ง
##ยกระดับ
##ฮก
##หนวด
##ติย
##ทรมาน
##อย่างเป็น
##สาป
##พลิ
ในปีเดียวกัน
##เครื่องจักร
##จิ้ง
วิธีการ
##มอล
##ซือ
##บาทหลวง
##สำนักนายกรัฐมนตรี
สถานีโทรทัศน์
##มิวสิ
##สันติภาพ
##วียน
##หลี่
##และป
##คนอื่นๆ
##ใหญ่อยู่
##ใหญ่ใน
##แสวงหา
บัว
##รรค
##วน้ำ
##ทำงานเป็น
##ปฏิบัติตาม
##เข้มแข็ง
##ากรร
##ผู้ฝึกสอน
##สารเคมี
##ในช่วงเวลา
##เปียโน
##เซิลเมเนีย
##มาด้วย
107
##ดำบรรพ์
##เข้ามาใน
bas
##ลุม
##ากัน
##มาตลอด
##นาท
##นิบาต
##อภิเษกสมรสกับ
อาสนวิหาร
##เด็ดขาด
her
##ได้เข้าร่วม
##เกง
##ถูกใช้
ผู้บัญชาการ
##จัดการทีม
อาจจะ
##หนองคาย
##พิธีกรรม
##ตเต
##ณรงค์
##yle
##ในเอเชียนเกมส์
##สีฟ้า
##อยู่ในช่วง
อำนาจ
##โปรดให้
##เบิร์น
##กระดูกสันหลัง
tw
##ทิม
##ไปหา
##rist
1974
ปีต่อมา
##ที่จะต้อง
##เท่าที่
##เกลียด
คณะกรรมการโอลิมปิก
med
##นัส
##เบี้ย
##ดังนั้น
##มือถือ
##โชติ
วอลเลย์บอลหญิง
##ชีวนะ
##อักษ
##ภาควิชา
##าสี
##ีกอง
##สุวรรณภูมิ
##มอสโก
##ดุษฎ
##ชาต
##ซึ้ง
##นิทรรศ
อุทยานแห่งชาติ
##็ล
##หรา
##ject
##มาเรีย
will
##รัฐศาสตร์
1939
##โยต้า
americ
##เหรี่ยง
ec
##iet
##ของเรื่อง
มีหน้าที่
##สาระ
##อตเตอร์
##แว่น
พระบรมราชินีนาถ
do
##าสำ
##ชาลส์
##ym
ก็คือ
##gin
##ากว่า
##เนรเทศ
##จิ้น
##สาวๆ
##สัญลักษณ์ของ
##วิศวกร
##บิลบอร์ด
##ใหม่นี้
##อภิปราย
tv
ซาก
##รอส
##ที่ออก
##แห่งสหประชาชาติ
พระมหากษัตริย์
##มีการเปลี่ยนแปลง
##ภูมิคุ้มกัน
##ยอดฟ้า
##พูดคุย
2493
เฉิน
##บ์
##ที่พัก
##จากนัก
##วยงาม
##พบเห็น
ทั้งยัง
จนถึงปี
##ซ่อมแซม
##โอลิมปิกฤดูหนาวครั้งที่
220
##ที่สี่
##แรกๆ
##หน้าตา
##ัสดุ
##ลูกน้อง
##เข้าใจผิด
ภรรยา
##cd
##สรี
##อกซ์
##อดอล
##เพื่อใช้
##กำลังกาย
ชื่อว่า
องศาเซลเซียส
##ไปรษณีย์
ซิ
##เป็นประเทศ
##ังกล่าว
##จากพระ
##ความเห็น
##นาบ
##ผู้ใด
จากนั้นจึง
##แอ่ง
##วงศานุวงศ์
##ตามิน
##ผลึก
เดน
##ฟฟ์
##โกศ
มาเลเซีย
##able
##ซาร
##การปฏิวัติ
##เคลียร์
##ไดร
##ฉันท์
เมล็ด
##ธิเบศร
##ดึกดำบรรพ์
##ร่าย
##ได้กับ
พรี
##สุราษฎร์ธานี
##กำลังใจ
จังหวัดเชียงใหม่
##มหาบัณฑิต
หลิว
##รอยด์
##ห่างไกล
##อัครราชทูต
##ฟรีด
##จัตุรัส
day
ตู
##สตี
เชื้อ
ประเทศออสเตรเลีย
##แบร์ค
##เสกสมรส
ลัทธิ
##พารา
##มีพระราช
##เลียง
##เซาท์
##หนึ่งคือ
##แทนพระองค์
##กองพล
##คาดว่า
##ฮัมมัด
##าวาเรีย
แจ็กสัน
##นุษย
##ทึ
##ของจักรวรรดิ
1941
1944
##ทางการค้า
##เชียร
##ทางตอนเหนือของ
เอฟซี
ธงชาติ
พลังงาน
ริชาร์ด
##ทอน
##้ายไป
##นายร้อย
อาทิตย์
air
ตลาด
ในภาค
##ดีที่สุด
##เคาน์
##สองครั้ง
##ในปีนั้น
##ication
เวีย
##ode
ทักษิณ
ในรายการ
##ทรู
##กุญแจ
##ได้รับการยกย่อง
ในการเลือกตั้ง
##พระบาทสมเด็จพระพุทธ
##ลงนามใน
##สท์
##พริก
##หมึก
##ทรวิ
##โป่ง
##ปม
##ดัล
##ที่กรุง
##วิง
##ผู้ชนะ
##เต็มตัว
ภาษาอังกฤษ
##อัยการ
##บด
ในระยะ
ทำนอง
##สิ้นเชิง
แล้วจึง
##จัดตั้งเป็น
นำโดย
##ทม
##จูง
##ครั้งเดียว
##สุภาพ
##ข้างหน้า
ขณะนั้น
เวิลด์
##การเกิด
##ของสาธารณรัฐ
##เรเนียน
##าสามารถ
##เข้าศึกษา
##เท่าเทียม
2497
ลงวันที่
##สัตว์เลี้ยงลูกด้วยนม
อ้าง
##ปอนด์
##นวม
##หวน
##เป็นส่วนใหญ่
##เวก
##โทน
##บีเอส
พระราชบัญญัติ
##่ารัก
##ไบร
##มังงะ
ฉบับที่
bu
สระ
##กิล
##วันอาทิตย์
##มากใน
##ตอบโต้
2492
##ผลัด
ควบ
##แบ่งเขตการปกครอง
##พื้นฐานของ
##ฮิตเลอร์
จับ
และอดีต
##สงเคราะห์
##สีเทา
##วางไข่
##ิชอป
น่า
ราม
##ทุ่ม
##ทำนาย
##ผลต่อ
##คุณหญิง
##บาตร
##ขั้นตอนวิธี
##โคว
##เสริญ
##เล่นเกม
ครอง
##ในช่วงต้น
ref
##ล่วงหน้า
##พริ
##ขู่
##tain
##อปเตอร์
ชาวบ้าน
##้วนำ
##ubl
##แย่งชิง
##อาระเบีย
เฟอร์
##ุ้ม
##ฮอก
##ฮิป
##ดยุค
##วิตามิน
##สมัยที่
##หนังสือการ์ตูน
##บูรพา
ครอบคลุม
##บูร์ก
##กันและกัน
##โค้ช
##บรรณาธิการ
e0
##ปนาว
##ารวม
##และประเทศ
##อดู
##ปลงพระชนม์
69
ค้น
มอง
##ส่วนกลาง
ในปีค
ความสามารถ
##ปฏิชีวนะ
##ฝ่ายสัมพันธมิตร
##และเมือง
##อีกมากมาย
ส่วนใน
เรย์
วิชา
##มอเตอร์
##วิตร
เป็นภาษา
##เพื่อป้องกัน
##คำพูด
##พลอย
##ใหม่เป็น
เทียน
##ในประเทศจีน
##แคท
##จันทบุรี
##เพื่อนร่วม
##เลียนแบบ
สำเร็จการศึกษา
mat
##ชื่อเรียก
##ในการผลิต
##ยกเว้น
##พก
##ling
##เซ็ก
##ีนี
##อัลบัม
ทีมสุดท้าย
##ฟิลด์
พระบาทสมเด็จพระจุลจอมเกล้าเจ้าอยู่หัว
คลื่น
ดัช
เชื่อว่า
##การเกษตร
##มาลี
##เซี่ยง
##อินโดจีน
##ปนาวุธ
##ได้แล้ว
##กรวย
จึงต้อง
##พระบาทสมเด็จพระจอมเกล้าเจ้าอยู่หัว
ตร
##จุน
##เข้ายึด
##ผลงานเพลง
##ตินิยม
##ถนนสาย
##จู่โจม
##อานา
##รับมือ
##ไม่รู้
##ประจำจังหวัด
##ขับรถ
##กระแสไฟฟ้า
##oth
##ital
1971
เขาได้รับ
##บรมชน
##ประชามติ
##ที่อาจ
##มีเดีย
##มาลัย
##เทควันโด
ในนาม
มีรูปร่าง
##เตส
##ิร์ธ
ตำรวจ
##ข้าหลวง
มอร์
##ปักษ์
##เป็นสิ่ง
##และทาง
ประกอบกับ
ปรับ
##air
และอาจ
##รสชาติ
##พิจารณ
ภาพยนตร์เรื่องนี้
##สันนิษฐานว่า
##พังก์
##ุจ
##คนแรกที่
อีกครั้ง
ret
วัตถุ
##ของวัตถุ
ในระดับ
##ited
##ประจำตัว
ล้านปี
##เสนอว่า
##ไฮ้
คอ
##ฟัก
##อสุ
##ซูล
##ความตาย
##ขึ้นในวันที่
1973
##อีกคน
##โนเบล
##สมาพันธ์
##บรรจบ
นักบุญ
มีความหมาย
##สงครามโลกครั้งที่หนึ่ง
##ยินยอม
##พเจ้า
##ในสหราชอาณาจักร
##ไม่มีความ
##ทีฟ
##เพื่อเป็นการ
##สถ์
##พระองค์ที่
##เชื้อชาติ
sci
##ายกรัฐมนตรี
โดยแบ่งเป็น
##โทรม
ด้านล่าง
มีชื่อเสียง
##คล่อง
หรือเรียก
##แมก
##คนที่สอง
##รื่น
##พ่น
##ที่ยาว
##ควาย
เป็นตัว
##คาถา
##ประกาศใช้
เรียน
##หนองบัว
เข้าร่วมแข่งขันกีฬาโอลิมปิกฤดูหนาวครั้งที่
##สซ
##ld
##ในชุด
##อยส์
##ขึ้นและ
##สมเด็จพระนางเจ้า
##ถือหุ้น
##ปัญห
reg
##ให้เกิดการ
เหลือ
##พิสัย
##มียอดขาย
##แควร์
96
##ซ็อง
##ที่เห็น
และยังเป็น
class
350
##พบบ
##มีประสิทธิภาพ
##rin
##ต่อวัน
##เอคัพ
1936
##ก็ยังคง
##สารคดี
##ครั้งแรกที่
##ชาร์ลส์
##หยุ
##พพาน
##ในสมอง
##เทอ
##กลั่น
โดยสามารถ
##itt
2484
##สุขาภิบาล
##อิทธิพลต่อ
คู่กับ
##สวัสดิ
##๊ส
##ในกรุงเทพมหานคร
##เกรด
ปฏิบัติการ
##้นท์
##นักบิน
##ยังไม่มี
จึงมีการ
##ไมตรี
##มองโกล
##ชุมพร
##ปะการัง
##ฟรานซิส
##ัทยา
##สยอง
##ประติมากรรม
##ติยา
##ผู้สนับสนุน
##ถึงแก่กรรม
##ทีมงาน
##เดือนตุลาคม
##ไท่
แผนก
##มหาราชวัง
##รับบทเป็น
##ailand
##ันติ
##อยู่ภายใต้การ
1967
##กระบวน
##โมบิล
ประเทศแคนาดา
##ลำน้ำ
##วลี
##หยิบ
##รักษาประตู
##ิบูล
##ให้ความสำคัญ
##็อด
##แวง
##ขยับ
และต้อง
1969
หนู
ชะ
ในพื้นที่
ซึ่งประกอบด้วย
##เปา
##ช่วงที่
##วีร
##อรุณ
##หายาก
##แบนด์
ตก
##ร็อง
##ารับ
ในระบบ
##เนียบ
sup
คาร์ล
##พะเยา
##และมีความ
##รกรรม
##ชีวิตอยู่
##องค์การบริหารส่วนตำบล
##มวยปล้ำอาชีพ
##ร่อน
##ารักษ์
##ของกรม
##กลยุทธ์
##เสี้ยว
##นิคม
2476
##แบรนด์
##เกรก
##เฟิน
##อนุกรม
##สิงโต
##เข้ารับราชการ
##หัตถ์
##ากรุณา
อัส
แพร
##พระมารดา
##เข้าสู่วงการ
##ขนาดของ
##ออฟเดอะ
เวียดนาม
##รรค์
##โรฒ
##กว่าร
คณะรัฐมนตรี
##เศรษฐี
##raph
##จงรัก
##ไพ่
สถาปัตยกรรม
are
##ชด
##วชิร
และระดับ
##สวนกุหลาบ
##เพลย์ออฟ
red
##ก็น
##มาเพื่อ
##นี้สามารถ
ที่สนาม
##ผลกระทบต่อ
##แกล้ง
บัล
##ของสถาบัน
##มาที่
##คารา
##เอลา
##ไดโนเสาร์
##เฮนรีที่
ซึ่งหมายถึง
##หาทาง
##แต่เดิม
##บทเพลง
##เนื้อร้อง
##เส้นใย
##ผลงานของ
##ild
##ให้การสนับสนุน
##แต่นั้นมา
##ฮอร์โมน
แตก
##าย์
##ทำจาก
##ไทยลีก
##ลำต้น
##รักษาความสงบ
##ทำการสอน
##ยอดนิยม
2494
ปฏ
##ได้เปิด
##เรียนต่อ
##อีกต่อไป
##มหาน
##บิ๊ก
##เจาะจง
##ลอสแอนเจลิส
กัล
ดอน
##มิง
##ปี้
##เป็นกษัตริย์
ซึ่งเขา
##เข้าสู่รอบ
เหตุการณ์ที่เกิดขึ้นในประเทศ
##ิตี
##เก็บรักษา
##แกรมมี่
##คาดการณ์
##มิวนิก
พิบูล
##หอก
##เป็นศูนย์กลาง
##โดยเฉลี่ย
##เข้าฉาย
##ชีวะ
##เพียงเล็กน้อย
##แบ่งเขต
เธอยัง
##ปากกา
##ัคฆ์
##นิทรรศการ
##ฮอล์
##ley
##ต่อมาก็
##ทุกๆ
##อยู่ที่เมือง
##การศึกษาม
##เสกสมรสกับ
##ันดร
1977
##ทรุด
##ยูโกสลาเวีย
##ไหว้
##ามารดา
##ดร์
##ของร่างกาย
##าลิ
##ธิคุณ
##พานิช
##อเล็กซานเดอร์
ของปี
##เงินทุน
##ทุจริต
##ชิงแชมป์แห่งชาติ
##ยอน
##เข้าประกวด
##ใบอนุญาต
##น่าจะ
##ไพร์
##คส์
##พยาน
##ูระ
##การโจมตี
##นี้จึง
##วนำ
##ีบัณฑิต
##เซลล์ประสาท
หลักฐาน
##ฟส์
##เป็นสัตว์
##ว่าด้วยการ
##เมียว
##เทศนา
thailand
##เปรู
##นักเขียน
##คำนึง
##บนโลก
##ประชวร
อินเตอร์
##ดาวน์โหลด
sl
##พัล
และอำเภอ
http
##ได้รับคำ
##เร็ต
##วิสัย
และทำ
##เรื้อ
ประเทศสหรัฐอเมริกา
##ภาคตะวันออกเฉียงเหนือ
เนื่องจากมี
##ร้านอาหาร
##ที่ใหญ่ที่สุดใน
##ทัวเนีย
##อิสรภาพ
##กาญจนบุรี
##ฟิว
##ลัส
##ในขณะ
##พระบิดา
##วันเสาร์
##พิพาท
##หน้ากาก
##จนานุกรม
ต่อไป
##บังเอิญ
##เยื่อหุ้ม
##ไธย
##ปราชญ์
##ที่สร้างขึ้น
##รุ่นใหม่
วงดนตรี
คอล
##ียอด
##เมกา
##อยู่ภายใน
##เนน
ซึ่งใช้
##พิทย
##แมนจู
##อาร์เซนอล
##หยุดย
##ส่วนราชการ
##จักรี
##บ้านพัก
##เอนเตอร์เทนเมนต์
##ปทุมธานี
360
cell
สเปน
##ล่อ
##เล็ง
##ควอน
##เหนือและ
ทำให้เขา
##อนุสาวรีย์
##พร้อมด้วย
##คล้ายกัน
##แกนนำ
##uct
##หยก
##oid
ได้ทำการ
##กระช
##จักรวรร
##ชายหาด
ประเทศสเปน
เอิร์ล
##แนวเพลง
##เพื่อนสนิท
##อำนวยความสะดวก
##พระบรมราชานุ
สิ้นพระชนม์
##ทรวิโรฒ
##ฝ่
##เชษฐ
stud
##ไว้วางใจ
ดิส
##์ฟ
##เคม
##เป็นระยะ
##ได้หลาย
ในจำนวน
เป็นเกม
##ทางตะวันตก
##องค์ชาย
##ในการใช้
##แทก
##ated
##โซโท
พอตเตอร์
หาง
ออ
##หวง
##ในลีก
##ประพฤติ
##และสร้าง
เป็นพระราชโอรส
##หนึ่งว่า
##ส่วนบุคคล
##จุดเด่น
##พระบาทสมเด็จพระเจ้าอยู่หัว
##่นัก
##แทง
##ขนาดกลาง
##ช่วยกัน
##เหลือเพียง
##จรด
แบ่งออกเป็น
##ใกล้ชิดกับ
##ขงจ
##ลิคอปเตอร์
##เฮา
##บริหารจัดการ
โปรแกรม
fil
##มหาว
##หลังของ
230
##๊ง
##ton
##มีด
##เดา
##ด้วยตนเอง
##พันธะ
เขาถูก
##อุปัชฌ
##บกพร่อง
##ปาร
##จลา
##ที่ชื่อว่า
##เกิร์ล
##ทางสถานีโทรทัศน์
##เจ้าคณะ
##จำนน
##เบียร์
##เค็ม
##ในเดือนตุลาคม
นอกเหนือจาก
สรุป
##นาก
##บาวาเรีย
##เป็นภาพ
##ของประชากร
##สหาย
##กลางคืน
##เฟิล
##รักษาโรค
##อยู่อย่าง
##ใคร่
kn
ผัก
รุ่ง
##ฉี
##การให้
##กันที่
เจ้าพระ
##เหลืออยู่
ฮิตเลอร์
ps
ศุภ
แร
##ั๊ก
##โกน
##บางแห่ง
##คาโก
ตามที่
มหาวิทยาลัยเกษตรศาสตร์
##ภิไธย
##สักการะ
##เผ่าพันธุ์
สันนิษฐาน
ดาร
##หมี
##ความทรงจำ
##หมัก
##ระดับโลก
##รักษาการ
##สหภาพยุโรป
##คิวบา
##ศรีนครินทรวิโรฒ
งู
สตรี
อ่าน
##คอฟ
##ทางพันธุกรรม
##กันเอง
##เอ็ส
##ได้รับชัยชนะ
##าวิชา
ผู้ช่วย
##ตีความ
ครั้งแรก
##กัมมัน
##ตอบสนองต่อ
อภิ
##ระบาย
และเคย
แต่ปัจจุบัน
##000
รุ่นไม่เกิน
##หน้าร
##อล์ก
##แอร์ไลน์
สกุลเดิม
sol
##ัร
และตำบล
##หลายประเทศ
##ทุกครั้ง
##ream
##เพื่อนบ้าน
2496
ชนิดกีฬา
กิจกรรม
ริม
##เป็นบุตร
##เป็นหัวหน้า
##ราชกิจจานุเบกษา
##เตอร์เรเนียน
##นวัต
girl
##มิโน
หนุ่ม
โซล
บิ๊ก
##เวลากลางคืน
ซิม
พย
วิดีโอ
โคน
##ไนต์
##ที่นำ
##เป็นสถานที่
##มนำ
##ชั้นประถมศึกษา
##เรียกกันว่า
##ข้อหา
##ชัยภูมิ
จัดอยู่ใน
##นิวตรอน
##และภาษา
##ความสำคัญ
##เหนือกว่า
##ตอนใต้
เฉลิม
##ที่พบใน
##กล้าหาญ
mc
##และทำให้
##รรูป
##นักท่องเที่ยว
##เกิดใน
##ene
##อสัง
##จัดการเรียนการสอน
##ย่อว่า
##จงรักภักดี
##ได้รับการสนับสนุนจาก
##นับเป็น
เป็นบุตรของนาย
##อัลบั้มชุดที่
##กาม
##ได้ร่วม
##เอื้อ
##บลุ่ม
จะมีการ
##ise
##ision
##ค่าตัว
##สืบพันธุ์
##เห็นได้ชัด
##ตั๋ง
##สะเทือน
##เรื้อรัง
##ษฏ
##ทรงกลม
##อาณาจัก
##ในเดือนมกราคม
##แต่งตั้งให้เป็น
หง
##ฮอน
##ble
##ที่ขึ้น
##เริง
##ตกชั้น
##โปร่ง
##ประจำชาติ
##แจ็ก
##คำสั่งให้
ปริมาณ
##จลาจล
rad
##ner
##ูร
##ของเจ้า
##ิดส์
##เวเน
##นิเทศ
##โอร
##ภาคกลาง
##แนะนำให้
##อาสาสมัคร
##แทรกแซง
##มาตย์
##อาม
##สับ
##พอร์ต
##กลี
##กรีน
##ขึ้นเมื่อปี
##ัทลุง
สมุ
##มหาสมุทรแอตแลนติก
har
##ประยูร
##เป็นที่มาของ
##ไลต์
##บริหารงาน
##ull
ออกอากาศทุกวัน
##ชายฝั่งทะเล
ทรงพระกรุณาโปรดเกล้าฯ
rob
สมิ
อัม
##ั๊
##ในท้องถิ่น
##จะไป
เป็นชาว
##ตามความ
##โคลัม
แอนด์
##จอร์เจีย
แอส
##ขอม
##ตุส
##ถือกำเนิด
##ากล่าว
str
##ออกไปจาก
##ที่ตั้งของ
##ไพร่
เศรษฐกิจ
ถวาย
##ลัม
##สกลนคร
##เป็นโรค
##ของรายการ
##เพดาน
##อย่างอื่น
##สีม่วง
##โรงละคร
##โคโร
off
##ในยุคนั้น
##คฤหาสน์
##ขนิษฐา
##ุช
##ผิ
##การเดินทาง
##ากัส
และนำ
และกลุ่ม
##รับจ้าง
แต่แล้ว
##บังคับการ
##เนสโก
รับบทเป็น
เชื่อม
##ฟลายเวท
อุตสาหกรรม
##ใต้น้ำ
กบ
##ที่เป็นที่รู้จัก
##รับความรู้สึก
##สามเณร
##เปิดให้บริการ
##เป็นผู้ชนะ
##แยกจาก
ได้รับพระราชทาน
##พักตร์
##ล้านช้าง
##มุ่งเน้น
##รู้สึกว่า
##ไตรปิฎก
##ภูมิพลอดุลยเดชมหาราช
##พาล
##ญญา
ประโย
ผู้ชนะ
##ตะวันออกเฉียงเหนือของ
เป้า
##จินตนาการ
โอก
##ุ่ย
##๊อก
##ที่ทำงาน
##ออกกำลังกาย
##iation
mari
##ูบ
##ที่ส่ง
##ที่ว่าการ
##ได้รับเลือกตั้ง
##สูงมาก
ระเบ
##สาวก
##มองโกเลีย
##ังขรณ์
##ดุษฎีบัณฑิต
โฆ
ในสังกัด
##เอต
##สีชมพู
##โยชิ
##ากรณ์
##วินาที
เริ่มจาก
##ชาร์ด
##เชสแห่ง
ระบุว่า
ฉาย
แดง
##มาจนถึง
##ตรฐาน
เป็นจำนวน
##เกิดขึ้นเมื่อ
ซีรีส์
##ตาลิน
อำเภอบาง
##ปลาสวยงาม
##ล้ำ
##ไปอีก
1963
พระนาม
##แล้วจะ
ประเทศอินเดีย
##oll
##บรมชนกา
น้อย
ผ้า
มุม
##เกย์
##เตสแต
##โทรทรรศน์
รวมถึงการ
##ขานักแสดง
##แกะสลัก
ทะเลสาบ
mac
##สมมุติ
##อุปราช
##ประกอบด้วยองค์กรปกครองส่วนท้องถิ่น
##แล้วยัง
pop
เทร
##ของเครื่อง
##พระเนตร
##วนิยาย
เฮนรี
##สนธิสัญญ
play
อำเภอบ้าน
วิศวกรรม
##อุปัชฌาย์
อภ
##หมิ่น
##ดน้อย
มหาวิทยาลัยราชภัฏ
##ฉิน
##มีชื่อว่า
##เพช
1962
##สาขาวิ
##ใหม่ๆ
##ช่องแคบ
##ฮีโร่
##อายุน้อย
##บรมชนกาธิเบศร
##แชน
ในค
##ผู้ผลิต
##ผู้กำกับ
##ในช่วงปลาย
##เรียกร้องให้
ใส่
รัสเซีย
##ห่อ
##ซุป
1942
##วรรค
นักวิจัย
##าน้ำจืด
ย่อ
##ca
##ันสกฤต
##ในภาพ
##โดยไม่มี
##ทำให้เขา
##เสียงร้อง
##สัมพันธ
##เคลื่อนย้าย
มหาภูมิพลอดุลยเดชมหาราช
##ดาย
##จากคณะ
นอกจากนั้นแล้ว
group
ขนม
##ในเพลง
##ของสาร
และสร้าง
##และยัง
##ิมนุษย
##ยาเสพติด
##ั่งยืน
##ica
นักวิทยาศาสตร์
##วร้าย
##ution
##จุฬาโลก
##บาศ
##ูร์
##วิว
##นาฬิกา
##ิตะ
ผู้ป่วย
##โดม
##ตอนบน
##ได้มีโอกาส
##ออตโตมัน
##ระฆัง
##ในสหรัฐ
##ตัวลง
##โมริ
##ฝนตก
##ซุง
##ิมิ
##ames
##แอนตาร์
##ช้างเผือก
##ที่ตั้งอยู่
##ของเหล่า
##พระสันตะปาปา
##เขาย
เมอร์
##นักเตะ
##เต้า
##ในปีเดียวกัน
##อยู่ในเขต
##ตกใจ
แห่งอังกฤษ
นาฬิกา
##ปฏิสังขรณ์
บัน
ผี
##ชู้
##ามวย
และกลายเป็น
##ใช้ชื่อว่า
##นักมวย
##พลับ
##ทั้งหมดของ
##เกิดขึ้นใน
##ราวาส
##หม่อมเจ้า
อดีตรัฐมนตรี
บาร
##ที่ประชุม
##ในเลือด
##แห่งใหม่
##หนึ่งปี
ประเทศอิตาลี
โรงแรม
##แผ่นเสียง
##แสงอาทิตย์
แก่
##ให้น้ำ
##หงส์
เอาชนะ
entertain
อาย
##ร็อค
##จี้
##ร์น
##วงแหวน
##ภาษาญี่ปุ่น
นักประวัติศาสตร์
##โคโล
##ท่ามกลาง
##ต่อต้านการ
ศิษย์
##ประหยัด
##ไม่ต้อง
##ries
##แก่ม
##ยาเธอ
##หวาด
ผลิตภัณฑ์
exp
##ยอดฟ้าจุฬาโลก
rock
##อเรียน
##rest
1958
##เบะ
##พวกเธอ
จักรพรรดินี
##ถ่ายทอดสด
awards
##ดัส
##แห่งแรก
##อุโมงค์
##หมุนเวียน
รถไฟใต้ดิน
##ปิ่น
##ตมป์
##ูเอล
##ฮับ
ในบท
##นักรบ
##อมเบีย
##มารด
แห่งฝรั่งเศส
##ทะเลทราย
##เกษตรกร
##พลาสติก
##พัฒนามา
##บัก
##พระองค์เอง
ทำให้มี
##วรรณคดี
##ชีวประวัติ
##เปรียบเทียบกับ
##ซ็อน
##ในเอเชีย
##ธิโอ
##คิดเป็น
##ร้อยเอ็ด
##อาสา
##เมดิเตอร์เรเนียน
เก็
##ทูน
##ซอร์
##ที่ติด
1965
##เพราะว่า
out
##ทิง
##กำลังพล
##ในช่วงแรก
สิงคโปร์
เดิมชื่อ
ใกล้กับ
พูด
##ura
##he
##way
##ขึ้นครอง
##โรแมนติก
##แม็ก
##ข้อจำกัด
##ภาษาร
เป็นนักการเมือง
##สรรเสริญ
prog
มังกร
##ตกรอบ
##ke
##ได้ย้าย
##เปรียญ
##ด้วยโรค
##ูลย์
##รุณ
สาขาวิ
##พฤกษ์
##กลาเทศ
##กอฮอล์
##ปราศจาก
##ไปให้
##ต่อหน้า
มีทั้งหมด
##ลำพัง
##เชื่อกันว่า
##ื้องอก
เป็นบุตรของ
jo
##พอย
##ที่ซับซ้อน
##เลวร้าย
##เดะ
เป็นสัตว์
##ผู้เชี่ยวชาญ
โดยมาก
##อยู่ตาม
##พระราชดำริ
##ซีนา
##น้อยลง
##ขยายพันธุ์
ยูฟ่า
##ไห้
##ในโอกาส
##ของอาณาจักร
##เกิดเหตุ
##ที่มีอายุ
##กลางปี
##หลักคือ
##แอนน์
รองจาก
##านต์แห่ง
b8
not
พนม
มาล
สภ
##ขร
##เพื่อความ
##มหากรุณา
##ิจัย
##หลักที่
##ทราบรม
มากมาย
##ิมนุษยชน
คอย
วัย
##ปาร์
##ในมหาวิทยาลัย
##ของสงคราม
##ปีน
##พลัด
##มรณะ
##ที่มีความสำคัญ
##เพาะปลูก
##เชลย
##ซามูไร
elect
lif
##มาร์ก
##ขืน
##ญาส
##เลโอ
ในแต่ละ
##กันมา
##มิฬ
##เทพศิ
##ตั้งแต่สมัย
เกิดที่
##ราวุธ
มหาวิทยาลัยมหิดล
##ในเดือนกันยายน
ศึกษา
##คุ้งตะเภา
หา
หลอด
##ฟีน
##ปกรณ์
##ฤทัย
##่าม
##เบรก
##ไทยและ
ปีที่
##ทิศเหนือ
ขึ้นอยู่กับ
##ได้รับความเสียหาย
##เอนเอียง
##เวียนนา
มูลนิธิ
##นวัตกรรม
##เป็นไม้
##ทางตะวันออก
##ลงจาก
##ไมล์
##ขึ้นมาใหม่
##ชั่วร้าย
##ทางทิศตะวันตก
##เรียบง่าย
เป็นนักฟุตบอลชาว
พันธุ์
##ด้อย
##พระเยซู
##วันศุกร์
##อยู่บริเวณ
##ผิดกฎหมาย
##ออกจากตำแหน่ง
##ฝึกอบรม
##ทูบ
##มัธยมปลาย
##มุ่งหน้า
##จอร์แดน
black
##เบรียล
##เอเธนส์
##ทช์
##ข่าน
##ำดับ
##ซิ่ง
##ริล
##เรื่องสั้น
2482
##ระบบประสาท
##โครเอเชีย
เกิดขึ้น
##ริยธรรม
ท่านได้
##ยุติการ
ฉาก
##ของเยอรมนี
##แก่ง
##จัดสรร
##าดะ
##แบก
##โพสต์
##รักษาส
##ร่ำรวย
##คนรัก
##พบได้ใน
##ประจวบ
##มาสเตอร์
##เชฟ
##แนวน
##อีกสอง
##แก่ผู้
##โดเมน
เอ็กซ์
##ไซน์
ทรงเป็น
##นำไปใช้
##ให้นาย
##โสธร
##มุขนายก
##ตั้งแต่อายุ
พิบูลสงคราม
##ครักษ์
##ไปใช้
##ในการพัฒนา
##แคป
##โทรทัศน์โดย
##ในเดือนมีนาคม
##วิสาห
##อยู่ใต้
##ที่มีต่อ
##รสลัด
##เพียงแต่
##เท่าใด
##เป็นผู้ช่วย
##ช่องว่าง
##ลดการ
##ชิงแชมป์แห่งชาติยุโรป
บลู
##เป็นเด็ก
##มีน
##สุทธ
##าชวงศ์
##สัมพัทธ
##เทียบเท่า
##เสนาธิการ
##อินเตอร์เนชันแนล
##ลาออกจากตำแหน่ง
##ลคีน
##ลงมติ
##นางเอก
##เฮน
##จับตัว
##ยุทธการที่
##พระชนมพรรษา
เสนอ
mot
##ธรรมา
##าวนาน
##ค์ไรเดอร์
##ทรงมี
##น้ำตก
##โน้ต
ในช่วงปี
##ขั้วโลกเหนือ
##สถานีวิทยุโทรทัศน์
สถิติการชก
ทรั
นะ
มาย
##ลงเล่นใน
##ลูกศิษย์
##โยธา
##กำลังทหาร
##ฟุตบอลลีก
##สาหัส
สหพันธ์
##สมุนไพร
##อสูร
##เตียง
##ปรมา
##กลับบ้าน
##ศรีลังกา
##ทั้งสองข้าง
##ซุ้ม
โทรทัศน์
##ไอซ์แลนด์
##ตัง
##ya
##ทำพิธี
##เกิดที่
##เงะ
##ลำพูน
##ซิมส์
##กาฬสินธุ์
cap
##ฮิว
##เกอ
##รับการ
##โลว์
เสด็จพระราชดำเนิน
##วิสาหกิจ
je
##pe
##คมนตรี
##จักรพรร
##วางขาย
##ที่ไม่สามารถ
##ฝึกซ้อม
##วาดอร์
##ยืนยันว่า
ฟอร์
##ขจร
##ซุก
##ของครอบครัว
##เส้า
##มากับ
##ดิวิชัน
##เฉียบ
##ชั้นที่
##สิ่งเร้า
##จริงว่า
##ศึกษาระดับ
##ปัญหาการ
เฮอร์
ครี
ราก
โจน
##ห้อ
##กับถนน
##วิฟต์
##ทำรายได้
##ตัวหนึ่ง
##เหล้า
##สัตว
##ของนักบุญ
##ดยุกแห่ง
##มั่งคั่ง
ra
ธุ
##นง
##งวด
##เก็น
##ุดิบ
1961
1918
##นิร
##สร้างวัด
##แสดงถึง
##ไว้เป็น
##ไขสันหลัง
##มหาอำนาจ
##บ่งชี้
##กิตติมศักดิ์
ca
sur
year
อิง
##น็อค
##ที่ยังไม่
##เขาจะ
##สหพันธรัฐ
ความเป็น
leg
หวัง
##ชนก
##ดีวีดี
##ระบบปฏิบัติการ
##กรรมการบริหาร
inf
##เชิงเทรา
##ัสร
##วยาว
##เปื้อน
##rge
##เมืองไทย
1949
##ใหม่ว่า
##ตกอยู่ใน
##atic
ยุทธการที่
##ผู้ครองนคร
กรัม
ดาบ
##su
##ในด้านการ
##ลงสนาม
##ุนิยม
การออกแบบ
##พิบัติ
##จัดอยู่ใน
##รวมกันเป็น
##ช่วยเหลือจาก
##ทางตอนใต้ของ
##สปอร์ต
only
##ฤๅ
##หลิง
##เล็
##นี้ได้รับการ
##ราชสกุล
##ออกได้เป็น
##ฐานทัพ
วันหนึ่ง
##ัชชา
##ัจฉริยะ
วัช
อาวุธ
##ตื้น
##ศุ
##ซอก
##โปรเตสแต
##บรมราชา
##ว่าราชการจังหวัด
##าตุ
##ในสาขา
##พระมเหสี
##ต่างก็
##เดียวเท่านั้น
##ภาษาฝรั่งเศส
สมเด็จพระราชาธิบดี
##อันดับหนึ่ง
210
##ในเดือนธันวาคม
##นอร์ท
##วิกิพีเดีย
ไบ
##ขึ้นตาม
##นักวิทยาศาสตร์
##เบ้ง
##ดินทร
##แปรรูป
นายแพทย์
##ีบรู
begin
##พระบรมมหาราชวัง
##ถ้วยพระราชทาน
##สตร
##มีหน้าที่
##ู้ด
##ในการปกครอง
##อีกหนึ่ง
กล้อง
##การแข่งขันกีฬา
##oss
ไทยลีก
ญา
##สติก
##เดียวที่
##อัลบั้มนี้
อยู่ที่
##มอบรางวัล
##เกียวโต
##ขั้วโลกใต้
ร็อก
##งำ
##เป็นส่วน
##เรสต์
##ชนชาติ
หรืออาจ
##โดเนีย
ดังต่อไปนี้
##ในเดือนสิงหาคม
##ทวีปเอเชีย
##มาตรการ
##เมตตา
กรุ
##เดือนมีนาคม
##อ้างถึง
##สมาชิกสภาผู้แทนราษฎรจังหวัด
##โกลด์
ทุกคน
ไม่นาน
799
พัก
ออกจาก
##นันท
##เลี้ยว
ในภาพยนตร์
##กระหม่อม
##เคเบิล
##ด้านนอก
##ภาคี
##แฟรงก์
ปรากฏตัว
##บาสเกตบอล
รู้จัก
##อย่างจริงจัง
2479
##พบูลย์
เทว
เสนา
##cept
##โต้แย้ง
##การศึกษามัธยมศึกษา
kh
##การท่องเที่ยว
##ลงบน
##สร้อย
##ัตตา
##ปลาก
##ที่จะใช้
alb
##ขีปนาวุธ
##ใฝ่
##ทาล
##ี๊
##ในโครงการ
##ภาพลักษณ์
##นามิ
เจ้าอาวาส
##กำลังจะ
##บริเวณที่
##จัดการกับ
char
##ผสมกับ
##นับตั้งแต่
##กำกับโดย
##เทศบาลนคร
##ระบอบประชาธิปไตย
top
##cle
##ฝัก
##ของเจ้าชาย
และเมือง
##ตัวแปร
##เพลงชาติ
##ลูกหลาน
##จบฤดูกาล
##ห้องเรียน
##บัณฑิตย
##ชานเมือง
entertainment
##ณิ
##der
เกียรติ
##กลับไปยัง
จนทำให้
##สมาชิกวง
##เส้นประสาท
##สังเกตว่า
วินโดวส์
##พระบรมศพ
##ล่อง
##โสม
##ซิสต์
##work
##ของสังคม
##สมเด็จพระราชาธิบดี
##ตัวจริง
มีพี่น้อง
##จำเพาะ
ตามด้วย
##หยุ่น
##ในเดือนพฤศจิกายน
##เป็นฝ่ายแพ้
##กัลยา
div
pet
##ดมิน
##ซง
##๐๐
##เดิร์น
##คว่ำ
##ก็ไม่ได้
ได้ทรง
##ดินา
ส่วนการ
##640
##ฝั่งแม่น้ำ
1000
##อุดมการณ์
##ราก้อน
ท่าอากาศยานนานาชาติ
##อธิบดีกรม
##เอย
##นรก
##ในตำนาน
เป็นอาคาร
ได้เริ่ม
##พระราชา
##เพียงไม่กี่
เลิฟ
##ซาเบล
##คณบดี
##สนุกสนาน
##คุ้นเคย
##กรง
##ที่รุนแรง
##เมื่ออายุ
##ons
##ink
##เล่นว่า
##แยกออกจาก
ทีมที่
##ผนึก
ไชย
miss
ฟ้า
##กถา
1900
##จำเลย
##ศิลปกรรม
##ทิศตะวันตก
##เสน่ห์
##ในเดือนเมษายน
##ยิงประตู
##พระบาทสมเด็จพระมงกุฎเกล้าเจ้าอยู่หัว
สวัส
##่ย์
##ถาป
##ได้ตั้ง
##ควิน
##เรียนจบ
##เพื่อหา
##ในการแสดง
##จำนวนประชากร
##ครูใหญ่
##ลุย
##ดีย
##ามิน
##ด้วยอักษร
ได้เข้า
##ตามปกติ
##ตุ้ง
สามารถหมายถึง
หมายเลข
##บูรณา
##ทางกายภาพ
แต่อย่างไรก็ตาม
##ธิโอเปีย
##ได้เปลี่ยน
##ได้เข้ามา
##พระภิกษุ
##จะเป็นการ
##กระดาน
##ผลของ
##ัฐบาล
##เตรียมการ
คุณหญิง
กาญ
batt
ฟอน
ยิง
ล่า
##ม็อง
##ซาง
##จะสร้าง
##เดิมของ
##ซุเอลา
##พระบรมราชูปถัมภ์
##อัฐิ
เป้าหมาย
##ระนาบ
##เสียก่อน
##สัญกรรม
##เป็นผู้เล่น
##เหมือนเดิม
##ขนาดใหญ่กว่า
##แอค
##ที่แตกต่าง
##ในต่างประเทศ
ในรัฐ
##เหอ
##บุ๊ก
##ยาปฏิชีวนะ
##ปัญหาส
เธอจึง
##ในเดือนพฤษภาคม
นางสาว
dr
สุล
##ภัทร
##และมีการ
##ให้กำเนิด
##อร์ท
##ทำตาม
##เซ่
##ตกต่ำ
##ส่งนักกีฬา
กระแส
##มะพร้าว
##ไนท์
##งามจักรวาล
##บารมี
พินอิน
อุณหภูมิ
##ควอนตัม
ข่าว
ในรอว์
##นักโทษ
1943
##อุล
##อาล
##ยัติ
##ริดา
##เอม
1966
##ุมิ
##ิจาร
##ด้านใน
คนไข้
##บรรณ
##ประเภทนี้
##เป็นต้นมา
##จักรวรรดิโรมันอันศักดิ์สิทธิ์
##แอด
##ฐานันดร
เรด
##ope
##อยู่นั้น
##ฮอลลี
##ได้รับอิทธิพลจาก
av
##ป้อน
##ไอดอล
##ความเข้าใจ
##วันจันทร์
โดยได้รับ
##เอ็ก
##เฟส
##อุตสาห
ปรากฏการณ์
##เขาสามารถ
ช่วยให้
championship
ข้าร
ป้อม
##อิศ
##ิร
##ระเข้
ได้ออก
ลำต้น
##็ฟ
##คาง
##ms
##que
##ครัด
##มิให้
##จึงทำให้
106
##เดือนพฤษภาคม
##เขียนหนังสือ
##แดนซ์
##ราวปี
roy
vol
แอฟริกา
##สัจ
##ดุง
##ที่ผู้
##ียะ
##พระบาง
เป็นวัด
##โมโซม
##ตอนล่าง
##เกษตรและ
##ประจักษ์
ไค
##พอง
##ที่ประกอบด้วย
##เป็นศิลปิน
##ดยิ่ง
##ทำอะไร
1928
##แนวความคิด
##รายการโทรทัศน์
##ตำรวจเอก
##ขนาดเล็กกว่า
เส้นขนานที่
##เรียงตาม
##ฝาผนัง
##เท็จจริง
fir
ใคร
##นโรดม
##หีบ
##จูด
##ฉะนั้น
##ผนว
##ประมูล
##ราบลุ่ม
นักแต่งเพลง
##row
spec
สมเด็จพระราชินีนาถ
##สิทธิมนุษยชน
##แต้ม
##ที่กล่าว
ซึ่งมีการ
1954
##แห่งสหราชอาณาจักร
##เคชัน
##ภาษาละติน
##ในเดือนมิถุนายน
เครื่องยนต์
##ที่ตั้งอยู่ใน
##แก่อสัญกรรม
##ปัด
##ยิม
##การเรียนรู้
##ในสัปดาห์
เป็นรูปแบบ
##ในการเลือกตั้งสมาชิกสภาผู้แทนราษฎรไทยเป็นการทั่วไป
2481
ไม่ว่าจะ
เนื่องจากเป็น
##คะแนนเสียง
##ถวายพระ
##ที่น่าสนใจ
##หยาบ
09
##rom
##อยู่ใกล้
##แล่น
##อย่างแท้จริง
##ในการต่อสู้
##บทกวี
##ยุคกลาง
##พระราชทานเพลิง
สมาชิกสภาผู้แทนราษฎร
แซม
cal
##กั่ว
##ทมิฬ
##rol
##เดวิด
##ิมทรัพย์
##แบบดั้งเดิม
##แรกเริ่ม
##เฉิง
##เดือนเมษายน
##แซ็ก
##กะโหลก
##สั้นๆ
หลวงปู่
และทาง
##เท็กซัส
##เคีย
##ซึ่งถูก
##บนเวที
##ที่ใช้ใน
กรมพระ
แถบ
##ศุภ
##ที่เรา
##การเคลื่อนไหว
##ี้ด
โดยนำ
หนัง
##เฮลิคอปเตอร์
##แหล่งมรดกโลก
##เตรียมอุดมศึกษา
อาทิเช่น
##ปรกติ
ออฟ
แอง
##อีน
##วอต
โดยทรง
##ต่อกับ
##ตำแหน่งของ
##ห้องสมุด
##ฮัมหมัด
ไข่
##ฮีบรู
ผู้หญิง
ผู้เข้าแข่งขัน
##ประกอบพิธี
สมเด็จ
เพราะมี
##ออกมาได้
790
##มิสแกรนด์
มาร์ติน
เธอก็
##บ่าย
##lt
##การควบคุม
##ในคณะ
##ese
##เรือรบ
##สาวดี
##เส้นเมริเดียนที่
เหย
##ดุริย
##ไม่น่า
##หม่อมราชวงศ์
##กับผู้
ในชาร์ต
##ชีวิตร
##มิใช่
##ในการทำงาน
2485
##ส่งข้อมูล
##สันต
ผลการแข่งขัน
##ดวงตา
##ที่สองของ
รถไฟฟ้า
กลับมา
##เจ้าอาวาสวัด
##สมมติฐาน
##คลา
##เจตนา
##กาจ
นักกีฬา
นอกจากนี้แล้ว
ชื่อของ
##ยึดอำนาจ
##แก่นัก
assoc
##ทบท
##ละออง
ซึ่งก็คือ
##ทีละ
##ปกเกล้าเจ้าอยู่หัว
##จะมีลักษณะ
##ทิศตะวันออก
##ส่วนใหญ่ของ
##ศึกษาส
อ็อง
##เร่
##ริว
ในตำแหน่ง
##ลงสู่
##เอมิ
##พระราชสมภพ
##กีด
##อังกฤษและ
##แซ็ง
##ดับเบิลยูอี
##ของทาง
##ins
##เดือนกันยายน
##กรุงรัตนโกสินทร์
##เฟรด
##ทิศใต้
##ขอร้อง
##ข่าวลือ
พบกระจายพันธุ์
ภูเขา
##เสรีนิยม
##แชร์
คารา
##ของสหราชอาณาจักร
เมื่อครั้ง
##เวิร์ค
pa
##และกลุ่ม
wind
##ทางกฎหมาย
##สำราญ
##สร้างโดย
##สองปี
##เพลงฮิต
##ทันหัน
##คาดหวัง
##เซี่ยงไฮ้
นิติ
##ts
##เรง
##แสดงให้เห็นว่า
##แก่การ
ประเทศบราซิล
##่อยาก
##อินท
##กลายพันธุ์
##เกือบทั้งหมด
ชุดที่
##บานอน
##บริหารส่วนจังหวัด
ไบรอัน
gold
##กกังวล
##เป็นเวลานาน
มีทั้ง
ในเวลาต่อมา
song
ตึก
##่วิ
##ุดี
##len
##ony
##เอลฟ์
##จูเนียร์
##โคลอมเบีย
##แก๊ง
##รำลึก
##ดาวเคราะห์น้อย
##มหากรุณาธิคุณ
แรก
##นูน
##พระบาท
##เทศมนตรี
##ต้องห้าม
2478
ผู้กำกับ
##กลุ่มหนึ่ง
##ข่าวสาร
อยู่ห่างจาก
##มิตรภาพ
หม่อมหลวง
แฮร์รี่
##เลื้อยคลาน
ยาง
วิส
##จก
##พัช
##๊อ
##เทส
##วงโคจร
##ตัวและ
##ชาวอิตาลี
##ทีมของ
##มีความสุข
##โปรเตสแตนต์
ห้าม
##รกร
##บิชอป
##หลิว
##พระตำหนัก
โดยเขา
##ถูกเรียกว่า
การประชุม
##แสดงภาพยนตร์
##เก็บข้อมูล
ใช้เวลา
##เสบียง
##ouse
##เคร่งครัด
วอ
วอร์
##ออด
##ป่วน
##ล้น
##เสด
##enn
##ator
##ดังกล่า
##สมเด็จพระเทพรัตนราชสุดาฯ
##แก้แค้น
##ปฏิสัมพันธ์
##หุบเขา
พยายาม
##sm
##ฒ่า
##อุทัย
##ates
##เรตส์
วิกิ
ฮ่อง
##gh
##ของคุณ
##ได้พบ
##เทม
##โลส
##ธิษฐาน
การพัฒนา
##ีน่า
##้อยละ
##ณาจารย์
308
##สัตว์น้ำ
##แปลงร่าง
##ปากแม่น้ำ
##อเรชัน
##ดิสนีย์
del
rh
##ที่เริ่ม
##รูซาเล
##สุรา
##ก่อนการ
##ลดความ
ภาพยนตร์เรื่อง
##แอลกอฮอล์
##อธิบายว่า
prod
##ความเร็วสูง
##ซัคเซิน
back
ไต้
##ไวน์
##ที่จำเป็น
##สนทนา
##chn
##ออกแบบโดย
คริสต
##สมรภูมิ
##เบื่อ
##อุทก
##ิวา
##รัฐมนตรีช่วยว่าการกระทรวง
##ไอโอ
รวมทั้งการ
ตั้งอยู่บน
เหรียญเงิน
มีลักษณะเป็น
##ร่องรอย
##ลึง
##ฝ้าย
##วัณ
##ในค
##ในตระกูล
##ริ้ว
##แล้วว่า
##เดือนมกราคม
##ของพระมหากษัตริย์
##เข็มขัด
##เป็นชื่อ
##แห่งเดนมาร์ก
ของการ
##ตนเป็น
อยาก
นายพล
##ที่มีความสามารถ
องศาตะวันตก
##อวอร์ด
mr
ปาน
##บ่อน
##นี้ด้วย
##ลงไปใน
มีผล
##นักบวช
1946
##ืนยัน
##ระดับนานาชาติ
##ปริยัติ
##สระบุรี
ut
wrest
ออล
##ของทั้ง
แต่สุดท้าย
##ชาวเมือง
2480
##ัจโจ
##เดือนมิถุนายน
112
##วัยเด็ก
rev
##เป็นพระมหากษัตริย์
ราคา
mic
ซาม
มาร์ก
##ระมิด
##ตรึง
ในส่วนของ
เป็นบริษัท
โดยจะมี
ทำการ
##รสุม
##เรือเอก
เป็นต้นไป
##ร้อยปี
วีร
##ผลิตร
##คนนั้น
##ที่มีประชากร
ประเทศพม่า
ส่วนมาก
##บรรทัด
##โบร
ทีวี
จูเนียร์
ธุรกิจ
##ทอร์
##พอน
##พยุ
##ในราชสำนัก
##ของเซ
##และเครื่อง
##ริโอ
##ให้เธอ
##วันหนึ่ง
##มหัศจรรย์
##ฐานข้อมูล
##เอกอัครราชทูต
##บีเรีย
ซีนา
##จุลจอมเกล้า
แข่ง
college
bre
##ิท
##สโตน
##สแควร์
##มีปัญหา
##หนุ
##ติวงศ์
##ตำหน
##ใหญ่และ
##โกง
##มันเป็น
อย่า
##ข่าวว่า
##เป็นอันมาก
แรม
##ขยะ
##ev
##พระชันษา
แต่ได้
##ทางการศึกษา
##การศึกษาขั้นพื้นฐาน
หน่วยงาน
##ทางรถไฟสาย
count
##ฟาร์ม
media
##ย้ำ
และมัก
##ปีละ
##รองเท้า
##วิทยาศาสตร์และเทคโนโลยี
##ไนน์
##เจริญรุ่งเรือง
##ี๋ย
##ซอรัส
ดำเนินการ
##ฟาส
##ฝาง
##ต่อเมื่อ
##นักวิชาการ
1959
1947
##กระหว่าง
##เริ่มแรก
เจ้าพระยา
##โจรสลัด
##เก็บน้ำ
##ดวงดาว
หนังสือพิมพ์
##cc
##พาร์
##ที่ยังคง
##ในภาษาอังกฤษ
##เทกซ์
##ั่นเอง
##ทองแดง
##จับคู่
##ส่วนใหญ่จะ
##710
ขุนนาง
##อสุจิ
ดยุค
##ประภา
##มาตั้ง
##ออกนอก
##อย่างสมบูรณ์
1932
ได้เป็น
เพลย์
##ใจว่า
เมื่อมีการ
##เดินแบบ
##เลี้ยงเป็น
##สถาบันอุดมศึกษา
##ที่สูงกว่า
อเมริกัน
##แมนเชสเตอร์ยูไนเต็ด
##ปิง
##ทนาย
##พหล
##ที่พัฒนา
##ได้เห็น
##ลงประชามติ
โดยอาศัย
##ตัวเขา
##ัลด์
##เคส
##เยน
##ชาวนา
จะทำให้
นักศึกษา
แม้แต่
##ได้เป็นอย่างดี
##อิ่ม
##พัทลุง
ในศึก
ซึ่งก็
##มนตร
##โมนา
##กลุ่มนี้
สมบัติ
##ยอมจำนน
แต่งตั้ง
record
##ยาล
##ถนัด
##ที่ชัดเจน
##ของหน่วย
##และใน
##ริชาร์ด
##ปลักษณ์
##ater
##นนี
ภายหลังจาก
##เสนอให้
##แม้กระทั่ง
##por
##นโปเลียน
##ของคลื่น
##และทำ
ในเกม
##เข้าเฝ้า
##พระราชกฤษฎีกา
ของเขา
##ติดกัน
##ลูกเรือ
##ไรน์
##โทรคมนาคม
##จุดที่
##ทางตอนเหนือ
เผ่า
##ิ้ว
##ความดี
##หมอก
ที่เรียกว่า
##แปน
ภาควิชา
##สภาพอากาศ
##ัศมี
ละครโทรทัศน์
##บูลย์
ปัจ
วุฒ
##ทลาย
##วาร์
##ซฟอร์ด
##ที่สมบูรณ์
##ไม่ได้รับ
##เอิร์ธ
คนสุดท้าย
##ในเดือนกรกฎาคม
##เลนส์
คิดเป็น
##ฟรีดริช
pal
##งอย
##้น้ำ
##ไปโดย
##บริบท
##หน้าใหม่
##สำหรับผู้
##คริสต์มาส
##790
##กระชับ
ดาร์
##คือน
##ty
และประเทศ
##จากการที่
ความรัก
##เฮฟวี่
รัฐแคลิฟอร์เนีย
##เขตการปกครองข้างเคียง
##สเปก
น็อค
##โณ
##มีความหมายว่า
ทริ
ธาตุ
##ดิล
##คอล์
##of
##ารู
##จะได้รับการ
พระวร
##แบตเต
จะใช้
##630
จัดขึ้น
##แม่เหล็กไฟฟ้า
##แมคดาวน์
##ใหม่อีกครั้ง
line
##ชุ่ม
##มาจนถึงปัจจุบัน
##ทางน้ำ
##ูกู
##นักมวยปล้ำ
##เอมอน
ที่ทำให้
##เข้าเป็น
##เสียงของ
##เล็กกว่า
##คุณวุฒิ
##เก็บภาษี
จากนั้นก็
เที่ยวบิน
05
##มาโดยตลอด
##ติจูด
โดยเป็นการ
1912
1924
##ชีน
##ดิ่ง
##ชุดแรก
##ทั้งสองฝ่าย
show
##โดยไม่ต้อง
##ตั้งชื่อตาม
##ภาษาสันสกฤต
ภาร
##็อท
##ยงค์
##ุร
##wa
##ในดินแดน
##ได้และ
##มาล
##เกด
ในเครือ
##เรียนที่
##ปล้อง
##ขาคณิต
##ในช่วงที่
##เรสเซิลเมเนีย
##เอ็ดเวิร์ดที่
imp
##บัค
##โยก
##ius
##let
การเปลี่ยนแปลง
ประเทศอินโดนีเซีย
##สูงอายุ
ความหมาย
##ศักย์
เลอ
มิตร
##โอกาสให้
##ยากลำบาก
##ย่อยของ
##มุ่งมั่น
##บ่งบอก
##ากัสการ์
nor
ดารา
มวย
##ha
##ในร่างกาย
##ประลอง
ในรูปแบบ
##เนียว
ซึ่งถือเป็น
ที่มีการ
เชอร์
ประเทศกรีซ
##ิวเคลียร์
##เล่นฟุตบอล
##มีความรู้
##โปรเจกต์
##ความเป็นไปได้
ปราโม
รูปร่าง
##ระลึกถึง
##ฟุตซอล
##ฮาม
##ที่ต่างกัน
##หมากร
##ขึ้นสู่
##นักดนตรี
1938
##นิทาน
ผู้มี
รัฐธรรมนูญ
##รู้จักกับ
##สุรทิน
##ka
##ของภาพ
##คลั่ง
##ชื่อว่าเป็น
##หมู่ที่
##สูงสุดที่
##ไดออกไซด์
##นั่งเกล้าเจ้าอยู่หัว
##ในโอลิมปิกเยาวชนฤดูร้อน
##สแลม
##ได้เปรียบ
##เทค
##เข่า
##รับตำแหน่ง
##น้ำจืด
##เสียชีวิตลง
##แยร์
##อุตุนิยม
##เจอร์ส
##แทนที่ด้วย
##มิลาน
ไทร
##งอก
##ยาท
##วีน
##นักสืบ
##เพื่อไป
เมื่อมี
##แต่น
##เลือกที่จะ
##ยูเร
##เวียร์
เรือน
ชาร์ล
##net
##แยะ
##ดัชนี
##ำรง
##มากยิ่งขึ้น
##สามมิติ
##ซาอุด
##ของพระเยซู
##วิทยาศาสตร์ว่า
##ฮิโตะ
from
เหมือนกับ
##บรูไน
##ข้อกำหนด
ฮังการี
##ปทาน
##จัดหา
##มหญิง
##หญิงยอดเยี่ยม
##730
##ปล่อยให้
##ฟีฟ่า
##ike
สเป
##องครักษ์
##อย่างเช่น
##เข้าโจมตี
##เกิดเหตุการณ์
##ใหญ่กว่า
ปีการศึกษา
ประเทศอาร์เจนตินา
##รอบคัดเลือก
##หมากรุก
##โทะ
##ภักดิ์
##ของสหภาพโซเวียต
##รับสมัคร
##เวฟ
##อีกว่า
##ดนาง
##พร้า
##ร่วมการทดลอง
รายพระนาม
##มองเห็นได้
##ล่าสัตว์
##ชลประทาน
##สถานะเป็น
##อยู่นอก
คัมภีร์
##ฟิช
##คอบ
##ของแม่น้ำ
##ปรางค์
##ส่วนหัว
##จัดสร้าง
##เครื่องปฏิกรณ์
##รางวัลออสการ์
เว้น
##บอกเล่า
##มัธยมศึกษาตอนปลาย
##ร้านค้า
##ขนส่งมวลชน
โบสถ์
##ขนาดย
ขาย
##ในกองทัพ
##จำพรรษา
อินโดนีเซีย
##เหตุผลว่า
##พระบรมวงศานุวงศ์
วีระ
ม้า
มัล
##ในคณะกรรมการ
##ว่าน
##จะนำ
เป็นสถานที่
##เนโกร
เมื่อเวลา
##ไฟฟ
ล้านชุด
##ประสบปัญหา
##คอนสแตน
##แห่
##เล่าเรียน
เจ้าชายแห่ง
โปเกมอน
sal
##กประสงค์
##ุติ
ในกรุง
##แห่งหนึ่งของ
##จึงตัดสินใจ
และเป็นหนึ่งใน
##เต็มดวง
ภายหลังการ
##ization
##ไคล
##จูน
##ที่ตน
##ันต
ในด้าน
##เตียว
##อินทรี
##ศาลเจ้า
##ฟอนโซ
live
##ที่บริเวณ
##กะเหรี่ยง
##ทางทิศตะวันออก
เยอ
acc
##กล่อม
##ราชเทวี
##งานศิลปะ
##eration
##ปกครองโดย
##รักษาความปลอดภัย
เบร
##ฮิโระ
##บิดามารดา
##มัสยิด
##ดอม
##เป็นคำ
##ของจำนวน
##ของตัวละคร
##จะเรียกว่า
##เจล
1957
แต่ไม่มี
##ที่มีประสิทธิภาพ
2483
##รุ่นแรก
##ucle
##อสังหาร
นโยบาย
ฝั่ง
##โบน
##ที่ดู
##กับกลุ่ม
##จะเกิดขึ้น
เป็นจังหวัด
##ผู้สร้าง
##จึงไม่
##อาร์กติก
##เผยแผ่
เนื้อเรื่อง
##กรณีย
##คีรีขันธ์
##กระต่าย
eu
หอย
##กิม
##วาร์ด
##ในบท
##ถึงกับ
แต่ไม่ได้
##หน้าของ
เนื่องด้วย
##เวเนซุเอลา
er
ฉัตร
##กอล์ฟ
##ในเวลานั้น
และคณะ
##มาสู่
##ตรัม
##รูปปั้น
แคนาดา
##ลอบสังหาร
สปีด
##ฟาน
##vent
##เกือ
##เซะ
##เข้าเมือง
##โอเวอร์
##ภูมิทัศน์
จังหวัดชลบุรี
ในเดือนธันวาคม
##ทางทิศเหนือ
##เต้นรำ
##งกอล
นาน
อิบ
##de
##หนอน
ซึ่งได้รับการ
##าศรี
##จนหมด
แมก
##จีเอ็มเอ็ม
ไทยแลนด์
จันทร
##สุขุมวิท
สมิธ
life
sn
มัส
##ปกรณ
##คันท
##การสื่อสาร
##ในอินเดีย
##ติมอร์
ในจังหวัด
##วิค
##ชาวต่างชาติ
##ภาคที่
##ชิคาโก
##บอกซ์
##ครูเสด
##ปะทุ
##เขมรแดง
บอย
##มูน
##ฮอป
##ole
##ามว่า
เป็นเมืองหลวง
##ลงแข่งขัน
##อีกอย่าง
##เดือนกุมภาพันธ์
##ทุกชนิด
##ศูนย์การค้า
##ปริมาตร
##รอยัล
##นัยสำคัญ
##ปาล์ม
ประสูติเมื่อวันที่
สุลต่าน
du
มง
##ze
##ที่เปิด
##าสึ
##หน้าจอ
##พระราชมารดา
##สมเด็จพระจักรพรรดิ
##แม่ของ
##เด่นชัด
##แฟนคลับ
สำนักงานคณะกรรมการ
##สรรพสินค้า
##ิร์ฟเวอร์
instit
คิว
นิกาย
##เฒ่า
##บวม
##ที่ก่อตั้ง
##ที่ค่อนข้าง
##ของปลา
##ราชดำเนิน
##จักรภพ
ของวง
##เดือนธันวาคม
##ผ่านศูนย์กลาง
ความคิด
##สันนิบาต
ในเดือนตุลาคม
##มาตั้งแต่สมัย
##นันท์
##รวมตัวกัน
ข้าม
ปะ
อากาศ
##ในพิธี
##าวัจโจ
##แห่งแรกของ
ประดิ
ประเทศมาเลเซีย
เทอร์
##จุดมุ่งหมาย
##ได้รับความสนใจ
สถานีวิทยุ
08
sa
วิต
##จากรัฐบาล
##อยู่ได้
##คนปัจจุบัน
##คนสุดท้าย
##แล้วจึง
##ซึ่งทำให้
##780
##ธิดาใน
##ให้นำ
##เชลซี
##อำเภอบาง
##อภิสิทธิ์
##ลุมพ
city
di
mark
##ไวย
##ากี
และจังหวัด
##ิกะ
##ฐานของ
##ตอนเหนือ
##เติร์ก
##มหาดเล็ก
##จอร์จที่
ย้าย
##สแกน
##ซัด
และโรงเรียน
และได้รับรางวัล
##ราเอมอน
ซึ่งอยู่
มีดังนี้
2471
##คุณลักษณะ
##โคลัส
##เข้มงวด
##ปิโตร
##กระเป๋า
first
310
val
คาน
##จะอยู่ใน
##ไปทั่วโลก
##ีกระ
##อุทธ
##ยกฐานะเป็น
##พรรคไทยรักไทย
##เต็มวัย
##ตลอดชีวิต
##เพศชาย
ขึ้นมา
##โฆษก
ext
การ์ตูน
mal
ขบวน
##ห้อย
##หอคอย
##บอบ
##ยูก
เป็นครั้งแรก
##ทำเนียบ
##เนป
##เคิดส์
##เทพี
วิทย
##680
##แยง
##พยายามจะ
##ต่ำสุด
บางคน
ในเดือนมีนาคม
##ใช้อำนาจ
##ทางตอนใต้
##แช่
เว็บไซต์
ขา
ลอส
ฮิว
##๊า
##ที่อาศัย
##ในสนาม
เป็นลูก
##โมโน
##สีส้ม
##ไว้กับ
##กลับมาเป็น
##จากการเป็น
##เดือนพฤศจิกายน
##มักจะเป็น
##ต้องการที่จะ
##ที่สำคัญของ
##เจ็บป่วย
##เวลานี้
โพธิ
##บอสเนีย
ที่ยัง
gm
แอด
##ที่เข้า
##ว่าเป็นการ
##มาทำ
##ออกฤทธิ์
##พรต
จังหวัดนครราชสีมา
##ลีลา
ตำบลบ้าน
##ทางทิศใต้
##กรุ๊ป
##อสังหาริมทรัพย์
cyp
ฮะ
##ร้าว
##ของทหาร
เป็นอาหาร
ซึ่งรวมถึง
##ผ่านเข้ารอบ
##เฟต
##ผลิตโดย
##ท้ายที่สุด
##เดียวกันนี้
##แสงสว่าง
##ทำลายล้าง
##ค่อยๆ
##ศิริราช
##ทัก
จึงทรง
##ตอนนี้
จนในที่สุด
##out
งานศึกษา
##สดใส
##ฟาก
##ในนิตยสาร
##ให้คำ
##ความสุข
##แห่งฝรั่งเศส
##เยรูซาเล
##ลำเลียง
พระองค์ได้
##ใบ้
ชื่อเดิม
##สเตเดียม
##ให้ความช่วยเหลือ
##หงสาวดี
แฮร์
##การเลือกตั้งที่
##ชนนีพันปีหลวง
cd
ปิด
##นุษย์
##แชล
##ได้ดังนี้
##เทศมณฑล
##เว่น
##ตัวรับ
##หน้าอก
##พระราชนัดดา
##เล่นดนตรี
##เซอร์ไบ
##ใส่ใจ
##เดอริก
american
##อัพ
##สท
##gn
##bu
##การกระทำ
##มีขน
ในรัชกาลที่
##เหวิน
##แบบใหม่
##ปลีก
##โอริ
##ิจูด
##ระดับชาติ
##ปากน้ำ
##430
ในเดือนมกราคม
##ราชาภิเษก
##ถูกจับกุม
##เวลาสั้น
##แซนไทน์
##สมณศักดิ์
##เกรกอเรียน
##สวิส
แต่ด้วย
##เมื่อครั้ง
##ใหญ่ที่สุด
##อำมาตย์
##แฟร์
##ท่านได้
style
##เชื่อมั่น
##ยังคงเป็น
##มอบให้
##ยืนต้น
##ตะวันตกเฉียงเหนือของ
เขียนบท
##ฟอก
##ัทย
##พระจันทร์
##แล็ก
1953
##โรเบิร์ต
##จัดพิมพ์
##พันธุ
##คุมขัง
##ถ่ายแบบ
เดิมที
##ฮ่องเต้
##ัฏฐ
##clude
##และปริมณฑล
ไหล
##แบท
##จะทรง
##ทางธรรมชาติ
##อยู่ข้าง
ซึ่งอยู่ใน
##จารี
##610
สุริยุปราคา
##ชิงแชมป์เอเชีย
ท่ามกลาง
เยอรมัน
ปฐม
##แวก
##ฮือ
##พระเมรุ
ซึ่งมีความ
##ตุง
##690
##เอฟเอ็ม
##ฟาเอล
##ากฎหมาย
ve
##ม่าน
##ไว้ให้
##สงครามกับ
##นานา
##มอนเต
นวนิยาย
สึ
เวน
##ชาลา
และเปิด
##เล็ต
ก็ยัง
ปัจจุบันเป็น
##ยอดเขา
##เร็วกว่า
โจเซฟ
##ศาสนสถาน
##ฉะเชิงเทรา
hot
ห้วย
##เทิน
##ผู้สำเร็จราชการ
ที่ตั้ง
##โนส
##สารี
ผู้คน
นักมวย
##ป้องกันและ
##เบิร์ด
dep
##ญาตให้
##ลงเล่นให้กับ
##วัตถุดิบ
เผย
##รุด
##ดิง
และเป็นการ
##และนำ
##เขากลับ
##้ำมัน
##ตำแหน่งที่
##นครสวรรค์
##ภาษากลุ่ม
##มีลักษณะเป็น
##ที่มาของ
##ฝาแฝด
battle
##เซอร์ไบจาน
##ไจ
##ไม่ชอบ
##อลำ
##ถูกจัด
##ประกว
เพื่อใช้
##โครโมโซม
##ประกาศให้
##ไม่อยู่
##แอนติ
##เบญจ
##ากรรไกร
##สยองขวัญ
sim
อเล็กซานเดอร์
##มณ
##ผิง
##เจือ
##งานกับ
##พิจิตร
##คำศัพท์
##ประกาศข่าว
##พรรคเพื่อไทย
##อุทธรณ์
ทัศ
##อโศก
##เฌ
##ตอร์
##พินทร์
##เป็นคนที่
##ว่าเธอ
##และจังหวัด
##วันแรก
จากโรงเรียน
##ประจำทาง
##ถิ่นกำเนิด
สีแดง
เอกสาร
คอนเสิร์ต
aut
กรี
โรส
##ของสิ่งมีชีวิต
##มีทั้ง
##ความเครียด
##หนึ่งเดียว
##ครองแชมป์
125
##กราฟิก
หลาน
##โอกะ
##ซิงเกิลที่
##เปรี้ยว
ยศ
รส
ลอง
##โงะ
##เมียน
##ออกเดินทาง
##อีกอย่างหนึ่ง
##ต้นทุน
ประเทศฟิลิปปินส์
##ร่วมเพศ
##สมาชิกวุฒิสภา
##ชุดใหญ่
เริ่มออกอากาศ
##ther
rep
สีเขียว
จึงได้มีการ
##หลงรัก
##แก้ไขปัญหา
ver
##ความหวัง
##จะช่วย
##ไม่เห็นด้วย
##ทรยศ
ผู้จัดการ
จนได้
##แยกแยะ
##รุ้ง
##ถ่ายรูป
##บังกลาเทศ
ระหว่างการ
ไตร
##อาง
##ขององค์การ
##kin
โดยในปี
##เบงกอล
การผลิต
##นครพนม
##แยกเป็น
##ที่ยาก
##โสภ
##สาบาน
don
คม
ซัล
##ฌาน
##อย่า
##คนหนึ่งของ
##เรียม
##เนื้อเพลง
##วินโดวส์
ล้านปอนด์
##tern
##สเตต
เป็นพระโอรส
##คาสเซิล
ตะวันออก
##เถรวาท
ไก่
##เผชิญหน้ากับ
##ีกองทัพบก
กุล
นิน
อวอร์ด
โดน
##วอย
##ของภาพยนตร์
##มีเพียง
##เลี่ยน
##เซ็ง
##ที่มีขนาด
##รองประธาน
##ภาษานี้
##ใช้อักษร
บุตรชาย
##ตรังสี
##แอปเปิล
##ทราบรมราช
##เอมิเรตส์
ยาม
ร็อค
##ของคณะกรรมการ
##และนักแสดง
##ติโน
##ทางภาค
##เอธิโอเปีย
##คณะกรรมาธิการ
##สนามเหย้า
##อีกครั้งใน
##ป้องกันแชมป์
##urn
##ที่ทำจาก
##ฝังศพ
##ได้รับการเสนอชื่อเข้าชิงรางวัล
royal
##ที่สวยงาม
##เลบานอน
ในส่วน
ในภาษาอังกฤษ
##บริบูรณ์
##ข้อเท็จจริง
##ภัยพิบัติ
ในเดือนพฤษภาคม
##ถ่านหิน
หุ่น
##นพ
##ยั่งยืน
##ที่เน้น
##การตลาด
และนักแสดง
##เพี้ยน
##ไม่ได้รับการ
1951
ได้สร้าง
##เบเนีย
##แตง
##ติดทีมชาติ
##อนุพันธ์
กับนาง
##ศูนย์สูตร
##ลิงก์
##พฤกษ
##ฆ่าตาย
แมนเชสเตอร์
อุดม
##ตำหนิ
อร
##หฤทัย
##บอ
##ในการประชุม
ยูโร
สายการบิน
##กล้องโทรทรรศน์
##มีผู้เสียชีวิต
##โถง
was
สตูดิโอ
##พระวิหาร
เจ้าน
เอ็ก
แล้วก็
lo
รายนาม
อุล
เป็นส่วนหนึ่งของ
ที่เคย
##ุกูล
##ศาสดา
##กองบัญชาการ
เน้น
##ฝ่ายตรงข้าม
##ทั้งสองคน
หากแต่
ตรงกับวันที่
แบล็ก
##สภานิติบัญญัติแห่งชาติ
nat
##มรสุม
##bf
##อนันต์
##เนื้องอก
##เป็ด
##ซีซั่น
##เหนี่ย
##รถโดยสาร
##ทั่วไปใน
##ของเขาคือ
##ตอบคำถาม
##อดีตร
##โคลัมเบีย
ศัก
##ห่ม
##สีกองทัพบก
##ถนอม
##สิค
##ทำงานของ
##เสนี
##ows
##มนุษยศาสตร์
##บุคลิกภาพ
##ใหญ่มาก
ก๊
##วจน
##เป็นทีม
##มาเลีย
##ไปมา
ในบริเวณ
หรือไม่
##ัสติน
##พบปะ
เช่นการ
##ชั้นมัธยม
##สำหรับเด็ก
##บรรเทา
##ฝ่ายค้าน
##เชียส
##อล์ค
##ปฏิเสธที่จะ
เอกซ์
##เจ้าน้อง
เติ
แคน
##ซารา
และเพื่อ
2487
##สาธิราช
##สมัยนั้น
##พ่อของ
##ไบเบิล
เทศกาล
ติดกับ
##ภูมิสูง
##เคาน์ตี
##แอนตาร์กติกา
program
วิกิพีเดีย
ben
hd
##็บบ
##การกุศล
##เลา
##พระคลัง
##ring
##อย่างง่าย
##ก็อต
เจอร์
ในเดือนมิถุนายน
กล่าวถึง
##ประมวลกฎหมาย
##อธิก
##ยวดยิ่ง
fun
อั
##แต้
##ได้จากการ
##และครอบครัว
การเดินทาง
##ใหญ่น
##สัมมา
##โทนี
##โคลง
##ลิช
##กระทรวงกลาโหม
##แจ็ค
##ange
เกาหลีใต้
788
##ุ้น
##วยัง
##ชนกลุ่ม
##สุดท้อง
##เอกภพ
115
##พรรคพลัง
##ราชวงศ์ชิง
##ตะวันออกเฉียงใต้ของ
450
jap
นาค
ลอน
##ฟง
##ก่า
##ยศาสตร์
##ราด
##เลื่อม
##พระสวามี
##เขาน
ที่อยู่
การก่อสร้าง
##ยกที่
##เริ่มมี
##อาจทำให้
##อาจจะมี
##อีกครั้งในปี
แมลง
##สวนสัตว์
##ธิดาของ
##อิทธิพลจาก
##เชื้อสายจีน
อับดุล
vi
ซะ
ปรี
ยง
##ในทีม
##และระบบ
##เสียน
##ใช้คำว่า
##เหมา
##ผลสำเร็จ
เขาย
##หลายประการ
##any
##โตเฟอร์
##โคร่ง
##ush
##เติล
##rag
เคยเป็น
โดยใช้ชื่อ
##กล่าวหาว่า
จิม
##นี้ไป
1933
##แห่งอังกฤษ
##เดือนกรกฎาคม
111
##ศักดินา
309
##ที่เป็นไปได้
##พาตัว
##เสียชีวิตของ
##แพร่ภาพ
##ไบแซนไทน์
arch
##สภามหาวิทยาลัย
##กวนอู
##ได้รับเลือกให้เป็น
grand
##มหาวชิ
##ผิวน้ำ
ยะ
##ล้า
##ึล
##ารุส
##ผู้ก่อตั้ง
##บบังคม
##โลกรุ่น
##รีส
##าศิลป
พระมหา
##สังข์
##ทางการทหาร
##มืออาชีพ
##ทะเลาะ
##outh
##ห้องปฏิบัติการ
##สภาพเป็น
##ิบเบียน
จีเอ็มเอ็ม
##อักขระ
##ธรณีวิทยา
##สมรรถภาพ
ip
iii
ลาน
สกาย
##พัทยา
##มีบุตร
##ินซ์
##เกสร
เป็นหน่วยงาน
1919
ตามปฏิทิน
##ถ่ายโอน
##490
##ออกอากาศทาง
##ไข้หวัด
##ตะวันตกเฉียงใต้ของ
##โมบิลสูท
แวน
##ปง
##ก้อง
##่ะ
##ภัส
##ในฝรั่งเศส
##เป็นจุด
##โอซากะ
เซนต์
ตามประกาศ
##ระยะหนึ่ง
##สถาบันการศึกษา
##พิจารณาคดี
เฟร
กรุงเทพฯ
##แขกรับเชิญ
##พลิเคชัน
ดยุคแห่ง
##อธิปไตย
##ช็อก
##ที่ระลึก
##จากไป
##ให้มา
##จะเป็นผู้
##พระราชนิพนธ์
##จนได้
##สารภาพ
หมื่น
##โจทย์
##แซก
ดังนั้นจึง
##ตากสิน
##เป็นอันดับสอง
##อนุมัติให้
##ผืนผ้า
ปัจจัย
ฮู
##ระยอง
##เรอร์
##นั้นถูก
##เซ็ต
แต่ภายหลัง
พระบรม
เชิญ
##พระองค์เดียว
##เรือนจำ
##tex
##กีฬาส
##โตรเจน
##เวชศาสตร์
##ศีลธรรม
อเมริกา
##นอลแฟนตาซี
##โอรสาธิราช
##กต
##จวบ
และไม่มี
เป็นผลงาน
this
ซึ่งแปลว่า
1955
พระตำหนัก
2460
##ดาหาร
##ติดอาวุธ
##ตำรวจแห่งชาติ
##ทวีปแอฟริกา
##เหรียญทองแดง
เปรียบ
ท้องที่อำเภอ
##สวัสดิการ
##ันติภาพ
##โคโรนา
##สีกองทัพบกช่อง
##คืบ
##โด้
##ฉาน
##ที่เพิ่ง
##หนทาง
##ผู้สมัคร
##ทีป
##ดำรัส
##ไฟท์
##ที่จะมี
##เธอรีน
##นางเธอ
##ไม่ได้เป็น
เขตการเลือกตั้งที่
ในเดือนกันยายน
สาธารณรัฐประชาชนจีน
ฤดูกาลที่
##แชมเปียนชิป
##ยืดหยุ่น
กัมพูชา
ล้วน
ศักดิ์
##โผล
##าราช
และรางวัล
##จะทำการ
##บทูล
##เล็กซ์
##มักจะมี
##ในเดือนกุมภาพันธ์
แกน
##ural
conc
##บางครั้งก็
##นาซีเยอรมนี
ขับร้องโดย
คณิต
bi
จารุ
เป็นการ์ตูน
##ิกโยธิน
##ชาชีวะ
##ส์ได้
##แบบไม่
##ปรากร
##จนกลายเป็น
##กลุ่มผู้
##สมาชิกสภา
##ลิทัวเนีย
##วิกฤตการณ์
##ดรูว์
##ublic
พฤ
##ฏาน
##ในรัชกาลที่
##เมทริกซ์
##วงศา
##อดทน
หรือที่
##แข้ง
ไม่มีการ
##บรมโอรสาธิราช
##ดังกล่าวได้
##สนามหลวง
ในช่วงที่
##iver
##umb
##หากับ
##มรณ
##ทรงพระเยาว์
##เคมบริดจ์
##กรณียกิจ
นน
นิก
##็อ
##งด
##ที่ต่าง
##จากอัลบั้ม
##วันเกิด
##ไม่เห็น
หมู
##วิถีชีวิต
great
##บาศก์
##บบังคมทูล
##นิต
##ื๊อ
##ค็อก
##vd
##ให้มีความ
##เจเน
##ปีเดียวกัน
##รกาย
การรักษา
##ันทา
##ไตน์
##พยาธิ
##จัดตั้งรัฐบาล
##เพื่อนๆ
##ody
##ซิลี
สมเด็จพระสันตะปาปา
##อิทธิพลของ
##มอนด์
##ใกล้เคียงกัน
techn
##ทารุณ
##ในทวีปยุโรป
##แองโกล
##ฮัล
##จากนั้น
##อยู่เป็น
##โลวาเกีย
พระมเหสี
##โรด
##ต้นสังกัด
##วิทยาคม
##วาจา
ก็ถูก
เขาเริ่ม
และได้มีการ
##เล่าเรื่อง
อำเภอส
มาร่วม
มีอาณาเขตติดต่อกับเขตการปกครองข้างเคียง
##มัย
##และน้ำ
##จะแสดง
เป็นระบบ
##เป็นผู้อำนวยการ
ก่อนคริสตกาล
##ขอความช่วยเหลือ
##แผ่นดินของ
##ครัวเรือน
##ไพเราะ
เวชชาชีวะ
##เหนี่ยวนำ
ถัด
เศ
##องคมนตรี
##ในซีเกมส์
##ือร์
##มีหลาย
##เริบ
##อมตะ
##หลักในการ
##เฉพาะกิจ
เสื้อ
##กำหนดการ
state
ในช่วงแรก
##กิ้ง
##ท่าอากาศยานนานาชาติ
##สำนักงานเขตพื้นที่การศึกษามัธยมศึกษา
##ield
##ปริยัติธรรม
##ม้วน
##ยูทูบ
##990
##พยางค์
##เทคโนโลยีสารสนเทศ
บทบาท
สัญญา
มิสเตอร์
กระจาย
##ปกรณัม
##จิส
##ดูล
##เป็นเครื่อง
##เบิ้ล
##สามารถสร้าง
##เส้นเลือด
##หย่อน
อิเล็ก
##ไปสู่การ
อดีตรอง
คดี
##นัม
##พจนานุกรม
##ที่เข้ามา
##และไม่มี
##บอลิ
##เขียนโดย
##เป็นที่ปรึกษา
##erior
##เขาสูง
##เสถียรภาพ
##อำเภอบ้าน
##ฟลอเรนซ์
ทิม
##รุม
##จระเข้
##เว้า
##นั้นไม่
ที่มีความ
##แห่งประเทศ
##เมื่อมี
##แสตมป์
##ได้รับบท
##ประกบ
ผู้ก่อตั้ง
##ซิโดเนีย
##ที่ได้จาก
##มานี้
กรมพระยา
##ภาษาสเปน
##span
tre
สปีชีส์
##บประมาณ
##ของฟ
##ของอา
##เรขาคณิต
##ทำด้วย
##อีกชื่อ
##ยุว
##กลับสู่
##ตีเมือง
สิ่งที่
##ตั๋ว
เวอร์ชัน
ฟิลิปปินส์
ห้า
##สาลี
##คันธ
และระบบ
##่วมกับ
##ชาวเกาหลีใต้
##คิดถึง
##เพราะมี
##โพด
##ทำให้เกิดความ
กระทรวงมหาดไทย
##ทรัพยากรธรรมชาติ
สหภาพโซเวียต
ฟอง
โฉ
##างกูร
##จากทาง
##สุมาตรา
##รูปของ
##โตเต็มที่
##แพ่ง
##ตอนเหนือของ
##อะมิโน
สมอง
##สิทธิในการ
##อีส
##อารัก
##ัณฐาน
อดีตน
##ขนมปัง
เครือข่าย
สันนิษฐานว่า
##ยอดฟ้าจุฬาโลกมหาราช
##อุตุนิยมวิทยา
mult
พฤติ
##ลัทธ
##แตร
##ขด
##ข้อม
##้น็อค
##ให้คน
##โมก
##ซึ่งจะ
จึงถูก
##ตะวันออกกลาง
##ยังคงมี
series
##สาธารณรัฐประชาชนจีน
##แบงก์
กิล
##สสาร
##my
และตั้ง
##และสิ่งแวดล้อม
##เกี้ยน
##รับกลิ่น
##บบุ
##แก้ม
##นิวก
##โซนิค
นักมวยสากล
##จนถึงปี
##ครูสอน
จนถึงวันที่
สนับสนุน
##เดือดร้อน
##ฤๅษี
nucle
ยึด
##ธัญ
##ให้ประชาชน
##กว่าเดิม
##อุซ
เชล
##จีนบุรี
##ข้อมูลที่
ยังได้
##เพศเมีย
##ซากดึกดำบรรพ์
โดยใช้ชื่อว่า
##ประกวดนาง
312
750
lang
##ek
##พระวงศ์
##ภาลัย
##น้ำนม
##ปิดล้อม
ฟุตบอลโลก
##พัฒนาระบบ
##กัสติยา
ทั่วโลก
บ่อย
โยะ
##ไปอยู่
เป็นเรื่อง
##ทางคณิตศาสตร์
โดยทาง
ที่สำคัญ
แต่เขาก็
##อดเยี่ยม
##บุเรง
ของประเทศไทย
เนเธอร์แลนด์
##ทหารม้า
ให้แก่
##อาร์ม
สร้างโดย
##ตรายการ
##มหาสมุทรอินเดีย
heart
##พนมเปญ
จดหมาย
กรีน
ซอย
ท้าย
หู
##จริยธรรม
##tic
##พราง
##amb
##ครอบงำ
##หนึ่งของจังหวัด
##เพศผู้
ในเดือนสิงหาคม
##พระราชวังบวร
##ไมโครซอฟท์
##การขนส่ง
##ได้เลย
##เรอัล
##ทำการแข่งขัน
##กระทำการ
##สุริยุปราคา
##ชายยอดเยี่ยม
รวมทั้งหมด
christ
กองพล
##เข้าใจว่า
##ยูฟ่าแชมเปียนส์ลีก
##สวนกุหลาบวิทยาลัย
ผสม
##ลู่
##บวง
##เล่
##ให้สัมภาษณ์
##อีกเลย
2477
##อยู่ในปัจจุบัน
##ไม่อยาก
ยังเป็น
280
##ข่าวกรอง
##เสด็จมา
##ลึกซึ้ง
##ไบต์
##อรีน
สาวๆ
##อร์นิง
##คล้ายคลึงกัน
##ตร้าแมน
##คำนึงถึง
##ผนวช
und
##ได้พัฒนา
##ได้อีกด้วย
และหลังจากนั้น
##าลีก
##ตามชื่อ
##เพื่อเพิ่ม
##เกิดเมื่อวันที่
##นนท์
##ชอบธรรม
หมายความว่า
##ลอฮ์
##ให้ความสนใจ
dist
mid
กอ
ทับ
บัง
##ที่ประทับ
##การเรียน
##ของนก
##ขององค์กร
##และคน
##ลงทะเบียน
##เน่า
##เพื่อช่วย
##โมร็อก
##ที่จะสร้าง
ต่อมามี
##สิทธิบัตร
เสรี
ถึงวันที่
##แฟล
##เชิงเส้น
##ธาต
##180
##กันในนาม
เทียบกับ
ข้าราชการ
##ทบทวน
##ตาส
##ีล
##ฉีก
##mer
##ภาชนะ
##คำวิจารณ์
##include
##เพียงอย่างเดียว
ความแตกต่าง
ทำให้เธอ
ก็สามารถ
##แรงโน้มถ่วง
##ลิเบีย
##สเตอร์ดัม
##สเตอร
cle
ทัพ
แคม
##ดิม
##ดอลลาร์
##าก่อน
##ากุล
##เป็นพระเจ้า
##ของเจ้าหญิง
##จากต่างประเทศ
##เพียร
##tter
##เตีย
ได้ย้าย
แต่ถึง
##ผ่านพื้นที่
##คาซัค
จังหวัดขอนแก่น
##นครินทร์
##คู่ต่อสู้
เรน
ให้บริการ
##ศาสนาฮินดู
ตำบลบาง
กำแพง
##พนัน
##จูงใจ
men
ขยาย
ชาน
มิต
##เนโร
ซึ่งเมื่อ
##คนใด
##ทัส
##กำเริบ
2486
##ใหม่ใน
##ทหารอากาศ
ปลาก
พระบรมราชชนนีพันปีหลวง
##ค้างคาว
geo
##แห่งราชอาณาจักรไทย
##ัมน์
คณะกรรมการโอลิมปิกแห่งชาติ
260
rel
มาด
##ามีน
##าลิมปิก
##ทางชีวภาพ
##อย่างแพร่หลาย
##แสบ
##โรว์
##จาระ
##โทรเลข
##ยุคสมัย
##ยามา
วงษ์
##ตั้งอยู่ทางทิศ
##โครงสร้างของ
##บุกครอง
##เก้าอี้
##เภสัชศาสตร์
##ตึงเครียด
##ดมินตัน
หวง
##บทร
##เมจิ
##พระจอมเกล้า
##ัตติ
##มิเนียม
##กาตาร์
##บนพื้น
##สารอาหาร
##คุป
##กองกลาง
กันดั้ม
##ยามะ
##ดำรงตำแหน่งเป็น
ในเดือนกรกฎาคม
โปรดเกล้าฯ
##ทัศนคติ
2473
##ส่งมอบ
##พระองค์ได้
##เพิ่มอีก
##ไม้ตาย
##ลีฟ
ใช้เป็น
ต้นไม้
##ype
เชื่อกันว่า
บราวน์
##สะเทิน
##พอยท์
##สอ
##ินี้
##ว่าจ้าง
##มาตั้งแต่ปี
##เขย
##จำป
##เตี้ย
แต่หลังจาก
##กลางวัน
##เสียแชมป์
##โคส
##แบ่งพื้นที่
##กินอาหาร
##วอลเลย์บอลหญิง
##ไหร่
สนธิสัญญา
wrestling
iv
กฤษ
ออน
##มโน
##การวิจัย
##ของยุโรป
##เดลา
##จะอยู่
ในสหราชอาณาจักร
เป็นสกุล
##ไม่ถูก
##คล้ำ
##เครดิต
##ช่องทาง
##หน่วยความจำ
##ล่าช้า
##ข้าราช
##เฉียบพลัน
##ฉวย
##ฉวน
##เป็นโรงเรียน
##ประพาส
##อัลฟอนโซ
กลอง
##เส้นตรง
เวสต์
##ไปยังเมือง
##หลักฐานว่า
##แร็ป
ยุโรป
##ความหมายของ
วัล
##พุต
##ธม
##sa
##ในอันดับ
##านาชาติ
และชาว
ในหนังสือ
##ก็ได้รับการ
##เหต
##าวิธี
##ร่วมแสดง
##หลวงปู่
##เป็นผู้บัญชาการ
##จิเนีย
inc
##เสียชีวิตในปี
##ival
##กำเนิดของ
ในเดือนเมษายน
พบใน
##นิเทศศาสตร์
ฮ่องกง
##ที่ปรากฏใน
##ิดี
##ทำผลงาน
##เขาเป็น
##เริ่มขึ้น
##อัตราส่วน
ออกอากาศทางช่อง
พระบาทสมเด็จพระปรมินทรมหาภูมิพลอดุลยเดช
##แถลงการณ์
ก่อนหน้านี้
กง
ย่อม
##อัจฉริยะ
##ที่อาศัยอยู่ใน
##ินา
และอยู่
##กับประเทศ
มีค่า
ประเพณี
##ุนี
##องค์พระ
##ใจกลาง
##ผิดหวัง
##ทุกร
##จ่ายเงิน
ตั้งอยู่บริเวณ
ลักษณะของ
##อัครมเหสี
##ลุมพินี
ฟังก์ชัน
##มามาก
##๊บ
##br
##ได้กล่าว
##และต่างประเทศ
##ขึ้นมาเป็น
##ชนพื้นเมือง
##แห่งออสเตรีย
##เบร์
หรือเป็น
##ัมเปอร์
##มีการสร้าง
##โน่
##อยู่ในความ
##ลูกเสือ
##เช่นเดิม
##เลยทีเดียว
##มาดากัสการ์
##แบล็ก
##ประจวบคีรีขันธ์
hom
hum
mich
ลาย
##แตร์
##คุน
##มีมติ
##พระอุโบสถ
##เดโม
##ต่อชั่วโมง
##พิฆาต
##เดือนสิงหาคม
##เอกภาพ
##กราด
##ret
##มองว่าเป็น
##เกียรติแก่
##ในวัยเด็ก
##ฤดูใบไม้ผลิ
ตรี
สิบ
##สุม
##ษณุ
##ของวันที่
##ประศาสน
และส่วน
##และเริ่ม
##ตัวใน
1937
##atch
##ลูกโลก
มาเรีย
##แฟรน
เคานต์แห่ง
นำมา
อาร์ช
##ograph
iso
##เบาหวาน
##เพลย์สเตชัน
##ตองงา
##มหายาน
cod
##สอย
##ขวด
##่อตั้ง
##เลฟ
##เลิน
##หารือ
เมื่ออายุ
2463
##คณะแพทยศาสตร์
##กรุงปารีส
##แคโร
ใหม่
บริหาร
##สนับสนุนให้
คณะวิทยาศาสตร์
##ข้ามแม่น้ำ
##590
น้ำตาล
ต้องการ
ออกอากาศทาง
##เฮฟวี่เวท
ta
เอง
##พอด
##ถูกนำ
##นิย
เพื่อสร้าง
##จีนและ
นักดนตรี
##ิร์ก
แห่งราชวงศ์
##รูปแบบการ
##โพน
##ชะตา
##กำแพงเพชร
princ
โดยทั่วไปแล้ว
##กวางตุ้ง
##โมร็อกโก
night
sil
พังก์
##ดล
##ึกร
##โตก
##พระแม่
##กับทีม
##จะมา
เป็นหัวหน้า
##ราชวรวิหาร
##ังกะ
##ino
##เฉย
##มาจากคำว่า
พระองค์จึง
##รินทร
องค์ชาย
พวกเขาได้
กองทัพเรือ
##ensis
##หมวดหมู่
บิลบอร์ด
ori
##ป้า
##ปรัส
##็อย
##กษา
##ุกราน
##ญาน
ซึ่งขณะนั้น
##เห็ด
ประเทศนอร์เวย์
##สำคัญที่
กล้ามเนื้อ
##ปฏิบัติธรรม
##ยากับ
##เจรจาก
##โฟร์ตี
network
law
ป้อง
พนักงาน
ศาลา
แกล
##ปส์
##กอบ
##าลู
##นี้จะมี
ได้จัด
##ปลาน้ำจืด
คนคือ
##ทันต
##ระเบียง
แต่ก็ยัง
เฮน
##เรียงลำดับ
ภาษาม
##มีความสามารถในการ
##นิจกรรม
กลาย
ไกร
##เรเคิดส์
##และได้รับ
##เดชา
##รั่ว
##เจต
##เตย
พระอาจารย์
##ด้านหนึ่ง
##โกแล
##ทหารสูงสุด
กลิ่น
##โอลิมปิกเยาวชน
##ยูเนสโก
เคียว
ในเดือนพฤศจิกายน
##ศูนย์กลางของ
##แฟนเพลง
##ซิดนีย์
##กราบ
##ยิกา
##ั๋ว
##โจน
##ฉาง
##ในเวลากลางคืน
##เป็นมรดกโลก
และปัจจุบัน
เพศ
##นำเอา
##ena
##ลูกเธอ
##เท่าไร
##เกลียว
เล็ก
##ยานพาหนะ
##โพก
เบส
##เหรียญเงิน
##เจ้าจอมมารดา
บ้างก็
##แท็กทีม
##ข้อบังคับ
ไต้หวัน
##อุทกภัย
##คอล์น
##จื่อ
##ค้ำ
##oy
##เกียง
##วิไล
##อย่างเต็มที่
พระธรรม
##บนสุด
##ส่งไป
##ข้อมูลจาก
##ยศเป็น
##ภายใต้ชื่อ
##พระบาทสมเด็จพระปรมินทรมหาภูมิพลอดุลยเดช
##มัธยมศึกษาตอนต้น
##แห้งแล้ง
##เกือบทุก
japan
กวาง
ฟิน
##เด้
##กู่
##ลาร์
##สค์
##ขล
##ที่รัก
##ู้สึก
เป็นนายกรัฐมนตรี
##ใช้สำหรับ
##บุษ
##ร่วมก่อตั้ง
##รองจาก
##เลิศหล
ด้านชีวิต
##ศาสนจักร
เอ็ดเวิร์ด
เปอร์เซ็นต์
gal
post
##ของรัสเซีย
เป็นเส้นทาง
##โดยผู้
##โดยปกติ
##ถูกนำไป
##ดำเนินรายการ
##ama
##สาหร่าย
##ความผิดพลาด
อัตราการ
##ลาลัมเปอร์
##ทึบ
##ปรมาภิไธย
เจ้าอาวาสวัด
##ม็องดี
association
hol
ลม
##ตบ
##ดู่
##จากเรื่อง
##นาเมนต์
##ชนวน
##ดีเซล
##ตามคำ
##ตามล่า
##ยะลา
##ฤดูฝน
##พิเศษของ
##อาร์เอส
##คืนชีพ
##นัดแรก
##เซ็นทรัล
##วงการบันเทิง
อยู่ในวงศ์
mi
mer
ถั่ว
แบน
##uction
##ตอ
##ที่ทันสมัย
##ราคาส
##และรัฐ
##เดอม
##เพร
มีพระนาม
##เบ็ด
##รูน
##หลักเกณฑ์
นักฟุตบอล
##ประชาคม
เลือด
ว่าเป็น
##องค์การบริหารส่วนจังหวัด
##หาดใหญ่
##เหงือก
##มุง
##ex
##ญฺ
##ในราชกิจจานุเบกษา
##ออกสู่
##เซิร์ฟเวอร์
##ต่างดาว
2472
##มาระ
แม็ค
##เสร็จสมบูรณ์
หน้าที่
##เปิดเผยว่า
มียอด
##ck
##ดรอยด์
และปี
##พิพิธ
##เคอ
##พระองค์เจ้า
##ทับศัพท์
##ผู้นั้น
เรียบ
จบการศึกษาระดับ
##ฟลอริดา
film
lab
lib
พิก
##ออม
##ไพบูลย์
##ราชนครินทร์
มีขน
##เบย์
##กระจัด
##ท่าทาง
##เชียงแสน
##580
น้ำตก
##app
##รันดร์
##เสมอกัน
##สละราชสมบัติ
##ปรีชา
สันติ
##แก่อนิจกรรม
good
แผ่นดินไหว
##แนวนอน
lim
คาร
ไพร
##หริ
##สเปอร์
##ta
##ฉ้อ
##ากู
##จัดรายการ
##สีห์
##รูปไข่
##ขายดี
##over
ได้รับการเลือกตั้งเป็นสมาชิกสภาผู้แทนราษฎร
ไวรัส
##สวมใส่
##มิดเดิล
##ไบรอัน
ภารกิจ
da
##ฟลู
##กฏ
##สกา
##คัฟ
##เป็นพื้นที่
##นี้ไม่
##ออกซฟอร์ด
##โดยอาศัย
##ถูกสังหาร
##เยอะ
ประเทศลาว
##มันจะ
##สันต์
##กว่
##โพ้น
##เทนโด
##ร่วมมือกัน
##สมเด็จพระเจ้าบรมวงศ์เธอ
##เรียบร้อยแล้ว
##คองโก
##ยอร์ก
##ด็อก
##ักชั่น
##จะเห็น
ในอัลบั้ม
##เจี้ยน
##ลาฟ
##เซียง
##ใหม่และ
##เดินรถ
##ปฏิญาณ
##แตกแยก
มหาวิทยาลัยรามคำแหง
##พี่ลูกน้อง
##190
##เทคโนโลยีพระจอมเกล้า
##ให้เกิดความ
##สรุปว่า
##เทศกาลภาพยนตร์
ปราโมช
โอบ
##มัค
##ที่แข็งแกร่ง
##ของทุกปี
และงาน
##ใหล
##ทางภูมิศาสตร์
##ัญบาน
##แลค
##ที่มีบทบาท
##เธอน
##ากรุง
##เพิ่มจำนวน
##สปริง
##สตูดิโออัลบั้ม
ควบคุม
##หยุดยั้ง
เวิร์
##จ่า
##ที่เก็บ
และเป็นที่
##ี้ยม
เป็นอัลบั้ม
##ทางคลินิก
โดยแต่ละ
เมน
ที่อยู่ใน
##erv
##ต้นคริสต์ศตวรรษที่
ประเทศรัสเซีย
คว้า
แล้วนำ
##โชซ็อน
##ตัดสินใจที่จะ
ภายใต้ชื่อ
ดิวิชัน
##โคนัน
open
serv
science
01
dream
park
ปรัชญา
วิ่ง
##งัก
##ิย์
##ในรัฐบาล
##เรอ
##เซ็กซ์
##้วม
##ระยะยาว
##ระยะไกล
เหตุผล
ในเดือนกุมภาพันธ์
##ไพศาล
##มุขมณฑล
##ที่พบได้
นั่นเอง
##ไปทางใต้
##เรสต์ลิง
row
##มาม
##จูก
##การคัดเลือก
##จะเกิด
##ทางฝั่ง
ที่โรงเรียน
##พิพัฒน์
##แต่มี
##ิจการ
##ดินเผา
เทือก
เรือง
##ใดที่
##ซูดาน
##การปกครองออกเป็น
##ที่สุดในประวัติศาสตร์
##เกษียณอายุ
##าสำหรับ
##วีรบุรุษ
โจนส์
กรุ๊ป
##เลิศหล้าน
os
สีน้ำ
##ych
##ระเหย
##การป้องกัน
และด้วย
##เกจ
##อยู่รอด
##จำต้อง
##เข้ายึดครอง
##arch
##เล่นงาน
##ได้รับการสถาปนา
##ิร์ช
##นครปฐม
##เรียกตัว
##ของเขาเอง
##ียรตินิยม
##มานั้น
ทีมชาติ
##สมุทรสาคร
##สถาปัตยกรรมศาสตร์
เท่ากับ
แรงม้า
คล้ายกับ
ประสบความสำเร็จ
na
your
ฟ็อน
##ฟาง
##นิด
##ซุ่ม
##้นั้น
ได้เปิด
##กลุ่มของ
##แพ็ค
##ละครเรื่องนี้
##ations
ซีซั่น
##กษัตริย์แห่ง
โยชิ
##งอยปาก
##ชุบ
##นักศึกษ
ได้เข้าร่วม
##าทอง
##ที่มีชื่อ
##ก่อกบฏ
##ชันนารี
##ศิลปวัฒนธรรม
ได้รับเลือก
##พายุไต้ฝุ่น
project
พระบาทสมเด็จพระเจ้าอยู่หัว
##ยี่ห้อ
##มุนี
##ปิตุ
dem
tom
กอร์
โพร
##ป่อง
##ีอาระเบีย
##สเบิร์ก
##ที่แยก
##ของเยอรมัน
##จากระดับน้ำทะเล
##ภาส
##กรุก
##กรุป
##เมื่อมีการ
##อันมี
##จนเป็น
จากข้อมูล
ผู้ใช้
กล้วย
##จุดหมาย
##adem
##ters
สิ่งมีชีวิต
##แรด
คริสเต
##พิธีกรร
สมุทร
tem
wal
นันท
##สกาย
##การทหาร
##หน่อ
ในเพลง
##สมโภช
การตรวจ
##สองส่วน
##ทำงานกับ
ใช้ชื่อว่า
องค์ประกอบ
ครอบคลุมพื้นที่
##บอลิซึม
##บบุหรี่
##ในนคร
##เป็นอย่างยิ่ง
และถ้า
2467
##กลุ่มคน
ความเชื่อ
##าชู
##ค่าเฉลี่ย
##ตราสัญลักษณ์
แมง
พระราชินี
##ได้อย่างรวดเร็ว
##กงสุล
##สามัญชน
ภาษาส
สนิท
แชน
##มาเก
เป็นสาร
##เดียวกับการ
##จนทำให้
##อากาศเอก
ทางราชการ
##ดำรงราช
##จัดตั้งโรงเรียน
##ริกอน
##ชกมวย
สีขาว
มันเป็น
จากการจัดอันดับ
##ข้าพเจ้า
##รักษนิยม
โตโยต้า
##ี๋ยน
##แคริบเบียน
##ข้อกล่าว
##สมเด็จพระนางเจ้าสิริกิติ์
##เกษตรและสหกรณ์
แข่งขัน
mil
non
sun
อรรถ
##มาอยู่
##ด้วยว่า
##ars
##แต่งตัว
##เป็นผู้สำเร็จราชการ
##ข้อต่อ
##มะโน
##อเรชั่น
##ดูดซึม
มีผู้พูด
##โมนาโก
##ละติจูด
##พระสุ
##เวทย์
##งานแสดง
##ในการศึกษา
##เศียร
##ยอมให้
##บอกกับ
##กะทันหัน
##ตำรวจโท
##ที่ดีกว่า
##ปานามา
##เลิศหล้านภาลัย
##ขบ
##ฉา
##ที่ไป
##ได้กลับมา
และเขา
##วันหยุด
##สมาน
##เรือดำน้ำ
##ดังกล่าวเป็น
บริการ
##ตลอดจน
##สำนักงานใหญ่
โจว
ภูมิภาค
##เบญจม
william
ปุ
##หนก
##เมส
##พระเอก
##รรพ
##เต็ง
##อุจ
##สูงที่สุด
##สายเลือด
##ประโยชน์ต่อ
##โหรา
##โทรศัพท์มือถือ
##เจ้าราช
ดัชเชสแห่ง
##มาท
##และจะ
##เดต
##เจอกัน
##ลงจอด
##ใช้เพื่อ
##แห่งสาธารณรัฐ
##ยังทรง
##ทีเอส
135
โรงงาน
def
##เพชรบูรณ์
##วิกฤติ
เต่า
##ไห่
##ตรงข้ามกับ
bra
ss
ขว
คัพ
##ะวะ
##วอด
##ภู่
##gen
##เป็นภาษาอังกฤษ
##ไปช่วย
##คลีโอ
การจัดการ
##บุตรี
##กำพร้า
##หรือเป็น
##ปกปิด
##สหศึกษา
##ในประเทศฝรั่งเศส
ไม่ว่า
##เอาต์
##ร่างของ
##ดำรงชีวิต
ประเทศไทยใน
##เบสบอล
##พึ่งพา
##้าระหว่าง
##เยรูซาเลม
กอน
##ดวล
##ความล้มเหลว
##ลงมือ
##led
1934
##จึงสามารถ
##ไวเวอร์
##ซึ่งได้
##สุดท้ายที่
##รบกับ
##สวนสาธารณะ
ขึ้นเป็น
##คูเวต
คอมพิวเตอร์
##ดามัน
ปกครอง
##เวกเตอร์
365
ซ็อง
อาน
##ชวล
##ารมณ์
##สำนวน
##ตะกั่ว
##กรุงโรม
##เวลากว่า
##เกร็ด
ปล่อย
นี่คือ
##หรูหรา
ฟรี
เหว
##โยม
##ละทิ้ง
##ักจะ
##ว่าได้
##กันทั่วไป
##ผู้รับ
โดยเธอ
ซึ่งไม่
##โดยที่
หรือแม้แต่
##ในการก่อสร้าง
เขาส
##ฤษดิ์
##วาฬ
##อฟฟ์
##มหาวิทยาลัยราชภัฏ
##เฮติ
ยังมีการ
298
##อารากอน
##ในระดับปริญญาตรี
ดูแล
##รุ่งขึ้น
##ชานชาลา
##ฮาร์ต
จาร
##ที่เกาะ
##ของพ่อ
ในบรรดา
organ
##โลน
##เจ้าคุณ
##ก็ยังมี
##แห่งเดียว
##โตเนีย
##ภาษาบาลี
##ครั้งแรกในวันที่
##สั่งสอน
##ไกโด
##แอลเบเนีย
อำเภอก
ปัญญา
เก็บ
rom
อธิบาย
##็อม
##ฮาร
##da
##mp
เป็นสโมสรฟุตบอล
##มากและ
##นักวิจัย
##ถูกนำมา
การปกครอง
##ในการรักษา
##โอเพน
##วีระ
##โปรตอน
ก็เป็น
##มักมี
##osh
จัดขึ้นที่
##ที่ได้จากการ
##ถัดจาก
##คอร์เทกซ์
##มัดระวัง
##ตื่นเต้น
##เผชิญกับ
##อารักขา
กาย
ถ้วย
พะ
สวม
##ชง
##ขากรรไกร
##tte
##กำกับการ
##ที่มีผู้
##ลาดตระเวน
##ไอริช
##เสด็จกลับ
##มากที่สุดคือ
##มาร์กา
##อทิก
##แทรกซ้อน
สินค้า
ฝน
##อ์
##อากิ
##ขุ
##ml
##ในศตวรรษที่
##ในหมู่บ้าน
##ไปไม่ได้
##ตัวกัน
##คลอ
##แรกเกิด
##นำทัพ
##เตอร์ส
##เสียงข้าง
##สัมพุทธเจ้า
##การ์ตา
##ศาลฎีกา
##เล่าว่า
กองทัพอากาศ
max
##ทำความสะอาด
##ross
ย่าน
##ฟร
##กฤษ
##ิตร
##ยูกิ
##ความงาม
##วันพุธ
ซึ่งเคย
##พระราชอำนาจ
##รวมเป็น
##ภาพยนตร์และ
ตัวย่อ
##ไกลจาก
##ส่วนหนึ่งของการ
ตัดสิน
ปฏิก
had
เรส
##กุง
##ดั่ง
##าล์
เป็นนก
that
##โกศล
##อะฮ์
##ช่วยชีวิต
เทคนิค
##ยิ่งกว่า
##สนิทสนม
##ลุ่มแม่น้ำ
มีความหมายว่า
##แบตเตอรี่
แคร
##ชาส
##ทโธ
##ทางตะวันออกของ
##โดยให้
##ทั่วทั้ง
##โรคจิต
##ที่สำคัญที่สุด
##แรงบันดาลใจจาก
สิ้นสุด
##กวาดล้าง
big
ทุ่ง
##ดีและ
##กระเบื้อง
##บุกรุก
##อีกคนหนึ่ง
##สงขล
เช่นกัน
##เขียนว่า
##ริญญ
##ยานุ
##ทอดพระเนตร
##โต้ตอบ
##อว์น
สำนักพิมพ์
att
ฮิล
##ness
##เนย์
##ขึ้นอีก
##จนปัจจุบัน
##เดิมเป็น
##โจ้
##ศิลปวิทยา
##ฉบับที่
##ฉบับนี้
##บันทึกไว้
##ประพันธ์เพลง
united
##ฮ่องสอน
บรรดา
ปีก่อนคริสต์ศักราช
##ทัวร์คอนเสิร์ต
ลอนดอน
ce
ขาว
เถ
##ณาม
##ฮัง
##ไปทำ
มีหลาย
##เอ่ย
##หารา
##ดับเพลิง
##ที่มีค่า
##จักรพรรดิน
เขาเคย
##ถือเป็นการ
##เส้นผ่านศูนย์กลาง
##กราบบังคมทูล
##ไทด์
##เพาะเลี้ยง
ลำดับที่
institute
gra
##อญ
##แตะ
##๊อบ
การกระทำ
##หลังนี้
##พลศึกษา
##อันเดอร์
##กลุ่มดาว
##ลำธาร
##คาเด
##คริสต์ศาสนา
กรุงลอนดอน
asia
##อุณหภูมิสูง
##อาหรับเอมิเรตส์
##กรดไขมัน
ประสูติแต่
##ใช้นาม
##ซื่อสัตย์
ประเทศจีนใน
##สมรรถนะ
##พ้นจากตำแหน่ง
ปริญญาโท
##โซโทป
##ัสรู้
onlyinclude
##ดุริยางค์
sam
รีโอ
##ปาด
##ด้วยตัวเอง
เมฆ
##อุปรากร
ประเทศออสเตรีย
##วัลย์
##ปลายคริสต์ศตวรรษที่
##สิทธิ์ในการ
##แจ่ม
##ปล่อยออกมา
tele
##สติปัญญา
พิธีกร
##เชิดชู
เกษตร
ol
south
ธนะ
บัณฑิต
หญ้า
##นุ่ม
##tv
##ฌู
##ผู้หนึ่ง
##อย่างที่
##เข้าศึกษาต่อ
การมี
##เคียน
##เฟียร์
##ชนิดต่าง
##รัสเซล
##round
##ข้อมูลเกี่ยวกับ
##รถไฟสาย
ตารางเมตร
##ด้วยความเร็ว
##ัฏจักร
ผ่านทาง
แทนที่
สถานะ
##ครอบคลุมพื้นที่
##เจอส์
##นินจา
##คันทรี
##เลื่อมใส
hall
##กอร์
##ตฺ
##ศัล
##แอฟ
##ในครั้งนั้น
##เขี้ยว
##ให้พระ
ที่บ้าน
แต่เขา
##สูบบุหรี่
##ชายหนุ่ม
##ช่วงปี
ตามเวลา
##480
จนกระทั่งในปี
##กำกับดูแล
ถือว่าเป็น
##ร้านขาย
##เชลล์
##ขบวนรถ
สยามมกุฎราชกุมาร
##ป้อมปราการ
##อนามัยโลก
##ปิโตรเลียม
long
ob
##ฟรา
##ด้าย
##oo
##และต้อง
##ม่ย
##ดีโอ
##ชื่อตาม
##ดิช
##คำนี้
2468
2457
##ซึ่งอยู่
##คาโรล
เลขาธิการ
##ไหลเวียน
##ไชส์
##ส่งเสริมการ
ชีว
##ปะทะกับ
##ในโอลิมปิกเยาวชนฤดูหนาว
##ผลิตรถ
god
กัว
ทวี
##น็อก
##ฆะ
##๋วย
##ในแคว้น
##ของชีวิต
##ของฟาโรห์
ในรุ่น
เป็นละคร
เป็นตัวแทน
##ถูกตัด
##ถูกสร้างขึ้น
##เข้ามามี
##จัดขึ้นใน
เข็ม
เขมร
2474
##อื่นที่
##เต็มรูปแบบ
803
##หากัน
##ไฮม์
##erson
##เวนิส
##ฏิหาร
##ล้อเลียน
ยุทธการ
poly
##จิ้งจอก
##นิวกินี
ซึง
ฟาร์
##ของยา
##และได้รับการ
เป็นผู้นำ
มีบทบาท
##ตะกร
##ส่งผ่าน
เออร์
หมอ
อำนวย
##ในช่วงสงคราม
##อนุรักษนิยม
##elf
นอกจากนี้เขายัง
โรงเรียนวัด
##ควบคู่
##เผยแพร
ไมค์
##เพล็กซ์
##เปลือกโลก
##ครีม
โตเกียว
##ปนเปื้อน
##โสภณ
hist
tour
ตู้
##ฮาล
##ระมัดระวัง
##มาตุ
##กรวม
##ต่างระดับ
##เพื่อจะ
##โอชา
##บทที่
เหง
##เชิงพาณิชย์
##สี่แยก
##พีช
##จาเนโร
ตั้งอยู่เลขที่
##พญาไท
##นราธิวาสราชนครินทร์
ขั้นตอนวิธี
power
มิก
โบล
##เป็นวง
##เป็นระบบ
##เป็นของตนเอง
1917
ที่แปลว่า
##ปล่อ
##บางตัว
##กลับกัน
##รอบๆ
##เชื่อว่าเป็น
##ผลิตและ
เหมาะ
##ตำบลบ้าน
##และการเมือง
##ยอมแพ้
##ของประเทศจีน
มีความสามารถ
##มหากา
##ering
proc
##อารามหลวง
เหรียญทองแดง
และเครื่อง
และวัฒนธรรม
##เรดาร์
##และหญิง
##อาทิ
##ไม่ทรง
มีอายุ
##ภาษาอาหรับ
##โซมาเลีย
ความเร็ว
##ก่อนประวัติศาสตร์
##ประจำสำนักนายกรัฐมนตรี
##มหาธาตุ
##พระชนม์ชีพ
##คาดหมาย
##ประพันธ์โดย
##ประสิทธิผล
##ใช้อาวุธ
อักษรย่อ
เลขที่
##ดำรงราชานุภาพ
band
eff
log
หมา
อื่น
##ที่ชอบ
##เป็นรัฐ
##มีขนาดใหญ่
ในระหว่างการ
##ทางใต้ของ
##วันพฤหัสบดี
##its
##ลาภ
##ัตเวีย
##เคาะ
1040
##ภาคตะวันออก
##ระดับความ
##สัญจร
ทำให้การ
##เป็นที่ประทับ
##ทางการทูต
##ได้รับรางวัลโนเบล
ชนะคะแนน
phil
แม่ทัพ
แถม
##แอฟริ
##คคอร์ด
##ญวน
##ลงได้
##ไม่พบ
##เปรส
##ด้วยวิธี
##เปล่ง
##สิ่งใด
##โอลิน
##เอาใจ
##บอกให้
##จักรวรรดิญี่ปุ่น
##เวิร์ก
##แคลเซียม
##ประจัญบาน
hyd
##โกแลต
กาล
##ป๊อป
##ยาศรี
##เป็นอาจารย์
##มีดังนี้
##เลเซอร์
##รับชม
1935
##สามปี
##ชีลด์
##เรื่องแรก
##เลือกใช้
ซึ่งเป็นผู้
##แต่งโดย
##พรรคพวก
##ความสัมพันธ์กับ
มีชื่อจริงว่า
เพียงแต่
teams
พฤติกรรม
320
ak
##ช็อน
##ดินาน
จะได้รับ
นักวิจารณ์
##ดาวอังคาร
##ที่ยึด
##ขนานนาม
white
##จิตรกรรมฝาผนัง
คาดว่า
##บทประพันธ์ของ
ลอสแอนเจลิส
house
แขน
##อธิษฐาน
##ทวน
##ยโสธร
##ของขวัญ
##มีอิทธิพล
##กระดอง
##ประกาย
##เฉียว
##วรรค์
##ตาบอด
##นนก
##ตรงต่อ
##หินปูน
พระราชพิธี
##ทาโร่
ฟุตบอลทีมชาติ
general
##ดัชชี
ปิ่น
##วิเชียร
เป็นงาน
##ลงสมัครรับเลือกตั้ง
##สีของ
##ไฟฟ์
##น้อยที่สุด
##ข้างล่าง
##ลีกา
290
##เพศหญิง
##ประโยชน์จาก
##ย่อยออกเป็น
อินทร
แจ็ค
##ที่เกี่ยวข้องกับการ
โอลิมปิก
##พบบ่อย
850
##รอล
##ที่คน
##ที่กว้าง
##มาชิก
##ไปตั้ง
##เนย
##นักการเมือง
##วิตกกังวล
##ใหม่กับ
##แก่ประชาชน
##อินทร
##โบว์
จังหวัดเชียงราย
บางส่วน
กรมขุน
##ซิลเว
สมเด็จพระสันตะปาป
##รุกวัย
##เลขาธิการพรรค
##สุริยวงศ์
##ความไม่สงบ
##ency
เป็นอำเภอหนึ่งของจังหวัด
ประโยค
ติ
อ่อน
##กก
##ในระหว่างการ
##จะกลายเป็น
##เต๋า
##ยังไม่ได้
##ได้รับเอกราช
##ภูฏาน
##ไว้บน
##ตำแหน่งเป็น
แม้จะมี
##ปริยาย
##รอาน
##ific
##ชั้นประถมศึกษาปีที่
กวน
จริง
วอร์ส
##กูง
##สซี
##พเพ
##ธนา
##เป็นสัญลักษณ์
##ได้ไม่นาน
##และตัว
##พรุน
##ที่จะให้
##สัมฤทธิ์
##บุตรสาว
ซีซี
##เกียรติคุณ
##ในสมัยรัชกาลที่
##เถา
##โปรโมต
##บัณฑิตยสถาน
##พหลโยธิน
jun
##ไวก
##ในสาย
##และที่
ในสัปดาห์
##อาเซอร์ไบจาน
##ไม่ปรากฏ
มีเพลง
##เซป
##สาทร
##อุบาย
ประเทศเนเธอร์แลนด์
##ก่อตั้งขึ้น
##ามิภักดิ์
##พฤกษศาสตร์
ox
##ปช
##คด
##ในเหตุการณ์
##ของยุค
##ได้เปิดตัว
##เกศ
##ลงสมัคร
##ไม่เพียงพอ
เมื่อพระเจ้า
##แล้วแต่
##ร่วมทีม
##ระยะสั้น
##กาลเวลา
เคาน์
อันได้แก่
##อักษรศาสตร์
##ของผู้ป่วย
เฮล
##มัธยมศึกษาปีที่
##อิงประวัติศาสตร์
##โดยเฉพาะอย่างยิ่ง
##บะระ
เป็นภาพยนตร์ไทย
##ugh
06
กัปตัน
##ฉับ
##ของงาน
##ของการแข่งขัน
และยังคง
##หน้าผ
##ดิวิชั่น
##กลับมายัง
##านครินทร์
##เศรษฐกิจและสังคม
##เป็นคนแรก
เป็นพระอุปัชฌาย์
##เปียก
ทรัพย์
ga
โรม
##าจารย์
โดยบริษัท
ซึ่งในขณะนั้น
หรือประมาณ
##จุดยอด
##ซึ่งสามารถ
เขาได้รับการ
##สี่คน
##ปริภูมิ
##แม้จะ
##ศิลปะการต่อสู้
##เถิด
1908
##ถูกลอบ
##ซัมเมอร์
##แอปพลิเคชัน
มกุฎราชกุมาร
##cw
##บรี
##ที่สนับสนุน
##และลูก
##ตรัสรู้
##ทางธุรกิจ
##ส่วนภูมิภาค
##ในการจัด
##เค้ก
##ายนะ
##ไฟร์
##ไว้สำหรับ
##ตอนใต้ของ
##ค่าของ
##ทำงานร่วมกับ
##ภัยคุกคาม
##ลมอน
##สัมผัสกับ
##ขงเบ้ง
oper
ชาล
เสา
##ของกระดูก
##ตัวว่า
##คนงาน
1910
##แห่งนี้เป็น
##กระสวย
##เพื่อประชาธิปไตย
##ศิลปศาสตร์
##เด็กๆ
มหาวิทยาลัยเทคโนโลยีราชมงคล
##โรปาลีก
##สมาคมฟุตบอล
แพน
##ลุค
แซ่
##กระจัดกระจาย
มอบ
##by
##ราชนาวี
การให้
##ในการควบคุม
##อีกฝ่าย
##อยู่ในระดับ
##ทะยาน
##ครั้งแรกเมื่อปี
##ในช่วงสงครามโลกครั้งที่สอง
##ดำเนินคดี
เดิมเป็น
##หวาดกลัว
meth
ru
กวี
กิโล
จตุ
อภัย
##จิจูด
##ถัน
##ในจีน
##ในธรรมชาติ
##้นำ
##ตัวถัง
เมกะ
##พิศ
2461
##จึงให้
##จนจบ
จากอัลบั้ม
##เริ่มจาก
##รวมเข้ากับ
##อินเดียน
##สายลับ
##ชั้นนอก
เอเชียน
##ฝรั่งเศสและ
##ปรับแต่ง
##เชิงบวก
##กินเนื้อ
##ยุทธวิธี
##รินท
ราชรัฐ
##วิดี
##ทำหน้าที่ในการ
model
##ข่มขืน
engine
##โฟร์ตีเอต
ขวัญ
##กูงาวะ
ter
อาล
##ที่ต่ำ
##ที่มั่น
และออก
และเพิ่ม
##ทางราชการ
##อยู่กับการ
##อยู่บ้าง
ได้ใช้
แต่พอ
##ปราน
##อันดามัน
##ตำบลบาง
##enth
เคอร์
##ตลอดมา
##เป็นนักเรียน
##ตัวละครใน
##ระบายน้ำ
พระพุทธรูป
##เภสัชกรรม
##พลูโต
##ฮอลลีวูด
dav
es
จุน
##ลิล
##สัณฐาน
##ที่การ
##ากอง
##เลมี
โดยนาย
##ต้องมีการ
##ต้องสงสัย
##ไว้อ
##ทีมฟุตบอล
##ภาษาศาสตร์
##เครื่องแบบ
##แนวรบ
##ศาลรัฐธรรมนูญ
##ลินส์
##พันธมิตรกับ
##พรรณนา
##ดัชเชส
##หมาป่า
##นาฏกรรม
##ทหารราบที่
##ที่เก่าแก่ที่สุด
##ปเปิลเอช
##สเปกตรัม
##โพ้นทะเล
07
que
มงคล
##ที่โด่งดัง
##ในช่อง
##ของอินเดีย
##สมมาตร
##กร่อน
มีชื่อว่า
##ได้รับผลกระทบ
##แผ่นป้าย
##ของประเทศญี่ปุ่น
##ที่ไม่เคย
##ตรวจพบ
##ury
##ตลาดหลักทรัพย์
##เคนยา
##ขัดแย้งกับ
##กิ่งอำเภอ
##order
##ไพร่พล
789
land
และดังนั้น
##มาซิโดเนีย
##จากตำแหน่ง
##าวอลเลย์บอล
##จะพบ
##คนี
แต่หาก
การปฏิวัติ
##สุมา
##ดาภิเษก
##รวมของ
##uss
##amil
##ตราด
เมืองทอง
##เทียบเท่ากับ
##เบลารุส
ท่านผู้หญิง
##อันตรายต่อ
ชาร์ต
##คาร์บอนไดออกไซด์
##ลุ่มน้ำ
##มุกดาหาร
fre
mov
ซิก
##ลดา
##บาว
##ข่า
##ซื้อก
##ฮุย
##และงาน
##เดลี
การต่อสู้
##ที่มีอำนาจ
##สองชั้น
##เดินขบวน
##รอบสุดท้าย
##พิธีการ
##ดอนเมือง
และในที่สุด
##ที่ใหญ่ที่สุดในโลก
##ศาสตรมหาบัณฑิต
ครองราชย์
04
sat
ถ้ำ
##lo
##ga
##การปฏิรูป
##ภาณุ
##วันละ
##ไม่มาก
##วรมหาวิหาร
สีหนุ
##เรื่องราวเกี่ยวกับ
##ไล่ล่า
##อริเคน
##ได้ดีกว่า
##แผ่รังสี
กุ้ง
##แถลงข่าว
##บอร์เนียว
##ชดเชย
##สงขลานครินทร์
fri
ฟรีด
ลอร์ด
##ฉือ
##่อสร้าง
##มีขนาดเล็ก
เป็นวงดนตรี
##่องค์
ที่เกิดขึ้น
##่ายู
##ได้รับแต่งตั้งเป็น
เมื่อเขา
##แสดงเป็น
2455
##รายสัปดาห์
##ไว้ด้วย
##ภาคพื้นดิน
##รสิง
##พื้นที่ของ
##มารีย์
##ของเขาได้
##เลือดออก
##แตกต่างกันไป
##คำสั่งของ
##เชษฐภคินี
##บรมราชาภิเษก
##สันตติวงศ์
over
ซิตี้
##ฉาว
##ด้วง
##เสิร์ฟ
##ทำไม
##ภาพวาด
##เข้าใกล้
2470
##ภาคแรก
##ลำภู
##รัชต์
##ปราจีนบุรี
กีตาร์
##สึนามิ
##อู๋
##คาดว่าจะ
รู้สึก
##เรียลล
##เรียบเรียงโดย
san
sum
##ตม
##าวิจัย
##เพ็
เป็นรัฐ
##ไม่สำเร็จ
##เซ็ป
##ยังมีการ
##นิลา
เมื่อเทียบกับ
##น้ำฝน
##อสเตอร์
##ขณะเดียวกัน
##ason
##ัธย
##ดอกบัว
พวกมัน
##เวิร์ส
##เกียจ
##ซุปเปอร์
กาญจน
ho
##ที่เป็นที่
##านัก
##มีสี
##ให้เข้ากับ
##ไปเมื่อ
##ไม่จำเป็นต้อง
##ชาเปล
ซึ่งตรงกับ
##นั้นสามารถ
พระชายา
##ที่มีคุณภาพ
##ไล่อ
##รุ่นพี่
##ount
##แอ็ก
เข้ารับ
##แต่วัน
แบบจำลอง
เหล็ก
blue
##รกราก
dig
ศร
##ฟูล
##กุด
##งอ
##ที่รับ
##จะไม่สามารถ
##ขึ้นอันดับ
##ดีเจ
##เคือง
##แสดงผล
##ภูมิล
ทำให้สามารถ
##เป็นผู้หญิง
##ดำเนินต่อไป
ตำบลหนอง
##แฟนๆ
##less
นามสกุล
##ขี่ม้า
บราซิล
##อย่างไม่เป็นทางการ
ป้องกัน
ฮอล
##พว
##ของแสง
ในภายหลัง
##ลงมาจาก
##ปรินิ
##เปลว
แล้วย
ครั้งหนึ่ง
##พีระมิด
##เก่าของ
##สื่อข่าว
เบญ
##หนีออกจาก
##ล้มล้าง
บทโทรทัศน์โดย
##บูรณ
ดาวเคราะห์
แซน
##iew
##ประยุกต์ใช้
บาร์เซโลนา
prec
มุ่งหน้า
##สซาชู
##รักษาความสงบแห่งชาติ
เอิร์ลแห่ง
คาบ
บิต
สั่ง
##อรัส
##กรร
##ชอง
##บรอด
##ฮาระ
##ราส
##เมเจอร์
##ไม่ว่าจะเป็น
##ืองาน
ที่สร้าง
2443
##โกคู
##นนี่
##รอบชิงชนะเลิศ
สำเนียง
ล้านเหรียญ
##ada
##เข้ารับการ
##แขวนนวม
et
ช่อ
ฟอร์ด
สร
##อ้าย
##เฑ
##สแมคดาวน์
##และส่ง
##เลี่ยม
##พระเชษฐา
เป็นสถานีรถไฟ
##ไม่ไหว
เมย์
##ก็จะมี
ที่ได้รับการ
##วมไพร์
##หลายพัน
##หลักใน
ผู้บริหาร
##ภายใต้อ
##โซนา
##เรียกขาน
##อรอน
##ประสบกับ
##ขอโทษ
##เบลล์
##iety
pan
มนต์
##โม่
##ji
##ายู
##เกซ
##เลซ
เป็นวันที่
##เพื่อรักษา
##สร้างภาพยนตร์
##ใหญ่โต
ระหว่างที่
##แซล
##เอเชียตะวันออก
##แหล่งกำเนิด
##ลาวี
##สร้างความเสียหาย
##ในวงการบันเทิง
##ซีกโลก
##โผล่
ba
dou
sens
##ของนักเรียน
##พระครู
thai
##โล่ง
##กองพัน
##ฝ่ายซ้าย
##เชื้อพระวงศ์
##อาร์ช
##บุกไป
##ชี้แจง
##อำเภอส
##ผีเสื้อ
##ดัดแปลงเป็น
##ยี่สิบ
จันทร์โอชา
##นารายณ์มหาราช
##ไถ่
##กัมมันตรังสี
760
dia
mel
ลิป
ส้ม
##พระปริยัติธรรม
##นี้อาจ
##นี้เรียกว่า
##กันแล้ว
##ตัวจาก
##ดีด
##สำโรง
##สำมะโน
##ครั้งละ
การเมือง
##โรโระ
##เคี้ยว
##พันธสัญญา
2456
##ional
##เป็นผู้จัดการ
##เฉพาะทาง
เกิดจากการ
สาขานักแสดง
##พาทีม
dec
##สมุทรสงคราม
อัลบั้มนี้
เต็ม
1904
##เผาไหม้
##พิทยาคม
โฉม
บำ
สู้
อิศ
##uro
##ปิน
##ตลา
##สไป
##านท์
##เดจาเนโร
##เขือ
##ผู้รักษาประตู
##ไม่ประสบความสำเร็จ
##โดยชาว
##ถูกฝัง
##ในการรบ
##อันดี
##ซึ่งใช้
##เหนื่อย
113
##ไม่ได้มี
##บาโรก
##เหตุการณ์ที่เกิดขึ้น
##คณะกรรมการบริหาร
##ขอบคุณ
##บิท
##ซิตี้
##เตนสไตน์
##ปลัดกระทรวง
##นาทีที่
##เจรจากับ
game
ทศ
ปาง
##คณาจารย์
##ในนัด
##ดยัง
##ไม่ยอมรับ
##ต่อไปยัง
พระอนุชา
หรือที่เรียกว่า
##จึงเริ่ม
##โรงไฟฟ้า
##มีความเป็น
116
##ฟุตบอลชิงแชมป์แห่งชาติยุโรป
##ห้าปี
##ลอว์
จักรพรรดิองค์ที่
heav
##อียิปต์โบราณ
academ
##ไม่ออก
##กักกัน
##ฟรานซิสโก
brit
ดอย
##ตต์
##พอก
##ของเรือ
และเนื่องจาก
##เร็น
##พระมหากรุณาธิคุณ
##ทำอาหาร
โดยเมื่อ
##ต่อความ
##ดีส
##โลมอน
1922
แต่ต้อง
##บางกลุ่ม
##จิตวิญญาณ
##โพส
##เปลี่ยนแปลงการปกครอง
##ครึ่งหนึ่ง
ช่องจราจร
##แท้จริงแล้ว
##ทำประตูที่
##แมงมุม
##คาซัคสถาน
##ดินานด์
bus
bill
fact
##รั้ว
##ลิต
##ห้วง
##ไง
##ย้ง
##ซึก
##200
##ในปริมาณ
##เป็นคู่
##มีทั้งหมด
และภาษา
##พระธิดา
เป็นเหตุให้
##ไม่ทราบ
##ุมาน
แต่ยังคง
##ถูกยิง
##เกี่ยวพัน
##ดาวหาง
stre
กรุงโตเกียว
##aint
วัฒน
##หลีกเลี่ยงการ
##โรกาส
##อารา
##ศุล
##พอลิ
##ที่ปลาย
##ในสมเด็จพระ
##ของแข็ง
##เกรส
##ธรรมราชา
2453
##โครงข่าย
##ไซปรัส
สีเหลือง
##น่าสนใจ
##แวดวง
ดอกไม้
##อังวะ
แต่อาจ
นอกจากการ
##พาราลิมปิก
##ที่ว่าการอำเภอ
แอป
##อริย
##ป๋อง
##หาว
##ครอส
และไป
ในคริสต์ศตวรรษที่
##กันด้วย
##ต่อรอง
##แบบมี
จากการที่
123
##ครั้งแรกของ
##บีม
วิถี
บุคล
##ยากที่จะ
โปรดิวเซอร์
พระบาทสมเด็จพระมงกุฎเกล้าเจ้าอยู่หัว
##หอพัก
##สตูล
##สี่เหลี่ยมผืนผ้า
party
##ฏิหาริย์
bang
mad
pat
##ฮารุ
##ญ่
และตัว
##และประชาชน
##ควา
##รีโอ
##จุดย
##คำอธิบาย
##บนถนน
##รวมกลุ่ม
##อีซี
##ภิรมย์
##เสด็จฯ
##บาดแผล
มะเร็ง
boy
##แอนด์บี
##ห้างสรรพสินค้า
##ทนายความ
lu
๑๐
##ธูป
##ข้อย
##ren
##มีเนีย
##ประสม
ซึ่งทาง
##ขึ้นมาจาก
##ถึงแก่อสัญกรรม
1911
2469
##จนต้อง
##ครองเมือง
##บทละคร
##arn
ความรู้
##ชิงถ้วยพระราชทาน
เลือก
##อรหัน
##ขายได้
มีการใช้
นิยาม
รายชื่อประเทศ
##มาร์เวล
เคยดำรงตำแหน่ง
##หลงเหลือ
##ที่เหลืออยู่
young
ไลฟ์
control
##โค่นล้ม
##มหานิกาย
550
bel
ฮอน
##อุก
##อ๋อง
##ว่อง
##ในศึก
##ของลูก
##หลอน
##อย่างละเอียด
ประเทศเบลเยียม
##รวมอยู่ใน
##สายฟ้า
จนกว่า
##ัณฑะ
อำเภอแม่
##ยังมีชีวิตอยู่
สงขลา
##กรุณาโปรดเกล้า
นอกเหนือ
##ตุ๊กตา
robert
records
##ผ่านพื้นที่ดังนี้
##สซาชูเซต
วาร
##ศิวะ
##การออกอากาศ
##ในภาพยนตร์เรื่อง
##เป็นสอง
##ตามเดิม
##อุ้ม
##ดินัล
##เงือก
##ค่าความ
##asa
##ตะวันตกและ
##วัฒน
##บาห์
##นกวิน
##คู่อ
anim
จอห์นสัน
ไฟล์
road
กิจการ
##ลูกโลกทองคำ
##ปรินิพพาน
ป้าย
รัส
ลอว์
##ปอง
##้มน
##แฉก
##ในวัด
##ได้แชมป์
และส่ง
##จะเรียก
ในพระบรมราชูปถัมภ์
##ทางประสาท
##เวลาย
มีสมาชิก
##คนสำคัญของ
การทดลอง
##แรกของการ
##ปลอก
##สามารถทำ
##onom
##ธรรมะ
##้อมรอบ
##คำที่
##ใหม่โดย
ตัวแทน
รัฐสภา
##วราราม
##ไอวี
##ประเภทของ
##รามาธิบดี
##จัดขึ้นในวันที่
นัดที่
##กำแพงเมือง
พันเอก
##มวยสากลสมัครเล่น
##มดลูก
##แสวงบุญ
##สำนักงานเขตพื้นที่การศึกษา
270
313
##ความรับผิดชอบ
##เสาว
##นี้เป็นการ
ซึ่งจะมี
##แห่งเอเชีย
##ต้องหา
##ภูธร
##พัฒนาโดย
##ลักษณะเฉพาะ
เลส
##คุมกำเนิด
##เด็กและ
ในช่วงเวลา
เครื่องมือ
##ซากุระ
##ปลูกสร้าง
ส่งเสริม
โยฮัน
##โกสโลวาเกีย
##ผู้ทรงคุณวุฒิ
##กระจุกดาว
bal
วัสดุ
อัญ
##รวิทยา
##ผัด
##๋ม
และบริษัท
เป็นพระราชธิดา
##ถึงจุด
##กระแทก
การประกวด
##เรียส
##กรรมสิทธิ์
##แทะ
##arth
##ชั้นคลินิก
##ดำเนินชีวิต
##เฮล์ม
##ซิธ
##หนังสือเล่ม
##ตายของ
##ขั้นสูง
มีความสูง
ในประเทศญี่ปุ่น
##ศวรม
##เหมาะสมกับ
##ella
##ลาลิกา
ray
ศพ
โอม
##นาร์
##กิริยา
##คอก
##ของพม่า
##ได้ขยาย
##เพิล
##นี้ใช้
##วันอังคาร
โดยชื่อ
##สมัชชา
##ชาติด
##ตัวเอก
##เอโดะ
##แห่งสหรัฐอเมริกา
##เริ่มใช้
##ชิโนะ
##จุดโทษ
ถ้าหาก
##อุดมคติ
prote
มาสค์ไรเดอร์
##สืบเชื้อสายมาจาก
##มิวสิคว
ปรับปรุง
761
มัธยมศึกษา
##ิ์
##วโรกาส
##เป็นสิ่งที่
##ราฐ
##พระคุณ
##พระไตรปิฎก
##พระปรมาภิไธย
##รรัตน
##เปรม
##เอดส์
##โนว์
##มีความสัมพันธ์กับ
##เฮด
##ทำการเรียนการสอน
##คอมิกส์
##สลีย์
พลตรี
##ชาร์จ
ส่งผล
##หลอดเลือดแดง
##าส์น
##จรรอบ
พี่น้อง
##ิวะระ
##มอนเตเนโกร
หยาง
อนิเมะ
##ราศี
##ก็ได้รับ
##น์ริช
##ora
##ประชาน
##คาราบ
##กรมพระ
##กรมศิลปากร
##ยานเกราะ
##เซลีน
หลุม
เริ่มใช้
กำเนิด
นิวยอร์ก
##ทางหลวงหมายเลข
##ฟื้นฟูศิลปวิทยา
##คอลัมน์
##แวว
ระเบิด
##เลี้ยงเป็นปลาสวยงาม
rich
ยฺ
อ่าว
##ฟานี
##ปอ
##ฮอลล์
##ในทันที
##ได้เดินทาง
##ินท
##พระชายา
##เดบิว
##เสส
##ที่มีอยู่ใน
##วรรคต
##เสียงที่
##สัมปทาน
##โรคหัวใจ
ตุ๊ก
##กระแสน้ำ
##ครึ่งหนึ่งของ
##ฮิโร
##มนุษยชาติ
##อธิกสุรทิน
sem
รังส
##ที่นำโดย
##การรบ
##ของศิลปิน
##ร์นัน
##และคณะ
##จากกลุ่ม
ในที่
##อยู่ด้วยกัน
##ถึงแก่
##ก็มีการ
##ที่จะทำให้
##ประจำโรงเรียน
##ยูเอส
##พิมาน
##ยานอวกาศ
##พลังของ
##ที่นับถือ
##คัดเลือ
##ออกอากาศทางช่อง
##ที่สำคัญคือ
##โดดเดี่ยว
สถาปนา
673
oh
ชื่น
##ิเวีย
##ว้
##ที่เต็มไปด้วย
##ของเกาะ
##ได้เมื่อ
##มีพระชนมายุ
และตาม
##ว่าเป็นผู้
##ราศ
##เพิก
##ผู้เดียว
##ชนชั้นสูง
##ประเทศราช
##สุริ
##พลศาสตร์
##ไรเฟิล
##เสียชีวิตจาก
##จีบ
สร้างความ
##ศรัย
##ney
##อัยยิกา
##โหดร้าย
##สารีริก
ha
##เอร์
##ชาง
##ำเนา
##วิธาน
##เทศน์
##ตัวย่อ
##าร์ท
##ทั้งห้า
พระแม่
##ดิเน
##ระหว่างสอง
##บ้านของ
##ฝ่ายใน
##ถือครอง
##นานถึง
##ชนิดที่
สิงห
##อีพี
##ปรับอากาศ
##ตลอดปี
เข้าสู่วงการ
##เสร็จแล้ว
##เป็นตัวอย่าง
##สังหารหมู่
##เจรจ
##คริสตัล
##ให้นักเรียน
##ผลิตรายการ
##ฟ้องร้อง
fin
opt
มอส
สวิฟต์
##น่ารัก
##กเว้น
##ตฟอร์ม
##ฮฺ
##เป็นเพลง
##เป็นลำดับ
##มาอย่าง
##ริท
##าสันติภาพ
การวิจัย
##ทรอย
##ที่จะได้
เจ้าคณะ
128
##ดาวรุ่ง
##นิยมใช้
##รินธร
ในประเทศจีน
รองศาสตราจารย์
สนามบิน
ทอ
##อุม
##แวะ
##fl
##การนำ
##ของสมาชิก
##นาแห่ง
##สามครั้ง
##เบาะ
##ที่มีอิทธิพล
##ตกหลุม
##ทุกสิ่ง
##นางสาว
ทั้งใน
##ental
##เจนี
##โพง
##พยัคฆ์
##ซิลลา
##จาบ
##เถื่อน
##ในรูปแบบของ
##อับดุล
##ในรูปของ
light
รศ
ลอ
##อิด
##หาม
##ด่าง
##การชุมนุม
##ากำลัง
##ครับ
##หมี่
##itch
##เหลียว
##ังหัน
2466
##เสียสละ
##แนวทางการ
##ค่าจ้าง
##ข้อสรุป
##ลีด
##อาการบาดเจ็บ
##ของผู้เล่น
ลิข
##เรตติ้ง
พี่ชาย
##สุริยคติ
เกล็ด
##เนชั่นแนล
##ซาอุดีอาระเบีย
langu
lat
ขี้
บาน
ฮอร์
##ทอย
##ณู
ได้มา
##เมื่อประมาณ
##พิบูล
##มิ่ง
ของประชากร
ประเทศเม็กซิโก
##อยู่ในสภาพ
##กุรอาน
##เปิดให้
##มาร้อง
พระเจ้าวรวงศ์เธอ
สามารถใช้
##ทนทาน
##ลูมิเนียม
##กูเกิล
##ราคาแพง
แฟร์
ปลาส
##สืบทอดตำแหน่ง
แชมเปียน
##อัญมณี
##จอดรถ
##อเนกประสงค์
##บรรณาการ
##คินพาร์ก
##โปรโมท
##สารีริกธาตุ
340
บอนด์
อัศวิน
##ฟ่ายู
##เน่
##ดีมี
##แล็ง
##ต้าร์
##กาบ
##กรุงลอนดอน
##ประกาศเอกราช
##กาลิ
##แต่ละตัว
##มงกุฏ
##ในระดับนานาชาติ
##แอลจีเรีย
แสดงว่า
สมเด็จพระเจ้าบรมวงศ์เธอ
##สวดมนต์
##อุซเบก
##ศวรมหาราช
vo
##ช็อง
##res
##จะส่ง
##วิธ
##วันนี้
##ผู้ว่าการ
##แทส
##แทบอลิซึม
##ซึ่งกันและกัน
เจิ้ง
เกิดที่เมือง
ตามชื่อ
##ady
##แถม
810
cir
คาล
เทย์
##ฟรัง
##ฟรัน
##กริ
##ถาง
##ถ้อย
##ฐ์
##ของโอ
##ได้มาก
##กลำ
##ความชอบ
##ทางอารมณ์
##เอิน
การจับสลาก
##พิภพ
##จัดให้
##มือของ
##อาหารที่
##ข้างหนึ่ง
##ชัยนาท
##ดำเนินการโดย
เปิดให้บริการ
##เพลิงไหม้
##รากศัพท์
space
ออสเตรีย
ทุ
มุก
อึน
##กากร
##ถือน
##เป็นทหาร
##เดิส
##าวัน
##ให้หลัง
##รับนักเรียน
##ส์คัพ
##ines
##ภาคพื้น
จะสามารถ
##โครยอ
##เฉพาะใน
##เด็กชาย
เวียง
และมีผลงาน
มหาวิทยาลัยนเรศวร
##ควบคุมของ
##ความเป็นอยู่
##ชาร์ท
##จะต้องมี
สมเด็จพระนางเจ้า
##ทบวง
ข้อความ
##ปุ๋ย
##ฮิปฮอป
##ศุสัตว์
##อุตสาหกรรมการ
##ปิตุลา
โทะ
##บดินทร
##ฝอย
##วีก
##จากโลก
##ควน
ซึ่งนับ
เมื่ออายุได้
2459
เกือบ
##แมร์
##ชนะการแข่งขัน
##บรรทม
##792
ภาษาจีน
##เอฟเอคัพ
จากการสำรวจ
##เนื้อหาเกี่ยวกับ
##ิจิตร
##ประสูติแต่
##คนโตของ
det
ดอลลาร์
เสร
ไอน
##ิเตอร์
##ในชุมชน
##เขาม
โดยแบ่ง
##อยู่หลาย
##ria
##ด้วยน้ำ
1929
ได้ให้
##ตามพระราชบัญญัติ
##แรกและ
##ส่วนบน
##ชาวดัตช์
##ani
##กำลังภายใน
จังหวัดอุบลราชธานี
เกิดจาก
##ยาวประมาณ
##acy
##มักถูก
##ปฏิบัติภารกิจ
ชื่อย่อ
##ประธานกรรมการ
chart
ในช่วงปลาย
บุรี
##คณะกรรมการโอลิมปิก
##ุปกรณ์
เข้าร่วมการแข่งขัน
##ช่างภาพ
บรรพ
##ศิษย์เก่า
news
##ภาวนา
##แต้จิ๋ว
265
wom
##อาลี
##กสิก
##คลาด
##านำ
##และภาพยนตร์
##เทียร
##เลจ
##าว์
##อยู่มาก
##ดีษ
##เบี่ยง
##อดิ
พระสงฆ์
เขียว
2465
##โมเดิร์น
##ano
##ทรงถูก
##แบดมินตัน
##ฝ่ายเหนือ
##เกลี้ยง
##ณีต
##หนึ่งในสาม
ลูกสาว
##ประสบความสำเร็จในการ
รอบชิงชนะเลิศ
##ปีที่ผ่านมา
เตียว
##ให้เห็นถึง
##เวลากลางวัน
##เปาโล
แพร่
##กัลยาณ
cast
บอส
##ม่าย
##nce
##ชาม
##ขิง
##เป็นสาร
##เป็นไปตาม
##ได้โดยการ
##จะไม่ได้
##กรัง
##ใช้ยา
##รกต
##สรวง
##เมื่อเวลา
##หน้าและ
##ซีด
##เปลี่ยนจาก
##โซะ
1100
เธอเป็น
##ขยายตัวของ
##โปรดปราน
##น่าเชื่อถือ
##เรนเจอร์
##โฟนี
พระบาทสมเด็จพระบรมชนกาธิเบศร
##ชะงัก
กีฬาส
##แท่นบูชา
##เฟรเดอริก
##วิภาคศาสตร์
ภัทร
มุข
หมี
##ุยก
##ham
##และกลายเป็น
##กับสโมสร
##รับหน้าที่
ซึ่งได้แก่
##คนเล็ก
##ครั้งก่อน
##่อนุ
จากประเทศ
เพื่อป้องกัน
##ระดับความสูง
##สินทรัพย์
##ถือได้ว่าเป็น
117
##สัตว์ประหลาด
ปัจจุบันเล่นให้กับ
##รู้จักกันในชื่อ
##เท่านั้นที่
##ยึดเมือง
ลูกชาย
##เมนตัม
##บิดาของ
##สระแก้ว
ผลงานของ
##หลอดเลือดดำ
##ตองอู
เรื่องราวของ
##บริษัทร
782
fest
ปทุม
หัน
##ได้จัดตั้ง
##ไปหมด
##รัณ
มีนักเรียน
##คลิป
##ในการเขียน
##ใจกัน
เขาลง
##พลัส
##ยะมะ
##จังหวัดเชียงใหม่
##ิร์ท
จังหวัดนครศรีธรรมราช
##ศรีราชา
##กราบทูล
##ระยะห่าง
##ระเบน
##เสริมสร้าง
โดยเฉพาะใน
##ทีวีบี
##เหยียด
##รหัสประเทศ
##วีดีโอ
##ฮกเกี้ยน
##พิธีกรรายการ
mu
จ็อง
ซอฟ
รอส
##ื้ม
##ean
และวันที่
โดยได้รับการ
##คนนี้
##เตล
##ครั้งนี้เป็น
##เย็บ
##คุรุ
##กล่าวได้ว่า
##ประกอบธุรกิจ
##ฟุตบอลทีมชาติ
301
ทางสถานีโทรทัศน์
มหาวิทยาลัยศรีนครินทรวิโรฒ
##ควบคุมโดย
##อาศัยอยู่ที่
พระราชธิดา
##ปืนกล
รุ่นอายุไม่เกิน
acid
##ที่เขียนโดย
กลีบดอก
##โภชนาการ
จังหวัดนครปฐม
##เม็ดเลือดแดง
##ถาปัตยกรรม
##อารี
##กาว
##ของชุมชน
##ของประธานาธิบดี
และต่อ
##ทางบก
##ิลี
##มากจน
##แห่งสวีเดน
แต่มัน
##กระบัง
2462
##ating
302
เรียว
##หยง
##roph
##มักจะถูก
##แซลมอน
##ของพระพุทธเจ้า
##แจ๊ส
##เถ้า
ไอ้
ann
##โต้เถียง
##กรานต์
##นักร้องนำ
หญิงสาว
##อลิซาเบธ
##พลับพลา
hal
ทากา
หาด
อบ
อาลี
##ดราม่า
##ในสถานที่
##ของโครงการ
และแบบ
##เพลิน
##ตามหลัก
##จัดระเบียบ
##ยุคร
##หรือมากกว่า
##ป์สัน
##พวกเขาก็
##วลัย
##ป้องกันตำแหน่ง
เบื้อง
##อย่างเป็นทางการว่า
##ยุติลง
##ipp
##ปัจเจก
##กลิ่นหอม
##ธิราชเจ้า
##กางเกง
##นเรศวรมหาราช
โกลด์
330
ชวน
แว
##ไอบี
##ทิส
##ขัต
##ภรา
และภาพยนตร์
##เกตุ
ในบางครั้ง
เป็นหน่วย
โดยมีความ
##ทัณฑ์
##สุเกะ
##แข่งขันระหว่างวันที่
##เปลือย
122
121
##โทคอล
เซล
มหาวิทยาลัยเชียงใหม่
##ents
##ไทมส์
คำร้อง
##ดำรงตำแหน่งนายกรัฐมนตรี
##ขุนพล
##็คชั่น
##เครื่องบินขับไล่
รถยนต์
ปลัด
##สวามิภักดิ์
สำเร็จการศึกษาระดับปริญญาตรี
แดเนียล
##รื้อถอน
สูตร
##ข้อกล่าวหา
##สซาชูเซตส์
##คาราบาว
gh
ng
##ยู่
##ฝืน
##ที่พวกเขา
ในกลุ่ม
โดยรวม
##เปี่ยม
##อย่างใด
##จัดเก็บ
1896
##เนินเขา
##ดำรงพระอิสริยยศ
stand
##เดอร์สัน
##กรณีที่
cons
##สลายตัว
##ที่สูงขึ้น
##สถานการณ์ฉุกเฉิน
ในตอนแรก
##โพลี
ตะวันตก
##แรงดันไฟฟ้า
##เป็นที่มาของชื่อ
##สัมมาสัมพุทธเจ้า
764
dom
rem
##ดัด
##ภรร
##ในหลักสูตร
##ของสมเด็จพระเจ้า
##เม้นท์
##กลูก
##กว่าง
##ในการเดินทาง
##เพลงลูกทุ่ง
##ด้านซ้าย
ผู้เขียน
ทำลาย
##ions
##เฟ้อ
##มาริ
บางชนิด
##แฮต
##ในฐานะผู้
club
##ถูกลง
##กอญ
##ว่าราชการกรุงเทพมหานคร
##เหว่ย
##หิรัญ
ยูฟ่าแชมเปียนส์ลีก
##ฟาสซิสต์
264
cat
วิม
##ci
##aut
##ูทิศ
##ซิว
##ซอส
##ที่มนุษย์
ซึ่งเธอ
##สุเทพ
##บางประการ
แมว
ในช่วงต้น
##ศึกษาวิชา
##เกิลส์
##หมายถึงการ
##ไชยา
##ที่ใหญ่กว่า
อู๋
คอร์ป
##พริบ
##ไข้หวัดใหญ่
368
พาน
วัต
##เระ
##คร้าย
และนอกจาก
##เมธ
##พระอนุชา
##เจียว
##ที่มีขนาดเล็ก
##ขันที
##ทำให้เธอ
##เครื่องเล่น
##ซิโอ
ins
292
chann
โจโฉ
เอฟเอคัพ
##อาณัติ
แท้
##อาชญากร
##ส่องสว่าง
วรรณกรรม
master
##อักษะ
##ไดรฟ์
##เล็กลง
codice
เสร็จ
aust
ดัก
##กริยา
##ลื่น
##่ญ
##วาว
##ฮง
##ในค่าย
##างะ
และทีม
##และเฮอร์
##เลออน
##ไม่เป็นที่
##ศึกกับ
##สถูป
##ดิ้ง
ต่อมาจึง
##คิดจะ
##มือกับ
ใหญ่
##ัณฑ์
##ริมงคล
##str
##ste
เขตบาง
##พระบาทสมเด็จพระนั่งเกล้าเจ้าอยู่หัว
##พบว่ามี
เยื่อ
##ี๋ยว
##ผังเมือง
##แอกซอน
มิวสิกวิดีโอ
##ทรุดโทรม
##ขงจื๊อ
fo
ซัง
อลิ
##ชุ
##ภี
##ฮวา
##min
##ในพระพุทธศาสนา
##เป็นเงิน
##เรศ
##เมม
##รับสั่ง
##นาโน
##ต่อวินาที
##นิวร
เมื่อได้
##รูปลักษณ์
##ร้องไห้
##เฟรม
##ทางการเกษตร
##โจเซฟ
##ตะวันออกและ
##เชื่อมกับ
##สาธารณรัฐสังคมนิยม
##ฝีปาก
เราสามารถ
##ประหลาดใจ
##เหงียน
ธีร
มอเตอร์
au
พญา
ล้อ
##จิว
##๊ต
##มีรูป
และเข้า
##เจิ้ง
##ทางตะวันตกของ
1914
ที่ไม่
##เธีย
##บอลติก
##ิศาจ
##ทหารและ
##ตอบว่า
##พระพุทธองค์
##ภาษาอังกฤษว่า
##กลมกลืน
##ล้มลุก
##ขวาน
##ราคาถูก
มีชื่อเล่นว่า
##กระเพาะอาหาร
##วชิรเกล้าเจ้าอยู่หัว
##ไวยากรณ์
##ประศาสนศาสตร์
##ซิลเวเนีย
รัน
แอบ
##ธำรง
##ในเยอรมนี
และถนน
##และเขต
##กลศาสตร์
##ocal
##เชอ
##เซโก
##ครั้งล่าสุด
##สามารถเอาชนะ
##onic
##ูล์ฟ
##ังหรือ
##สุญญ
##อุรุกวัย
ประเทศสวีเดน
##รายวัน
อย่างเป็นทางการ
มหาวิทยาลัยขอนแก่น
##632
##ปลาฉลาม
บุช
ชาวไทย
##ประโยชน์ในการ
จนกระทั่งปี
##ird
##เล่นในตำแหน่งกอง
##อัมสเตอร์ดัม
อ่านว่า
คณิตศาสตร์
370
อม
แย
##ารุ่น
##ราลง
##่วัด
##ความหนาแน่น
โดยทีม
##ตั้งข้อ
##นิโค
##แนบ
2454
##atus
หลังคา
##หน้าที่ของ
##มาริโอ
ด้วยเหตุผล
##ลีส
##เวอร์จิเนีย
##ที่ไม่ดี
##ทวีปอเมริกาเหนือ
##กรีม
##มิสซัง
##ซามัว
ออกแบบโดย
780
ht
ลัก
สไป
##คอต
##พัว
##bt
##มาครอง
เป็นวงศ์
##นี้ใน
##อาเธอร์
##itive
##ขึ้นฝั่ง
##ชาวิ
##คำขวัญ
##จึงใช้
##้ารางวัล
ส่วนที่
##ระดับปริญญาตรี
118
##ุลี
คณะแพทยศาสตร์
##แอนฟีลด์
เธอมี
##แม้ว่าจะ
##่าร้าง
##ดุร้าย
##ไม่น้อย
##หอสมุด
##โฆษณ
##อำเภอก
แต่ในที่สุด
##มิลตัน
##ออกฉายในปี
วอชิงตัน
##burg
เทย์เลอร์
zh
สู่
##ิธ
##บั้น
##ยากร
##ที่ช่วย
##ของทั้งคู่
และรัฐ
ในห้อง
##นี้แล้ว
##นักล่า
##เมืองท่า
##ถูกสร้าง
การโจมตี
พระธิดา
##มิยะ
2464
##ไฟไหม้
##ภาคใต้ของ
ความขัดแย้ง
##ปรากฏอยู่ใน
ได้รับแต่งตั้งเป็น
##ที่ยอมรับ
กระบ
##ille
หลิน
##บุคคลสำคัญ
##ดำรงอยู่
บางกอก
กลุ่มอาการ
##พิจารณาว่า
##เป็นสมาชิกของ
ร่างกาย
คริสต์ศักราช
##บริษัทย
ด้านล่างนี้เป็น
##สเตอรอล
hu
กัส
ขาด
พู
วู
##ไพล
##สเตร
##สาส์น
##ประเวณ
##และบริการ
##กร่อย
##โดยเป็น
ได้สำเร็จ
##สีเงิน
##น้ำและ
##แข่งขันใน
##เปิดบ้าน
นักการเมือง
##ยูง
##ลองจิจูด
chem
ในการประชุม
##ผู้นี้
##ธงชัย
##มาร์ติน
##บำรุงรักษา
##ทำนองโดย
##พายัพ
ต่อจากนั้น
จิตรกร
ครีบหลัง
##กระชับมิตร
##ชนกลุ่มน้อย
vis
ผูก
สอน
ออง
##pg
##จัม
##สโต
##ว็อน
##ฮัด
##ฮาด
##ในนัดที่
##ได้ย้ายไป
##รับสั่งให้
##วิปัส
เป็นภาพ
เป็นแหล่ง
##ต่อเรือ
##ประเทศที่
ที่จัดขึ้น
ได้ไป
##เบรา
การทดสอบ
##ศาสนาน
2450
ปีพ
##น้ำที่
##หัวเราะ
ในปีการศึกษา
##ทหารพราน
ต่อมาได้มีการ
##เนื้อสัตว์
##พาทย์
##กองทัพของ
##พร้อมกับการ
##ดาริน
เปิดสนาม
##ไปในทาง
เทศมณฑล
ราชา
อันดับที่
##พินิจ
๒๕๕
##กันอย่างแพร่หลาย
##บรรดาศักดิ์เป็น
พันล้านดอลลาร์สหรัฐ
##พระศรีรัตน
##ดยุคแห่ง
กบฏ
ซอ
รุ
##ชไตน์
##ทก์
##ดื้อ
##ซาวะ
##ที่คณะ
##ได้เขียน
และอื่น
##เทเกอร์
##พระหัตถ์
เป็นวง
มีส่วน
##ยุง
##สุว
##พรรคร
##สถานภาพ
##เป็นที่ราบ
114
##เฮอริเคน
พร้อมกัน
##390
##ล้านคน
##ประทับที่
sport
##หุ้นส่วน
##ปูนปั้น
เอชดี
ปิยะ
จากการจัดอันดับของ
dire
ฉายา
ทิ้ง
บอร์
ยามา
##ฟล
##ในสภา
##กับชาว
##ผู้บริโภค
##มหาวิทยาลัยธรรมศาสตร์
##อนุวงศ์
##ลีล
##728
##พันเอก
##พี่นางเธอ
##โปรดกระหม่อม
##ขว้าง
หลักการ
##วัตต์
wwf
วิศวกร
##แจกจ่าย
##นิมิต
##ฤดูใบไม้ร่วง
##ดุษฎีบัณฑิตกิตติมศักดิ์
##ตกหลุมรัก
##ประเวณี
532
ur
ฮาน
เมา
##ะงะ
##คธ
##ในใจ
##เมียม
##าวาส
เป็นสมาชิก
เป็นพระพุทธรูป
##ทางเรือ
จนกลายเป็น
##เฟื่อง
##ครั้งแรกโดย
##เฉพาะตัว
##วรสาร
##752
##เลียส
##อย่างเป็นทางการเมื่อวันที่
##นอร์ม็องดี
##ไร้สาย
##เข้ารับตำแหน่ง
##ฝึกหัดครู
##แฟรนไชส์
02
อิก
##ต่าย
##ิทธิพล
##ื้อบ
##คิล
##ในมนุษย์
และก็
##กับนาง
##จะออก
ซึ่งได้รับ
##เอดิน
แต่ในปัจจุบัน
##เคป
ต่อมาก
##เอกฉันท์
ทำให้เกิดการ
##ซิซิลี
##ility
##ไอทีวี
##บาบ
##ูปโภค
##999
##ไปในที่สุด
##สถาปัตยกรรมแบบ
##aris
##ดิสก์
##ลิกเตนสไตน์
##สงสัยว่า
van
สจ
##่าร์
##ที่กล่าวถึง
##การอาชีวศึกษา
##ของกล้ามเนื้อ
##ได้เช่นกัน
##ประณาม
##มาพร้อมกับ
##และเพื่อน
##จากเหตุการณ์
##เล่ห์
##มากว่า
1921
##ผลกำไร
##เรื่องเล่า
##แสดงละคร
##ยุคล
##iness
ของบริษัท
##วีนา
##ภาพยนตร์ยอดเยี่ยม
ความดัน
ตัวเลข
##ทั่วไปของ
##กายภาพ
สุภาพ
##ฝึกงาน
##สูงสุดใน
##ขุนศึก
เฮย์
##ผ่าศูนย์กลาง
เล่มที่
##โซนร้อน
manag
ล่าสุด
##จำปาศักดิ์
##ฟ่ายูโรปาลีก
wbc
หลีก
##ตราบ
##ฉนวน
##ven
##ารอน
##เลขา
##อาค
##ones
##หลังสงคราม
2458
##แทนที่จะ
##เฉพาะเจาะจง
##กีฬาโอลิมปิก
ทางการ
##osa
แบร์
##เรนจ์
##ผู้มีชื่อเสียง
##ครีบหลัง
แพ้คะแนน
##จักรยานยนต์
แถว
##เท่าเทียมกัน
262
##มณฑ
##ฮย็อน
##ในคืน
##มีคุณสมบัติ
##จากงาน
##เอว
##เข้าหา
การนำ
##ยังถูก
##จุลิน
##แทบทุก
เพื่อหา
##มันน์
##ตอนนั้น
##แป้น
##ขอพระราชทาน
##ยิงปืน
##จ่ายค่า
อะตอม
ประจำวันที่
##ภาวดี
##รำลึกถึง
๒๓
##จ้าว
##ที่ผิด
##ันด์
##โดยอัตโนมัติ
##อย่างใกล้ชิด
ได้เข้ามา
##ัสการ
##โตขึ้น
##เครื่องแต่งกาย
##เดิมคือ
จังหวัดพระนครศรีอยุธยา
132
##els
##เพราะการ
##ไทป์
##ปริญญาบัตร
##มาร์ค
##หนุ่มสาว
##บ่อยๆ
##ลอยด์
##รับประทานอาหาร
##ในหลายประเทศ
##ช่วงเวลาที่
ตราแผ่นดินของ
commun
##ที่ราบสูง
พรีเมียร์ลีก
ال
ตาย
ทิว
ฟรานซิส
##ลุน
##ิมา
##ซี้ด
##องค
##ที่โรงพยาบาล
##การแข่ง
##เจิน
##ดีใจ
##คนสนิท
##่วนใหญ่
การเขียน
##ชาวรัสเซีย
##ชนิดของ
##จุดตัด
##เพราะความ
##ทั้งสองพระองค์
child
##กรีนิช
##แนวคิดของ
##ของนักร้อง
มาริโอ
##เมืองหลวงของ
disc
##ไฟฟ้าน
##นิวรอน
ดุ
พิช
เตร
โวล
##ขจัด
##ละเลย
##เป็นศูนย์
##ได้กำหนด
##ได้พยายาม
และเมื่อวันที่
##และนาง
##เลียบ
##เขามา
##ให้กลายเป็น
##มากๆ
##องค์หนึ่ง
##จุฬาลงกรณ์
##ุงคาม
##ality
##แพะ
##โรงเรียนมัธยม
##ฝ่ายชนะ
##ตูม
##ดำเนินเรื่อง
แห่งเดนมาร์ก
##มักกะ
##่อมด
##ชิ้นนี้
##เซนต์ปีเตอร์
เขียนโดย
##บรรพชา
who
##บอสตัน
##อโรน
##ไปกว่านั้น
เผยแพร่
##จุลินทรีย์
free
list
##ทำบุญ
##เวกัส
##ด้วยเหตุผล
##แห่งเมือง
แต่หลังจากนั้น
##พรสวรรค์
##โดว์
##กองหน้า
##แมสซาชูเซตส์
##สำคัญคือ
##หลวงพระบาง
##เงินเดือน
##ไรต์
##พระเจ้าหลุยส์ที่
##โชคดี
##ศักดิ์เป็น
ร่วมกัน
##ทาจิก
พิษ
คุณสมบัติ
ถือว่า
##แวร์ซาย
##แบร์ก
อารมณ์
##สมเด็จเจ้าพระยา
##berg
##เอลิซาเบธที่
##มอลตา
north
##แอฟริก
480
พาก
##จื้อ
##rome
##ที่ทำให้เกิด
##ได้ขึ้น
##ู้จัก
##อร์ค
##ัยซิน
ที่ประชุม
เจดีย์
เพราะเป็น
##ขาย่อย
พวกเธอ
##ดาราม
##เกรียง
##เจ้าหน้าที่ตำรวจ
book
343
342
gn
just
ke
way
##รอม
##กอทิก
##ย่ำ
##สภาร
##ขุม
##ในราชวงศ์
##ในพรีเมียร์ลีก
##เป็นภาษาไทย
##ังกร
##มีคน
##าลูก
เป็นองค์กร
ซึ่งตั้งอยู่
##ประชิด
##เฟย
##แม่มด
สิงโต
##ข้อมูลของ
สุสาน
##อุปนิสัย
##อุปการะ
##รัมเบิล
##คาร์ดินัล
##กระแสเลือด
##ได้อย่างไร
##เกร็ง
##ฮีโร
สถานการณ์
แผ่นป้าย
โชติ
##ของกองทัพเรือ
##เท่าที่ควร
fm
##ฟราน
##น้อม
##ชิ่ง
##วอล์ค
##ที่ใกล้
##เป็นจักรพรรดิ
##เร้น
##ไปอยู่ที่
##ุกะ
##ทำให้การ
##สารละลาย
1890
##เพียงชนิด
##โซเดียม
##สิ่งพิมพ์
##โคจรรอบ
##มักใช้
##วัฒนะ
##osis
สมเด็จพระจักรพรรดิ
##พระบาทสมเด็จพระปกเกล้าเจ้าอยู่หัว
##เครือจักรภพ
แทนที่จะ
##ดูดซับ
เป็นการแข่งขันกีฬา
##โยะชิ
ดับเบิลยูดับเบิลยูอี
แรกเริ่ม
##รัสเซลส์
fed
pc
นู
รัต
##ิทธิ
##พุก
##ขนนก
##ที่กิน
และจัด
##สำอาง
การวิเคราะห์
##กำนัน
##เยล
##สองตัว
##หลายร้อย
ผู้ปกครอง
##ธีม
##อะนิเมะ
ต่อมาเมื่อวันที่
##หวาย
##สังคมศาสตร์
##สอบถาม
##เริ่มต้นขึ้น
##แฮร์
##เวียดนามใต้
มีผู้เสียชีวิต
##คัมภีร์ไบเบิล
company
ตรงกับปี
cortex
##เหมืองแร่
##แย่ลง
society
ตรวจ
สวิต
##yr
##ฮ่อ
##วิม
##ัยกรรม
##เจี๋ย
##ทางดนตรี
1925
##ในการเล่น
##ต้องอาศัย
##ดังเดิม
ต่อมาก็
##แพ็ก
##อะวอด
##ระดับประเทศ
##โรงเรียนสังกัด
##เพิ่มการ
จังหวัดสงขลา
##เกี่ยวกับความ
วิหาร
พลเรือเอก
##มินสเตอร์
##ซ่อนตัว
##แผ่ขยาย
##บวรนิเวศ
glob
##เค้าโครง
##อ่างทอง
##ทุ่มเท
luc
##กนิษฐา
##เป็นของตัวเอง
##และทหาร
##ควิช
เป็นรอง
1926
##ศาสนาม
##oma
##เชิงซ้อน
##พีจี
##เอสโตเนีย
##วิลลา
she
##เปรียบเสมือน
##ชะลอ
โทมัส
โทลคีน
##ลักลอบ
นิวซีแลนด์
##ดัดแปลงมาจาก
##earch
##พึงประสงค์
##พระบาทสมเด็จพระพุทธยอดฟ้าจุฬาโลกมหาราช
##เท่าใดนัก
album
275
bri
james
squ
ถุง
##อเล็กซาน
##การกีฬา
##ของค่าย
##มีแนวโน้ม
##ไม่ว่า
##ตัวเดียว
##ัลย์
2440
##พระราชฐาน
##ฝ่ายบริหาร
##โบะ
ตัวอักษร
##ซาเนีย
ตามพระราชบัญญัติ
สุทธิ
##ราชวงศ์หมิง
##ทราบถึง
ไอซ์
อำเภอน
##กีฬามหาวิทยาลัย
สุนัข
##จุดเริ่มต้นของ
ร็อบ
##ยุน
##เป็นงาน
##ได้ออกมา
##ูก็
##ชาห์
แต่สำหรับ
##ไวต์
เพราะการ
##อาร์มีเนีย
นับแต่
##เหมาะกับ
##บิดเบ
##ทัวร์นาเมนต์
##อาบน้ำ
##อรหันต์
name
ฌ็อง
ดราม่า
บาส
##ior
##ที่เป็นผู้
##ที่ระบุ
##มีรูปร่าง
และเขต
win
##หม่า
##ประเทศอื่น
##เพื่อทำการ
##มน้อย
##ไว้แล้ว
ต่อมาวันที่
เขาเป็นผู้
##ร้องขอ
##ola
##ที่เป็นเอกลักษณ์
ดังเช่น
โรงเรียนบ้าน
รวมทั้งสิ้น
กลุ่มดาว
##เยี่ยมชม
##ล้มละลาย
##แคล่ว
arm
ไฟนอลแฟนตาซี
นอกจากนี้ยังมีการ
maj
pres
##สิริราชสมบัติ
มูลค่า
ออกจำหน่ายในวันที่
psych
สถานีวิทยุโทรทัศน์
650
fire
ซาว
##ฟวี
##สรง
##วัก
##ซูกิ
##ของโซเวียต
และอื่นๆ
##วิมล
##ทางไกล
##ูกะ
##ทำกิจกรรม
##ไม่ทัน
##อยู่ห่างจาก
มีพฤติกรรม
##ดีไซน์
ที่ปรึกษา
พระวรวงศ์เธอ
##โรย
##คำพิพากษา
หลังจบ
##เครื่องประดับ
จึงให้
##กีซ
##เกี่ยวเนื่อง
##การแข่งขันฟุตบอล
##ริมแม่น้ำ
##พาต
##ท่าที
##นมัสการ
##ประเภทหนึ่ง
##กำกับของ
##เป็นที่รู้จักกันดี
##จำกัดความ
##มอนสเตอร์
##เพื่อให้ได้
##ราชาธิปไตย
##ากลางจังหวัด
colspan
##ฮาร์ท
##ามากกว่า
##ากล่าวว่า
##พัฒนามาจาก
lou
right
si
##อ้อย
##cus
##บรัน
##คิก
##ฮุน
##ks
##เป็นอาวุธ
##หลาม
##จากสถาบัน
##ทางเหนือของ
##อยู่เหนือ
##สำริด
##อย่างนี้
##ภาคอีสาน
##ได้รับการศึกษา
##คุณพ่อ
##ตรงที่
##เฮ็
อำเภอหนอง
##ท่านผู้หญิง
ใช้สำหรับ
##ไนโตรเจน
##ification
##เทคนิคการ
##พึงพอใจ
มีอาณาเขตติดต่อกับเขตการปกครองข้างเคียงดังต่อไปนี้
##เฑียร
ดัน
ด่าน
ทาย
ทุน
มณี
##ดาส
##ที่วิทยาลัย
##ในแอฟริกา
และหลังจาก
##กับพวก
##เพจ
##เพียน
##ประเทศฝรั่งเศส
##หาอาหาร
##าทิ
##ด์เซอร์
ของวันที่
##บทบัญญัติ
##ท้ายของ
ครึ่ง
##การศึกษาเอกชน
##ยาวกว่า
##ไล่ออก
##กฎเกณฑ์
##หย่าร้าง
##แม่น้ำสาย
##พูดว่า
##ไนจีเรีย
##อย่างมากมาย
ภายหลังจากการ
##มติให้
##ทุ่งหญ้า
##มหาสมุทรอาร์กติก
##ใช้น้ำ
##อัยกา
##บวรราช
##โมะโตะ
research
##บูรณาการ
##ข้อมือ
##อะวอดส์
cour
ปาล
แพล
##เฆ
##ปอล
##ลอม
##ตอก
##ื่
##ดอล์ฟ
##ที่พระองค์
##ที่ปกครอง
##เลสเตอรอล
##เวทีม
##เกิดอาการ
##ยาพิษ
##โนวา
##วีเนีย
##ก่อนรองชนะเลิศ
##โคตร
##พัฒนาขึ้น
มาตรฐาน
##พร้อมที่จะ
cho
วัดพระ
วัดป่า
809
##กัมพู
nep
##ปฐมภูมิ
##ปรากฏตัวใน
##บอยแบนด์
ขอให้
##หม้อแกง
second
ชลบุรี
รังสี
อ้างอิง
พยัคฆ์
ซอง
วิว
ไคล
##ประเภ
##เลื่อง
##พระอุ
##ผู้ที่มี
โดยไม่มี
##เชษฐ์
มีเดีย
##ด้วยมือ
##คนิ
##มากที่สุดในโลก
เขื่อน
##anth
##atory
##ชั้นเรียน
จังหวัดนนทบุรี
##อันดับสอง
##คุมทีม
พระองค์เป็น
inv
และยังได้
##โครงสร้างพื้นฐาน
##สกอร์
##นาวาร์
##สาบสูญ
##กิโลเมตรที่
สัญญาณ
ต่างจาก
##จดหมายเหตุ
##มลพิษ
แต่นัก
##จนาภิเษก
##แคทเธอรีน
festival
ศุกร์
สแตน
##ที่ว่าง
##ที่ทำหน้าที่
##ในคดี
##ของเร
##จากภาพยนตร์
##คนร้าย
##ตามอง
หรือมี
##ศึกษาศาสตร์
เก็น
##รวมเล่ม
##ไว้ก่อน
##สัตยา
##้ามเน
##มายา
##ของผู้คน
เป็นผู้อำนวยการ
##ทอดอกซ์
##เป็นที่รู้จักกัน
##ปฏิรูปการปกครอง
##ปรีดี
##ก้านครีบ
home
ซาล
พัช
สวีเดน
##ที่จริงแล้ว
##ในกรม
##ของเขาก็
##จากรัฐ
##เพย์
เป็นพรรคการเมือง
##ตัวกระตุ้น
##โดยรัฐบาล
##ถึงปี
##โลม
##ก็ต่อเมื่อ
ที่ชื่อ
ที่เขา
##ได้รับเชิญ
##เยีย
##โตโยต้า
##โคราช
##มหาวิทยาลัยเกษตรศาสตร์
##ets
##เต็มใจ
##ตัดสินว่า
##789
##นายกเทศมนตรี
##ของผู้หญิง
งานเขียน
เจ้าหญิงแห่ง
ใบเดี่ยว
box
##ของพวกมัน
##มหาภูมิพลอดุลยเดชมหาราช
##เซโกวีนา
เปา
##ศร์
##ซาร์ด
##ในโรงภาพยนตร์
##ของเจ
และเปลี่ยน
##และรับ
##และแบบ
##เมล์
##จากประชาชน
##พระอาทิตย์
##ัยน์
เป็นปี
##ไม่มากนัก
##เช็ค
##ภาพยนตร์ที่
##ได้รับการรับรอง
ความสูง
เสก
##บริเวณนี้
ตัวผู้
##รถไฟใต้ดิน
##จัดตั้งขึ้น
อาจเป็น
มาร์ค
จิร
##ลานนท์
เชียงราย
เคลื่อน
คริสเตียน
##อุจจาระ
ตัดสินใจ
west
ซุป
##ชอน
##คั่น
##ที่เล่น
##ในส่วนของ
##พระอาจารย์
##กับเพื่อน
เป็นพื้นที่
##ปีในประเทศ
##เวร
##ิมิต
##ก็กลายเป็น
##ชาวสเปน
##แท้ง
##หรือมี
##มีการแข่งขัน
##จากการถูก
ความผิดปกติ
##แนวหน้า
##เงินตรา
##มือกลอง
##มุฮัมมัด
##อัลบั้มแรก
เป็นนักแสดงหญิง
##เดอมอร์
ครา
##ฟฟ
##็อพ
##ลูน
##ดราก้อน
##พู่
##ขำ
##yd
##ฮอ
##การปล้ำ
##มีสิทธิ
##เมก
##อย่างถูกต้อง
##ต์ที่
##องค์ความรู้
2451
##รวมทั้งหมด
##alth
##เรือบรรทุก
they
##689
##เหตุการณ์ที่
##มอริ
##บาดาล
##ฟอร์ต
พรรคประชาธิปัตย์
##ปฐมทัศน์
##โค้ด
##มาลาเรีย
##มิชชันนารี
หลอดเลือด
##แอฟริกัน
##ราลงกรณ
cry
มวล
ศต
โอน
##วังส
##ํา
##ที่เข้าร่วม
และเอ
##เทรีย
##าลำดับ
โดยเพลง
##อยู่ตลอดเวลา
การเกิด
##ปลวก
##คือเพลง
##ยุคใหม่
##าศาสตร
ออกเสียง
##พร้อมทั้ง
เริ่มตั้งแต่
##ป้องกันตัว
##สภาพภูมิอากาศ
##ขั้นต้น
##ures
ด้านหน้า
ที่มีชื่อเสียง
##unt
##สูญหาย
##นักแสดงนำ
##คิ้ว
##เข้าสู่วงการบันเทิง
##พระราชทานเพลิงศพ
cop
mor
ซัว
พิจาร
สพ
##ไมน
##ั๋ง
##ค้อน
##ขัย
##ที่พูด
##ในเรื่องนี้
##โดยสำนักพิมพ์
##คนดู
แต่ยังไม่
##ถูกยุบ
##บริพาร
##เพื่อปกป้อง
##าทา
##มิชิ
##ยาแก้
##แนม
##โลกและ
##ชายเลน
##ไวโอลิน
##แบ็ค
##ชั้นบน
##อิซาเบล
##คาราวัจโจ
##ขณะนี้
ครุ
##เต็มว่า
##719
ชาวจีน
##890
##สงบสุข
##หอประชุม
ก่อตั้งในปี
##อำเภอน
##ถอดถอน
สถาปนิก
##ผู้จัดการทีม
##เหวียน
##ความดันโลหิต
##จงรักภักดีต่อ
420
dyn
down
final
ติณ
ปู่
##pa
##วรา
##ภริยา
##ซุย
##ทางบ้าน
##กร่าง
##คนสุดท้อง
ที่วัด
แต่สามารถ
##่วมกัน
##จัดการศึกษา
##ในการบริหาร
##เยเมน
1012
##ตาและ
##พระองค์แรก
##ิร์ม
129
##คีร์
ดิวิชั่น
true
##ตอนแรกวันที่
##ฮิลล์
##เส้าหลิน
440
ริก
##คัต
##คิริ
##โหย
##ทำธุรกิจ
มีอำนาจ
##อย่างนั้น
##โลกร
##เรียนหนังสือ
##ero
##เลือกให้
##ลูกยาเธอ
สมการ
##use
##ควบรวม
##ฝั่งตะวันตก
ก่อสร้าง
อิทธิพล
##ชัดเจนว่า
##เล่มที่
ก่อตั้งโดย
##วิสุงคาม
เป็นบุตรชาย
##สต็อก
ติดอันดับ
single
##วันอาทิตย์ที่
##ออฟเดอะริง
##สัมพัทธภาพ
windows
##สำนักงานเขตพื้นที่การศึกษามัธยมศึกษาเขต
กรา
##ael
##เป็นแชมป์
##ของสเปน
##ติ่ง
##ถูกยกเลิก
##โรคล
##สู่ว
##ตุ่ม
##ใหม่ได้
##เสียงดัง
##รถจักร
##ครั้งแรกกับ
##แม่ฮ่องสอน
ตามคำ
##ซิเจน
##กลายเป็นผู้
##ไอเรส
##ential
##ต้องการจะ
##เชื่อมระหว่าง
##มินา
##นาวิกโยธิน
##ยางค์
##บะฮ์
##ย่างกุ้ง
##กลับคืนมา
ทันที
motor
##ศุลกากร
บุรีรัมย์
263
ก้าว
การ์ด
ฟุ
อากิ
##อ้อน
##ดอ
##โลง
##ผ่อง
##ได้ทั้งหมด
##ประมาท
##หน่วง
##และพื้นที่
##เทรน
##โดยธรรมชาติ
##เบอ
##ยังเหลือ
##รูญ
##ศึกษาและ
##น้ำใน
##ตกเป็นของ
##จำนวนเต็ม
##ชั้นปีที่
##เดินบวร์ค
##พุทธกาล
##เส้นศูนย์สูตร
##ประสบอุบัติเหตุ
##แพ้ให้กับ
##ยอมรับว่า
##aba
##เหยียบ
##ประพันธ์ของ
##อริค
##ประสานเสียง
##สร้างเป็นภาพยนตร์
น้องชาย
##ยุ่งยาก
utc
##โนสไอเรส
##เจ้าน้องยาเธอ
##ุยก๊ก
work
สุก
แบท
โอะ
##นาล
##บ่าว
##ied
##เป็นเส้น
##ของเสีย
##ของยีน
##ินห์
และเกาะ
ในพรีเมียร์ลีก
##ขึ้นสู่อ
1923
##นิโอ
##องค์นี้
2452
##ดาด
ความรู้สึก
##แยกทาง
##ปราศรัย
##ของประเทศฝรั่งเศส
##ออสโตร
พลโท
##ople
อาร์เซนอล
##ฮีเมีย
##รวมถึงการ
##ซูเปอร์แมน
ไฮโดร
กำหนดให้
##ัญญู
เมื่อถึงวัน
##บิตะ
##velop
academy
ic
litt
ทัวร์
ยุน
##ศกรีม
##คึก
##ข้อน
##bl
##ในจักรพรรดิ
##ให้เลือก
##ความเข้มข้น
##ไปจน
##ไปก่อน
เป็นรูป
##ตัวอื่น
##แบบแผน
##ปราก
##ได้รับอนุญาต
##เพื่อลด
##จุฬ
##ชาวฟิลิปปินส์
##โมฆะ
##ตาของ
##ชั้นบรรยากาศ
จนเมื่อ
##อิชิ
##เคยถูก
##อริน
##ปัญญ
##ออกจากวง
##กระทรวงสาธารณสุข
##หินอ่อน
##สิบสาม
##ทวีปอเมริกาใต้
##แกรมมี
##มารดาของ
นอกจากนั้นยัง
##ชำรุด
##ในทวีปเอเชีย
##ของดาวฤกษ์
##แบ่งเขตการปกครองย่อยออกเป็น
##อดูดาว
special
ast
fib
พิส
ฟรัง
แทร
##ko
##จะลดลง
##ไปอยู่ใน
##นั้นมีความ
##เซ่น
##แกร์
##เพื่อนำ
คนต่อ
##บนชาร์ต
ความสำเร็จ
127
141
เลื่อน
##และการสื่อสาร
##หายตัวไป
##ไหลของ
##aya
##เป็นที่รู้จักในชื่อ
ตั้งอยู่ทางทิศ
โลหะ
##ฮาร์วาร์ด
พระพุทธเจ้า
รอยัล
##ที่เรียกกันว่า
social
##อนุกรมวิธาน
jack
บิด
##มูก
##ท้อ
##ธุด
##fc
##ที่ท่าน
##ที่นำมา
##ในละคร
##ในกระบวนการ
และมา
##รรพ์
##กลิน
##ไปพบ
โดยออกอากาศ
##คมชัด
##ภาพเหมือน
##แบบอย่าง
##เห็นเป็น
ความว่า
นักบิน
วันต่อมา
##ในช่วงนั้น
##omb
##ปิดกั้น
สำหรับในประเทศไทย
##สถานที่ท่องเที่ยว
next
แต่ว
##เฉลิมพระชนมพรรษา
ชาญ
##awa
##เมอิก
##แสดงให้เห็นถึง
กิตติขจร
pap
tur
บล็อก
##ทาร์
##จวน
##ฮารา
##หน่อย
##ปีใหม่
ที่ต้อง
##ชาวพุทธ
คนใน
ผู้เชี่ยวชาญ
นักรบ
##ตัวเองว่า
##พลังงานไฟฟ้า
##หัวหน้าคณะ
plat
##ฝ่ามือ
design
##เท็นโด
cross
ชัน
ดัดแปลง
##ลั่น
##ชัว
##ณัฐ
##line
##ฮัต
##เป็นพืช
##เป็นระยะทาง
##ได้ผล
##ได้เร็ว
##มีจุด
##หมอน
ซึ่งภายหลัง
##ตั้งชื่อว่า
เมส
เม็ด
##รัฐวิสาหกิจ
##พระราชกุศล
##ยกพล
ส่วนของ
ตัวเมีย
โดยมีผู้
ถึงแก่กรรม
มหาวิหาร
##เอาตัว
##เร็วล
##ภายในเวลา
##ขนบ
##793
##เตรียมตัว
##จุลทรรศน์
เป็นนักแสดงชาวไทย
##ลุกฮือ
ชัยชนะ
##ทิวทัศน์
##พุท
##แต่งตั้งให้ดำรงตำแหน่ง
##ในกีฬาแห่งชาติ
โพธิ์
##วาก
##ขาร
##ye
##ที่ญี่ปุ่น
##ากัว
##และแม่
##เมย์
##เทิด
##ตั้งแต่นั้นมา
##ถึงขั้น
##นักสู้
เดช
##เอกของ
##เอกวาดอร์
##นายแบบ
##ชั้นเดียว
##สหรัฐอเมริก
##นครหลวง
##เหม็ด
คณะวิศวกรรมศาสตร์
##ขออนุญาต
##782
##739
##สเตอโรน
##เน้นการ
##สิ้นสุดที่
รถถัง
##ซีรีส์เรื่อง
##เสือโคร่ง
##พระบรมสารีริกธาตุ
##กรดอะมิโน
##ภรรยาของ
##แพลตฟอร์ม
##จากนักวิจารณ์
##วันเสาร์ที่
บ่อยครั้ง
##ฉับพลัน
channel
261
ran
ณรงค์
นัม
##ปริญญ
##กอล
##งศ์
##ตริ
##สัท
##ที่ลาก
##จากเดิม
##กล้ำ
##ทำเพลง
##เว็น
##เขาว่า
##พัฒนาและ
##ลักษณะเป็น
ปัจจุบันได้
จำเป็น
##เฮก
##อีสต์
##เวอร์ตัน
##ไอโซโทป
โรมา
##จัดตั้งคณะ
##ยันต์
##iform
##ซุเมะ
1907
นครราชสีมา
##ุษยวิทยา
ชมรม
##ครุฑ
##ครุศาสตร์
##ณิธาน
##ไล่ออกจาก
alex
นาก
หาย
อาก
##สาส
ในสาขา
##่มุก
##กรวด
##ก็ยังไม่
การเปลี่ยน
การขนส่ง
##จุง
##ผ่านเข้าสู่รอบ
เกิดการ
##ปิดทอง
อีกมากมาย
##พ่อของเขา
##เอ็มทีวี
##เดียวกับที่
##ศพของ
##อาวุธปืน
##เกือบจะ
เหลือง
##มาจากการเลือกตั้ง
##จิมินห์
##ฟอสซิล
##เฟซบุ๊ก
##โหราศาสตร์
##เปรสชัน
จอ
ฮาว
##ช้ำ
##แวล
##ที่เป็นที่นิยม
##ในพระราช
##เท็ม
1931
##สิรินธร
##ตะเพียน
2445
ของการแข่งขัน
##als
##พัฒนาร
##อิค
##สมเด็จพระสันตะปาปา
##ประจำพระองค์
ครัว
##กราว
##ดำเนินกิจการ
##อยู่ที่วัด
##729
วงจร
พรรณ
##แหละ
##โฮล
##ซื้อที่ดิน
##ที่ดีขึ้น
##ape
##ของวงดนตรี
##แพทยศาสตร
##ซุนกวน
##สเปียร์
arts
##อนุสรณ์สถาน
ออร์ตัน
เจ้าจอมมารดา
362
##ลภ
##ตลิ่ง
##๊อด
##oon
##ที่คอย
##เรซา
##เมดี้
เป็นผล
##ส์แลนด์
แต่ด้วยความ
##เขาและ
##คำสาป
##จึงกลายเป็น
ประเทศเวียดนาม
##อาจถูก
ส่วนอีก
##เล็กยาว
อาชีพ
##เท่าไหร่
##เกมโชว์
##นครนิวยอร์ก
เซต
##uld
##พอเพียง
ผลปรากฏว่า
##ไทเป
##เจริญพันธุ์
อาจมี
##ธาตุพนม
เปีย
##นิติบัญญัติ
เอ็นเตอร์เทน
##ช่อดอก
เปลี่ยนชื่อ
สตีฟ
##เปี้ยนชิพ
เว้นแต่
concert
test
ฟิส
อธิบดีกรม
เชน
##ที่วาง
##ที่รวมทั้ง
##ในพ
##ในคริสต์ทศวรรษ
และถือเป็น
##เมค
##ให้เข้า
##งานศึกษา
การค้นพบ
พระบิดา
##เพื่อทำ
##เพื่อใช้ในการ
เพื่อการ
##แทนด้วย
##ผ่านกระบวนการ
119
138
##สังคมสงเคราะห์
สามี
##ids
##721
##ธาดา
##ภัณฑสถาน
##โฮะ
เครื่องหมาย
##ที่อยู่บน
โปรตีน
ดูเหมือน
##ดิวซ์
##ยาสูบ
รับบทโดย
##ลันด์
มาสเตอร์
green
##ยูนิต
##เฟล็กซ์
เกษม
ประดิษฐาน
##ยุวชน
mart
กุส
บวก
ปลูก
โรมัน
##ule
##กริด
##ยบ
##ธิก
##ja
##เป็นครั้งที่
##เป็นตัวละคร
##ของซี
##ของเล่น
##ราฟาเอล
เป็นมหาวิทยาลัย
##ตัวกลาง
##อย่างเต็มตัว
##จึงจะ
ของทุกปี
##ชีวิตประจำวัน
##ala
##สมาพันธรัฐ
##มีความคิด
their
##เส้นทางการ
เพราะฉะนั้น
##เสด็จประพาส
อดีตสมาชิกสภาผู้แทนราษฎรจังหวัด
##รอยต่อ
สายพันธุ์
ไอโอ
##เคนต์
โบราณ
ยุคล
##ตากรรม
##เห็นได้จาก
ฮิโร
disorder
ในกรณีที่
มีพระนามเดิมว่า
##เจนีวา
##เฮ็ล์ม
333
hel
pass
ท็อป
พาย
ยืน
เควิน
##อากร
##ปัว
##ผดุง
##ได้ก่อตั้ง
##เดรส
เชฟ
##ด้านตะวันออก
##อินเดอะ
ซึ่งเป็นหนึ่งใน
##ทหารที่
##ศรีวิชัย
##ไขว้
##ข้อพิพาท
##อร่า
##โรคระบาด
##พิเศษที่
##บาหลี
##เก็บเกี่ยว
ชาวอเมริกัน
##นอกเหนือจาก
##มินตั๋ง
##ฟอร์ซ
มีชื่อวิทยาศาสตร์ว่า
franc
##ประกันภัย
ตั้งอยู่ในเขต
แมคอิน
ในวงศ์ปลา
อิบน์
lin
york
##ปป
##ั่ม
##lish
##ในตาราง
##และอดีต
##ควอ
ในหลาย
##รับแสง
ther
มีนาม
##ridae
##อย่างสำคัญ
##บุ๊ค
##ที่มีจำนวน
##ทรงกระบอก
เลิศ
แลน
##ใดก็ตาม
##เหล่านี้จะ
นับว่าเป็น
##เติบโตขึ้น
##หลงใหล
หน้ากาก
##ในแต่ละปี
หลายคน
##ตกแต่งด้วย
##นุบำรุง
โดยปกติแล้ว
paul
peri
พาร์
##ซู่
##ที่ซึ่ง
##เป็นพิษ
##เมแทบอลิซึม
เป็นถนน
ได้เกิด
##กระผม
##แข่งรถ
##พระราชประสงค์
##อยู่ในกลุ่ม
##สัตว์มี
##ไซคล
##713
##แพ้คัดออก
##บัญญัต
##โฮล์ม
##ปาปัว
1905
นัดชิงชนะเลิศ
##ในระยะยาว
ขอรับ
##ทรานส์
##หนองบัวลำภู
##ชีวิตรอด
fu
คราว
ฟุจ
##ฮุ่ย
##ware
##ที่มัน
##การเคลื่อนที่
##เป็นอิสระ
##ของไวรัส
และในช่วง
##และควบคุม
ในยุโรป
ในนัด
เป็นครั้งที่
##เนศ
มีหลักฐาน
##โดยสิ้นเชิง
##อย่างถาวร
##ทั้งประเทศ
การบิน
พระนคร
##ส่วนตัวของ
##ยกุล
##ทุกประการ
##ปฏิปักษ์
##ยานี้
โรงเรียนสาธิต
##785
##พี่เลี้ยง
พลอย
##เราสามารถ
สร้างขึ้น
##มิสเตอร์
นิวตัน
##ตารางกิโลเมตร
อันดับแรก
สมรสกับนาง
อาศัยอยู่ใน
##ภาษาราชการ
##สถานีวิทยุโทรทัศน์ไทยทีวีสีช่อง
ทัศน
749
aud
yu
ปวด
ยูน
##ฟะ
##กอด
##จุก
##ที่ตาย
##ที่ออกแบบ
##ที่แน่นอน
##ราฮัม
##จากจังหวัด
##ดยา
##ความฝัน
เป็นวัน
เป็นเครื่อง
##ปลากระ
##ธรรมการ
##กาตาล
##ชิบะ
##เขียนเป็น
##ระบบนิเวศ
จังหวัดปทุมธานี
##ห้องพัก
##659
##ได้อย่างมีประสิทธิภาพ
##สกอต
text
##ใหม่อย่าง
##บูร์บง
เปรม
##จัดจำหน่ายโดย
##ปฏิกิริยากับ
##นันทน์
##โยกย้าย
##บุเรงนอง
##และเฮอร์เซโกวีนา
jour
ka
vide
##มฺ
##กานา
##บอร์น
##ทส์
##ฝิ่น
##ธัม
##ในยาม
##ทางวง
##เนม
##สูลานนท์
##ตำรับ
##ดินทร์
##ยมทูต
##โตริ
##ทัพเรือ
##ประมาณปี
ก็ทรง
ทั้งที่
##หยิน
ออกดอก
ตำบลท่า
##พระพุทธบาท
##ชกมวยสากล
แฟล
กมล
##ission
##แอตแลนตา
two
##ส่งนักกีฬาเข้าร่วมแข่งขัน
##ยูกันดา
##หน้าผาก
348
if
เภ
แนะ
##ชส์
##บอต
##ค้าระหว่าง
##วส
##ารัก
##ที่อื่น
##เป็นระยะเวลา
##วันนั้น
##ขึ้นบก
##แบบเดิม
##หาดู
##ใจกับ
##อุย
##ซีเย
133
##ดำเนินธุรกิจ
##บีช
##722
##อัตลักษณ์
##นอกระบบ
##รัฐธรรมนูญแห่งราชอาณาจักรไทย
##อ่านหนังสือ
##กีฬาวอลเลย์บอล
##อยู่อันดับ
order
##เร่งด่วน
##ถอดรหัส
##ถูกลด
ตั้งอยู่ที่เมือง
##ปรีช
กำหนดแข่งขันระหว่างวันที่
พงศ์
03
sound
กาก
##เมาะ
##ฮิส
##ระนอง
##การเปรียญ
##ายะ
##จากหลาย
##ความเจ็บปวด
เป็นเกาะ
ซึ่งรวม
##เอจ
ที่มา
ประยุทธ์
##ได้รับเหรียญรางวัล
##ส่วนต่าง
##ใหญ่ที่
##แสดงนำ
##ต้นน้ำ
##กองโจร
##อัลเบิร์ต
##สมเด็จพระสังฆราช
##ทำงานได้
##แยกออกเป็น
##ยานคร
##ดนตรีประกอบ
##783
จากนั้นได้
##698
##สั้นกว่า
##ให้นาง
develop
##ข้าวหม้อแกง
กล่าวกันว่า
##มีชีวิตอยู่
##เล่นในตำแหน่ง
##แบนตัม
##อยากจะ
##อานันท
๒๕๓
##ยับยั้งการ
##ยูนนาน
นิสัย
##บดินทรเดชา
##วอล์คเกอร์
668
บัญ
อี้
##ฟิศ
##ิยะ
##คานา
##วรกาย
##โหนด
##red
##ฑูร
##ips
##การสนับสนุน
##เป็นปลา
##ของสมอง
##อาห์
##ผู้พิทักษ์
ซึ่งจัด
##เจ้าพนักงาน
##เมื่ออายุได้
##องค์สุดท้าย
##ต่างจังหวัด
##สูงและ
##ภูต
##วิทยาส
##โป้
วิญญาณ
มหาวิทยาลัยศิลปากร
##ประชาชนเพื่อประชาธิปไตย
##ัปโป
ในการเลือกตั้งสมาชิกสภาผู้แทนราษฎรไทยเป็นการทั่วไป
##458
สมเด็จพระสังฆราช
##บัณฑิตศึกษา
ไม่มีใคร
##ในตอนแรก
##ชั้นมัธยมศึกษาตอนปลาย
web
เห็นว่า
##ใหญ่มัก
##อ็องรี
##คล่องแคล่ว
##ยูเรเนียม
europ
829
sign
กราฟ
หลง
##ปอร์
##ที่คล้าย
และพื้นที่
##ควง
##เสี่ยว
##ต่อมาก
##ตั้งต้น
cur
##ใจกลางเมือง
##กาด
2444
##อยู่ในตำแหน่ง
##แมช
##ปัจจุบันคือ
##เฮย์
##ดังกล่าวมี
##อีกร
##แอนต์
##791
##เอสไอ
##ember
##ไนล์
##ปาฏิหาริย์
ร่วมด้วย
##ข้าวโพด
##ตีพิมพ์ใน
##ลอยตัว
head
ภาษี
เจ้าฟ้ามหาวชิ
##เปิลส์
##ข้าราชการพลเรือน
##มาร่วมงาน
กีฬามหาวิทยาลัย
##ปราบปรามการ
##ซิกข์
##สโลวาเกีย
##มหามงคล
##พระบรมราชานุญาต
เรียบเรียง
bab
vs
กาม
ข่าน
ซาร์
##ตซ์
##จอน
##down
##ของสำนักงาน
##เพลา
##ไปกับการ
##ทางเทคนิค
##เปิ้ล
มีรายงาน
##ด้วยพระองค์เอง
##โลมา
ที่ทำ
ที่ได้รับ
##าศึก
การทำงาน
เมื่อครั้งที่
##เคย์
##ชาวกรีก
##เฉา
##อันตร
##สถานทูต
##ไว้เพื่อ
1870
##เป็นผู้จัดการทีม
##ประจำสัปดาห์
##เดียวกันนั้น
##จับได้
##osph
##มะนิลา
##คอยน์
##เสนอชื่อเข้าชิงรางวัล
people
##แทสเซียม
คัง
อดุล
##อัศจรรย์
##มหารา
##งิ
##แวมไพร์
##yth
##sch
##iro
##zy
##่าจะ
##ในสาม
##ในมณฑล
และชื่อ
และพระเจ้า
##และเป็นผู้
##คว้ารางวัล
เป็นวิดีโอเกม
##ใช้ได้
1927
##เหาะ
##นิชิ
##ini
ผู้ทรง
กลไก
##แรงกดดัน
##ทัศนะ
145
โดยมีนาย
##บีทีเอส
##ที่ยอดเยี่ยม
##ings
##ลีกสูงสุด
##ลดระดับ
##712
##ลินอยส์
##ทราบข่าว
##การแสดงออก
รับราชการ
##บัวโนสไอเรส
##ฬาลงกรณ
พ่อของ
สมาชิกสภาผู้แทนราษฎรจังหวัด
effect
##enthes
##เดิสลีกา
##กนิษฐาธิราชเจ้า
##ข้าวหม้อแกงลิง
key
พุ่ม
##กิต
##แก็
##ที่เล็ก
##ในย่าน
##ของสภา
##ได้เพิ่ม
##และส
##เกี้ยว
##ไม่ต่ำกว่า
1913
ที่กำลัง
เพน
2449
##มีการนำ
##แคส
##สำเร็จการศึกษาระดับ
ตัวเกม
กับการ
##มายาวนาน
##มหาเสนาบดี
เพลงชาติ
##ฝั่งทะเล
##สื่อถึง
##439
ไปเป็น
##นิวตัน
องค์ที่
##เกียรติ์
##ผิวดำ
ด้านหลัง
##เอ็นเตอร์เทนเมนต์
##เมนเทอร์
##เป็นพระภิกษุ
##หยุดพัก
##แฟนบอล
##อธิบายถึง
แอนน์
ดอกช่อ
prim
##เขากำลัง
##บูรณปฏิสังขรณ์
830
ต่ำ
พริก
##มอร์นิง
##การทูต
##ในราชบัลลังก์
##ในวรรณกรรม
##เป็นชาย
##ของสถานี
##ว่าย
##เล้ง
##กับคน
##ความตกลง
เป็นโครงการ
##ผู้พิพากษา
##ไม่ควร
##เปโตร
##เซมิ
ที่ผ่านมา
##เบเน
##แสดงสด
ปีศาจ
1082
##ช่วงต้น
##ภูมิต
##ทีมนักกีฬา
##เปิดโอกาสให้
##ชั้นล่าง
##ิร์ส
##ลดจำนวน
##รังษี
##สื่อสารมวลชน
##ยาสุร
##ปทุมวัน
app
##แวนต์
บทความหลัก
สนิทวงศ์
little
dc
ever
fer
อาด
โคม
##อัค
##ยาราม
##เป็นนายกรัฐมนตรี
##ของธาตุ
##ประณีต
##สม์
##สมชาย
ซึ่งเรียกว่า
##ias
มีอยู่
##โดยประมาณ
เมื่อมาถึง
##ต้องไป
ประเทศนิวซีแลนด์
##esis
##olution
##สื่อประสาท
อุบัติ
##แกนกลาง
##เลนเซีย
##ไม่น้อยกว่า
##กดขี่
เตียง
ตรงข้าม
##นิกายโรมันคาทอลิก
##ในตอนที่
##เหวี่ยง
##พอลโล
##กลูโคส
##ดิเนเวีย
๑๑
##รติ
##ปศุสัตว์
##ตาด
##จ๊ก
##ว้า
##ภรณ
##la
##ในอเมริกา
##ของช่อง
##และเกาะ
##เก็ง
##ทางความคิด
##ตัวนี้
##เซียว
แต่ในปี
##ถูกฆ่า
##นำทาง
##สง่า
คนจาก
จึงสามารถ
##คู่ขนาน
##เกิดขึ้นได้
##พระเจ้าแผ่นดิน
เลี้ยง
##รายการนี้
##ดังกล่าวนี้
เคมี
##795
##าคต
##ดอกเบี้ย
##รามา
##ชิงแชมป์สโมสร
##ใช้งานได้
บนชาร์ต
##ของอียิปต์
##กัวลาลัมเปอร์
เที่ยวบินที่
hell
สอบ
##ลิว
##หายนะ
##ฐิน
##ฺต
##ที่ต่ำกว่า
##การจราจร
##ากวัย
##เป็นแนว
##และเอ
##ความหลากหลาย
เป็นเขต
##เน็ก
##ใช้วิธี
##โดยกลุ่ม
##ภาพและ
##คลี่
##รัฐมนตร
ที่ดิน
##แห่งกรีซ
##ธรรมยุ
##อื่นอีก
ต่อม
##กุ้ย
1871
##โทกูงาวะ
##ในประเทศอินเดีย
ไม่ปรากฏ
##ดนตรีไทย
##าระยะ
##633
##นีโอ
##733
805
##ไฮดร
##ผิวขาว
##ความสามารถของ
##ของนักศึกษา
พระนางทรง
##ที่ประเทศญี่ปุ่น
##ประมุขแห่งรัฐ
ไข้
##ประกาศนียบัตรวิชาชีพ
พนมยงค์
##ทราบรมราชชนนี
camp
four
hen
กาง
ทอด
ไอร์แลนด์
##อื้อ
##ชิว
##บอม
##wwe
##ที่ตก
##เป็นเพื่อน
##เลว
##เดอเร
##ความพร้อม
##เนลล์
##อย่างสม่ำเสมอ
เก้า
##โตชิ
##โบฮีเมีย
##ตูร์
131
##ลีโอ
222
##ิชั่น
##เอฟแอล
##ในเรื่องการ
##ออริกอน
##ก้าวร้าว
แคท
##อภิธรรม
##ทางเดินอาหาร
##สั่นสะเทือน
##พระบาทสมเด็จพระพุทธเลิศหล้านภาลัย
ค้นพบ
##ดียิ่ง
function
329
bur
mh
may
จูล
ปุ่ม
##จั่น
##ฝรั่งเศ
##โสด
##เป็นเขต
##เป็นสามเณร
##ของเขต
##ได้ปล่อย
##ความละเอียด
##ตัวต่อ
##ต่อยอด
##ประเทศอังกฤษ
##นิเซีย
ประเทศสิงคโปร์
##ส่งกำลัง
##ภาคเอกชน
##ธีร
158
##แบ่งตาม
โรงเรียนมัธยม
##639
##เชิงลบ
อยู่ในเขต
##ล่าถอย
##ผู้นับถือ
##สิบเอ็ด
##นำมาซึ่ง
##คลื่นวิทยุ
##ปักเป้า
กระบี่
##เร็วลม
##แพทยศาสตรศึกษา
equ
pot
คัม
##ott
##ฌ็อง
##ที่อาศัยอยู่
##ประคอง
และหาก
##มาหา
##เมโทร
##ภาพระ
##โดยการใช้
##แล้วนำ
1915
##เหม่ย
##ถูกปลด
##ใหญ่เป็นอันดับ
##อีกชนิดหนึ่ง
##พรินซ์
##อันยิ่งใหญ่
##บางปะ
##ชั้นประถม
##ในประเทศอังกฤษ
##รัฐบาลกลาง
##แต่ละครั้ง
##ษฎร
##ต่อไปได้
##ก็ได้แก่
##ทุติย
##เฉลียว
##การแสดงสด
##ศวกรรม
ก่อตั้งขึ้นในปี
##ออร์ทอดอกซ์
กุหลาบ
##ทำความเข้าใจ
##ตรรก
เพลย์สเตชัน
##คุปต์
##อุซเบกิสถาน
##อานันทมหิดล
mach
ts
##ny
##ช้าน
##ได้ดำเนินการ
##ราห์
โดยนัก
##ถูกค้นพบ
##กรรมฐาน
##มีการจัด
##แพด
##แปร์
##ister
##ศรีส
##รองแชมป์
##แบ่งออกได้เป็น
##209
##638
##มะละ
##459
##ทำลายสถิติ
##ทีมชาติอังกฤษ
sea
##สาธารณรัฐจีน
เหลียง
จักรพรรดิโกะ
##ก๊กมินตั๋ง
โปแลนด์
##ความยาวของ
แป้ง
sk
som
ไส
##ชเว
##สช
##ษยา
##tr
##ฮอง
##ที่ขาย
##ามือ
##ของแม่
##มีพลัง
และประกาศ
##มาพบ
##่วยก
เป็นผลให้
##แห่งอาณาจักร
##กระด
##ได้รับแต่งตั้ง
##ตำร
2447
##หลายชิ้น
ผู้ผลิต
1860
##แมกซ์
##สมเด็จพระบรมโอรสาธิราช
##คู่หู
##อัลบั้มเพลง
##จับคู่กับ
story
##ของพระยา
##ยึดถือ
##อ่อนโยน
โปรตุเกส
##ครบถ้วน
##หลุมดำ
##ย้อนหลัง
##พากย์เสียง
##หลอกลวง
##บิวลา
##ส่วนร่วมในการ
earth
type
ห้าง
โกร
##้ด
##ยวด
##สฤษดิ์
##wn
##ของราชอาณาจักร
และบาง
และมหาวิทยาลัย
##หนาท
##และแม่น้ำ
##ตรัย
##วันต่อมา
##กันโดยทั่วไป
thom
##บบังคับ
##ด้วยเพลง
##ัตรา
##ใจและ
##สองพี่น้อง
2439
##ช่วงปลาย
##ระหว่างเมือง
##กล่าวไว้ว่า
##วาติ
##มีความสูง
##นามธรรม
##โทลคีน
##กรมหลวง
##ันทน์
##203
##และการพัฒนา
##ท่าไม้ตาย
##798
##ซานฟรานซิสโก
##กดอากาศ
##เชื่อมโยงกับ
##โบลิเวีย
##เสียดสี
ไมโครซอฟท์
##เทพศิรินทร์
##รินทราวาส
พูน
เยาว
##อัซ
##์สไตน์
##หุย
##ผุ
##าราชการ
และมักจะ
##นี้และ
##โดยไม่ได้
##อย่างสิ้นเชิง
##สุต
##ส่งไปยัง
##เฉพาะที่
แห่งสหราชอาณาจักร
ทรงดำรงตำแหน่ง
##753
บุณ
##อิตา
อินท
##phal
นกกระ
##ทอผ้า
##ย้อนกลับ
เหล่านี้
##ภาษามลายู
##เทพศิรินทราวาส
##อดิเรก
direct
ขอรับกระผม
°c
โสภ
##หบดี
##za
##การดำเนินงาน
##ได้ประมาณ
##รับสัญญาณ
##เจตน
208
##แบบหนึ่ง
##ในการประกวด
##ใหญ่ๆ
1013
##สารพิษ
##หว้า
##ไลนา
##อร์ดอน
##759
##ชุมพล
เป็นนักเขียน
จักรพรร
หลังจากนั้นไม่นาน
##เสี่ยงต่อการ
##สวมมงกุฎ
##กระตุ้นให้
##จอตา
##สร้างเป็นละครโทรทัศน์
##อู่ทอง
##ตาริกา
อิสราเอล
##ิวัฒนา
technology
##วิสุงคามสีมา
east
คฤ
อดัม
##ลเลอร์
##ชี่
##โรร
##หลาง
##และสิ่ง
##พระจักรพรรดิ
##ราชบัณฑิตยสถาน
##ลงไปทางใต้
##ตัวได้
##เอโก
ประจวบ
##เข้าไปยัง
##ตะบอง
ของเธอ
ของมหาวิทยาลัย
ประเทศเดนมาร์ก
##ยกกำลัง
ผู้ชาย
เพื่อนำ
##เครื่องใช้
##เดินทัพ
นักธุรกิจ
##ไม้ไผ่
##พิมล
##758
289
##ครอบครัวของ
##ime
##ชกชนะ
##iana
มาจากคำว่า
##พิสูจน์ว่า
สิริอายุ
##แต่นั้นเป็นต้นมา
##ส่งผลต่อ
##โอมาน
point
##นักสืบจิ๋ว
michael
num
public
คาส
##ลัตเวีย
##ทท์
##พวน
##ระแวง
##ในโรงพยาบาล
##ามัส
##ติกา
##กับทาง
##าสาว
##ผู้ยิ่งใหญ่
##ต่อเติม
##ใช้บริการ
ที่อำเภอ
ได้ทำ
##วัดพระ
เพล
##รูปก
##นำหน้า
##โมเมนตัม
##เสียงวิจารณ์
##ภาพยนตร์แห่งชาติ
##เหมิน
##เดินทางมาถึง
ก่อนหน้านั้น
##622
##อาศัยอยู่กับ
##714
##เป็นนักฟุตบอล
##แก้ไขเพิ่มเติม
##ible
island
##องค์ประกอบของ
วิลเลียมส์
##ถวายพระเพลิง
precure
ดิศ
บุษ
##บอร์ก
##วู้ด
##ารัตน์
##ที่สถานี
##ในรัชกาล
##ของอาคาร
##ของสโมสรฟุตบอล
และบริเวณ
##หนืด
##ให้สร้าง
ในรัชกาล
##งานด้าน
##เอิร์น
##ซีจี
เจีย
##เริ่มตั้งแต่
##บรรดาน
159
##ในประเทศสหรัฐอเมริกา
โดยมีวัตถุประสงค์
##มากกว่าหนึ่ง
อำเภอท่า
##osp
##ป้องกันโรค
##แสงแดด
##ขับร้องเพลง
##ก่อสร้างอาคาร
##บทบาทของ
##เรือนกระจก
##ปิ้ง
1909
๒๕๔
ข้าพเจ้า
##ศรีนครินทราบรมราชชนนี
##ประกาศผลรางวัลออสการ์
##เกลียดชัง
ล้านปีก่อน
##แชนแนล
อภัยวงศ์
ทายาท
rain
##หาวิธี
##ไย
##จูล
##วชิ
##ih
##ียะฮ์
##ามัน
##จากพระเจ้า
ในพ
##วิษณุ
##สมเด็จพระราช
##คนหนึ่งใน
##เมื่อราว
##ปรากฎ
หรือใน
##เคิน
##ที่มีพลัง
##ery
##กาแลก
2441
##พรรณห
##เหน็จ
##เด็กหญิง
##ยิ่งลักษณ์
##แพ้คะแนน
##อ้างสิทธิ
##อ้างสิทธิ์
ราชินี
##นาวา
สังกัดสำนักงานคณะกรรมการ
##ในเรื่องของ
ออกอากาศเมื่อวันที่
##ฟันแทะ
##ไตรภาค
วิลสัน
##ที่เคยมี
##ัณณ
##เตือนภัย
##ชิลลา
##เหง้า
##กาญจน์
##จุฬาภรณ
##โปลี
##ฟุ้ง
##าสึเกะ
##อดีตรัฐมนตรี
##ฟราเรด
ms
ซิส
##าภิบาล
##ยอห์น
##วัฏจักร
##ผลา
##ที่จำกัด
##การี
##ละแวก
##ในจำนวน
##กลาม
##ตัวเต็ม
ซึ่งจัดขึ้น
##ใช้ระบบ
มีรายงานว่า
##โดยกองทัพ
การควบคุม
##ชาวอินเดีย
##เฉียน
##ทำให้มี
##โซฟี
ก็ตาม
##เฟอ
ให้อ
นอกจากนี้ยังเป็น
##635
##สืบราชสมบัติ
##เปลี่ยนแปลงของ
##โจมต
##เพศสัมพันธ์
อาจจะเป็น
dev
รายชื่อแหล่งมรดกโลก
##ift
beaut
##พังงา
##ากาชาด
##illa
##อ่าวไทย
##ในระยะแรก
##อดีตน
##โวลู
##เสียดาย
##ร็องซัว
ปฏิกิริยา
aff
bank
gov
gang
หนัก
##บถ
##ถง
##ของลัทธิ
##เทียร์
##ocy
##จะเปลี่ยน
ในเวลานั้น
##เนฟ
##ต่อกร
##คนพิการ
แต่ไม่สามารถ
##ส่วนที่เหลือ
##คำใบ้
##ทำให้เป็น
ผู้แทน
##รวมทั้งสิ้น
##ได้รับการเลือกตั้ง
เอเอฟซี
152
เทโร
##ประกาศรางวัล
##แม่กลอง
ตามมาด้วย
##ของเขาใน
##731
โรบิน
##ague
##พฤติน
##แรกของโลก
##คลองบาง
พระบาทสมเด็จพระจอมเกล้าเจ้าอยู่หัว
##ล้างแค้น
##ally
##ที่สูงที่สุด
สภาผู้แทนราษฎร
##เมอรูน
##แบล็ค
จิตรกรรม
david
##เรียลลิตี้
##ร์นันโด
##สุริยคติแบบ
nepenthes
##ออฟเดอะริงส์
##ธุดงค์
##พรรณหงส์
found
ซอน
ป็อป
##ิซ
##พัตร
##ักซ์
และทำการ
##ดยู
##ทางโบราณคดี
##ลงเป็น
##อยู่ในการ
##แบบที่
##หรือความ
##ตนัม
##ทหารของ
##คงคา
##ตัดต่อ
144
##ยุคแรก
##รัชญ
##688
##เอเชียใต้
##นิวคาสเซิล
##นายกสมาคม
##บันทึกว่า
recept
##กระทำความผิด
##แค่ไหน
##ความต้องการของ
##นาฏศิลป์
##อรรถกถา
##ปัญหานี้
##มรณภาพ
##กอบกู้
ด้านชีวิตส่วนตัว
tna
นิล
##เวย
##ทฺ
##สตาลิน
##พุฒ
##และอ
##จากเกม
##ทางสถิติ
##ลงแข่ง
ซึ่งมาจาก
ซึ่งอาจจะ
##ออกจากการ
ประเสริฐ
##สร้างเสร็จ
##ตะนาว
##เรียวยาว
##สงกรานต์
ซึ่งเป็นที่
##asc
##แบ่งปัน
##ไซเบอร์
##รักษาพระองค์
##กำหนดให้เป็น
##ไอ้
##สั่งซื้อ
เพลงประกอบ
##อาร์แอนด์บี
##ตรวจการ
##กะปิ
##ตระกูลภาษา
ว่าด้วย
##เฟอร์ดินานด์
##ไปทางตะวันออก
ดวงจันทร์
สำเร็จการศึกษาระดับ
โทรศัพท์
##กฤษฎีก
counc
##ตลอดทั้งปี
โฆษ
##ซื้อกิจการ
ฟุจิวะระ
##สุริยคติแบบเกรกอเรียน
ger
คลิน
อธิการ
##มัวร์
##สือ
##ฆราวาส
##ในอากาศ
##ในปลาย
##ได้กล่าวว่า
และเธอ
##และตั้ง
##าสา
ซึ่งผู้
##ต่อๆ
##นั้นจะมี
##ได้รับอนุญาตให้
##สร้างเมือง
##ตรีโก
##พรุ
##อันหนึ่ง
##โกต
##เอกเทศ
##ประกอบกับ
##ประมาณร้อยละ
##ไม้อ
ถ้ามี
##สตรีท
ท่าเรือ
ประธานกรรมการ
##ผู้มีอำนาจ
1906
##นิติบุคคล
##แร่ธาตุ
##พินัยกรรม
##หนี้สิน
##หัตถี
##มป์ตัน
##เวสต์มินสเตอร์
##เรอัลมาดริด
queen
vir
ฝัน
##บรัสเซลส์
##ทาค
##ที่ชาว
##ที่หนัก
##ของคำ
และถึง
##มาอยู่ที่
##เทเล
เป็นส่วน
##ลงตัว
##เนติ
##ดีฟส์
##ทั้งการ
ประเด็น
##หลายต่อ
##โดราเอมอน
รวมเป็น
##ถือได้ว่า
168
139
##บีเอ
รายละเอียด
##709
##ump
##นิวส์
##แปรผัน
##ube
##เดอส์
##ได้ส่งทีมนักกีฬา
ครีบหาง
english
##สัมพัทธ์
380
fa
last
ตอบ
วรร
อนา
##บิส
##ของพ
##ของคำว่า
##ของอิตาลี
และพบ
##ราโด
##จะลงเล่น
##ลงท้าย
cup
ที่มหาวิทยาลัย
##แห่งนี้มี
##ไทยพรีเมียร์ลีก
พระเชษฐา
##กว่านั้น
##โตส
ซึ่งเป็นผล
ซึ่งเป็นส่วนหนึ่งของ
จะไม่
##กรมสามัญศึกษา
มหาวิทยาลัยกรุงเทพ
##708
##726
จัดทำ
นิโคล
##หนาวเย็น
##ซ้อนกัน
คลาร์ก
##เสมอกับ
##มูฟวี่
##ประสูติกาล
##น่านน้ำ
จอร์แดน
##ยาราช
##กล้วยไม้
##แกมมา
##ฮานอย
##ไต่สวน
##ราคาสูง
##กุงะวะ
ฟรีดริช
332
530
drag
gt
จอห์
รอน
##รวบ
##มุด
##ns
##สไตร
##วรมัน
##ที่หน้า
##ที่สนาม
##มีเนื้อที่
และผลงาน
##ความพ่ายแพ้
ในโลก
##เสาะ
##นี้จะเป็น
##กันต์
มีนาย
##คนทั่วไป
แต่ก็ได้
##บุหรี่
##ตามไป
หรือเรียกว่า
##ปลื้ม
##กำหน
##ใหญ่ขึ้น
##สุจริต
##สหวาน
##ระหว่างที่
เจียง
##ว์เซอร์
##อาจใช้
##ได้รับการแต่งตั้ง
##โทสเตอโรน
##ในประเทศเยอรมนี
##พันธุ์แท้
รายได้
##ที่ใช้เรียก
กลุ่มภาษา
โอรส
##เทนเมนท์
ดูบทความ
##ถามว่า
องศาเหนือ
##ธนบัตร
จิ้ง
##ชั้นมัธยมศึกษาตอนต้น
##บูร์กอญ
##ทิวเขา
##โพรโทคอล
มหาสมุทรใต้
##ก็นำ
service
cre
sin
จอน
ฮุน
โชก
##ชายน
##ยการ
##สาง
##ดอล
##ขอย
##ds
##ในท้อง
##ในอัตรา
##ของศาล
และจบ
และออกอากาศ
##ราตรี
##เขาว
เป็นเจ้าของ
##วันอีก
##ทำนา
##ไม่ว่าจะ
โดยวัด
##เหริน
##บางท่าน
##เสียงสระ
##โยฮัน
##ทุกภาค
##โรคนี้
##กำหนดไว้
##ราชวงศ์ฮั่น
##สถาปนาร
กองเรือ
##ray
กรมศิลปากร
กรมสามัญศึกษา
กรมสมเด็จพระเทพรัตนราชสุดาฯ
ขึ้นไป
##ตำรวจภูธร
##ที่อยู่ใกล้
##ง่ายๆ
##โฟร
##ลุส
##วอลเลย์บอลชาย
##อิลลินอยส์
หยุด
เภสัช
council
like
port
##ux
##คูน
##วล์
##ฆ้อง
##ball
##การลงทุน
##ในภาษาไทย
##ในยุทธการ
##างค
##เขากับ
##อยู่บ่อยครั้ง
##ต่อย
มีโอกาส
##เออ
การค้า
##ปรสิต
##ทีมหญิง
##สงสาร
##ระดับชั้น
##เพียงครั้งเดียว
##วางรากฐาน
มาแล้ว
##ตรงไป
##ป่าดิบ
##ลาดกระบัง
แม้กระทั่ง
ผลกระทบ
##านุสรณ์
##ชิงแชมป์ยุโรป
##แต่งงานกัน
##ซิสเตอร์
แม้ว่าจะมี
##สัญญาส
คลาส
##พระรามที่
video
ir
บัด
อารา
##อรัญ
##ปิศาจ
##dp
##ที่รวม
##ได้ตัดสินใจ
##และอุปกรณ์
##กับเมือง
ประมวล
##องค์โต
##ตะโกน
เขาก
##มหกรรม
##หลักๆ
##ato
##สังคาย
##วางแผง
##มุซุเมะ
##เหม็น
##พันธุ์สัตว์ป่า
##กระจอก
##านุส
##ผูกขาด
นี่เป็น
##บ่อน้ำ
เบญจ
dri
face
famil
hyp
von
ดีน
บาด
สัก
โส
##ในพระราชวัง
##างาวะ
##และเศรษฐกิจ
##าวดี
##รับงาน
เป็นจุด
เป็นนวนิยาย
##นาธาน
##ลงก์
##กรู
##กรอก
มีนิสัย
##แล้วน
การบริหาร
##โรธ
##จุฬาลงกรณ
##erve
##มีการพัฒนา
##จึงนำ
##ัฒนธรรม
จากทั้งหมด
##กลับเข้า
##มีความผิด
155
151
ทำให้ต้อง
##เป็นที่รัก
##ชุดใหม่
##สำเร็จรูป
##แยกกัน
##มหาปราสาท
##อาร์ค
##็ตต์
##189
##เคียงข้าง
##อาวุธนิวเคลียร์
โปรโม
ถนนสาย
##บิยา
ชนะน็อค
เสด็จสวรรคต
##ฆาตกร
สาวน้อย
##เสื่อมโทรม
##เถรสมาคม
ปริญญาตรี
econom
##แผ่นเสียงทองคำ
##อัลฟอนโซที่
##ฟลูออ
##มาเก๊า
process
language
หลีกภัย
712
ยีน
##ทาก
##ในสงครามโลกครั้งที่สอง
และเรื่อง
และเรียก
และภายหลัง
##พระสนม
เป็นชื่อของ
##นี้ได้ถูก
##เซี่ย
1916
##เหงา
ประทับ
##ในการออกแบบ
##พระราชสวามี
##รูปสามเหลี่ยม
##ไว้ซึ่ง
1800
1880
##จากการเลือกตั้ง
เอื้อ
ความพยายาม
##วางตัว
##มารา
##asy
เลสเต
238
ก่อนคริสต์ศักราช
##ประสบภัย
##998
##682
##648
##แซค
##651
##รถไฟแห่งประเทศไทย
##ริกซ์
##เจริญก้าวหน้า
##ไฮส
เดอะสตาร์
##สุนันทา
##หันหน้า
##ขนส่งสินค้า
##ออร์เลอ
แนวร่วม
##อวตาร
##มีพระโอรส
##โวลเดอมอร์
##ยกฐานะขึ้นเป็น
##รับมือกับ
##สัมพันธไมตรี
วิกิพีเดียภาษา
##วลัยลักษณ์
ฆ่า
ย็อง
##100
##hib
##ในพระองค์
##ประปา
และแสดง
และอยู่ใน
และปริญญาโท
เป็นตำแหน่ง
##นี้ยังมี
##เนดี
##ต่อขยาย
ที่เขียน
##เห่า
##เมื่อใด
##ศึกสงคราม
##ที่มีผล
##ซึ่งเป็นการ
##รวมเพลง
##เครื่องกล
##ผ่านเข้าไป
149
##ไม่ได้ถูก
##มักเป็น
##751
##711
##โบราณวัตถุ
ลำปาง
##ห่างกัน
##เลนิน
บาทหลวง
##กลับไปที่
##ขวาของ
เท่าของ
ระดับปริญญาตรี
เทศบาลนคร
##แหลมคม
##นอนหลับ
prince
มีบุตรชาย
วิกฤต
##บิลบอร์ดฮอต
##บิชอปแห่ง
##เนปจูน
##ผลาญ
pp
run
ภักดี
สติ
##บ็อกซ์
##ัฎ
##ู่อ
##ูจิ
##ของอเมริกา
##ของอี
##เลม
##เลนา
##าสะ
##กราม
##ตัวอ่อน
มีจุด
ได้ส่ง
เพ็ญ
##หมายความ
เกสร
##กองหลัง
##พัฒนาว
##เซียร์
##ประมาณการ
แห่งสเปน
##ค้นพบว่า
##เล่าถึง
ลำพูน
##เพิ่มขึ้นเป็น
##เสมอภาค
##เหยี่ยว
ชาตรี
phot
มีชื่อเรียก
คริสโตเฟอร์
##เปลือกสมอง
##เนชันส์
##นิ้วมือ
##บริเตนใหญ่
##อย่างมีนัยสำคัญ
เป็นละครโทรทัศน์ไทย
ย่อมาจาก
##วันศุกร์ที่
เตรียม
ซัวเรซ
ติณสูลานนท์
dvd
ธนา
วอน
เวย์
##บูน
##ภัท
##เต๋อ
##ถูกบังคับให้
เพรส
##ส่วนที่เป็น
##ปล่อง
เชิง
##อื่นใด
##ทีมชาย
154
##บูดา
วันในปีนั้น
##เส้นวงกลม
##653
จัดโดย
##ซิลิ
ปลาฉลาม
##ขอบฟ้า
##นี้จะยังเหลือ
sym
##แสดงในภาพยนตร์
##สมเด็จพระราชินีนาถวิกตอเรีย
โอกาส
##องคชาต
##พฤตินัย
410
dark
ตับ
ภิก
แร่
แรน
๑๒
##รณี
##็พ
##บีย์
##ทามะ
##ทาวเวอร์
##ที่อพยพ
##ในยุทธการที่
และบท
และบางครั้ง
##พระพักตร์
##เสฉวน
##ราชก
##ทั้งตัว
##แห่งเนเธอร์แลนด์
ประสาน
##หลังใหม่
2448
##อันยาวนาน
##ใหม่คือ
##ระหว่างสงคราม
สมชาย
##จิรา
##ข้างใน
มิใช่
##เดินทางจาก
##โปเต
##205
ก่อนการ
##ริมฝั่งแม่น้ำ
##วิชาการศึกษา
##อีกครั้งเมื่อ
##เหล่านี้เป็น
##จักรวรรดิออตโตมัน
เราจะ
ระยะเวลา
##กึ่งกลาง
##นินเทนโด
##มัลติ
##ยูนิเวิร์ส
##เม็ดเลือดขาว
##พลัดถิ่น
##กีดกัน
##เคสตรา
ตามปฏิทินสุริยคติแบบเกรกอเรียน
จารึก
##ทบวงมหาวิทยาลัย
##เวทีมวย
เมื่อถึงวันนี้จะยังเหลือ
ko
นาวา
ฟอส
มิด
อียิปต์
##คิต
##ุซ
##ุทธิ์
##ซาลา
##ารักษา
##ที่ไหล
##ที่ปรึกษ
##เป็นลาย
##ได้แต่
##ได้หลากหลาย
และสมาชิก
##และฝ่าย
##ให้สามารถ
เป็นเพลงที่
มีระยะทาง
##เซาะ
##นักมวยไทย
##เต็น
##แสดงการ
ประเทศกัมพูชา
ประเทศโปแลนด์
##จนสามารถ
##เธอจะ
##ตนีย์
##ได้รับการสนับสนุน
##อัลเฟรด
##รอบข้าง
##พุทธศาสนิกชน
##ตั้งแต่ยัง
##เผ็ด
##ไซบีเรีย
##ยานยนต์
อย่างน้อย
##ราชการแผ่นดิน
##เลี้ยงสัตว์
##จิตต์
##757
##788
##็องส์
##692
##เนื่องมาจากการ
##ชิงแชมป์โลกรุ่น
align
##โรมันอันศักดิ์สิทธิ์
##กระแสประสาท
โมบิล
##ก่อให้เกิดการ
##ในทวีปแอฟริกา
นักร้องนำ
##นัดดาใน
ศิลา
digital
เมื่อถึงวันนี้จะยังเหลือวันอีก
mit
บิว
##สนา
##ที่จุด
##ที่สถาบัน
##ในเส้นทาง
##ได้เสนอ
##มาใน
##มาเล่น
##หล่น
##ให้ดำรงตำแหน่ง
##เอี๋ยน
##วมะ
##ศาสดาราม
##ที่มีอาการ
##แนปส์
##ination
##ด้านตะวันตก
##เหนี่ยว
##ส่งตัว
##ทั่วถึง
153
##รอบนอก
ออกเป็น
299
##มะกอก
##994
##992
ผลการ
##ตรวจวัด
##ต่อสู้กัน
##พักอาศัย
##ดูแลรักษา
##จาการ์ตา
##เบิลดอร์
##ฆ่าคน
##ใช้เป็นสถานที่
##เยาวชนแห่งชาติ
##รัฐธรรมนูญฉบับ
องค์การมหาชน
##ไทรอยด์
##แจ็กสัน
##ุดีเปรสชัน
human
##พระศรีรัตนศาสดาราม
##ที่ลากจาก
wa
พญ
ฮาร์ต
แห
##บอดี
##ไประ
##ที่มาก
##ับเป็น
##ได้ขอ
##เมือก
##กับน้ำ
##ความลึก
##ใช้บังคับ
##ด้วยไม้
##คลาร์ก
ประเทศตุรกี
จากเดิม
##บนเรือ
##บรรเท
ความไม่
##แรงจูงใจ
##ไรตี้
##เป็นผู้ที่
142
##การศึกษาและ
##ไมค์
##ลิเก
##631
##694
##ล่าเหยื่อ
เส้นลองจิจูด
##aph
##ของชาวบ้าน
##เวนส์
##พังทลาย
##หักหลัง
นามเดิม
emp
สตีเฟน
##พับลิ
สุนทรเวช
##เกษียณอายุราชการ
##ทำหน้าที่ในการส่งนักกีฬาเข้าร่วมแข่งขัน
สิงหเสนี
คัด
ชุณ
ปาร์
พยา
##ทวิช
##พอร์
##ภัตตา
##kok
##bit
##่อา
##ในพม่า
##เกวียน
##จากสงคราม
##เทศาภิบาล
โดยปัจจุบัน
##ด้วยพระ
##ridge
##ประเทศเยอรมนี
##เตมาลา
##โลกมนุษย์
##แข่งกับ
##โตมิ
##พระองค์เป็น
##ช่วยลด
##ลำโพง
1500
##โคะ
##โจทก์
##แยกย้าย
##ider
##เก็บไว้
##738
##ติกส์
นิยาย
นำไป
real
##ดุจ
##อนุมาน
what
##ลิกซ์
ฟิล์ม
##ดังกล่าวยัง
##เดบิวต์
เปิดสนามแอนฟีลด์
แนะนำ
##อื้อฉาว
bet
dna
set
ทราน
ลุง
##ิยาม
##ัสม
##ุโรป
##ที่ลดลง
##ในสิ่งที่
##ของอนุภาค
##หนิง
เป็นที่ตั้งของ
##ชาดก
##อย่างลับ
##แห่งที่
##สนพระทัย
##กำมะ
##ัมพูชา
##พระราชหฤทัย
ของรายการ
##ระดับบนสุด
จังหวัดราชบุรี
175
##omy
##607
ได้รับความนิยม
##ulation
##เนื่องด้วย
802
##ดุเดือด
##คอเลสเตอรอล
##หนองน้ำ
พรรคคอมมิวนิสต์
##ชี้ว่า
##ที่รู้จักกันดี
##ภายใต้การนำของ
ฟุตซอล
##board
ชีวิตส่วนตัว
##เกรงว่า
##พรรคพลังประชาชน
##เพ็ชร
445
กสท
คุก
รณ
##ขะ
##ซำ
และน้ำ
##จะเข้า
เป็นเรื่องราว
##ชาตรี
ซึ่งต้อง
192
##ัตว์
##โรลด์
##อีกที
##แสดงที่
##ตรีม
##สาขานักแสดง
##มันเอง
##สมัยแรก
##พัฒนาน
เจ้าผู้ครองนคร
ก็ได้มีการ
##omet
##บีบบังคับ
##แอนดรอยด์
##ตลอดไป
ผลไม้
che
chin
##กระจ่าง
##เฉลย
##425
##ยิงธนู
##เธอกลับ
##ในตอนนั้น
สังเกต
##มารับบท
##ใหญ่ของเส้นเมริเดียนที่
##อาณาจักรก
เป็นรูปแบบเส้นวงกลม
วิตามิน
เชิญยิ้ม
##ช้านาน
เป็นรูปแบบเส้นวงกลมใหญ่ของเส้นเมริเดียนที่
dan
side
self
ดรีม
ทาน
นปช
หมาก
ฮอต
แอค
##เญ
##ลายน้ำ
##fa
##ของสาย
และนับ
ในคืน
##ด้วยระบบ
##เอซ
ที่นำ
##กระป๋อง
##จัดว่าเป็น
2436
##เครื่องคอมพิวเตอร์
##โรงเรียนมัธยมศึกษา
##จิ้ม
148
##605
##754
##737
##มวลรวม
##สกี้
##เนสก์
##uck
synd
##ขีดจำกัด
กกต
##ก้อนหิน
##ได้ยินเสียง
##เป็นฝ่ายแพ้คะแนน
george
บำรุง
พิศ
วาส
##พิต
##ฮิม
##ที่ตามมา
##ในสภาพ
##ในอิตาลี
##ในเอเชียตะวันออกเฉียงใต้
##างาน
##และเปิด
##ริโกะ
##ไปมาก
##ไปข้างหน้า
ในวัย
##ผู้เขียน
##ใช้เรียก
มีลำตัว
##แห่งโปรตุเกส
##ิสา
##ถูกโจมตี
##เศวต
##บนพื้นผิว
ซึ่งเป็นบริษัท
##คาเงะ
##เส้นผ่าศูนย์กลาง
##482
##อักษรย่อ
##สถานที่สำคัญ
##ander
##ในสมัยโบราณ
##747
##บัณฑิตพัฒน
##หยุดรถไฟ
ชาห์
คาร์บอน
ซิงเกิ้ล
##ซองส์
##ในวงกว้าง
##กวาดต้อน
##ชาร์ลส์ที่
##บิ๊กโชว์
##วอตส์
กรมพระยาดำรงราชานุภาพ
##เธอนั้น
ชาลส์
โชกุน
คลอ
ซารา
ฟราน
วาน
โอลิ
##มโห
##โอย
##ละเล่น
##ในเกาะ
##กลัด
##่างาม
ในภาพยนตร์เรื่อง
##เชี่ยน
##เหี้ยม
ประดับ
##หลายตัว
##พระราชกรณียกิจ
##ภายหลังจาก
##ก่อเหตุ
ทำให้มีการ
ครบ
##206
##732
พลตำรวจเอก
ภาษาไทย
##ที่มีความยาว
##อาทิตย์ที่
##สาธารณูปโภค
##สเปซ
##บริจาคเงิน
educ
##สี่เหลี่ยมจัตุรัส
ทิศใต้
##หิมาลัย
secret
##ฮกไกโด
วิดีโอเกม
radio
charles
##ฐานันดรศักดิ์
development
ว่าน
##มรกต
##บารา
##คละ
##ฤทธิ
##ระวาง
##ที่ชนะ
##ที่แปลก
##เป็นเมืองหลวง
เป็นคนที่
##อาคม
##ออกผลงาน
##ออกกฎหมาย
##ลาห์
##หาเสียง
##เพื่อช่วยเหลือ
##มิค
##มิ้น
##ชาวแคนาดา
##ด้านมืด
เพื่อไป
##ชิกิ
ความถี่
##อิทธิ
สมมติ
ก็มีการ
##เป็นผู้ปกครอง
##เฟือง
##เฟเธอร์
##นครรัฐ
##คงตัว
##หวั่น
##acc
##หย่ง
##618
##พาหะ
##705
##725
##เริ่มต้นจาก
##แอ็คชั่น
ตอนแรก
##ต่อต้านรัฐบาล
อำเภอด
เตชะ
coll
อนุภาค
กษัตริย์แห่ง
เกรย์
กระจายพันธุ์
cct
ham
mg
คีย์
ปอล
ฮาร์ด
##าชิ
##คย็อง
##ซอม
##เป็นทาง
และอาคาร
และเขาก็
##เมด
##นี้มีการ
##ผู้ซึ่ง
##ัญจ
##เบ็น
##ครั้งคราว
การเคลื่อนไหว
##ทีโอ
##กำนัล
##กาบาต
##พระราชโองการ
##สาละ
##กล่าวขาน
##โคป
จังหวัดเพชรบุรี
##ไม่มีหลักฐาน
##601
เซลีน
##โปโล
##623
##621
กระต่าย
##การปกครองแบบ
บางที
##429
##เยอทะยาน
##ไปได้ว่า
ดูที่
##พันธมิตรประชาชนเพื่อประชาธิปไตย
สังกัดพรรคประชาธิปัตย์
##เกรต
##อิเล็กโทร
เป็นพระมหากษัตริย์
##คุณภาพชีวิต
เทพเจ้า
ตนจึง
##ยืมตัว
ผลิตโดยบริษัท
ธีระ
กิ่งอำเภอ
เซ็นทรัล
##อายุน้อยที่สุด
##เบราว์เซอร์
##แพทยศาสตรศึกษาชั้นคลินิก
610
hem
##ฟ้อน
##รพินทร์
##ปณ์
##หวี
##บอเน
##ที่จัดขึ้น
##เป็นนก
โดยเส้นเมริเดียนที่
##ตัวจังหวัด
ซึ่งเขาได้
##ดีพี
##เอาส
##เอิร์ล
การท่องเที่ยว
##ฤษฏ
ทำไม
##สู่ขั้วโลกใต้
ถึงกระนั้น
##พิมาย
##รักษาด้วย
##624
##787
##ทุนนิยม
##ปะปน
neuro
โมเลกุล
##ดัดแปลงจาก
ประสูติเมื่อ
##เจมส์ที่
##ิศวกรรม
เสียชีวิตเมื่อวันที่
มหาสมุทรแปซิฟิก
##ก่อตัวขึ้น
บารอน
มัสยิด
##สำมะโนประชากร
##สุญญากาศ
##เอดินบะระ
management
เส้นลองจิจูดที่ลากจาก
##ใกล
##ุญญา
##การากัว
##ในกัมพูชา
##เป็นยา
##ของอะตอม
##ได้ทุก
และอ
และดำรงตำแหน่ง
##ตัวเล็ก
ที่เหลือ
ได้ร่วม
##เข้าเป็นสมาชิก
##ใจของ
##สองกลุ่ม
##สองข้าง
2435
##เหนือธรรมชาติ
##ลำแสง
กลยุทธ์
จังหวัดลพบุรี
ไม่เคย
##บีบีซี
##อยู่ที่นั่น
##619
##รู้จักกัน
##สนามฟุตบอล
##643
##โพลา
##718
##693
##589
##จาเมกา
##ก็คือการ
สาธารณรัฐประชาธิปไตย
##aka
syn
##รองรับการ
คุ้ม
##ขมับ
##เร่ร่อน
eth
field
อัก
เชาว
##ปณิธาน
##ชุง
##ตวน
##ทวง
##พละ
##ที่ยาวนาน
##จากอังกฤษ
##พระโกศ
##าวัก
##เขาล
##กลิ้ง
เป็นโรค
โดยจัด
##เน็น
##lect
ซึ่งเดิม
##อย่างช้า
แต่พระองค์
##พิรา
##อยู่ในบริเวณ
##ทั้งหมดที่
126
##เป็นผู้ฝึกสอน
ทั้งสาม
จังหวัดสุราษฎร์ธานี
##คงอยู่
นายทหาร
##ราวกับ
##ตำบลหนอง
##เชื้อแบคทีเรีย
293
station
##เชิงมุม
##มะขาม
##995
##ก่อตั้งขึ้นในปี
##794
โรด
ยูนิ
sex
##ogen
นอกจากนั้นยังมี
##บัวทอง
##ขุดค้น
ไทม์
##โอดอร์
บรูซ
เริ่มจากขั้วโลกเหนือ
ธนะรัชต์
##เขือเทศ
ซาร
ฟัง
วาด
##cs
##ชั่ง
##ิอุส
##ที่ซ่อน
##ของสำนัก
##เทย์
##ี้ยก
##ความวุ่นวาย
เป็นกรรมการ
##โดยบังเอิญ
##นักข่าว
##เมืองนี้
##เรียนที่โรงเรียน
##สถิตย์
##โอโร
ปีมะ
##เริ่มการ
##มันด์
##ลูกครึ่ง
##โยเซฟ
##นายแพทย์
##ชั้นหิน
##โซเฟีย
##เงินเฟ้อ
##เฟิง
##202
##etic
225
##ough
##642
##เดอร์ส
##185
##ขึ้นมาเพื่อ
นับถือ
##จงใจ
##สมบูรณ์แบบ
##ามาตรฐาน
อาร์เอส
##ผู้เล่นสามารถ
โมเดล
##านิพนธ์
##สีน้ำมัน
##ักษาพันธุ์สัตว์ป่า
##ทางเดินหายใจ
น้องสาว
พันธมิตร
##uke
##ทำสงครามกับ
##ฮาร์ดแวร์
##บอสเนียและเฮอร์เซโกวีนา
##ฑูรย์
630
cm
cam
how
pu
swe
ท้า
##ทง
##ration
##ฉิม
##ประนอม
##และผล
##ความน่าจะเป็น
##ไปพร้อมกับ
##วิสามัญ
##ราชรัฐ
##่มุม
##เชิน
##ตัวเลือก
##ประเทศชาติ
##ก็ใช้
##องค์แรก
##องค์ประธาน
##ส่วนล่าง
##บทาม
##สารพัด
##เริ่มมีการ
##บรรจง
143
303
137
##าปา
##จุดอ่อน
##ต่อมาคือ
เวที
##คริสต์ศาสนิกชน
##แต่ละชนิด
##ศูนย์วิจัย
##ทิฟ
##ยุโรปและ
##ประเภทอื่น
##691
##แหล่งข้อมูล
##ไฮเดร
##ของชาวยิว
เต๋อ
##หม่อมหลวง
##ขนานนามว่า
blood
##ขุดคลอง
##พระราชพิธีบรมราชาภิเษก
##ัญญัติ
index
เศรษฐศาสตร์
##คาร์ลที่
##คอนสแตนติน
ซอฟต์แวร์
##พุกาม
##แบนตัมเวท
353
352
dance
พูล
##ฟอล
##มื้อ
##แสร
##พอส
##ๆกับ
##ij
##mon
##การค้นพบ
##ันย์
##ในตัวเอง
##ในเจ้าชาย
##ในชนบท
##ือรือ
##ได้ทันที
##คราบ
##และฝรั่งเศส
##เขาลง
##ทัช
ได้กลายเป็น
พระเยซู
##ส่วนอื่น
##มิซ
##จนมี
##เตอร์ก
##กลางแจ้ง
ความหนาแน่น
สุดยอด
ระหว่างนั้น
##อาการปวด
##พระชนนี
##rab
##193
##ปาฐ
##หวังว่า
##ขึ้นในเมือง
พิเศษ
ภายใต้สังกัด
บุตรชายของ
##ตื่นตัว
##ผ่อนคลาย
##พกพา
##ข้าราชบริพาร
##บั้นปลาย
##นักสืบจิ๋วโคนัน
เส้นลองจิจูดที่ลากจากขั้วโลกเหนือ
ผิด
ฟลอ
##ตลับ
##จ้อง
##คี่
##ฺว
##ฌฆาต
##ในอาหาร
##เป็นปกติ
##เสี้ยน
##ทางดาราศาสตร์
##อบส์
##ตัวแรก
##ุมาร
##เมื่อถึง
##เพื่อพัฒนา
##ดิศ
##ชาวมุสลิม
##้อยที่สุด
##ไวท์
##เสียงโดย
##ภาษาเยอรมัน
##ติดตัว
##มีความแตกต่าง
##ลำห้วย
##เฮเกน
##เร็วที่สุด
##644
##736
คำสั่ง
##ติดต่อสื่อสาร
นับเป็นการ
##พายุโซนร้อน
ดิออน
##ช้ากว่า
##เรียกรวม
##ท้าชิง
##สองคนสุดท้าย
corpor
##กระจายเสียงและ
เข้าสู่ขั้วโลกใต้
##ผลัดใบ
##ฮอนด้า
##ติโนเปิล
ฟิสิกส์
vers
ก้อง
ชุน
บ็อบ
ฟาน
##ฟาด
##งคราม
##ตท
##จากสหรัฐอเมริกา
##อาซา
##นั้นด้วย
มีคน
##ด้วยกฎหมาย
##เซเรีย
ประสิทธิ
ประมุข
##เภณี
##หลายประเภท
##แข่งขันกัน
##แทนซาเนีย
##ลูกบอล
จนได้รับ
##ญี่ปุ่นได้
เสริม
โรงละคร
โดยมีพระ
##ของการใช้
##613
วิช
##สัญญาบัตร
แมรี
##ตัดสินพระทัย
##786
##สถาบันวิจัย
##582
##ความเป็นมา
อุบล
##เปนเฮเกน
##โฮจิมินห์
##ตกลงกัน
##ogn
ก่อให้เกิด
ดาวฤกษ์
เป็นบุตรคนที่
##ทุมพร
##ชายแดนภาคใต้
สิริพระชันษา
เกรียง
##อิมาม
หอประชุม
##คีย์บอร์ด
##จนกว่าจะ
มงกุฎ
เป็นการ์ตูนญี่ปุ่น
business
mount
##นธิ
##ทรัส
##ฉลาก
##ฏฐ
##ที่เพิ่ม
##ของมา
##กับเธอ
โดยกำหนด
##อยู่เบื้องหลัง
##อย่างกะทันหัน
##ดูโอ
ของสหรัฐอเมริกา
##รายใหญ่
ตั้งแต่อ
##ตั้งแต่เด็ก
##มนตรีความมั่นคง
อันโต
##684
เริ่มแรก
##ยึดมั่น
อยู่ระหว่าง
##วรรณยุกต์
ภาพเขียน
ศูนย์กลาง
##สปอร์
ยาวประมาณ
##ysis
เกี่ยวกับการ
##ศรีนครินทร์
เกลือ
##วิชั่นส์
##พัทธ์
##เที่ยงคืน
##ที่ยิ่งใหญ่ที่สุด
##ิวัฒน์
##บาห์เรน
call
lt
les
บัต
##อ้อ
##รายนาม
##ปาส
##จือ
##สิม
##ขุ่น
##ที่มัก
##ที่ควร
##การปฏิบัติ
##่งาน
##ายงาน
##ของดวงจันทร์
##และเอกชน
ในชุด
##เจ๋ง
โดยคำว่า
ซึ่งทั้งสอง
##ก็อด
##ก็จะเป็น
การวัด
##หนึ่งๆ
##ไทยได้
##องค์หญิง
##เกิดอุบัติเหตุ
##จัดกิจกรรม
2442
##จักรพงษ์
##จึงส่ง
##รูปภาพ
##เขตเลือกตั้ง
##แมทช์
##ผ่านมหาสมุทรอาร์กติก
##อัลกุรอาน
จังหวัดน่าน
จังหวัดสมุทรปราการ
##ดำเนินนโยบาย
states
กองพัน
พร้อมกับการ
##ota
##กำเนิดไฟฟ้า
เครื่องราชอิสริยาภรณ์
ตอนนี้
##คอเค
##ฟูจิ
โปรเจกต์
##แตกต่างกันออกไป
ศาลเจ้า
##ฝูงบิน
##อัมพาต
##เจ้าริชาร์ด
พอตเตอร์กับ
ร็อคแมน
##ขดลวด
##ography
##มาระหว่าง
ชิล
ตราบ
ศอก
เวก
##ตั้ม
##แฉ
##มีสมาชิก
และกำลัง
##ภาณ
##ทางอินเทอร์เน็ต
##ทางประชาน
แต่เพราะ
แต่กระนั้น
##เข้าออก
##นิเฟอร์
##เพื่อรับ
##ตะลึง
##ไวต่อ
ผู้สร้าง
##ตาฟ
##คู่รัก
มาซา
##ely
กระบอก
##กำหนดโดย
##เคลื่อนตัว
##685
##พีซี
มีการสร้าง
##ทุนการศึกษา
##488
##เอสเอ็ม
801
##สนใจใน
สร้างจาก
##เจอร์ซีย์
อิหร่าน
##บิชิ
##ชะตากรรม
ก่อตั้งเมื่อ
จุดประสงค์
และได้รับเลือก
ไร้
##ปรีซ์
dise
##อีกชื่อหนึ่งว่า
เทือกเขา
##ทโธปกรณ์
##กราวด์
529
hard
นม
บึง
##ปึก
##คเตอร์
##พหุ
##การเปลี่ยน
##ในอำเภอ
##ได้ไม่
##จากทั้ง
##พระประ
เป็นหลัก
##ทางพระพุทธศาสนา
##ลงและ
##ไม่เหมาะสม
##ิสตา
หรืออาจจะ
##ศาสนาย
##ัทสึ
##ชั้นกลาง
##เทพปกรณัม
##สำเร็จโทษ
##602
##อายุเพียง
##ปรากฏเป็น
##โป๊
##โปรง
##628
##ขนุน
##เชิงเขา
##993
##ประวัติศาสตร์ของ
##สิบสี่
##เซ็นเซอร์
##และความสามารถ
เจ้าหญิงมารี
league
##ออเรนจ์
บรรจุ
##วิถีทาง
##คบเพลิง
สุขุม
ฤดูร้อน
##เพชรรัตน
golden
##เสียงข้างมาก
##มิชิแกน
##เฟเธอร์เวท
ku
ult
ทาร
นั่ง
ปวช
ฟรัน
อาม
เดย์
เอลิซาเบธ
##ลลา
##ios
##ที่ไร้
##อยู่ทั่วไป
##วงเวียน
##ities
##ต่อหนึ่ง
##ลาศ
##ดีว่า
##เมืองและ
##สุดสัปดาห์
หรือใช้
##ส่วนปลาย
##ปลอบ
##era
##ชาวตะวันตก
1090
##โน้มน
จากเรื่อง
ส่วนหนึ่ง
##ทั้งหมดใน
##แนวดนตรี
##ไรช์
เสี่ยว
##608
##ออกจากกัน
##781
ในการนี้
##657
ยูเอส
search
นางงามจักรวาล
##คิระ
##ุขันธ์
โปรดให้
มีจำนวนประชากร
##แมนเชสเตอร์ซิตี
##ภาคต่อของ
##ส่วนผสมของ
##จุฬาลงกรณราชวิทยาลัย
950
หิ
แอต
##ตภาพ
##สก็
##ฬาร
และแอนตาร์กติกา
##และเจ้าหญิง
##ให้ดู
##ติเนน
##กับเขา
เป็นศูนย์กลาง
##ไม่ต้องการ
##สมิธ
##ita
##แห่งเบลเยียม
ได้ก่อตั้ง
##กระเท
##ตามด้วย
##าทุก
##เฉื่อย
ผู้เป็นพระ
##โดมินิ
##แม็ค
##ลูกบาศก์
##นานกว่า
##ผลิตแพทย์
##หวี่
##ลักษณะที่
##ชันสูตร
จำหน่าย
##634
##181
##โฮเฟิน
##พระบาทสมเด็จพระบรมชนกาธิเบศร
##หางาน
prof
แฮม
เป็นนักแสดงชาย
##นัยว่า
##เอกซ์บอกซ์
##รื้อฟื้น
##อย่างมีประสิทธิภาพ
##กัปตันทีม
รังสิต
##สังคายนา
443
ah
ib
บอล
ฮัล
##ดรีม
##ขูด
##มาเยือน
##จากวิทยาลัย
##าล็อก
เป็นทีม
ที่นั่น
ได้เปลี่ยน
เพร์รี
##ชีอะฮ์
##หลายสาย
##arm
##คณะนิติศาสตร์
##กำลังพัฒนา
##604
##อยู่ที่ประมาณ
กระนั้น
ล้านยูโร
##ปากเกร็ด
cha
##481
##พี่ชายของ
##หินทราย
##ซื้อลิขสิทธิ์
##โฟล์
##นอร์มัน
##ออโต
##แจ้งเกิด
##สระน้ำ
อีกทั้งยังมี
##ชวนเชื่อ
##แน่ใจว่า
##ลิขิต
##ปารากวัย
วารสาร
เส้นลองจิจูดที่ลากจากขั้วโลกเหนือผ่านมหาสมุทรอาร์กติก
345
ขอน
น่าน
แต้ม
##บารุ
##ทเท
##ุญ
##ground
##การอุดมศึกษา
##ในอุตสาหกรรม
##เป็นบุคคล
##และโต
##และเพิ่ม
##ริสัน
##เทอม
##เดฟ
##เจิง
##ทางปัญญา
โดยถูก
โดยเขาได้
##สมจริง
##เอามา
##ชื่อเดียวกัน
##ยังใช้
##ุกุ
##เพื่อป้องกันการ
##วกุล
คนและ
##ทะเยอทะยาน
##ดำเนินไป
##ไซแนปส์
##ซิป
##เอาไป
##625
##784
##734
##695
##697
##ออกแบบมา
##พระราชทานนาม
##โปรดฯ
##สวรรค
##741
##เธอร์ส
##เซนเตอร์
##ใช้อุปกรณ์
##สวมชุด
##อีกหลายเรื่อง
##กรีกโบราณ
##ศิลาฤกษ์
เพื่อนสนิท
##book
โฟร์
##ให้ความสำคัญกับ
เสนาบดี
##พัวพัน
##บิดเบือน
พิจารณา
##บอเนต
อรุณ
##ย้อม
##สปีด
##ค้าย
##พื
##ธุลี
##dom
##gg
##fe
##ของรถ
##มีอายุได้
เป็นทั้ง
##ทางออก
##ทั้งเจ็ด
พระพรหม
##เคด
##กรรมวาจา
##ชาวิศวกรรม
เช้า
1080
##ตอนจบ
จนต้อง
##เฟรน
##จิโอ
##ไซเมอร์
##201
ภายหลังจากที่
##เชื้อโรค
ทรงมี
##991
##681
##797
##กรีฑา
##ประกวดร้องเพลง
##เยาวชนอายุไม่เกิน
พรรคพลัง
##ในยุคกลาง
##เพาะขยายพันธุ์
1903
1901
scope
แก้ไข
##หมู่นัก
##มารวมกัน
##ลงคะแนนเสียง
##โขนง
girls
##พระราชาคณะ
เหวิน
mm
จ้าว
อู่
ฮัม
ไปร
##ด้าม
##ที่พระเจ้า
และภาค
และช่วย
[...]
