{
  "version": "1.0",
  "truncation": null,
  "padding": null,
  "added_tokens": [
    {
      "id": 0,
      "special": true,
      "content": "[PAD]",
      "single_word": false,
      "lstrip": false,
      "rstrip": false
    },
    {
      "id": 1,
      "special": true,
      "content": "[UNK]",
      "single_word": false,
      "lstrip": false,
      "rstrip": false
    },
    {
      "id": 2,
      "special": true,
      "content": "[CLS]",
      "single_word": false,
      "lstrip": false,
      "rstrip": false
    },
    {
      "id": 3,
      "special": true,
      "content": "[SEP]",
      "single_word": false,
      "lstrip": false,
      "rstrip": false
    },
    {
      "id": 4,
      "special": true,
      "content": "[MASK]",
      "single_word": false,
      "lstrip": false,
      "rstrip": false
    }
  ],
  "normalizer": {
    "type": "BertNormalizer",
    "clean_text": true,
    "handle_chinese_chars": true,
    "strip_accents": false,
    "lowercase": true
  },
  "pre_tokenizer": {
    "type": "BertPreTokenizer"
  },
  "post_processor": null,
  "decoder": {
    "type": "WordPiece",
    "prefix": "##",
    "cleanup": true
  },
  "model": {
    "type": "WordPiece",
    "unk_token": "[UNK]",
    "continuing_subword_prefix": "##",
    "max_input_chars_per_word": 100,
    "vocab": {
      "[PAD]": 0,
      "[UNK]": 1,
      "[CLS]": 2,
      "[SEP]": 3,
      "[MASK]": 4,
      "!": 5,
      "\"": 6,
      "#": 7,
      "$": 8,
      "%": 9,
      "&": 10,
      "'": 11,
      "(": 12,
      ")": 13,
      "*": 14,
      "+": 15,
      ",": 16,
      "-": 17,
      ".": 18,
      "/": 19,
      "0": 20,
      "1": 21,
      "2": 22,
      "3": 23,
      "4": 24,
      "5": 25,
      "6": 26,
      "7": 27,
      "8": 28,
      "9": 29,
      ":": 30,
      ";": 31,
      "<": 32,
      "=": 33,
      ">": 34,
      "?": 35,
      "@": 36,
      "[": 37,
      "\\": 38,
      "]": 39,
      "^": 40,
      "_": 41,
      "a": 42,
      "b": 43,
      "c": 44,
      "d": 45,
      "e": 46,
      "f": 47,
      "g": 48,
      "h": 49,
      "i": 50,
      "j": 51,
      "k": 52,
      "l": 53,
      "m": 54,
      "n": 55,
      "o": 56,
      "p": 57,
      "q": 58,
      "r": 59,
      "s": 60,
      "t": 61,
      "u": 62,
      "v": 63,
      "w": 64,
      "x": 65,
      "y": 66,
      "z": 67,
      "{": 68,
      "|": 69,
      "}": 70,
      "~": 71,
      "£": 72,
      "§": 73,
      "«": 74,
      "®": 75,
      "°": 76,
      "±": 77,
      "²": 78,
      "³": 79,
      "µ": 80,
      "·": 81,
      "»": 82,
      "½": 83,
      "×": 84,
      "ß": 85,
      "à": 86,
      "á": 87,
      "â": 88,
      "ã": 89,
      "ä": 90,
      "å": 91,
      "æ": 92,
      "ç": 93,
      "è": 94,
      "é": 95,
      "ê": 96,
      "ë": 97,
      "ì": 98,
      "í": 99,
      "î": 100,
      "ï": 101,
      "ð": 102,
      "ñ": 103,
      "ò": 104,
      "ó": 105,
      "ô": 106,
      "ö": 107,
      "÷": 108,
      "ø": 109,
      "ù": 110,
      "ú": 111,
      "û": 112,
      "ü": 113,
      "ý": 114,
      "ā": 115,
      "ă": 116,
      "ć": 117,
      "č": 118,
      "đ": 119,
      "ē": 120,
      "ě": 121,
      "ħ": 122,
      "ī": 123,
      "ı": 124,
      "ł": 125,
      "ŋ": 126,
      "ō": 127,
      "ś": 128,
      "ş": 129,
      "š": 130,
      "ū": 131,
      "ž": 132,
      "ơ": 133,
      "ư": 134,
      "ǎ": 135,
      "ǐ": 136,
      "ǔ": 137,
      "ɔ": 138,
      "ə": 139,
      "ɛ": 140,
      "ɪ": 141,
      "ʃ": 142,
      "ʊ": 143,
      "ʔ": 144,
      "ʰ": 145,
      "ˈ": 146,
      "ː": 147,
      "́": 148,
      "̍": 149,
      "̤": 150,
      "ά": 151,
      "έ": 152,
      "ή": 153,
      "ί": 154,
      "α": 155,
      "β": 156,
      "γ": 157,
      "δ": 158,
      "ε": 159,
      "η": 160,
      "θ": 161,
      "ι": 162,
      "κ": 163,
      "λ": 164,
      "μ": 165,
      "ν": 166,
      "ξ": 167,
      "ο": 168,
      "π": 169,
      "ρ": 170,
      "ς": 171,
      "σ": 172,
      "τ": 173,
      "υ": 174,
      "φ": 175,
      "χ": 176,
      "ψ": 177,
      "ω": 178,
      "ό": 179,
      "ύ": 180,
      "ώ": 181,
      "а": 182,
      "б": 183,
      "в": 184,
      "г": 185,
      "д": 186,
      "е": 187,
      "ж": 188,
      "з": 189,
      "и": 190,
      "й": 191,
      "к": 192,
      "л": 193,
      "м": 194,
      "н": 195,
      "о": 196,
      "п": 197,
      "р": 198,
      "с": 199,
      "т": 200,
      "у": 201,
      "ф": 202,
      "х": 203,
      "ц": 204,
      "ч": 205,
      "ш": 206,
      "ъ": 207,
      "ы": 208,
      "ь": 209,
      "э": 210,
      "я": 211,
      "ё": 212,
      "і": 213,
      "ј": 214,
      "ּ": 215,
      "א": 216,
      "ב": 217,
      "ה": 218,
      "ו": 219,
      "י": 220,
      "ל": 221,
      "מ": 222,
      "ע": 223,
      "ר": 224,
      "ש": 225,
      "ת": 226,
      "آ": 227,
      "أ": 228,
      "إ": 229,
      "ا": 230,
      "ب": 231,
      "ة": 232,
      "ت": 233,
      "ث": 234,
      "ج": 235,
      "ح": 236,
      "خ": 237,
      "د": 238,
      "ذ": 239,
      "ر": 240,
      "ز": 241,
      "س": 242,
      "ش": 243,
      "ص": 244,
      "ط": 245,
      "ع": 246,
      "غ": 247,
      "ف": 248,
      "ق": 249,
      "ك": 250,
      "ل": 251,
      "م": 252,
      "ن": 253,
      "ه": 254,
      "و": 255,
      "ى": 256,
      "ي": 257,
      "َ": 258,
      "ُ": 259,
      "ِ": 260,
      "ّ": 261,
      "ْ": 262,
      "ک": 263,
      "ی": 264,
      "ܐ": 265,
      "ं": 266,
      "क": 267,
      "ग": 268,
      "ज": 269,
      "ण": 270,
      "त": 271,
      "द": 272,
      "न": 273,
      "प": 274,
      "ब": 275,
      "म": 276,
      "य": 277,
      "र": 278,
      "ल": 279,
      "व": 280,
      "श": 281,
      "ष": 282,
      "स": 283,
      "ह": 284,
      "ा": 285,
      "ि": 286,
      "ी": 287,
      "ु": 288,
      "े": 289,
      "ो": 290,
      "्": 291,
      "া": 292,
      "ก": 293,
      "ข": 294,
      "ฃ": 295,
      "ค": 296,
      "ฅ": 297,
      "ฆ": 298,
      "ง": 299,
      "จ": 300,
      "ฉ": 301,
      "ช": 302,
      "ซ": 303,
      "ฌ": 304,
      "ญ": 305,
      "ฎ": 306,
      "ฏ": 307,
      "ฐ": 308,
      "ฑ": 309,
      "ฒ": 310,
      "ณ": 311,
      "ด": 312,
      "ต": 313,
      "ถ": 314,
      "ท": 315,
      "ธ": 316,
      "น": 317,
      "บ": 318,
      "ป": 319,
      "ผ": 320,
      "ฝ": 321,
      "พ": 322,
      "ฟ": 323,
      "ภ": 324,
      "ม": 325,
      "ย": 326,
      "ร": 327,
      "ฤ": 328,
      "ล": 329,
      "ฦ": 330,
      "ว": 331,
      "ศ": 332,
      "ษ": 333,
      "ส": 334,
      "ห": 335,
      "ฬ": 336,
      "อ": 337,
      "ฮ": 338,
      "ฯ": 339,
      "ะ": 340,
      "ั": 341,
      "า": 342,
      "ำ": 343,
      "ิ": 344,
      "ี": 345,
      "ึ": 346,
      "ื": 347,
      "ุ": 348,
      "ู": 349,
      "ฺ": 350,
      "เ": 351,
      "แ": 352,
      "โ": 353,
      "ใ": 354,
      "ไ": 355,
      "ๅ": 356,
      "ๆ": 357,
      "็": 358,
      "่": 359,
      "้": 360,
      "๊": 361,
      "๋": 362,
      "์": 363,
      "ํ": 364,
      "๐": 365,
      "๑": 366,
      "๒": 367,
      "๓": 368,
      "๔": 369,
      "๕": 370,
      "๖": 371,
      "๗": 372,
      "๘": 373,
      "๙": 374,
      "ກ": 375,
      "ຄ": 376,
      "ງ": 377,
      "ຈ": 378,
      "ຊ": 379,
      "ດ": 380,
      "ທ": 381,
      "ນ": 382,
      "ປ": 383,
      "ພ": 384,
      "ມ": 385,
      "ຣ": 386,
      "ລ": 387,
      "ວ": 388,
      "ສ": 389,
      "ຫ": 390,
      "ອ": 391,
      "ະ": 392,
      "ັ": 393,
      "າ": 394,
      "ຳ": 395,
      "ິ": 396,
      "ີ": 397,
      "ື": 398,
      "ູ": 399,
      "ົ": 400,
      "ເ": 401,
      "່": 402,
      "້": 403,
      "་": 404,
      "င": 405,
      "စ": 406,
      "တ": 407,
      "န": 408,
      "မ": 409,
      "ရ": 410,
      "လ": 411,
      "သ": 412,
      "ာ": 413,
      "ိ": 414,
      "ု": 415,
      "ေ": 416,
      "း": 417,
      "်": 418,
      "ა": 419,
      "დ": 420,
      "ე": 421,
      "ზ": 422,
      "თ": 423,
      "ი": 424,
      "ლ": 425,
      "მ": 426,
      "ნ": 427,
      "ო": 428,
      "რ": 429,
      "ს": 430,
      "უ": 431,
      "ჷ": 432,
      "ჽ": 433,
      "ჿ": 434,
      "ក": 435,
      "គ": 436,
      "ង": 437,
      "ជ": 438,
      "ត": 439,
      "ទ": 440,
      "ន": 441,
      "ប": 442,
      "ព": 443,
      "ម": 444,
      "យ": 445,
      "រ": 446,
      "ល": 447,
      "វ": 448,
      "ស": 449,
      "អ": 450,
      "ា": 451,
      "ិ": 452,
      "ី": 453,
      "ុ": 454,
      "េ": 455,
      "ំ": 456,
      "័": 457,
      "្": 458,
      "ḥ": 459,
      "ṣ": 460,
      "ṭ": 461,
      "ạ": 462,
      "ả": 463,
      "ễ": 464,
      "ệ": 465,
      "ố": 466,
      "ỽ": 467,
      "ἀ": 468,
      "ῖ": 469,
      "–": 470,
      "—": 471,
      "‘": 472,
      "’": 473,
      "“": 474,
      "”": 475,
      "†": 476,
      "•": 477,
      "…": 478,
      "′": 479,
      "‹": 480,
      "›": 481,
      "€": 482,
      "℃": 483,
      "™": 484,
      "→": 485,
      "−": 486,
      "√": 487,
      "∞": 488,
      "≈": 489,
      "≠": 490,
      "≤": 491,
      "≥": 492,
      "⊕": 493,
      "⊙": 494,
      "█": 495,
      "▪": 496,
      "●": 497,
      "☆": 498,
      "♠": 499,
      "♣": 500,
      "♥": 501,
      "、": 502,
      "。": 503,
      "《": 504,
      "》": 505,
      "「": 506,
      "」": 507,
      "あ": 508,
      "い": 509,
      "う": 510,
      "え": 511,
      "お": 512,
      "か": 513,
      "が": 514,
      "き": 515,
      "く": 516,
      "け": 517,
      "こ": 518,
      "さ": 519,
      "し": 520,
      "じ": 521,
      "す": 522,
      "せ": 523,
      "た": 524,
      "ち": 525,
      "っ": 526,
      "つ": 527,
      "て": 528,
      "で": 529,
      "と": 530,
      "ど": 531,
      "な": 532,
      "に": 533,
      "の": 534,
      "は": 535,
      "へ": 536,
      "ま": 537,
      "み": 538,
      "め": 539,
      "も": 540,
      "や": 541,
      "よ": 542,
      "ら": 543,
      "り": 544,
      "る": 545,
      "れ": 546,
      "を": 547,
      "ん": 548,
      "ァ": 549,
      "ア": 550,
      "ィ": 551,
      "イ": 552,
      "ウ": 553,
      "ェ": 554,
      "エ": 555,
      "オ": 556,
      "カ": 557,
      "ガ": 558,
      "キ": 559,
      "ギ": 560,
      "ク": 561,
      "グ": 562,
      "ケ": 563,
      "コ": 564,
      "ゴ": 565,
      "サ": 566,
      "ザ": 567,
      "シ": 568,
      "ジ": 569,
      "ス": 570,
      "ズ": 571,
      "セ": 572,
      "タ": 573,
      "ダ": 574,
      "チ": 575,
      "ッ": 576,
      "ツ": 577,
      "テ": 578,
      "デ": 579,
      "ト": 580,
      "ド": 581,
      "ナ": 582,
      "ニ": 583,
      "ネ": 584,
      "ノ": 585,
      "ハ": 586,
      "バ": 587,
      "パ": 588,
      "ヒ": 589,
      "ビ": 590,
      "フ": 591,
      "ブ": 592,
      "プ": 593,
      "ベ": 594,
      "ボ": 595,
      "マ": 596,
      "ミ": 597,
      "ム": 598,
      "メ": 599,
      "モ": 600,
      "ャ": 601,
      "ュ": 602,
      "ョ": 603,
      "ラ": 604,
      "リ": 605,
      "ル": 606,
      "レ": 607,
      "ロ": 608,
      "ン": 609,
      "・": 610,
      "ー": 611,
      "一": 612,
      "七": 613,
      "三": 614,
      "上": 615,
      "下": 616,
      "不": 617,
      "世": 618,
      "东": 619,
      "中": 620,
      "主": 621,
      "之": 622,
      "九": 623,
      "事": 624,
      "二": 625,
      "五": 626,
      "京": 627,
      "人": 628,
      "仁": 629,
      "今": 630,
      "仙": 631,
      "代": 632,
      "仮": 633,
      "仲": 634,
      "会": 635,
      "伝": 636,
      "何": 637,
      "作": 638,
      "使": 639,
      "侯": 640,
      "保": 641,
      "信": 642,
      "傳": 643,
      "元": 644,
      "光": 645,
      "全": 646,
      "八": 647,
      "公": 648,
      "六": 649,
      "共": 650,
      "出": 651,
      "利": 652,
      "前": 653,
      "劉": 654,
      "動": 655,
      "化": 656,
      "北": 657,
      "区": 658,
      "十": 659,
      "千": 660,
      "华": 661,
      "南": 662,
      "原": 663,
      "县": 664,
      "叉": 665,
      "古": 666,
      "可": 667,
      "台": 668,
      "史": 669,
      "司": 670,
      "合": 671,
      "吉": 672,
      "同": 673,
      "名": 674,
      "后": 675,
      "君": 676,
      "吳": 677,
      "周": 678,
      "命": 679,
      "和": 680,
      "唐": 681,
      "嘉": 682,
      "四": 683,
      "园": 684,
      "国": 685,
      "國": 686,
      "園": 687,
      "土": 688,
      "地": 689,
      "城": 690,
      "場": 691,
      "士": 692,
      "夏": 693,
      "夜": 694,
      "夢": 695,
      "大": 696,
      "天": 697,
      "太": 698,
      "夫": 699,
      "奇": 700,
      "女": 701,
      "如": 702,
      "妃": 703,
      "娘": 704,
      "子": 705,
      "字": 706,
      "孝": 707,
      "学": 708,
      "孫": 709,
      "學": 710,
      "宇": 711,
      "安": 712,
      "宋": 713,
      "宗": 714,
      "定": 715,
      "宣": 716,
      "宮": 717,
      "家": 718,
      "寧": 719,
      "寺": 720,
      "将": 721,
      "將": 722,
      "小": 723,
      "少": 724,
      "山": 725,
      "島": 726,
      "川": 727,
      "州": 728,
      "工": 729,
      "市": 730,
      "帝": 731,
      "師": 732,
      "平": 733,
      "年": 734,
      "府": 735,
      "度": 736,
      "康": 737,
      "廣": 738,
      "建": 739,
      "式": 740,
      "张": 741,
      "張": 742,
      "後": 743,
      "御": 744,
      "徳": 745,
      "德": 746,
      "心": 747,
      "忠": 748,
      "思": 749,
      "怪": 750,
      "恭": 751,
      "情": 752,
      "惠": 753,
      "愛": 754,
      "慈": 755,
      "慶": 756,
      "懿": 757,
      "成": 758,
      "我": 759,
      "戦": 760,
      "戰": 761,
      "手": 762,
      "政": 763,
      "敬": 764,
      "文": 765,
      "新": 766,
      "方": 767,
      "族": 768,
      "日": 769,
      "昌": 770,
      "明": 771,
      "星": 772,
      "春": 773,
      "昭": 774,
      "是": 775,
      "時": 776,
      "景": 777,
      "書": 778,
      "曹": 779,
      "最": 780,
      "會": 781,
      "月": 782,
      "有": 783,
      "朝": 784,
      "木": 785,
      "本": 786,
      "朱": 787,
      "李": 788,
      "村": 789,
      "条": 790,
      "東": 791,
      "松": 792,
      "林": 793,
      "校": 794,
      "梁": 795,
      "楊": 796,
      "楚": 797,
      "橋": 798,
      "機": 799,
      "歌": 800,
      "正": 801,
      "武": 802,
      "死": 803,
      "殿": 804,
      "氏": 805,
      "民": 806,
      "水": 807,
      "永": 808,
      "汉": 809,
      "江": 810,
      "河": 811,
      "治": 812,
      "法": 813,
      "泰": 814,
      "洪": 815,
      "流": 816,
      "海": 817,
      "清": 818,
      "湖": 819,
      "源": 820,
      "漢": 821,
      "火": 822,
      "無": 823,
      "物": 824,
      "特": 825,
      "犬": 826,
      "玄": 827,
      "玉": 828,
      "王": 829,
      "理": 830,
      "生": 831,
      "田": 832,
      "界": 833,
      "白": 834,
      "百": 835,
      "的": 836,
      "皇": 837,
      "盛": 838,
      "相": 839,
      "省": 840,
      "真": 841,
      "知": 842,
      "石": 843,
      "社": 844,
      "祖": 845,
      "神": 846,
      "福": 847,
      "秀": 848,
      "秋": 849,
      "秦": 850,
      "空": 851,
      "立": 852,
      "章": 853,
      "節": 854,
      "紅": 855,
      "經": 856,
      "縣": 857,
      "羅": 858,
      "美": 859,
      "義": 860,
      "老": 861,
      "者": 862,
      "聖": 863,
      "胡": 864,
      "臣": 865,
      "自": 866,
      "興": 867,
      "舞": 868,
      "良": 869,
      "色": 870,
      "花": 871,
      "英": 872,
      "茶": 873,
      "華": 874,
      "葉": 875,
      "藏": 876,
      "藤": 877,
      "蘭": 878,
      "虎": 879,
      "行": 880,
      "西": 881,
      "見": 882,
      "親": 883,
      "記": 884,
      "語": 885,
      "貞": 886,
      "貴": 887,
      "赤": 888,
      "超": 889,
      "越": 890,
      "趙": 891,
      "路": 892,
      "車": 893,
      "軍": 894,
      "通": 895,
      "道": 896,
      "郎": 897,
      "郡": 898,
      "部": 899,
      "郭": 900,
      "都": 901,
      "鄭": 902,
      "里": 903,
      "重": 904,
      "野": 905,
      "金": 906,
      "鉄": 907,
      "長": 908,
      "門": 909,
      "間": 910,
      "阮": 911,
      "阳": 912,
      "阿": 913,
      "院": 914,
      "陳": 915,
      "陵": 916,
      "陽": 917,
      "隆": 918,
      "雄": 919,
      "雲": 920,
      "電": 921,
      "青": 922,
      "面": 923,
      "韓": 924,
      "音": 925,
      "順": 926,
      "顯": 927,
      "風": 928,
      "飛": 929,
      "香": 930,
      "馬": 931,
      "高": 932,
      "魏": 933,
      "魔": 934,
      "黃": 935,
      "黄": 936,
      "黒": 937,
      "龍": 938,
      "龙": 939,
      "가": 940,
      "경": 941,
      "고": 942,
      "공": 943,
      "구": 944,
      "국": 945,
      "군": 946,
      "기": 947,
      "김": 948,
      "나": 949,
      "남": 950,
      "다": 951,
      "대": 952,
      "도": 953,
      "동": 954,
      "라": 955,
      "리": 956,
      "무": 957,
      "문": 958,
      "민": 959,
      "박": 960,
      "비": 961,
      "사": 962,
      "서": 963,
      "선": 964,
      "성": 965,
      "세": 966,
      "소": 967,
      "수": 968,
      "스": 969,
      "시": 970,
      "신": 971,
      "씨": 972,
      "아": 973,
      "안": 974,
      "영": 975,
      "왕": 976,
      "요": 977,
      "우": 978,
      "원": 979,
      "윤": 980,
      "의": 981,
      "이": 982,
      "인": 983,
      "자": 984,
      "장": 985,
      "정": 986,
      "제": 987,
      "조": 988,
      "종": 989,
      "주": 990,
      "지": 991,
      "하": 992,
      "한": 993,
      "화": 994,
      "후": 995,
      "︎": 996,
      "！": 997,
      "（": 998,
      "）": 999,
      "，": 1000,
      "．": 1001,
      "：": 1002,
      "～": 1003,
      "￼": 1004,
      "##ฟ": 1005,
      "##อ": 1006,
      "##ร": 1007,
      "##์": 1008,
      "##เ": 1009,
      "##ม": 1010,
      "##n": 1011,
      "##u": 1012,
      "##c": 1013,
      "##a": 1014,
      "##p": 1015,
      "##ป": 1016,
      "##็": 1017,
      "##น": 1018,
      "##ก": 1019,
      "##า": 1020,
      "##ล": 1021,
      "##ง": 1022,
      "##ะ": 1023,
      "##ช": 1024,
      "##ต": 1025,
      "##ิ": 1026,
      "##ห": 1027,
      "##บ": 1028,
      "##ื": 1029,
      "##ไ": 1030,
      "##่": 1031,
      "##ใ": 1032,
      "##้": 1033,
      "##ท": 1034,
      "##ศ": 1035,
      "##แ": 1036,
      "##จ": 1037,
      "##ี": 1038,
      "##ย": 1039,
      "##ฝ": 1040,
      "##ั": 1041,
      "##ส": 1042,
      "##ด": 1043,
      "##ึ": 1044,
      "##ถ": 1045,
      "##ค": 1046,
      "##ว": 1047,
      "##พ": 1048,
      "##ธ": 1049,
      "##ข": 1050,
      "##ุ": 1051,
      "##ำ": 1052,
      "##โ": 1053,
      "##๊": 1054,
      "##ษ": 1055,
      "##ู": 1056,
      "##ฐ": 1057,
      "##ภ": 1058,
      "##ฺ": 1059,
      "##ณ": 1060,
      "##l": 1061,
      "##y": 1062,
      "##t": 1063,
      "##r": 1064,
      "##e": 1065,
      "##ซ": 1066,
      "##ฉ": 1067,
      "##ฑ": 1068,
      "##8": 1069,
      "##9": 1070,
      "##5": 1071,
      "##0": 1072,
      "##ฏ": 1073,
      "##4": 1074,
      "##3": 1075,
      "##ฮ": 1076,
      "##ผ": 1077,
      "##ญ": 1078,
      "##2": 1079,
      "##6": 1080,
      "##s": 1081,
      "##v": 1082,
      "##ๆ": 1083,
      "##ฎ": 1084,
      "##7": 1085,
      "##ฯ": 1086,
      "##ฒ": 1087,
      "##1": 1088,
      "##d": 1089,
      "##h": 1090,
      "##o": 1091,
      "##ฤ": 1092,
      "##ฬ": 1093,
      "##ó": 1094,
      "##i": 1095,
      "##g": 1096,
      "##ή": 1097,
      "##μ": 1098,
      "##ο": 1099,
      "##ς": 1100,
      "##m": 1101,
      "##k": 1102,
      "##て": 1103,
      "##こ": 1104,
      "##れ": 1105,
      "##か": 1106,
      "##と": 1107,
      "##も": 1108,
      "##ฆ": 1109,
      "##๋": 1110,
      "##w": 1111,
      "##b": 1112,
      "##x": 1113,
      "##á": 1114,
      "##ฌ": 1115,
      "##°": 1116,
      "##z": 1117,
      "##f": 1118,
      "##q": 1119,
      "##๒": 1120,
      "##๕": 1121,
      "##๙": 1122,
      "##๓": 1123,
      "##๐": 1124,
      "##×": 1125,
      "##®": 1126,
      "##ê": 1127,
      "##è": 1128,
      "##ๅ": 1129,
      "##γ": 1130,
      "##α": 1131,
      "##σ": 1132,
      "##ά": 1133,
      "##ω": 1134,
      "##☆": 1135,
      "##י": 1136,
      "##ת": 1137,
      "##ö": 1138,
      "##๔": 1139,
      "##๘": 1140,
      "##ํ": 1141,
      "##ō": 1142,
      "##ー": 1143,
      "##ド": 1144,
      "##ン": 1145,
      "##̍": 1146,
      "##ē": 1147,
      "##ρ": 1148,
      "##υ": 1149,
      "##ν": 1150,
      "##๗": 1151,
      "##ú": 1152,
      "##à": 1153,
      "##ò": 1154,
      "##j": 1155,
      "##л": 1156,
      "##а": 1157,
      "##г": 1158,
      "##о": 1159,
      "##ч": 1160,
      "##е": 1161,
      "##с": 1162,
      "##т": 1163,
      "##и": 1164,
      "##я": 1165,
      "##인": 1166,
      "##レ": 1167,
      "##é": 1168,
      "##๑": 1169,
      "##๖": 1170,
      "##н": 1171,
      "##в": 1172,
      "##ຈ": 1173,
      "##ົ": 1174,
      "##້": 1175,
      "##າ": 1176,
      "##ຄ": 1177,
      "##ຳ": 1178,
      "##ສ": 1179,
      "##ັ": 1180,
      "##ນ": 1181,
      "##す": 1182,
      "##나": 1183,
      "##아": 1184,
      "##ा": 1185,
      "##ह": 1186,
      "##ッ": 1187,
      "##ク": 1188,
      "##マ": 1189,
      "##エ": 1190,
      "##グ": 1191,
      "##æ": 1192,
      "##η": 1193,
      "##ܐ": 1194,
      "##न": 1195,
      "##त": 1196,
      "##³": 1197,
      "##ジ": 1198,
      "##у": 1199,
      "##д": 1200,
      "##б": 1201,
      "##к": 1202,
      "##ו": 1203,
      "##ô": 1204,
      "##ケ": 1205,
      "##ç": 1206,
      "##ã": 1207,
      "##ŋ": 1208,
      "##ˈ": 1209,
      "##ː": 1210,
      "##ɪ": 1211,
      "##ə": 1212,
      "##ί": 1213,
      "##ë": 1214,
      "##े": 1215,
      "##व": 1216,
      "##ी": 1217,
      "##í": 1218,
      "##λ": 1219,
      "##ε": 1220,
      "##θ": 1221,
      "##έ": 1222,
      "##ι": 1223,
      "##ð": 1224,
      "##シ": 1225,
      "##テ": 1226,
      "##ฃ": 1227,
      "##स": 1228,
      "##्": 1229,
      "##प": 1230,
      "##ि": 1231,
      "##종": 1232,
      "##ц": 1233,
      "##ǐ": 1234,
      "##ě": 1235,
      "##ア": 1236,
      "##イ": 1237,
      "##ダ": 1238,
      "##キ": 1239,
      "##ノ": 1240,
      "##コ": 1241,
      "##화": 1242,
      "##м": 1243,
      "##ш": 1244,
      "##ī": 1245,
      "##ā": 1246,
      "##→": 1247,
      "##は": 1248,
      "##る": 1249,
      "##ا": 1250,
      "##ن": 1251,
      "##ز": 1252,
      "##ع": 1253,
      "##و": 1254,
      "##ロ": 1255,
      "##パ": 1256,
      "##ì": 1257,
      "##य": 1258,
      "##ं": 1259,
      "##क": 1260,
      "##ù": 1261,
      "##ァ": 1262,
      "##ナ": 1263,
      "##ル": 1264,
      "##フ": 1265,
      "##タ": 1266,
      "##ل": 1267,
      "##ك": 1268,
      "##م": 1269,
      "##ي": 1270,
      "##ة": 1271,
      "##š": 1272,
      "##τ": 1273,
      "##²": 1274,
      "##ツ": 1275,
      "##َ": 1276,
      "##ْ": 1277,
      "##س": 1278,
      "##د": 1279,
      "##र": 1280,
      "##म": 1281,
      "##ُ": 1282,
      "##ِ": 1283,
      "##ی": 1284,
      "##п": 1285,
      "##성": 1286,
      "##장": 1287,
      "##군": 1288,
      "##의": 1289,
      "##ف": 1290,
      "##ح": 1291,
      "##ạ": 1292,
      "##デ": 1293,
      "##ィ": 1294,
      "##ス": 1295,
      "##사": 1296,
      "##β": 1297,
      "##р": 1298,
      "##ラ": 1299,
      "##ム": 1300,
      "##왕": 1301,
      "##후": 1302,
      "##ち": 1303,
      "##の": 1304,
      "##く": 1305,
      "##ı": 1306,
      "##제": 1307,
      "##자": 1308,
      "##ü": 1309,
      "##を": 1310,
      "##ệ": 1311,
      "##ы": 1312,
      "##й": 1313,
      "##ư": 1314,
      "##ʰ": 1315,
      "##ر": 1316,
      "##ビ": 1317,
      "##공": 1318,
      "##℃": 1319,
      "##ṭ": 1320,
      "##ä": 1321,
      "##￼": 1322,
      "##ş": 1323,
      "##ブ": 1324,
      "##っ": 1325,
      "##원": 1326,
      "##đ": 1327,
      "##ฦ": 1328,
      "##ß": 1329,
      "##မ": 1330,
      "##ိ": 1331,
      "##ု": 1332,
      "##ရ": 1333,
      "##်": 1334,
      "##တ": 1335,
      "##စ": 1336,
      "##ǎ": 1337,
      "##з": 1338,
      "##ъ": 1339,
      "##េ": 1340,
      "##រ": 1341,
      "##ី": 1342,
      "##្": 1343,
      "##ា": 1344,
      "##オ": 1345,
      "##ュ": 1346,
      "##ל": 1347,
      "##ả": 1348,
      "##つ": 1349,
      "##い": 1350,
      "##ອ": 1351,
      "##ງ": 1352,
      "##ູ": 1353,
      "##ჷ": 1354,
      "##დ": 1355,
      "##თ": 1356,
      "##え": 1357,
      "##리": 1358,
      "##і": 1359,
      "##ボ": 1360,
      "##ø": 1361,
      "##ニ": 1362,
      "##ギ": 1363,
      "##サ": 1364,
      "##ï": 1365,
      "##リ": 1366,
      "##대": 1367,
      "##ǔ": 1368,
      "##メ": 1369,
      "##́": 1370,
      "##ど": 1371,
      "##♥": 1372,
      "##ج": 1373,
      "##ј": 1374,
      "##ق": 1375,
      "##ب": 1376,
      "##ま": 1377,
      "##で": 1378,
      "##ă": 1379,
      "##ʊ": 1380,
      "##ь": 1381,
      "##ฅ": 1382,
      "##ش": 1383,
      "##ه": 1384,
      "##ت": 1385,
      "##ຣ": 1386,
      "##ط": 1387,
      "##ר": 1388,
      "##î": 1389,
      "##ი": 1390,
      "##ნ": 1391,
      "##민": 1392,
      "##선": 1393,
      "##수": 1394,
      "##κ": 1395,
      "##э": 1396,
      "##ລ": 1397,
      "##ວ": 1398,
      "##다": 1399,
      "##가": 1400,
      "##씨": 1401,
      "##≈": 1402,
      "##â": 1403,
      "##ɛ": 1404,
      "##ū": 1405,
      "##국": 1406,
      "##주": 1407,
      "##û": 1408,
      "##ე": 1409,
      "##ა": 1410,
      "##ດ": 1411,
      "##ີ": 1412,
      "##ស": 1413,
      "##ង": 1414,
      "##អ": 1415,
      "##ប": 1416,
      "##ំ": 1417,
      "##♣": 1418,
      "##き": 1419,
      "##영": 1420,
      "##ズ": 1421,
      "##도": 1422,
      "##ទ": 1423,
      "##ម": 1424,
      "##ល": 1425,
      "##ž": 1426,
      "##£": 1427,
      "##ु": 1428,
      "##ग": 1429,
      "##ន": 1430,
      "##ត": 1431,
      "##ក": 1432,
      "##お": 1433,
      "##ら": 1434,
      "##な": 1435,
      "##ミ": 1436,
      "##ャ": 1437,
      "##ん": 1438,
      "##ज": 1439,
      "##δ": 1440,
      "##φ": 1441,
      "##남": 1442,
      "##구": 1443,
      "##た": 1444,
      "##វ": 1445,
      "##័": 1446,
      "##å": 1447,
      "##김": 1448,
      "##ע": 1449,
      "##지": 1450,
      "##−": 1451,
      "##ύ": 1452,
      "##ś": 1453,
      "##︎": 1454,
      "##ṣ": 1455,
      "##ḥ": 1456,
      "##យ": 1457,
      "##±": 1458,
      "##რ": 1459,
      "##ლ": 1460,
      "##ჿ": 1461,
      "##ό": 1462,
      "##χ": 1463,
      "##ł": 1464,
      "##ى": 1465,
      "##ּ": 1466,
      "##א": 1467,
      "##π": 1468,
      "##ჽ": 1469,
      "##მ": 1470,
      "##ო": 1471,
      "##ć": 1472,
      "##ာ": 1473,
      "##ေ": 1474,
      "##ण": 1475,
      "##̤": 1476,
      "##～": 1477,
      "##じ": 1478,
      "##う": 1479,
      "##よ": 1480,
      "##х": 1481,
      "##া": 1482,
      "##ະ": 1483,
      "##요": 1484,
      "##ố": 1485,
      "##ल": 1486,
      "##č": 1487,
      "##ທ": 1488,
      "##ິ": 1489,
      "##ト": 1490,
      "##™": 1491,
      "##ガ": 1492,
      "##プ": 1493,
      "##ື": 1494,
      "##ʃ": 1495,
      "##ّ": 1496,
      "##သ": 1497,
      "##ý": 1498,
      "##່": 1499,
      "##ک": 1500,
      "##ɔ": 1501,
      "##ब": 1502,
      "##ễ": 1503,
      "##ェ": 1504,
      "##ເ": 1505,
      "##ウ": 1506,
      "##무": 1507,
      "##إ": 1508,
      "##½": 1509,
      "##ມ": 1510,
      "##ຫ": 1511,
      "##ກ": 1512,
      "##ພ": 1513,
      "##기": 1514,
      "##ុ": 1515,
      "##င": 1516,
      "##း": 1517,
      "##이": 1518,
      "##ិ": 1519,
      "##ñ": 1520,
      "##カ": 1521,
      "##គ": 1522,
      "##ξ": 1523,
      "##န": 1524,
      "##ה": 1525,
      "##라": 1526,
      "##ψ": 1527,
      "##あ": 1528,
      "##し": 1529,
      "##が": 1530,
      "##さ": 1531,
      "##أ": 1532,
      "##경": 1533,
      "##ф": 1534,
      "##안": 1535,
      "##ზ": 1536,
      "##ປ": 1537,
      "##غ": 1538,
      "##へ": 1539,
      "##한": 1540,
      "##소": 1541,
      "##ព": 1542,
      "##ជ": 1543,
      "##ώ": 1544,
      "##လ": 1545,
      "##고": 1546,
      "##せ": 1547,
      "##ῖ": 1548,
      "##ს": 1549,
      "##ो": 1550,
      "##ョ": 1551,
      "##ຊ": 1552,
      "##세": 1553,
      "##خ": 1554,
      "##や": 1555,
      "##조": 1556,
      "##동": 1557,
      "##ザ": 1558,
      "##セ": 1559,
      "##비": 1560,
      "##ネ": 1561,
      "##チ": 1562,
      "##り": 1563,
      "##מ": 1564,
      "##ベ": 1565,
      "##ב": 1566,
      "##ذ": 1567,
      "##ص": 1568,
      "##스": 1569,
      "##み": 1570,
      "##ơ": 1571,
      "##モ": 1572,
      "##시": 1573,
      "##द": 1574,
      "##ж": 1575,
      "##문": 1576,
      "##신": 1577,
      "##우": 1578,
      "##≥": 1579,
      "##ハ": 1580,
      "##श": 1581,
      "##ث": 1582,
      "##ש": 1583,
      "##하": 1584,
      "##უ": 1585,
      "##め": 1586,
      "##√": 1587,
      "##서": 1588,
      "##バ": 1589,
      "##ё": 1590,
      "##정": 1591,
      "##박": 1592,
      "##ゴ": 1593,
      "##≤": 1594,
      "##آ": 1595,
      "##ष": 1596,
      "##ヒ": 1597,
      "##け": 1598,
      "##윤": 1599,
      "##に": 1600,
      "##ʔ": 1601,
      "##ħ": 1602,
      "##♠": 1603,
      "##ỽ": 1604,
      "##⊕": 1605,
      "##÷": 1606,
      "##µ": 1607,
      "##€": 1608,
      "##≠": 1609,
      "##∞": 1610,
      "##█": 1611,
      "##●": 1612,
      "##ἀ": 1613,
      "##าร": 1614,
      "##อง": 1615,
      "##ี่": 1616,
      "##ระ": 1617,
      "##ที่": 1618,
      "##่า": 1619,
      "##การ": 1620,
      "##ัน": 1621,
      "##็น": 1622,
      "##้า": 1623,
      "##่อ": 1624,
      "##ป็น": 1625,
      "##ละ": 1626,
      "##่ง": 1627,
      "##ใน": 1628,
      "##ับ": 1629,
      "##ีย": 1630,
      "##าย": 1631,
      "##าก": 1632,
      "##ด้": 1633,
      "##าม": 1634,
      "##ั้": 1635,
      "##เป็น": 1636,
      "##ของ": 1637,
      "##ัง": 1638,
      "##ือ": 1639,
      "##าน": 1640,
      "##ัก": 1641,
      "##ได้": 1642,
      "##ร์": 1643,
      "##มี": 1644,
      "##ื่อ": 1645,
      "##คร": 1646,
      "##ประ": 1647,
      "##าง": 1648,
      "##ิน": 1649,
      "และ": 1650,
      "##้น": 1651,
      "##ให": 1652,
      "##ว่า": 1653,
      "##ั้ง": 1654,
      "##รา": 1655,
      "##เร": 1656,
      "##อย": 1657,
      "##่น": 1658,
      "##มา": 1659,
      "##หน": 1660,
      "##่ว": 1661,
      "##หล": 1662,
      "##และ": 1663,
      "##ริ": 1664,
      "##เม": 1665,
      "##เก": 1666,
      "##อก": 1667,
      "##เท": 1668,
      "##ิด": 1669,
      "##จาก": 1670,
      "##ัด": 1671,
      "##เล": 1672,
      "##พระ": 1673,
      "##ดย": 1674,
      "##เด": 1675,
      "##รร": 1676,
      "##คว": 1677,
      "##ึ่ง": 1678,
      "##าว": 1679,
      "##เข": 1680,
      "##ู้": 1681,
      "##อน": 1682,
      "##ให้": 1683,
      "##ติ": 1684,
      "##กล": 1685,
      "##กับ": 1686,
      "##ม่": 1687,
      "##ตร": 1688,
      "##ภา": 1689,
      "##่าง": 1690,
      "##oc": 1691,
      "##ู่": 1692,
      "##อร์": 1693,
      "##เพ": 1694,
      "##ี้": 1695,
      "##ความ": 1696,
      "##ki": 1697,
      "wi": 1698,
      "##จะ": 1699,
      "##ัว": 1700,
      "##ไป": 1701,
      "doc": 1702,
      "wiki": 1703,
      "##ึง": 1704,
      "ใน": 1705,
      "##รับ": 1706,
      "##วิ": 1707,
      "##ั้น": 1708,
      "##าล": 1709,
      "##เส": 1710,
      "##ัย": 1711,
      "##ทย": 1712,
      "##รั": 1713,
      "เป็น": 1714,
      "##วย": 1715,
      "##่อง": 1716,
      "##นา": 1717,
      "##เจ": 1718,
      "##้อง": 1719,
      "##ทาง": 1720,
      "##ปี": 1721,
      "##รง": 1722,
      "##าส": 1723,
      "##ูก": 1724,
      "##นี้": 1725,
      "25": 1726,
      "##ต่": 1727,
      "##อา": 1728,
      "##ราช": 1729,
      "##ุด": 1730,
      "##อบ": 1731,
      "##หม": 1732,
      "##ลง": 1733,
      "##วัน": 1734,
      "##เทศ": 1735,
      "##กัน": 1736,
      "##ผู้": 1737,
      "##่ม": 1738,
      "##ทำ": 1739,
      "##เว": 1740,
      "##ิง": 1741,
      "##ไม่": 1742,
      "โดย": 1743,
      "##ียน": 1744,
      "##สม": 1745,
      "##อยู่": 1746,
      "##วง": 1747,
      "##เน": 1748,
      "##ri": 1749,
      "##ิก": 1750,
      "##ื่อง": 1751,
      "##้อ": 1752,
      "##เช": 1753,
      "##้าน": 1754,
      "##le": 1755,
      "th": 1756,
      "##ึ้น": 1757,
      "##ชา": 1758,
      "##คม": 1759,
      "##ใช": 1760,
      "##กร": 1761,
      "##ตัว": 1762,
      "##้าง": 1763,
      "##it": 1764,
      "ซึ่ง": 1765,
      "##ขึ้น": 1766,
      "##ษา": 1767,
      "##ia": 1768,
      "##ต่อ": 1769,
      "##ึก": 1770,
      "##อล": 1771,
      "##ed": 1772,
      "##รือ": 1773,
      "##เป": 1774,
      "##บบ": 1775,
      "##ือง": 1776,
      "##ใช้": 1777,
      "##ย์": 1778,
      "##ชน": 1779,
      "##รรม": 1780,
      "##นั้น": 1781,
      "มี": 1782,
      "##ออก": 1783,
      "##โดย": 1784,
      "##ลา": 1785,
      "##ียง": 1786,
      "##ตั้ง": 1787,
      "##tt": 1788,
      "##รก": 1789,
      "##rl": 1790,
      "##rg": 1791,
      "##ด้วย": 1792,
      "##ภาพ": 1793,
      "##ps": 1794,
      "cu": 1795,
      "##rid": 1796,
      "##ดี": 1797,
      "htt": 1798,
      "##edia": 1799,
      "id": 1800,
      "org": 1801,
      "##ถึง": 1802,
      "##วน": 1803,
      "##คน": 1804,
      "https": 1805,
      "tit": 1806,
      "##pedia": 1807,
      "title": 1808,
      "wikipedia": 1809,
      "url": 1810,
      "##ิต": 1811,
      "curid": 1812,
      "##ัญ": 1813,
      "##เซ": 1814,
      "##งาน": 1815,
      "##ีก": 1816,
      "##คล": 1817,
      "##ห่ง": 1818,
      "##ค์": 1819,
      "##ิม": 1820,
      "เม": 1821,
      "##ี่ย": 1822,
      "20": 1823,
      "##่วน": 1824,
      "##แล": 1825,
      "##สำ": 1826,
      "##ณะ": 1827,
      "##าร์": 1828,
      "##อย่าง": 1829,
      "##โล": 1830,
      "##ิล": 1831,
      "##ธิ": 1832,
      "##มาก": 1833,
      "##ทั้ง": 1834,
      "##นัก": 1835,
      "##้ำ": 1836,
      "##ทั": 1837,
      "##รัฐ": 1838,
      "##ประเทศ": 1839,
      "##เอ": 1840,
      "##รี": 1841,
      "##เจ้า": 1842,
      "##เมือง": 1843,
      "19": 1844,
      "##จำ": 1845,
      "##ก็": 1846,
      "##ตร์": 1847,
      "ที่": 1848,
      "##เต": 1849,
      "##ชื่อ": 1850,
      "##หาร": 1851,
      "##เห": 1852,
      "##สร": 1853,
      "##สาม": 1854,
      "##ต์": 1855,
      "##แห่ง": 1856,
      "ได้": 1857,
      "##เบ": 1858,
      "ประ": 1859,
      "##ิส": 1860,
      "##ส์": 1861,
      "##ุน": 1862,
      "##ณ์": 1863,
      "##ุม": 1864,
      "แต่": 1865,
      "##อด": 1866,
      "##กระ": 1867,
      "##ถูก": 1868,
      "##่าย": 1869,
      "##ัต": 1870,
      "##้ว": 1871,
      "##สุด": 1872,
      "##ครั้ง": 1873,
      "##ัล": 1874,
      "##เข้า": 1875,
      "##แก": 1876,
      "##ลัง": 1877,
      "##าศ": 1878,
      "การ": 1879,
      "##หนึ่ง": 1880,
      "##ยัง": 1881,
      "##วันที่": 1882,
      "##เมื่อ": 1883,
      "##็จ": 1884,
      "##ทร": 1885,
      "##ดับ": 1886,
      "##แบบ": 1887,
      "##บุ": 1888,
      "##ไทย": 1889,
      "##ปร": 1890,
      "##แส": 1891,
      "##ดง": 1892,
      "##สิ": 1893,
      "พระ": 1894,
      "##็ก": 1895,
      "##ได้รับ": 1896,
      "##วม": 1897,
      "##โร": 1898,
      "##บริ": 1899,
      "##ารถ": 1900,
      "##วัด": 1901,
      "##นิ": 1902,
      "##หา": 1903,
      "เพ": 1904,
      "##ศึก": 1905,
      "##ือน": 1906,
      "##เรียน": 1907,
      "##ที": 1908,
      "##ตาม": 1909,
      "##ผล": 1910,
      "##ชี": 1911,
      "##่าน": 1912,
      "หรือ": 1913,
      "##ักษ": 1914,
      "##บัน": 1915,
      "##แรก": 1916,
      "##พิ": 1917,
      "##้าย": 1918,
      "##ช่ว": 1919,
      "##องค์": 1920,
      "##กว่า": 1921,
      "##สู": 1922,
      "##ส่วน": 1923,
      "##ปล": 1924,
      "##่อน": 1925,
      "##ุก": 1926,
      "##ต่าง": 1927,
      "##ันธ": 1928,
      "##อม": 1929,
      "##แต่": 1930,
      "##แข": 1931,
      "##เพื่อ": 1932,
      "##ียว": 1933,
      "##เกิด": 1934,
      "##มน": 1935,
      "##เขา": 1936,
      "##ศาส": 1937,
      "##สน": 1938,
      "##ตุ": 1939,
      "##ใหญ": 1940,
      "##่วม": 1941,
      "##สถ": 1942,
      "##าท": 1943,
      "##มิ": 1944,
      "##จัก": 1945,
      "##สร้าง": 1946,
      "##จัด": 1947,
      "##กำ": 1948,
      "##ด์": 1949,
      "##ในการ": 1950,
      "##หน้า": 1951,
      "##ิ่ม": 1952,
      "##ชาติ": 1953,
      "##ใจ": 1954,
      "เมื่อ": 1955,
      "##ต้อง": 1956,
      "##าะ": 1957,
      "##ดิ": 1958,
      "##ัม": 1959,
      "##คือ": 1960,
      "##เค": 1961,
      "##สามารถ": 1962,
      "##ตำ": 1963,
      "##น์": 1964,
      "##ใหญ่": 1965,
      "##ัติ": 1966,
      "##ต้": 1967,
      "##ว่าง": 1968,
      "##ที่มี": 1969,
      "##จุ": 1970,
      "##00": 1971,
      "##ุ่ม": 1972,
      "##ุ่น": 1973,
      "##เรื่อง": 1974,
      "##ตะ": 1975,
      "##เหล": 1976,
      "##เรีย": 1977,
      "##ายน": 1978,
      "##er": 1979,
      "##on": 1980,
      "##กรรม": 1981,
      "##ยา": 1982,
      "##ีน": 1983,
      "##รู": 1984,
      "##ื่น": 1985,
      "##แน": 1986,
      "##ศึกษา": 1987,
      "เข": 1988,
      "##อีก": 1989,
      "##แล้ว": 1990,
      "##เย": 1991,
      "##แสดง": 1992,
      "##มห": 1993,
      "##เคร": 1994,
      "##นำ": 1995,
      "##โลก": 1996,
      "##ประก": 1997,
      "##ชาว": 1998,
      "##แต": 1999,
      "##หว่าง": 2000,
      "##่าว": 2001,
      "##ื้น": 2002,
      "##ื้อ": 2003,
      "##ยุ": 2004,
      "##ัส": 2005,
      "##ธรรม": 2006,
      "##้อม": 2007,
      "##ดน": 2008,
      "##ยน": 2009,
      "##ูล": 2010,
      "##สอง": 2011,
      "##ต้น": 2012,
      "##ังห": 2013,
      "##หลัง": 2014,
      "##พันธ": 2015,
      "##แท": 2016,
      "##รม": 2017,
      "##ฤษ": 2018,
      "##ฐาน": 2019,
      "##ตรี": 2020,
      "##ดู": 2021,
      "##เภ": 2022,
      "##คำ": 2023,
      "##กา": 2024,
      "##โอ": 2025,
      "24": 2026,
      "##ุง": 2027,
      "##หลาย": 2028,
      "##เศ": 2029,
      "##ัจ": 2030,
      "255": 2031,
      "##เพลง": 2032,
      "##หรือ": 2033,
      "##เลือ": 2034,
      "##ังหวัด": 2035,
      "##เธ": 2036,
      "##ญา": 2037,
      "##ิจ": 2038,
      "##หมาย": 2039,
      "##โม": 2040,
      "##an": 2041,
      "##ในปี": 2042,
      "##สุ": 2043,
      "##พร": 2044,
      "##จักร": 2045,
      "##สง": 2046,
      "##้อย": 2047,
      "##แข่ง": 2048,
      "##มีการ": 2049,
      "##เดียว": 2050,
      "##ังก": 2051,
      "##ดา": 2052,
      "##ทรง": 2053,
      "##วก": 2054,
      "##พระราช": 2055,
      "##จึง": 2056,
      "##สี": 2057,
      "##าลัย": 2058,
      "คือ": 2059,
      "##ใต้": 2060,
      "##สา": 2061,
      "##ชาย": 2062,
      "201": 2063,
      "ปี": 2064,
      "##in": 2065,
      "##อุ": 2066,
      "##พล": 2067,
      "##เฉ": 2068,
      "เช": 2069,
      "##าวิ": 2070,
      "##อัน": 2071,
      "##ม้": 2072,
      "##ัฒ": 2073,
      "##ทยาลัย": 2074,
      "##บาล": 2075,
      "##ทธิ": 2076,
      "10": 2077,
      "##ทธ": 2078,
      "##ขัน": 2079,
      "##น้ำ": 2080,
      "##ไว": 2081,
      "##วิต": 2082,
      "##ซึ่ง": 2083,
      "##วรร": 2084,
      "##ใหม่": 2085,
      "##แก่": 2086,
      "##ดิน": 2087,
      "##โน": 2088,
      "ของ": 2089,
      "ประเทศ": 2090,
      "##จน": 2091,
      "##นวน": 2092,
      "##หรับ": 2093,
      "##ที่สุด": 2094,
      "##พบ": 2095,
      "##พื้น": 2096,
      "##ัจจุ": 2097,
      "##ศาสตร์": 2098,
      "##แข่งขัน": 2099,
      "##ัจจุบัน": 2100,
      "##ช่วง": 2101,
      "##้ง": 2102,
      "##ด้าน": 2103,
      "##ดำ": 2104,
      "##พรร": 2105,
      "##ปก": 2106,
      "##ห์": 2107,
      "##ซี": 2108,
      "##ครอง": 2109,
      "##รู้": 2110,
      "##สห": 2111,
      "##ณา": 2112,
      "##ราย": 2113,
      "คน": 2114,
      "จาก": 2115,
      "##สูง": 2116,
      "##้อน": 2117,
      "##โรง": 2118,
      "##บท": 2119,
      "##ทำให้": 2120,
      "##ิว": 2121,
      "##en": 2122,
      "##เปล": 2123,
      "##อำ": 2124,
      "##ระหว่าง": 2125,
      "##บน": 2126,
      "##เด็จ": 2127,
      "##ศ์": 2128,
      "##ั่ง": 2129,
      "##ชีวิต": 2130,
      "##ยม": 2131,
      "##สาร": 2132,
      "##บล": 2133,
      "##อยู่ใน": 2134,
      "##าด": 2135,
      "เจ": 2136,
      "##เตอร์": 2137,
      "##โก": 2138,
      "##รูป": 2139,
      "##อื่น": 2140,
      "##or": 2141,
      "##กลาง": 2142,
      "##ี่ยว": 2143,
      "##สถาน": 2144,
      "##ยก": 2145,
      "เช่น": 2146,
      "##เริ่ม": 2147,
      "##บ้าน": 2148,
      "##ไฟ": 2149,
      "##เลือก": 2150,
      "##หลัก": 2151,
      "##ภู": 2152,
      "ผู้": 2153,
      "เก": 2154,
      "##ตก": 2155,
      "##ี่ยน": 2156,
      "##ตะวัน": 2157,
      "##ar": 2158,
      "##เอง": 2159,
      "##ที่จะ": 2160,
      "##วี": 2161,
      "##ว์": 2162,
      "##เล่น": 2163,
      "##เหน": 2164,
      "##ชม": 2165,
      "##อส": 2166,
      "##าวิทยาลัย": 2167,
      "##at": 2168,
      "##รวม": 2169,
      "##รัก": 2170,
      "##ูน": 2171,
      "##ร่วม": 2172,
      "##ปฏ": 2173,
      "##ดัง": 2174,
      "##ไว้": 2175,
      "ทำ": 2176,
      "##เธอ": 2177,
      "##กลุ่ม": 2178,
      "เพื่อ": 2179,
      "##โต": 2180,
      "##เวลา": 2181,
      "##บอล": 2182,
      "##ยนตร์": 2183,
      "##มาณ": 2184,
      "##หัว": 2185,
      "##คุ": 2186,
      "##al": 2187,
      "##บาง": 2188,
      "##หมด": 2189,
      "##เสียง": 2190,
      "##แหน": 2191,
      "ในปี": 2192,
      "##ส่ง": 2193,
      "##แผ": 2194,
      "##ากาศ": 2195,
      "##แหน่ง": 2196,
      "ต่อ": 2197,
      "##กุ": 2198,
      "##ทีม": 2199,
      "##แพ": 2200,
      "##ภาษา": 2201,
      "##เมริ": 2202,
      "เด": 2203,
      "##เสีย": 2204,
      "##ภาค": 2205,
      "##กล่าว": 2206,
      "##ั่น": 2207,
      "##แทน": 2208,
      "##้าร": 2209,
      "##เปลี่ยน": 2210,
      "200": 2211,
      "หลัง": 2212,
      "##ตน": 2213,
      "##วงศ์": 2214,
      "##ลาย": 2215,
      "##มัน": 2216,
      "##ลักษ": 2217,
      "##นาด": 2218,
      "##เครื่อง": 2219,
      "##ราะ": 2220,
      "##ญิง": 2221,
      "จึง": 2222,
      "##เหนือ": 2223,
      "##จำนวน": 2224,
      "##สมา": 2225,
      "##วด": 2226,
      "##อาจ": 2227,
      "##ท์": 2228,
      "##กี": 2229,
      "18": 2230,
      "##ติด": 2231,
      "##ซ์": 2232,
      "##ืน": 2233,
      "##โด": 2234,
      "##ตำแหน่ง": 2235,
      "##กอง": 2236,
      "##กลับ": 2237,
      "##่อย": 2238,
      "254": 2239,
      "##วิทย": 2240,
      "##จากการ": 2241,
      "##เด็จพระ": 2242,
      "##เดือน": 2243,
      "##เห็น": 2244,
      "##วา": 2245,
      "##ยะ": 2246,
      "ส่วน": 2247,
      "##ธี": 2248,
      "##เขต": 2249,
      "##ุต": 2250,
      "##อากาศ": 2251,
      "##การณ์": 2252,
      "##สมัย": 2253,
      "##ยาย": 2254,
      "##ตอน": 2255,
      "##ิศ": 2256,
      "##เง": 2257,
      "##ณฑ": 2258,
      "##ตา": 2259,
      "##เหตุ": 2260,
      "##นด์": 2261,
      "##es": 2262,
      "##อะ": 2263,
      "##ทั่ว": 2264,
      "##อิน": 2265,
      "##คัญ": 2266,
      "##รส": 2267,
      "##หญิง": 2268,
      "##ิ่ง": 2269,
      "##เอก": 2270,
      "##สัง": 2271,
      "##แม": 2272,
      "##เล็ก": 2273,
      "##สำคัญ": 2274,
      "##อเมริ": 2275,
      "##แบ": 2276,
      "##ุทธ": 2277,
      "##้ม": 2278,
      "##มีความ": 2279,
      "##พระองค์": 2280,
      "##ภาพยนตร์": 2281,
      "คว": 2282,
      "##ลูก": 2283,
      "##ัท": 2284,
      "##ภาย": 2285,
      "##ชนะ": 2286,
      "##ขนาด": 2287,
      "##คณะ": 2288,
      "##ก่อ": 2289,
      "##โย": 2290,
      "##ประกอบ": 2291,
      "##ทุก": 2292,
      "##ชิก": 2293,
      "##็ม": 2294,
      "##ังกฤษ": 2295,
      "##ระดับ": 2296,
      "##ล์": 2297,
      "##ช่วย": 2298,
      "##หลวง": 2299,
      "##ลำ": 2300,
      "##ได้รับการ": 2301,
      "##เพียง": 2302,
      "##บัติ": 2303,
      "##จังหวัด": 2304,
      "##เช่น": 2305,
      "##นาย": 2306,
      "##ผ่าน": 2307,
      "##เปิด": 2308,
      "ซึ่งเป็น": 2309,
      "##ายุ": 2310,
      "##ทัพ": 2311,
      "##รถ": 2312,
      "##กิจ": 2313,
      "##ทะ": 2314,
      "##สาย": 2315,
      "##คราม": 2316,
      "เน": 2317,
      "##ชั้น": 2318,
      "##จีน": 2319,
      "##ทหาร": 2320,
      "##รีย": 2321,
      "##เดิน": 2322,
      "##ป์": 2323,
      "##เภอ": 2324,
      "จน": 2325,
      "##โซ": 2326,
      "จะ": 2327,
      "##ic": 2328,
      "อย": 2329,
      "##ตี": 2330,
      "##ี่ป": 2331,
      "##พัฒ": 2332,
      "##เกี่ยว": 2333,
      "##้วย": 2334,
      "##ี่ปุ่น": 2335,
      "##ฟ้า": 2336,
      "##บาท": 2337,
      "##โรงเรียน": 2338,
      "##ากร": 2339,
      "##แป": 2340,
      "##สำหรับ": 2341,
      "ระ": 2342,
      "รวม": 2343,
      "อา": 2344,
      "##ชิ": 2345,
      "##เขียน": 2346,
      "##สัญ": 2347,
      "##บรร": 2348,
      "##เมื่อวันที่": 2349,
      "##ระบบ": 2350,
      "ภา": 2351,
      "##เซีย": 2352,
      "##็บ": 2353,
      "##อกจาก": 2354,
      "เอ": 2355,
      "##นาง": 2356,
      "ความ": 2357,
      "##ประมาณ": 2358,
      "15": 2359,
      "##ทั้งหมด": 2360,
      "ต่อมา": 2361,
      "##นาม": 2362,
      "ทำให้": 2363,
      "##แต่ง": 2364,
      "##ริง": 2365,
      "##สิน": 2366,
      "##วัล": 2367,
      "##อัล": 2368,
      "##เดิม": 2369,
      "##จาร": 2370,
      "##ปฏิ": 2371,
      "นัก": 2372,
      "##่วย": 2373,
      "##พันธ์": 2374,
      "เจ้า": 2375,
      "##พื้นที่": 2376,
      "##กำลัง": 2377,
      "##ปัจจุบัน": 2378,
      "##ิร์": 2379,
      "##เท่า": 2380,
      "##ภูมิ": 2381,
      "##็ด": 2382,
      "##อังกฤษ": 2383,
      "##อิ": 2384,
      "##ญี่ปุ่น": 2385,
      "12": 2386,
      "สม": 2387,
      "##เทพ": 2388,
      "##เกม": 2389,
      "##สมเด็จพระ": 2390,
      "##เป็นที่": 2391,
      "##ธาน": 2392,
      "##วจ": 2393,
      "กล": 2394,
      "##แลนด์": 2395,
      "##ฬา": 2396,
      "##คา": 2397,
      "##โปร": 2398,
      "##มาจาก": 2399,
      "##ประช": 2400,
      "##คาร": 2401,
      "##โคร": 2402,
      "##ion": 2403,
      "##ละคร": 2404,
      "##ษัท": 2405,
      "##สงคราม": 2406,
      "##เพิ่ม": 2407,
      "ก็": 2408,
      "##ุตบอล": 2409,
      "##ก่อน": 2410,
      "##ประชา": 2411,
      "##ั้ม": 2412,
      "##คิด": 2413,
      "##แนว": 2414,
      "##แรง": 2415,
      "##เรือ": 2416,
      "หม": 2417,
      "##นน": 2418,
      "##เวณ": 2419,
      "##สัน": 2420,
      "##ปกครอง": 2421,
      "##เงิน": 2422,
      "##พวก": 2423,
      "##รอบ": 2424,
      "##็ง": 2425,
      "##ฝ่าย": 2426,
      "##is": 2427,
      "##วาง": 2428,
      "##างวัล": 2429,
      "##าช": 2430,
      "##กรุง": 2431,
      "##ไร": 2432,
      "##ียม": 2433,
      "เขา": 2434,
      "##พาะ": 2435,
      "##สิ่ง": 2436,
      "##สัม": 2437,
      "##ื่องจาก": 2438,
      "##โบ": 2439,
      "##สหรัฐ": 2440,
      "##สมาชิก": 2441,
      "##สิทธิ": 2442,
      "##โทร": 2443,
      "##ร้อง": 2444,
      "##ถือ": 2445,
      "##ประส": 2446,
      "##เป็นผู้": 2447,
      "##โท": 2448,
      "ทั้ง": 2449,
      "นอกจาก": 2450,
      "##โค": 2451,
      "##เฟ": 2452,
      "##ไม้": 2453,
      "##ทางการ": 2454,
      "##ุษ": 2455,
      "##สะ": 2456,
      "##โอล": 2457,
      "##จิ": 2458,
      "11": 2459,
      "##อาณา": 2460,
      "เท": 2461,
      "##มือ": 2462,
      "##พุทธ": 2463,
      "253": 2464,
      "the": 2465,
      "หลังจาก": 2466,
      "##เชื่อ": 2467,
      "##นาน": 2468,
      "##ัฐ": 2469,
      "##ในประเทศ": 2470,
      "##บู": 2471,
      "##โจ": 2472,
      "ตั้ง": 2473,
      "##เร็จ": 2474,
      "วัน": 2475,
      "##สู่": 2476,
      "##จริง": 2477,
      "##ทาน": 2478,
      "##สัต": 2479,
      "##ตั้งแต่": 2480,
      "##เกล": 2481,
      "##ฤดู": 2482,
      "##ครั้งแรก": 2483,
      "##คุณ": 2484,
      "##เฉพาะ": 2485,
      "##บิน": 2486,
      "##ิลป": 2487,
      "##ดาว": 2488,
      "##ผลิต": 2489,
      "16": 2490,
      "จังหวัด": 2491,
      "##ิมป": 2492,
      "##เคย": 2493,
      "สำ": 2494,
      "##นคร": 2495,
      "##ทัศ": 2496,
      "##ขณะ": 2497,
      "##คง": 2498,
      "##ท้าย": 2499,
      "##อฟ": 2500,
      "##ประจำ": 2501,
      "##ิมปิก": 2502,
      "##ฟุตบอล": 2503,
      "##ร้อน": 2504,
      "##ศัก": 2505,
      "##ตัด": 2506,
      "##ค่า": 2507,
      "##ื่อน": 2508,
      "##เนิน": 2509,
      "##แค": 2510,
      "##คริส": 2511,
      "##บั้ม": 2512,
      "##แชม": 2513,
      "##มหาวิทยาลัย": 2514,
      "##เดียวกัน": 2515,
      "ไม่": 2516,
      "##ังส": 2517,
      "##หว": 2518,
      "##ทอง": 2519,
      "##หน้าที่": 2520,
      "##มาร": 2521,
      "##พัฒนา": 2522,
      "##ษฐ": 2523,
      "##ิ่น": 2524,
      "##คู่": 2525,
      "เกิด": 2526,
      "##ชนิด": 2527,
      "##น้อย": 2528,
      "##อันดับ": 2529,
      "##เผ": 2530,
      "##รั่ง": 2531,
      "##อเมริกา": 2532,
      "##ธาร": 2533,
      "17": 2534,
      "##ลักษณะ": 2535,
      "##สาว": 2536,
      "##ดูก": 2537,
      "##ชุด": 2538,
      "##ศรี": 2539,
      "##เกิดขึ้น": 2540,
      "##ากฏ": 2541,
      "14": 2542,
      "##ริญ": 2543,
      "##โอลิมปิก": 2544,
      "30": 2545,
      "##as": 2546,
      "##ตู": 2547,
      "##ไม่มี": 2548,
      "##กีฬา": 2549,
      "##กรม": 2550,
      "##สำเร็จ": 2551,
      "##นิยม": 2552,
      "13": 2553,
      "อำ": 2554,
      "##มุ": 2555,
      "##ี้ย": 2556,
      "##ไข": 2557,
      "##เนื้อ": 2558,
      "##เหม": 2559,
      "##ลงาน": 2560,
      "##ยู": 2561,
      "คร": 2562,
      "##ตะวันออก": 2563,
      "เส": 2564,
      "##ชิง": 2565,
      "##เป็นการ": 2566,
      "##ประกาศ": 2567,
      "##ทำงาน": 2568,
      "##้าม": 2569,
      "##สัตว์": 2570,
      "##มนตรี": 2571,
      "##ไม่ได้": 2572,
      "##ทัศน์": 2573,
      "##เข้าร": 2574,
      "##รั่งเศ": 2575,
      "##พระเจ้า": 2576,
      "##พ์": 2577,
      "##เส้น": 2578,
      "199": 2579,
      "##าป": 2580,
      "##การศึกษา": 2581,
      "##อาหาร": 2582,
      "##รั่งเศส": 2583,
      "##ุ์": 2584,
      "##สิ้น": 2585,
      "000": 2586,
      "##ยาว": 2587,
      "ให": 2588,
      "##พรรค": 2589,
      "##จะมี": 2590,
      "##ol": 2591,
      "##บริเวณ": 2592,
      "##การแข่งขัน": 2593,
      "##เรียก": 2594,
      "##ไม": 2595,
      "##ชัน": 2596,
      "##เคล": 2597,
      "โรง": 2598,
      "##us": 2599,
      "##ขา": 2600,
      "##รางวัล": 2601,
      "##แม่": 2602,
      "##ในช่วง": 2603,
      "ปัจจุบัน": 2604,
      "เล": 2605,
      "มา": 2606,
      "##วล": 2607,
      "ตัว": 2608,
      "##อาณาจักร": 2609,
      "##ันท": 2610,
      "โดยมี": 2611,
      "##ข้าง": 2612,
      "##ราบ": 2613,
      "##ณี": 2614,
      "##ซา": 2615,
      "##ที่เป็น": 2616,
      "ด้วย": 2617,
      "23": 2618,
      "##อนุ": 2619,
      "นาย": 2620,
      "หน": 2621,
      "##ีย์": 2622,
      "##om": 2623,
      "##เมตร": 2624,
      "##ข้อ": 2625,
      "##บุรี": 2626,
      "##พู": 2627,
      "เร": 2628,
      "##ค้า": 2629,
      "##ศิลป": 2630,
      "##ตรง": 2631,
      "ถึง": 2632,
      "##el": 2633,
      "##รอง": 2634,
      "##รัส": 2635,
      "##บัญ": 2636,
      "##จุด": 2637,
      "##วรรษ": 2638,
      "##พิม": 2639,
      "##ทั่วไป": 2640,
      "##ลอด": 2641,
      "##แชมป์": 2642,
      "##ัณฑ": 2643,
      "##กรา": 2644,
      "##ดำเนิน": 2645,
      "##60": 2646,
      "##ดีต": 2647,
      "เซ": 2648,
      "##้าว": 2649,
      "##ต่อมา": 2650,
      "##เชีย": 2651,
      "##กุล": 2652,
      "##กล้": 2653,
      "ตาม": 2654,
      "กับ": 2655,
      "##เกี่ยวกับ": 2656,
      "##ไล": 2657,
      "##รายการ": 2658,
      "จำ": 2659,
      "##am": 2660,
      "##ครั้งที่": 2661,
      "##แดน": 2662,
      "##ฝรั่งเศส": 2663,
      "##นาจ": 2664,
      "เห": 2665,
      "##ังสือ": 2666,
      "##ยุค": 2667,
      "##ac": 2668,
      "##สภา": 2669,
      "##หนด": 2670,
      "##โครง": 2671,
      "##บรม": 2672,
      "##ว่าเป็น": 2673,
      "##อต": 2674,
      "##ดิ์": 2675,
      "##ชัย": 2676,
      "ให้": 2677,
      "##ผิด": 2678,
      "##เนีย": 2679,
      "##เศษ": 2680,
      "##แบ่ง": 2681,
      "##ไซ": 2682,
      "##เหลือ": 2683,
      "##่วง": 2684,
      "##เฮ": 2685,
      "แล": 2686,
      "##ลอง": 2687,
      "##เลือกตั้ง": 2688,
      "##re": 2689,
      "##พันธุ์": 2690,
      "มห": 2691,
      "##สอน": 2692,
      "มิ": 2693,
      "##ลิ": 2694,
      "##โมสร": 2695,
      "##เหล่า": 2696,
      "##ใด": 2697,
      "##แผ่น": 2698,
      "##ซิ": 2699,
      "แห่ง": 2700,
      "##อร": 2701,
      "ทาง": 2702,
      "##แตก": 2703,
      "##เกาะ": 2704,
      "##ทะเล": 2705,
      "##ิดา": 2706,
      "##แปลง": 2707,
      "##ตะวันตก": 2708,
      "##อายุ": 2709,
      "##เหมือน": 2710,
      "##ปรากฏ": 2711,
      "##อัลบั้ม": 2712,
      "##นาคม": 2713,
      "##กฎ": 2714,
      "##สำนัก": 2715,
      "ดัง": 2716,
      "##เอา": 2717,
      "เพราะ": 2718,
      "##กรรมการ": 2719,
      "##แยก": 2720,
      "##ของเขา": 2721,
      "##้อมูล": 2722,
      "##ราว": 2723,
      "##ตัน": 2724,
      "##ยาน": 2725,
      "##ูนย์": 2726,
      "อย่าง": 2727,
      "##ปัญ": 2728,
      "##รัฐบาล": 2729,
      "##ผลงาน": 2730,
      "##ธิบ": 2731,
      "##วัติ": 2732,
      "##ให้กับ": 2733,
      "##กลาย": 2734,
      "##บี": 2735,
      "##แดง": 2736,
      "##โรค": 2737,
      "##พิมพ์": 2738,
      "##ทรวง": 2739,
      "##เตร": 2740,
      "##ียบ": 2741,
      "##ดังกล่าว": 2742,
      "##หย": 2743,
      "##เวีย": 2744,
      "##หนึ่งใน": 2745,
      "##เรียกว่า": 2746,
      "##ro": 2747,
      "##อยู่ที่": 2748,
      "##สู้": 2749,
      "##บริษัท": 2750,
      "สิง": 2751,
      "##ขาย": 2752,
      "##รักษา": 2753,
      "##บริหาร": 2754,
      "of": 2755,
      "##แห่งชาติ": 2756,
      "##ต่างๆ": 2757,
      "##เดินทาง": 2758,
      "##คุม": 2759,
      "กัน": 2760,
      "##โป": 2761,
      "##พลัง": 2762,
      "##รัช": 2763,
      "ได้แก่": 2764,
      "##อี": 2765,
      "นอกจากนี้": 2766,
      "ได้รับ": 2767,
      "##ธารณ": 2768,
      "##่น้ำ": 2769,
      "21": 2770,
      "##ช่อง": 2771,
      "##ระยะ": 2772,
      "##ของการ": 2773,
      "##จะเป็น": 2774,
      "##โทรทัศน์": 2775,
      "##ุธ": 2776,
      "##จับ": 2777,
      "##อิส": 2778,
      "สถ": 2779,
      "##20": 2780,
      "##รุ่น": 2781,
      "##ป่า": 2782,
      "##ลาด": 2783,
      "##ทำการ": 2784,
      "##เวล": 2785,
      "บริ": 2786,
      "##ท้อง": 2787,
      "##ับสน": 2788,
      "##กาย": 2789,
      "##าคม": 2790,
      "ตำ": 2791,
      "##ี่ยม": 2792,
      "พระองค์": 2793,
      "##มัก": 2794,
      "##ดนตรี": 2795,
      "รัฐ": 2796,
      "##รุ": 2797,
      "##61": 2798,
      "##สุดท้าย": 2799,
      "วิ": 2800,
      "##อำนาจ": 2801,
      "##กาล": 2802,
      "##et": 2803,
      "##ทิศ": 2804,
      "##หาคม": 2805,
      "##เด็ก": 2806,
      "เนื่องจาก": 2807,
      "##ภัย": 2808,
      "##เสน": 2809,
      "##ตรา": 2810,
      "##ที่ย": 2811,
      "##เกล้า": 2812,
      "##กัด": 2813,
      "##บุตร": 2814,
      "##ันธ์": 2815,
      "##ษัต": 2816,
      "##ษัตริ": 2817,
      "ก่อน": 2818,
      "##าศาส": 2819,
      "##็อก": 2820,
      "##ศาสนา": 2821,
      "##หนังสือ": 2822,
      "##รณ์": 2823,
      "##ลาคม": 2824,
      "##ุล": 2825,
      "##ปฏิบัติ": 2826,
      "เว": 2827,
      "ครั้ง": 2828,
      "ออก": 2829,
      "##ชีพ": 2830,
      "##มาย": 2831,
      "##ฐานะ": 2832,
      "##ษัตริย์": 2833,
      "สา": 2834,
      "##เภท": 2835,
      "##ัพ": 2836,
      "##ยาม": 2837,
      "##ในวันที่": 2838,
      "##ประเทศไทย": 2839,
      "##ปลาย": 2840,
      "##ข้อมูล": 2841,
      "##วัฒ": 2842,
      "##ริม": 2843,
      "##ุษย์": 2844,
      "##ตำบล": 2845,
      "##พา": 2846,
      "##คคล": 2847,
      "##62": 2848,
      "##ากล": 2849,
      "##จิก": 2850,
      "##ใบ": 2851,
      "##รัฐมนตรี": 2852,
      "##าศาสตร์": 2853,
      "ราย": 2854,
      "##มากกว่า": 2855,
      "##ประวัติ": 2856,
      "in": 2857,
      "##หนัก": 2858,
      "##และการ": 2859,
      "##สังคม": 2860,
      "##มหา": 2861,
      "##เร็": 2862,
      "##ั่ว": 2863,
      "กระ": 2864,
      "แล้ว": 2865,
      "198": 2866,
      "##ัช": 2867,
      "##กองทัพ": 2868,
      "##คริสต์": 2869,
      "##รูปแบบ": 2870,
      "##ing": 2871,
      "##ัตร": 2872,
      "##ลีก": 2873,
      "##ลี": 2874,
      "โรงเรียน": 2875,
      "##ภาคม": 2876,
      "เมือง": 2877,
      "##ใกล้": 2878,
      "##เดีย": 2879,
      "##ถ่าย": 2880,
      "##ไต": 2881,
      "##ยายน": 2882,
      "##เวอร์": 2883,
      "เมื่อวันที่": 2884,
      "252": 2885,
      "##ฤดูร้อน": 2886,
      "##เลข": 2887,
      "##ดูกาล": 2888,
      "##กำหนด": 2889,
      "##il": 2890,
      "อำเภอ": 2891,
      "##แต่ละ": 2892,
      "##ปรับ": 2893,
      "##ul": 2894,
      "##ท่า": 2895,
      "##่อม": 2896,
      "##ไปยัง": 2897,
      "##วัง": 2898,
      "##ฤษภาคม": 2899,
      "##ภายใน": 2900,
      "ภาย": 2901,
      "##วิน": 2902,
      "##ับสนุน": 2903,
      "##ชอบ": 2904,
      "##หมู่": 2905,
      "##ด็จ": 2906,
      "##รู้จัก": 2907,
      "##ียร": 2908,
      "##เศร": 2909,
      "##าระ": 2910,
      "##วร": 2911,
      "22": 2912,
      "##ิป": 2913,
      "##ันวา": 2914,
      "##ปิด": 2915,
      "251": 2916,
      "##บวน": 2917,
      "##แผน": 2918,
      "##กราคม": 2919,
      "##ป้อง": 2920,
      "##ษฎ": 2921,
      "##ควบ": 2922,
      "##อำเภอ": 2923,
      "ตุ": 2924,
      "##ันวาคม": 2925,
      "และมี": 2926,
      "##ครอบ": 2927,
      "มหาวิทยาลัย": 2928,
      "##ถิ่น": 2929,
      "##ขน": 2930,
      "##พิเศษ": 2931,
      "ชื่อ": 2932,
      "##เซล": 2933,
      "สำหรับ": 2934,
      "##ินี": 2935,
      "##รวจ": 2936,
      "##ตาย": 2937,
      "เธ": 2938,
      "##ษายน": 2939,
      "##จัย": 2940,
      "อง": 2941,
      "##ทย์": 2942,
      "##สัญญา": 2943,
      "และเป็น": 2944,
      "##เซอร์": 2945,
      "##ยอด": 2946,
      "##สนาม": 2947,
      "##แมน": 2948,
      "##โรป": 2949,
      "##ุมภาพ": 2950,
      "หล": 2951,
      "##เข้าร่วม": 2952,
      "##ุมภาพันธ์": 2953,
      "##ซู": 2954,
      "##สุข": 2955,
      "##หาย": 2956,
      "##ังกัด": 2957,
      "##ไอ": 2958,
      "##จัดการ": 2959,
      "##ติน": 2960,
      "##สนับสนุน": 2961,
      "##ักษ์": 2962,
      "##ที่ใช้": 2963,
      "##ประธาน": 2964,
      "##แฟ": 2965,
      "##กว": 2966,
      "##ออกมา": 2967,
      "##ถุน": 2968,
      "##ออกจาก": 2969,
      "##ทั่ง": 2970,
      "##ี้ยง": 2971,
      "แม้": 2972,
      "##ent": 2973,
      "สุ": 2974,
      "##เติ": 2975,
      "##ศูนย์": 2976,
      "##ou": 2977,
      "สิงหาคม": 2978,
      "##พร้อม": 2979,
      "##วิชา": 2980,
      "##ต่อไป": 2981,
      "##วิธี": 2982,
      "##ย้าย": 2983,
      "##ประชาชน": 2984,
      "##เชื้อ": 2985,
      "##ก์": 2986,
      "##หลังจาก": 2987,
      "##63": 2988,
      "##ยอม": 2989,
      "ล้าน": 2990,
      "##ถุนายน": 2991,
      "##ร่าง": 2992,
      "##บา": 2993,
      "##เจน": 2994,
      "##ลด": 2995,
      "ทรง": 2996,
      "##ฤศ": 2997,
      "##จิกายน": 2998,
      "##ch": 2999,
      "##สถานี": 3000,
      "##เพราะ": 3001,
      "##บับ": 3002,
      "##สอบ": 3003,
      "##ฤศจิกายน": 3004,
      "##ต้องการ": 3005,
      "##เร็ว": 3006,
      "##nd": 3007,
      "##ักษร": 3008,
      "##50": 3009,
      "##แหล": 3010,
      "##ท่าน": 3011,
      "##มนุษย์": 3012,
      "##พรรดิ": 3013,
      "คณะ": 3014,
      "เค": 3015,
      "##ูป": 3016,
      "ยัง": 3017,
      "29": 3018,
      "##บอก": 3019,
      "##สื": 3020,
      "##คอม": 3021,
      "##ไฟฟ้า": 3022,
      "##เข้ามา": 3023,
      "##การ์": 3024,
      "##บาทสมเด็จพระ": 3025,
      "##หนึ่งของ": 3026,
      "และได้": 3027,
      "##ิโล": 3028,
      "##แพร": 3029,
      "##คะ": 3030,
      "##แม่น้ำ": 3031,
      "##หน่าย": 3032,
      "##หน่วย": 3033,
      "##บุคคล": 3034,
      "##อีกครั้ง": 3035,
      "##วิทยา": 3036,
      "##ลักษณ์": 3037,
      "##พอ": 3038,
      "##ศัย": 3039,
      "##ดำรง": 3040,
      "สาม": 3041,
      "##แอน": 3042,
      "##ภาษ": 3043,
      "##ประสบ": 3044,
      "##นี": 3045,
      "##ึด": 3046,
      "##สั่ง": 3047,
      "##โช": 3048,
      "##ัคร": 3049,
      "##หลี": 3050,
      "##ราษฎ": 3051,
      "##ทิ": 3052,
      "##ัตถ": 3053,
      "##กับการ": 3054,
      "##แนน": 3055,
      "##กรณ์": 3056,
      "##เท่านั้น": 3057,
      "##กลายเป็น": 3058,
      "ตุลาคม": 3059,
      "เป็นต้น": 3060,
      "##นะ": 3061,
      "##คล้าย": 3062,
      "##ปลา": 3063,
      "##ิริ": 3064,
      "##ควบคุม": 3065,
      "##id": 3066,
      "##อุป": 3067,
      "อัน": 3068,
      "##เสียชีวิต": 3069,
      "อีก": 3070,
      "##ียร์": 3071,
      "##รบ": 3072,
      "##วรรษที่": 3073,
      "##นต์": 3074,
      "##เกษ": 3075,
      "##จบ": 3076,
      "st": 3077,
      "##าบัน": 3078,
      "##ราชการ": 3079,
      "##บัง": 3080,
      "##เต็ม": 3081,
      "##อาศัย": 3082,
      "##ารี": 3083,
      "##ทั้งสอง": 3084,
      "##ตลอด": 3085,
      "##เชิง": 3086,
      "กรก": 3087,
      "##os": 3088,
      "##จำหน่าย": 3089,
      "##เคลื่อน": 3090,
      "##แข็ง": 3091,
      "##เลี้ยง": 3092,
      "##พิธี": 3093,
      "##รก็": 3094,
      "กรกฎ": 3095,
      "กรกฎาคม": 3096,
      "##จิต": 3097,
      "##กระทรวง": 3098,
      "##มะ": 3099,
      "##ใส": 3100,
      "##70": 3101,
      "##ถนน": 3102,
      "##ามี": 3103,
      "##สิทธิ์": 3104,
      "พร": 3105,
      "##ค้น": 3106,
      "##ยุโรป": 3107,
      "##เกิน": 3108,
      "##เลือด": 3109,
      "มีนาคม": 3110,
      "##ศักดิ์": 3111,
      "##สโมสร": 3112,
      "##ปรา": 3113,
      "##เกา": 3114,
      "เพลง": 3115,
      "##ขอ": 3116,
      "##99": 3117,
      "ระหว่าง": 3118,
      "กันยายน": 3119,
      "##าวะ": 3120,
      "##68": 3121,
      "##จอม": 3122,
      "##64": 3123,
      "##กระทั่ง": 3124,
      "##นม": 3125,
      "ที": 3126,
      "##ษ์": 3127,
      "##ตระ": 3128,
      "##ัป": 3129,
      "##ของประเทศ": 3130,
      "##ราชวงศ์": 3131,
      "พฤษภาคม": 3132,
      "##ขาว": 3133,
      "พระเจ้า": 3134,
      "##อร์ด": 3135,
      "##โอก": 3136,
      "##แตกต่าง": 3137,
      "##๊ก": 3138,
      "##อป": 3139,
      "##ธารณรัฐ": 3140,
      "##อาร์": 3141,
      "##ัธ": 3142,
      "แม": 3143,
      "ประก": 3144,
      "##ชื่อว่า": 3145,
      "##พ่อ": 3146,
      "##วัย": 3147,
      "##เสนอ": 3148,
      "##แผ่นดิน": 3149,
      "##ิโลเมตร": 3150,
      "##ปกติ": 3151,
      "##ิช": 3152,
      "##ยิ่ง": 3153,
      "##ทด": 3154,
      "##เปอร์": 3155,
      "##ออส": 3156,
      "##ลิง": 3157,
      "ใช": 3158,
      "##แซ": 3159,
      "##บริการ": 3160,
      "##75": 3161,
      "##ราชอาณาจักร": 3162,
      "ผล": 3163,
      "##คอน": 3164,
      "##ตอบ": 3165,
      "##ตัดสิน": 3166,
      "##ไรก็": 3167,
      "มกราคม": 3168,
      "ธันวาคม": 3169,
      "##ปาก": 3170,
      "กุมภาพันธ์": 3171,
      "##ศต": 3172,
      "##ภิ": 3173,
      "ch": 3174,
      "##ลำดับ": 3175,
      "##ร้อย": 3176,
      "##สี่": 3177,
      "##ธิการ": 3178,
      "##78": 3179,
      "##โพ": 3180,
      "##สหรัฐอเมริกา": 3181,
      "##ct": 3182,
      "##ที่ไม่": 3183,
      "##จนถึง": 3184,
      "##สัมพันธ์": 3185,
      "เมษายน": 3186,
      "##เก็บ": 3187,
      "##ประเภท": 3188,
      "##ยายาม": 3189,
      "##73": 3190,
      "##ริ่ม": 3191,
      "##ส่วนใหญ่": 3192,
      "##เศรษฐ": 3193,
      "##ของพระ": 3194,
      "เริ่ม": 3195,
      "##็ต": 3196,
      "##ทรั": 3197,
      "##โอลิมปิกฤดูร้อน": 3198,
      "##71": 3199,
      "##มอง": 3200,
      "##72": 3201,
      "##พี": 3202,
      "##เอเชีย": 3203,
      "##ชุม": 3204,
      "##ad": 3205,
      "กร": 3206,
      "##าลี": 3207,
      "##แจ": 3208,
      "##ครัว": 3209,
      "##กฎหมาย": 3210,
      "##ห้อง": 3211,
      "##ว่าการ": 3212,
      "##ให้เป็น": 3213,
      "##ป้องกัน": 3214,
      "##ก่อตั้ง": 3215,
      "เป็นนัก": 3216,
      "##แพร่": 3217,
      "##รียญ": 3218,
      "##ฝั่ง": 3219,
      "##แสง": 3220,
      "##ตรวจ": 3221,
      "##ation": 3222,
      "28": 3223,
      "มีการ": 3224,
      "##กระจ": 3225,
      "##พย": 3226,
      "##็อง": 3227,
      "วัด": 3228,
      "##อาคาร": 3229,
      "##ฝึก": 3230,
      "##กะ": 3231,
      "##แย": 3232,
      "##สูตร": 3233,
      "##79": 3234,
      "##ราณ": 3235,
      "##40": 3236,
      "เธอ": 3237,
      "##ที่น": 3238,
      "##ประวัติศาสตร์": 3239,
      "##คืน": 3240,
      "##ยี": 3241,
      "##พูด": 3242,
      "##ต่อสู้": 3243,
      "##เลีย": 3244,
      "##ฉาย": 3245,
      "##ือก": 3246,
      "##อดีต": 3247,
      "##มวย": 3248,
      "##เลย": 3249,
      "##วิทยาศาสตร์": 3250,
      "##กูล": 3251,
      "##ไท": 3252,
      "##ม์": 3253,
      "มิถุนายน": 3254,
      "ในการ": 3255,
      "จากนั้น": 3256,
      "##ทุน": 3257,
      "ใช้": 3258,
      "พฤศจิกายน": 3259,
      "##ก็ได้": 3260,
      "##พยายาม": 3261,
      "ตำบล": 3262,
      "##คัด": 3263,
      "คำ": 3264,
      "##69": 3265,
      "##แถ": 3266,
      "##าะห์": 3267,
      "##สวน": 3268,
      "##เกาหลี": 3269,
      "##ัธยม": 3270,
      "ในช่วง": 3271,
      "##สูงสุด": 3272,
      "##65": 3273,
      "##การปกครอง": 3274,
      "##ข่าว": 3275,
      "##48": 3276,
      "ขณะ": 3277,
      "##สล": 3278,
      "100": 3279,
      "##วิจัย": 3280,
      "##ประชากร": 3281,
      "##ศึกษ": 3282,
      "##เก่า": 3283,
      "##พัน": 3284,
      "##th": 3285,
      "บุ": 3286,
      "##เคราะห์": 3287,
      "##iv": 3288,
      "##พยา": 3289,
      "##ขยาย": 3290,
      "##จันท": 3291,
      "##พย์": 3292,
      "##สื่อ": 3293,
      "##เสด็จ": 3294,
      "##อาการ": 3295,
      "##โบราณ": 3296,
      "##ธิบดี": 3297,
      "##เกิล": 3298,
      "##แพทย์": 3299,
      "##ยังมี": 3300,
      "##จร": 3301,
      "##ธา": 3302,
      "##ปัญหา": 3303,
      "##ารา": 3304,
      "##เนื่อง": 3305,
      "##พี่": 3306,
      "##เข้าไป": 3307,
      "##เดอร์": 3308,
      "##คโน": 3309,
      "##รถไฟ": 3310,
      "##ครู": 3311,
      "##ธุ": 3312,
      "##เอส": 3313,
      "##ทัน": 3314,
      "##ศตวรรษที่": 3315,
      "จัด": 3316,
      "##ร้าย": 3317,
      "##สืบ": 3318,
      "อัล": 3319,
      "##ยึด": 3320,
      "##ทร์": 3321,
      "##ที่เกิดขึ้น": 3322,
      "##em": 3323,
      "##เอล": 3324,
      "##ู้น": 3325,
      "##ตนเอง": 3326,
      "##หิน": 3327,
      "##บุญ": 3328,
      "##านี": 3329,
      "##43": 3330,
      "##10": 3331,
      "##คโนโล": 3332,
      "250": 3333,
      "##ฤดูกาล": 3334,
      "##45": 3335,
      "##ขนาดใหญ่": 3336,
      "##เปลี่ยนแปลง": 3337,
      "##ผู้แทน": 3338,
      "##โอรส": 3339,
      "##เหตุการณ์": 3340,
      "ไป": 3341,
      "สามารถ": 3342,
      "##ปริ": 3343,
      "##ชื่อเสียง": 3344,
      "##เฉียง": 3345,
      "##บาย": 3346,
      "##ตัวเอง": 3347,
      "##านคร": 3348,
      "โร": 3349,
      "##มอ": 3350,
      "ในวันที่": 3351,
      "และการ": 3352,
      "##ยนต์": 3353,
      "##จัดตั้ง": 3354,
      "##โอกาส": 3355,
      "##ราษฎร": 3356,
      "##ที่ได้": 3357,
      "อย่างไรก็": 3358,
      "##เหล่านี้": 3359,
      "##นัด": 3360,
      "##สาห": 3361,
      "##ระเบ": 3362,
      "##ิติ": 3363,
      "##อาว": 3364,
      "##ดวง": 3365,
      "##คโนโลยี": 3366,
      "##ต่ำ": 3367,
      "##ัค": 3368,
      "##จี": 3369,
      "##พัก": 3370,
      "อยู่": 3371,
      "##วาย": 3372,
      "##um": 3373,
      "##ter": 3374,
      "##ที่ถูก": 3375,
      "##แพ้": 3376,
      "##ต้าน": 3377,
      "##ได": 3378,
      "##ี่ยง": 3379,
      "เมตร": 3380,
      "##ียด": 3381,
      "##กิน": 3382,
      "##ไน": 3383,
      "##สถาป": 3384,
      "##วรรณ": 3385,
      "##ig": 3386,
      "##โครงการ": 3387,
      "##ืช": 3388,
      "##ทู": 3389,
      "##เลิศ": 3390,
      "##อ่อน": 3391,
      "80": 3392,
      "##ธิป": 3393,
      "##ที่สุดใน": 3394,
      "##ผสม": 3395,
      "##ทุ": 3396,
      "เหตุ": 3397,
      "##จำนวนมาก": 3398,
      "##รกิจ": 3399,
      "##น้อง": 3400,
      "##ริก": 3401,
      "##เชื่อม": 3402,
      "##ขณะที่": 3403,
      "##พยาบาล": 3404,
      "##พระชน": 3405,
      "##สึก": 3406,
      "พระราช": 3407,
      "รวมทั้ง": 3408,
      "##เชียง": 3409,
      "##อักษร": 3410,
      "##หมายถึง": 3411,
      "##อยู่หัว": 3412,
      "##คะแนน": 3413,
      "##นิว": 3414,
      "##มง": 3415,
      "##เฉล": 3416,
      "##อุด": 3417,
      "##มาเป็น": 3418,
      "กอง": 3419,
      "วันที่": 3420,
      "##สภาพ": 3421,
      "##ยังคง": 3422,
      "##ออกแบบ": 3423,
      "เคร": 3424,
      "##นธรรม": 3425,
      "##สกุล": 3426,
      "##12": 3427,
      "เบ": 3428,
      "##ra": 3429,
      "##านุ": 3430,
      "##บวนการ": 3431,
      "##คับ": 3432,
      "##ศาล": 3433,
      "##าค": 3434,
      "##30": 3435,
      "ชาว": 3436,
      "ภาพ": 3437,
      "##ประตู": 3438,
      "บาง": 3439,
      "กลุ่ม": 3440,
      "##กว้าง": 3441,
      "##ประโย": 3442,
      "##ริญญา": 3443,
      "##ติก": 3444,
      "##ขับ": 3445,
      "##แม้": 3446,
      "##ทึก": 3447,
      "##เผย": 3448,
      "##เจ้าอยู่หัว": 3449,
      "##พระราชทาน": 3450,
      "##วะ": 3451,
      "##วิล": 3452,
      "##ฉบับ": 3453,
      "##42": 3454,
      "##ทับ": 3455,
      "##ชั่น": 3456,
      "กำ": 3457,
      "##สรร": 3458,
      "##ออกไป": 3459,
      "##รมัน": 3460,
      "##ข้าม": 3461,
      "##แก้": 3462,
      "ซี": 3463,
      "##49": 3464,
      "##มัธยม": 3465,
      "##เสริม": 3466,
      "##คดี": 3467,
      "##เจริญ": 3468,
      "##ด้วยการ": 3469,
      "##นับ": 3470,
      "วง": 3471,
      "##ปล่อย": 3472,
      "##อาชีพ": 3473,
      "ยู": 3474,
      "##18": 3475,
      "ประกอบ": 3476,
      "##ชัด": 3477,
      "##ซิง": 3478,
      "##กรุงเทพ": 3479,
      "##สถานที่": 3480,
      "##มาน": 3481,
      "พร้อม": 3482,
      "##อื่นๆ": 3483,
      "พรร": 3484,
      "##โจม": 3485,
      "สห": 3486,
      "##การเมือง": 3487,
      "##st": 3488,
      "ถูก": 3489,
      "##เอ็ม": 3490,
      "##หาก": 3491,
      "##ม่า": 3492,
      "##ชน์": 3493,
      "##แหล่ง": 3494,
      "##ก่อสร้าง": 3495,
      "##นู": 3496,
      "##นายก": 3497,
      "##อาร": 3498,
      "พล": 3499,
      "##จารย์": 3500,
      "##ดอก": 3501,
      "##มากขึ้น": 3502,
      "ภาษา": 3503,
      "##ในเดือน": 3504,
      "##ธรรมชาติ": 3505,
      "กรม": 3506,
      "##เนิด": 3507,
      "##ประชุม": 3508,
      "##ไม่สามารถ": 3509,
      "##เพื่อน": 3510,
      "จำนวน": 3511,
      "##od": 3512,
      "##ot": 3513,
      "##ภัณฑ": 3514,
      "##คนที่": 3515,
      "##เคียง": 3516,
      "รวมถึง": 3517,
      "##เที่ย": 3518,
      "##เดียวกับ": 3519,
      "##บันทึก": 3520,
      "นิ": 3521,
      "##เด่น": 3522,
      "##มหานคร": 3523,
      "##ล่า": 3524,
      "##ธุรกิจ": 3525,
      "##19": 3526,
      "##อรมน": 3527,
      "##กลับมา": 3528,
      "##พาน": 3529,
      "##ของผู้": 3530,
      "##อินเดีย": 3531,
      "##ตาร์": 3532,
      "##เทคโนโลยี": 3533,
      "##นว": 3534,
      "##ล้อม": 3535,
      "##ว่าจะ": 3536,
      "##ดำรงตำแหน่ง": 3537,
      "##ิญ": 3538,
      "##เยอ": 3539,
      "##สถาบัน": 3540,
      "##ยุทธ": 3541,
      "##ag": 3542,
      "##สิง": 3543,
      "##58": 3544,
      "##ียรติ": 3545,
      "for": 3546,
      "##อัต": 3547,
      "##ขุน": 3548,
      "##13": 3549,
      "##นก": 3550,
      "##ขึ้นมา": 3551,
      "##อค": 3552,
      "##มิตร": 3553,
      "##วีป": 3554,
      "##ริน": 3555,
      "##ความสำเร็จ": 3556,
      "##ข้อง": 3557,
      "##สต์": 3558,
      "หมาย": 3559,
      "##จักรพรรดิ": 3560,
      "##ความเป็น": 3561,
      "##เพศ": 3562,
      "##ีบ": 3563,
      "##โปรด": 3564,
      "อาจ": 3565,
      "##ได้เป็น": 3566,
      "##าธิบดี": 3567,
      "อุ": 3568,
      "##พืช": 3569,
      "##พฤ": 3570,
      "##ตระกูล": 3571,
      "##สังกัด": 3572,
      "##ณฑล": 3573,
      "##อรมนี": 3574,
      "##แต่งตั้ง": 3575,
      "##เนื่องจาก": 3576,
      "##ไปด้วย": 3577,
      "##แปล": 3578,
      "##ขาด": 3579,
      "##เซลล์": 3580,
      "##ฤษฎ": 3581,
      "##อย่างมาก": 3582,
      "ดังนั้น": 3583,
      "##ทธิ์": 3584,
      "##เกษตร": 3585,
      "##ภัณฑ์": 3586,
      "##บูรณ์": 3587,
      "##นี้เป็น": 3588,
      "ทีม": 3589,
      "##าก็": 3590,
      "##ไหว": 3591,
      "##แห": 3592,
      "##ัตถุ": 3593,
      "##กำเนิด": 3594,
      "##ดูแล": 3595,
      "บริษัท": 3596,
      "##ประกอบด้วย": 3597,
      "ซึ่งมี": 3598,
      "##ขัด": 3599,
      "##ออกอากาศ": 3600,
      "##เปน": 3601,
      "##ทำลาย": 3602,
      "##นอก": 3603,
      "##ุย": 3604,
      "##เยี่ยม": 3605,
      "##ูง": 3606,
      "##รัสเซีย": 3607,
      "##มร": 3608,
      "##ความรู้": 3609,
      "จัก": 3610,
      "249": 3611,
      "##ดอน": 3612,
      "##เบิร์": 3613,
      "##เป็นนัก": 3614,
      "##ผู้แทนราษฎร": 3615,
      "##ศา": 3616,
      "##ทีมชาติ": 3617,
      "##สมรส": 3618,
      "##เบอร์": 3619,
      "##ผู้น": 3620,
      "##ค่าย": 3621,
      "##ow": 3622,
      "##บัญญ": 3623,
      "##ฟิล": 3624,
      "##งาม": 3625,
      "##ดินแดน": 3626,
      "##าราง": 3627,
      "องค์": 3628,
      "##เศรษฐกิจ": 3629,
      "50": 3630,
      "##53": 3631,
      "##ดัน": 3632,
      "##วัฒนธรรม": 3633,
      "##ปริญญา": 3634,
      "เรื่อง": 3635,
      "##ออกเป็น": 3636,
      "งาน": 3637,
      "##op": 3638,
      "##มวล": 3639,
      "##รัง": 3640,
      "##อเมริกัน": 3641,
      "##ซิล": 3642,
      "27": 3643,
      "##52": 3644,
      "##ไฮ": 3645,
      "##ประโยชน์": 3646,
      "##โฮ": 3647,
      "##ร่": 3648,
      "##ออสเตร": 3649,
      "เดือน": 3650,
      "##ครอบครัว": 3651,
      "##กลง": 3652,
      "##สิบ": 3653,
      "##ใส่": 3654,
      "##ขั้น": 3655,
      "26": 3656,
      "##ชาร์": 3657,
      "##สมบัติ": 3658,
      "##ิตย์": 3659,
      "โดยเฉพาะ": 3660,
      "##สวรร": 3661,
      "##ควร": 3662,
      "##เมื่อปี": 3663,
      "แก": 3664,
      "ตั้งแต่": 3665,
      "##เกียรติ": 3666,
      "##จะต้อง": 3667,
      "##คณะกรรมการ": 3668,
      "##ประสาท": 3669,
      "##พระพุทธ": 3670,
      "นำ": 3671,
      "##แรกของ": 3672,
      "##เกี่ยวข้อง": 3673,
      "##ยศ": 3674,
      "##ชร": 3675,
      "##ภาวะ": 3676,
      "เขต": 3677,
      "##บรมราช": 3678,
      "##อุต": 3679,
      "##ยิง": 3680,
      "##ในปัจจุบัน": 3681,
      "##พวกเขา": 3682,
      "##ดำเนินการ": 3683,
      "##เยอรมัน": 3684,
      "##สนใจ": 3685,
      "##โดน": 3686,
      "##บทบาท": 3687,
      "##วบ": 3688,
      "##59": 3689,
      "##บัญญัติ": 3690,
      "##เริ่มต้น": 3691,
      "สมเด็จพระ": 3692,
      "##ng": 3693,
      "##าร์ก": 3694,
      "##เทอร์": 3695,
      "เดอะ": 3696,
      "##ur": 3697,
      "##ในประเทศไทย": 3698,
      "##ัณฑิต": 3699,
      "จักร": 3700,
      "##สภาผู้แทนราษฎร": 3701,
      "##เกต": 3702,
      "อย่างไรก็ตาม": 3703,
      "ขึ้น": 3704,
      "##ไหล": 3705,
      "##นำไป": 3706,
      "##อิต": 3707,
      "re": 3708,
      "##ตำรวจ": 3709,
      "แต่ก็": 3710,
      "##พง": 3711,
      "##โจมตี": 3712,
      "กรุง": 3713,
      "##80": 3714,
      "เหตุการณ์": 3715,
      "##ภายใต้": 3716,
      "##ของพระองค์": 3717,
      "##ร้าง": 3718,
      "##ช่วยเหลือ": 3719,
      "##เป็นทางการ": 3720,
      "##บาด": 3721,
      "กิโลเมตร": 3722,
      "##ce": 3723,
      "##ตาล": 3724,
      "##ซาน": 3725,
      "##เยาว": 3726,
      "##ท้องถิ่น": 3727,
      "##and": 3728,
      "##ทธิพล": 3729,
      "##จน์": 3730,
      "##เยอรมนี": 3731,
      "##ของเธอ": 3732,
      "##นิก": 3733,
      "##ตลาด": 3734,
      "##ซึ่งเป็น": 3735,
      "##มอบ": 3736,
      "เป็นผู้": 3737,
      "##จะถูก": 3738,
      "เครื่อง": 3739,
      "##ay": 3740,
      "##แก้ว": 3741,
      "##ที่มีความ": 3742,
      "##ุณ": 3743,
      "##สั้น": 3744,
      "##อ้าง": 3745,
      "##สาน": 3746,
      "เข้า": 3747,
      "##ด้วยกัน": 3748,
      "##ตัวละคร": 3749,
      "##ที่สำคัญ": 3750,
      "##สำนักงาน": 3751,
      "##เทียบ": 3752,
      "##ผิว": 3753,
      "##อีกด้วย": 3754,
      "##พลังงาน": 3755,
      "##หนี": 3756,
      "##ในโอลิมปิกฤดูร้อน": 3757,
      "หลังจากนั้น": 3758,
      "##มิน": 3759,
      "##อห์": 3760,
      "##ทบ": 3761,
      "##ปรุง": 3762,
      "##ปืน": 3763,
      "##่าร": 3764,
      "##ืด": 3765,
      "##ดาห์": 3766,
      "##ครั้งนี้": 3767,
      "##ออน": 3768,
      "##คู": 3769,
      "##ทรัพย์": 3770,
      "มีความ": 3771,
      "##เหล็ก": 3772,
      "##ชนะเลิศ": 3773,
      "##ปา": 3774,
      "##ยาก": 3775,
      "##โทษ": 3776,
      "##เที่ยว": 3777,
      "##ติดต่อ": 3778,
      "##im": 3779,
      "##ิบ": 3780,
      "##ป่วย": 3781,
      "##วรรดิ": 3782,
      "##คำว่า": 3783,
      "##เจ็บ": 3784,
      "##พระบาทสมเด็จพระ": 3785,
      "##ธง": 3786,
      "##ีโอ": 3787,
      "##89": 3788,
      "##82": 3789,
      "##กระจาย": 3790,
      "แบ": 3791,
      "##แอ": 3792,
      "ไม": 3793,
      "##สมัคร": 3794,
      "##นวย": 3795,
      "##ธาตุ": 3796,
      "##ทวีป": 3797,
      "##เกล้าเจ้าอยู่หัว": 3798,
      "##ทน": 3799,
      "##ลิน": 3800,
      "##ย่อย": 3801,
      "##แฮ": 3802,
      "##ช์": 3803,
      "##อยู่กับ": 3804,
      "##ศพ": 3805,
      "##มาตร": 3806,
      "พวก": 3807,
      "ถ้า": 3808,
      "##ut": 3809,
      "##บังคับ": 3810,
      "##39": 3811,
      "ว่า": 3812,
      "เฮ": 3813,
      "##ศิลปะ": 3814,
      "##จา": 3815,
      "##จันทร์": 3816,
      "ตอน": 3817,
      "##ในระดับ": 3818,
      "##ได้รับความ": 3819,
      "##ธิดา": 3820,
      "31": 3821,
      "##ทัย": 3822,
      "##ใช่": 3823,
      "##หัส": 3824,
      "##ทศ": 3825,
      "##พิจาร": 3826,
      "##ในสมัย": 3827,
      "อิน": 3828,
      "##ฟอร์": 3829,
      "##มั่น": 3830,
      "##ชก": 3831,
      "40": 3832,
      "ด้าน": 3833,
      "##เบิล": 3834,
      "##74": 3835,
      "สี": 3836,
      "##ที่สอง": 3837,
      "##เลย์": 3838,
      "##ทราบ": 3839,
      "ในเดือน": 3840,
      "##ลึก": 3841,
      "##มาะ": 3842,
      "ลูก": 3843,
      "##ประชาธิป": 3844,
      "##มากมาย": 3845,
      "##ดุ": 3846,
      "อี": 3847,
      "##รุน": 3848,
      "##เรือน": 3849,
      "อดีต": 3850,
      "##เรา": 3851,
      "##นำมา": 3852,
      "##ราม": 3853,
      "##เลิก": 3854,
      "##หุ": 3855,
      "##กุม": 3856,
      "##ัปดาห์": 3857,
      "##ทางด้าน": 3858,
      "##ขนาดเล็ก": 3859,
      "นา": 3860,
      "##ดนาม": 3861,
      "ราช": 3862,
      "##ริย": 3863,
      "##ยืน": 3864,
      "##วิทยาลัย": 3865,
      "น้ำ": 3866,
      "##เบล": 3867,
      "##ไตย": 3868,
      "##ปะ": 3869,
      "##วัตถุ": 3870,
      "##ล่าง": 3871,
      "##เลอร์": 3872,
      "##ศักราช": 3873,
      "##ตูน": 3874,
      "##พม่า": 3875,
      "##ฆ่า": 3876,
      "##็ค": 3877,
      "##ิค": 3878,
      "##อยู": 3879,
      "เรีย": 3880,
      "##สงค์": 3881,
      "##มากที่สุด": 3882,
      "##้วน": 3883,
      "##32": 3884,
      "##เข้าสู่": 3885,
      "จนกระทั่ง": 3886,
      "##หนาว": 3887,
      "##สาหกรรม": 3888,
      "##เถ": 3889,
      "##มหาส": 3890,
      "se": 3891,
      "##ต่างประเทศ": 3892,
      "##บัญชา": 3893,
      "##สมาคม": 3894,
      "##ir": 3895,
      "##76": 3896,
      "##เกอร์": 3897,
      "##เซ็น": 3898,
      "##อิทธิพล": 3899,
      "##และมี": 3900,
      "##ดังนี้": 3901,
      "ที่มี": 3902,
      "##วิด": 3903,
      "##กำกับ": 3904,
      "ท่าน": 3905,
      "##สมอง": 3906,
      "นับ": 3907,
      "##บัล": 3908,
      "##วร์": 3909,
      "##ซึ": 3910,
      "พบ": 3911,
      "##น่า": 3912,
      "##สิก": 3913,
      "##ต่อต้าน": 3914,
      "##กษัตริย์": 3915,
      "##เล่า": 3916,
      "##ซื้อ": 3917,
      "##พาก": 3918,
      "##ชิงแชมป์": 3919,
      "##อำนวย": 3920,
      "##ได้แก่": 3921,
      "##สเตอร์": 3922,
      "##กรณี": 3923,
      "##บำ": 3924,
      "##รัม": 3925,
      "##เครือ": 3926,
      "##คาร์": 3927,
      "##อห์น": 3928,
      "##แน่น": 3929,
      "##การใช้": 3930,
      "##ลับ": 3931,
      "##จง": 3932,
      "ในขณะที่": 3933,
      "##41": 3934,
      "##เธอร์": 3935,
      "##ธานี": 3936,
      "##ใคร": 3937,
      "and": 3938,
      "##ศิ": 3939,
      "เส้น": 3940,
      "##ชั่ว": 3941,
      "##un": 3942,
      "##รุนแรง": 3943,
      "สมา": 3944,
      "##ขณะนั้น": 3945,
      "##ูด": 3946,
      "ลำ": 3947,
      "##รอย": 3948,
      "##แกรม": 3949,
      "##คลุม": 3950,
      "##และความ": 3951,
      "##ers": 3952,
      "##เสร": 3953,
      "##เหรียญ": 3954,
      "##มหาก": 3955,
      "##ในฐานะ": 3956,
      "##ศิลปิน": 3957,
      "##เส้นทาง": 3958,
      "##ล้าน": 3959,
      "##ประสงค์": 3960,
      "##ทำหน้าที่": 3961,
      "##ชิ้น": 3962,
      "##สาธารณรัฐ": 3963,
      "##ที่อยู่": 3964,
      "##ไปได้": 3965,
      "โอ": 3966,
      "##เชิญ": 3967,
      "##บัณฑิต": 3968,
      "สาย": 3969,
      "##เสร็จ": 3970,
      "##ไปถึง": 3971,
      "##สุน": 3972,
      "##สมบูรณ์": 3973,
      "##อาท": 3974,
      "##เอ็น": 3975,
      "##วัส": 3976,
      "##าบ": 3977,
      "##อิตาลี": 3978,
      "จำกัด": 3979,
      "##ที่ดี": 3980,
      "##มูล": 3981,
      "al": 3982,
      "##ระบุ": 3983,
      "##ามา": 3984,
      "##องค์กร": 3985,
      "##ให้น": 3986,
      "##สาท": 3987,
      "##ซิงเกิล": 3988,
      "##หัวหน้า": 3989,
      "##พิษ": 3990,
      "##55": 3991,
      "##เรน": 3992,
      "##88": 3993,
      "##พระยา": 3994,
      "##ภูมิภาค": 3995,
      "##พระชนม์": 3996,
      "##คัดเลือก": 3997,
      "de": 3998,
      "##ผ้า": 3999,
      "##ง่าย": 4000,
      "##กันใน": 4001,
      "##ฤษฎี": 4002,
      "##ap": 4003,
      "นาง": 4004,
      "##คลอง": 4005,
      "##33": 4006,
      "##เมน": 4007,
      "##ยอมรับ": 4008,
      "##บิดา": 4009,
      "##อุดม": 4010,
      "##ประสบความสำเร็จ": 4011,
      "หาก": 4012,
      "ชน": 4013,
      "หมู่": 4014,
      "##22": 4015,
      "##ร่วมกับ": 4016,
      "##เวียต": 4017,
      "##เติม": 4018,
      "##ลู": 4019,
      "##การแสดง": 4020,
      "##ผู้นำ": 4021,
      "##จำเป็น": 4022,
      "##ร่างกาย": 4023,
      "##ตัดสินใจ": 4024,
      "##จักรวรรดิ": 4025,
      "ยก": 4026,
      "##สูญ": 4027,
      "เกิดเมื่อวันที่": 4028,
      "##เหมาะ": 4029,
      "##ื้อง": 4030,
      "2554": 4031,
      "##โดยการ": 4032,
      "##หนัง": 4033,
      "##อาทิตย์": 4034,
      "##พิจารณา": 4035,
      "##ไกล": 4036,
      "##คอ": 4037,
      "##โรมัน": 4038,
      "##ตั้งอยู่": 4039,
      "##เปิดตัว": 4040,
      "##เดน": 4041,
      "และยัง": 4042,
      "สร้าง": 4043,
      "##ตะวันออกเฉียง": 4044,
      "##วิร์": 4045,
      "##เป็นพระ": 4046,
      "##อย่างเป็นทางการ": 4047,
      "##นักงาน": 4048,
      "##ซาก": 4049,
      "##นักเรียน": 4050,
      "##ดาร": 4051,
      "##หนอง": 4052,
      "##ลาว": 4053,
      "##เทศบาล": 4054,
      "##เช่นกัน": 4055,
      "00": 4056,
      "##ธิบาย": 4057,
      "##ของตน": 4058,
      "##ทอด": 4059,
      "##ือบ": 4060,
      "##11": 4061,
      "##พบกับ": 4062,
      "##พิว": 4063,
      "##นูญ": 4064,
      "br": 4065,
      "เวลา": 4066,
      "##พื้นฐาน": 4067,
      "##่ำ": 4068,
      "##แกน": 4069,
      "##อุตสาหกรรม": 4070,
      "##าชาติ": 4071,
      "##โซเวียต": 4072,
      "##est": 4073,
      "##สากล": 4074,
      "##เพิ่มขึ้น": 4075,
      "##เรียง": 4076,
      "รายชื่อ": 4077,
      "##ได้ถูก": 4078,
      "##กันว่า": 4079,
      "##ของชาว": 4080,
      "##โฟ": 4081,
      "##ให้แก่": 4082,
      "##กิ": 4083,
      "##เป็นที่รู้จัก": 4084,
      "##ให้เกิด": 4085,
      "##นี้มี": 4086,
      "หมายถึง": 4087,
      "##สเต": 4088,
      "จนถึง": 4089,
      "##ญาณ": 4090,
      "##ได้รับรางวัล": 4091,
      "##ัพท์": 4092,
      "##ตกลง": 4093,
      "2012": 4094,
      "##เสมอ": 4095,
      "##ประทับ": 4096,
      "##ห่าง": 4097,
      "##เด็จพระราช": 4098,
      "ภาพยนตร์": 4099,
      "##จ่าย": 4100,
      "2550": 4101,
      "##ทางทิศ": 4102,
      "##ญาต": 4103,
      "##ลาม": 4104,
      "##ใช้เป็น": 4105,
      "##จึงได้": 4106,
      "มัน": 4107,
      "กี": 4108,
      "##จำกัด": 4109,
      "##สเปน": 4110,
      "##เอฟ": 4111,
      "##ทดลอง": 4112,
      "##นาถ": 4113,
      "##เวียดนาม": 4114,
      "อาร์": 4115,
      "##โครงสร้าง": 4116,
      "##จด": 4117,
      "เหตุการณ์ที่เกิดขึ้น": 4118,
      "##ผน": 4119,
      "##คว้น": 4120,
      "##พิธ": 4121,
      "##สด": 4122,
      "##ธรรมนูญ": 4123,
      "##นายกรัฐมนตรี": 4124,
      "##ื่อย": 4125,
      "##บดี": 4126,
      "##เซน": 4127,
      "##หลักฐาน": 4128,
      "##เวน": 4129,
      "##เหลือง": 4130,
      "##โตะ": 4131,
      "##มุม": 4132,
      "##วิหาร": 4133,
      "ร่วม": 4134,
      "##กระแส": 4135,
      "##ษก": 4136,
      "##ฟู": 4137,
      "##ทีวี": 4138,
      "##ทา": 4139,
      "##og": 4140,
      "##ard": 4141,
      "##ระเบิด": 4142,
      "##โกะ": 4143,
      "เป็นการ": 4144,
      "##พิวเตอร์": 4145,
      "##ารย์": 4146,
      "##แท้": 4147,
      "##ov": 4148,
      "##ทั่วโลก": 4149,
      "##วิจาร": 4150,
      "##กรี": 4151,
      "##ประกวด": 4152,
      "##รอ": 4153,
      "##อาจารย์": 4154,
      "##ขวาง": 4155,
      "##77": 4156,
      "##ช้าง": 4157,
      "##คริสต์ศตวรรษที่": 4158,
      "และใน": 4159,
      "##ลม": 4160,
      "##ัมภ": 4161,
      "##ต่อเนื่อง": 4162,
      "##สัญลักษณ์": 4163,
      "##จิตร": 4164,
      "เปิด": 4165,
      "##หลาก": 4166,
      "##เลน": 4167,
      "##สาขา": 4168,
      "##เข้าใจ": 4169,
      "##เอน": 4170,
      "##ภาษาอังกฤษ": 4171,
      "##กลม": 4172,
      "นั้น": 4173,
      "ครั้งที่": 4174,
      "##29": 4175,
      "##สึ": 4176,
      "##อากาศยาน": 4177,
      "##เพชร": 4178,
      "##เป็นตัว": 4179,
      "##วิจารณ์": 4180,
      "60": 4181,
      "เข้าร": 4182,
      "##เบียน": 4183,
      "รอบ": 4184,
      "##ae": 4185,
      "##44": 4186,
      "##หยุด": 4187,
      "##อฟริ": 4188,
      "##โยบาย": 4189,
      "##เพลิง": 4190,
      "sh": 4191,
      "##มหากษัตริย์": 4192,
      "##ห้า": 4193,
      "##66": 4194,
      "##ไก": 4195,
      "##ุฒ": 4196,
      "##พบว่า": 4197,
      "##เรื่องนี้": 4198,
      "ระบบ": 4199,
      "##จิน": 4200,
      "##ได้อย่าง": 4201,
      "##วิชาการ": 4202,
      "##าลง": 4203,
      "สถานี": 4204,
      "##ศัพท์": 4205,
      "##ิกส์": 4206,
      "##บางส่วน": 4207,
      "##คี": 4208,
      "##ฆ์": 4209,
      "2551": 4210,
      "ได้รับการ": 4211,
      "##สมาชิกสภาผู้แทนราษฎร": 4212,
      "##หมายเลข": 4213,
      "จึงได้": 4214,
      "##เดอะ": 4215,
      "##ฟ์": 4216,
      "##ล้ม": 4217,
      "##ส่วนหนึ่งของ": 4218,
      "##อลเลย์": 4219,
      "##จะได้": 4220,
      "##เวิร์": 4221,
      "##ab": 4222,
      "##มารดา": 4223,
      "##ไช": 4224,
      "ประกอบด้วย": 4225,
      "รูป": 4226,
      "##ิกา": 4227,
      "##มณฑล": 4228,
      "ปลา": 4229,
      "##ก็คือ": 4230,
      "##วิทยุ": 4231,
      "##ศูนย์กลาง": 4232,
      "##เทน": 4233,
      "##แอล": 4234,
      "##อาวุธ": 4235,
      "##ภายหลัง": 4236,
      "##ไม่น": 4237,
      "2016": 4238,
      "##ขว": 4239,
      "##ยกรรม": 4240,
      "##เกมส์": 4241,
      "2010": 4242,
      "com": 4243,
      "##ท่อง": 4244,
      "##โมง": 4245,
      "##ปฏิบัติการ": 4246,
      "##ชุมชน": 4247,
      "##ษฐาน": 4248,
      "##มัธยมศึกษา": 4249,
      "##ทางการเมือง": 4250,
      "บ้าน": 4251,
      "##เจอร์": 4252,
      "##ไบ": 4253,
      "##กระทำ": 4254,
      "##อิง": 4255,
      "##ิสต์": 4256,
      "##เยาวชน": 4257,
      "##แวด": 4258,
      "##าร์ด": 4259,
      "##แฟน": 4260,
      "##อลเลย์บอล": 4261,
      "##สมุ": 4262,
      "##ฤดูหนาว": 4263,
      "โซ": 4264,
      "##กัม": 4265,
      "##ปีที่": 4266,
      "พรรค": 4267,
      "##เนอร์": 4268,
      "##อู": 4269,
      "##ราก": 4270,
      "##ยัน": 4271,
      "2553": 4272,
      "##51": 4273,
      "##ัวร์": 4274,
      "ขณะที่": 4275,
      "##สหราชอาณาจักร": 4276,
      "อะ": 4277,
      "รุ่น": 4278,
      "##ทาย": 4279,
      "##รายงาน": 4280,
      "##บก": 4281,
      "##จู": 4282,
      "##โลกครั้งที่": 4283,
      "##หวัง": 4284,
      "##เวท": 4285,
      "##ครึ่ง": 4286,
      "##เขียว": 4287,
      "##ถ้า": 4288,
      "ne": 4289,
      "##ินส์": 4290,
      "##นานาชาติ": 4291,
      "##กง": 4292,
      "##83": 4293,
      "ตาราง": 4294,
      "สโมสร": 4295,
      "##ฮ์": 4296,
      "##บุก": 4297,
      "##หาง": 4298,
      "##รีส์": 4299,
      "##แพง": 4300,
      "##ทำให้เกิด": 4301,
      "โปร": 4302,
      "##ถวาย": 4303,
      "##ขึ้นเป็น": 4304,
      "##เบีย": 4305,
      "##เตรียม": 4306,
      "##ปรับปรุง": 4307,
      "##ลอ": 4308,
      "##ขึ้นใน": 4309,
      "##รี่": 4310,
      "##คาด": 4311,
      "บท": 4312,
      "##คราว": 4313,
      "ในประเทศ": 4314,
      "##มาร์": 4315,
      "##อยุธ": 4316,
      "##ทิ้ง": 4317,
      "##โคล": 4318,
      "##สก": 4319,
      "ก่อ": 4320,
      "79": 4321,
      "##ออฟ": 4322,
      "##ph": 4323,
      "##เครื่องบิน": 4324,
      "##หาราช": 4325,
      "##สหภาพ": 4326,
      "##การที่": 4327,
      "ชั้น": 4328,
      "##นิท": 4329,
      "##คต": 4330,
      "##เคมี": 4331,
      "##ทูต": 4332,
      "##คอมพิวเตอร์": 4333,
      "##รน": 4334,
      "##ซ้อน": 4335,
      "##กุฎ": 4336,
      "##ไปใน": 4337,
      "2014": 4338,
      "##อลล": 4339,
      "##ข่าย": 4340,
      "##ิตย": 4341,
      "##เห็นว่า": 4342,
      "##ine": 4343,
      "ตั้งอยู่": 4344,
      "##สัญญาณ": 4345,
      "##เหย": 4346,
      "##สินค้า": 4347,
      "##มุทร": 4348,
      "เดิม": 4349,
      "##เรียบ": 4350,
      "##ณห": 4351,
      "##ประธานาธิบดี": 4352,
      "##67": 4353,
      "หัว": 4354,
      "##มอน": 4355,
      "##ไว้ใน": 4356,
      "##ฟา": 4357,
      "##กระดูก": 4358,
      "##โดด": 4359,
      "##กระบวนการ": 4360,
      "##เชียงใหม่": 4361,
      "เจ้าชาย": 4362,
      "##รัชกาล": 4363,
      "##ันที่": 4364,
      "##ชีว": 4365,
      "อิ": 4366,
      "##อฟริกา": 4367,
      "##็กซ์": 4368,
      "##ัตยกรรม": 4369,
      "##ริส": 4370,
      "##แค่": 4371,
      "##อธิบาย": 4372,
      "##ได้ใน": 4373,
      "2549": 4374,
      "##แตกต่างกัน": 4375,
      "##พระนาม": 4376,
      "##อาจจะ": 4377,
      "ชนิด": 4378,
      "2555": 4379,
      "แพ": 4380,
      "##ผู้เล่น": 4381,
      "พิ": 4382,
      "แต": 4383,
      "##หะ": 4384,
      "##หลากหลาย": 4385,
      "##ุป": 4386,
      "##คลื่น": 4387,
      "##เป้า": 4388,
      "รับ": 4389,
      "##ข้าว": 4390,
      "ถนน": 4391,
      "##สัปดาห์": 4392,
      "##ายัง": 4393,
      "##วย์": 4394,
      "##ยังไม่": 4395,
      "##อล์": 4396,
      "##แถบ": 4397,
      "โค": 4398,
      "##สงครามโลกครั้งที่": 4399,
      "##ประหาร": 4400,
      "##ปลูก": 4401,
      "2008": 4402,
      "ดี": 4403,
      "##ค้นพบ": 4404,
      "##หมู่บ้าน": 4405,
      "##ประดิ": 4406,
      "เป": 4407,
      "##ประพันธ์": 4408,
      "##เข้ม": 4409,
      "##อัตรา": 4410,
      "##เดี่ยว": 4411,
      "##ที่ตั้ง": 4412,
      "##เพื่อให้": 4413,
      "##หัวใจ": 4414,
      "##ความคิด": 4415,
      "เข้าร่วม": 4416,
      "##ประชาธิปไตย": 4417,
      "สาธารณรัฐ": 4418,
      "ไอ": 4419,
      "##เอียด": 4420,
      "##เจ้าชาย": 4421,
      "##ศี": 4422,
      "##ิร์ต": 4423,
      "##ถม": 4424,
      "##ที่เกิด": 4425,
      "##แนะ": 4426,
      "##ศว": 4427,
      "##ิตยสาร": 4428,
      "เหตุการณ์ที่เกิดขึ้นใน": 4429,
      "to": 4430,
      "##เน้น": 4431,
      "เคย": 4432,
      "2557": 4433,
      "##หัน": 4434,
      "##แด": 4435,
      "##เรื่องราว": 4436,
      "##จุล": 4437,
      "##แย้ง": 4438,
      "เจ้าหญิง": 4439,
      "##สิ้นสุด": 4440,
      "##านา": 4441,
      "##ได้มีการ": 4442,
      "##ula": 4443,
      "##ครบ": 4444,
      "##สวย": 4445,
      "##สังหาร": 4446,
      "ต้อง": 4447,
      "อาท": 4448,
      "##อำนวยการ": 4449,
      "มัก": 4450,
      "##ในยุค": 4451,
      "##ไข่": 4452,
      "ลิ": 4453,
      "เขาได้": 4454,
      "##ไพ": 4455,
      "##บโต": 4456,
      "##คณ": 4457,
      "##กิจกรรม": 4458,
      "##เหลี่ยม": 4459,
      "##ละเอียด": 4460,
      "##เมอร์": 4461,
      "##กด": 4462,
      "##ให้บริการ": 4463,
      "##ท่องเที่ยว": 4464,
      "คุณ": 4465,
      "##กิจการ": 4466,
      "an": 4467,
      "##มักจะ": 4468,
      "##โภ": 4469,
      "รถ": 4470,
      "##รัตน": 4471,
      "##แวดล้อม": 4472,
      "ดู": 4473,
      "2018": 4474,
      "##าชการ": 4475,
      "##ตัวอย่าง": 4476,
      "##แรกที่": 4477,
      "##ang": 4478,
      "##รวด": 4479,
      "##พันธมิตร": 4480,
      "##ประสิทธิ": 4481,
      "##ยอดเยี่ยม": 4482,
      "##ฟื้น": 4483,
      "##เย็น": 4484,
      "ห้อง": 4485,
      "##บัญชาการ": 4486,
      "##โข": 4487,
      "##แคล": 4488,
      "##เษก": 4489,
      "##นักแสดง": 4490,
      "สมัย": 4491,
      "ดร": 4492,
      "##แข่งขันกีฬา": 4493,
      "##นาว": 4494,
      "##การศึกษ": 4495,
      "##โดยสาร": 4496,
      "##การ์ตูน": 4497,
      "##ักษณะ": 4498,
      "กล่าว": 4499,
      "con": 4500,
      "##ภิเษก": 4501,
      "##54": 4502,
      "##แต่งงาน": 4503,
      "##อยุธยา": 4504,
      "เทศ": 4505,
      "##อิสระ": 4506,
      "##หลักสูตร": 4507,
      "##องค์การ": 4508,
      "โคร": 4509,
      "##ของพระเจ้า": 4510,
      "##โฆ": 4511,
      "##ak": 4512,
      "##ess": 4513,
      "##ก็จะ": 4514,
      "##สยาม": 4515,
      "2560": 4516,
      "##แกร": 4517,
      "2561": 4518,
      "##อร์ก": 4519,
      "##เมีย": 4520,
      "##วงการ": 4521,
      "##ร่วมกัน": 4522,
      "2552": 4523,
      "##ชัดเจน": 4524,
      "##ชู": 4525,
      "##ได้มี": 4526,
      "##คำสั่ง": 4527,
      "##เฉลิม": 4528,
      "2015": 4529,
      "##เปลี่ยนชื่อ": 4530,
      "form": 4531,
      "##ากับ": 4532,
      "##อันดับที่": 4533,
      "##นอร์": 4534,
      "2559": 4535,
      "##28": 4536,
      "##ได้ว่า": 4537,
      "##ทั้งสิ้น": 4538,
      "##ฟี": 4539,
      "##eri": 4540,
      "70": 4541,
      "##ซ้าย": 4542,
      "ดังนี้": 4543,
      "##มณ์": 4544,
      "##ธร": 4545,
      "ภายหลัง": 4546,
      "##เป็นคน": 4547,
      "##เกล้าฯ": 4548,
      "เซน": 4549,
      "##แต่ว": 4550,
      "##รัฐธรรมนูญ": 4551,
      "##เลียน": 4552,
      "##ต่อการ": 4553,
      "สังกัด": 4554,
      "##สูติ": 4555,
      "##สมุทร": 4556,
      "##มาตรฐาน": 4557,
      "##นอง": 4558,
      "##38": 4559,
      "พุทธ": 4560,
      "##ขอบ": 4561,
      "##ถาม": 4562,
      "##เสียหาย": 4563,
      "##ุ่ง": 4564,
      "##ที่ดิน": 4565,
      "##แสดงโดย": 4566,
      "##พฤติ": 4567,
      "##ลุ": 4568,
      "##ฟิลิป": 4569,
      "##ัศ": 4570,
      "##เป็นเจ้า": 4571,
      "โม": 4572,
      "##วิธีการ": 4573,
      "##พายุ": 4574,
      "##เติบโต": 4575,
      "##ลอน": 4576,
      "ถือ": 4577,
      "##เว้น": 4578,
      "##ยุติ": 4579,
      "##หนา": 4580,
      "##ว่าการกระทรวง": 4581,
      "##เลื่อน": 4582,
      "##พูชา": 4583,
      "##ลังก์": 4584,
      "##มติ": 4585,
      "##กระทบ": 4586,
      "อน": 4587,
      "##ฝน": 4588,
      "##ร้าน": 4589,
      "##ชาวไทย": 4590,
      "##โรงพยาบาล": 4591,
      "##ไข้": 4592,
      "##เวย์": 4593,
      "##วาด": 4594,
      "##90": 4595,
      "##ทฤษฎี": 4596,
      "##เหนือของ": 4597,
      "##อนุญาต": 4598,
      "##มุ่ง": 4599,
      "##รอด": 4600,
      "##ในเรื่อง": 4601,
      "##เกร": 4602,
      "##ฉาก": 4603,
      "##ip": 4604,
      "##ซิส": 4605,
      "##ทุ่ง": 4606,
      "##โอน": 4607,
      "##สำรวจ": 4608,
      "##มีชีวิต": 4609,
      "##ใต้ของ": 4610,
      "##สงฆ์": 4611,
      "เมื่อปี": 4612,
      "##กล่าวว่า": 4613,
      "##ปริมาณ": 4614,
      "ซู": 4615,
      "##เวลาน": 4616,
      "##มิส": 4617,
      "##ปิ": 4618,
      "##ปราสาท": 4619,
      "ช่วง": 4620,
      "##เกือบ": 4621,
      "##วงศ์เธอ": 4622,
      "##ใช้งาน": 4623,
      "sp": 4624,
      "โจ": 4625,
      "##ย่อ": 4626,
      "##เทียม": 4627,
      "##ใช้ใน": 4628,
      "##ปล้ำ": 4629,
      "จากการ": 4630,
      "##อ่าน": 4631,
      "##สตรี": 4632,
      "##นท์": 4633,
      "แอน": 4634,
      "##แห่งประเทศไทย": 4635,
      "##ซิน": 4636,
      "##ไปตาม": 4637,
      "แบบ": 4638,
      "##อะไร": 4639,
      "##็อน": 4640,
      "##หู": 4641,
      "##ร่วมมือ": 4642,
      "ปร": 4643,
      "โดยใช้": 4644,
      "2556": 4645,
      "แม้ว่า": 4646,
      "ทั้งนี้": 4647,
      "2558": 4648,
      "##กรุงเทพมหานคร": 4649,
      "32": 4650,
      "##ังก์": 4651,
      "##รียบ": 4652,
      "##ปลอด": 4653,
      "##แนวคิด": 4654,
      "บน": 4655,
      "##านิ": 4656,
      "##พร้อมกับ": 4657,
      "un": 4658,
      "##เข้าแข่งขัน": 4659,
      "##ซัน": 4660,
      "เฟ": 4661,
      "##เวที": 4662,
      "ได้มีการ": 4663,
      "##ีน้ำ": 4664,
      "##ราชย์": 4665,
      "ตลอด": 4666,
      "##ทศวรรษ": 4667,
      "##มิวน": 4668,
      "##ในเขต": 4669,
      "##แอฟริกา": 4670,
      "หลัก": 4671,
      "##มส์": 4672,
      "##47": 4673,
      "##แก่น": 4674,
      "ar": 4675,
      "##บิ": 4676,
      "##คัพ": 4677,
      "##คว้า": 4678,
      "##ความสัมพันธ์": 4679,
      "##ฟัง": 4680,
      "บาท": 4681,
      "##ประทาน": 4682,
      "##กู": 4683,
      "##รัต": 4684,
      "##อุปกรณ์": 4685,
      "##ity": 4686,
      "##ความสามารถ": 4687,
      "2013": 4688,
      "##ฮา": 4689,
      "##สัญญ": 4690,
      "##เหลว": 4691,
      "##15": 4692,
      "##เปรียบ": 4693,
      "2562": 4694,
      "##แคว้น": 4695,
      "##จ์": 4696,
      "##if": 4697,
      "##เอาชนะ": 4698,
      "ออกอากาศ": 4699,
      "##วิก": 4700,
      "##ปรึก": 4701,
      "##ออสเตรเลีย": 4702,
      "องศา": 4703,
      "##ขนส่ง": 4704,
      "อำเภ": 4705,
      "##ขาวิ": 4706,
      "##av": 4707,
      "##ศร": 4708,
      "##ne": 4709,
      "อัลบั้ม": 4710,
      "##ภาร": 4711,
      "##ปร่าง": 4712,
      "##เขาได้": 4713,
      "##จะไม่": 4714,
      "ภู": 4715,
      "##ที่สามารถ": 4716,
      "su": 4717,
      "2011": 4718,
      "##ตัวของ": 4719,
      "##ซีรีส์": 4720,
      "ตัวอย่าง": 4721,
      "เหล": 4722,
      "##เป็นครั้งแรก": 4723,
      "##ม้า": 4724,
      "##ปฏิก": 4725,
      "##โส": 4726,
      "##หมุน": 4727,
      "สหรัฐ": 4728,
      "ชนะ": 4729,
      "##สังเกต": 4730,
      "##ที่นั่ง": 4731,
      "pro": 4732,
      "##บัลลังก์": 4733,
      "##วาร": 4734,
      "##ิวัติ": 4735,
      "##เว็บ": 4736,
      "##ปราบ": 4737,
      "##โดนี": 4738,
      "##รวดเร็ว": 4739,
      "##เดช": 4740,
      "##เหมาะสม": 4741,
      "##ist": 4742,
      "##จ้าง": 4743,
      "##และเป็น": 4744,
      "##กล่าวถึง": 4745,
      "##นาการ": 4746,
      "##ค่อย": 4747,
      "##รายได้": 4748,
      "##ให้ความ": 4749,
      "##มุข": 4750,
      "##ี้ยว": 4751,
      "##โกล": 4752,
      "##ฤทธิ์": 4753,
      "##ในเมือง": 4754,
      "หลังจากที่": 4755,
      "##โบสถ": 4756,
      "##ค่อน": 4757,
      "##ลก": 4758,
      "##าศัย": 4759,
      "##ive": 4760,
      "##ั้ว": 4761,
      "2017": 4762,
      "##เกาหลีใต้": 4763,
      "formula": 4764,
      "พระบาทสมเด็จพระ": 4765,
      "##ร้องเพลง": 4766,
      "##เจ้าหญิง": 4767,
      "##นั่ง": 4768,
      "##แนะนำ": 4769,
      "##อย่างยิ่ง": 4770,
      "รอง": 4771,
      "บริเวณ": 4772,
      "##ทยาน": 4773,
      "##บรา": 4774,
      "##ปฏิวัติ": 4775,
      "##าระดับ": 4776,
      "##ell": 4777,
      "##ปินส์": 4778,
      "สง": 4779,
      "##ซุ": 4780,
      "ฤดูกาล": 4781,
      "##ช่าง": 4782,
      "##ีด": 4783,
      "โดยการ": 4784,
      "##ที่เมือง": 4785,
      "##เกียว": 4786,
      "##เหตุผล": 4787,
      "##แห่งนี้": 4788,
      "##คาม": 4789,
      "##ไล่": 4790,
      "ลักษณะ": 4791,
      "##ของอ": 4792,
      "ภาค": 4793,
      "มหา": 4794,
      "##กบ": 4795,
      "##ยุก": 4796,
      "##ที่เรียกว่า": 4797,
      "##ิ้น": 4798,
      "##ธ์": 4799,
      "##ประสิทธิภาพ": 4800,
      "##เรื่อย": 4801,
      "##35": 4802,
      "##วุฒ": 4803,
      "##ของนัก": 4804,
      "##หลง": 4805,
      "##คุ้ม": 4806,
      "##การค้า": 4807,
      "มาก": 4808,
      "be": 4809,
      "นอกจากนั้น": 4810,
      "##โดนีเซีย": 4811,
      "##ชะ": 4812,
      "จักรพรรดิ": 4813,
      "##เสธ": 4814,
      "##ิยม": 4815,
      "##็อค": 4816,
      "##ตีพิมพ์": 4817,
      "##ติเมตร": 4818,
      "##บูร": 4819,
      "##ud": 4820,
      "##บัว": 4821,
      "##ที่มีการ": 4822,
      "##สงบ": 4823,
      "le": 4824,
      "##สลาย": 4825,
      "##ถัด": 4826,
      "##ธน": 4827,
      "##วาน": 4828,
      "##หนุ่ม": 4829,
      "##ทราย": 4830,
      "##นโยบาย": 4831,
      "##เสรี": 4832,
      "##ที่ทำ": 4833,
      "ส่ง": 4834,
      "##วาล": 4835,
      "##วิช": 4836,
      "##มาถึง": 4837,
      "##วกาศ": 4838,
      "รางวัล": 4839,
      "##ษฐ์": 4840,
      "##เพาะ": 4841,
      "##พยพ": 4842,
      "##ว่ามี": 4843,
      "##เสื้อ": 4844,
      "##นาคาร": 4845,
      "##เพล": 4846,
      "ชุด": 4847,
      "##โต้": 4848,
      "##31": 4849,
      "##ยังเป็น": 4850,
      "##รักษ์": 4851,
      "##ถัง": 4852,
      "##81": 4853,
      "##สร้างขึ้น": 4854,
      "##เล่ม": 4855,
      "##ที่ใหญ่": 4856,
      "##รู้สึก": 4857,
      "##ปลด": 4858,
      "มาร์": 4859,
      "กองทัพ": 4860,
      "##เบื้อง": 4861,
      "แส": 4862,
      "##เดียน": 4863,
      "เฉ": 4864,
      "2006": 4865,
      "##เมะ": 4866,
      "##ไซต์": 4867,
      "##เคลื่อนไหว": 4868,
      "##ate": 4869,
      "ทุก": 4870,
      "สิ่ง": 4871,
      "##igh": 4872,
      "##ปลอดภัย": 4873,
      "2548": 4874,
      "##เปียน": 4875,
      "##ฟิก": 4876,
      "##ยาง": 4877,
      "##ฮิ": 4878,
      "##วิดีโอ": 4879,
      "##ทะเบียน": 4880,
      "##ทิน": 4881,
      "##เต็ด": 4882,
      "##คนิค": 4883,
      "ไม่มี": 4884,
      "##ชล": 4885,
      "##ของรัฐ": 4886,
      "##สีขาว": 4887,
      "##จัดขึ้น": 4888,
      "##พิส": 4889,
      "##ห้าม": 4890,
      "##บุร": 4891,
      "ไทย": 4892,
      "##พรรณ": 4893,
      "##เผยแพร่": 4894,
      "##ออ": 4895,
      "พื้น": 4896,
      "##เท้า": 4897,
      "##ก็มี": 4898,
      "##ฐม": 4899,
      "##ที่ได้รับ": 4900,
      "##56": 4901,
      "##ตราย": 4902,
      "##โดยใช้": 4903,
      "##มัง": 4904,
      "##กลับไป": 4905,
      "##สามัญ": 4906,
      "##ถือเป็น": 4907,
      "##บาดเจ็บ": 4908,
      "2009": 4909,
      "##เสือ": 4910,
      "##ด้วยความ": 4911,
      "##แปร": 4912,
      "##สำหรับการ": 4913,
      "##เด็จพระราชินี": 4914,
      "90": 4915,
      "##ยิน": 4916,
      "##รรยา": 4917,
      "##แก้ไข": 4918,
      "แผ": 4919,
      "เต": 4920,
      "เซนติเมตร": 4921,
      "##นาดา": 4922,
      "##ขวัญ": 4923,
      "##46": 4924,
      "##หน่วยงาน": 4925,
      "##เซนต์": 4926,
      "##ด้านการ": 4927,
      "##ทุกคน": 4928,
      "##็อป": 4929,
      "##เลียม": 4930,
      "##ณิช": 4931,
      "##สิ่งที่": 4932,
      "ปีก": 4933,
      "รัก": 4934,
      "กระทรวง": 4935,
      "##ิปต์": 4936,
      "##ใกล้เคียง": 4937,
      "##เคน": 4938,
      "##ทันที": 4939,
      "##ดาน": 4940,
      "เนื้อ": 4941,
      "หม่อม": 4942,
      "ภายใต้": 4943,
      "##วบรวม": 4944,
      "##พระราชวัง": 4945,
      "อาทิ": 4946,
      "##เสิร์ต": 4947,
      "แปล": 4948,
      "2007": 4949,
      "##ราคา": 4950,
      "##ริยา": 4951,
      "ใบ": 4952,
      "##โนะ": 4953,
      "##มิว": 4954,
      "กรุงเทพ": 4955,
      "##ฮ่อง": 4956,
      "##ซึ่งมี": 4957,
      "##สาบ": 4958,
      "แฟ": 4959,
      "##เน็ต": 4960,
      "##มหาสมุทร": 4961,
      "##เชื่อว่า": 4962,
      "##โดยเฉพาะ": 4963,
      "##ฟัน": 4964,
      "เพื่อให้": 4965,
      "##จอมเกล้าเจ้าอยู่หัว": 4966,
      "500": 4967,
      "##สถาปัตยกรรม": 4968,
      "##การสอน": 4969,
      "##หลอด": 4970,
      "##ที่มีชื่อเสียง": 4971,
      "##te": 4972,
      "##ไลน์": 4973,
      "##ก้าว": 4974,
      "##เธอร์แลนด์": 4975,
      "##ส่งเสริม": 4976,
      "##เชื้อสาย": 4977,
      "##ซึม": 4978,
      "##อิเล็ก": 4979,
      "สมาชิก": 4980,
      "##กษ์": 4981,
      "เย": 4982,
      "เป็นพระ": 4983,
      "##คอย": 4984,
      "##โปรแกรม": 4985,
      "as": 4986,
      "##ุส": 4987,
      "##ฬาลง": 4988,
      "##แต่วันที่": 4989,
      "##เวียน": 4990,
      "##คณิต": 4991,
      "##เทิง": 4992,
      "##ขัดแย้ง": 4993,
      "หนึ่ง": 4994,
      "##ผลให้": 4995,
      "##อพยพ": 4996,
      "##ไร้": 4997,
      "##ต่อไปนี้": 4998,
      "##เกี่ยวข้องกับ": 4999,
      "##ค่อนข้าง": 5000,
      "##57": 5001,
      "##กิโลเมตร": 5002,
      "##เดล": 5003,
      "##เกส": 5004,
      "##ภูเขา": 5005,
      "##อลลาร์": 5006,
      "ศาส": 5007,
      "##ชิน": 5008,
      "##แจ้ง": 5009,
      "##สระ": 5010,
      "##ณฑ์": 5011,
      "##art": 5012,
      "##ไนเต็ด": 5013,
      "ช่อง": 5014,
      "##ปฏิเสธ": 5015,
      "มาร": 5016,
      "##อนาค": 5017,
      "ท่า": 5018,
      "##คุก": 5019,
      "ดำ": 5020,
      "##อวกาศ": 5021,
      "##สาธารณ": 5022,
      "ชา": 5023,
      "##บาร์": 5024,
      "##ฮี": 5025,
      "##เสี่ยง": 5026,
      "##เล็กน้อย": 5027,
      "##กรุ": 5028,
      "##ภาพยนตร์เรื่อง": 5029,
      "##สะพาน": 5030,
      "##เนียม": 5031,
      "รัฐบาล": 5032,
      "ประมาณ": 5033,
      "2547": 5034,
      "##ิร์น": 5035,
      "ดาว": 5036,
      "##ที่พบ": 5037,
      "##ชี้": 5038,
      "##หอ": 5039,
      "##บ้าง": 5040,
      "##เลเซีย": 5041,
      "##แสน": 5042,
      "##ตราจารย์": 5043,
      "โครง": 5044,
      "##พน": 5045,
      "##อุณห": 5046,
      "##เอ็ด": 5047,
      "##ทดสอบ": 5048,
      "##จะใช้": 5049,
      "##กัมพูชา": 5050,
      "##การบิน": 5051,
      "##สุขภาพ": 5052,
      "ปรากฏ": 5053,
      "##ไตร": 5054,
      "##ัฟ": 5055,
      "##หง": 5056,
      "##ภพ": 5057,
      "##เพิ่มเติม": 5058,
      "##ขวา": 5059,
      "##สนอง": 5060,
      "##โปรดเกล้าฯ": 5061,
      "กา": 5062,
      "##ari": 5063,
      "##รัชสมัย": 5064,
      "อังกฤษ": 5065,
      "##ลอนดอน": 5066,
      "ฝ่าย": 5067,
      "ศรี": 5068,
      "##ตั้งแต่ปี": 5069,
      "##สวรรค์": 5070,
      "##ัทธิ": 5071,
      "##าลา": 5072,
      "##ศิล": 5073,
      "##ob": 5074,
      "##สีน้ำ": 5075,
      "##ภรณ์": 5076,
      "##พี่น้อง": 5077,
      "โก": 5078,
      "##แรม": 5079,
      "##สัก": 5080,
      "ก่อตั้ง": 5081,
      "##ผู้ที่": 5082,
      "##สื่อสาร": 5083,
      "##โฆษ": 5084,
      "##ุยส์": 5085,
      "ปล": 5086,
      "##92": 5087,
      "##84": 5088,
      "เท่า": 5089,
      "##นิส": 5090,
      "ลง": 5091,
      "##พระนาง": 5092,
      "##คัน": 5093,
      "##กองกำลัง": 5094,
      "##ตำนาน": 5095,
      "##นิตยสาร": 5096,
      "te": 5097,
      "##ปาป": 5098,
      "##นี้ได้": 5099,
      "##แวร์": 5100,
      "##ตรวจสอบ": 5101,
      "เหรียญ": 5102,
      "##ฝี": 5103,
      "ระดับ": 5104,
      "##ในเวลา": 5105,
      "##ียิปต์": 5106,
      "##รวมถึง": 5107,
      "##กราน": 5108,
      "##ชำ": 5109,
      "นก": 5110,
      "##85": 5111,
      "เทศบาล": 5112,
      "##เขาก็": 5113,
      "##หม่อม": 5114,
      "##เนื้อหา": 5115,
      "##เป้าหมาย": 5116,
      "##รายชื่อ": 5117,
      "##เร็ง": 5118,
      "##ฟิลิปปินส์": 5119,
      "##อารมณ์": 5120,
      "35": 5121,
      "เข้าร่วมแข่งขันกีฬา": 5122,
      "##ข้า": 5123,
      "##ัฏ": 5124,
      "##หาส": 5125,
      "โดยที่": 5126,
      "คำว่า": 5127,
      "##สวรรคต": 5128,
      "##ดิโอ": 5129,
      "รายการ": 5130,
      "ผ่าน": 5131,
      "##ue": 5132,
      "##ลำตัว": 5133,
      "##ดก": 5134,
      "ประตู": 5135,
      "##ตุเกส": 5136,
      "##บุรุษ": 5137,
      "ระหว่างวันที่": 5138,
      "##ใช้อ": 5139,
      "##ัตรู": 5140,
      "##รัน": 5141,
      "##ล้าง": 5142,
      "วิน": 5143,
      "##วิส": 5144,
      "##เฉลี่ย": 5145,
      "##ใช้ในการ": 5146,
      "##แร": 5147,
      "อีกทั้ง": 5148,
      "##ชาร์ต": 5149,
      "##ีร์": 5150,
      "##รูปร่าง": 5151,
      "##หลักของ": 5152,
      "##พรี": 5153,
      "วิล": 5154,
      "แซ": 5155,
      "##นี้จะ": 5156,
      "##ฉลอง": 5157,
      "##ฤต": 5158,
      "##ไปที่": 5159,
      "##เผ่า": 5160,
      "##we": 5161,
      "##เชียน": 5162,
      "##่ย": 5163,
      "##ลดลง": 5164,
      "##ทางหลวง": 5165,
      "##คนหนึ่ง": 5166,
      "##บางครั้ง": 5167,
      "##โดยตรง": 5168,
      "แสดง": 5169,
      "##โดยไม่": 5170,
      "##สีมา": 5171,
      "ประธาน": 5172,
      "##บ่อย": 5173,
      "##ถอน": 5174,
      "ใกล้": 5175,
      "##สะด": 5176,
      "##ในงาน": 5177,
      "##ซับ": 5178,
      "##กิ่ง": 5179,
      "##อำเภ": 5180,
      "##ตีน": 5181,
      "##ืม": 5182,
      "##บัตร": 5183,
      "##ราชา": 5184,
      "##ผู้มี": 5185,
      "##อเร": 5186,
      "##เต้น": 5187,
      "##ขุนนาง": 5188,
      "##ฝัง": 5189,
      "##ั้งเดิม": 5190,
      "##ระยะเวลา": 5191,
      "##เมืองหลวง": 5192,
      "สนาม": 5193,
      "##จอร์": 5194,
      "##หก": 5195,
      "##สถานะ": 5196,
      "##พระบรม": 5197,
      "##ในขณะนั้น": 5198,
      "##21": 5199,
      "##รุ่ง": 5200,
      "##ผิดชอบ": 5201,
      "##ความรู้สึก": 5202,
      "##เมิน": 5203,
      "##all": 5204,
      "แทน": 5205,
      "##23": 5206,
      "##สไต": 5207,
      "##เป็นหนึ่งใน": 5208,
      "##คอมมิวน": 5209,
      "##ส่วนของ": 5210,
      "##กลัว": 5211,
      "บี": 5212,
      "##รวบรวม": 5213,
      "##อินโดนีเซีย": 5214,
      "##ฬาลงกรณ์": 5215,
      "##ในโอลิมปิก": 5216,
      "##ให้มี": 5217,
      "##สถิติ": 5218,
      "cl": 5219,
      "##ie": 5220,
      "ดอก": 5221,
      "##ษย์": 5222,
      "คา": 5223,
      "##เทคนิค": 5224,
      "ผลงาน": 5225,
      "##ชายฝั่ง": 5226,
      "##ไชย": 5227,
      "##ศิลป์": 5228,
      "โบ": 5229,
      "##กีฬ": 5230,
      "##ในชื่อ": 5231,
      "##ได้รับความนิยม": 5232,
      "คล": 5233,
      "##พ่าย": 5234,
      "แบ่ง": 5235,
      "##ผม": 5236,
      "##ประถม": 5237,
      "190": 5238,
      "แฮ": 5239,
      "##ปริญญาตรี": 5240,
      "พุทธศักราช": 5241,
      "เรือ": 5242,
      "##สถาปนา": 5243,
      "##สีแดง": 5244,
      "##เนส": 5245,
      "##โฉ": 5246,
      "##พยากร": 5247,
      "วี": 5248,
      "##ที่รู้จัก": 5249,
      "ต้น": 5250,
      "##ไปแล้ว": 5251,
      "2004": 5252,
      "ศูนย์": 5253,
      "2000": 5254,
      "หน้า": 5255,
      "วงศ์": 5256,
      "##เมียร์": 5257,
      "##แลก": 5258,
      "นัด": 5259,
      "ยุ": 5260,
      "##าต": 5261,
      "##ผู้หญิง": 5262,
      "##ไหม": 5263,
      "ภายใน": 5264,
      "##ราน": 5265,
      "##ถี": 5266,
      "##เป็นสมาชิก": 5267,
      "##การเลือกตั้ง": 5268,
      "แต่ใน": 5269,
      "อาคาร": 5270,
      "##เท่ากับ": 5271,
      "##ไม่เกิน": 5272,
      "##พฤติกรรม": 5273,
      "##ซีน": 5274,
      "ละ": 5275,
      "##ชาวอเมริกัน": 5276,
      "##ซะ": 5277,
      "##เฟอร์": 5278,
      "##25": 5279,
      "##ast": 5280,
      "##หร": 5281,
      "##ของวง": 5282,
      "##ข์": 5283,
      "เรียกว่า": 5284,
      "##ant": 5285,
      "##ออร์": 5286,
      "##เคิล": 5287,
      "##โชว์": 5288,
      "##วิ่ง": 5289,
      "##ในรูปแบบ": 5290,
      "##แหลม": 5291,
      "##อนาคต": 5292,
      "##โตร": 5293,
      "##โภค": 5294,
      "##ี้ยน": 5295,
      "แข": 5296,
      "##อริ": 5297,
      "##เจ้าหน้าที่": 5298,
      "ดิ": 5299,
      "##นี่": 5300,
      "##้ามเนื้อ": 5301,
      "##บรรจุ": 5302,
      "ไร่": 5303,
      "##36": 5304,
      "##เยื่อ": 5305,
      "##สร้างความ": 5306,
      "##ไส": 5307,
      "เกม": 5308,
      "##ายนอก": 5309,
      "สาขา": 5310,
      "##สมรสกับ": 5311,
      "##สนิท": 5312,
      "##เมล": 5313,
      "##ผู้ป่วย": 5314,
      "##โพธิ": 5315,
      "##ทัล": 5316,
      "จุด": 5317,
      "##ปฐม": 5318,
      "##ian": 5319,
      "##สิ้นพระชนม์": 5320,
      "##โดยทั่วไป": 5321,
      "##าจ": 5322,
      "##ไต้": 5323,
      "##ศัตรู": 5324,
      "##เล่นใน": 5325,
      "##คอมมิวนิสต์": 5326,
      "##ว่าร": 5327,
      "##วช": 5328,
      "##คุณภาพ": 5329,
      "##ขึ้นไป": 5330,
      "##14": 5331,
      "##แลน": 5332,
      "sc": 5333,
      "##ของตนเอง": 5334,
      "##ติดตาม": 5335,
      "##ระหว่างประเทศ": 5336,
      "##วิลด์": 5337,
      "##สาเหตุ": 5338,
      "โท": 5339,
      "##การทำงาน": 5340,
      "##ให้เห็น": 5341,
      "##โร่": 5342,
      "##ที่อยู่ใน": 5343,
      "สถาบัน": 5344,
      "##เพณี": 5345,
      "จี": 5346,
      "##กำแพง": 5347,
      "##ain": 5348,
      "##ภาษาไทย": 5349,
      "##คอนเสิร์ต": 5350,
      "##พระนคร": 5351,
      "##ช้า": 5352,
      "##บันเทิง": 5353,
      "##โปร์": 5354,
      "ศิลป": 5355,
      "รา": 5356,
      "##ชาญ": 5357,
      "แนว": 5358,
      "ชี": 5359,
      "##เรือง": 5360,
      "##ขนาน": 5361,
      "##เนเธอร์แลนด์": 5362,
      "##่นั้น": 5363,
      "##ย้ายไป": 5364,
      "##ออสเตรีย": 5365,
      "##ที่สูง": 5366,
      "##ครองราชย์": 5367,
      "ตรง": 5368,
      "##ผลกระทบ": 5369,
      "##เมนต์": 5370,
      "##แขน": 5371,
      "คู่": 5372,
      "##รษ": 5373,
      "##มีลักษณะ": 5374,
      "##รัชกาลที่": 5375,
      "##ชัก": 5376,
      "##จนกระทั่ง": 5377,
      "##พระบรมราช": 5378,
      "##วิศว": 5379,
      "##โปรตุเกส": 5380,
      "##ผ่า": 5381,
      "##ของโลก": 5382,
      "##คิ": 5383,
      "tr": 5384,
      "##ลบ": 5385,
      "##แต่อ": 5386,
      "##เพื่อการ": 5387,
      "##เชื่อมต่อ": 5388,
      "เอก": 5389,
      "##ทุกวัน": 5390,
      "##รวมทั้ง": 5391,
      "สถาน": 5392,
      "##และผู้": 5393,
      "##สภ": 5394,
      "##ศรีอยุธยา": 5395,
      "##อาหรับ": 5396,
      "จิ": 5397,
      "ฉบับ": 5398,
      "##คอร์": 5399,
      "##หลายคน": 5400,
      "ผลิต": 5401,
      "##ซิต": 5402,
      "ประเภท": 5403,
      "##ธารณะ": 5404,
      "##บอน": 5405,
      "##ชื่น": 5406,
      "หลวง": 5407,
      "##ลอย": 5408,
      "39": 5409,
      "##ฉัน": 5410,
      "##ชวน": 5411,
      "##ระบ": 5412,
      "##มาก่อน": 5413,
      "ร่วมกับ": 5414,
      "##ดั้งเดิม": 5415,
      "##ทยา": 5416,
      "##เขตร": 5417,
      "##ตรอน": 5418,
      "##เจ้าน": 5419,
      "##ดีย์": 5420,
      "##ดุล": 5421,
      "##ื่อม": 5422,
      "##แบร์": 5423,
      "##ชนิดหนึ่ง": 5424,
      "##มงคล": 5425,
      "##87": 5426,
      "##24": 5427,
      "##พิธภัณฑ์": 5428,
      "##ร้อยละ": 5429,
      "##ทายาท": 5430,
      "##ประดับ": 5431,
      "##ัดแปลง": 5432,
      "##สอด": 5433,
      "##ของคน": 5434,
      "##ทางตอน": 5435,
      "##ไม่นาน": 5436,
      "##ักดิ์": 5437,
      "##ace": 5438,
      "เป็นบุตร": 5439,
      "##าราม": 5440,
      "ph": 5441,
      "##สาธารณะ": 5442,
      "##มั่นคง": 5443,
      "##ที่เคย": 5444,
      "##น้ำหนัก": 5445,
      "##ขั้ว": 5446,
      "##มาจากการ": 5447,
      "##สันตะ": 5448,
      "##พระราชบัญญัติ": 5449,
      "##กันเป็น": 5450,
      "ประจำ": 5451,
      "##ในการแข่งขัน": 5452,
      "แจ": 5453,
      "##ction": 5454,
      "##พงษ์": 5455,
      "##ต้า": 5456,
      "##สว": 5457,
      "##ิจฉ": 5458,
      "##แท้จริง": 5459,
      "##ib": 5460,
      "##ได้ดี": 5461,
      "บรร": 5462,
      "##เครือข่าย": 5463,
      "##37": 5464,
      "##ของความ": 5465,
      "##ฝัน": 5466,
      "##ปัก": 5467,
      "ไว": 5468,
      "##our": 5469,
      "จอห์น": 5470,
      "##แอร์": 5471,
      "##ที่สาม": 5472,
      "##ฏิ": 5473,
      "##ก็ตาม": 5474,
      "2019": 5475,
      "##งบ": 5476,
      "ต่อมาในปี": 5477,
      "##แคนาดา": 5478,
      "##บิล": 5479,
      "##ผี": 5480,
      "##โดร": 5481,
      "##ทั้งคู่": 5482,
      "##สถานการณ์": 5483,
      "##มาแล้ว": 5484,
      "##86": 5485,
      "##เจ้าของ": 5486,
      "##ly": 5487,
      "##เรียนการสอน": 5488,
      "จะมี": 5489,
      "##กวน": 5490,
      "##16": 5491,
      "##สวม": 5492,
      "เอฟ": 5493,
      "##เรียนรู้": 5494,
      "##มหาราช": 5495,
      "##อาส": 5496,
      "##พระมหากษัตริย์": 5497,
      "##ดูด": 5498,
      "หน่วย": 5499,
      "##มายัง": 5500,
      "##ารีส": 5501,
      "##เชล": 5502,
      "##โฆษณา": 5503,
      "##นักร้อง": 5504,
      "##๋ว": 5505,
      "##ซ้ำ": 5506,
      "##ปรึกษา": 5507,
      "##สะสม": 5508,
      "##ไพร": 5509,
      "และได้รับ": 5510,
      "##ack": 5511,
      "##ัณ": 5512,
      "##ลาน": 5513,
      "##ตาก": 5514,
      "##ัมภีร์": 5515,
      "##อรี": 5516,
      "2535": 5517,
      "##เสาร์": 5518,
      "##คนแรก": 5519,
      "##ตะวันตกเฉียง": 5520,
      "โดยเป็น": 5521,
      "##หรือไม่": 5522,
      "ข้อ": 5523,
      "##ซอฟ": 5524,
      "##ยอง": 5525,
      "ก็ได้": 5526,
      "##หลาน": 5527,
      "##ซี่": 5528,
      "##ภายนอก": 5529,
      "##สป": 5530,
      "##กบฏ": 5531,
      "##แบน": 5532,
      "##กี่": 5533,
      "##34": 5534,
      "##ที่เหลือ": 5535,
      "##สโมสรฟุตบอล": 5536,
      "##รินทร์": 5537,
      "##ิริยา": 5538,
      "##รุง": 5539,
      "แม่": 5540,
      "##เดนม": 5541,
      "##กรด": 5542,
      "##ทุม": 5543,
      "##คโปร์": 5544,
      "is": 5545,
      "##้ล": 5546,
      "##หลบ": 5547,
      "##สันตะปาป": 5548,
      "##อยู่อ": 5549,
      "พร้อมกับ": 5550,
      "##รงค์": 5551,
      "##ในวัน": 5552,
      "##ฬาลงกรณ์มหาวิทยาลัย": 5553,
      "แค": 5554,
      "##้วง": 5555,
      "##น้ำมัน": 5556,
      "เปล": 5557,
      "##เบิร์ก": 5558,
      "##โดยมี": 5559,
      "##ตุ้น": 5560,
      "##ซูเปอร์": 5561,
      "##ปัจ": 5562,
      "##ฮัน": 5563,
      "##กลิ่น": 5564,
      "##ry": 5565,
      "##พระราชโอรส": 5566,
      "am": 5567,
      "##สต": 5568,
      "อำเภอเมือง": 5569,
      "##สูญเสีย": 5570,
      "##ร็อก": 5571,
      "##ผัส": 5572,
      "ในสมัย": 5573,
      "จบ": 5574,
      "##วิเคราะห์": 5575,
      "##วีเดน": 5576,
      "##ที่ผ่าน": 5577,
      "on": 5578,
      "และในปี": 5579,
      "##กล้อง": 5580,
      "##ปีก": 5581,
      "##หลายครั้ง": 5582,
      "2539": 5583,
      "##อาณ": 5584,
      "##ราง": 5585,
      "##ความผิด": 5586,
      "##ยกเลิก": 5587,
      "he": 5588,
      "##ตัวแทน": 5589,
      "มีชื่อ": 5590,
      "โย": 5591,
      "##ดื": 5592,
      "##ดม": 5593,
      "##เกี่ยวกับการ": 5594,
      "##รับผิดชอบ": 5595,
      "นคร": 5596,
      "##รับรอง": 5597,
      "##กัง": 5598,
      "##ระหว่างการ": 5599,
      "##ประเมิน": 5600,
      "##17": 5601,
      "##ใหม": 5602,
      "##มี่": 5603,
      "##ญญาณ": 5604,
      "##สติ": 5605,
      "##นักกีฬา": 5606,
      "##อัง": 5607,
      "##ไปเป็น": 5608,
      "##ภารกิจ": 5609,
      "##พ้น": 5610,
      "##พาณิช": 5611,
      "##อัส": 5612,
      "45": 5613,
      "##อัก": 5614,
      "โฮ": 5615,
      "##เกณฑ์": 5616,
      "##ที่เขา": 5617,
      "##ในพื้นที่": 5618,
      "##ดึง": 5619,
      "##๊ะ": 5620,
      "2546": 5621,
      "##วยอร์ก": 5622,
      "##ย่อง": 5623,
      "##อนด์": 5624,
      "แต่อ": 5625,
      "##ลด์": 5626,
      "##อันตราย": 5627,
      "##ดร": 5628,
      "สงคราม": 5629,
      "ไฟ": 5630,
      "##เสนา": 5631,
      "##เดนมาร์ก": 5632,
      "##จำลอง": 5633,
      "จุ": 5634,
      "##อท": 5635,
      "ex": 5636,
      "##ชิด": 5637,
      "##เสม": 5638,
      "##อาณาเขต": 5639,
      "##ong": 5640,
      "##บาน": 5641,
      "##ของตัวเอง": 5642,
      "##ส่วนตัว": 5643,
      "โดยได้": 5644,
      "##ซิฟิก": 5645,
      "##อียิปต์": 5646,
      "##รัตน์": 5647,
      "##ตี้": 5648,
      "##เบิร์ต": 5649,
      "##ประชาชาติ": 5650,
      "องค์การ": 5651,
      "##โปแลนด์": 5652,
      "##วางแผน": 5653,
      "##นิกาย": 5654,
      "##ทองคำ": 5655,
      "##อยาก": 5656,
      "ก่อนที่จะ": 5657,
      "##ในกลุ่ม": 5658,
      "##เกิดการ": 5659,
      "พระองค์เจ้า": 5660,
      "##กรอบ": 5661,
      "##ดาบ": 5662,
      "ปีก่อน": 5663,
      "##มู": 5664,
      "##ก่อนหน้า": 5665,
      "##ที่ทำให้": 5666,
      "เกาะ": 5667,
      "##เดินทางไป": 5668,
      "##เอช": 5669,
      "สาร": 5670,
      "##ฤกษ์": 5671,
      "##เวิร์ด": 5672,
      "##พนม": 5673,
      "##มหาด": 5674,
      "##ในรอบ": 5675,
      "##อยู่บน": 5676,
      "##งะ": 5677,
      "##บะ": 5678,
      "2005": 5679,
      "##นิวเคล": 5680,
      "##เด็น": 5681,
      "bl": 5682,
      "แต่ไม่": 5683,
      "##แทนที่": 5684,
      "##คิว": 5685,
      "##เรียกร": 5686,
      "บุญ": 5687,
      "##สะดวก": 5688,
      "ติด": 5689,
      "##ใต้ดิน": 5690,
      "##สำคัญของ": 5691,
      "ขนาด": 5692,
      "##ณุ": 5693,
      "##เข้ากับ": 5694,
      "แปลว่า": 5695,
      "สหรัฐอเมริกา": 5696,
      "##ub": 5697,
      "ภาษ": 5698,
      "##พัง": 5699,
      "##สนธิ": 5700,
      "##ens": 5701,
      "วิทยาลัย": 5702,
      "##ในที่สุด": 5703,
      "##ย่าง": 5704,
      "2544": 5705,
      "##ถึงความ": 5706,
      "##ตูดิโอ": 5707,
      "##ขบวน": 5708,
      "##ภิก": 5709,
      "##อิสลาม": 5710,
      "ก่อนจะ": 5711,
      "##ศักดิ์สิทธิ์": 5712,
      "##ซาร์": 5713,
      "##ษฐา": 5714,
      "##ปัญญา": 5715,
      "##ฟ่า": 5716,
      "##ที่โรงเรียน": 5717,
      "##เซียน": 5718,
      "##มเห": 5719,
      "##้อก": 5720,
      "##ของกลุ่ม": 5721,
      "เจ้าฟ้า": 5722,
      "##ินทร์": 5723,
      "pl": 5724,
      "##านี้": 5725,
      "##ผลิตภัณฑ์": 5726,
      "คะ": 5727,
      "พัน": 5728,
      "##ากลาง": 5729,
      "##รัชญา": 5730,
      "##ศึกษาธิการ": 5731,
      "##เหล่านั้น": 5732,
      "##ที่ว่า": 5733,
      "##กล้า": 5734,
      "##ประสาน": 5735,
      "##คือการ": 5736,
      "##ยืนยัน": 5737,
      "##ดาล": 5738,
      "##ลิส": 5739,
      "##อลลาร์สหรัฐ": 5740,
      "##ไหน": 5741,
      "##เหมือนกับ": 5742,
      "กรุงเทพมหานคร": 5743,
      "##ของนาย": 5744,
      "##และได้": 5745,
      "##ขาวิชา": 5746,
      "ในปัจจุบัน": 5747,
      "##ติดเชื้อ": 5748,
      "2543": 5749,
      "##กล้ามเนื้อ": 5750,
      "##แพทย": 5751,
      "ac": 5752,
      "##ai": 5753,
      "##สิ่งมีชีวิต": 5754,
      "มะ": 5755,
      "##ลงทุน": 5756,
      "เอส": 5757,
      "##เอกชน": 5758,
      "ซึ่งจะ": 5759,
      "##ตั้งชื่อ": 5760,
      "##ในจังหวัด": 5761,
      "##ok": 5762,
      "##สุวรรณ": 5763,
      "สำนักงาน": 5764,
      "##านิคม": 5765,
      "##อุณหภูมิ": 5766,
      "##พูล": 5767,
      "##ลัก": 5768,
      "300": 5769,
      "##กรุณา": 5770,
      "##ิมะ": 5771,
      "เดอ": 5772,
      "##ปารีส": 5773,
      "##ศาสน": 5774,
      "##ญาติ": 5775,
      "2542": 5776,
      "##เธอก": 5777,
      "##อว์": 5778,
      "##ล่ม": 5779,
      "##พรหม": 5780,
      "##สหภาพโซเวียต": 5781,
      "##บิด": 5782,
      "##ให้การ": 5783,
      "##ละครโทรทัศน์": 5784,
      "##ภรรยา": 5785,
      "##ยุบ": 5786,
      "นิว": 5787,
      "สะ": 5788,
      "##สิ่งแวดล้อม": 5789,
      "มิล": 5790,
      "2545": 5791,
      "109": 5792,
      "##สีดำ": 5793,
      "##มีส่วน": 5794,
      "ในฐานะ": 5795,
      "##บวก": 5796,
      "แก้": 5797,
      "นำแสดงโดย": 5798,
      "##ปาง": 5799,
      "##บัญชี": 5800,
      "##เทว": 5801,
      "##สว่าง": 5802,
      "##ที่ได้รับการ": 5803,
      "##ติดกับ": 5804,
      "##ความหมาย": 5805,
      "##ประเพณี": 5806,
      "##ปู": 5807,
      "##เวียง": 5808,
      "##ถาน": 5809,
      "##เขาส": 5810,
      "##ิจฉัย": 5811,
      "##ข้าร": 5812,
      "##โดดเด่น": 5813,
      "โรค": 5814,
      "##เจดีย์": 5815,
      "##ถู": 5816,
      "แผ่น": 5817,
      "##ุษย": 5818,
      "##โลหะ": 5819,
      "##คล้ายกับ": 5820,
      "##มงกุฎ": 5821,
      "##ิยาย": 5822,
      "##เสบ": 5823,
      "##per": 5824,
      "##นุม": 5825,
      "##ต้นไม้": 5826,
      "##เว็บไซต์": 5827,
      "##เทียน": 5828,
      "ฟุตบอล": 5829,
      "นาที": 5830,
      "##มิล": 5831,
      "##ในแต่ละ": 5832,
      "##uc": 5833,
      "##คาท": 5834,
      "##กระตุ้น": 5835,
      "##ฟื้นฟู": 5836,
      "มีลักษณะ": 5837,
      "##เปิดเผย": 5838,
      "##ฮ่องกง": 5839,
      "##ริช": 5840,
      "##พอใจ": 5841,
      "นั่น": 5842,
      "##ไปทาง": 5843,
      "##คติ": 5844,
      "##ดัดแปลง": 5845,
      "##คนเดียว": 5846,
      "##บัด": 5847,
      "33": 5848,
      "##รังสี": 5849,
      "##ห่างจาก": 5850,
      "##บุคล": 5851,
      "##วางจำหน่าย": 5852,
      "##ถ่ายทอด": 5853,
      "##นวณ": 5854,
      "##เทียบกับ": 5855,
      "##ment": 5856,
      "##ไม่ใช่": 5857,
      "##สัมผัส": 5858,
      "เป็นนักแสดง": 5859,
      "##ข้อความ": 5860,
      "##เป็นเวลา": 5861,
      "##เก็ต": 5862,
      "2540": 5863,
      "##มาเลเซีย": 5864,
      "##ชาน": 5865,
      "##ไม่ให้": 5866,
      "##ราชบัลลังก์": 5867,
      "เขียน": 5868,
      "##pt": 5869,
      "พระนาง": 5870,
      "##ขุด": 5871,
      "##ดื่ม": 5872,
      "##ดี้": 5873,
      "##บวช": 5874,
      "##็กซิ": 5875,
      "##ชิต": 5876,
      "หลาย": 5877,
      "##ในด้าน": 5878,
      "##ธนาคาร": 5879,
      "##นอน": 5880,
      "##มีผู้": 5881,
      "##ประการ": 5882,
      "##เห็นได้": 5883,
      "เรา": 5884,
      "##มรดก": 5885,
      "##ากา": 5886,
      "##อายุได้": 5887,
      "##ight": 5888,
      "##ามิ": 5889,
      "##สมเด็จพระเจ้า": 5890,
      "##les": 5891,
      "##โว": 5892,
      "##ิ้ล": 5893,
      "##ิจิ": 5894,
      "##อัคร": 5895,
      "##ผูก": 5896,
      "##รรถ": 5897,
      "##ความจริง": 5898,
      "##คาบ": 5899,
      "ถึงแม้": 5900,
      "##ดะ": 5901,
      "##และนัก": 5902,
      "##ิตติ": 5903,
      "##ราชสีมา": 5904,
      "ตะ": 5905,
      "##อาย": 5906,
      "##เครื่องยนต์": 5907,
      "##์ม": 5908,
      "##สวยงาม": 5909,
      "##ของมัน": 5910,
      "##สตาร์": 5911,
      "เป็นเมือง": 5912,
      "##ass": 5913,
      "##ทรงพระ": 5914,
      "##แชมเปียน": 5915,
      "##มัส": 5916,
      "##มเหสี": 5917,
      "##อดุล": 5918,
      "จีน": 5919,
      "##ตุลาคม": 5920,
      "##ริด": 5921,
      "##นาร": 5922,
      "##นั่น": 5923,
      "เสียง": 5924,
      "ชั่ว": 5925,
      "##อนุม": 5926,
      "คาร์": 5927,
      "##รักษ": 5928,
      "##ure": 5929,
      "##สงครามโลกครั้งที่สอง": 5930,
      "##แปซิฟิก": 5931,
      "##ill": 5932,
      "##อลิก": 5933,
      "##สถานีโทรทัศน์": 5934,
      "##ก็ยัง": 5935,
      "##ของมนุษย์": 5936,
      "##ทัพบ": 5937,
      "##เคลื่อนที่": 5938,
      "##มาตั้งแต่": 5939,
      "##ษุ": 5940,
      "##เอกราช": 5941,
      "##ไว้ว่า": 5942,
      "##ปรากฏตัว": 5943,
      "##27": 5944,
      "##ของพวกเขา": 5945,
      "##เจ็ด": 5946,
      "##ิฟ": 5947,
      "##ในตอน": 5948,
      "##ไวรัส": 5949,
      "##หนังสือพิมพ์": 5950,
      "##แห้ง": 5951,
      "##ชัยชนะ": 5952,
      "##เขตร้อน": 5953,
      "พื้นที่": 5954,
      "##การผลิต": 5955,
      "##เป็นฝ่าย": 5956,
      "เป็นภาพยนตร์": 5957,
      "##ตอบสนอง": 5958,
      "กลับ": 5959,
      "##เปีย": 5960,
      "##อย่างดี": 5961,
      "##เบิลยู": 5962,
      "ชิน": 5963,
      "##รหัส": 5964,
      "##เอกสาร": 5965,
      "##ประดิษฐ์": 5966,
      "ทะ": 5967,
      "##ฝีมือ": 5968,
      "##คนอื่น": 5969,
      "หนังสือ": 5970,
      "fr": 5971,
      "##ติดต่อกับ": 5972,
      "##ีกา": 5973,
      "78": 5974,
      "เหม": 5975,
      "##โกร": 5976,
      "##ทักษ": 5977,
      "##ord": 5978,
      "##ถือว่า": 5979,
      "##ฟรี": 5980,
      "##นั้นมี": 5981,
      "นอกจากนี้ยัง": 5982,
      "##one": 5983,
      "##กว้างขวาง": 5984,
      "##ยกย่อง": 5985,
      "col": 5986,
      "##จำเป็นต้อง": 5987,
      "##งค์": 5988,
      "##อย่างรวดเร็ว": 5989,
      "##ศิษย์": 5990,
      "##เมียร์ลีก": 5991,
      "##คณิตศาสตร์": 5992,
      "##แทรก": 5993,
      "##แรงงาน": 5994,
      "##ชุมนุม": 5995,
      "99": 5996,
      "##ถี่": 5997,
      "##จุลจอมเกล้าเจ้าอยู่หัว": 5998,
      "##นัย": 5999,
      "##ภาพของ": 6000,
      "##แก๊": 6001,
      "##เข้าไปใน": 6002,
      "##ยึดครอง": 6003,
      "##หุ้น": 6004,
      "##ท้อน": 6005,
      "##ักดี": 6006,
      "##แม่เหล็ก": 6007,
      "##เกินไป": 6008,
      "##ในอดีต": 6009,
      "โล": 6010,
      "##หัก": 6011,
      "##ทัวร์": 6012,
      "##พรรดิน": 6013,
      "##ปฏิรูป": 6014,
      "##ศิริ": 6015,
      "##วิญญาณ": 6016,
      "##คุณสมบัติ": 6017,
      "##นั้นเป็น": 6018,
      "##เชอร์": 6019,
      "49": 6020,
      "##เฝ": 6021,
      "ตารางกิโลเมตร": 6022,
      "##ศล": 6023,
      "ประเทศไทย": 6024,
      "##อาณานิคม": 6025,
      "##act": 6026,
      "สัต": 6027,
      "##ort": 6028,
      "##ธิราช": 6029,
      "##โบสถ์": 6030,
      "##จม": 6031,
      "##ดิว": 6032,
      "ซา": 6033,
      "##ซอน": 6034,
      "ลี": 6035,
      "##แช": 6036,
      "##อุทยาน": 6037,
      "##อุดมศึกษา": 6038,
      "และความ": 6039,
      "##หวัน": 6040,
      "##กำจัด": 6041,
      "##ชั่วคราว": 6042,
      "##เข้ารับ": 6043,
      "##อว": 6044,
      "สโมสรฟุตบอล": 6045,
      "##ในระบบ": 6046,
      "##ational": 6047,
      "กิ": 6048,
      "##วินิจฉัย": 6049,
      "##ของรัฐบาล": 6050,
      "##ต่อจาก": 6051,
      "นี้": 6052,
      "##โห": 6053,
      "คณะกรรมการ": 6054,
      "##งบประมาณ": 6055,
      "พี": 6056,
      "มีผู้": 6057,
      "##คำนวณ": 6058,
      "เอ็ม": 6059,
      "##ลฯ": 6060,
      "ทั้งสอง": 6061,
      "##โตเกียว": 6062,
      "##รถยนต์": 6063,
      "##บรมวงศ์เธอ": 6064,
      "inter": 6065,
      "##เป็นอันดับ": 6066,
      "เนื่อง": 6067,
      "##โค้ง": 6068,
      "##บราซิล": 6069,
      "##ฟิน": 6070,
      "##26": 6071,
      "##เปิล": 6072,
      "มาจาก": 6073,
      "##ไปจาก": 6074,
      "##การศึกษาระดับ": 6075,
      "##มิได้": 6076,
      "พอ": 6077,
      "ไท": 6078,
      "##ในทาง": 6079,
      "##ลัทธิ": 6080,
      "##สวีเดน": 6081,
      "##ที่สร้าง": 6082,
      "ทอง": 6083,
      "##ประกัน": 6084,
      "และเมื่อ": 6085,
      "##ทัพบก": 6086,
      "จู": 6087,
      "##เชี่ยว": 6088,
      "##ฮัม": 6089,
      "##ประสูติ": 6090,
      "##พื้นเมือง": 6091,
      "##หมู่เกาะ": 6092,
      "##บรรดา": 6093,
      "##รภ": 6094,
      "##บรรยาย": 6095,
      "##ลล์": 6096,
      "ma": 6097,
      "##พาณิชย์": 6098,
      "ฯลฯ": 6099,
      "##ตอม": 6100,
      "##ราเอล": 6101,
      "##ฟอร์ด": 6102,
      "wo": 6103,
      "##ปุ": 6104,
      "เช่นเดียวกับ": 6105,
      "##สรรค์": 6106,
      "sy": 6107,
      "##เผา": 6108,
      "##ทาร": 6109,
      "##ภูมิพล": 6110,
      "##รด": 6111,
      "##ท่าอากาศยาน": 6112,
      "##สแต": 6113,
      "##โหล": 6114,
      "##ิโอ": 6115,
      "##ความเร็ว": 6116,
      "##องค์ประกอบ": 6117,
      "สัง": 6118,
      "##ตาราง": 6119,
      "แต่ละ": 6120,
      "##ทรอน": 6121,
      "2002": 6122,
      "##ที่มา": 6123,
      "##เช่นนี้": 6124,
      "##นิติ": 6125,
      "##หนาแน่น": 6126,
      "##รณ": 6127,
      "##ถ่ายภาพ": 6128,
      "##ขั้นตอน": 6129,
      "##ชายของ": 6130,
      "ประเทศญี่ปุ่น": 6131,
      "ล้านบาท": 6132,
      "ตลอดจน": 6133,
      "##เป็นอย่างมาก": 6134,
      "##พระชนม": 6135,
      "พรรษา": 6136,
      "##ไปสู่": 6137,
      "bo": 6138,
      "##จอห์น": 6139,
      "##จัน": 6140,
      "อักษร": 6141,
      "##พนักงาน": 6142,
      "##ขอน": 6143,
      "##ประสบการณ์": 6144,
      "en": 6145,
      "##นิวยอร์ก": 6146,
      "##บทความ": 6147,
      "##บทอด": 6148,
      "##เรียกร้อง": 6149,
      "แม่น้ำ": 6150,
      "##ังก์ชัน": 6151,
      "##ยับ": 6152,
      "##ระเบียบ": 6153,
      "##หาด": 6154,
      "สกุล": 6155,
      "##ในภาค": 6156,
      "##คัมภีร์": 6157,
      "##อีกหลาย": 6158,
      "##ปกป้อง": 6159,
      "me": 6160,
      "สยาม": 6161,
      "##เจ้าพระยา": 6162,
      "##อัด": 6163,
      "##เวิลด์": 6164,
      "ซึ่งได้": 6165,
      "##รำ": 6166,
      "##มีนาคม": 6167,
      "##าวา": 6168,
      "##ราชสมบัติ": 6169,
      "เสด็จ": 6170,
      "##นรี": 6171,
      "##อดุลย": 6172,
      "##มีย": 6173,
      "ชาย": 6174,
      "##แพร่หลาย": 6175,
      "##กลา": 6176,
      "##ความร้อน": 6177,
      "##เศร้า": 6178,
      "ชั่วโมง": 6179,
      "##จอ": 6180,
      "##ระบอบ": 6181,
      "##ฮิต": 6182,
      "##าวร": 6183,
      "##ซับซ้อน": 6184,
      "หมู่บ้าน": 6185,
      "พระองค์ทรง": 6186,
      "##ภายใต้การ": 6187,
      "##na": 6188,
      "##เป็นจำนวนมาก": 6189,
      "##โนม": 6190,
      "##ดาวเคราะห์": 6191,
      "##ไม่อ": 6192,
      "##ที่กำลัง": 6193,
      "##ลำดับที่": 6194,
      "##หมื่น": 6195,
      "##เมริเดียน": 6196,
      "##เดอ": 6197,
      "##ทอ": 6198,
      "##อกับ": 6199,
      "##หลุยส์": 6200,
      "##sh": 6201,
      "##ชิงชนะเลิศ": 6202,
      "##แปลก": 6203,
      "##ในรายการ": 6204,
      "##ก็เป็น": 6205,
      "การแข่งขัน": 6206,
      "##ธนบุรี": 6207,
      "##ครอบคลุม": 6208,
      "##วิวัฒ": 6209,
      "##พ่ายแพ้": 6210,
      "วอลเลย์บอล": 6211,
      "##ปั้น": 6212,
      "##ลงเล่น": 6213,
      "##คาทอลิก": 6214,
      "##ูจน์": 6215,
      "##กอ": 6216,
      "แต่ง": 6217,
      "ธง": 6218,
      "##การจัด": 6219,
      "##เป็นรูป": 6220,
      "##สรุป": 6221,
      "##ระหว่างวันที่": 6222,
      "##มกราคม": 6223,
      "##ทักษ์": 6224,
      "##แรกใน": 6225,
      "##ที่สุดของ": 6226,
      "##แต่งเพลง": 6227,
      "##นิธิ": 6228,
      "##บอกว่า": 6229,
      "##ปัจจัย": 6230,
      "##ฟิส": 6231,
      "1980": 6232,
      "##ทั้งหลาย": 6233,
      "1990": 6234,
      "##ิร์ล": 6235,
      "โช": 6236,
      "##วาส": 6237,
      "##ภูมิพลอดุลย": 6238,
      "##ยาส": 6239,
      "##ังการ": 6240,
      "##บูชา": 6241,
      "##บรรพ": 6242,
      "##รัฐสภา": 6243,
      "##แปด": 6244,
      "เป็นหนึ่งใน": 6245,
      "##แบ่งเป็น": 6246,
      "##โระ": 6247,
      "กีฬา": 6248,
      "##ทรี": 6249,
      "##กรีก": 6250,
      "##ซัส": 6251,
      "##ถ่ายทำ": 6252,
      "##๋ง": 6253,
      "##ตะวันออกเฉียงใต้": 6254,
      "##ในบริเวณ": 6255,
      "##พจน์": 6256,
      "##ฆาต": 6257,
      "##บริโภค": 6258,
      "##ศาสตร": 6259,
      "##ธรรมดา": 6260,
      "##โน้ม": 6261,
      "เด็ก": 6262,
      "##บริหารส่วน": 6263,
      "##จะมีการ": 6264,
      "##คมนาคม": 6265,
      "##แนล": 6266,
      "##ก๊ก": 6267,
      "พ่อ": 6268,
      "59": 6269,
      "##ขาธิการ": 6270,
      "##เกีย": 6271,
      "##คลัง": 6272,
      "##เขมร": 6273,
      "##ผู้คน": 6274,
      "##ศก": 6275,
      "##ect": 6276,
      "ค่า": 6277,
      "##วอลเลย์บอล": 6278,
      "##ติดตั้ง": 6279,
      "อันดับ": 6280,
      "2538": 6281,
      "##แค้น": 6282,
      "##ารุ": 6283,
      "##ไห": 6284,
      "##างค์": 6285,
      "##ฮาร์": 6286,
      "##โขทัย": 6287,
      "##นิษฐาน": 6288,
      "##เตะ": 6289,
      "##แขวง": 6290,
      "##่งดัง": 6291,
      "##ก็ถูก": 6292,
      "##อภิเษก": 6293,
      "##ous": 6294,
      "##นักศึกษา": 6295,
      "ด้วยการ": 6296,
      "##รองรับ": 6297,
      "##เอาไว้": 6298,
      "##แร่": 6299,
      "##ต่อสู้กับ": 6300,
      "##พลาด": 6301,
      "##เวช": 6302,
      "คริส": 6303,
      "ส่วนใหญ่": 6304,
      "##เชี่ยวชาญ": 6305,
      "##ไม่กี่": 6306,
      "##เจอ": 6307,
      "##็กซิโก": 6308,
      "##ary": 6309,
      "##น้อยกว่า": 6310,
      "##ซิม": 6311,
      "##พฤษภาคม": 6312,
      "##วิถี": 6313,
      "##รีบ": 6314,
      "##บำรุง": 6315,
      "##ดารา": 6316,
      "##ทางช่อง": 6317,
      "##กันยายน": 6318,
      "##แน่": 6319,
      "##ory": 6320,
      "##อย่างต่อเนื่อง": 6321,
      "##็ญ": 6322,
      "##เทอร์เน็ต": 6323,
      "##บอร์ด": 6324,
      "##และพระ": 6325,
      "ที่เป็น": 6326,
      "##ราษฎร์": 6327,
      "##ภิกษุ": 6328,
      "แต่เมื่อ": 6329,
      "ระยะ": 6330,
      "##แอนด์": 6331,
      "##หุ่น": 6332,
      "##ans": 6333,
      "##สละ": 6334,
      "ปรา": 6335,
      "##ธันวาคม": 6336,
      "##มัด": 6337,
      "##ชายแดน": 6338,
      "##ตะวันออกของ": 6339,
      "##เจร": 6340,
      "##ัทธ": 6341,
      "##การสร้าง": 6342,
      "เอ็น": 6343,
      "##สลับ": 6344,
      "##ราชสำนัก": 6345,
      "##หลังจากที่": 6346,
      "##อร์ต": 6347,
      "ยกเว้น": 6348,
      "##หนึ่งที่": 6349,
      "##ครั้งแรกใน": 6350,
      "##นัน": 6351,
      "##าซ": 6352,
      "##ลงมา": 6353,
      "##ให้มีการ": 6354,
      "##สืบทอด": 6355,
      "##สหประชาชาติ": 6356,
      "##ภาษี": 6357,
      "รัช": 6358,
      "##ความเชื่อ": 6359,
      "##ขึ้นอยู่กับ": 6360,
      "##เข้าถึง": 6361,
      "##ตกแต่ง": 6362,
      "##พิสูจน์": 6363,
      "##ป้าย": 6364,
      "##สิงคโปร์": 6365,
      "ได": 6366,
      "##ญ้า": 6367,
      "เล่ม": 6368,
      "##สุดท้ายของ": 6369,
      "##เวอร์พูล": 6370,
      "##หลังจากนั้น": 6371,
      "##สตูดิโอ": 6372,
      "##วรรณกรรม": 6373,
      "##ต่างกัน": 6374,
      "##เหมือนกัน": 6375,
      "##ระยะทาง": 6376,
      "##คริสต์ทศวรรษ": 6377,
      "นอก": 6378,
      "2003": 6379,
      "สน": 6380,
      "สาว": 6381,
      "##ที่สุดในโลก": 6382,
      "##ไซด์": 6383,
      "##สวัส": 6384,
      "##มวยปล้ำ": 6385,
      "กม": 6386,
      "##วัตร": 6387,
      "##ามาก": 6388,
      "##ดิส": 6389,
      "##เทา": 6390,
      "you": 6391,
      "##อร์แลนด์": 6392,
      "##ความรัก": 6393,
      "##เซิล": 6394,
      "##ท้า": 6395,
      "##นาค": 6396,
      "##อุบัติ": 6397,
      "อันเป็น": 6398,
      "##นำไปสู่": 6399,
      "พวกเขา": 6400,
      "##เมษายน": 6401,
      "##ค้าน": 6402,
      "##รรศ": 6403,
      "##รุก": 6404,
      "##เบา": 6405,
      "##เสา": 6406,
      "##เปลือก": 6407,
      "##มีพระ": 6408,
      "##ของท่าน": 6409,
      "##พิทักษ์": 6410,
      "##สีเหลือง": 6411,
      "##สีเขียว": 6412,
      "##โอลิมปิกฤดูร้อนครั้งที่": 6413,
      "##ยิว": 6414,
      "1992": 6415,
      "75": 6416,
      "##เสื่อม": 6417,
      "##ไม่เคย": 6418,
      "ไฮ": 6419,
      "##วิศวกรรม": 6420,
      "##ยุกต์": 6421,
      "##มหาดไทย": 6422,
      "##เขตการปกครอง": 6423,
      "สัญ": 6424,
      "ซิง": 6425,
      "##เซฟ": 6426,
      "##แฮม": 6427,
      "##ลาก": 6428,
      "##ลงไป": 6429,
      "##ปวด": 6430,
      "##หวาน": 6431,
      "##เก่าแก่": 6432,
      "##ical": 6433,
      "##คริสต": 6434,
      "##กึ่ง": 6435,
      "##เป็นเมือง": 6436,
      "1996": 6437,
      "##ตรงข้าม": 6438,
      "##เวศ": 6439,
      "##ิ้ง": 6440,
      "ครอบ": 6441,
      "##สะท้อน": 6442,
      "##แบ่งออกเป็น": 6443,
      "##เนียง": 6444,
      "##ที่น่า": 6445,
      "##ต่ำกว่า": 6446,
      "บางครั้ง": 6447,
      "##รษะ": 6448,
      "##บางอย่าง": 6449,
      "##ประท": 6450,
      "##ทำได้": 6451,
      "##เตน": 6452,
      "##อยู่อาศัย": 6453,
      "##นีย์": 6454,
      "##ori": 6455,
      "สอง": 6456,
      "##เตือน": 6457,
      "wh": 6458,
      "##qu": 6459,
      "##ภักดี": 6460,
      "##รุกราน": 6461,
      "or": 6462,
      "ลู": 6463,
      "##ปรัชญา": 6464,
      "##ิณ": 6465,
      "##กุมาร": 6466,
      "##ial": 6467,
      "##มิถุนายน": 6468,
      "##พรีเมียร์ลีก": 6469,
      "##ไส้": 6470,
      "mus": 6471,
      "##เป็นที่ตั้ง": 6472,
      "ไซ": 6473,
      "รู": 6474,
      "##แอบ": 6475,
      "##ach": 6476,
      "ต่าง": 6477,
      "##เครื่องมือ": 6478,
      "##oh": 6479,
      "##มิวสิก": 6480,
      "โน": 6481,
      "##โซล": 6482,
      "##แอต": 6483,
      "##มวลชน": 6484,
      "##ซ่อน": 6485,
      "##ดั้ม": 6486,
      "##ถึงการ": 6487,
      "นักแสดง": 6488,
      "##โรห์": 6489,
      "##เก้า": 6490,
      "##ปรากฏใน": 6491,
      "##สัย": 6492,
      "##ice": 6493,
      "##เซอร์แลนด์": 6494,
      "##ทรัพย์สิน": 6495,
      "##วัสดุ": 6496,
      "ออส": 6497,
      "##รับรู้": 6498,
      "##หลุม": 6499,
      "##พงศ์": 6500,
      "ล้านคน": 6501,
      "##เทศกาล": 6502,
      "2020": 6503,
      "##ครี": 6504,
      "อนุ": 6505,
      "##หลอดเลือด": 6506,
      "##เป็นส่วนหนึ่งของ": 6507,
      "##ิสถาน": 6508,
      "##ถูกต้อง": 6509,
      "##ลิข": 6510,
      "##เพลงที่": 6511,
      "นายก": 6512,
      "34": 6513,
      "##ปูน": 6514,
      "##ทางเพศ": 6515,
      "##ทำนอง": 6516,
      "เข้าร่วมแข่งขันกีฬาโอลิมปิกฤดูร้อนครั้งที่": 6517,
      "##มารี": 6518,
      "##เจาะ": 6519,
      "##ลีย์": 6520,
      "##าส์": 6521,
      "##end": 6522,
      "โด": 6523,
      "##วัยวะ": 6524,
      "##คาย": 6525,
      "##จักรวาล": 6526,
      "โต": 6527,
      "##ถ้วย": 6528,
      "##านั้น": 6529,
      "##พิพิธภัณฑ์": 6530,
      "##แคบ": 6531,
      "##กรีซ": 6532,
      "##หร่าน": 6533,
      "ซึ่งทำให้": 6534,
      "##เบน": 6535,
      "ad": 6536,
      "##ของไทย": 6537,
      "##ath": 6538,
      "##aw": 6539,
      "##เนื้อที่": 6540,
      "##เมริเดียนที่": 6541,
      "##รกี": 6542,
      "##พัด": 6543,
      "ประกาศ": 6544,
      "##สลิม": 6545,
      "ละคร": 6546,
      "ตั้งแต่ปี": 6547,
      "##เช่นเดียวกับ": 6548,
      "##โด่งดัง": 6549,
      "##ศรีธรรม": 6550,
      "42": 6551,
      "##สวิต": 6552,
      "##ยุทธ์": 6553,
      "และผู้": 6554,
      "##เทือก": 6555,
      "ศาล": 6556,
      "##าที": 6557,
      "ช่วย": 6558,
      "สิริ": 6559,
      "##มามี": 6560,
      "##ff": 6561,
      "ได้มี": 6562,
      "##คู่กับ": 6563,
      "##คอล": 6564,
      "##ศึกษาต่อ": 6565,
      "แขวง": 6566,
      "##กติ": 6567,
      "##กุน": 6568,
      "##ล้อ": 6569,
      "อาจหมายถึง": 6570,
      "##ลายเป็น": 6571,
      "##อาศัยอยู่ใน": 6572,
      "##ประถมศึกษา": 6573,
      "สัตว์": 6574,
      "##ปาล": 6575,
      "##ชื่อดัง": 6576,
      "##ธรรมศาสตร์": 6577,
      "##ของตัว": 6578,
      "##อาวาส": 6579,
      "##ควิ": 6580,
      "##ที่ไม่มี": 6581,
      "##เร่ง": 6582,
      "##ให้ผู้": 6583,
      "##ขอนแก่น": 6584,
      "##พฤศจิกายน": 6585,
      "##มาด": 6586,
      "ปัญ": 6587,
      "##ครรภ": 6588,
      "##ได้สำเร็จ": 6589,
      "##เยียม": 6590,
      "##ซ่า": 6591,
      "##เอเชียน": 6592,
      "##ได้เข้า": 6593,
      "##จิตใจ": 6594,
      "##ได้ถึง": 6595,
      "##ประมวล": 6596,
      "##แผ่": 6597,
      "##ชื่อของ": 6598,
      "##เล็กซาน": 6599,
      "อยู่ใน": 6600,
      "##ถัดมา": 6601,
      "ไร": 6602,
      "##เนียน": 6603,
      "##ตั้งใจ": 6604,
      "##ใกล้ชิด": 6605,
      "##เสก": 6606,
      "##ฮั่น": 6607,
      "##iz": 6608,
      "800": 6609,
      "เรียก": 6610,
      "##บาส": 6611,
      "##ถัมภ": 6612,
      "##ราชธานี": 6613,
      "โครงการ": 6614,
      "ขุน": 6615,
      "##ใช้จ่าย": 6616,
      "##ป้อม": 6617,
      "##คล้อง": 6618,
      "2541": 6619,
      "บุตร": 6620,
      "##รับประทาน": 6621,
      "##ดวงอาทิตย์": 6622,
      "##ริยะ": 6623,
      "##สมเด็จพระราชินี": 6624,
      "##ที่ต้อง": 6625,
      "##ของบริษัท": 6626,
      "##เลกุล": 6627,
      "ยาว": 6628,
      "##มิติ": 6629,
      "##แพทยศาสตร์": 6630,
      "คะแนน": 6631,
      "##ver": 6632,
      "48": 6633,
      "##ถาวร": 6634,
      "##สมัยใหม่": 6635,
      "##ตะวันออกเฉียงเหนือ": 6636,
      "กฎ": 6637,
      "##เลส": 6638,
      "ญี่ปุ่น": 6639,
      "##ge": 6640,
      "36": 6641,
      "##ัมพันธ์": 6642,
      "##ายก": 6643,
      "##เตียน": 6644,
      "##ทรัพยากร": 6645,
      "##แน่นอน": 6646,
      "##เลี่ยง": 6647,
      "##บาก": 6648,
      "##ซุน": 6649,
      "##เป็นต้น": 6650,
      "##อาน": 6651,
      "##ถอด": 6652,
      "##รายละเอียด": 6653,
      "##ich": 6654,
      "##งคล": 6655,
      "##ลส์": 6656,
      "##ชิญ": 6657,
      "##ขัง": 6658,
      "2531": 6659,
      "##ลัย": 6660,
      "##รีย์": 6661,
      "##ของญี่ปุ่น": 6662,
      "##จากโรงเรียน": 6663,
      "##โรมา": 6664,
      "##iss": 6665,
      "##ตั้งแต่วันที่": 6666,
      "##สุโขทัย": 6667,
      "##รู้ว่า": 6668,
      "##ปัส": 6669,
      "##ยื่น": 6670,
      "##หน้าน": 6671,
      "##ค้นหา": 6672,
      "##ซิตี": 6673,
      "และมีการ": 6674,
      "##อร์น": 6675,
      "##เกิดจาก": 6676,
      "เสีย": 6677,
      "##อิสราเอล": 6678,
      "wwe": 6679,
      "##พัฒน": 6680,
      "2537": 6681,
      "##อนุมัติ": 6682,
      "##ลิก": 6683,
      "##ฝูง": 6684,
      "##วงดนตรี": 6685,
      "##ศีรษะ": 6686,
      "##ของจังหวัด": 6687,
      "และต่อมา": 6688,
      "##ทางเศรษฐกิจ": 6689,
      "##ม่วง": 6690,
      "##ริต": 6691,
      "##เลือกตั้งสมาชิกสภาผู้แทนราษฎร": 6692,
      "##ครรภ์": 6693,
      "##ใย": 6694,
      "##เชสเตอร์": 6695,
      "##สาธารณสุข": 6696,
      "##ถูกล": 6697,
      "##ขลา": 6698,
      "##พระราชพิธี": 6699,
      "##ปฏิกิริยา": 6700,
      "##ชาวอังกฤษ": 6701,
      "##พระพุทธรูป": 6702,
      "สำนัก": 6703,
      "คอน": 6704,
      "เทพ": 6705,
      "##จนถึงปัจจุบัน": 6706,
      "หญิง": 6707,
      "##เซต": 6708,
      "##ล้มเหลว": 6709,
      "##ของเมือง": 6710,
      "##รรมา": 6711,
      "##สิงหาคม": 6712,
      "##ที่มาจาก": 6713,
      "##ah": 6714,
      "##ได้ประกาศ": 6715,
      "##สองคน": 6716,
      "pri": 6717,
      "ยังมี": 6718,
      "##ถัมภ์": 6719,
      "##ก๊": 6720,
      "##เคาร": 6721,
      "##พนธ์": 6722,
      "##กรกฎ": 6723,
      "##คลาส": 6724,
      "##โยง": 6725,
      "สูง": 6726,
      "##ชญ": 6727,
      "##ชาวบ้าน": 6728,
      "ธรรม": 6729,
      "##เกราะ": 6730,
      "##ik": 6731,
      "##อยด์": 6732,
      "co": 6733,
      "##อินเตอร์": 6734,
      "##ข้าราชการ": 6735,
      "##เคียงกับ": 6736,
      "##se": 6737,
      "##มาร่วม": 6738,
      "เพียง": 6739,
      "##สไตน์": 6740,
      "##ดยอด": 6741,
      "##ทูล": 6742,
      "##คลึง": 6743,
      "ยอด": 6744,
      "##น่าน": 6745,
      "##เม็กซิโก": 6746,
      "##นิยาย": 6747,
      "##อาจมี": 6748,
      "##สันตะปาปา": 6749,
      "##บันดาล": 6750,
      "##ถือว่าเป็น": 6751,
      "มิส": 6752,
      "##ห้วย": 6753,
      "##แง": 6754,
      "##สรรพ": 6755,
      "##จดหมาย": 6756,
      "##ตื่น": 6757,
      "##ส่วนมาก": 6758,
      "##คิดว่า": 6759,
      "และถูก": 6760,
      "##แสดงใน": 6761,
      "กำกับ": 6762,
      "##แฝ": 6763,
      "##อนุรักษ์": 6764,
      "##ตินา": 6765,
      "##ผู้โดยสาร": 6766,
      "##รีน": 6767,
      "##ุกร์": 6768,
      "##ี๋": 6769,
      "##ขาน": 6770,
      "##หอม": 6771,
      "##ตำหนัก": 6772,
      "##ลอบ": 6773,
      "##จัดอันดับ": 6774,
      "##คาส": 6775,
      "##อาด": 6776,
      "##ปู่": 6777,
      "##เป็นที่นิยม": 6778,
      "##ส้ม": 6779,
      "ตั้งอยู่ที่": 6780,
      "##เบส": 6781,
      "150": 6782,
      "วิธี": 6783,
      "##กรกฎาคม": 6784,
      "##ลี่": 6785,
      "ยา": 6786,
      "##เกะ": 6787,
      "##ช่วยให้": 6788,
      "##หุ้ม": 6789,
      "##ังการี": 6790,
      "##งา": 6791,
      "##สงสัย": 6792,
      "##เต็มที่": 6793,
      "##ือด": 6794,
      "##สมุด": 6795,
      "ตำแหน่ง": 6796,
      "38": 6797,
      "หลักสูตร": 6798,
      "##ละลาย": 6799,
      "sch": 6800,
      "##ลงใน": 6801,
      "##rld": 6802,
      "##ก่อให้เกิด": 6803,
      "##ond": 6804,
      "##ดิต": 6805,
      "##สุทธิ์": 6806,
      "##โยธ": 6807,
      "##อัลบั้มชุด": 6808,
      "##นำเสนอ": 6809,
      "##พระพุทธศาสนา": 6810,
      "เกิดวันที่": 6811,
      "ตัวอย่างเช่น": 6812,
      "##ปาน": 6813,
      "##กัส": 6814,
      "##93": 6815,
      "##เลง": 6816,
      "52": 6817,
      "##อินเทอร์เน็ต": 6818,
      "มน": 6819,
      "แท": 6820,
      "##โรงงาน": 6821,
      "##แบค": 6822,
      "##ock": 6823,
      "##ยังได้": 6824,
      "##ศรีธรรมราช": 6825,
      "โป": 6826,
      "##กรณ": 6827,
      "##เกิดความ": 6828,
      "##เอกลักษณ์": 6829,
      "##พรรคการเมือง": 6830,
      "##ผ่านการ": 6831,
      "##ถิ่นฐาน": 6832,
      "##ล่าสุด": 6833,
      "##ัข": 6834,
      "##นครราชสีมา": 6835,
      "##ide": 6836,
      "##ฟิสิกส์": 6837,
      "##ยากาศ": 6838,
      "##ในฤดูกาล": 6839,
      "##orm": 6840,
      "##ศาสตราจารย์": 6841,
      "##ครอบครอง": 6842,
      "##มืด": 6843,
      "pr": 6844,
      "##ัตย์": 6845,
      "53": 6846,
      "##จัง": 6847,
      "##io": 6848,
      "##ปทุม": 6849,
      "##ย่าน": 6850,
      "##คบ": 6851,
      "##โคน": 6852,
      "##ืบ": 6853,
      "##91": 6854,
      "แรง": 6855,
      "##อลล์": 6856,
      "##อย่างหนึ่ง": 6857,
      "เป็นที่": 6858,
      "ฟุต": 6859,
      "##โหม": 6860,
      "ปลาย": 6861,
      "55": 6862,
      "##ที่ประเทศ": 6863,
      "##ฉายา": 6864,
      "##คุ้มครอง": 6865,
      "อีกด้วย": 6866,
      "##วิวัฒนาการ": 6867,
      "##ตลก": 6868,
      "##ลงนาม": 6869,
      "##แผ่นดินหมายเลข": 6870,
      "##กาน": 6871,
      "44": 6872,
      "##ทาส": 6873,
      "##ec": 6874,
      "หลังจากการ": 6875,
      "##โทรศัพท์": 6876,
      "##แถว": 6877,
      "ครู": 6878,
      "##เตอร์เทน": 6879,
      "##ish": 6880,
      "ปฏิ": 6881,
      "##ward": 6882,
      "##หนู": 6883,
      "##ถอย": 6884,
      "##ซอ": 6885,
      "เหมือน": 6886,
      "##กุมภาพันธ์": 6887,
      "##ครีบ": 6888,
      "2534": 6889,
      "อัต": 6890,
      "##จรร": 6891,
      "กรรม": 6892,
      "##หมู": 6893,
      "แต่มี": 6894,
      "##เข้าชิง": 6895,
      "และสามารถ": 6896,
      "##เอะ": 6897,
      "##อล์ฟ": 6898,
      "##เฝ้า": 6899,
      "##ของระบบ": 6900,
      "##นี้คือ": 6901,
      "##เปลี่ยนชื่อเป็น": 6902,
      "##ึ้ง": 6903,
      "##อาศัยอยู่": 6904,
      "##อุบล": 6905,
      "ใกล้เคียงกับ": 6906,
      "##ดอลลาร์สหรัฐ": 6907,
      "##โรม": 6908,
      "##มิด": 6909,
      "##นวนิยาย": 6910,
      "##โปรตีน": 6911,
      "รับบท": 6912,
      "##ประจ": 6913,
      "##อตแลนด์": 6914,
      "##ปรี": 6915,
      "##ส่วนหนึ่ง": 6916,
      "แชม": 6917,
      "##รถไฟฟ้า": 6918,
      "สมาคม": 6919,
      "สัน": 6920,
      "##กวี": 6921,
      "##ความปลอดภัย": 6922,
      "400": 6923,
      "##ในหลาย": 6924,
      "รูปแบบ": 6925,
      "##ังหวะ": 6926,
      "##วัฒน์": 6927,
      "##วุฒิส": 6928,
      "อู": 6929,
      "##หลาด": 6930,
      "สวน": 6931,
      "##ทางสังคม": 6932,
      "##นิยาม": 6933,
      "##คล้ายคลึง": 6934,
      "##ไต้หวัน": 6935,
      "##ถ้ำ": 6936,
      "##สันติ": 6937,
      "##สายพันธุ์": 6938,
      "ยูไนเต็ด": 6939,
      "ที่เมือง": 6940,
      "##อย่างน้อย": 6941,
      "หนึ่งใน": 6942,
      "##าวิหาร": 6943,
      "world": 6944,
      "โดยทั่วไป": 6945,
      "##อลิ": 6946,
      "โรงพยาบาล": 6947,
      "ดวง": 6948,
      "##ความต้องการ": 6949,
      "##่อยู่": 6950,
      "##โซน": 6951,
      "1998": 6952,
      "##ฮิน": 6953,
      "##เข้าร่วมการแข่งขัน": 6954,
      "##แหวน": 6955,
      "##อภิ": 6956,
      "##ว่าจะเป็น": 6957,
      "##จัดทำ": 6958,
      "##กอน": 6959,
      "##บร": 6960,
      "##ิกาย": 6961,
      "2001": 6962,
      "##ฝึกสอน": 6963,
      "นิ้ว": 6964,
      "##กวม": 6965,
      "##ตกาล": 6966,
      "##เผชิญ": 6967,
      "##นิวเคลียร์": 6968,
      "##ุกรรม": 6969,
      "แอ": 6970,
      "##นิน": 6971,
      "##ิฟอร์": 6972,
      "##ลวด": 6973,
      "##พระเกียรติ": 6974,
      "##พิพาก": 6975,
      "##ศิลา": 6976,
      "##มวยสากล": 6977,
      "##ivers": 6978,
      "##็ส": 6979,
      "ทหาร": 6980,
      "##ใช้เวลา": 6981,
      "##ดอร์": 6982,
      "##ert": 6983,
      "##ศาจ": 6984,
      "ฮิ": 6985,
      "##ยักษ์": 6986,
      "##ในนาม": 6987,
      "##ฟังก์ชัน": 6988,
      "##ล้วน": 6989,
      "##เป็นของ": 6990,
      "##ขึ้นโดย": 6991,
      "ประสูติ": 6992,
      "##พรรดินี": 6993,
      "##เช้า": 6994,
      "##แก่อ": 6995,
      "##อัม": 6996,
      "##ไอร์แลนด์": 6997,
      "##ทำร้าย": 6998,
      "##รัฐประหาร": 6999,
      "##สนุก": 7000,
      "ในประเทศไทย": 7001,
      "##ทุกปี": 7002,
      "##ปราการ": 7003,
      "##แผนการ": 7004,
      "##idae": 7005,
      "โดยจะ": 7006,
      "##ก็ไม่": 7007,
      "##ผนัง": 7008,
      "##สีน้ำตาล": 7009,
      "##ไทร": 7010,
      "##ชั้นมัธยมศึกษา": 7011,
      "เทศบาลตำบล": 7012,
      "ทั้งหมด": 7013,
      "##ทะเลสาบ": 7014,
      "วาง": 7015,
      "##อะตอม": 7016,
      "อดี": 7017,
      "##ดาร์": 7018,
      "##รรณ": 7019,
      "##ทีเรีย": 7020,
      "##ใช้น": 7021,
      "##ไว้ที่": 7022,
      "##ตรงกับ": 7023,
      "##เชส": 7024,
      "##แว": 7025,
      "##เสนอชื่อ": 7026,
      "##ในภาษา": 7027,
      "##เป็นหลัก": 7028,
      "อุป": 7029,
      "##กาก": 7030,
      "##พระโอรส": 7031,
      "การใช้": 7032,
      "พระบรมราช": 7033,
      "##ost": 7034,
      "##เซิน": 7035,
      "##หิต": 7036,
      "##มาใช้": 7037,
      "##เลขาธิการ": 7038,
      "##ถูกจับ": 7039,
      "##กี้": 7040,
      "ในตอน": 7041,
      "##ทิศทาง": 7042,
      "##ริยยศ": 7043,
      "##แกรนด์": 7044,
      "สุด": 7045,
      "##สเป": 7046,
      "##ขึ้นในปี": 7047,
      "##มุสลิม": 7048,
      "##ประดิษฐาน": 7049,
      "กำหนด": 7050,
      "และได้รับการ": 7051,
      "##ผ่านทาง": 7052,
      "##ศีล": 7053,
      "##แลกเปลี่ยน": 7054,
      "กุ": 7055,
      "##ของพวก": 7056,
      "##เบลเยียม": 7057,
      "##ประเด็น": 7058,
      "##กรอง": 7059,
      "##อาจเป็น": 7060,
      "##บรรด": 7061,
      "##ตช์": 7062,
      "##98": 7063,
      "##ยาวนาน": 7064,
      "##เหยื่อ": 7065,
      "##แคน": 7066,
      "ราชวงศ์": 7067,
      "##บูร์": 7068,
      "##ถา": 7069,
      "##ดังต่อไปนี้": 7070,
      "##ove": 7071,
      "##ร่วมงาน": 7072,
      "##age": 7073,
      "##อ่าว": 7074,
      "##เฉิน": 7075,
      "##ายา": 7076,
      "อาหาร": 7077,
      "##เหรียญทอง": 7078,
      "ลา": 7079,
      "##ราชภ": 7080,
      "ฟิล": 7081,
      "##าศักดิ์": 7082,
      "##ความว่า": 7083,
      "##จากประเทศ": 7084,
      "##ดาษ": 7085,
      "##นิสัย": 7086,
      "##มาตรา": 7087,
      "##สั่งให้": 7088,
      "##แกร่ง": 7089,
      "##ผิดปกติ": 7090,
      "##อิหร่าน": 7091,
      "##ปราม": 7092,
      "##กรุงศรีอยุธยา": 7093,
      "##ประท้วง": 7094,
      "##ประยุกต์": 7095,
      "##อักเสบ": 7096,
      "ชาร์": 7097,
      "##เทวี": 7098,
      "##เข็ม": 7099,
      "##ต์แวร์": 7100,
      "##หายไป": 7101,
      "1960": 7102,
      "##ระหว่างปี": 7103,
      "##ิฟอร์เนีย": 7104,
      "##ในที่": 7105,
      "##ลิขสิทธิ์": 7106,
      "##โกส": 7107,
      "##หาวิทยาลัย": 7108,
      "##หลายอย่าง": 7109,
      "##บางคน": 7110,
      "##ุข": 7111,
      "##เขายัง": 7112,
      "##สรณ์": 7113,
      "##สถานีรถไฟ": 7114,
      "41": 7115,
      "จุฬาลงกรณ์มหาวิทยาลัย": 7116,
      "##amp": 7117,
      "##ของแต่ละ": 7118,
      "2536": 7119,
      "##ประหลาด": 7120,
      "43": 7121,
      "##โอง": 7122,
      "##ไกร": 7123,
      "##แมลง": 7124,
      "อายุ": 7125,
      "##ที่แตกต่างกัน": 7126,
      "##ออกฉาย": 7127,
      "##ก่อการ": 7128,
      "fl": 7129,
      "##ชีส์": 7130,
      "##เป็นแบบ": 7131,
      "##ประมุข": 7132,
      "##อี้": 7133,
      "##พิก": 7134,
      "##หล่อ": 7135,
      "##ดาวน์": 7136,
      "##เวลาส": 7137,
      "เป็นการแข่งขัน": 7138,
      "##นาซี": 7139,
      "จึงทำให้": 7140,
      "##ของโรงเรียน": 7141,
      "##ผัน": 7142,
      "##ซาเบ": 7143,
      "##จาน": 7144,
      "ข้อมูล": 7145,
      "ดิน": 7146,
      "##กู้": 7147,
      "##ดน้ำ": 7148,
      "##กลางเมือง": 7149,
      "##อัญ": 7150,
      "##ของกองทัพ": 7151,
      "man": 7152,
      "##เพียงพอ": 7153,
      "##ลุง": 7154,
      "##ตามที่": 7155,
      "##รับบท": 7156,
      "##ตัวเป็น": 7157,
      "##เพลย์": 7158,
      "ตน": 7159,
      "##วาท": 7160,
      "##พิน": 7161,
      "##คว้าแชมป์": 7162,
      "##95": 7163,
      "##ys": 7164,
      "##ในตำแหน่ง": 7165,
      "##ปีชีส์": 7166,
      "##นส์": 7167,
      "##ase": 7168,
      "กษัตริย์": 7169,
      "ต่อมาได้": 7170,
      "##โนมัติ": 7171,
      "##มล": 7172,
      "##ug": 7173,
      "อย่างไรก็ดี": 7174,
      "##เมล็ด": 7175,
      "นอกจากนี้ยังมี": 7176,
      "new": 7177,
      "##เขามี": 7178,
      "##จะได้รับ": 7179,
      "รี": 7180,
      "บู": 7181,
      "##ผู้ใหญ่": 7182,
      "##ric": 7183,
      "##ขบวนการ": 7184,
      "##วี่": 7185,
      "##ผู้ใช้": 7186,
      "##จึงมี": 7187,
      "##กรุณาโปรดเกล้าฯ": 7188,
      "##เคารพ": 7189,
      "หัวหน้า": 7190,
      "##เครื่องหมาย": 7191,
      "##ริยาภรณ์": 7192,
      "##ในระยะ": 7193,
      "##ของมหาวิทยาลัย": 7194,
      "มีบุตร": 7195,
      "##โมเลกุล": 7196,
      "##ore": 7197,
      "##แถลง": 7198,
      "##สัญญากับ": 7199,
      "##ไค": 7200,
      "##อ้างอิง": 7201,
      "##ได้จาก": 7202,
      "##ทั้งสาม": 7203,
      "##คำถาม": 7204,
      "##พรรษา": 7205,
      "2533": 7206,
      "##ต้ม": 7207,
      "##เซียม": 7208,
      "##สาวของ": 7209,
      "##ust": 7210,
      "##รองชนะเลิศ": 7211,
      "##นวิหาร": 7212,
      "##พะ": 7213,
      "##ละติน": 7214,
      "##ชั้นสูง": 7215,
      "1988": 7216,
      "##ทรอนิกส์": 7217,
      "##เบก": 7218,
      "##แปลว่า": 7219,
      "##ปี่": 7220,
      "180": 7221,
      "ครั้น": 7222,
      "##บำบัด": 7223,
      "จันท": 7224,
      "##เบต": 7225,
      "ด้วยความ": 7226,
      "##ตะวันตกของ": 7227,
      "##ดาราศาสตร์": 7228,
      "##ขนม": 7229,
      "ro": 7230,
      "##้ย": 7231,
      "##ย่า": 7232,
      "##อเรีย": 7233,
      "##กอก": 7234,
      "##ตอง": 7235,
      "อาร": 7236,
      "##ซาม": 7237,
      "##ต่างชาติ": 7238,
      "##จาค": 7239,
      "คิด": 7240,
      "๒๕": 7241,
      "##โอะ": 7242,
      "บุคคล": 7243,
      "##เมต": 7244,
      "##ชิล": 7245,
      "##๋า": 7246,
      "##อรี่": 7247,
      "ทางหลวง": 7248,
      "พระพุทธ": 7249,
      "1999": 7250,
      "กีฬ": 7251,
      "##สัช": 7252,
      "##ตามลำดับ": 7253,
      "comp": 7254,
      "##จะสามารถ": 7255,
      "##พระทัย": 7256,
      "##็ป": 7257,
      "##เคยเป็น": 7258,
      "##ทั่วประเทศ": 7259,
      "##เปลี่ยนเป็น": 7260,
      "##บรรยากาศ": 7261,
      "##นี้ว่า": 7262,
      "##เยือน": 7263,
      "##ให้นัก": 7264,
      "##อบรม": 7265,
      "at": 7266,
      "บาร์": 7267,
      "##ปน": 7268,
      "##นตรี": 7269,
      "##ark": 7270,
      "##นับถือ": 7271,
      "ในที่สุด": 7272,
      "##มังกร": 7273,
      "##ละครเรื่อง": 7274,
      "##ยุติธรรม": 7275,
      "##เวลานั้น": 7276,
      "##หลาบ": 7277,
      "##สมควร": 7278,
      "##หลักการ": 7279,
      "##สิงห์": 7280,
      "##อ้างว่า": 7281,
      "##กาง": 7282,
      "##ศรั": 7283,
      "##ำลัง": 7284,
      "##บูล": 7285,
      "##เรส": 7286,
      "##อยัง": 7287,
      "##หญ้า": 7288,
      "##หลบหนี": 7289,
      "##สบ": 7290,
      "##ที่บ้าน": 7291,
      "##เพน": 7292,
      "##94": 7293,
      "##สวิตเซอร์แลนด์": 7294,
      "##จรา": 7295,
      "##สนม": 7296,
      "##ปลดปล่อย": 7297,
      "##ระบาด": 7298,
      "##ทรา": 7299,
      "##จืด": 7300,
      "##กำกวม": 7301,
      "##มณี": 7302,
      "##เพียงแค่": 7303,
      "##ปรากฏการณ์": 7304,
      "##บ่ง": 7305,
      "##ท่อ": 7306,
      "##เพ็ญ": 7307,
      "ในทาง": 7308,
      "##กันอย่าง": 7309,
      "##เชื้อเพลิง": 7310,
      "##็อต": 7311,
      "##อิสริยยศ": 7312,
      "##ก้าน": 7313,
      "##ที่ยัง": 7314,
      "##พัฒนาการ": 7315,
      "##ความยาว": 7316,
      "##เธอได้": 7317,
      "##อุบัติเหตุ": 7318,
      "##ผา": 7319,
      "##สูงกว่า": 7320,
      "สำเร็จ": 7321,
      "##ชนบท": 7322,
      "เขายัง": 7323,
      "##เครียด": 7324,
      "คอม": 7325,
      "##ชายา": 7326,
      "##สำคัญในการ": 7327,
      "##สกี": 7328,
      "##สนธิสัญญา": 7329,
      "##โมน": 7330,
      "##กุศล": 7331,
      "##็ท": 7332,
      "##หัด": 7333,
      "##ธยา": 7334,
      "##ออกเสียง": 7335,
      "รวมไปถึง": 7336,
      "##โจว": 7337,
      "##จาง": 7338,
      "##ในทวีป": 7339,
      "##จอด": 7340,
      "##แสดงความ": 7341,
      "##ยน้ำ": 7342,
      "##บันดาลใจ": 7343,
      "เพื่อน": 7344,
      "จอม": 7345,
      "##มาส": 7346,
      "##สังเคราะห์": 7347,
      "univers": 7348,
      "##บาร": 7349,
      "##เสถ": 7350,
      "##อีสาน": 7351,
      "##อัตโนมัติ": 7352,
      "##96": 7353,
      "##ไขมัน": 7354,
      "คริ": 7355,
      "##ในสหรัฐอเมริกา": 7356,
      "##เยซู": 7357,
      "โดยเฉพาะอย่างยิ่ง": 7358,
      "##พาย": 7359,
      "##ซัม": 7360,
      "##ของฝ่าย": 7361,
      "##คริสตกาล": 7362,
      "##แตกต่างจาก": 7363,
      "##สัมพันธ์กับ": 7364,
      "##หลีก": 7365,
      "มหาชน": 7366,
      "37": 7367,
      "##ll": 7368,
      "##อนุภาค": 7369,
      "##เป็นภาษา": 7370,
      "ตรงกับ": 7371,
      "พระยา": 7372,
      "เชียง": 7373,
      "##ประกอบไปด้วย": 7374,
      "##นอร์เวย์": 7375,
      "##ทำประตู": 7376,
      "##ผลัก": 7377,
      "##กลางของ": 7378,
      "##ดำเนินงาน": 7379,
      "##บอย": 7380,
      "##เรต": 7381,
      "##ทธา": 7382,
      "ประจำปี": 7383,
      "แต่ว่า": 7384,
      "##ื่อนไข": 7385,
      "##พูน": 7386,
      "##ผู้ชม": 7387,
      "##โลกรัม": 7388,
      "##รอน": 7389,
      "เป็นเพลง": 7390,
      "วา": 7391,
      "นักร้อง": 7392,
      "##เม็ด": 7393,
      "ร้อย": 7394,
      "##ลุก": 7395,
      "ถือเป็น": 7396,
      "##กังวล": 7397,
      "##ดย์": 7398,
      "##nt": 7399,
      "##กันดี": 7400,
      "1984": 7401,
      "##ii": 7402,
      "##นักบุญ": 7403,
      "##ได้รับเลือก": 7404,
      "ยุทธ": 7405,
      "##จะทำให้": 7406,
      "##คลิน": 7407,
      "##โรงแรม": 7408,
      "##ล่วง": 7409,
      "##วัต": 7410,
      "เพิ่ม": 7411,
      "##ออนไลน์": 7412,
      "##เจีย": 7413,
      "##วงกลม": 7414,
      "##ะนั้น": 7415,
      "อาณา": 7416,
      "##อัย": 7417,
      "ตามลำดับ": 7418,
      "##นัดที่": 7419,
      "##อนุญาตให้": 7420,
      "##แนก": 7421,
      "##ชาวจีน": 7422,
      "พี่": 7423,
      "##ย้อน": 7424,
      "##ซ่อม": 7425,
      "##เป็นอาหาร": 7426,
      "##โองการ": 7427,
      "##ตึก": 7428,
      "##ราชภัฏ": 7429,
      "##สันหลัง": 7430,
      "##งู": 7431,
      "##ความถี่": 7432,
      "มีผลงาน": 7433,
      "##การต่อสู้": 7434,
      "ดำรง": 7435,
      "##เสถียร": 7436,
      "##ได้ด้วย": 7437,
      "เง": 7438,
      "##คนไข้": 7439,
      "เกร": 7440,
      "โพ": 7441,
      "##ตัวไป": 7442,
      "##ที่ต้องการ": 7443,
      "##แกะ": 7444,
      "##มาก็": 7445,
      "ชื่อเล่น": 7446,
      "การ์": 7447,
      "##จารึก": 7448,
      "##ิเม": 7449,
      "##การทำ": 7450,
      "##ตอนปลาย": 7451,
      "##จอร์จ": 7452,
      "##กซ์": 7453,
      "##man": 7454,
      "##ขอให้": 7455,
      "##แอตแลน": 7456,
      "##ประชาธิปัตย์": 7457,
      "##ในโอลิมปิกฤดูหนาว": 7458,
      "##เออร์": 7459,
      "##พลเรือน": 7460,
      "##แชมเปียนส์": 7461,
      "ap": 7462,
      "##เนื้อเรื่อง": 7463,
      "##มวยไทย": 7464,
      "คิม": 7465,
      "##ด่าน": 7466,
      "ซึ่งใน": 7467,
      "##ทุกอย่าง": 7468,
      "##เรียบร้อย": 7469,
      "ขอ": 7470,
      "##ยี่": 7471,
      "##าสม": 7472,
      "ทะเล": 7473,
      "##ัทร": 7474,
      "##ช่วงเวลา": 7475,
      "##ระบุว่า": 7476,
      "##โพล": 7477,
      "2563": 7478,
      "##ก้าวหน้า": 7479,
      "อาจารย์": 7480,
      "##ฝุ่น": 7481,
      "##ตัวอักษร": 7482,
      "car": 7483,
      "ไล": 7484,
      "##ve": 7485,
      "##ที่มหาวิทยาลัย": 7486,
      "##yp": 7487,
      "##จราจร": 7488,
      "##มด": 7489,
      "##ช่อ": 7490,
      "##หอย": 7491,
      "##วดี": 7492,
      "##ประจำปี": 7493,
      "สิ": 7494,
      "##กลอง": 7495,
      "##บริสุทธิ์": 7496,
      "พง": 7497,
      "##ปลายปี": 7498,
      "##สลัก": 7499,
      "นับเป็น": 7500,
      "##ร่อง": 7501,
      "##มีผลงาน": 7502,
      "##ทรงเป็น": 7503,
      "##เดียม": 7504,
      "##สุร": 7505,
      "##พื้นผิว": 7506,
      "##ร์รี่": 7507,
      "go": 7508,
      "##ซีแลนด์": 7509,
      "เบล": 7510,
      "##คาร์บอน": 7511,
      "##สิต": 7512,
      "##เทือกเขา": 7513,
      "no": 7514,
      "เอา": 7515,
      "##ทริก": 7516,
      "##ศุกร์": 7517,
      "##หนี้": 7518,
      "##หลายแห่ง": 7519,
      "##ance": 7520,
      "จะต้อง": 7521,
      "##ผู้เป็น": 7522,
      "##ภาคใต้": 7523,
      "จอร์": 7524,
      "##บวร์": 7525,
      "##อิสริยาภรณ์": 7526,
      "2519": 7527,
      "##ความกำกวม": 7528,
      "##ีก็": 7529,
      "##แต่งงานกับ": 7530,
      "##พิพากษา": 7531,
      "สหราชอาณาจักร": 7532,
      "##พากย์": 7533,
      "ชิ": 7534,
      "##ail": 7535,
      "##ชาติน": 7536,
      "##สังฆ": 7537,
      "##up": 7538,
      "##ขี้": 7539,
      "##ผสาน": 7540,
      "##ปฏิส": 7541,
      "##จังหวะ": 7542,
      "##ักษา": 7543,
      "##วุฒิ": 7544,
      "##ตอบรับ": 7545,
      "##่อย่าง": 7546,
      "รัฐมนตรี": 7547,
      "##ทีมชาติไทย": 7548,
      "##เวลานาน": 7549,
      "##ลือ": 7550,
      "##สร้างสรรค์": 7551,
      "##อิรัก": 7552,
      "120": 7553,
      "##อวัยวะ": 7554,
      "##ลาส": 7555,
      "##ใดๆ": 7556,
      "##ได้โดย": 7557,
      "##ริเริ่ม": 7558,
      "ชู": 7559,
      "##อนิ": 7560,
      "สัปดาห์": 7561,
      "แมน": 7562,
      "##ทยาศาสตร์": 7563,
      "##ฐานะเป็น": 7564,
      "##ฝา": 7565,
      "##bo": 7566,
      "##ผลิ": 7567,
      "85": 7568,
      "โดยใน": 7569,
      "##รัชทายาท": 7570,
      "##ทางทหาร": 7571,
      "##ไม่มีการ": 7572,
      "##ออกมาจาก": 7573,
      "##วัยรุ่น": 7574,
      "##ปริญญาโท": 7575,
      "แหล": 7576,
      "##ยูไนเต็ด": 7577,
      "##สำเนียง": 7578,
      "##มูลค่า": 7579,
      "อำเภอบ": 7580,
      "ท่าอากาศยาน": 7581,
      "##ทั้งใน": 7582,
      "##ไทยแลนด์": 7583,
      "วิก": 7584,
      "แสง": 7585,
      "##สามารถใช้": 7586,
      "##มารับ": 7587,
      "##เข้ารอบ": 7588,
      "##สุดา": 7589,
      "##หลายชนิด": 7590,
      "สมเด็จพระราชินี": 7591,
      "แก้ความกำกวม": 7592,
      "##พรม": 7593,
      "##พระที่นั่ง": 7594,
      "##ลาออกจาก": 7595,
      "##พื้นดิน": 7596,
      "##ได้นำ": 7597,
      "##สัญชาติ": 7598,
      "1970": 7599,
      "กำลัง": 7600,
      "และใช้": 7601,
      "##ค่าใช้จ่าย": 7602,
      "##cl": 7603,
      "##และถูก": 7604,
      "ประชา": 7605,
      "##สังคมนิยม": 7606,
      "##ดอกไม้": 7607,
      "##แต่งตั้งเป็น": 7608,
      "72": 7609,
      "##วรวงศ์เธอ": 7610,
      "##เมื่อเดือน": 7611,
      "##ไหม้": 7612,
      "##สอดคล้อง": 7613,
      "ท้อง": 7614,
      "##ด้า": 7615,
      "##ยง": 7616,
      "##ัตน": 7617,
      "##เสมือน": 7618,
      "##az": 7619,
      "##บูรณะ": 7620,
      "##กันและ": 7621,
      "##ดับเบิลยู": 7622,
      "##แต่นั้น": 7623,
      "##ากิ": 7624,
      "##แซม": 7625,
      "ผู้น": 7626,
      "##นี้ถูก": 7627,
      "##ใหญ่ของ": 7628,
      "สุข": 7629,
      "ab": 7630,
      "##ence": 7631,
      "##พัฒน์": 7632,
      "อยุ": 7633,
      "##มรดกโลก": 7634,
      "##็อบ": 7635,
      "##ว้าง": 7636,
      "##รัมย์": 7637,
      "62": 7638,
      "##มาได้": 7639,
      "##บริหารส่วนตำบล": 7640,
      "##กัก": 7641,
      "##ที่แสดง": 7642,
      "##เสพ": 7643,
      "##ชาวญี่ปุ่น": 7644,
      "ตั้งอยู่ใน": 7645,
      "สมเด็จพระเจ้า": 7646,
      "##การพัฒนา": 7647,
      "##สนเทศ": 7648,
      "##สุล": 7649,
      "##เนียร์": 7650,
      "##กรุงเทพฯ": 7651,
      "##ย้ายมา": 7652,
      "##ธิปไตย": 7653,
      "##ผัก": 7654,
      "##ทุกข์": 7655,
      "##ปราบปราม": 7656,
      "##ในอนาคต": 7657,
      "##ไม่เป็น": 7658,
      "##โคจร": 7659,
      "1994": 7660,
      "it": 7661,
      "##ิกซ์": 7662,
      "##สัตว์เลี้ยง": 7663,
      "บา": 7664,
      "##มอร์": 7665,
      "##เขน": 7666,
      "##ทางเดิน": 7667,
      "##จัดการแข่งขัน": 7668,
      "โปรด": 7669,
      "##อุ่น": 7670,
      "##เนชัน": 7671,
      "ชัย": 7672,
      "ปาก": 7673,
      "##กัล": 7674,
      "##แรงบันดาลใจ": 7675,
      "##สุนทร": 7676,
      "my": 7677,
      "##เสริ": 7678,
      "##ุค": 7679,
      "##ต่าน": 7680,
      "##อย่างหนัก": 7681,
      "##แก๊ส": 7682,
      "##ในกรุง": 7683,
      "##เงื่อนไข": 7684,
      "##มีความหมาย": 7685,
      "2532": 7686,
      "ก่อนที่": 7687,
      "##ใกล้กับ": 7688,
      "แพ้": 7689,
      "##หมอ": 7690,
      "cor": 7691,
      "##97": 7692,
      "##ปะทะ": 7693,
      "เป็นชื่อ": 7694,
      "##เล่นให้กับ": 7695,
      "##ตุรกี": 7696,
      "1997": 7697,
      "ในการแข่งขัน": 7698,
      "##การ์ด": 7699,
      "##ในสงคราม": 7700,
      "อยุธยา": 7701,
      "2527": 7702,
      "ประวัติ": 7703,
      "##ล็อก": 7704,
      "##ซอง": 7705,
      "มีพื้นที่": 7706,
      "##วน์": 7707,
      "##ชั่วโมง": 7708,
      "##ยีน": 7709,
      "##ron": 7710,
      "##กระสุน": 7711,
      "##รัฐมนตรีว่าการกระทรวง": 7712,
      "##ในเวลาต่อมา": 7713,
      "##ดจ์": 7714,
      "##แสวง": 7715,
      "##บริจาค": 7716,
      "##นามว่า": 7717,
      "##ชิงแชมป์โลก": 7718,
      "##อเมริกาเหนือ": 7719,
      "2529": 7720,
      "##เธอก็": 7721,
      "love": 7722,
      "##ามหาวิทยาลัย": 7723,
      "คัน": 7724,
      "นาม": 7725,
      "##เฮนรี": 7726,
      "##ขีด": 7727,
      "##แข็งแรง": 7728,
      "##กระจก": 7729,
      "##ขึ้นครองราชย์": 7730,
      "อาการ": 7731,
      "##พันปี": 7732,
      "##พระชนมายุ": 7733,
      "##ale": 7734,
      "##ื้อน": 7735,
      "เหล่า": 7736,
      "##มีความสามารถ": 7737,
      "##มะเร็ง": 7738,
      "สุน": 7739,
      "##ตั": 7740,
      "พลเอก": 7741,
      "##ามัย": 7742,
      "95": 7743,
      "##เอียง": 7744,
      "##ยั้ง": 7745,
      "##สร้างเป็น": 7746,
      "##เอ็ดเวิร์ด": 7747,
      "ได้ถูก": 7748,
      "##๊ป": 7749,
      "##หัสบดี": 7750,
      "ศึก": 7751,
      "intern": 7752,
      "##หมวด": 7753,
      "##ภาษาส": 7754,
      "##วอ": 7755,
      "##ชนนี": 7756,
      "##สามี": 7757,
      "##แห่งหนึ่ง": 7758,
      "##คณะรัฐมนตรี": 7759,
      "##สำเร็จราชการ": 7760,
      "2518": 7761,
      "##วิชาชีพ": 7762,
      "ส่งผลให้": 7763,
      "##อิเล็กทรอนิกส์": 7764,
      "กิโลกรัม": 7765,
      "นี่": 7766,
      "##ผ่อน": 7767,
      "##แข็งแกร่ง": 7768,
      "##ตับ": 7769,
      "##กันดั้ม": 7770,
      "มิว": 7771,
      "##ลัน": 7772,
      "##านต์": 7773,
      "##ข้างเคียง": 7774,
      "##โพธิ์": 7775,
      "ดยุก": 7776,
      "##การบริหาร": 7777,
      "##ทรีย์": 7778,
      "2530": 7779,
      "เริ่มต้น": 7780,
      "##ทิว": 7781,
      "##จญ": 7782,
      "##มากนัก": 7783,
      "im": 7784,
      "##ที่ทรง": 7785,
      "##ปีศาจ": 7786,
      "65": 7787,
      "##ค้าง": 7788,
      "##ในวงการ": 7789,
      "##ท่วม": 7790,
      "##ของอังกฤษ": 7791,
      "##เปิดสอน": 7792,
      "##อิม": 7793,
      "2523": 7794,
      "น้อง": 7795,
      "##ลุ่ม": 7796,
      "##มีชื่อเสียง": 7797,
      "##กุมารี": 7798,
      "##ซอฟต์แวร์": 7799,
      "##ทักษะ": 7800,
      "##ทริ": 7801,
      "##ตั้งอยู่ใน": 7802,
      "ภูมิ": 7803,
      "##ให้ได้": 7804,
      "##ทางกาย": 7805,
      "##เพิ่ง": 7806,
      "เปลี่ยน": 7807,
      "##ram": 7808,
      "แต่การ": 7809,
      "##อู่": 7810,
      "##ิดล": 7811,
      "##พี่ชาย": 7812,
      "##ขับไล่": 7813,
      "##แขก": 7814,
      "##การะ": 7815,
      "##เยาว์": 7816,
      "##เรย์": 7817,
      "##ตัวผู้": 7818,
      "ปริ": 7819,
      "##กุฎราช": 7820,
      "##สวามี": 7821,
      "##ฮะ": 7822,
      "##หลอก": 7823,
      "##บาต": 7824,
      "##เอเชียนเกมส์": 7825,
      "##โยธิน": 7826,
      "47": 7827,
      "##ัตสึ": 7828,
      "สถาป": 7829,
      "##ภิบาล": 7830,
      "##เดียวกันกับ": 7831,
      "##ประหารชีวิต": 7832,
      "ชุม": 7833,
      "เชื่อ": 7834,
      "##คาน": 7835,
      "##แบคทีเรีย": 7836,
      "##สภาวะ": 7837,
      "##ในสังกัด": 7838,
      "##ขึ้นเมื่อ": 7839,
      "ประช": 7840,
      "##อนุชา": 7841,
      "##แคลิฟอร์เนีย": 7842,
      "we": 7843,
      "คุ": 7844,
      "##สำรอง": 7845,
      "การศึกษา": 7846,
      "ศาสตราจารย์": 7847,
      "51": 7848,
      "ed": 7849,
      "##แห่งความ": 7850,
      "##พันธุกรรม": 7851,
      "##บวร": 7852,
      "##ระลึก": 7853,
      "โดยเริ่ม": 7854,
      "##คุย": 7855,
      "##ท่าเรือ": 7856,
      "##สุนัข": 7857,
      "##อัตราการ": 7858,
      "##ฟุตบอลโลก": 7859,
      "##ดัม": 7860,
      "##สิริ": 7861,
      "##เหง": 7862,
      "##พิตร": 7863,
      "##หมัด": 7864,
      "##กาญ": 7865,
      "##แผนก": 7866,
      "พลัง": 7867,
      "มณฑล": 7868,
      "ทั้งคู่": 7869,
      "##นัดดา": 7870,
      "##ณุโลก": 7871,
      "##ในรัฐ": 7872,
      "award": 7873,
      "##นึก": 7874,
      "##ตามมา": 7875,
      "##หายใจ": 7876,
      "##ยืม": 7877,
      "##นิ้ว": 7878,
      "##สี่เหลี่ยม": 7879,
      "##เชษฐา": 7880,
      "##จันทน์": 7881,
      "ไมล์": 7882,
      "##วุฒิสภา": 7883,
      "##หัตถ": 7884,
      "##ในวงศ์": 7885,
      "##สันนิษฐาน": 7886,
      "##คิม": 7887,
      "##พระราชินี": 7888,
      "##ทศวรรษที่": 7889,
      "ซิงเกิล": 7890,
      "##ในโลก": 7891,
      "##ของประชาชน": 7892,
      "##โต๊ะ": 7893,
      "##ฮอล": 7894,
      "##ดยุก": 7895,
      "ผู้เป็น": 7896,
      "##พระราชดำเนิน": 7897,
      "และจะ": 7898,
      "##โมะ": 7899,
      "พัฒ": 7900,
      "และทรง": 7901,
      "##โลหิต": 7902,
      "##ใบไม้": 7903,
      "##วัตถุประสงค์": 7904,
      "##รุ่งเรือง": 7905,
      "สิ้น": 7906,
      "##ซาเบธ": 7907,
      "##จัดงาน": 7908,
      "และให้": 7909,
      "##ข้น": 7910,
      "##หน้านั้น": 7911,
      "##นิเวศ": 7912,
      "##มหาวิหาร": 7913,
      "##สหพันธ์": 7914,
      "เส้นเมริเดียนที่": 7915,
      "dis": 7916,
      "โดยมีการ": 7917,
      "##เกมอน": 7918,
      "##บพิตร": 7919,
      "##ชื้น": 7920,
      "##ับถือ": 7921,
      "##วงจร": 7922,
      "##ที่วัด": 7923,
      "##ตอนต้น": 7924,
      "##ทหารบก": 7925,
      "##ไฮโดร": 7926,
      "##สวด": 7927,
      "##ามารถ": 7928,
      "##รวมตัว": 7929,
      "##สู้รบ": 7930,
      "##ออสการ์": 7931,
      "##ที่ชื่อ": 7932,
      "##เกิดจากการ": 7933,
      "เป็นนักฟุตบอล": 7934,
      "##สัด": 7935,
      "##สู่วง": 7936,
      "##ตู้": 7937,
      "##ตัม": 7938,
      "และพระ": 7939,
      "รู้": 7940,
      "##ที่เขียน": 7941,
      "ซึ่งต่อมา": 7942,
      "##เศรษฐศาสตร์": 7943,
      "##ในยุโรป": 7944,
      "##มน้ำ": 7945,
      "##ลายู": 7946,
      "##มองเห็น": 7947,
      "วัฒ": 7948,
      "##ซอล": 7949,
      "##ในตัว": 7950,
      "##ความมั่นคง": 7951,
      "240": 7952,
      "ฝรั่งเศส": 7953,
      "##เปรียบเทียบ": 7954,
      "คู": 7955,
      "##ern": 7956,
      "##ก่อนที่จะ": 7957,
      "##มุมมอง": 7958,
      "##ทารก": 7959,
      "cent": 7960,
      "##ผ่": 7961,
      "##อุส": 7962,
      "กิจ": 7963,
      "##เจมส์": 7964,
      "บิดา": 7965,
      "##โก้": 7966,
      "2522": 7967,
      "##แมตช์": 7968,
      "แผน": 7969,
      "##ite": 7970,
      "##กองทัพบก": 7971,
      "##น้ำตาล": 7972,
      "กก": 7973,
      "##เพื่อเป็น": 7974,
      "##โรมาเนีย": 7975,
      "แยก": 7976,
      "##ที่ไม่ได้": 7977,
      "##กลายมาเป็น": 7978,
      "##รวมกัน": 7979,
      "สภา": 7980,
      "##ดิบ": 7981,
      "71": 7982,
      "##อังคาร": 7983,
      "วิทยา": 7984,
      "##ของดาว": 7985,
      "##และไม่": 7986,
      "##ภาษณ์": 7987,
      "##ครั้งนั้น": 7988,
      "##เจ้าร": 7989,
      "##สุริย": 7990,
      "##สิ้นสุดลง": 7991,
      "ราว": 7992,
      "##โศก": 7993,
      "##ความจำ": 7994,
      "ในอดีต": 7995,
      "##พระบาทสมเด็จพระจุลจอมเกล้าเจ้าอยู่หัว": 7996,
      "##ขั้วโลก": 7997,
      "##ที่นิยม": 7998,
      "##เกษตรศาสตร์": 7999,
      "##ฟต์": 8000,
      "##ได้ออก": 8001,
      "##มุน": 8002,
      "##หลังจากการ": 8003,
      "##ัศวิน": 8004,
      "เท่านั้น": 8005,
      "โดยให้": 8006,
      "##yl": 8007,
      "ทิศ": 8008,
      "##ว่ายน้ำ": 8009,
      "##้อยกว่า": 8010,
      "##ส่วนท้องถิ่น": 8011,
      "##แม่น": 8012,
      "##ครั้งแรกในปี": 8013,
      "##เณ": 8014,
      "##ซีเรีย": 8015,
      "ตั้งแต่วันที่": 8016,
      "##ข้อตกลง": 8017,
      "##ere": 8018,
      "##บางชนิด": 8019,
      "##ของพระนาง": 8020,
      "ซูเปอร์": 8021,
      "##อำเภอเมือง": 8022,
      "##เถียง": 8023,
      "##ใช้ชื่อ": 8024,
      "##เภสัช": 8025,
      "##เวลส์": 8026,
      "##olog": 8027,
      "ตัน": 8028,
      "##ire": 8029,
      "##สัมพันธมิตร": 8030,
      "##ประชาส": 8031,
      "##ื้อย": 8032,
      "##ความขัดแย้ง": 8033,
      "##เช่า": 8034,
      "##ใช้ชีวิต": 8035,
      "##จำแนก": 8036,
      "##แวน": 8037,
      "##เทิล": 8038,
      "##เลอ": 8039,
      "##ไมโคร": 8040,
      "##บ่อยครั้ง": 8041,
      "##ฬิกา": 8042,
      "##เกิ้ล": 8043,
      "##เจ้าเมือง": 8044,
      "##ในแนว": 8045,
      "##เวอร์ชัน": 8046,
      "##เสด็จสวรรคต": 8047,
      "1991": 8048,
      "ดำเนิน": 8049,
      "ศิลปิน": 8050,
      "##ัญญ": 8051,
      "##เกษตรกรรม": 8052,
      "##มอบหมาย": 8053,
      "##ธงชาติ": 8054,
      "##เซโล": 8055,
      "##องค์ที่": 8056,
      "จึงมี": 8057,
      "ซึ่งเป็นการ": 8058,
      "##นครศรีธรรมราช": 8059,
      "แป": 8060,
      "##ากลับ": 8061,
      "##กั้น": 8062,
      "ในเวลา": 8063,
      "##เชื่อมโยง": 8064,
      "##ไปจนถึง": 8065,
      "ในงาน": 8066,
      "##เอกซ์": 8067,
      "เอช": 8068,
      "##ยิ่งขึ้น": 8069,
      "##นเร": 8070,
      "##ต้อน": 8071,
      "สมรส": 8072,
      "##สัตว์ป่า": 8073,
      "##ไก่": 8074,
      "##อิเล็กตรอน": 8075,
      "##เทิร์น": 8076,
      "ในยุค": 8077,
      "##ทางศาสนา": 8078,
      "พระราชทาน": 8079,
      "##ด้านหน้า": 8080,
      "##เสริฐ": 8081,
      "##ในพระ": 8082,
      "กำกับโดย": 8083,
      "##คิง": 8084,
      "##อาชญ": 8085,
      "##เท่ากัน": 8086,
      "##จอมพล": 8087,
      "##เชียงราย": 8088,
      "##ผืน": 8089,
      "##ทางอากาศ": 8090,
      "##หรือการ": 8091,
      "ผู้เล่น": 8092,
      "ในระหว่าง": 8093,
      "##็อล": 8094,
      "##แผล": 8095,
      "##ด่วน": 8096,
      "##ควัน": 8097,
      "##ดำริ": 8098,
      "54": 8099,
      "##ลี้": 8100,
      "##แอม": 8101,
      "##หลังการ": 8102,
      "##ธรรมเนียม": 8103,
      "##เพลงนี้": 8104,
      "##กำหนดให้": 8105,
      "qu": 8106,
      "##าร์ค": 8107,
      "##ดิวเซอร์": 8108,
      "ชม": 8109,
      "##ทางรถไฟ": 8110,
      "##แท่น": 8111,
      "ind": 8112,
      "##เอ็นเอ": 8113,
      "ชีวิต": 8114,
      "64": 8115,
      "##อดี": 8116,
      "600": 8117,
      "sm": 8118,
      "##หม้อ": 8119,
      "เกี่ยว": 8120,
      "ปา": 8121,
      "##วส์": 8122,
      "##ปฏิทิน": 8123,
      "gen": 8124,
      "##านนท์": 8125,
      "##ได้ง่าย": 8126,
      "มาส": 8127,
      "ในวัน": 8128,
      "##นิค": 8129,
      "##คริสเตียน": 8130,
      "##ก้อน": 8131,
      "มูล": 8132,
      "##จำพวก": 8133,
      "##แหง": 8134,
      "##มียอด": 8135,
      "##่ห์": 8136,
      "##เจก": 8137,
      "##สู่อ": 8138,
      "##แทบ": 8139,
      "##เจนตินา": 8140,
      "68": 8141,
      "##เป็นเรื่อง": 8142,
      "##บ้านเมือง": 8143,
      "##แซน": 8144,
      "2528": 8145,
      "##เดย์": 8146,
      "##ดงาม": 8147,
      "##สัมภาษณ์": 8148,
      "##แย่ง": 8149,
      "##ดวงจันทร์": 8150,
      "##พึ่ง": 8151,
      "##ออกซิ": 8152,
      "##โจร": 8153,
      "##อาคารเรียน": 8154,
      "58": 8155,
      "ตี": 8156,
      "##ท่อน": 8157,
      "##มาของ": 8158,
      "##ศรัทธา": 8159,
      "##บวร์ค": 8160,
      "เคล": 8161,
      "##คลับ": 8162,
      "##ำนัก": 8163,
      "##พุทธเจ้า": 8164,
      "##สกอตแลนด์": 8165,
      "##ทำเป็น": 8166,
      "##สงขลา": 8167,
      "##สะอาด": 8168,
      "ผลิตโดย": 8169,
      "ภาวะ": 8170,
      "##ผู้จัดการ": 8171,
      "##สารสนเทศ": 8172,
      "เป็นต้นมา": 8173,
      "##สำนักพิมพ์": 8174,
      "2515": 8175,
      "##ที่แท้จริง": 8176,
      "##หลุด": 8177,
      "##จิ๋ว": 8178,
      "มีประชากร": 8179,
      "##ลำบาก": 8180,
      "มือ": 8181,
      "##ชลบุรี": 8182,
      "มิน": 8183,
      "ศิ": 8184,
      "เดิน": 8185,
      "##สายการบิน": 8186,
      "##ผ่าตัด": 8187,
      "##เขียนบท": 8188,
      "โทร": 8189,
      "##ผลการ": 8190,
      "##ดูเหมือน": 8191,
      "พันธ": 8192,
      "เคน": 8193,
      "##คลอด": 8194,
      "##บิว": 8195,
      "##มหิดล": 8196,
      "##จดทะเบียน": 8197,
      "หอ": 8198,
      "##การเล่น": 8199,
      "##เต้": 8200,
      "เอล": 8201,
      "##ทำความ": 8202,
      "##ลังกา": 8203,
      "##ได้ส่ง": 8204,
      "##กระดาษ": 8205,
      "##และเทคโนโลยี": 8206,
      "มู": 8207,
      "##ศวร": 8208,
      "เศร": 8209,
      "##ฮังการี": 8210,
      "##เป็นลูก": 8211,
      "##แชมป์โลก": 8212,
      "##ฟอร์ม": 8213,
      "##เปร": 8214,
      "หมวด": 8215,
      "##แดด": 8216,
      "ในขณะ": 8217,
      "ฮา": 8218,
      "##rit": 8219,
      "##นอกจาก": 8220,
      "##๋อ": 8221,
      "##ด้านบน": 8222,
      "##บรรทุก": 8223,
      "##ด้านล่าง": 8224,
      "##ิศว": 8225,
      "เจ้าของ": 8226,
      "##ash": 8227,
      "ทฤษฎี": 8228,
      "##าน้ำ": 8229,
      "แอล": 8230,
      "##ตัวเมีย": 8231,
      "##นั้นจะ": 8232,
      "##ทีน": 8233,
      "##ศรีนคร": 8234,
      "##เป็นผล": 8235,
      "##เจ้าฟ้า": 8236,
      "##วิชัน": 8237,
      "##ขี่": 8238,
      "##จุฬา": 8239,
      "##จึงต้อง": 8240,
      "##ครั้งที่สอง": 8241,
      "กรรมการ": 8242,
      "##ได้ว่าเป็น": 8243,
      "##ูกิ": 8244,
      "##เอ็กซ์": 8245,
      "##นำมาใช้": 8246,
      "##อาราม": 8247,
      "โคล": 8248,
      "##ร่ม": 8249,
      "##มูลนิธิ": 8250,
      "จิน": 8251,
      "##อับ": 8252,
      "##und": 8253,
      "##เนตร": 8254,
      "all": 8255,
      "##ies": 8256,
      "มหาส": 8257,
      "ไข": 8258,
      "##ครั้งใหญ่": 8259,
      "เธอได้": 8260,
      "1995": 8261,
      "##ome": 8262,
      "##sp": 8263,
      "##ool": 8264,
      "##บันทึกเสียง": 8265,
      "##มากที่สุดใน": 8266,
      "##จักรยาน": 8267,
      "##พระราชธิดา": 8268,
      "สเต": 8269,
      "##เราะ": 8270,
      "##ามะ": 8271,
      "##สาข": 8272,
      "##เป็นการทั่วไป": 8273,
      "##านุกรม": 8274,
      "##โรจน์": 8275,
      "108": 8276,
      "##กุหลาบ": 8277,
      "##ในวง": 8278,
      "##นิพนธ์": 8279,
      "##เบื้องต้น": 8280,
      "แต่น": 8281,
      "มุ": 8282,
      "##ในภาพยนตร์": 8283,
      "##้อบ": 8284,
      "เสียชีวิต": 8285,
      "ดำรงตำแหน่ง": 8286,
      "em": 8287,
      "##เจริญเติบโต": 8288,
      "##คาบสมุทร": 8289,
      "##จะให้": 8290,
      "##เปลี่ยนไป": 8291,
      "##ากรรม": 8292,
      "##รัญ": 8293,
      "##เชน": 8294,
      "##ถ่วง": 8295,
      "##กระดับ": 8296,
      "##น้ำทะเล": 8297,
      "เกิดเมื่อ": 8298,
      "##ถุง": 8299,
      "1972": 8300,
      "##จัดเป็น": 8301,
      "##ในเกม": 8302,
      "##าวน์": 8303,
      "ฟา": 8304,
      "ฮัน": 8305,
      "##เก่ง": 8306,
      "##อย่างกว้างขวาง": 8307,
      "##เขตพื้นที่": 8308,
      "92": 8309,
      "##ได้ทำการ": 8310,
      "##ame": 8311,
      "pol": 8312,
      "##แอส": 8313,
      "89": 8314,
      "##รับราชการ": 8315,
      "##ผู้ชาย": 8316,
      "la": 8317,
      "##ซีก": 8318,
      "##สามเหลี่ยม": 8319,
      "##จุดเริ่มต้น": 8320,
      "61": 8321,
      "ตรา": 8322,
      "##แกล": 8323,
      "##เปอร์เซีย": 8324,
      "##บัส": 8325,
      "##ที่เกี่ยวข้อง": 8326,
      "##อุทิศ": 8327,
      "##ซื่อ": 8328,
      "##พบใน": 8329,
      "##ของโรค": 8330,
      "ค่ำ": 8331,
      "##แมว": 8332,
      "##กลาโหม": 8333,
      "##โยน": 8334,
      "##ของคณะ": 8335,
      "ในกรณี": 8336,
      "##ัปตัน": 8337,
      "ถึงแม้ว่า": 8338,
      "ทว่า": 8339,
      "##อยู่แล้ว": 8340,
      "##สนับสนุนจาก": 8341,
      "##แง่": 8342,
      "##แอนิเม": 8343,
      "##โหลด": 8344,
      "##ยอ": 8345,
      "##เบร": 8346,
      "##โกสิน": 8347,
      "63": 8348,
      "pe": 8349,
      "##ากะ": 8350,
      "##ทรรศ": 8351,
      "##าวุธ": 8352,
      "##ไร่": 8353,
      "##มหาภูมิพลอดุลย": 8354,
      "46": 8355,
      "ทางช่อง": 8356,
      "##พิธีกร": 8357,
      "##ile": 8358,
      "##ของส": 8359,
      "ยุค": 8360,
      "ผู้นำ": 8361,
      "##ธิต": 8362,
      "##เฟร": 8363,
      "##ศิลปากร": 8364,
      "##ไม่อาจ": 8365,
      "##เล็กๆ": 8366,
      "##พากษ์": 8367,
      "อัตรา": 8368,
      "##ดัช": 8369,
      "##บรรเลง": 8370,
      "##ควิชา": 8371,
      "##ของประเทศไทย": 8372,
      "##ได้ยิน": 8373,
      "##พลเอก": 8374,
      "##ปรากฏว่า": 8375,
      "แหล่ง": 8376,
      "##วาระ": 8377,
      "##ann": 8378,
      "กิน": 8379,
      "##สุพรรณ": 8380,
      "##เปล่า": 8381,
      "และอีก": 8382,
      "##ชนิดนี้": 8383,
      "##ตานี": 8384,
      "##กลีบ": 8385,
      "##อุโบสถ": 8386,
      "##นี้น": 8387,
      "##ร่วมมือกับ": 8388,
      "##ท้าว": 8389,
      "##การแพทย์": 8390,
      "##หลับ": 8391,
      "##ด้านหลัง": 8392,
      "##แผ่นดินไหว": 8393,
      "นายกรัฐมนตรี": 8394,
      "เปร": 8395,
      "##อธิการ": 8396,
      "กล่าวคือ": 8397,
      "หรือชื่อ": 8398,
      "##ปลอม": 8399,
      "81": 8400,
      "ซม": 8401,
      "##นั้นได้": 8402,
      "เขาก็": 8403,
      "##สาขาวิชา": 8404,
      "##ว่าราชการ": 8405,
      "1993": 8406,
      "อเมริ": 8407,
      "##โยะ": 8408,
      "โดยไม่": 8409,
      "2525": 8410,
      "##โขง": 8411,
      "##เล็กซานเดอร์": 8412,
      "##คุณค่า": 8413,
      "##วิกฤต": 8414,
      "ดับ": 8415,
      "##ียส": 8416,
      "##จากความ": 8417,
      "##ก็สามารถ": 8418,
      "##ตลอดเวลา": 8419,
      "##โรมันคาทอลิก": 8420,
      "##ากระ": 8421,
      "##ตรงกัน": 8422,
      "ตระ": 8423,
      "รอย": 8424,
      "##ปอด": 8425,
      "##ที่เธอ": 8426,
      "##ัตช์": 8427,
      "##ที่ใช้ในการ": 8428,
      "มากกว่า": 8429,
      "##การรักษา": 8430,
      "##มีผล": 8431,
      "##ism": 8432,
      "##เทป": 8433,
      "โนะ": 8434,
      "เจมส์": 8435,
      "##ของจีน": 8436,
      "ที่นั่ง": 8437,
      "ศาสนา": 8438,
      "##พำนัก": 8439,
      "##ผู้อำนวยการ": 8440,
      "##พร้าว": 8441,
      "ผู้ที่": 8442,
      "##เลือกตั้งเป็น": 8443,
      "##ในลักษณะ": 8444,
      "##จึงเป็น": 8445,
      "ประเทศจีน": 8446,
      "110": 8447,
      "เห็น": 8448,
      "##การเขียน": 8449,
      "และนัก": 8450,
      "##ชาวเยอรมัน": 8451,
      "สถานีรถไฟ": 8452,
      "##จรรย์": 8453,
      "##หลีกเลี่ยง": 8454,
      "##อนิเมะ": 8455,
      "##ผู้เข้าแข่งขัน": 8456,
      "##ชมพู": 8457,
      "##จิตรกรรม": 8458,
      "##โง": 8459,
      "##ายน้ำ": 8460,
      "##ork": 8461,
      "##คลาสสิก": 8462,
      "##คลินิก": 8463,
      "##ลิม": 8464,
      "##ซัล": 8465,
      "และยังมี": 8466,
      "##เจอกับ": 8467,
      "##เคอร์": 8468,
      "##ไซม์": 8469,
      "##เซโลนา": 8470,
      "มีจำนวน": 8471,
      "74": 8472,
      "##หมิง": 8473,
      "หม่อมเจ้า": 8474,
      "##แคร": 8475,
      "วิลเลียม": 8476,
      "##ตัวเลข": 8477,
      "##ยุทธการ": 8478,
      "##ยำ": 8479,
      "##ไม่ค่อย": 8480,
      "##ของราชวงศ์": 8481,
      "##ส่วนประกอบ": 8482,
      "##วีดี": 8483,
      "##หากิน": 8484,
      "แด": 8485,
      "##att": 8486,
      "##จริต": 8487,
      "##ุภ": 8488,
      "##เหว": 8489,
      "ออสเตร": 8490,
      "ag": 8491,
      "##คัส": 8492,
      "##ft": 8493,
      "##โธ": 8494,
      "พบว่า": 8495,
      "##พระศพ": 8496,
      "##กีตาร์": 8497,
      "##ign": 8498,
      "ไม่ได้": 8499,
      "83": 8500,
      "##ซิก": 8501,
      "##นำโดย": 8502,
      "##สถานีวิทยุ": 8503,
      "##พฤหัสบดี": 8504,
      "##อุบลราชธานี": 8505,
      "##ผลักดัน": 8506,
      "##พญา": 8507,
      "##ลูกทุ่ง": 8508,
      "##เอเชียตะวันออกเฉียงใต้": 8509,
      "##รังส": 8510,
      "##ในครั้งนี้": 8511,
      "##มีชื่อ": 8512,
      "##ชำระ": 8513,
      "82": 8514,
      "##ะฮ์": 8515,
      "##ซัค": 8516,
      "ในภาษา": 8517,
      "สาขาวิชา": 8518,
      "กลายเป็น": 8519,
      "##ขึ้นที่": 8520,
      "57": 8521,
      "คง": 8522,
      "##ออง": 8523,
      "##ทางวิทยาศาสตร์": 8524,
      "คลอง": 8525,
      "##ใหม่ของ": 8526,
      "##นึง": 8527,
      "##ไทยเป็นการทั่วไป": 8528,
      "##ทัศน": 8529,
      "##eth": 8530,
      "##ติดต่อกัน": 8531,
      "##เบอร์ลิน": 8532,
      "##ฟ้อง": 8533,
      "##แสดงว่า": 8534,
      "##บุตรชาย": 8535,
      "ขั้น": 8536,
      "##ส่อง": 8537,
      "##อินโด": 8538,
      "##เกลือ": 8539,
      "ไม่ใช่": 8540,
      "##ในประวัติศาสตร์": 8541,
      "##ซึมเศร้า": 8542,
      "gr": 8543,
      "##ตรัง": 8544,
      "##เจียง": 8545,
      "##หัวเมือง": 8546,
      "##ที่มีลักษณะ": 8547,
      "##จับกุม": 8548,
      "2526": 8549,
      "##แชมเปียนส์ลีก": 8550,
      "เศรษฐ": 8551,
      "mon": 8552,
      "##ติช": 8553,
      "สมรสกับ": 8554,
      "##ไผ่": 8555,
      "##พิชิต": 8556,
      "##คีรี": 8557,
      "##ล่มสลาย": 8558,
      "ในชื่อ": 8559,
      "##pl": 8560,
      "##ของเข": 8561,
      "##สิทธ": 8562,
      "หรือการ": 8563,
      "88": 8564,
      "##ประมง": 8565,
      "comm": 8566,
      "2524": 8567,
      "##ต้นแบบ": 8568,
      "เซอร์": 8569,
      "รถไฟ": 8570,
      "ทา": 8571,
      "##ให้เห็นว่า": 8572,
      "##ปลัด": 8573,
      "ก็จะ": 8574,
      "อาณาจักร": 8575,
      "##แนวทาง": 8576,
      "##แม้แต่": 8577,
      "##ผิวหนัง": 8578,
      "##เทศบาลตำบล": 8579,
      "art": 8580,
      "แกร": 8581,
      "##เลก": 8582,
      "##แขวน": 8583,
      "##ราหม": 8584,
      "##พระองค์ทรง": 8585,
      "ห่าง": 8586,
      "##กระบ": 8587,
      "##ในการสร้าง": 8588,
      "##ครบรอบ": 8589,
      "##โกสินทร์": 8590,
      "##ความไม่": 8591,
      "##เดร": 8592,
      "##นาญ": 8593,
      "93": 8594,
      "##พรรคประชาธิปัตย์": 8595,
      "เรื่องราว": 8596,
      "##ฝาก": 8597,
      "##ครั้งสุดท้าย": 8598,
      "##จบการศึกษา": 8599,
      "##อย่างไร": 8600,
      "##อยู่น": 8601,
      "สะพาน": 8602,
      "##วิท": 8603,
      "##อันเป็น": 8604,
      "##เจ้านาย": 8605,
      "##จิตรกร": 8606,
      "university": 8607,
      "##ัคซีน": 8608,
      "##พิษณุโลก": 8609,
      "##บรู": 8610,
      "พร้อมทั้ง": 8611,
      "##บังคับให้": 8612,
      "คอร์": 8613,
      "##บรรลุ": 8614,
      "##อาร์เจนตินา": 8615,
      "##พิธีก": 8616,
      "##ฝ่า": 8617,
      "##สำเร็จการศึกษา": 8618,
      "##เรื่องการ": 8619,
      "##สูงขึ้น": 8620,
      "เสม": 8621,
      "##มาต": 8622,
      "##มหาศ": 8623,
      "##หลักทรัพย์": 8624,
      "เบน": 8625,
      "##เมอ": 8626,
      "##าน์": 8627,
      "##มนุษย": 8628,
      "101": 8629,
      "##๊ด": 8630,
      "##ความเสี่ยง": 8631,
      "กระทั่ง": 8632,
      "รัชกาล": 8633,
      "gl": 8634,
      "##ค้าขาย": 8635,
      "##ear": 8636,
      "##ประกาศว่า": 8637,
      "ตัด": 8638,
      "##จอง": 8639,
      "##อุดร": 8640,
      "##แหล่งน้ำ": 8641,
      "##มีโอกาส": 8642,
      "ในเมือง": 8643,
      "2517": 8644,
      "##ชื่นชอบ": 8645,
      "##วิเศษ": 8646,
      "กู": 8647,
      "##ำนาจ": 8648,
      "##ประจำการ": 8649,
      "ประชากร": 8650,
      "##ตั้งอยู่ที่": 8651,
      "##ชนิดอื่น": 8652,
      "ด้วยเหตุ": 8653,
      "##ตาร": 8654,
      "##ายณ์": 8655,
      "##อย่างรุนแรง": 8656,
      "##น้ำแข็ง": 8657,
      "##เป็นที่ตั้งของ": 8658,
      "##โดยรวม": 8659,
      "##บาลี": 8660,
      "##แห่งปี": 8661,
      "##ต่างจาก": 8662,
      "##ทางการแพทย์": 8663,
      "##เกาหลีเหนือ": 8664,
      "##ต่อกัน": 8665,
      "จัดเป็น": 8666,
      "##กุฎราชกุมาร": 8667,
      "##ลัด": 8668,
      "ของประเทศ": 8669,
      "##เฉลิมพระเกียรติ": 8670,
      "##สู่วงการ": 8671,
      "##ศนา": 8672,
      "##เวส": 8673,
      "##เนล": 8674,
      "##ind": 8675,
      "##อุทยานแห่งชาติ": 8676,
      "##คนโต": 8677,
      "##โชกุน": 8678,
      "##กระจายพันธุ์": 8679,
      "ไมเคิล": 8680,
      "##ต้องใช้": 8681,
      "##ปกคลุม": 8682,
      "แถ": 8683,
      "##เครน": 8684,
      "##เห็นด้วย": 8685,
      "##ในสมัยนั้น": 8686,
      "สภาพ": 8687,
      "##ส่งผล": 8688,
      "##เนื้อเยื่อ": 8689,
      "แก้ว": 8690,
      "บิ": 8691,
      "98": 8692,
      "##ญ์": 8693,
      "##กลไก": 8694,
      "##สิ่งก่อสร้าง": 8695,
      "##สมัครเล่น": 8696,
      "##ปักกิ่ง": 8697,
      "มีพระ": 8698,
      "##มป์": 8699,
      "##กฤษฎ": 8700,
      "##ผู้บัญชาการ": 8701,
      "##ปลาส": 8702,
      "##ุกเฉิน": 8703,
      "##คูณ": 8704,
      "##สมการ": 8705,
      "##ลิป": 8706,
      "##ฟิล์ม": 8707,
      "##สวัสดิ์": 8708,
      "ครอบครัว": 8709,
      "เป็นคำ": 8710,
      "##เทล": 8711,
      "##จากมหาวิทยาลัย": 8712,
      "##ัฐมนตรี": 8713,
      "pre": 8714,
      "บรา": 8715,
      "##ศาว": 8716,
      "##ึน": 8717,
      "##คอง": 8718,
      "##ส่วนที่": 8719,
      "##บทุก": 8720,
      "##ธรณี": 8721,
      "จิต": 8722,
      "##บอส": 8723,
      "##บรรพบุรุษ": 8724,
      "gre": 8725,
      "##เดือด": 8726,
      "##ชิงตัน": 8727,
      "2516": 8728,
      "หมู่ที่": 8729,
      "แคว้น": 8730,
      "ไช": 8731,
      "##ัชน": 8732,
      "##าท์": 8733,
      "##เรียล": 8734,
      "เพื่อเป็น": 8735,
      "##เข้าร่วมแข่งขัน": 8736,
      "นิยม": 8737,
      "##เตอร์เทนเมนต์": 8738,
      "##ยกทัพ": 8739,
      "##เลือกตั้งสมาชิกสภาผู้แทนราษฎรไทยเป็นการทั่วไป": 8740,
      "##เห็นชอบ": 8741,
      "##ลูกด้วย": 8742,
      "##แป้ง": 8743,
      "##ปกครองส่วนท้องถิ่น": 8744,
      "##ศาสตรบัณฑิต": 8745,
      "##ันท์": 8746,
      "##กองทัพเรือ": 8747,
      "##มานาน": 8748,
      "##ของฝรั่งเศส": 8749,
      "##สมเด็จ": 8750,
      "ที่ได้": 8751,
      "##คุ้มกัน": 8752,
      "##พบได้": 8753,
      "##เหนือจาก": 8754,
      "##โชค": 8755,
      "อุทยาน": 8756,
      "##อำเภอบ": 8757,
      "##ถ์": 8758,
      "ต่อจาก": 8759,
      "สุดท้าย": 8760,
      "##ลวง": 8761,
      "##งับ": 8762,
      "##คาว": 8763,
      "และเริ่ม": 8764,
      "ประเทศฝรั่งเศส": 8765,
      "##บุคลิก": 8766,
      "##เมา": 8767,
      "##บ่อ": 8768,
      "##พร้อมกัน": 8769,
      "##เด็จพระราชาธิบดี": 8770,
      "1989": 8771,
      "##ium": 8772,
      "##อนามัย": 8773,
      "##ชาวฝรั่งเศส": 8774,
      "##เช่นเดียวกัน": 8775,
      "##ros": 8776,
      "##จญภัย": 8777,
      "##เภา": 8778,
      "##anc": 8779,
      "##ขอบเขต": 8780,
      "##rop": 8781,
      "##มีบทบาท": 8782,
      "##โปเลียน": 8783,
      "แฟน": 8784,
      "##ภูมิศาสตร์": 8785,
      "ดยุกแห่ง": 8786,
      "บรม": 8787,
      "อาศัย": 8788,
      "##ร่วง": 8789,
      "##ber": 8790,
      "##ัญชนะ": 8791,
      "##ไลท์": 8792,
      "พิธี": 8793,
      "เกล": 8794,
      "##old": 8795,
      "นั่นคือ": 8796,
      "บิล": 8797,
      "ร่าง": 8798,
      "เกา": 8799,
      "##พึง": 8800,
      "##ได้เริ่ม": 8801,
      "##ปรารถ": 8802,
      "##พลเมือง": 8803,
      "##ท้องที่": 8804,
      "ล้านดอลลาร์สหรัฐ": 8805,
      "##ก่อนหน้านี้": 8806,
      "##เจรจา": 8807,
      "mod": 8808,
      "ฐาน": 8809,
      "##นรา": 8810,
      "##แม่ทัพ": 8811,
      "##ฮาว": 8812,
      "##เมฆ": 8813,
      "##จึงถูก": 8814,
      "##ช่วยว่าการกระทรวง": 8815,
      "##กวาด": 8816,
      "##ก๊าซ": 8817,
      "##ิ้ม": 8818,
      "##ดีเด่น": 8819,
      "##ป็อป": 8820,
      "##ลึ": 8821,
      "##อกัน": 8822,
      "##ตั้งถิ่นฐาน": 8823,
      "international": 8824,
      "##ทบุรี": 8825,
      "##ัคคี": 8826,
      "ป่า": 8827,
      "##ดัก": 8828,
      "##หมาก": 8829,
      "ได้รับรางวัล": 8830,
      "##ทันสมัย": 8831,
      "##งก": 8832,
      "##พุ": 8833,
      "1945": 8834,
      "##คาล": 8835,
      "##ที่เหมาะสม": 8836,
      "2520": 8837,
      "##กุ้ง": 8838,
      "##โรล": 8839,
      "##เป็นตัวแทน": 8840,
      "##อเน": 8841,
      "##่อีก": 8842,
      "##บลู": 8843,
      "เป็นนักร้อง": 8844,
      "##แอง": 8845,
      "##แก้ปัญหา": 8846,
      "##เรนซ์": 8847,
      "##โกรธ": 8848,
      "##ler": 8849,
      "ลิเวอร์พูล": 8850,
      "เจน": 8851,
      "##ผลไม้": 8852,
      "##เนา": 8853,
      "##ยืด": 8854,
      "##อร์ส": 8855,
      "##ลูกชาย": 8856,
      "##โค้": 8857,
      "##ที่ผ่านมา": 8858,
      "##ซากิ": 8859,
      "##คริสตจักร": 8860,
      "ลีก": 8861,
      "วัง": 8862,
      "##เรียบเรียง": 8863,
      "##ัซ": 8864,
      "ซึ่งสามารถ": 8865,
      "##เจ้าอาวาส": 8866,
      "160": 8867,
      "tim": 8868,
      "อิส": 8869,
      "##ข้อก": 8870,
      "##ix": 8871,
      "##ราชสุดา": 8872,
      "##สะเท": 8873,
      "##ลพ": 8874,
      "##ภาพที่": 8875,
      "##งานวิจัย": 8876,
      "##ัสเซีย": 8877,
      "##าระหว่าง": 8878,
      "##วิลเลียม": 8879,
      "ประกอบไปด้วย": 8880,
      "##ขึ้นเมื่อวันที่": 8881,
      "##พลาส": 8882,
      "##สีน้ำเงิน": 8883,
      "tri": 8884,
      "แต่ถ้า": 8885,
      "ออกจำหน่าย": 8886,
      "##ยอดขาย": 8887,
      "##ันต์": 8888,
      "เป็นคน": 8889,
      "ww": 8890,
      "##ชาล": 8891,
      "##ep": 8892,
      "##สมทบ": 8893,
      "##ชนชั้น": 8894,
      "##ประทับใจ": 8895,
      "gu": 8896,
      "##พาร": 8897,
      "##ปีเตอร์": 8898,
      "##ดาวเทียม": 8899,
      "##ในประเทศญี่ปุ่น": 8900,
      "##ทิพย์": 8901,
      "##ใกล้เคียงกับ": 8902,
      "##โฉม": 8903,
      "cou": 8904,
      "##พีเดีย": 8905,
      "อดีตร": 8906,
      "##มนตร์": 8907,
      "##หลายปี": 8908,
      "##อายุไม่เกิน": 8909,
      "res": 8910,
      "##มกลาง": 8911,
      "##สกัด": 8912,
      "##ของทีม": 8913,
      "##เนะ": 8914,
      "##ศาสนาคริสต์": 8915,
      "พิม": 8916,
      "##ต้นฉบับ": 8917,
      "##อาจจะเป็น": 8918,
      "ยิ่ง": 8919,
      "##ซ้อม": 8920,
      "##ระบบการ": 8921,
      "##เทศบาลเมือง": 8922,
      "เสน": 8923,
      "##มีอำนาจ": 8924,
      "##อย่างไม่": 8925,
      "กล่าวว่า": 8926,
      "ดา": 8927,
      "##โหว": 8928,
      "##รับใช้": 8929,
      "##ขับเคลื่อน": 8930,
      "##ความสูง": 8931,
      "##ฉุกเฉิน": 8932,
      "##ในห้อง": 8933,
      "##่นี้": 8934,
      "##บรรณา": 8935,
      "##แอตแลนติก": 8936,
      "73": 8937,
      "ศิริ": 8938,
      "##เลต": 8939,
      "##เจลิส": 8940,
      "2500": 8941,
      "##จัดจำหน่าย": 8942,
      "ขับ": 8943,
      "##ในชีวิต": 8944,
      "##ในพระเจ้า": 8945,
      "##ได้ใช้": 8946,
      "##ักษณ์": 8947,
      "##ในปีค": 8948,
      "##ิวะ": 8949,
      "##โตน": 8950,
      "##มีความยาว": 8951,
      "##เข้มข้น": 8952,
      "##ที่เรียก": 8953,
      "##ที่ดีที่สุด": 8954,
      "##การประกวด": 8955,
      "##ประจุ": 8956,
      "##วิชั่น": 8957,
      "##กิตติ": 8958,
      "##สายตา": 8959,
      "##ฟาโรห์": 8960,
      "##ฮินดู": 8961,
      "##เค้า": 8962,
      "สตาร์": 8963,
      "ในรัฐบาล": 8964,
      "##ยับยั้ง": 8965,
      "##เวสต์": 8966,
      "##ส่งออก": 8967,
      "##เดิมว่า": 8968,
      "##ฝึกหัด": 8969,
      "ไว้": 8970,
      "##อเมริกาใต้": 8971,
      "##กันระหว่าง": 8972,
      "##ร้องโดย": 8973,
      "##นิวซีแลนด์": 8974,
      "มนุษย์": 8975,
      "##วอน": 8976,
      "##สาวรีย์": 8977,
      "##ากลุ่ม": 8978,
      "##ผสมผสาน": 8979,
      "มิลลิ": 8980,
      "##ในความ": 8981,
      "##ทางประวัติศาสตร์": 8982,
      "##ินีนาถ": 8983,
      "##ล้านนา": 8984,
      "##เรื่อยๆ": 8985,
      "อาส": 8986,
      "##อิล": 8987,
      "2511": 8988,
      "##แผนที่": 8989,
      "##บึง": 8990,
      "##าร์ต": 8991,
      "##พันธรัฐ": 8992,
      "##ุบ": 8993,
      "##ress": 8994,
      "##เซา": 8995,
      "##หาญ": 8996,
      "##ทัด": 8997,
      "##ฮู": 8998,
      "##การทดลอง": 8999,
      "##รัศ": 9000,
      "##ผ่านมา": 9001,
      "##ที่ใหญ่ที่สุด": 9002,
      "เหรียญทอง": 9003,
      "##ปัน": 9004,
      "##ะเร็ง": 9005,
      "##ตอเรีย": 9006,
      "##ในรูป": 9007,
      "##คำตอบ": 9008,
      "##ไรเดอร์": 9009,
      "จง": 9010,
      "##นุ": 9011,
      "##ว่าด้วย": 9012,
      "##หัวหน้าพรรค": 9013,
      "ปราสาท": 9014,
      "ตระกูล": 9015,
      "700": 9016,
      "##ขง": 9017,
      "##ินิ": 9018,
      "เป็นที่รู้จัก": 9019,
      "##ขึ้นเพื่อ": 9020,
      "เมล": 9021,
      "##นางเจ้า": 9022,
      "ริ": 9023,
      "##ธิวาส": 9024,
      "##จักรพรรดินี": 9025,
      "เลข": 9026,
      "##อัญเชิญ": 9027,
      "102": 9028,
      "##แซง": 9029,
      "##ศาลา": 9030,
      "##สไตล์": 9031,
      "music": 9032,
      "##๋อง": 9033,
      "##เดส": 9034,
      "##โมย": 9035,
      "##อภัย": 9036,
      "##มีอยู่": 9037,
      "##เซม": 9038,
      "กว้าง": 9039,
      "เอน": 9040,
      "##กวาง": 9041,
      "##ไม่ดี": 9042,
      "##โดวส์": 9043,
      "##ราหมณ์": 9044,
      "##โพร": 9045,
      "##ามาร": 9046,
      "##ซัง": 9047,
      "##ภาคเหนือ": 9048,
      "เซลล์": 9049,
      "cont": 9050,
      "##ปวง": 9051,
      "##ษี": 9052,
      "##กันได้": 9053,
      "##ต้นปี": 9054,
      "##ยูฟ่า": 9055,
      "##กูร": 9056,
      "##เสพติด": 9057,
      "##พยายามที่จะ": 9058,
      "##เพชรบุรี": 9059,
      "##หมา": 9060,
      "##สปีชีส์": 9061,
      "##งานของ": 9062,
      "ปัจจุบันคือ": 9063,
      "##ปราคา": 9064,
      "1968": 9065,
      "##ยิ่งใหญ่": 9066,
      "##ทวี": 9067,
      "##ไปกับ": 9068,
      "##สุรินทร์": 9069,
      "##ผสมพันธุ์": 9070,
      "##ึม": 9071,
      "##นาที": 9072,
      "##ิตา": 9073,
      "ที่จะ": 9074,
      "กะ": 9075,
      "##สุก": 9076,
      "##ของพรรค": 9077,
      "##ไปทางทิศ": 9078,
      "##พราน": 9079,
      "##ันทึก": 9080,
      "##เอลิ": 9081,
      "84": 9082,
      "ตัวละคร": 9083,
      "##รุ่นที่": 9084,
      "1964": 9085,
      "##ทรรศน์": 9086,
      "##ลอส": 9087,
      "130": 9088,
      "##บุคลากร": 9089,
      "##ดอง": 9090,
      "##หนะ": 9091,
      "##รับเชิญ": 9092,
      "##นี้ยัง": 9093,
      "##ition": 9094,
      "กรมหลวง": 9095,
      "##หุ่นยนต์": 9096,
      "##การเปลี่ยนแปลง": 9097,
      "##บนเกาะ": 9098,
      "และไม่": 9099,
      "##นาฏ": 9100,
      "##เต็มไปด้วย": 9101,
      "##จักรวรรดิโรมัน": 9102,
      "แคล": 9103,
      "##ตามกฎหมาย": 9104,
      "##ในการทำ": 9105,
      "##แอป": 9106,
      "##ีสถาน": 9107,
      "##ลี้ภัย": 9108,
      "##เข้าเรียน": 9109,
      "##แกเรีย": 9110,
      "##สาวะ": 9111,
      "##ทราบว่า": 9112,
      "##แต่งตั้งให้": 9113,
      "ในฤดูกาล": 9114,
      "##ผ่านไป": 9115,
      "##แคระ": 9116,
      "##มารวม": 9117,
      "##คู่แข่ง": 9118,
      "##บุรีรัมย์": 9119,
      "##วัช": 9120,
      "##สมัครรับ": 9121,
      "สถานที่": 9122,
      "##ปรารถนา": 9123,
      "ชอบ": 9124,
      "##อธ": 9125,
      "##โอด": 9126,
      "##แก่กรรม": 9127,
      "##สลาก": 9128,
      "##สรรค": 9129,
      "##คิน": 9130,
      "และเป็นผู้": 9131,
      "##ัตน์": 9132,
      "##ปืนใหญ่": 9133,
      "##เสื้อผ้า": 9134,
      "1976": 9135,
      "##เคียว": 9136,
      "จะได้": 9137,
      "##งดงาม": 9138,
      "##เจ้าพระ": 9139,
      "##ทิเบต": 9140,
      "บิน": 9141,
      "กระทรวงศึกษาธิการ": 9142,
      "##แคว": 9143,
      "##เพื่อที่จะ": 9144,
      "เอ็ด": 9145,
      "##มีส่วนร่วม": 9146,
      "##แลง": 9147,
      "##ขึ้นใหม่": 9148,
      "##เบิก": 9149,
      "##วินัย": 9150,
      "##ได้สร้าง": 9151,
      "##ความนิยม": 9152,
      "##วิพากษ์": 9153,
      "##เต่า": 9154,
      "##ตาซี": 9155,
      "##ics": 9156,
      "end": 9157,
      "##ชรา": 9158,
      "##ผลประโยชน์": 9159,
      "##อโร": 9160,
      "##กับพระ": 9161,
      "##มีค่า": 9162,
      "##รัตนโกสินทร์": 9163,
      "มัง": 9164,
      "##ที่เกี่ยวข้องกับ": 9165,
      "##ตรดิต": 9166,
      "##ล์ม": 9167,
      "2521": 9168,
      "ยังคง": 9169,
      "ธนาคาร": 9170,
      "##ในภูมิภาค": 9171,
      "##มาลา": 9172,
      "##พุธ": 9173,
      "##bs": 9174,
      "##ารคาม": 9175,
      "##ของสัตว์": 9176,
      "##แรน": 9177,
      "##ผึ้ง": 9178,
      "##ระดับสูง": 9179,
      "##แอนเจลิส": 9180,
      "##ไอน": 9181,
      "##เงินรางวัล": 9182,
      "##เร้า": 9183,
      "##เด็ด": 9184,
      "เขามี": 9185,
      "##เหมือง": 9186,
      "##เลขที่": 9187,
      "ที่ย": 9188,
      "##รื้อ": 9189,
      "##จู่": 9190,
      "##จะทำ": 9191,
      "##ได้รับพระราชทาน": 9192,
      "##วุ่น": 9193,
      "##โปล": 9194,
      "##ที่กำหนด": 9195,
      "##สัดส่วน": 9196,
      "##ราชอิสริยาภรณ์": 9197,
      "สตี": 9198,
      "เป็นโรงเรียน": 9199,
      "##คำแนะนำ": 9200,
      "joh": 9201,
      "##พับ": 9202,
      "##ทางโทรทัศน์": 9203,
      "77": 9204,
      "วร": 9205,
      "##ปรัสเซีย": 9206,
      "##หยา": 9207,
      "##ดัตช์": 9208,
      "จะเป็น": 9209,
      "##ลาล": 9210,
      "##จัต": 9211,
      "เป็นกลุ่ม": 9212,
      "อนึ่ง": 9213,
      "พายุ": 9214,
      "##ทรงจำ": 9215,
      "##ยาร": 9216,
      "##ที่ให้": 9217,
      "##เขาก": 9218,
      "##uk": 9219,
      "mag": 9220,
      "##ติมาก": 9221,
      "##แมค": 9222,
      "จัดตั้ง": 9223,
      "##สุสาน": 9224,
      "เวล": 9225,
      "##ที่จะเป็น": 9226,
      "ทั่ว": 9227,
      "##ื้อก": 9228,
      "##ภาว": 9229,
      "สิงห์": 9230,
      "##แย่": 9231,
      "##ก้า": 9232,
      "##ma": 9233,
      "##ประเสริฐ": 9234,
      "section": 9235,
      "##ความรุนแรง": 9236,
      "##ิร์ฟ": 9237,
[...]
