#version: 0.2 - Trained by `huggingface/tokenizers`
à ¸
à¸ ²
à¸² à¸
à¸ Ļ
¹ Ī
à ¹Ī
à¸ Ń
¹ Ģ
à ¹Ģ
¹ ī
à ¹ī
à¹Ģ à¸
à¸ £
à¸ ģ
à¸ ±
à¸ ¡
à¸ ĩ
à¸ µ
à¸ §
à¸ ¢
à¸ Ķ
à¸ ļ
à¸ Ħ
à¸ ¥
à¸ °
¹ Ħ
à ¹Ħ
à¸ Ĺ
à¸ ´
à¸ ķ
¹ ģ
à ¹ģ
à¸ «
à¸ ª
à¸ Ī
à¸ ·
à¸ Ľ
¹ ĥ
à ¹ĥ
¹ ĩ
à ¹ĩ
à¸µ à¹Ī
à¸Ń à¸ĩ
à¸ ¹
à¸ ¸
à¸ Ĥ
à¸ Ĭ
à¸ ŀ
à¸²à¸ £
à¸²à¸ ģ
¹ į
à ¹į
à¸²à¸ Ļ
Ġ à¹Ģà¸
à¸²à¸ ¢
¹ Į
à ¹Į
à¸²à¸ ĩ
à¸²à¸ ¡
à¹Ħ à¸¡
¹ Ĥ
à ¹Ĥ
à¸Ń à¸¢
à¹ģ à¸¥
à¸Ń à¸Ļ
à¸ ĸ
à¸· à¹Ī
à¸ ľ
à¹Ģà¸ £
à¸ ¶
à¸£ à¸°
à¹Ħ à¸Ķ
à¸Ħ à¸£
à¹Ģà¸ Ľ
à¸ģ à¸²à¸£
à¹ĥ à¸«
à¹Ħ à¸Ľ
à¹Ģà¸ ¥
à¸± à¹ī
à¸µ à¹ī
à¸Ń à¸ģ
à¸Ī à¸°
à¸« à¸Ļ
à¹ĥ à¸Ļ
à¸¹ à¹ī
Ġ à¹ģ
à¸ ĵ
à¸ ĭ
à¸Ń à¸ļ
à¹ģà¸¥ à¸°
à¸²à¸ §
à¸Ħ à¸Ļ
à¸§ à¸¢
à¸²à¸ Ħ
à¸Ħ à¸§
à¸ į
à¹Ģà¸ Ĥ
à¸Ľ à¸£à¸°
à¸²à¸ Ĺ
à¸Ĥ à¸Ńà¸ĩ
Ġ à¸ģ
Ġ à¸Ĺ
à¹Ģà¸ ģ
Ġ à¸ª
à¹Ģà¸ «
à¹Ģà¸ Ķ
à¹Ģà¸ ŀ
à¸Ļ à¸Ĺ
à¸ Ł
à¸¹ à¹Ī
Ġ à¸¡
à¸« à¸¥
à¸²à¸ Ī
à¸ ł
à¸Ħà¸§ à¸²à¸¡
à¸ ¨
à¸²à¸ «
à¸ ĺ
à¹Ģà¸ Ħ
à¹Ģà¸¥ à¸¢
à¸ģ à¸¥
Ġ à¸ķ
à¸²à¸ ķ
à¸Ń à¸¡
à¸£ à¸²à¸
à¸« à¸¡
à¹Ģà¸ Ĺ
à¸« à¸£
à¸§ à¸Ļ
à¸ľ à¸¡
Ġ à¸Ħ
à¸Ī à¸²à¸ģ
¹ Ĩ
à ¹Ĩ
Ġ 1
à¸¡ à¸²à¸ģ
Ġà¹ģ à¸ķ
à¸ ©
à¸Ļ à¸°
à¹ĥ à¸Ī
Ġ à¸ŀ
à¹ĥ à¸Ĭ
Ġ 2
à¸ļ à¸ļ
. .
à¸´ à¹Ī
Ġ à¸Ļ
à¹Ģà¸ ª
Ġ à¸£
Ġ Ċ
à¸²à¸ Ķ
à¸Ń à¸Ķ
à¹Ħ à¸£
Ġ à¹ģà¸¥à¸°
à¸²à¸ ª
à¸¢ à¸Ļ
à¸± à¹Ī
à¸ģ à¸£
à¸ķ à¸£
à¹ģ à¸ķ
â Ģ
à¸Ń à¸°
à¸²à¸ ¥
à¸Ń à¸£
à¸¢ à¸§
à¸· à¹ī
à¸Ļ à¸Ļ
Ġà¹Ģà¸ £
à¹Ģà¸ ¡
à¸²à¸ Ń
à¸¡ à¸²
à¹Ģ à¸Ń
Ġ à¸Ń
à¹Ĥ à¸Ķ
à¹Ģà¸ Ī
Ġ à¸Ī
à¸²à¸ ŀ
à¸ģ à¸§
à¸ļ à¸£
à¸¶ à¹Ī
Ġà¹Ģà¸ ŀ
à¸ĩ à¸²à¸Ļ
0 0
à¹Ģà¸ §
à¸Ńà¸¢ à¸²à¸ģ
à¸Ħ à¸°
Ġ à¸Ĥ
à¸§ à¸ĩ
Ġ à¹Ħà¸¡
à¸¸ à¹Ī
à¹Ģà¸ ķ
à¸£à¸²à¸ °
5 5
à¹ģ à¸ļà¸ļ
à¸ĩ à¸Ĺ
à¸Ļ à¸ģ
à¹Ģ à¸Ļ
à¸¶ à¹ī
à¹Ģà¸£ à¸²
Ġ à¸ļ
à¹Ģà¸ Ĭ
Ġ à¸Ľ
à¸Ĺ à¸¢
- -
à¸²à¸Ī à¸°
à¸Ļ à¸ķ
à¸ĩ à¸ª
Ġ à¸§
à¹ī à¹į
Ġ à¸ĸ
à¸¡ à¸²à¸
à¸§ à¸¡
Ġ à¸Ĭ
à¸£ à¸¡
à¸¢ à¸ĩ
à¸² à¹Ħà¸¡
à¹Ĥà¸Ķ à¸¢
à¸Ļ à¸ª
à¸Ńà¸° à¹Ħà¸£
à¸²à¸ ļ
à¸ Ĳ
à¹Ģ à¸Ńà¸ĩ
à¸§ à¸ģ
à¸Ļ à¸Ķ
Ġ 3
à¸Ń à¸Ńà¸ģ
à¹Ģà¸ ĩ
Ġ s
à¸¥ à¸°
ð Ł
à¸ĩ à¸Ħ
Ġ à¸ĭ
à¸« à¸§
i n
à¸¥ à¸ĩ
à¸² à¹ģ
Ġà¹Ģà¸ Ľ
¹ Ĭ
à ¹Ĭ
à¸ĩ à¸ģ
à¸Ļ à¸Ħ
à¸Ī à¸£
à¸²à¸ Ĭ
à¸² à¹ĥà¸«
Ġ à¹ģà¸¥
à¸²à¸ Ĥ
Ġ à¸Ķ
Ġ (
à¸Ľ à¸£
à¸ Ŀ
à¸¢ à¸ģ
à¹ĥ à¸Ħà¸£
à¸Ĺ à¸£
a n
à¹Ħ à¸Ĺà¸¢
Ġ #
Ġ à¸«à¸£
à¹Ģà¸ ļ
à¸Ļ à¸¡
à¹Ħ à¸«à¸Ļ
à¸ģ à¸ģ
e r
Ġ à¸¥
o n
à¸ľ à¸¥
à¹Ħ à¸§
à¸Ĺ à¸²à¸ĩ
à¸ķ à¸²à¸¡
à¹ģ à¸¡
Ġ à¸ľà¸¡
à¸Ļ à¸§
à¹ģ à¸£
Ġ t
à¸Ń à¸ª
à¸ĩ à¸Ļ
Ġ à¹Ĥ
à¸ł à¸²à¸ŀ
Ġ à¸¢
à¸ŀ à¸£
Ġ c
à¸ļ à¸Ńà¸ģ
à¹Ħ à¸«à¸¡
à¹Ģà¸ ¢
à¸ģ à¸£à¸°
à¹Ģà¸§ à¸¥
à¸´ à¹ī
à¸ģ à¸©
à¸Ńà¸Ļ à¸Ļ
Ġà¹Ģà¸ŀ à¸£à¸²à¸°
à¸ģ à¸ķ
à¸ģ à¸Ĺ
Ġ à¸Īà¸°
à¸Ľ à¸¥
à¸ª à¸¡
Ġ âĢ
à¸ĩ à¹Ħà¸¡
à¸ª à¸Ļ
à¹Ģà¸« à¸¡
à¹ĥà¸« à¸¡
à¸ ī
à¸² à¹Ħà¸Ľ
Ġ à¹ĥà¸Ļ
à¸²à¸£ à¸ĸ
à¸² à¹Ģà¸Ľ
à¹Ģà¸Ħ à¸¢
à¸ª à¸Ķ
à¸²à¸ Ľ
à¹ģ à¸ģ
Ġ à¹Ĥà¸Ķà¸¢
à¸² à¹Ģà¸£
Ġ à¸«
à¸Ń à¸§
à¸ļ à¸ģ
à¹Ģà¸Ĺ à¸¨
à¸ĩ à¸ķ
à¸Ļ à¸Ń
à¹Ĥ à¸£
Ġ a
à¸Ħ à¸¥
à¸Ń à¸¥
Ġ à¸ľ
à¸²à¸« à¸Ļ
à¸Ļ à¸¢
Ġ m
à¹Ħ à¸ĩ
Ġà¹Ģà¸ ¥
à¸Ļ à¹Ħà¸Ľ
Ġ 4
à¹Ģà¸Ħ à¸£
à¸ĩ à¸¡
à¸Ķ à¸Ĺ
Ġ p
à¸£ à¸ĸ
à¹Ģà¸Ľ à¸¥
à¸²à¸¡ à¸²à¸£à¸ĸ
à¸Ĭ à¸Ńà¸ļ
à¸Ļ à¹ģ
Ġà¹Ģà¸ ¡
r e
à¸ĸ à¸²à¸¡
Ġ 5
-- --
à¸²à¸Ń à¸¢
Ġ à¹Ħà¸Ķ
à¸ ®
à¹Ģà¸ ĭ
âĢ Ŀ
à¹Ģà¸ŀ à¸£à¸²à¸°
Ġ à¸Ńà¸¢à¸²à¸ģ
Ġ b
à¸²à¸ģ à¸²à¸£
Ġà¹Ģà¸ Ĥ
à¸²à¸« à¸£
à¸§ à¸Ī
à¸Ľà¸£à¸° à¹Ģà¸Ĺà¸¨
Ġ à¸Ħà¸Ļ
à¸ĩ à¸Ĥ
à¸²à¸ĩ à¸²à¸Ļ
à¸¸ à¹ī
à¸Ńà¸ĩ à¸Ĺ
à¸Ł à¸Ļ
Ġ h
à¸«à¸¥ à¸²à¸¢
à¸Ķ à¸ª
¹ ĭ
à¹Ĥ à¸¥
à ¹ĭ
à¸Ķ à¸ķ
à¹ģ à¸Ħ
à¸¢ à¸¡
ĠâĢ ľ
à¸ŀ à¸£à¸°
a r
à¸²à¸ ¨
à¸ļ à¸Ĺ
Ġ à¸Ńà¸¢
à¸Ĺ à¸ĺ
o r
à¹Ģà¸« à¸¥
à¸Ń à¸ķ
à¹ĥà¸« à¸į
.. .
à¸²à¸ ĸ
à¸ĵ à¸°
e n
à¸Ļà¸° à¸Ħà¸°
à¸Ńà¸ļ à¸Ħ
à¹ģ à¸Ĺ
à¸Ń à¸Ĺ
à¸Ķ à¸§
Ġà¹Ģà¸ «
à¸Ń à¸Ħ
à¸£ à¸²à¸¢
a t
Ġ f
à¹ĥ à¸ª
à¸¡à¸²à¸ ĵ
à¸²à¸ °
à¸²à¸ ľ
Ġ "
o m
à¸Ļà¸° à¸Ļ
à¸Ļ à¹Ħà¸¡
à¸«à¸¡ à¸Ķ
à¸ŀ à¸¥
Ġà¹Ģà¸ Ħ
Ġ :
à¹ģà¸ļà¸ļ à¸Ļ
à¸ĩ à¸§
Ġà¹Ģà¸ Ķ
à¸£ à¸£à¸¡
a l
à¸ļ à¸Ļ
Ġ à¸ģà¸²à¸£
à¸¡ à¸Ļ
Ġ l
à¸Ľà¸£à¸° à¸Ĭ
à¸¢ à¸Ķ
à¸§ à¹Ģà¸Ńà¸ĩ
à¸² à¹Ħà¸Ķ
à¸ŀ à¸¢
à¸£à¸²à¸ ļ
à¹Ģà¸« à¸ķ
à¹Ħ à¸Ł
à¸¢à¸§ à¸ģ
à¸Ń à¸Ń
à¸Ļ à¸£
à¸ģ à¸Ķ
à¸į à¸«
Ġ 6
à¸ļ à¸ª
à¸Ľà¸£à¸° à¸ģ
à¸ĩ à¹Ħà¸ĩ
Ġà¸ģ à¸¥
à¸ļ à¸ģà¸²à¸£
Ġà¸ļ à¸²à¸Ĺ
à¸§ à¸£
à¸Ļà¸Ĺ à¸²à¸ĩ
à¹Ģà¸£ à¸²à¸ģ
Ġ à¸«à¸¥
à¹ģà¸£ à¸ģ
à¸Ļ à¹Ħà¸Ķ
à¸ģ à¸ª
à¸ ¤
à¸Ļ à¸Ħà¸Ļ
Ġ à¸Ħà¸£
Ġ à¸Īà¸²à¸ģ
à¸¥ à¸Ńà¸Ķ
à¸Ĭ à¸²à¸¢
âĢ ĭ
à¸Ńà¸ĩ à¸Ļ
i t
à¸ģà¸£ à¸£à¸¡
Ġ d
à¸¢ à¸ļ
à¸ŀ à¸Ń
à¸Ĥ à¸Ń
à¸Ļ à¸ļ
à¸ ¯
à¸Ńà¸Ļ à¸ģ
i c
à¸«à¸¡ à¸²à¸¢
à¸ĺ à¸£à¸£à¸¡
à¹Ģà¸¢ à¸Ńà¸°
à¸ļ à¸ķ
à¸ª à¸²à¸¡à¸²à¸£à¸ĸ
à¸Ļ à¸ģà¸²à¸£
à¸Ļ à¸Ĭ
à¸Ľà¸£à¸° à¸¡à¸²à¸ĵ
à¸Ļ à¸Ńà¸¢
Ġ w
à¸ģ à¸Ħ
à¸Ħà¸§ à¸£
à¸ª à¸£
à¸ª à¸Ńà¸ļ
Ġ à¸Ĥà¸Ńà¸ĩ
à¸ĩ à¹ģà¸ķ
à¸ļ à¸¡
à¸Ħà¸§à¸²à¸¡ à¸£
.. ..
à¸Ļ à¸Ĥ
Ġ à¹Ħà¸Ľ
à¸Īà¸° à¸¡
à¸Ļ à¸ŀ
à¸Ĭ à¸²à¸ķ
à¹ģ à¸Łà¸Ļ
à¸Ļ à¸Ī
55 55
a m
à¹Ģà¸ ī
à¸ĩ à¸£
à¸ģ à¸Ħà¸Ļ
à¹Ħ à¸Ĥ
Ġ g
t t
à¸Ļ à¹Ģà¸Ľ
à¸²à¸Ĥ à¸Ńà¸ĩ
s t
à¸¡ à¸Ĺ
à¸Ļ à¹ĥà¸Ī
à¸ĩ à¹Ģà¸£
Ġ -
à¸Ļà¸° à¸Ħà¸£
o u
à¸ĩ à¸Ķ
à¸§ à¸Ķ
à¸ļ à¸Ħ
00 0
à¸Ń à¹Ħà¸¡
à¸£à¸²à¸ Ĭ
à¹ĥà¸Ļ à¸ģà¸²à¸£
Ġ2 5
à¸ĩ à¹Ģà¸Ľ
/ /
à¹Ħ à¸¥
à¸« à¸²à¸¢
à¸Ĭ à¸Ļ
Ġ à¹Ģà¸Ń
à¹Ģà¸ ¨
à¸Ļ à¹Ģà¸£
à¹ģ à¸Ī
Ġ à¸«à¸Ļ
à¸Ńà¸Ļ à¸Ĺ
à¸Ĥ à¸²à¸¢
à¸£ à¸Ħ
Ġ2 0
à¸« à¸²à¸£
à¸² à¹ĥà¸Ī
i l
à¸Ńà¸ĩ à¸ģ
à¸Ļ à¹Ģà¸Ķ
à¸²à¸ ĺ
a c
à¸²à¸ĩ à¸Ĺ
Ġ à¹ĥà¸«
à¸ĸ à¸²à¸Ļ
à¹Ĥ à¸¡
à¸Ķ à¸ģ
à¸ĩ à¸Īà¸²à¸ģ
Ġà¸ŀ à¸£
à¹Ģ à¸Ńà¸ģ
à¸Ń à¸Ħà¸§à¸²à¸¡
à¸Ń à¹Ħà¸Ľ
à¸²à¸ĩ à¸ģ
Ġà¹Ģà¸ Ĭ
à¸« à¸į
à¹ģ à¸ŀ
à¸Ń à¸Ľ
Ġ 7
à¸Ńà¸ĩ à¸ģà¸²à¸£
Ġ n
à¸Ķ à¸Ļ
à¸Ńà¸ĩ à¸¡
à¸¡ à¸ķ
à¸ĩ à¸Īà¸°
à¸² à¹Ģà¸Ĥ
à¹Ĥ à¸Ĺà¸£
à¸ Ĵ
Ġà¹Ģà¸ ģ
Ġà¹Ģà¸¥ à¸¢
à¸Ńà¸ĩ à¸Ħ
à¸Ńà¸ĩ à¸£
à¹ģ à¸«
à¸Ļ à¸²à¸Ķ
à¹ģ à¸Ĥ
* *
à¹ģ à¸Ļ
à¸į à¸į
à¸Ļ à¸Ħà¸£
Ġà¸ķ à¸Ńà¸Ļà¸Ļ
à¹Ģà¸ ĺ
à¸ ı
à¸²à¸ ©
à¸¢ à¸£
à¸²à¸« à¸²à¸£
à¸ĩ à¸«à¸§
i s
à¸Ļ à¸ľ
à¸ İ
à¸Ħà¸Ļ à¸Ĺ
à¸ĩ à¸ģà¸²à¸£
à¸Ķ à¸Ĥ
à¸Ļ à¸¥
à¹Ģà¸ª à¸£
Ġà¹Ģà¸ Ī
à¸¡ à¸ŀ
à¸ģ à¸Ħà¸£
à¸ļ à¸§
o o
à¸Ĺ à¸£à¸²à¸ļ
à¸Ļ à¸ĺ
à¸ĩ à¸ļ
Ġà¹Ģà¸ §
à¸Ķ à¸Ķ
à¸²à¸« à¸¥
à¸§ à¸§
à¸Ľà¸£à¸° à¸ª
à¹Ģà¸ Ł
à¸ģ à¸Ļ
à¸ģ à¸Ńà¸¢
à¸ł à¸²à¸Ħ
à¸Ļ à¹ĥà¸Ļ
à¸ģà¸£à¸° à¸Ĺ
à¸Ń à¹ĥà¸«
à¹Ģà¸ķ à¸Ńà¸£
à¸ļà¸Ńà¸ģ à¸§
Ġà¹Ģà¸ ª
à¸Ĳ à¸²à¸Ļ
à¸² à¹Ĥ
à¸Ļ à¸«à¸Ļ
w w
tt p
à¸Ļ à¸Īà¸°
h e
à¸ª à¸ķ
à¸ŀ à¸§à¸ģ
Ġà¸Ļ à¸²à¸¢
à¸Ļ à¹Ģà¸ģ
Ġ1 0
à¸ĩ à¹Ĩ
Ġ à¹ĥà¸Ħà¸£
---- ----
à¸Ħà¸§à¸²à¸¡ à¸ª
à¸¢ à¸°
à¹Ģà¸§à¸¥ à¸²
: //
l e
à¸² à¹Ģà¸Ļ
à¹Ģà¸¥à¸¢ à¸Ħ
Ġ ðŁ
_ _
à¸Ļ à¸«
à¸ĩ à¹ģ
à¸²à¸Ī à¸²à¸ģ
Ġà¸Ĥ à¸Ńà¸ļà¸Ħ
à¸ĩ à¸Ń
à¸²à¸ĩ à¹Ħà¸£
à¸²à¸Ń à¸°
à¸ĩ à¸Ī
c om
à¸² à¸²
à¸ģ à¸ĩà¸²à¸Ļ
Ġ e
à¸ł à¸²à¸©
Ġà¹Ģà¸£ à¸²à¸ģ
à¹Ģà¸ ľ
à¸ļ à¸²à¸Ĺ
à¸¡ à¸Ń
à¸ª à¸²à¸£
à¸¢ à¸¢
à¸£à¸° à¸Ĺ
à¹Ģà¸Ī à¸Ń
à¹Ĥ à¸ķ
à¸²à¸ ĭ
i p
à¸ļ à¸²à¸ĩ
à¸Ńà¸ĩ à¸ª
à¹ģ à¸Ļà¸°à¸Ļ
! !
à¸¡ à¸ª
à¹Ĥ à¸Ľà¸£
à¹Ģà¸Ĥ à¸²
Ġ 8
à¸£ à¸²à¸Ħ
à¸ĩ à¸ģà¸¥
o p
à¸ļ à¸²à¸¢
Ġà¸ķ à¸²à¸¡
à¸§ à¸Ĺ
à¸´ à¹Į
à¸¥ à¸Ķ
in g
à¸Ļ à¸Ĥà¸Ńà¸ĩ
o t
à¸Ń à¹Ģà¸£
à¸¥ à¸²à¸Ķ
à¸Ńà¸ĩ à¸ķ
Ġ à¹Ģà¸Ļ
Ġà¹ģ à¸¡
à¸²à¸Ńà¸° à¹Ħà¸£
à¸Ļ à¸²à¸¢
à¸Ļ à¸Ńà¸Ļ
à¸Ļ à¸Ľ
à¸Ĵ à¸Ļ
à¸¡ à¸¡
à¹Ĥà¸¥ à¸ģ
à¸£ à¸ĵ
à¸² à¹Ħ
à¸²à¸ĩ à¸Ļ
à¸Ń à¸²à¸Ī
à¸Ļ à¸ĸ
à¸ĩ à¹Ħà¸Ķ
e t
à¸Ĭ à¸¡
à¸²à¸Ħ à¸£
à¸ķ à¸¢
à¸£à¸° à¸Ķ
Ġ à¹ĥà¸Ĭ
à¸ķ à¸Ńà¸Ļ
à¸ķà¸£ à¸§à¸Ī
à¸²à¸Ļ à¸§à¸Ļ
à¸ģà¸¥ à¸²à¸ĩ
a s
à¸§ à¸Ħ
2 0
à¸Ļà¸Ĺ à¸£
à¹ģ à¸ªà¸Ķ
à¸ģà¸²à¸£ à¸Ĺ
i d
à¸Ļ à¸¡à¸²
à¸« à¸¢
à¸ĩ à¹ĥà¸Ļ
à¸§à¸¢ à¸ģ
à¸²à¸Ħ à¸¡
à¸ł à¸²à¸¢
à¸Ľà¸£à¸°à¸Ĭ à¸²à¸Ĭ
a d
à¸ļ à¸ľ
à¸ĩ à¸¢
à¸²à¸ķ à¸£
à¹Ĥ à¸Ĺ
à¸²à¸Ľ à¸£à¸°
à¹Ħ à¸Ń
à¸£à¸° à¸«à¸§
à¸Ļ à¹Ģà¸ŀ
à¸Ń à¸ĸ
à¸ª à¸°
e l
Ġ k
à¸ĩ à¹ĥà¸Ī
à¸ķ à¸Ńà¸Ļà¸Ļ
à¸£ à¸ģ
Ġ 9
à¸Ħà¸Ļ à¸Ļ
i on
à¸² à¹ĥà¸Ļ
à¸ģà¸²à¸£ à¸ĵ
à¸ĩ à¸«à¸Ļ
à¸²à¸ģ à¸¥
à¸¡ à¸«
à¸²à¸£ à¸°
à¸Ķ à¸Ħ
à¸ĩ à¸Ĭ
à¸Ľà¸£à¸° à¸Ī
Ġ 0
à¸² à¹Ģà¸ŀ
à¸²à¸¢ à¸Ĺ
à¸ģà¸£ à¸ĵ
à¸Ł à¸£
Ġà¹Ģà¸§ à¸¥
+ +
à¹Ģà¸« à¸Ļ
à¹Ī à¹į
à¹Ģà¸£à¸² à¹Ħà¸¡
à¹Ħà¸Ľ à¸Ĺ
à¸ķ à¸Ńà¸ļ
à¸ģ à¸Ĥ
à¸Ļ à¹ģà¸¥
e w
Ġà¹Ģà¸ Ĺ
à¸ª à¸²à¸¢
Ġ v
à¸² à¹Ģà¸Ķ
Ġ25 6
1 9
Ġà¹ģ à¸ļà¸ļ
Ġ r
ttp s
à¸ Ĩ
à¸Ń à¸Ĥ
à¹Ģà¸Ń à¸²
à¸²à¸£ à¸§à¸Ī
à¹Ĥ à¸¢
à¸Ĭ à¸£
à¹Ĥ à¸Ń
u n
à¸¥ à¸Ńà¸ĩ
c h
Ġà¸£ à¸²à¸Ħ
à¸Ń à¸ŀ
à¸Ī à¸Ī
à¸ļ à¸²à¸¥
à¹ĥ à¸ģà¸¥
à¸ļà¸ģ à¸§à¸Ļ
à¹ĥ à¸Ķ
à¸ĩ à¹Ģà¸ģ
à¸Ńà¸ļ à¸Ħà¸£
à¸² à¹Ģà¸ª
à¸¢ à¸²à¸¢
e s
à¸¥à¸° à¸Ħà¸£
à¸Ń à¸ľ
à¸Ķ à¸£
à¸£à¸° à¸ļà¸ļ
à¹Ģ à¹Ģà¸¥
à¸Ń à¹Ģà¸Ľ
à¸Ľ à¸ģà¸ķ
à¸Īà¸° à¸Ĺ
à¸«à¸¥ à¸°
à¸Ļ à¸¡à¸²à¸ģ
à¸Ńà¸ģ à¸²à¸ª
à¸²à¸ģ à¸²à¸¨
à¸Ļ à¹Ģà¸¥à¸¢
a y
à¸ļ à¸Ĥ
à¸ĩ à¸ĩà¸²à¸Ļ
à¸ķ à¸Ļ
an d
à¹Ħà¸¥ à¸Ļ
à¸ĩ à¸Ħà¸£
Ġà¸£ à¸§à¸¡
à¸²à¸ĩ à¸§
o l
Ġà¹Ģà¸£ à¸²
à¸§ à¸ª
à¸ĩ à¸Ńà¸¢
à¸Īà¸° à¹Ģà¸Ľ
i g
à¹Ģà¸Ĺ à¸ŀ
à¹ĥ à¸ķ
à¸ĩ à¸«
à¸ģ à¸¡
à¸į à¸Ĭ
à¹Ħà¸«à¸¡ à¸Ħà¸£
à¸ļ à¹Ħà¸Ľ
u s
1 0
à¸§à¸Ļ à¸ķ
Ġ à¸Ħà¸§à¸²à¸¡
à¸ĩ à¹Ħà¸Ľ
Ġ à¸¨
à¸²à¸Ħ à¸²à¸£
à¸Ńà¸ĩ à¸Īà¸²à¸ģ
à¹ģ à¸ľ
à¸ĩ à¸Ľ
à¸ĺ à¸Ļ
à¹Ģà¸ŀ à¸¥à¸ĩ
à¸Ń à¸²à¸¢
à¸¢à¸Ļ à¸ķ
à¸Ńà¸ĩ à¹Ģà¸Ĺ
Ġ1 5
t h
à¸£à¸° à¸ļ
à¸Ńà¸ģ à¸§
à¸¡à¸²à¸ Ĭ
ðŁ ĺ
à¸²à¸Ħ à¸§
à¸² à¹Ģà¸ģ
Ġ à¸ļà¸£
à¹Ģà¸¥ à¸Ĥ
à¸²à¸Ļ à¸Ĺ
à¸²à¸¡ à¸²à¸ģ
Ġ à¹Ĩ
à¹ĥ à¸ļ
à¸ĩ à¸Ĥà¸Ńà¸ĩ
à¸ª à¸ĸà¸²à¸Ļ
à¸Ļ à¹Ĥ
à¸ĩ à¸ĩ
à¸Ńà¸ģ à¸Īà¸²à¸ģ
à¸£ à¸©
à¸ĩ à¸ŀ
à¸¡ à¸²à¸¢
à¸Ļ à¹ĥà¸«
à¸¢ à¸Ńà¸¡
Ġà¸ª à¸§
Ġ o
à¸Ķ à¸ĸ
Ġà¸Ľ à¸¥
à¸Ķ à¸Ń
à¸° à¹Ģà¸¥
à¸Ń à¸«
à¸Ńà¸ĩ à¸Ķ
à¸ģ à¸ŀ
à¸Ķ à¸ķà¸²à¸¡
à¸Ļ à¸²à¸Ļ
à¹ģ à¸ĸ
à¸Ķ à¸ģà¸²à¸£
à¸² à¹ĥà¸Ĭ
à¸§ à¸ķ
in e
Ġà¸ķ à¸Ńà¸Ļ
à¸Ļ à¸ĭ
à¸Ń à¸²à¸«à¸²à¸£
ðŁ ĳ
à¸² à¹ģà¸¥
à¹Ĥ à¸Ńà¸ģà¸²à¸ª
à¸Ī à¸Ļ
à¸²à¸¢ à¸Ļ
à¸¡ à¸ģ
à¸¤ à¸©
Ġà¸Ĥ à¸Ń
à¸²à¸¢ à¸ģ
à¸¡ à¸Ĥ
à¸Ĭ à¸²à¸§
à¸¥ à¸ĩà¸Ĺ
à¸² à¹Ģà¸¥
à¸§ à¸Ĥ
à¸ŀ à¸²à¸°
à¸ķ à¸¥à¸Ńà¸Ķ
à¸ļ à¸Ńà¸¥
à¸²à¸ ĵ
a g
à¸Ħà¸Ļ à¸Ń
i m
à¸Īà¸° à¹Ħà¸Ķ
à¸£ à¸Ńà¸ļ
à¸ļ à¸¥
à¸Ļ à¹Ģà¸Ĥ
Ġ re
à¸ģ à¹Ģà¸£
à¸²à¸ĩ à¸Ħà¸£
à¸²à¸Ħà¸§ à¸²à¸¡
à¹ģ à¸Ķ
à¸ ĳ
ðŁ Ĵ
Ġà¸ŀ à¸Ńà¸Ķ
à¸Ī à¸ļ
2 5
à¸ľà¸¡ à¸ģ
à¸²à¸ į
à¹Ĥ à¸Ħà¸£
à¸ĩ à¹ĥà¸«
à¸Ĺà¸£à¸²à¸ļ à¸§
à¸Ķ à¸¡
à¸¸ à¹Ĭ
à¹Ģà¸¨ à¸©
Ġ in
à¸£ à¸Ń
en t
à¸ŀà¸£ à¸£à¸Ħ
à¸Ļ à¹Ĩ
à¸° à¸§
à¸²à¸Ļ à¸¡à¸²
à¹Ģà¸ī à¸ŀà¸²à¸°
à¸¨ à¸²à¸ª
Ġà¸£ à¸²à¸¢
à¹ģ à¸Ł
à¸²à¸Ļ à¸Ļ
à¹Ħà¸Ľ à¸Ķ
à¸ĩ à¸Ħà¸§à¸²à¸¡
à¸¡à¸²à¸ģ à¸ģà¸§
Ġà¸ŀ à¸Ń
à¸ª à¸²à¸§
à¸£ à¸§à¸¡
à¸° à¸Ħ
3 0
Ġt he
à¸Ńà¸ģ à¸ķ
à¸Ĳ à¸ļà¸²à¸¥
à¹Ĥ à¸Ļ
à¸Īà¸° à¸ķ
à¸ģ à¸ĭ
r o
Ġ à¸«à¸¡
à¸Ľà¸£à¸°à¸ģ à¸Ńà¸ļ
à¸Ļ à¹ģà¸¥à¸°
à¸ĩ à¸«à¸¡à¸Ķ
à¸ªà¸Ļ à¹ĥà¸Ī
à¸²à¸£ à¸ĵ
à¸ª à¸§à¸¢
à¸ļ à¸Ķ
à¸Ĥ à¸Ļà¸²à¸Ķ
Ġ à¸Ľà¸£à¸°
à¸Īà¸° à¹Ħà¸¡
55 5
à¸§ à¹Ħà¸Ľ
à¹Ģà¸ ł
e d
à¸ŀ à¸Ĺ
à¹Ĥ à¸ģ
à¹ģ à¸Ľ
à¸° à¸Ħà¸£
à¹Ģà¸ķ à¸£
à¸²à¸Ńà¸¢ à¸²à¸ģ
à¸ķ à¸ķ
à¸į à¸²à¸ķ
Ġà¹Ģà¸« à¸¡
Ġà¹ģ à¸ģ
Ġh ttps
à¸ĩ à¸¥
à¹Ģà¸¥à¸¢ à¸Ħà¸£
à¸ļ à¸ŀ
à¹Ĥà¸Ĺ à¸©
à¹Ħ à¸ĭ
à¸ģ à¸«à¸Ļ
à¸Ļ à¹Ģà¸Ĺ
à¸Ńà¸¢ à¸Ħ
à¸ĺ à¸²à¸Ļ
à¸ĩ à¹Ħ
à¸² à¹Ħà¸£
à¸łà¸²à¸¢ à¹ĥà¸Ļ
à¸ĵ à¸ĳ
à¸ĩ à¸ĸ
a p
i r
i v
à¹ģ à¸ª
à¸£ à¸£
Ġ à¸Ł
à¸£à¸° à¸¢à¸°
à¸° à¸Ĺ
à¸²à¸ĩ à¹Ĩ
à¸§ à¸«à¸Ļ
à¸Ń à¹Ģà¸Ľà¸¥
à¹Ģà¸Ħ à¸¥
Ġà¸« à¸²à¸ģ
à¸ĩ à¸¡à¸²à¸ģ
Ġ y
à¸²à¸ĸ à¸²à¸¡
à¸¨ à¸£
à¹Ħ à¸«à¸§
à¸²à¸ĩ à¸Ħ
à¸Ń à¸ģà¸²à¸£
à¸Ļ à¸²à¸¡
à¹Ģà¸ļ à¸Ńà¸£
à¸²à¸Ļ à¸¡
Ġ1 2
à¹ģ à¸Ļà¸Ļ
à¸ģ à¹Ĩ
Ġ1 9
à¸Ķ à¸¥
à¸²à¸Ļ à¸ģ
o w
à¸ģ à¸¡à¸²à¸ģ
à¹ģ à¸Ļà¸§
? ?
Ġà¸Ħ à¸¥
à¹Ģà¸ĺ à¸Ń
à¸¡ à¸²à¸£
oo k
à¸ļ à¹Ģà¸£
5 0
à¸Ńà¸¢ à¸Ħà¸£
à¸¥ à¸¥
à¸¢ à¸Ńà¸Ķ
à¸²à¹Ħ à¸«à¸£
à¸Ń à¹ģà¸¡
Ġ j
à¸° à¹Ģà¸ļ
à¸µ à¹ĭ
à¸ķ à¸§
Ġ à¸Ŀ
à¸Ńà¸ĩ à¹Ħà¸Ľ
à¹ĥà¸Ļ à¸Ĭ
à¸Ńà¸Ńà¸ģ à¸¡à¸²
à¸§à¸¡ à¸ģ
à¹Ĥ à¸Ħ
à¹Ģà¸§ à¸ĵ
à¸ļ à¹Ģà¸ŀ
à¸¢ à¸Ĭ
à¹Ģ à¹Ģà¸ķ
Ġ3 0
Ġà¸£ à¸ļà¸ģà¸§à¸Ļ
à¸² à¹ģà¸¥à¸°
à¸§ à¹Ħà¸¡
à¸²à¸¢ à¹Ģà¸Ľ
à¸²à¸Ļ à¸ķ
à¸Ļ à¹Ģà¸ª
à¸Ńà¸ĩ à¸§
Ġà¸Ĺ à¸²à¸ĩ
à¸Ńà¸Ļ à¸Ĥ
Ġt r
an t
1 8
à¸ª à¸²à¸¡
ï ¸
à¸²à¸¢ à¸²à¸¡
ï¸ ı
à¸Ħà¸£ à¸Ńà¸ļà¸Ħà¸£
à¸ģ à¸Ń
à¹Ĥà¸£ à¸Ħ
à¸ļà¸£ à¸£
à¸²à¸§ à¸§
à¸²à¸ ł
e b
à¸Ļ à¹Ģà¸Ńà¸ĩ
à¸¢ à¸²à¸ģ
à¸Ľà¸£à¸° à¹Ĥà¸¢
à¸ĩ à¹ģà¸¥
Ġs t
à¸Ńà¸ĩ à¸Ń
à¸ļ à¸¡à¸²
à¹Ħà¸«à¸¡ à¸Ħà¸°
à¸ļ à¸Ľ
à¸Ń à¸Ĭ
à¹Ĥ à¸ŀ
à¸ ¬
à¸ĩ à¹Ģà¸Ĺà¸ŀ
à¸ļ à¸Ń
à¸Ļ à¸«à¸¥
à¸§ à¸¥
Ġ à¸ĺ
à¸Ńà¸°à¹Ħà¸£ à¸ģ
à¹Ģà¸Ĥ à¸²à¸ģ
à¸§ à¸²à¸ĩ
Ġà¹ģ à¸ĸ
à¸ŀà¸¢ à¸²à¸¢à¸²à¸¡
à¸Ķ à¸«à¸Ļ
à¸¥à¸° à¹Ģà¸Ń
à¹Ĥ à¸Ĭ
à¸² à¹Ģà¸£à¸²
à¸Ľ à¸ı
à¸²à¸¢ à¸Ħ
à¸§ à¹Ģà¸£
Ġ à¸ī
Ġà¹ģ à¸Ħ
à¸ļà¸£ à¸ĸ
Ġ ,
à¸ķà¸£ à¸ĩ
a k
à¸Ľà¸£à¸°à¹Ģà¸Ĺà¸¨ à¹Ħà¸Ĺà¸¢
on e
à¸²à¸ĩ à¸¡
Ġà¹Ģà¸ ķ
u e
à¸ĵà¸° à¸Ĺ
à¸²à¸ļ à¸²à¸¥
-------- --------
à¸İ à¸«à¸¡à¸²à¸¢
à¸²à¸ľ à¸¡
à¹Ĩ à¹Ĩ
ww w
à¹ģ à¸ļ
à¸ĩ à¸ĭ
à¹Ħà¸Ľ à¸ģ
à¸Ńà¸Ļ à¹Ģà¸Ķ
u b
à¸´ à¹Ĭ
Ġà¹Ģà¸ ļ
à¹Ģà¸ ĸ
à¸ķ à¸ģ
à¸§ à¸Ħà¸£
à¸«à¸£ à¸Ń
Ġà¸Ń à¸²à¸Ī
__ __
à¸ļ à¸«à¸Ļ
à¸ļ à¹Ħà¸¡
à¸ĵ à¸Ħ
u m
à¸Ħà¸Ļ à¹Ģà¸Ķ
à¸ģ à¸Ī
à¸²à¸« à¸Ļà¸Ķ
à¸ĺà¸Ļ à¸²à¸Ħà¸²à¸£
à¹ģ à¸«à¸¥à¸°
à¸²à¸Ń à¸Ńà¸ģ
à¸Ńà¸ļ à¸ĸà¸²à¸¡
à¸Ń à¸Ĥà¸Ńà¸ĩ
à¸²à¸Ī à¸£
o s
à¸¡ à¸£
à¸²à¸ģ à¸£
à¸Ńà¸ĩ à¸ŀ
à¸Ķ à¸Ī
à¸Ľà¸£à¸°à¸ģ à¸²à¸¨
Ġà¸£ à¸ĸ
à¸Ħà¸§à¸²à¸¡ à¸Ħ
à¸¡ à¸Ĭ
à¸¢ à¸Ĺ
à¹ģ à¸¢
à¸Ńà¸ĩ à¸«
a il
âĢ Ļ
Ġ /
à¸¡ à¸Ħ
à¸Ńà¸¢à¸²à¸ģ à¹ĥà¸«
à¸Ńà¸ĩ à¸Ĥà¸Ńà¸ĩ
à¸¡ à¸²à¸Ļ
à¸§à¸¢ à¸Ħ
à¹Ĥà¸Ķ à¸Ļ
à¸²à¸¢ à¸£
à¸£à¸© à¸Ĳ
Ġà¸Ń à¸²à¸¢
o v
à¸Ń à¹Ħà¸Ķ
à¸§à¸ĩ à¸«à¸Ļ
Ġà¸ľà¸¡ à¸ģ
à¹ģ à¸Ľà¸¥
Ġ à¸®
à¸ģ à¸Ľ
à¸Ķ à¹ĥà¸Ļ
à¸²à¸§ à¸Ļ
Ġ1 8
à¸¡ à¸Ķ
à¸ĩ à¸ľ
à¸ĩ à¹Ģà¸Ķ
à¸¡à¸Ļ à¸ķà¸£
Ġà¹Ģà¸Ħ à¸£
.... ....
à¸¡ à¹Ģà¸ķ
Ġà¸ª à¸¡
à¹Ĥ à¸ĭ
à¸Ńà¸ĩ à¸Ĥ
Ġà¸ª à¸²à¸¡à¸²à¸£à¸ĸ
à¸²à¸ķ à¸Ńà¸ļ
Ġ1 4
à¸Ńà¸ģ à¸¥
à¹ģà¸£ à¸ĩ
à¸Ļ à¸ģà¸¥
à¸Ļ à¸Īà¸²à¸ģ
à¸¢ à¸Ħà¸°
Ġà¸ŀ à¸£à¸°
à¸ģ à¸¢
Ġ à¹Ħ
à¸ģà¸²à¸£ à¸ķ
à¸Ńà¸¡ à¸ģ
à¸¡à¸²à¸ °
ou t
à¹Ĥà¸£ à¸ĩà¹Ģà¸£
à¸Ľà¸£à¸°à¹Ĥà¸¢ à¸Ĭà¸Ļ
à¸ĩ à¹Ģà¸Ĥ
à¸ĩà¸ģ à¸¤à¸©
à¸¢ à¸Ħ
Ġ1 1
Ġs p
à¸²à¸£ à¸¡
à¸ļà¸ģà¸²à¸£ à¸ĵ
Ġ â
à¸Ħ à¸Ķ
à¸Ńà¸Ļ à¸Ķ
à¸²à¹ģ à¸Ļà¸°à¸Ļ
Ġ à¸ĵ
à¸§ à¸Ńà¸¢
e c
à¸² à¹Ģà¸Ħ
à¸Ńà¸Ļ à¸«à¸Ļ
à¸ŀà¸¢ à¸²à¸ļà¸²à¸¥
à¸Ļ à¹ģà¸ļà¸ļ
à¸Ī à¸²à¸£à¸ĵ
à¸² à¹Ħà¸ĩ
à¸¡ à¸²à¸Ĺ
à¸ģà¸²à¸£ à¸ª
à¸ķà¸£à¸§à¸Ī à¸ªà¸Ńà¸ļ
Ġ1 6
à¸ķ à¸²à¸¢
à¹Ħà¸Ľ à¹ģà¸¥
à¸«à¸£ à¸Ńà¸ģ
à¸« à¸²à¸ģ
u r
à¸§à¸ĩ à¸Ļ
u p
à¸ļ à¸ľà¸¡
à¸ģ à¸ľ
à¸ļ à¸ªà¸Ļ
à¸¨à¸²à¸ª à¸ķà¸£
Ġà¸ª à¸£
à¸Ĥ à¸ģà¸Ĺ
1 5
à¸Īà¸° à¸£
à¸§ à¸ļ
à¸Ļ à¹Ģà¸¥
à¸²à¸Īà¸° à¹Ģà¸Ľ
à¸Ńà¸ĩ à¹Ģà¸£
à¸ģà¸© à¸²
à¸ĩà¸Ħ à¸¡
à¸Ńà¸ĩ à¸Ī
Ġà¸Ľ à¸£
à¸²à¸ĩ à¸ķ
à¸² à¹Ģà¸Ĺ
à¸ķ à¸ª
Ġà¸ŀ à¸¥
à¸¢ à¸²à¸§
Ġà¸Ĭ à¸Ńà¸ļ
à¸ĩ à¸²à¸¡
à¸Ń à¸²à¸ģà¸²à¸£
à¹Ĥà¸Ĺà¸£ à¸¨
à¹Ģà¸¨ à¸£à¸©à¸Ĳ
à¸Īà¸° à¹Ħà¸Ľ
à¹Ħà¸Ł à¸Ł
à¸ĵ à¸Ħà¸£
à¸²à¸ĩ à¸Ľà¸£à¸°à¹Ģà¸Ĺà¸¨
à¸ģ à¹Ħà¸¡
= =
Ġà¸ģ à¸£à¸°
à¸²à¸ŀ à¸£
à¸² à¹Ģà¸¥à¸¢
à¸²à¸Ħ à¸ķ
à¸Ľ à¸²à¸ģ
à¸§à¸Ļ à¹ĥà¸«à¸į
à¸Ļ à¸Ńà¸Ńà¸ģ
1 7
Ġc h
à¸ĩ à¹Ģà¸¥
à¸§à¸¢ à¹Ģà¸«à¸¥
à¸¢ à¸Ħà¸£
à¸ģ à¸Ĭ
à¸Ĳ à¸¡à¸Ļà¸ķà¸£
à¹Ħ à¸ģà¸¥
à¸Ĥ à¸Ńà¸ļà¸Ħ
à¸Ľà¸£à¸°à¸ª à¸ļà¸ģà¸²à¸£à¸ĵ
à¹Ģà¸£ à¸²à¸¡
Ġà¸Ń à¸Ńà¸ģ
1 2
à¸ª à¸§à¸Ļ
à¸²à¹ģ à¸«à¸Ļ
Ġà¸ķ à¸£
à¸Ńà¸Ļ à¸¡
à¸Ńà¸Ļ à¸ķ
1 6
à¸Ńà¸ĩ à¸ļ
Ġ1 00
à¸ģ à¹ģà¸¥
ew s
à¸Ļ à¸²à¸ĩ
à¸ģ à¸ļ
à¸ģ à¸Ĥà¸Ńà¸ĩ
Ġà¸Ļ à¸Ńà¸ģà¸Īà¸²à¸ģ
à¸²à¸Ļ à¸ļà¸²à¸Ĺ
Ġt h
à¸ģà¸ģ à¸ģà¸ģ
à¹ģà¸Ĺ à¸Ļ
à¸Ńà¸ĩ à¹ĥà¸Ĭ
Ġo f
à¸ª à¸Ńà¸ĩ
o c
Ġ1 3
à¸ªà¸Ńà¸ļ à¸ĸà¸²à¸¡
i f
à¸²à¸ĩ à¸Ķ
à¸² à¹Ģà¸¡
à¸Ķ à¹Ģà¸Ī
à¸ŀ à¸Ļ
à¸¨ à¸²à¸¥
à¸Ń à¹Ģà¸ª
à¸ª à¸ģ
à¸ģà¸²à¸£ à¹Ģà¸¡
à¸²à¸Ĭ à¸Ńà¸ļ
à¸²à¸Īà¸° à¸¡
à¸± à¹Ĭ
à¸§ à¸Ń
à¸Ľ à¸Ķ
à¸Ĺ à¸²à¸Ļ
à¸ĸ à¸Ļà¸Ļ
à¸Ļ à¹ģà¸ķ
Ġà¸ģ à¸£
Ġ 5555
h t
à¹Ħ à¸«
à¸Ńà¸Ļ à¸£
à¸¡à¸²à¸ ĸ
. )
e m
à¸ķ à¸¥à¸²à¸Ķ
à¹ĥà¸Ļ à¸ª
à¸Ń à¸Ī
à¸Ńà¸Ļ à¹Ĩ
à¸ģà¸£ à¸¡
à¸ļ à¸Ī
à¸² à¹Ģà¸Ĭ
à¸Ķ à¹Ħà¸Ľ
** **
à¸Ń à¸Ńà¸°à¹Ħà¸£
à¸¥ à¸ļ
t er
à¸ģ à¹Ģà¸ŀ
à¸Ķ à¸ļ
à¹ĥà¸Ļ à¸Ĺ
à¸¢ à¸ª
à¸ģà¸²à¸£ à¸Ī
à¸ļ à¸Ĭ
à¹Ĥà¸£ à¸ĩ
à¸ģ à¹Ģà¸ģ
à¸Ńà¸¢ à¹Ĩ
à¸²à¸ Ŀ
à¸§ à¸°
à¹Ģà¸ģ à¸©
à¸²à¸ķ à¸²à¸¡
Ġà¹Ģà¸ ľ
à¸Ńà¸Ļ à¹Ħà¸¥à¸Ļ
Ġ '
à¹ĥà¸Ļ à¸§
à¹Ħà¸Ĥ à¸Ĥ
à¹Ģà¸£ à¸²à¸Ħ
Ġ ĠĊ
à¹Ģà¸« à¸¡à¸²à¸°
à¸Ńà¸Ļ à¸²à¸Ħà¸ķ
à¸Ļ à¸ķà¸£
à¸¢ à¸²à¸Ļ
à¸Ń à¹Ģà¸¡
Ġ2 4
Ġà¹ģà¸¥à¸° à¸¡
à¸Ĺà¸£ à¸§à¸ĩ
à¸²à¸ļ à¸Ńà¸ģ
à¸²à¸ĩ à¸ª
à¸¡ à¸§
à¸ļ à¸Ħà¸§à¸²à¸¡
à¸²à¸£à¸¡ à¸ĵ
à¸ŀà¸¥ à¸²à¸Ķ
à¹Ĥà¸Ħà¸£ à¸ĩà¸ģà¸²à¸£
à¹Ģà¸§ à¸Ńà¸£
à¸© à¸¢
à¸ĩ à¹ģà¸£à¸ģ
à¸¢à¸§ à¸Ĥ
à¸Ļ à¹Ģà¸Ĭ
à¸ģà¸£à¸£à¸¡ à¸ģà¸²à¸£
Ġà¸Ī à¸£
à¸¥ à¸Ľ
à¸° à¸Ļ
Ġ à¸Ħà¸§à¸£
à¸Ķ à¸§à¸ģ
à¸² à¹Ģà¸ĩ
à¸²à¸ĩ à¹Ģà¸Ķ
à¸ģ à¸²à¸¥
à¹ģ à¸Ńà¸ļ
à¸Ń à¸«à¸Ļ
à¸Ļ à¹ģà¸ļà¸ļà¸Ļ
Ġ .
à¸Ļ à¹Ģà¸ķ
Ġà¸ļ à¸Ńà¸ģ
à¸²à¸Ļ à¹Ħà¸Ľ
à¹Ħà¸«à¸Ļ à¸Ķ
à¸² à¹ģà¸ķ
à¸²à¸¢ à¸ª
à¸²à¸¢ à¸ķ
à¸²à¸Ļ à¸Ħ
u t
à¸Ħà¸Ļ à¸£
Ġ i
Ġ x
à¸§ à¹ģà¸ķ
à¸ªà¸Ļ à¸²à¸¡
Ġ à¸ĩà¸²à¸Ļ
à¸Ńà¸Ħà¸§à¸²à¸¡ à¹Ģà¸¡
à¸ĩ à¸ľà¸¥
à¸²à¸ĩ à¸Ń
à¸Ļà¸° à¸Ħ
à¹Ģà¸¨à¸£à¸©à¸Ĳ à¸ģ
à¸° à¸¥
ant ip
à¸Ī à¸ģà¸£à¸£à¸¡
Ġà¹Ģà¸ ĭ
eb ook
à¸¡ à¸²à¸Īà¸²à¸ģ
à¸¡à¸²à¸ ļ
Ġ5 0
à¸²à¸ĩ à¸«à¸Ļ
à¸Ļ à¸Ńà¸°à¹Ħà¸£
i a
e e
à¸ģ à¸²
à¸ĵ à¸Ĺ
Ġ1 7
à¸²à¸ĩ à¸Ħà¸°
à¸Ńà¸¢à¸²à¸ģ à¸Īà¸°
à¸¢ à¸ļà¸£
à¸Ļ à¹Ģà¸«à¸¡
1 1
à¸¡ à¸²à¸ķ
à¸° à¸Ħà¸°
Ġà¹Ģà¸ ĩ
Ġà¸ŀ à¸§à¸ģ
à¸§à¸¢ à¸Ħà¸§à¸²à¸¡
à¹Ģà¸¥à¸¢ à¸§
à¸Ħ à¸Ħà¸¥
s p
à¸Ńà¸Ļ à¸§
à¸²à¸ Ł
à¸Ńà¸ĩ à¹Ģà¸Ľ
à¹ģà¸ŀ à¸Ĺà¸¢
à¸Ķ à¹ĥà¸«
à¸Ļ à¸Ńà¸ģ
à¹Ģà¸£ à¸²à¸Īà¸°
à¸²à¸¡ à¸²
à¸Ķ à¸Ĥà¸Ńà¸ĩ
à¸ļ à¹Ħà¸Ķ
à¸¢à¸Ļ à¸£
à¹Ģà¸ģ à¸£
à¸§ à¹Ĥà¸¡
Ġà¹Ĥ à¸£
à¸Ļ à¸Ł
Ġ à
à¸ª à¸ĩà¸ª
à¸£à¸²à¸¢ à¸ģà¸²à¸£
à¸ĸà¸²à¸¡ à¸§
à¸§à¸¢ à¸Ħà¸£
à¸¡ à¸¢
9 9
à¸Ķ à¸Īà¸²à¸ģ
a b
à¸Ńà¸Ńà¸ģ à¹Ħà¸Ľ
à¹ģ à¸¢à¸ģ
Ġs h
à¸Ļ à¹Ħ
à¸Ĺà¸¢ à¸²à¸¥
Ġ +
++ ++
à¸² à¹Ģà¸Ń
Ġà¸ĸ à¸²à¸¡
à¸Ŀ à¸²à¸ģ
Ġà¸ª à¸Ńà¸ļà¸ĸà¸²à¸¡
à¸įà¸« à¸²
à¸Ļ à¹Ģà¸Ī
at ion
à¸Ńà¸¢à¸²à¸ģ à¸£
à¸Ķ à¹Ħà¸¡
u l
Ġà ¹
à¸Ńà¸Ļ à¸Ħ
à¹Ģà¸ ®
à¸²à¸Ĺ à¸²à¸ĩ
Ġà¸ķà¸²à¸¡ à¸«
or t
à¸¢ à¸«à¸²à¸¢
à¸²à¹ģ à¸Ł
à¸ļ à¹ģà¸Łà¸Ļ
à¸¡ à¸²à¸ª
à¸Ļ à¸¥à¸°
à¸Ń à¹Ģà¸Ļ
Ġ à¸ľà¸¥
à¸Ķ à¹Ģà¸Ķ
à¸¡ à¸Ľ
6 0
à¹ģà¸Ķ à¸ĩ
à¸Ń à¸²à¸ģà¸²à¸¨
ĠâĢ ĺ
à¸ģà¸²à¸£ à¸Ħ
à¹Ģà¸£ à¸²à¸Ĺ
Ġà¹ģ à¸Łà¸Ļ
à¹Ģà¸« à¸£à¸Ń
à¸Ķ à¸¢
Ġà¹Ģà¸£ à¸²à¹Ħà¸¡
à¸Īà¸° à¸Ķ
à¸Ĭà¸¡ à¸Ľ
à¸ª à¸§
à¹Ģà¸§à¸¥ à¸²à¸Ĺ
à¸Ķ à¸ŀ
Ġà¸ļ à¸²à¸ĩ
à¸įà¸į à¸²à¸ĵ
à¹Ģà¸Ī à¸Ńà¸ģ
à¸Ľà¸¥ à¸Ńà¸Ķ
à¸Ńà¸ĩ à¹ĥà¸«
an g
à¸Ļ à¹Ģà¸¡
à¸ķ à¸Ĺ
à¸²à¸Ļ à¸²à¸Ļ
à¸Ķ à¸Ńà¸¢
Ġt o
Ġl ine
à¸² à¹Ĩ
Ġà¸Īà¸° à¸¡
à¸ģ à¸ĸ
à¸Ń à¸ľà¸¡
à¹Ħ à¸ķ
à¸ģ à¹ĥà¸Ī
à¸Ķ à¹Ģà¸Ĭ
1 4
à¸Ńà¸Ńà¸ģ à¸Īà¸²à¸ģ
à¸Ļ à¸Īà¸£
à¸Ńà¸ĩ à¹Ħà¸¡
à¸§à¸¢ à¸ģà¸²à¸£
t op
à¸ĩà¸Īà¸²à¸ģ à¸Ļ
à¸ļ à¹Ģà¸£à¸²
Ġà¸¡ à¸²à¸ģ
à¹Ģà¸ģ à¸¥
à¹Ģà¸Ńà¸ģ à¸ªà¸²à¸£
à¸ĩà¹ģ à¸£à¸¡
à¸Ľ à¸Ĺ
à¸ĵ à¸łà¸²à¸ŀ
à¸Ķ à¸¡à¸²à¸ģ
à¸²à¸« à¸¡
à¸ĩà¸²à¸Ļ à¸Ĺ
à¸Ķ à¹Ħà¸Ķ
à¸«à¸¥ à¸§à¸ĩ
à¸Ļ à¹Ģà¸ŀà¸£à¸²à¸°
à¸Ĥ à¸łà¸²à¸ŀ
6 2
à¸£à¸²à¸¢ à¹Ħà¸Ķ
à¸¡ à¸ľ
à¸Ńà¸ĩ à¸ľ
à¸²à¸Ħ à¸§à¸£
à¸ĩà¹Ħà¸ĩ à¸Ķ
à¸Ń à¹Ģà¸ŀ
ac ebook
à¸¢ à¸²
à¸Ļ à¸Ħà¸§à¸²à¸¡
à¸Ļ à¸²
à¸² à¹Ģà¸«à¸ķ
o d
à¸Ń à¹Ģà¸Ķ
à¸Ķ à¸Ĭ
à¹Ģà¸£ à¸²à¸ķ
à¸ª à¸ļà¸²à¸¢
à¸Ħ à¸ĵà¸°
à¸§à¸¢ à¹ģà¸Ļà¸°à¸Ļ
ar d
à¸ĩà¹Ħ à¸ĩà¸ģ
à¸²à¸ĩ à¸Ī
al l
à¹Ĥ à¸Ī
Ġ à¹Ĥà¸Ķ
Ġ à¸ł
Ġà¸ģ à¸§
à¸ŀ à¸ļ
à¸£à¸° à¹Ģà¸ļ
à¸²à¸§ à¸Ĺ
à¸Ľà¸¥ à¸²à¸¢
à¸«à¸¥à¸²à¸¢ à¸Ħà¸Ļ
à¸¡ à¸²à¸ķà¸£
à¸Ľà¸Ķ à¸²à¸«
à¸¡à¸²à¸ Ĥ
Ġà¸Ħà¸Ļ à¸Ĺ
à¸Ńà¸¢ à¸ģ
v i
Ġà¹Ģà¸§à¸¥ à¸²
à¸Ńà¸ĩ à¸ĸ
à¸Ńà¸ĩ à¸Ĭ
à¸Ĥ à¸²à¸Ķ
Ġà¸Ļ à¸²à¸Ĺ
à¸Ķ à¸«
à¹Ģà¸ģ à¸²à¸«à¸¥
à¸Ĺ à¸¡
à¹Ģà¸Ł à¸ª
à¸ģ à¹Ħà¸Ľ
à¸Ķ à¸Ńà¸°à¹Ħà¸£
à¸Ńà¸ĩ à¹Ģà¸¥
à¸Ľà¸¥à¸Ńà¸Ķ à¸ł
à¸ŀ à¸ĩ
à¸ļ à¸ĸ
Ġà¹Ģà¸Ħ à¸¢
Ġà¸Ī à¸Ĥà¸ģà¸Ĺ
à¸ļ à¸Ħà¸Ļ
i z
à¸Ķ à¹Ģà¸«
Ġ256 2
à¸²à¸Ļ à¸Ĥ
à¸Ķ à¹Ģà¸ľ
à¸Ļ à¸«à¸£
Ġ2 3
Ġà¹Ģà¸ ĺ
à¸ª à¸ª
à¹Ģà¸£à¸² à¹Ģà¸Ľ
ĠâĢ ĵ
à¸° à¸ģ
à¸¤ à¸ķ
à¸°à¹Ģà¸¥ à¸²à¸°
Ġà¸Īà¸²à¸ģ à¸Ļ
à¸ļ à¹Ģà¸Ĥ
à¸²à¸Ļ à¸²à¸Ī
Ġà¸Ĥ à¸²à¸¢
Ġà¹ģ à¸Ļà¸°à¸Ļ
à¹Ģà¸ģ à¸¡
à¸¡à¸²à¸ģ à¸Ĥ
à¸¡à¸²à¸ģ à¹Ĩ
à¸¡à¸²à¸ģ à¸Ħ
n ews
à¸² à¹ĥà¸Ħà¸£
à¸¢ à¸ģà¸§
à¸² à¹Ģà¸ł
à¸¢ à¹ĥà¸Ī
à¸¡ à¸²à¸Ķ
Ġ 555
à¸Ħà¸§ à¸ļà¸Ħ
à¹Ģà¸Ī à¸£
à¸Ľà¸£à¸° à¸ķ
1 3
à¸ĵ à¸¥
à¸Ļ à¸£à¸ĸ
à¸ĩ à¹ģà¸¥à¸°
à¸ķ à¸ļà¸Ńà¸¥
à¸Ľà¸£à¸°à¸Ĭà¸²à¸Ĭ à¸Ļ
à¸Ĥà¸Ńà¸ĩ à¸Ĺ
à¹Ĥ à¸Ħà¸§
Ġà¸Ĺ à¸£
à¸ĩ à¸Ńà¸Ńà¸ģ
à¸ľà¸¡ à¹Ħà¸¡
à¸Ķ à¹Ĩ
à¸¡à¸² à¹ģà¸¥
à¸²à¸£ à¸¢
Ġ à¸£à¸°à¸«à¸§
à¸Ńà¸ĩ à¸«à¸Ļ
à¸Ń à¹Ģà¸Ĥ
Ġà¸£à¸²à¸Ħ à¸²
à¸²à¸ĩ à¸£
à¸²à¸¢ à¹Ħà¸Ľ
à¸§ à¸ĸ
à¸²à¸Ļ à¸«à¸Ļ
ac k
à¸² à¹Ģà¸Ī
à¹Ĥ à¸Ńà¸Ļ
à¸²à¸ļ à¸Ńà¸ģà¸§
à¸² à¹Ģà¸ĭ
à¸ĩ à¸ģà¸§
ub e
à¸Ĥà¸Ńà¸ĩ à¸ķ
ig ht
à¸ĵà¸° à¸Ļ
à¸± à¹ĭ
à¸ª à¸¥
à¸ļ à¹Ģà¸ĩ
à¹Ħà¸«à¸Ļ à¸ģ
à¸¢ à¸²à¸¡
à¸Ħà¸° à¹ģà¸Ļà¸Ļ
c e
à¸¥ à¸ģ
à¸Ļ à¹Ģà¸Ļ
Ġ à¸łà¸²à¸ŀ
à¸Ķ à¸Ľ
à¸¥ à¸Ħ
à¸£à¸° à¸§
p antip
à¹ģ à¸ŀà¸£
à¸£à¸²à¸¢ à¸ĩà¸²à¸Ļ
à¹Ģà¸£ à¸²à¸£
à¹Ģà¸ģà¸© à¸ķà¸£
Ġà¸Ńà¸¢à¸²à¸ģ à¸£
à¹Ģà¸Ń à¸²à¸¡
Ġà¹ģ à¸Ĺ
Ġà¹Ĥ à¸Ĺà¸£
à¸¸ à¹Į
p p
à¸Ńà¸¡ à¸£
à¸ģ à¹Ħà¸Ķ
à¸Ķ à¹Ģà¸Ľ
Ġà¸ģ à¸£à¸°à¸Ĺ
à¹ĥà¸Ļ à¸«
à¹Ĥà¸£à¸ĩ à¸ŀà¸¢à¸²à¸ļà¸²à¸¥
à¸ģà¸²à¸£ à¸ļ
à¸¡ à¹Ħà¸Ķ
à¸Ń à¸Ńà¸¢
Ġà¹ģà¸¥à¸° à¸Ĺ
Ġ @
out ube
ar t
à¸Ļà¸Ħà¸Ļ à¸Ĺ
à¸Ļ à¹ĥà¸«à¸¡
Ġà¸Īà¸° à¹Ħà¸Ķ
à¸§ à¹ĥà¸Ī
à¹ģà¸Ľ à¸¥à¸ĩ
à¸Ķ à¹Ģà¸«à¸ķ
à¸²à¸ģ à¸§
Ġ2 00
à¸Ļ à¸ľà¸¥
à¹Ģà¸ī à¸¢
à¸§ à¸Ļà¸Ĺ
à¸²à¸ª à¸Ļà¹ĥà¸Ī
Ġà¹ģ à¸Ī
Ġà¹Ĥà¸Ķà¸¢ à¸¡
3 6
à¸ģ à¸«
i k
à¸ĩ à¹Ģà¸ª
à¸²à¸Ļ à¸Ķ
à¸¡à¸² à¹Ģà¸Ľ
Ġà¸£à¸§à¸¡ à¸ĸ
à¹Ģà¸ĸ à¸Ńà¸°
à¸ĩ à¹Ģà¸ŀ
à¸ĺà¸£à¸£à¸¡ à¸Ķ
à¸Ļà¸Ħ à¸¥
à¸²à¸ļ à¸£
à¸Ń à¸Ħà¸£
à¸Ń à¸Īà¸°
à¸Ķ à¹ĥà¸Ī
Ġ à¸Ľà¸£à¸°à¸¡à¸²à¸ĵ
à¸¢ à¸Ļà¸Ĺ
à¸Ĭ à¸²
à¸Ńà¸Ļ à¸ª
top ic
à¸Ķ à¹ģà¸¥
à¸Ńà¸ĩ à¸¢
à¹ĥà¸Ļ à¸Ľ
à¸Ľ à¸ģà¸£à¸ĵ
à¸¡à¸²à¸ Ľ
à¹ģ à¸ĭ
à¹ģ à¸Ĭà¸£
à¸ĩ à¸Ĭà¸²à¸ķ
à¸Ńà¸¡ à¸ª
à¸Ń à¹Ģà¸¥
à¸Ńà¸Ļ à¸Īà¸°
à¸¥ à¸Ĺ
à¸Ńà¸ª à¸£
à¸ģà¸£ à¸Ńà¸ļ
à¸¡à¸² à¹ĥà¸«
à¸Ń à¹Ģà¸ģ
à¸«à¸²à¸¢ à¹Ħà¸Ľ
Ġtr ue
à¸²à¸ĩà¸ģ à¸²à¸¢
à¸Ĥ à¸§
à¸Ļà¸ģ à¸£à¸°à¸Ĺ
à¹Ģà¸ł à¸Ĺ
à¸§à¸¢ à¸Ĺ
à¸Ńà¸¢à¸²à¸ģ à¹Ħà¸Ķ
Ġà¹Ģà¸£ à¸²à¸Īà¸°
à¸ģ à¹ģà¸¥à¸°
Ġà¸Ĥ à¸ĵà¸°à¸Ĺ
à¸§ à¸Ĭ
à¸§à¸¢ à¸Ļà¸°à¸Ħà¸°
à¸«à¸¡à¸²à¸¢ à¹Ģà¸¥à¸Ĥ
à¸¢ à¸ķ
à¸§ à¸ŀ
à¸ģ à¸İà¸«à¸¡à¸²à¸¢
à¸ª à¸²à¸ĺ
à¸Ļ à¹Ģà¸ĩ
à¹ĥà¸Ļ à¸ķ
à¸Ķ à¹Ģà¸£
4 0
à¸Ń à¸Ł
iv e
à¸Ńà¸¡ à¸Ĺ
à¸¢à¸ĩ à¹ĥà¸«à¸¡
pantip com
à¸Ńà¸ĩ à¹Ħà¸«
à¸¢à¸ģ à¹Ģà¸¥
à¸§à¸ĩ à¸Ĺ
à¹Ģà¸Ħà¸¢ à¸¡
Ġ à¸¥à¸ĩ
Ġ2 1
à¸ŀà¸£à¸° à¸£à¸²à¸Ĭ
à¸Ĥ à¸²à¸§
à¸µ à¹Ĭ
à¸Ļ à¸ģà¸§
à¸© à¸ĵ
à¸Ĺ à¸ģ
à¹Ĥà¸£ à¸ĩà¹ģà¸£à¸¡
à¹Ģà¸£à¸² à¹Ħà¸Ľ
à¸²à¹Ħà¸ĩ à¸Ķ
Ġ à¸ĩ
à¸ģ à¹Ģà¸ķ
Ŀ ¤
Ġ ip
à¸ĺà¸£à¸£à¸¡ à¸Ĭà¸²à¸ķ
à¸ģà¸²à¸£ à¸£
Ġ ?
Ġ2 2
Ġ ...
à¸Ļ à¹Ģà¸ķà¸Ńà¸£
à¹ĥà¸Ļ à¸ŀ
à¸Ľà¸£à¸° à¸§
Ġà¸Ļ à¸²à¸ĩ
Ġà¸Ńà¸¢à¸²à¸ģ à¸Ĺà¸£à¸²à¸ļà¸§
à¸Ńà¸Ļ à¹Ħà¸¡
Ġ à¸Ńà¸°à¹Ħà¸£
à¸ģà¸²à¸£ à¹ĥà¸Ĭ
Ġ2 55
à¸£ à¸ª
à¸²à¸Ľ à¸£
à¸Ħà¸§à¸²à¸¡ à¹Ģà¸Ľ
à¸ļà¸£ à¸Ļà¸Ķ
a v
à¸ļ à¹Ģà¸Ľ
9 0
à¸ģà¸£à¸° à¸Ĺà¸£à¸§à¸ĩ
Ġà¸Ľ à¸ģà¸ķ
Ġ à¹Ģà¹Ģà¸ķ
Ġà¹Ĥà¸Ķà¸¢ à¹Ģà¸īà¸ŀà¸²à¸°
à¸ģà¸£à¸° à¸ļ
à¸Ļà¹ģ à¸Ħ
am p
à¸£à¸²à¸Ħ à¸²
à¸Ńà¸ĩ à¹Ģà¸Ĥ
à¹Ģà¸£à¸² à¹Ħà¸Ķ
à¸ģà¸²à¸£ à¸Ķ
à¸Ńà¸¢ à¸Ķ
à¸£à¸²à¸¢ à¸¥à¸°à¹Ģà¸Ń
à¸ĩ à¹Ģà¸¥à¸¢
à¸« à¸²à¸§
à¹ģ à¸Ĭ
a i
Ġ à¹Ħà¸Ń
à¸ģà¸¥ à¸²à¸¢à¹Ģà¸Ľ
o re
à¹Ģà¸¡ à¸¥
à¸ĩ à¸«à¸¥
à¸§ à¹Ģà¸Ľ
à¸¡à¸²à¸ģ à¸Ĺ
à¸¢ à¸¥
à¹Ģà¸Ĥ à¸ķ
à¸²à¸ĩà¹Ħà¸£ à¸ģ
à¸¢à¸Ńà¸¡ à¸£
à¸§ à¸Īà¸°
à¸¡ à¸ļ
à¹Ħ à¸«à¸¥
à¸ª à¸«à¸£
Ġ [
à¸²à¸§ à¸ģ
ĠðŁ ĺ
à¸Ńà¸ĩ à¸Ĺà¸²à¸ĩ
à¸ģ à¹Ģà¸¥
à¸²à¸² à¸²à¸²
à¸Ńà¸Ħà¸§à¸²à¸¡ à¸Ĺ
à¸Ľà¸£à¸° à¹Ģà¸Ķ
à¸Ńà¸¢ à¸¡
Ġà¹Ģà¸ ¢
on t
à¸ģà¸£à¸° à¸Ī
Ġ à¹ĥà¸ª
à¸¡ à¹Ģà¸Ľ
à¸ĩ à¸«à¸£
à¸ģà¸²à¸£ à¹Ģà¸¥
à¸Ńà¸ĩ à¸¥
à¸²à¸Ļ à¸Ħà¸£
à¸²à¹ģ à¸¡
à¸Ńà¸ĩ à¹Ħà¸Ķ
à¸Ńà¸¢ à¸Ĺ
à¸ģ à¸Ĳà¸²à¸Ļ
à¸Ļ à¸¨
à¸ļ à¸Īà¸²à¸ģ
Ġà¸Ļà¸Ńà¸ģà¸Īà¸²à¸ģ à¸Ļ
à¸Ķ à¸Ĭà¸Ńà¸ļ
à¸ļ à¸ĭ
à¸£ à¸²à¸¡
à¸²à¸Ļ à¸ª
Ġ à¹Ģà¹Ģà¸¥
à¸Ľ à¸Ľ
à¸ģ à¹Ģà¸Ĥ
à¸²à¸«à¸¥ à¸²à¸¢
à¸Ĥà¸Ń à¹ĥà¸«
à¸ģà¸© à¸ĵ
o il
à¹Ĥà¸Ń à¹Ģà¸Ħ
à¸Ńà¸Ļ à¹Ħà¸§
à¸Ń à¸Īà¸²à¸ģ
à¸« à¸²
à¸²à¸ģ à¸ı
à¸²à¸Ļ à¸§
à¸Ļ à¸²à¸Ĺ
à¸ªà¸¡ à¸ļ
Ġà¸£ à¸Ńà¸ļ
à¸²à¸§ à¸Ķ
Ġà¸ļ à¸²à¸ĩà¸Ĺ
à¹Ģà¸ģ à¸²à¸°
à¸ª à¸ł
à¸Ĥà¸Ļà¸²à¸Ķ à¸Ļ
Ġà¹Ģà¸Ĥ à¸²à¸ģ
at e
à¹Ģà¸¢à¸Ńà¸° à¸¡à¸²à¸ģ
à¸° à¸ŀ
s e
Ġà¹Ģà¸£à¸² à¹Ģà¸¥à¸¢
à¸Ļà¸ķ à¸²à¸¡
Ġà¸Ĥ à¸Ļà¸²à¸Ķ
8 0
à¹Ĥà¸ŀ à¸ªà¸ķ
à¸Ļ à¸ľà¸¡
Ġ and
Ġ à¹Ģ
o k
à¸Ńà¸ĩ à¹Ģà¸Ķ
à¹Ĥ à¸«à¸¥
à¸Ļà¸ķ à¸Ńà¸Ļ
à¸Ń à¸ĭ
à¸Ħ à¸²à¸Ķ
à¸Ńà¸ĩ à¹Ģà¸ª
or d
Ġb e
i al
à¸²à¸¢ à¸Ķ
5555 5555
à¸¤ à¸Ķ
on g
à¸°à¹Ģà¸¥à¸²à¸° à¸ģ
à¸ģà¸£à¸° à¹Ģà¸Ľ
à¸¢ à¸²à¸ģà¸²à¸¨
2 4
à¸ģ à¹Ģà¸¥à¸¢
à¹ģà¸£ à¸ģà¸Ĺ
à¸ĩà¸Īà¸²à¸ģ à¸Ĺ
à¹Ĥ à¸«
à¸Ħ à¸Ńà¸¡
à¸ļ à¸«
à¸¡ à¸¥
à¹Ģà¸Ń à¸²à¹Ħà¸Ľ
à¹ģ à¸«à¸¥
Ġa is
à¸§à¸¢ à¸§
à¹Ģà¸Ńà¸ĩ à¸ģ
à¸¢à¸§ à¸Ĺ
Ġ256 1
à¸²à¸Ļ à¹ģà¸¥
à¸§ à¸Ĥà¸Ńà¸ĩ
à¸ĩ à¸ģà¸£
à¸ģ à¹Ģà¸Ľ
à¸Ń à¹Ģà¸Ĺ
à¸Ķ à¹Ģà¸¥
1 00
c t
à¸§ à¹Ģà¸Ĥ
Ġp l
à¸¡ à¸Ī
2 3
à¸§ à¹Ħà¸Ķ
à¸ģà¸²à¸£ à¸ŀ
à¸¥ à¸¢
à¸Ń à¸²à¸Ĺ
à¸¥ à¸²
à¸ĩ à¹ģà¸ļà¸ļ
à¸²à¸£ à¸²à¸Ĭ
à¸Ńà¸¢ à¸¡à¸²à¸ģ
ou r
à¸ĩ à¸£à¸ĸ
à¸²à¸ĩ à¹Ģà¸Ľ
à¸¢ à¸§à¸Ļ
à¹Ģà¸ĭ à¸Ńà¸£
l y
à¸Ħ à¸Ńà¸Ļ
à¸§à¸¢ à¸ķ
à¹Ħà¸Ľ à¹Ģà¸Ĺ
à¹Ģà¸Ħà¸£ à¸Ķ
à¸Ī à¸Ńà¸Ķ
à¸Ľà¸£à¸° à¸ĺà¸²à¸Ļ
à¸ģà¸© à¸ĵà¸°
Ġà¹ģà¸ļà¸ļ à¸Ļ
à¸¢à¸¢ à¸¢à¸¢
à¹ģà¸¥à¸° à¸ª
à¸ĵ à¹ģà¸¡
à¸²à¸¢ à¹Ħà¸Ķ
Ġà¹ģà¸¥à¸° à¸ģ
à¸ĩ à¹Ħà¸§
à¸ļ à¹ĥà¸Ħà¸£
a w
à¸§à¸¢ à¸Ķ
à¸§ à¸Īà¸£
s s
à¸² à¹ģà¸ļà¸ļ
à¸Ļ à¹Ħà¸«à¸Ļ
Ġà¸ª à¸ĸà¸²à¸Ļ
Ġà¸Ńà¸¢à¸²à¸ģ à¹ĥà¸«
à¸Ħà¸£ à¸ļ
h ttps
à¸Ńà¸Ļ à¹ģà¸¥
à¹ĥà¸Ļ à¸£
à¸ĩ à¹ģà¸¡
à¸Ħ à¹Ĥà¸Ļ
à¸ªà¸° à¸Ķà¸§à¸ģ
6 3
à¸Ľ à¸Ļ
à¸²à¸ĩ à¹Ģà¸ģ
à¸ĩ à¸¡à¸²
à¸Ńà¸²à¸Ī à¸Īà¸°
à¸¥à¸ĩà¸Ĺ à¸°à¹Ģà¸ļ
h one
à¸£à¸²à¸° à¸«
à¸¡ à¸Ĭà¸²à¸ķ
Ġà¸Ħ à¸°
à¸²à¸Ļ à¸Ń
à¸Ļ à¹ģà¸¡
à¸²à¸ķ à¸¥à¸Ńà¸Ķ
Ġà¸Ńà¸¢à¸²à¸ģ à¹Ħà¸Ķ
à¸Ķ à¸Ħà¸§à¸²à¸¡
à¸Ńà¸ª à¸¡
à¸Ńà¸¥ à¸¥
à¸Ļ à¸Ŀ
à¸¢à¸²à¸¢ à¸²à¸¡
à¸Ķ à¹Ģà¸ŀ
à¸ģ à¸«à¸¥
à¸² à¹Ħà¸§
à¸Ń à¸²à¸Ķ
à¹Ĥà¸¥ à¸¢
à¸ļ à¸Ĥà¸Ńà¸ĩ
à¸¡ à¸Ħà¸£
à¸Ļ à¹Ģà¸Ħà¸£
a z
à¸Ńà¸ĩ à¸Ńà¸¢
ĠðŁ Ĵ
à¸ķ à¸ĸ
à¸ģ à¸¨
à¸²à¸ª à¸²à¸¡à¸²à¸£à¸ĸ
Ġ4 0
à¸ļ à¸Ľà¸£
à¸° à¸ķ
à¸Ļà¹ģ à¸«à¸¥à¸°
à¸Ħà¹Ĥà¸Ļ à¹Ĥà¸¥à¸¢
à¹Ģà¸Ħ à¸£à¸²à¸°à¸«
à¹Ħà¸Ľ à¹Ģà¸£
à¸Ħà¸Ļ à¸Ķ
à¹Ģà¸« à¸£
à¸²à¸ª à¸¡
____ ____
à¸²à¸Ļ à¸ŀ
à¸²à¸ĩ à¸Īà¸²à¸ģ
à¹Ĥà¸Ķà¸¢ à¸ªà¸²à¸£
t v
à¸² à¹ģà¸ļà¸ļà¸Ļ
à¸Ĺ à¸Ļ
Ġà¹Ĥà¸Ķà¸¢ à¸Ĺ
Ġ à¸Ľà¸£à¸°à¹Ģà¸Ĺà¸¨
vi ew
> >
à¸Ľ à¹ģà¸ļà¸ļ
à¸²à¸¢ à¸¡
à¸²à¸ĩ à¸¡à¸²à¸ģ
Ġà¹Ģà¸« à¸¥
à¸Ńà¸Ļ à¸ŀ
Ġ à¸Ńà¸Ķ
Ġà¹ģà¸¥à¸° à¸ª
e x
à¸ļ à¸¢
à¸²à¸ļ à¸²à¸ģ
à¸ª à¸Ĺ
à¸«à¸§ à¸²à¸Ļ
à¸ģ à¹ģà¸ªà¸Ķ
à¸ŀà¸§à¸ģ à¸Ļ
Ġs m
à¸Ńà¸Ļ à¸Ń
à¸ģà¸£ à¸¢à¸²à¸Ļ
Ġà¹Ģà¸£ à¸²à¸¡
s h
à¸Ńà¹Ģà¸¡ à¸£
à¸ķà¸£ à¸ĩà¸Ļ
ar k
à¸Īà¸° à¸ŀ
à¸²à¸¢ à¸Ĥà¸Ńà¸ĩ
3 5
à¸Ńà¸ĩ à¸Ľ
à¸Ļ à¹Ħà¸£
à¸§ à¹Ģà¸¥
à¸²à¸Ń à¸²à¸Ī
à¸¡ à¸łà¸²à¸©
à¸¢à¸ĩ à¸Ķ
Ġà¹ģà¸¥à¸° à¸ķ
à¸ļ à¹ģà¸¡
à¸§ à¸ľà¸¡
Ġa l
à¸Ļ à¸ł
à¸Ļ à¸Ļà¸°
Ġ6 0
Ġà¸ľà¸¡ à¹Ħà¸¡
à¸ģ à¹Ģà¸ª
à¸²à¸ĩ à¸ļ
à¸Ħà¸Ļ à¹Ħà¸Ĺà¸¢
Ġà¸Ń à¸²à¸Ĺ
à¸ĭ à¸°
Ġb l
à¸Ĭ à¸Ļà¸°
à¸Ńà¸ģ à¸Ĺ
Ġh ttp
à¸į à¸Ĺ
à¸§à¹Ĥà¸¡ à¸ĩ
x x
à¸²à¸¢ à¹Ģà¸ĩ
à¸²à¹ģ à¸ģ
à¸²à¸Ļ à¸°
à¸Ķ à¹Ģà¸Ĺ
à¸ĩà¸§ à¸¥
à¸¡ à¸Ńà¸ĩ
à¸ī à¸²à¸ģ
Ġà¸ª à¸ĩà¸ª
à¸¢ à¸Ī
à¸ª à¸¡à¸²à¸Ĭ
à¹Ĥà¸Ķà¸¢ à¹Ħà¸¡
à¸ģà¸²à¸£ à¸ģ
o b
Ġà¹Ĥ à¸Ľà¸£
e y
à¹Ħà¸Ľ à¸ĸ
Ġà¸Ĥ à¸Ńà¹ĥà¸«
à¸ĩ à¹Ģà¸¡
l ine
à¸Ńà¸¡ à¸²à¸ģ
4 8
à¸¥ à¸¡
à¸¨ à¸Ļ
à¸Ń à¸Ńà¸Ļà¹Ħà¸¥à¸Ļ
à¸Ľà¸£à¸° à¸Ĺ
à¸Ń à¸ł
à¸Ĥà¸Ńà¸ĩ à¸ľ
à¸ļ à¹Ģà¸Ķ
à¹Ħà¸Ľ à¸ª
Ġà¹ģ à¸«
à¹Ģà¸§ à¸Ĺ
à¸ĩà¹Ģà¸ģ à¸ķ
à¸²à¸§ à¸ķ
à¸¢ à¸Ńà¸¢
à¹ĥà¸Ļ à¸ļ
à¹Ģà¸Ńà¸² à¹Ħà¸§
à¸²à¸ĩ à¹Ħà¸¡
à¸¢à¸ĩ à¸ģ
à¸Ļ à¸«à¸¡
à¸²à¸Īà¸° à¹Ħà¸Ķ
ic e
à¸Ĥà¸Ńà¸ĩ à¸Ħ
à¸ĩ à¹Ģà¸ªà¸£
à¸¡à¸łà¸²à¸© à¸ĵ
à¸²à¸Īà¸° à¸Ĺ
er s
à¸Ļ à¹Ģà¸Ħ
à¸¡ à¹Ħà¸¡
à¸Ļà¹Ħà¸Ľ à¹Ħà¸Ķ
à¸Ńà¸ĩ à¸ĭ
à¸Ļ à¹ĥà¸Ĭ
Ġ à¹Ħà¸§
à¸²à¹ģ à¸Ħ
Ġà¸ª à¸§à¸¢
7 0
à¸Ĺ à¸«à¸²à¸£
à¸Ńà¸¢ à¸Ļà¸°à¸Ħà¸°
à¸²à¸Ħ à¸°
à¹Ģà¸¨ à¸£
à¸²à¸Ķ à¹Ģà¸Ī
à¸Ł à¸Ńà¸£
a x
à¸ģ à¸ģà¸§
Ġà¸ª à¸²à¸Ĥ
à¹Ħ à¸ģ
---------------- ----------------
à¸Ľà¸£à¸°à¸Ĭ à¸²à¸ĺ
à¸Ĳà¸²à¸Ļ à¸°
à¸¡à¸²à¸ģ à¸¡à¸²à¸¢
à¸Ńà¸¢ à¹Ħà¸Ķ
à¸ģ à¸Ŀ
à¸Ī à¸ī
o g
Ġà¹Ģà¸« à¸ķ
à¸ĩ à¹Ģà¸Ĺ
à¸²à¸Ļ à¸«à¸¥
Ġà¹Ģà¸Ľ à¸¥
à¸²à¸Ļ à¹Ħà¸¡
à¸¢ à¸ļà¸ģ
à¸¡à¸² à¹Ģà¸¥
à¸²à¸Ļ à¸¥
à¸Ĺ à¸Ĺ
r i
à¸Ńà¸ģ à¹Ħà¸¡
Ġ z
4 5
à¹Ħà¸Ľ à¸ķ
â Ŀ¤
à¸Ļ à¹Ħà¸§
à¸ĩ à¸ľà¸¡
à¸Ńà¸¡ à¸²
Ġà¸£à¸§à¸¡ à¸Ĺ
à¸Ľà¸£à¸° à¹Ģà¸łà¸Ĺ
à¸ĩ à¹ĥà¸Ĭ
Ġà¹Ģà¸ŀà¸£à¸²à¸° à¸¡
Ġ à¹Ħà¸Ĺà¸¢
à¸ĩ à¹Ģà¸Ń
à¸²à¸ĩà¸²à¸Ļ à¸Ĺ
à¸Īà¸° à¹ĥà¸«
ou n
un g
à¸įà¸į à¸²
à¸§à¸¢ à¸ĩà¸²à¸Ļ
à¸ķà¸²à¸¡ à¸Ĺ
à¸Ļ à¸ĩà¸²à¸Ļ
à¹Ģà¸«à¸¡à¸²à¸° à¸ªà¸¡
iz e
Ġ )
6 1
à¸Ħà¸Ļ à¸«à¸Ļ
Ġà¸¡ à¸²à¸£
à¹Ģà¸ī à¸¥
Ġ on
5 00
as s
à¸° à¸¡
== ==
en d
à¸§ à¹ĥà¸«
à¹Ģà¸¡ à¸ķà¸£
à¹ģ à¸Ńà¸£
à¸²à¸Ľ à¸¥
à¸ģ à¹ĥà¸Ļ
2 2
à¸Ĭ à¸Ĭ
à¹Ħà¸ķ à¸¥
à¸Ŀ à¸£
à¸ĩà¸ģ à¸£à¸°à¸Ĺ
à¹ģà¸¥ à¸Ļà¸Ķ
à¸Ńà¸ĩ à¸«à¸¥
Ġ à¸Ħà¸§à¸²à¸¡à¸£
!! !
à¸¥à¸ĩ à¹Ħà¸Ľ
à¸Ń à¸ĺ
à¸²à¸¢ à¸§
Ġà¹Ĥ à¸Ń
à¸Ļà¹ģ à¸Ļ
à¸¡à¸²à¸ģ à¸Ħà¸£
à¸¡ à¹Ģà¸ĩ
y outube
à¹Ģà¸Ľ à¸£
Ġà¹ģà¸¥à¸° à¹Ħà¸¡
à¸Īà¸° à¸ª
à¸ļ à¸Ħà¸Ļà¸Ĺ
à¸²à¸Ļ à¸Ńà¸²à¸«à¸²à¸£
à¹Ģà¸¥à¸¢ à¸Ĺ
à¸Ħà¸£ à¸ĩà¸ģà¸²à¸£
à¸¢à¸£ à¸ķ
à¹ĥà¸Ī à¸§
à¸²à¸Ļ à¹Ħà¸Ķ
à¸Īà¸° à¸Ħ
à¸Ļ à¹Ħà¸Ĺà¸¢
à¸Ĭ à¸¢
Ġà¸ŀ à¸Ļ
à¸§ à¸ľ
à¸ļ à¸Ńà¸¢
à¹Ĥ à¸ł
il l
à¸ĩà¸Ħà¸£ à¸²à¸¡
ail and
à¸Ħà¸§à¸²à¸¡ à¹Ģà¸«
à¸Ńà¸ĩà¸£ à¸²à¸§
à¸Īà¸° à¹Ģà¸Ĥ
à¸ģ à¸Ĭà¸²à¸¢
à¸Ĭ à¸§à¸Ļ
Ġ20 19
à¹Ģà¸Ĥ à¸²à¹Ħà¸¡
à¸² à¹Ģà¸«à¸¡
à¹Ĥ à¸Ľ
à¹Ħà¸Ľ à¸«
à¸²à¸ŀ à¸£à¸°
à¹Ĥà¸Ĭ à¸§
ðŁ ı
Ġ à¸«à¸¥à¸²à¸¢
à¸£à¸° à¸ļà¸²à¸¢
à¸²à¸« à¸¡à¸²à¸¢
à¸Ń à¹Ħ
à¸Ńà¸Ķ à¸£
à¸Ļ à¹Ģà¸¢à¸Ńà¸°
à¸Ľ à¸ģà¸Ħà¸£
à¸²à¸ ¯
à¸Ķ à¸§à¸ĩ
à¸ļ à¹ģà¸ķ
à¸ģà¸²à¸£ à¸Ļ
à¹Ĩ à¸ģ
Ġs e
à¸§à¸£ à¸£à¸ĵ
à¸Ľ à¸ķ
à¸Ńà¸Ļ à¸ļ
Ġ **
Ġ2 8
à¹Ģà¸« à¸¢
à¸Ńà¸Ļ à¹Ģà¸£
à¸ĩ à¸«à¸¥à¸²à¸¢
à¸Ń à¸²à¸£à¸¡à¸ĵ
à¹Ģà¸« à¸ĩ
Ġà¸Ĭ à¸²à¸§
à¹Ħà¸«à¸¡ à¸Ħ
à¸ļ à¹ģà¸¥
à¸ĺà¸£à¸£à¸¡ à¸Ļ
à¸ĩ à¹Ģà¸Ĭ
à¸łà¸²à¸© à¸²à¸Ń
à¸¢à¸Ļ à¹ģà¸Ľà¸¥à¸ĩ
Ġp ro
à¸Ńà¸Ńà¸ģ à¸ģ
à¸§ à¸«
à¸²à¸ĩ à¸Ĭ
Ġ à¸łà¸²à¸Ħ
à¸§à¸¡ à¸¡
à¸ģà¸£à¸° à¸Ķ
Ġ2 6
à¸¢à¸Ļ à¹Ħà¸Ľ
3 4
à¸²à¸Ļ à¸£
à¸²à¸ĩ à¸¢
à¸Ńà¸ļ à¸£
à¸ĩ à¸¨
à¸Ńà¸ĩ à¹Ģà¸ģ
à¸²à¸Ľà¸£à¸° à¸¡à¸²à¸ĵ
Ġà¸Ĥ à¸Ńà¸Ħ
à¸¥ à¸²à¸¢
à¸ĵ à¸ŀ
a st
à¸²à¸ĩ à¸Ĭà¸²à¸ķ
in d
Ġ2 7
à¸ĩà¸ª à¸£
à¸Īà¸° à¹Ģà¸£
Ġà¹ģà¸¥à¸° à¸¢
à¹Ģà¸Ľ à¸Ńà¸£
Ġe x
à¸¡ à¸Īà¸²à¸ģ
à¸Ī à¸ģà¸²à¸£
à¸ŀ à¸²à¸ģ
Ġ à¸¢à¸ģ
à¸ŀà¸£à¸° à¹Ģà¸Ńà¸ģ
à¸§à¸¢ à¹ĥà¸«
à¸²à¸§ à¸°
à¸Ńà¸¢ à¸¥à¸°
à¸Īà¸° à¹Ģà¸¥
ag e
à¸Ńà¸ĩ à¸ģà¸¥
à¸Ħ à¸ļà¸ģ
à¸Ĭà¸²à¸§ à¸ļ
Ġà¸ģà¸²à¸£ à¸Ĺ
à¹Ģà¸ŀ à¸¥
à¸Ńà¸°à¹Ħà¸£ à¸ļ
à¸ķ à¸ł
à¸Ń à¹ĥà¸Ļ
Ġà¹Ģà¸£ à¸²à¸Ħ
a re
à¸Ń à¸²à¸Ĭ
it y
à¸£à¸ĸ à¹Ħà¸Ł
Ġà¸ª à¸²à¸¢
à¸Ńà¸Ń à¸ł
à¸ļ à¹ĥà¸«
à¸§ à¹Ģà¸¡
à¸Ńà¸¢ à¸ª
à¹Ģà¸Ń à¹Ģà¸Ĭ
à¸Ńà¸¡ à¸ķ
Ġa pp
à¹Ģà¸Ń à¸ª
à¸¡ à¹ĥà¸«
c r
à¸²à¸Īà¸° à¹Ħà¸¡
à¸Ńà¸ĩ à¸¨
à¸Ńà¸¢ à¹ĥà¸«
a in
à¸Ńà¸ļ à¸Ĺ
Ġà¹Ģà¸¥à¸¢ à¸Ńà¸¢à¸²à¸ģ
à¸ľà¸¥ à¸ĩà¸²à¸Ļ
Ġà¹Ģà¸£ à¸²à¸ķ
à¸ĸ à¸²à¸ļ
à¹Ħà¸Ľ à¸£
Ġc r
à¹ģà¸¥à¸° à¸¡
p x
Ġà¹Ģà¸¡ à¸ķà¸£
à¹Ģà¸ŀ à¸¨
Ġ un
à¸ĩà¸ģ à¸²à¸¢
à¸Ľà¸£à¸° à¸¡
à¸Ļ à¹ģà¸£
à¸Ķ à¸ĭ
à¸ģ à¸°
Ġ à¸¯
Ġà¹ģ à¸ŀ
à¸ĩ à¹Ģà¸Ī
à¸Ńà¸£ à¸ĸ
Ġc ol
à¸¡à¸² à¹Ħà¸Ķ
à¹ģà¸¥à¸° à¸Ĺ
à¹Ģà¸ľ à¸¢
b o
Ġà¹Ģà¸ķ à¸£
Ġà¸ª à¸Ļ
à¹Ħà¸Ł à¸¥
à¸§ à¹Ģà¸Ķ
ec t
p l
id e
à¸Ĥà¸Ńà¸ĩ à¹Ģà¸£à¸²
à¸ļ à¹ĥà¸Ī
à¸ª à¸²à¸Ĥ
à¸Ńà¸¢ à¸Ļ
à¸Ńà¸° à¸Ħà¸£
à¸² à¹Ģà¸ļ
à¸Ħà¸Ļ à¸ģ
Ġc on
in k
Ġà¸Īà¸° à¹Ģà¸Ľ
à¸§à¸ĩ à¸¨
Ġà¸Īà¸° à¸Ĺ
à¸²à¸ ¬
à¸Ĥà¸Ńà¸ĩ à¸ľà¸¡
à¹Ģà¸ª à¸¡à¸Ń
à¸²à¸Ļà¸§à¸Ļ à¸¡à¸²à¸ģ
à¹Ģ à¹Ģà¸ļ
à¸Ķ à¸Ħà¸£
Ġà¹Ģà¸ ®
à¸ļ à¹Ģà¸Ħ
Ġà¹ģà¸¥à¸° à¸Ń
à¸§à¸¢ à¸Ļ
f acebook
Ġà¸ķ à¸Ńà¸Ļà¸Ĺ
à¸¢ à¸ģà¸£
à¸£ à¸Ńà¸Ķ
2 8
à¸¡ à¸²à¸Ħ
à¸ģ à¹Ģà¸Ķ
à¸Ńà¸¢ à¸ģà¸§
à¸Ńà¸Ļ à¹Ģà¸Ľ
à¸Īà¸° à¸ĸ
à¸¢à¸Ļ à¸ķà¸£
à¸ļ à¸ģà¸¥
à¹Ħà¸ĭ à¸ķ
r am
à¹Ģà¸Ħà¸¢ à¸Ĺ
Ġà¹ĥà¸Ļ à¸§
à¸² à¹ĥà¸ª
à¸ŀ à¸Ńà¸Ķ
à¹Ģà¸£ à¸²à¸§
à¹Į âĢĿ
à¸ķà¸Ļ à¹Ģà¸Ńà¸ĩ
à¸ªà¸Ńà¸ļ à¸ªà¸§à¸Ļ
à¸ªà¸ĸà¸²à¸Ļ à¸Ĺ
à¸² à¹Ģà¸ķ
à¸ĩà¸Ħ à¸¥
à¸Ńà¸Ļ à¸ľ
à¸² à¹Ħà¸Ĺà¸¢
Ġà¸ģ à¸Ĺà¸¡
à¹Ħà¸§ à¸£
à¹Ħà¸«à¸Ļ à¸Ĺ
Ġà¹ģà¸¥à¸° à¸Ļ
i st
à¸Ļ à¸Ĳà¸²à¸Ļ
à¸£à¸²à¸Ĭ à¸ģà¸²à¸£
à¸Ħà¸Ļ à¸ķ
â ľ
à¸ĭ à¸ļ
à¸Ķ à¸ŀà¸¥à¸²à¸Ķ
à¸ģ à¸²à¸¢
Ġà¹Ģà¸£ à¸²à¸£
à¸Ī à¸ŀà¸£à¸°
à¸Ń à¹ģà¸¥
à¸²à¸§ à¸£
à¸²à¹ĥà¸« à¸¡
à¸Ĩ à¸©à¸ĵ
à¹Ħà¸Ľ à¸¢
à¸²à¸ķ à¸²à¸¥
à¸²à¸ĩ à¸Ĥ
à¹Ĥà¸Ľà¸£ à¹ģ
à¸Ńà¸ģ à¹Ģà¸ļ
à¸Ķ à¸²à¸£
à¹Ģà¸¥à¸¢ à¹Ħà¸¡
h d
à¹ģà¸ķ à¸ģà¸ķ
à¸²à¸ĩ à¸Ħà¸§à¸²à¸¡
à¹ģ à¸ªà¸Ļ
à¸Ĥà¸Ń à¹Ĥà¸Ĺà¸©
à¸ĩà¸ª à¸Ńà¸ĩ
Ġ à¹ĥà¸Ī
Ġà¸Ĭ à¸¡
à¹ĥà¸Ļ à¸Ń
Ġà¸ª à¸Ļà¹ĥà¸Ī
e st
ðŁĺ į
à¸¥ à¸Ļ
à¹ģ à¸ļà¸£à¸Ļà¸Ķ
à¸ķ à¸ļ
à¸Ńà¸Ļ à¸Ī
à¸ŀà¸Ń à¹ĥà¸Ī
t r
u d
à¹ĥà¸Ļ à¹Ģà¸£
à¹Ģà¸Ĥ à¸²à¸¡
u k
à¸²à¸ª à¸ķà¸£
à¸Ħà¸§à¸£ à¸Ĺ
à¸²à¸Īà¸° à¸ķ
Ġp r
c o
à¸ļ à¹Ĥà¸ķ
à¹Ħà¸«à¸Ļ à¸ļ
Ġa d
Ġ à¸«à¸§
à¸ŀ à¸ķ
i b
à¹Ģà¸ª à¸ĺ
à¸¢ à¸Ń
Ġà¸ģ à¸£à¸ĵ
v er
à¸Ńà¸°à¹Ħà¸£ à¸Ĺ
à¸ģà¸£ à¸ĺ
Ġà¸ķ à¸¥à¸Ńà¸Ķ
........ ........
à¸Īà¸° à¸¢
à¸§ à¸¥à¸°à¸Ħà¸£
à¸¡ à¸«à¸Ļ
à¸Ļ à¸Ĭà¸Ńà¸ļ
à¸£ à¸ŀ
à¸Ń à¹Ģà¸£à¸²
à¹Ģà¸£ à¸²à¸¢
à¸Ľà¸£à¸° à¸¢
à¸Ļ à¹ģà¸ģ
3 7
Ġsp oil
Ġà¸Ħà¸° à¹ģà¸Ļà¸Ļ
à¸ĩà¸Ĺ à¸²à¸ĩ
à¸ĵ à¸ģ
à¸¢à¸Ļ à¸ģ
à¸²à¹Ħà¸¡ à¹Ħà¸¡
à¹Ĥà¸¡ à¸ªà¸£
à¸Ńà¸Ļ à¹Ħà¸Ķ
à¸ĩà¹Ħà¸¡ à¸Ħ
à¸Ļ à¹ģà¸£à¸ģ
à¹Ĥà¸ł à¸Ħ
2 7
à¸²à¹Ħà¸Ľ à¸Ĺ
à¹Ħà¸Ľ à¸§
à¸§ à¹ģà¸Ĺ
p s
Ġ |
Ġà¸Ħ à¸²à¸Ķ
à¸¢à¸ļ à¸²à¸¢
à¸Ī à¸ģ
à¸ªà¸ĸà¸²à¸Ļ à¸ģà¸²à¸£à¸ĵ
à¸ĵ à¸«
à¸²à¸« à¸²à¸ģ
à¹ģà¸ĸ à¸§
à¹Ģà¸ģ à¸¡à¸ª
Ġ à¸£à¸°à¸ļ
à¸ķà¸ª à¸²à¸«
à¹Į "
Ġà¹Ģà¸£ à¸²à¹Ģà¸Ľ
à¸Ħ à¸ĩà¹Ħà¸¡
an s
à¸²à¸Ļ à¸ģà¸²à¸£
à¸§à¸Ļ à¸¡à¸²à¸ģ
Ġc l
à¸ķ à¹ĥà¸Ī
à¸Ńà¸Ļ à¸Ńà¸¢
à¸Ķ à¸ĩà¸²à¸Ļ
à¸²à¸¢ à¹Ĩ
à¸²à¹ĥà¸Ī à¸§
à¸Ļ à¸«à¸¡à¸Ķ
à¸£à¸ĸ à¸¢à¸Ļà¸ķ
à¸¡ à¸ĩà¸²à¸Ļ
à¸£à¸²à¸ Ķ
à¸¥ à¸¯
à¸Ĺà¸²à¸ĩ à¸ģà¸²à¸£
Ġ us
à¸ľ à¸ªà¸¡
à¸Ĳ à¸ĺà¸£à¸£à¸¡à¸Ļ
à¸ª à¸łà¸²à¸ŀ
à¸ī à¸ļ
à¸²à¸¥ à¸²à¸¢
à¹ģ à¸®
t s
c c
à¹Ħà¸Ľ à¸Ń
à¸ļ à¹Ħà¸§
à¸ªà¸° à¸Ńà¸²à¸Ķ
Ġà¹Ģà¸ŀ à¸¥à¸ĩ
Ġip hone
à¸¡ à¸°
à¸ĩ à¹Ħà¸Ĺà¸¢
à¹ģà¸ļà¸ļ à¹Ħà¸¡
Ġà¹Ģà¸ Ł
Ġ à¸¥à¸°
à¸ģ à¹ģà¸ķ
2 00
oc k
à¸Ńà¸¢ à¸ķ
à¸²à¸ģ à¸²à¸ģ
à¸¡ à¸²à¸§
à¸²à¸ľ à¸¥
à¸²à¸Ľà¸£à¸° à¸ģ
à¸ģ à¹ĥà¸«
ĠðŁ ĳ
à¸ķ à¸°à¸§
Ġy ou
à¹Ģà¸ª à¸Ļà¸Ń
à¹ģà¸ªà¸Ķ à¸ĩà¸Ħà¸§à¸²à¸¡
à¹Ģà¸ŀ à¸Ī
Ġà¹Ĥ à¸¡
Ġà¸ļ à¸Ńà¸ģà¸§
à¸§à¸¡ à¸ĩà¸²à¸Ļ
âĢ ľ
an k
Ġà¹ĥà¸Ļ à¸Ĭ
à¸Ĥ à¸¢à¸²à¸¢
à¸µ .
à¸Ļà¸« à¸¢
à¸Ĺà¸²à¸ĩ à¸Ĺ
à¸§à¸¢ à¸Ļà¸°à¸Ħà¸£
à¸Ń à¹ģà¸¥à¸°
à¸Īà¸²à¸ģ à¸ģà¸²à¸£
oo g
Ġe m
à¸ŀ à¸Ńà¸¡
à¸ģ à¸Īà¸°
à¸²à¹Ħà¸Ľ à¸Ķ
Ġ &
à¸Ķ à¹Ģà¸¥à¸¢
à¸¡à¸« à¸²à¸§
Ġà¹ģà¸¥à¸° à¹Ģà¸Ľ
Ġ20 18
à¹Ģà¸ŀ à¸Ĭà¸£
à¸²à¹ģ à¸«
à¸²à¸ŀ à¸§à¸ģ
à¸§à¸Ļ à¸Ĥà¸Ńà¸ĩ
à¸ļ à¸ľà¸¥
Ġà¸ŀà¸£ à¸£à¸Ħ
à¸ģà¹Ģà¸ķ à¸°
à¸£à¸°à¸ļ à¸²à¸Ķ
à¸²à¸Ļ à¸ļ
Ġà¸ľà¸¡ à¸§
a h
à¸Ķ à¸ľ
à¸Īà¸²à¸ģ à¸Ĺ
Ġ is
à¸§à¸¢ à¸ĭ
à¸ģà¸ª à¸²à¸§
à¹Ģà¸£à¸² à¹Ģà¸¥à¸¢
à¸ŀ à¹Ģà¸Ķ
8 8
à¸²à¸ĩ à¸¥
à¸£ à¸Ķ
à¸Ń à¹ĥà¸Ĭ
à¸Ļà¸²à¸Ķ à¸Ļ
à¸ĩà¸ļ à¸Ľà¸£à¸°à¸¡à¸²à¸ĵ
g b
à¸Ķà¹Ģà¸ľ à¸¢à¸§
Ġà¹ģà¸¥à¸° à¸£
à¸ķà¸£ à¸ĩà¸ģ
Ġ à¹Ħà¸£
à¸ľà¸¡ à¸¡
à¹Ĥ à¸ļ
Ġ2 9
à¸Ńà¸° à¸Ħ
à¸²à¸ ī
b r
à¸§à¸Ļ à¸°
++++ ++++
à¸ķà¸£ à¹Ģà¸Ħà¸£à¸Ķ
Ġà¹ĥà¸Ħà¸£ à¸¡
à¸§ à¹Ģà¸£à¸²à¸ģ
Ġs c
à¸Īà¸° à¸Ĭ
f f
à¸Ńà¸¢ à¹ģà¸¥
à¸Ńà¸Ļ à¸«à¸¥
à¹Ĥà¸£ à¸Ľ
ot h
Ġf acebook
à¸§à¸¢ à¸ª
à¸ģ à¹Ģà¸Ĺ
Ġà¸¡ à¸²
à¸Ńà¸ªà¸¡ à¸Ħà¸§à¸£
à¸Īà¸° à¸Ļ
à¸Ķ à¸²à¸§
à¸²à¸ģ à¸«à¸¥à¸²à¸¢
à¸£à¸²à¸ ©
à¸²à¸Ļ à¹Ģà¸£
à¸§à¸Ļ à¸«à¸Ļ
ent er
es s
à¸Ĥà¸Ńà¸ĩ à¸Ļ
à¸° à¸Ķà¸§à¸ģ
à¸§à¸Ļ à¸Ļ
à¸Ĥ à¸ĵà¸°à¸Ĺ
à¸ģ à¸ģà¸²à¸£
à¸Ĥà¸Ńà¸ĩ à¸£
à¸Ķ à¸¢à¸Ńà¸Ķ
à¸Ńà¸ª à¸Ńà¸ĩ
Ġ5 00
Ġ à¹ĥà¸ļ
à¸¥à¸Ķ à¸¥à¸ĩ
à¸Īà¸° à¹ĥà¸Ĭ
à¸Ķ à¹Ģà¸ģ
à¸ģ à¸Ĺà¸£
à¸Ń à¹ĥà¸Ħà¸£
Ġ3 1
Ġf or
à¸ģà¸Ħà¸Ļ à¸Ĺ
à¸ķà¸ªà¸²à¸« à¸ģà¸£à¸£à¸¡
Ġ *
à¸Ĥ à¸Ńà¸Ħ
à¸ĩ à¸Ħà¸Ļ
à¸Ħà¸§à¸²à¸¡ à¸¡
à¹Ģà¸Ĺ à¸Ħà¹Ĥà¸Ļà¹Ĥà¸¥à¸¢
.. ...
q u
Ġà¹Ģà¸£ à¸²à¸Ńà¸¢à¸²à¸ģ
à¸Ļ à¸ĩ
**** ****
Ġ à¸Ľà¸£à¸°à¸Ī
à¸ªà¸Ļà¸²à¸¡ à¸ļ
à¸ĩ à¸«à¸¡
à¸Ńà¸ĩ à¹Ħà¸Ĺà¸¢
à¸Ī à¸Ļà¸ĸ
2 6
à¸ĩ à¹ĥà¸«à¸į
Ġ3 00
2 9
à¸Ħ à¸Ń
à¸ļ à¹Ģà¸¥
à¹Ĥà¸¡ à¸Ĭ
à¹Ģà¸Ī à¸Ńà¸£
à¸Ńà¸ĩ à¹ģà¸¥
à¸Ļ à¸ŀà¸£
à¸²à¸ª à¸ķ
à¸¡ à¸ĭ
à¸Ńà¸¡ à¸Ķ
Ġà¸Īà¸° à¸ķ
à¸ĩ à¹Ģà¸ķ
à¸¢ à¸į
à¸²à¸£ à¸²à¸¢
à¸§à¸§ à¸§à¸§
à¹Ħà¸Ľ à¹Ģà¸¥à¸¢
à¸ģà¸£à¸° à¹ģà¸ª
t he
à¸²à¸Ļ à¸Ĭ
à¸Ļà¸ģ à¸£à¸°
à¸ľà¸¡ à¸Ĺ
à¸Ļà¸Ħ à¸Ķ
à¸Ńà¸Ļ à¹ĥà¸«
à¹ģà¸¥à¸° à¸ķ
à¸Ń à¹Ģà¸Ħ
à¸§ à¸¡à¸²à¸ģ
à¸¡ à¸²à¸¥
ov e
à¸ģà¸²à¸£ à¹ģà¸Ĥ
à¸²à¸Ļ à¸°à¸Ħà¸°
à¸¨ à¸ŀ
à¹ģ à¸Ĭà¸¡à¸Ľ
à¸Ļ à¸²à¸Ħà¸¡
à¹ģ à¸§
à¸Ļ à¹ĥà¸«à¸į
à¸Ľ à¸§
à¸²à¸¢ à¸Ń
i e
à¸Ķ à¸Ł
à¸Ľà¸£ à¸²à¸ģà¸ı
à¸§ à¹Ĩ
t ac
à¸Ħà¸§à¸²à¸¡ à¸Ĭ
à¸²à¸Ħ à¸¥
à¸ļ à¸ªà¸¡
p h
à¸² à¹Ģà¸Ħà¸£
à¸Ńà¸Ļ à¹Ģà¸¡
à¹ģà¸¥à¸° à¸£
à¸£à¸²à¸ ĵ
o st
Ġà¹Ģà¸ŀà¸£à¸²à¸° à¸§
à¸²à¸ĩ à¸ŀ
à¸²à¹ģ à¸Ĥ
à¸¢ à¹Ģà¸£
à¸Ķà¹Ģà¸Ī à¸Ļ
Ġà¸Ī à¸Ļà¸Ĺ
à¸Ńà¸¢à¸²à¸ģ à¸Ĺ
à¸Ļà¸Ń à¸²à¸Ĺ
à¸Ńà¹Ħ à¸«à¸£
à¸²à¸Ļ à¸Ī
à¹Ħà¸Ľ à¸Ħ
Ġà¸ª à¸²à¸¡
à¸Ń à¹Ģà¸¥à¸¢
à¸Ń à¸Ĥà¸²à¸¢
à¸Ń à¹Ģà¸Ĭ
à¸Ħà¸§à¸²à¸¡ à¸ľ
Ġà¹ģà¸ĸ à¸¡
à¸Ńà¸Ļ à¸¢
Ġs am
à¸Ľ à¸ģ
Ġà¸ª à¸²à¸§
à¸ĩà¹Ħà¸ĩ à¸ļ
à¸²à¹Ģà¸Ľ à¸¥
à¸Ķ à¹Ģà¸Ĥ
à¸ļ à¸Ł
à¸§à¸Ļ à¸ģà¸²à¸£
à¸¡ à¹ģà¸¥
à¸ª à¸ĩ
Ġà¸Ī à¸Ļ
à¸ģ à¹Ģà¸ī
à¸Ļà¸ķà¸£ à¸²à¸¢
à¸²à¸ļ à¸Ļ
à¸Ń à¹Ģà¸«à¸ķ
à¹ģ à¸Ķà¸Ļ
à¸²à¸² à¸²
à¸²à¸Ļ à¸Ńà¸¢
à¹Ģà¸ Ŀ
Ġw h
à¸²à¹ģ à¸Łà¸Ļ
à¸ŀ à¸ļà¸§
à¸Ń à¸Ħà¸Ļ
2 1
à¸¡ à¸Ĥà¸Ńà¸ĩ
à¸²à¸¨ à¸²à¸ªà¸ķà¸£
à¸ĩà¹Ģà¸Ĺà¸ŀ à¸¯
à¸Ńà¸Ļ à¸¥à¸°
Ġà¹Ĥ à¸ŀ
à¸Ļ à¸Ļà¸°à¸Ħà¸°
à¸ĩ à¹Ĥ
à¸²à¸ķ à¸Ńà¸Ļà¸Ļ
à¸«à¸¡à¸²à¸¢ à¸ĸ
4 4
à¸ĵ à¸ķ
à¸Ļ à¹Ĥà¸£à¸Ħ
à¸¢à¸¡ à¸ķ
Ġ 55
à¹ģ à¸Ńà¸ŀ
à¸Ļà¸Ń à¸²à¸Ī
Ġ à¸Ľà¸£à¸°à¸ģà¸Ńà¸ļ
Ġà¹ģ à¸Ł
Ġà¸¯ à¸¥à¸¯
Ġà¸¥ à¸Ķ
à¹Ģà¸Ĥ à¸²à¸Ĺ
à¸ļà¸£à¸£ à¸¢à¸²à¸ģà¸²à¸¨
à¸ªà¸²à¸¡à¸²à¸£à¸ĸ à¸Ĺ
à¸Īà¸° à¸Ī
à¹Ģà¸Ħà¸¢ à¹Ģà¸Ľ
à¸£à¸£ à¸¢
à¸« à¸²à¸Ķ
à¸į à¸ģ
Ġ u
à¸§ à¸ģà¸¥
à¸ģ à¸«à¸£
Ġà¸Ľà¸£à¸° à¸ĺà¸²à¸Ļ
à¸ª à¸£à¸°
Ġ à¸£à¸°à¸ļà¸ļ
à¸ª à¹Ģà¸ķà¸Ńà¸£
à¸§ à¹ģà¸¥
Ġn ot
Ġ0 8
à¸ģ à¸ģà¸¥
à¹Ģà¸£ à¸²à¸ª
à¸ļà¸Ńà¸ģ à¹ĥà¸«
à¸Ńà¸Ļ à¸Ĥà¸Ńà¸ĩ
Ġ256 3
ðŁĳ Ĺ
it e
à¸£ à¸ļà¸ģà¸§à¸Ļ
à¸Ļ à¹Ģà¸Ń
à¸²à¸ĩ à¹ĥà¸Ļ
à¸ªà¸¡ à¹Ģà¸Ķ
à¸Ļà¹Ģà¸ª à¸²à¸£
à¸²à¸§ à¸Ń
à¸Ķ à¸²
à¸§ à¹Ģà¸£à¸²
oog le
ã ģ
à¸° à¸ª
à¸«à¸¥à¸²à¸¢ à¹Ĩ
à¸Ī à¸²à¸Ħ
à¸Ńà¸ĩ à¹ĥà¸Ļ
à¸²à¸¢ à¸Ī
Ġa r
el l
à¸ĵà¸« à¸ł
Ġà¸ģ à¸£à¸¡
à¹ģà¸ļà¸ļ à¸Ĺ
à¸Ķ à¸ĩ
à¸Ļ à¹Ģà¸«à¸¥
à¸ķ à¸Ĥà¸Ńà¸ĩ
à¸ĩà¸ģ à¸£à¸°
à¸Ń à¸«à¸¥
à¸§ à¹Ģà¸Ħ
Ġ à¸łà¸²à¸¢à¹ĥà¸Ļ
Ġà¹Ģà¸¡ à¸©
à¸ļ à¸Ħà¸§à¸²à¸¡à¸ª
Ġà¹Ģà¸£ à¸²à¸Ħà¸§à¸£
à¸ģà¸²à¸£ à¹Ģà¸Ķ
à¸Ń à¸²à¸¨
à¸§à¸Ķ à¸¥
à¸£à¸²à¸© à¸İ
Ġà¸ķà¸Ńà¸Ļ à¹ģà¸£à¸ģ
à¸¢à¸Ļ à¹Ģà¸Ľ
Ġ256 0
à¸ĩ à¹Ģà¸ĩ
à¸¢à¸Ļ à¸ª
u re
à¸Ńà¸Ļ à¸ĭ
à¸ĩ à¹Ģà¸Ħ
à¸Ķ à¸¡à¸²
à¹Ĥà¸£ à¸ĩà¸ĩà¸²à¸Ļ
à¸¡ à¹Ĩ
à¸²à¹ģ à¸ŀ
à¹ĥà¸Ī à¸ģ
à¸¢ à¸ĩà¸Ĺ
Ġà¹ģ à¸Ļ
Ġ3 5
à¸²à¸¡ à¸²à¸Ĺ
Ġ --
Ġà¹ģà¸¥à¸° à¸Ħ
à¸ļ à¸Ĺà¸²à¸ĩ
à¸Ħà¸Ļ à¸¥à¸°
Ġd e
à¹Ģà¸¢ à¸²à¸§
à¸Ńà¸°à¹Ħà¸£ à¹Ģà¸¥à¸¢
4 9
à¸¢ à¸ĩà¸ª
à¸ļ à¹ĥà¸Ĭ
Ġà¹Ĥ à¸Ĭ
à¸²à¸ŀà¸£ à¸£à¸Ħ
à¸Ķ à¹Ģà¸ª
à¸Ļ à¹Ĥà¸Ķ
à¸łà¸²à¸ŀ à¸¢à¸Ļà¸ķà¸£
à¸Ħà¸§à¸²à¸¡ à¸ķ
p r
à¸ĩ à¹ģà¸ģ
à¸ģ à¸Ńà¸ĩà¸Ĺ
à¸ªà¸£ à¸£à¸Ħ
Ġc om
Ġà¹Ģà¸ŀà¸£à¸²à¸° à¹Ħà¸¡
à¸ķà¸£à¸ĩ à¹Ħà¸«à¸Ļ
7 5
à¸Ń à¸²à¸£
à¸ľà¸¡ à¸§
à¸Ĥ à¸Ļà¸ª
à¸Īà¸° à¸ĭ
à¸Ľà¸£à¸°à¸ª à¸ĩà¸Ħ
Ġà¹Ģà¸ľ à¸¢
à¸ļ à¹Ģà¸Ī
Ġà¸ª à¸ł
à¸Ħ à¹Ģà¸ģ
Ġs up
à¸¢à¸Ķ à¸Ļà¸²à¸¡
à¸¢à¸Ļ à¸§
à¸ª à¸Ĭ
Ġà¸¨ à¸£
à¸Ķ à¹ģà¸¥à¸°
à¸²à¸Ħ à¸Ļà¸Ĺ
à¸Ĥà¸Ńà¸ĩ à¸ª
Ġà¸ŀ à¸¢à¸²à¸¢à¸²à¸¡
en g
à¸Ļà¸ķ à¸¥à¸Ńà¸Ķ
Ġà¸Ń à¸²à¸«à¸²à¸£
à¸¡ à¸Ĭà¸Ļ
3 9
à¸Ńà¸ģ à¸ģ
à¸Ńà¸Ļ à¸¥
à¹Ħ à¸Ĺ
à¸ĩ à¹ģà¸£
à¸Ńà¸Ļ à¸ĸ
Ġl e
Ġà¹ģ à¸ļ
à¸²à¸ģ à¸£à¸°
à¹ģà¸ªà¸Ķ à¸ĩ
à¸Ńà¸Ļ à¹Ħà¸Ĥ
à¸²à¸Ĥ à¸²à¸¢
à¸§ à¸ĭ
à¸ĵ à¸«à¸¡
à¸²à¹ģ à¸£
Ġà¸ĸ à¸Ļà¸Ļ
à¸Ńà¸ĩ à¸Ł
à¸£à¸° à¸ģ
à¹Ģà¸Ł à¸ĭà¸ļ
if i
à¸¡ à¹Ģà¸ŀ
à¸Ń à¹ĥà¸«à¸¡
à¸ĩà¸ķ à¸Ńà¸Ļà¸Ļ
Ġà¸£ à¸Ńà¸ĩ
b y
à¸Ńà¸¡ à¸¡
à¸Ħ à¸Ĺ
Ġà¸ŀ à¸Ńà¸¡
à¹Ħ à¸Ļà¹Ģà¸ķ
à¸¢à¸Ļ à¸Ĭ
à¸Ļ à¹Ģà¸«à¸ķ
à¹ģ à¸§à¸°
à¸Ń à¹Ħà¸Ĺà¸¢
an n
à¸Īà¸° à¹Ģà¸ģ
Ġà¹Ģà¸¥ à¸Ĥ
à¸Ńà¸Ļ à¹ģà¸ģ
à¸ĩ à¸Ł
à¸ģà¸²à¸£ à¹Ģà¸Ľ
a f
à¸²à¸ĩ à¸Ńà¸¢
Ġà¹ģà¸¥à¸° à¹Ħà¸Ķ
à¸£à¸²à¸©à¸İ à¸£
Ġd ay
à¹ĥà¸Ļ à¹Ģà¸¡
3 8
3 1
à¸Ļ à¸Īà¸°à¸¡
à¸Ńà¸¢à¸²à¸ģ à¸¡
à¸¡ à¸Ńà¸¢
Ġ >>
Ġà¹ģ à¸ªà¸Ļ
à¸£ à¸ł
à¸§à¸¡ à¸Ĺ
à¹Ģà¸§à¸¥ à¸²à¸Ļ
m ent
Ġ à¸į
ðŁ Į
à¸Ńà¸Ńà¸ģ à¹ģà¸ļà¸ļ
à¸Ļà¸Ĺà¸²à¸ĩ à¹Ħà¸Ľ
à¸¢ à¹ģà¸¥
ac h
à¸¬ à¸²
à¹Ģà¸¥à¸¢ à¸Ļà¸°
à¸Ľà¸£à¸°à¸¡à¸²à¸ĵ à¸Ļ
à¸²à¹Ħà¸¡ à¸ĸ
à¸ĩ à¹Ģà¸«à¸¥
à¸ģ à¹Ģà¸«à¸¡
à¸²à¸£ à¸ŀ
Ġà¸¢ à¸Ńà¸Ķ
à¹Į ,
à¸ķ à¸°
à¸Ĳ à¸¯
à¸ĸà¸²à¸Ļ à¸Ĺ
à¸Ń à¹Ģà¸Ī
à¸¢à¸Ļ à¸Ńà¸¢
à¸²à¸Ļ à¸¡à¸²à¸ģ
à¸Ľ à¸Ĭ
à¸²à¹ģ à¸Ĺ
à¸ª à¹Ģà¸ĭ
à¸¡ à¹Ħà¸Ľ
à¸Ļà¹ģ à¸Ĺ
à¸łà¸²à¸¢ à¹ĥà¸ķ
à¸£à¸²à¸ ¨
à¸§ à¹Ģà¸ŀ
Ġa m
à¸¡à¸« à¸²à¸¥
à¸¥ à¸ª
à¸¡ à¹Ģà¸Ĥ
Ġa s
à¸²à¸£ à¸ģ
à¸§ à¹Ĥà¸¥à¸ģ
à¸²à¸Īà¸° à¸£
à¸Ļ à¸¥à¸ĩ
à¸Ńà¸Ļ à¹Ħà¸Ľ
Ġ ^
à¸²à¸Ĭ à¸Ļ
Ġà¹ģ à¸Ĥ
à¸ļà¸Ńà¸ģ à¸ģ
à¸ĩ à¸ķà¸²à¸¡
Ġà¹ģ à¸ªà¸Ķ
à¸²à¸Ń à¸²à¸«à¸²à¸£
à¸¢à¸ļ à¹Ģà¸Ĺ
w it
à¸Ńà¸Ļ à¸Ħà¸£
Ġg r
à¹Ģà¸Ħà¸¢ à¸Ħ
à¸¨ à¸§
à¸Ń à¹ģà¸ķ
à¸Ń à¹Ģà¸Ħà¸£
à¸Ńà¸Ń à¸Ńà¸Ń
à¸²à¸¢ à¸«à¸Ļ
à¸ļ à¹Ħà¸ĭà¸ķ
à¸ļà¸ļ à¸£
Ġà¸ľà¸¡ à¸¡
Ġà¹Ĥà¸Ķà¸¢ à¹Ħà¸¡
à¸²à¸¢ à¹Ħà¸¡
à¸ģà¸²à¸£ à¸Ĭ
Ġ id
à¸Ļ à¹Ģà¸£à¸²à¸ģ
à¸Ķ à¹ģà¸ķ
Ġà¹Ĥ à¸Ħ
Ġ {
Ġ à¸§à¸ĩ
à¸Ļ à¹Ħà¸«à¸¡
à¸£ à¸Ńà¸¢
à¸ģà¸²à¸£ à¸¨
ðŁı »
i x
à¸ķ à¸ģà¸¥
à¸²à¸Ńà¸°à¹Ħà¸£ à¸ģ
à¸Ķ à¸«à¸¡à¸²à¸¢
Ġà¸ľà¸¡ à¹Ģà¸¥à¸¢
à¸ģà¸¥à¸²à¸ĩ à¸Ħ
à¸Ħà¸Ļ à¸Ħ
à¸§à¸¢ à¸«à¸Ļ
à¹Ģà¸£ à¸²à¸Ķ
à¸Ľà¸£à¸°à¸ª à¸²à¸Ļ
à¸ķ à¸²
à¹Ģà¸ŀà¸£à¸²à¸° à¸¡
à¸Ħà¸§à¸²à¸¡ à¸§
à¸² à¹Ģà¸£à¸²à¹Ħà¸¡
à¸§ à¹Ģà¸¥à¸Ĥ
à¸ģà¸£ à¸²à¸Ħà¸¡
à¸Ńà¸Ļ à¹ĥà¸Ļ
Ġà¸ģ à¸¡
à¸Ī à¸Ĺ
à¹Ĥà¸Ľà¸£à¹ģ à¸ģà¸£à¸¡
à¸ĵ à¸ª
Ġà¹ģà¸¥à¸° à¸ľ
à¸ĩ à¹Ģà¸¨
à¸ĩ à¸Łà¸£
à¸Ļà¹ģ à¸Łà¸Ļ
Ġà¸Ħà¸Ļ à¸Ļ
à¸ķ à¸Ħ
à¸Ķà¸ª à¸Ńà¸ļ
à¸Ķ à¸«à¸£
à¸Ķ à¸«à¸§
à¸§à¸¢ à¸Ļà¸°
à¸Ĺ à¸§
Ġà¸¡ à¸²à¸Ķ
Ġ à¸Ńà¸ĩà¸¨
oo d
à¸§ à¹Ģà¸ģ
at h
à¸Ļà¹ģ à¸Ł
à¸²à¸« à¸§
à¸¡à¸²à¸ ĺ
à¸Ĺà¸¢ à¸²
à¸¥ à¸²à¸Ħà¸¡
à¹ģà¸¥à¸° à¹Ħà¸¡
à¸Ńà¸Ļ à¹Ħà¸«à¸§
à¸¡ à¸łà¸²à¸ŀ
l d
Ġà¸ļà¸£ à¸£
à¹Ĥ à¸ªà¸Ķ
at ch
Ġ it
à¸Ħà¸§à¸²à¸¡ à¹Ģà¸£
Ġà¹Ģà¸ ī
à¸²à¸ĩ à¸Ĺà¸²à¸ĩ
à¹Ģà¸£ à¸²à¸Ńà¸¢
à¹Ģà¸ª à¸¡
à¸Ĺà¸¢ à¸²à¸¨à¸²à¸ªà¸ķà¸£
à¸§à¸£ à¸£à¸Ħ
à¸¢à¸ĩ à¸Ħ
à¹ģà¸Łà¸Ļ à¹Ģà¸ģ
Ġa ir
Ġw ww
à¸Ľ à¹Ħ
à¸ĩà¹Ħà¸ĩ à¸Ħà¸£
à¸Ńà¸Ļ à¹Ģà¸Ĥ
à¸²à¸ļ à¸¥
à¸Ľ à¸Ħ
à¸ģ à¸Ł
à¸ĩ à¸Ļà¸°
à¸Ńà¸Ļ à¸ģà¸¥
à¸² à¹Ģà¸«
à¸²à¸Ļ à¸ĭ
in t
à¸ĩ à¹Ģà¸ŀà¸¥à¸ĩ
Ġw or
à¸«à¸¡à¸Ķ à¹ģà¸¥
à¸Ľà¸£à¸° à¸Ķ
n et
Ġ }
à¸ĺà¸£à¸£à¸¡à¸Ķ à¸²
à¸ļ à¹ģà¸Ł
à¸Ļà¸ķ à¸Ńà¸Ļà¸Ļ
Ġ à¸Ńà¸£
à¸ŀà¸²à¸ģ à¸©
Ġb r
à¸²à¸§ à¸ĸ
ic h
Ġà¹Ģà¸£ à¸²à¸Ĺ
à¸ļ à¹Ģà¸ª
à¸§ à¸Ľà¸£à¸°à¹Ģà¸Ĺà¸¨
à¸ª à¸Ľ
Ġ8 0
à¸²à¸ĺ à¸£à¸£à¸¡
à¸Ļ à¸ŀà¸£à¸°
à¸Ļà¸£ à¸²à¸Ħ
Ġ4 5
à¸ĩ à¸ŀà¸£à¸°
à¸«à¸¥ à¸²à¸ģà¸«à¸¥à¸²à¸¢
à¸§ à¸ļà¸£
à¸Ľ à¸§à¸Ķ
à¹ģà¸¥à¸° à¸ģ
à¸Ńà¸Ļ à¹Ĥà¸Ķ
Ġà¹Ĥ à¸¥
à¹Ģ à¹Ģà¸Ł
à¹Ħà¸Ľ à¹Ħà¸Ķ
à¹Ĥ à¸Ĩà¸©à¸ĵ
ðŁ İ
Ġà¸£ à¸ŀ
à¸Ļà¸ŀ à¸§à¸ģ
on d
Ġ à¸Ħà¸§
à¸Ńà¸Ńà¸ģ à¸¡
à¸ķ à¸Ń
à¸ĵ à¸£
à¸²à¸¢ à¹ĥà¸Ļ
à¸²à¸¢ à¹ģà¸¥
à¸Ńà¸ĩ à¹Ģà¸ŀà¸¥à¸ĩ
à¸²à¸ĩ à¹Ģà¸£
à¸Ńà¸ļ à¸Ń
Ġà¸Ħ à¸ĵà¸°
à¸Ļà¸§ à¸²à¸Ħà¸¡
à¹Ĥ à¸Ł
à¹Ħà¸ĭ à¸Ħ
à¸Ń à¹ģà¸ļà¸ļ
à¸° à¸Ķ
à¸²à¹ģà¸Ł à¸Ĭ
à¹Ĥ à¸®
à¸Ļà¸ª à¸¡
à¸²à¸Ļ à¹ĥà¸Ļ
à¸¤à¸© à¸łà¸²à¸Ħ
à¹Ģà¸¡ à¸Ļ
à¸Ńà¸ķ à¸Ńà¸Ļà¸Ļ
s ung
à¸§à¸Ķ à¹Ģà¸£
Ġh d
Ġà¸Ń à¸²à¸ģà¸²à¸£
à¸Ńà¸Ļ à¸Ĭ
à¸Ńà¸Ķ à¸Ĺ
à¸ľà¸¡ à¸Ħ
à¸²à¸£ à¸ĵà¸°
à¸Ńà¸ĩ à¹Ģà¸Ĭ
Ġ3 2
à¸Ĭà¸²à¸¢ à¸Ĺ
Ġà¸ķ à¸Ńà¸ļ
à¹Ħ à¸®
à¸¢ à¸Ĥà¸Ńà¸ĩ
à¸Ńà¸¢ à¸¥à¸ĩ
à¸ĩ à¸Īà¸°à¸¡
à¸ľà¸¡ à¸£
à¹ģà¸¥à¸° à¸Ļ
à¸ŀ à¸²à¸Ļ
à¸Ħ à¸Ħ
à¸ĩ à¹Ģà¸Ħà¸£
à¸ľà¸¥ à¸Ĺ
Ġ à¸Ńà¸Ļ
à¸Ńà¸ĩ à¸¡à¸²
à¸Ħà¸Ļ à¸¡
à¸Ļ à¹ģà¸£à¸ĩ
à¹Ģà¸ª à¸Ļ
. -
Ġà¸£ à¸«
à¸ĩ à¸Ľà¸£à¸°à¹Ģà¸Ĺà¸¨à¹Ħà¸Ĺà¸¢
à¸¡à¸« à¸²à¸Ļà¸Ħà¸£
à¸²à¸Ļ à¸¢
Ġà¹ģ à¸ľ
Ġ op
Ġ up
Ġà¸ª à¸ķ
à¹ĥà¸Ļà¸ģà¸²à¸£ à¸Ĺ
à¸Ľà¹Ħ à¸ķà¸¢
à¸ŀ à¸Ńà¸£
Ġà¸ķà¸£ à¸§à¸Ī
à¸ļ à¸²à¸ĩà¸Ĺ
à¸²à¸ĩ à¹ĥà¸«
à¸« à¸²à¸¥
à¸²à¸§ à¸ªà¸²à¸£
à¹Ĥ à¸ģà¸£à¸ĺ
Ġà¹ĥà¸Ļ à¸Ľ
à¸ľà¸¡ à¸ķ
à¸ģ à¸«à¸¥à¸²à¸¢
à¸²à¹Ħà¸¡ à¸ķ
à¸¢à¸§ à¸Ĭ
à¸²à¸§ à¸ª
à¸§à¸¢ à¸ļà¸Ńà¸ģ
à¸Ĵà¸Ļ à¸ĺà¸£à¸£à¸¡
à¸Ķ à¹Ħà¸§
à¸¨à¸²à¸ª à¸Ļ
Ġf ont
à¸ļ à¸«à¸¥
à¸¡à¸²à¸ģ à¹Ģà¸¥à¸¢
à¸§ à¹Ģà¸ķà¸Ńà¸£
9 5
ðŁ Ķ
Ġd tac
à¸ª à¸²à¸Ļ
à¸Ńà¸ĩ à¹Ģà¸¥à¸¢
à¹ģà¸Ľà¸¥ à¸ģ
à¸¥ à¸²à¸ģ
à¸ļ à¹ĥà¸Ļ
à¸ªà¸²à¸ĺ à¸²à¸£à¸ĵ
à¸© à¸Ĳ
9 6
à¸²à¹Ģà¸ª à¸ŀà¸ķ
à¸² à¹Ģà¸§
à¸²à¸Ľà¸£à¸° à¹Ģà¸Ĺà¸¨
à¸²à¸Ħà¸§à¸²à¸¡ à¸£
à¸ł à¸²à¸§à¸°
à¸ļà¸£ à¸¡
à¸Ļ à¸łà¸²à¸ŀ
Ġà¸Ńà¸¢à¸²à¸ģ à¸Ĺà¸£à¸²à¸ļ
à¹Ģà¸£à¸² à¹Ģà¸£
as h
à¹ĥà¸Ķ à¹Ĩ
à¸ĩ à¹Ģà¸«
à¹Į -
à¸¥ à¸Ń
Ġ6 1
Ġà¹Ģà¸ļ à¸Ńà¸£
à¸ģ à¸¯
Ġb y
à¸ľà¸¡ à¹Ħà¸Ķ
c l
à¸¥ à¸ĩà¸ª
à¹ģ à¸Ń
à¸ļ à¸Ħà¸£
Ġ à¸ĩà¸ĩ
à¸ģà¸ģ à¸ģ
à¸ļà¸ļ à¸Ĺ
à¸ĩ à¸Ńà¸¢à¸²à¸ģ
o y
à¸²à¸ª à¸Ļ
Ġà¹ģ à¸£
Ġ à¸Ľà¸£à¸°à¸ģà¸²à¸¨
à¹Ħà¸Ľ à¸ĭ
Ġ ..
à¸Ĭ à¸¡à¸ŀ
à¸¡ à¹Ģà¸¡
à¸²à¸Ļ à¹Ģà¸¡
à¹Ģà¸Ńà¸ģ à¸Ĭà¸Ļ
à¸ĩ à¸Ħà¸Ļà¸Ļ
à¸²à¸ĩ à¸Ĥà¸Ńà¸ĩ
à¸² à¹Ģà¸ŀà¸£à¸²à¸°
Ġ6 2
à¸²à¸Ļ à¸ľ
à¹ĥà¸Ī à¸Ĺ
Ġm ar
à¸ļ à¸ĩà¸²à¸Ļ
à¸Ļ à¸Ħà¸°
à¸²à¸Ļ à¸Ľ
ad a
à¸ŀ à¸Ńà¸Ĺ
à¸²à¸¢ à¸ģà¸£
à¸ķ à¸¡
à¸Īà¸° à¸ģà¸¥
Ġà¸ª à¸łà¸²à¸ŀ
à¸Ńà¸ĩ à¹ĥà¸«à¸¡
à¸Ńà¸Ļ à¸ªà¸Ļ
à¸Ńà¸ļ à¸ķ
Ġre view
à¸Ħà¸ĵà¸° à¸ģà¸£à¸£à¸¡à¸ģà¸²à¸£
3 3
à¸Ńà¸Ļ à¹Ģà¸¥à¸¢
à¸¢ à¸§à¸¢
ac e
Ġà¸Ŀ à¸²à¸ģ
à¸¡à¸² à¹ĥà¸Ĭ
à¸²à¸¢à¸Ĺ à¸Ńà¸Ķ
à¸ŀ à¸¤à¸ķ
à¸Ļà¸Ń à¸²à¸«à¸²à¸£
à¸«à¸£à¸Ń à¸Ħà¸£
th a
à¸²à¸ģ à¸İ
à¸Ľà¸£à¸°à¸Ĭ à¸²à¸£
Ġ9 0
i o
Ġp h
ap p
à¹Ĥ à¸Łà¸Ļ
à¹ģà¸ĸ à¸¥à¸ĩ
à¸¢ à¹Ħà¸Ķ
à¸Ħà¸Ļ à¸Ĥ
Ġ3 4
à¸Ļ à¸ļà¸£
à¸²à¸ĩà¹Ħà¸£ à¸ļ
om e
à¸§à¸Ļ à¸ª
r y
à¸£à¸²à¸¢à¸ĩà¸²à¸Ļ à¸§
à¸Īà¸£ à¸²à¸Īà¸£
à¸£à¸²à¸ ª
Ġm e
à¸Ńà¸ĩ à¸Ħà¸£
Ġ =
Ġà¹ģ à¸Ļà¸§
Ġ15 0
à¸¥à¸° à¸ģ
à¹Ģ à¹Ģà¸£
à¸ĩà¸²à¸Ļ à¹Ħà¸Ķ
Ġà¹ģà¸¥à¸° à¸ĸ
à¸įà¸« à¸²à¸Ĺ
à¹ģ à¸Ħà¸£
à¸Ńà¸ĩ à¹Ģà¸ŀ
à¹ģ à¸ļà¸ķ
à¸²à¸Ń à¸²à¸¢
à¹ģà¸ķ à¸ģ
Ġà¸« à¸¢
à¸Īà¸° à¸Ĥ
à¸¨ à¸Ī
à¹Ĥà¸Ķà¸¢ à¸Ĺ
à¹Ģà¸£ à¸²à¸Ļ
à¸Ħà¸§à¸²à¸¡ à¸ªà¸²à¸¡à¸²à¸£à¸ĸ
à¹Ģà¸Ħà¸¢ à¹ĥà¸Ĭ
Ġp re
à¸¢ à¹Ħà¸¡
à¸Ļà¸Ľ à¸ģà¸ķ
à¹Ĥà¸Ĺà¸£ à¹Ħà¸Ľ
à¸²à¸Ĭ à¸²à¸ķ
à¸²à¸Ĺ à¸£
à¸ģà¸²à¸£ à¹Ģà¸£
à¸²à¸ĩ à¸ĸ
à¹Ĥ à¸«à¸§
ĠâĢ ¢
à¸ļà¸²à¸ĩ à¸Ħà¸Ļ
à¸Ĭ à¸²à¸£
à¹Ģà¸¢ à¸Ńà¸£
à¸ĩ à¹ĥà¸«à¸¡
à¸²à¸§ à¸ļ
à¸ĩà¹Ĩ à¸Ĺ
à¸Ńà¸²à¸Ī à¸²à¸£à¸¢
à¸£à¸²à¸¢ à¹Ģà¸Ķ
Ġ à¸ĺà¸Ļà¸²à¸Ħà¸²à¸£
ðŁ ¤
à¸£ à¸²à¸ĩà¸§
à¸¢ à¸¨
à¸Ńà¸°à¹Ħà¸£ à¸Ķ
ï¸ı â
Ġà¸Īà¸²à¸ģ à¸Ĺ
Ġ7 0
à¸ĩà¹Ģà¸Ĺà¸ŀ à¸¡à¸«à¸²à¸Ļà¸Ħà¸£
à¹ģ à¸Ńà¸Ķ
à¸²à¸Ħ à¸²à¸į
Ġ à¸Ļà¸°
à¸° à¸Ń
à¹Ħà¸Ľ à¸Ńà¸¢
Ġà¸¢ à¸²à¸§
à¸²à¸¢ à¹ĥà¸«
à¸ŀà¸£ à¸£à¸ĵ
à¸²à¸£à¸²à¸Ĭ à¸ģà¸²à¸£
à¹Ģà¸Ħà¸¢ à¹Ħà¸Ķ
à¸§ à¹ĥà¸Ļ
à¸Ńà¸Ļ à¸ľà¸¡
Ġà¹ģ à¸Ńà¸ļ
à¸²à¸¢ à¸Ĥ
à¸£à¸²à¸¢ à¸Ĭ
à¸ĸà¸²à¸Ļ à¸ģà¸²à¸£à¸ĵ
im e
à¸§ à¹ĥà¸Ĭ
à¸Ńà¸Ļ à¸²à¸¡
à¸Ĥ à¸ª
à¸Ĵà¸Ļ à¸²
à¸ĩ à¹Ģà¸«à¸¡
Ġà¸Ī à¸Ļà¸ĸ
Ġs er
à¸¡ à¸ł
à¸ģ à¸¤à¸ķ
à¸²à¸Ļ à¹Ģà¸Ĥ
à¸§à¸ĩ à¸§
à¹ģà¸¥à¸° à¸Ħ
à¸¡à¸² à¹Ģà¸£
à¸Ļà¸²à¸¢ à¸Ļ
à¸²à¸ĩ à¹ģà¸¥
Ġ à¸£à¸°à¸¢à¸°
Ġà¸Ń à¸²à¸£
à¹ĥà¸Ħà¸£ à¸£
à¹Ĥà¸Ľà¸£ à¹Ĥà¸¡à¸Ĭ
Ġà¹Ģà¸Ĥ à¸ķ
à¸²à¸¢ à¸Ľ
Ġcol or
à¹Ĥà¸ĭ à¹Ģà¸Ĭ
à¸ĩà¸ģà¸£ à¸²à¸Ļà¸ķ
à¸Īà¸° à¸«
Ġin ter
à¸²à¸Ļ à¹Ģà¸Ľ
à¸¢ à¹Ģà¸ĩ
à¸²à¸ł à¸²à¸ŀ
Ġà¸ļ à¸²à¸ĩà¸Ħà¸£
à¸Ī à¹ģà¸¥
à¸Ķ à¹ĥà¸«à¸¡
Ġà¹Ģà¸ŀà¸£à¸²à¸° à¸Ĺ
à¸° à¹Ģà¸£
s i
à¸§à¸ĩ à¸ģà¸²à¸£
à¸§ à¸Ľ
à¸¢à¸ĩ à¸£à¸²à¸¢
w ord
à¸Ķ à¹ĥà¸Ĭ
à¸Ńà¸ĩ à¹Ģà¸Ħ
à¸ļ à¹Ģà¸Ĥà¸²
à¹Ħà¸Ń à¸Ī
à¸ģ à¹Ģà¸Ľà¸¥
à¹ģ à¸ĩ
Ġ25 0
à¹Ħ à¸ķà¸£
à¸§ à¸«à¸¥
7 7
à¸Īà¸° à¸Ńà¸¢
à¸Ńà¸ĩ à¸Ľà¸£
à¸Ńà¸¢ à¸Ļà¸°à¸Ħà¸£
à¸¥ à¸ķ
à¸Ļ à¸Ļà¸°à¸Ħà¸£
à¸§à¹Ģà¸£ à¸²à¸°
à¸²à¸¥ à¸ĩ
g e
à¸«à¸²à¸¢ à¹ĥà¸Ī
u st
à¸Ļ à¹Ģà¸§
à¹ģà¸£ à¸ĩà¸ĩà¸²à¸Ļ
à¸¤ à¸¨à¸Ī
b s
à¹Ģà¸£à¸² à¹Ģà¸¥
à¸Ľà¸£à¸°à¸ģà¸Ńà¸ļ à¸ģà¸²à¸£
à¸²à¸¢ à¸łà¸²à¸ŀ
Ġ à¹ĥà¸ģà¸¥
à¸Ŀ à¸Ļà¸ķ
à¸ļ à¹Ģà¸ģ
à¹ĥà¸Ļ à¸Ĥ
à¸ĩà¹Ģà¸¨ à¸ª
à¸§à¸¢à¸Ħà¸§à¸²à¸¡ à¸Ĺ
à¸²à¸Ĥà¸Ńà¸ĩ à¸ģà¸£à¸°à¸Ĺ
à¹ĥà¸Ļ à¸Ļ
à¸ķ à¸Ńà¸Ļà¸Ĺ
à¸Ĺ à¸°à¹Ģà¸¥
à¸ķ à¸Ńà¸¢
Ġà¹Ĥ à¸ĭ
à¸¡ à¹Ģà¸Ķ
à¹ģ à¸ģà¸£
6 5
Ġ à¸Ļà¸°à¸Ħà¸£
à¸Ĺà¸²à¸ĩ à¸Ķ
or n
à¸Ń à¹ĥà¸Ī
à¸Ķà¸Ĺ à¸°à¹Ģà¸ļ
à¸²à¸ ®
à¹ĥà¸Ļ à¹ĥà¸Ī
à¸ĩà¸Ń à¸²à¸¢
à¸łà¸²à¸¢ à¸«à¸¥
à¸²à¹Ģà¸ª à¸Ļà¸Ń
Ġ !!
à¸ĩ à¸Īà¸£
à¹Į )
m an
âĿ¤ ï¸ı
Ġ à¸Ļà¸°à¸Ħà¸°
it h
à¸ģà¸£à¸° à¸ķ
il e
à¸«à¸£à¸Ń à¸Ħà¸°
à¸Ń à¹Ģà¸§à¸¥à¸²
à¸ĵ à¹Ħà¸¡
à¸² à¹Ģà¸Ńà¸ĩ
à¸²à¸¢ à¸ļ
Ġ à¹Ħà¸Ł
à¸ģ à¹ģà¸ļà¸ļ
à¸²à¸Īà¸° à¸Ķ
à¸Ļ à¹ĥà¸Ħà¸£
à¸Ł à¸Ł
à¸ĩà¸ª à¸²à¸¡à¸²à¸£à¸ĸ
à¸ļ à¸Ħà¸Ļà¸Ń
à¹ģà¸ŀ à¸ĩ
Ġà¸Ĥ à¸ĵà¸°
à¸¢à¸Ļ à¸Ħ
à¸¡à¸²à¸ ĭ
Ġà¹Ģà¸ª à¸£
?? ??
à¸ĩà¸ľà¸¥ à¹ĥà¸«
à¹Ģà¸Ĥ à¸²à¸Ħ
à¸Ńà¸ĩ à¸Ħà¸Ļ
à¸²à¸£ à¸²à¸Ħ
à¹ģà¸Ĭ à¸Ĺ
à¸¢à¸Ķ à¸²à¸¢
à¸Ķà¸Ķ à¸Ķà¸Ķ
h ttp
à¸ŀ à¸²à¸ĵ
à¹ģ à¸ľà¸¥
à¸ĩ à¹Ģà¸Ļ
à¸Ħà¸§à¸²à¸¡ à¸Īà¸£
à¹Ģà¸Ħà¸¢ à¹Ģà¸«
ic k
à¸ĩà¹ĥà¸Ī à¹ĥà¸«
à¸ļà¸²à¸Ĺ à¸Ħ
à¸²à¸ĩ à¸Ľ
à¸§ à¹Ģà¸Ħà¸£
Ġn o
Ġg oogle
à¸Ļà¸¢ à¸²à¸¢à¸Ļ
à¹ģà¸£ à¸ģà¸ģ
Ġa t
à¸Ĥ à¸¢
à¸¡ à¸ģà¸¥
à¹Ĩà¹Ĩ à¹Ĩà¹Ĩ
à¹Ģ à¹Ģà¸¡
à¸Ļ à¸Ľà¸£à¸°à¸Ī
Ġà¸ļ à¸Ĺ
à¸ŀà¸£à¸° à¸ŀ
sp ort
à¸¢à¸ĩ à¹ģà¸Ħ
à¸¢à¸§ à¸Ħ
à¸²à¸Ĭ à¸Ļà¸°
à¸ģ à¹Ģà¸Ħ
Ġà¹ĥà¸Ļ à¸ª
à¸§à¸ĩ à¸Īà¸£
à¸¡ à¸²à¸Ń
Ġà¸ģ à¸ģà¸ķ
à¹Ģ à¹Ģ
à¸§à¸¢ à¸ķà¸Ńà¸ļ
Ġà¹ģ à¸Ľà¸¥
à¹ģ à¸Ńà¸Ľ
à¸Ļà¹ĥà¸Ī à¸§
à¸²à¸ĩ à¸«
b l
Ġà¸Ńà¸¢à¸²à¸ģ à¸Īà¸°
ðŁĴ ķ
ðŁ ĩ
à¸Ńà¸ļ à¸Ńà¸ģ
Ġà¸ľà¸¡ à¹Ģà¸Ľ
à¸¤à¸©à¸łà¸²à¸Ħ à¸¡
à¹Ģà¸ĺ à¸Ńà¸ģ
à¸Ļ à¹Ģà¸£à¸²
à¸§ à¹ģà¸¥à¸°
Ġc all
Ġà¸ļà¸²à¸ĩ à¸Ħà¸Ļ
à¸Ļ à¹Ģà¸ļ
Ġà¹Ĥ à¸ķ
Ġs ize
Ġ ....
Ġt e
à¹ģà¸Ł à¸Ļà¸Ħà¸¥
à¸Ľà¸£à¸°à¸Ĭà¸²à¸Ĭ à¸Ļà¸Ĺ
à¸²à¸Ļ à¸Ĥà¸²à¸¢
à¸ĩ à¸Ŀ
à¸Ķà¹Ģà¸ľ à¸¢
à¸²à¸« à¸¢
à¸Ńà¸ª à¸Ńà¸ļà¸ĸà¸²à¸¡
Ġà¸« à¸²à¸¢
3 00
à¹Ħà¸«à¸Ļ à¸Ħà¸£
à¸įà¸« à¸²à¸ģ
à¸Ķ à¸ģà¸¥
à¸Ķ à¸Ľà¸ģà¸ķ
à¸Ļ à¹Ģà¸§à¸¥
à¸ĩà¸« à¸²à¸Ħà¸¡
à¸ļ à¸¡à¸²à¸ģ
à¸Ĺ à¸Ńà¸ĩ
à¸§ à¸²
à¸¡ à¹Ģà¸£
c k
à¸²à¸ĩ à¹Ģà¸Ńà¸ģ
à¸ĩà¸Ħ à¸²à¸£
à¸ŀà¸ĩ à¸©
g r
Ġà¸ª à¸¡à¸²à¸Ĭ
Ġm y
Ġà¹Ģà¸¡à¸© à¸²à¸¢à¸Ļ
à¸Ļà¹Ħà¸Ľ à¸Ĺ
Ġà¸Īà¸²à¸ģ à¸ģà¸²à¸£
à¸²à¸Ĥ à¸Ń
à¹Ģà¸£à¸²à¸ģ à¸¥
à¸Ľà¸£à¸° à¸Ĺà¸²à¸Ļ
à¹Ģà¸£ à¸²à¸Ńà¸¢à¸²à¸ģ
Ġà¹ĥà¸Ħà¸£ à¸£
à¸ĩà¸ª à¸²à¸£
à¸²à¹Ħà¸Ľ à¸ģ
Ġà¹Ģà¸£ à¸²à¸Ī
à¸Ķ à¸«à¸¥
à¹Ģà¸¥à¸¢ à¸Ī
à¸ĩ à¹Ģà¸§à¸¥
Ġà¸ŀ à¸ļà¸§
' s
à¸¸ à¹ĭ
à¸¢à¸¢ à¸¢
à¸ļà¸Ĥ à¸Ńà¸ļà¸Ħ
à¸ĵ à¸¡
à¸£à¸²à¸Ĭ à¸ª
i es
3 2
à¸²à¸§ à¸Ħà¸£
à¸²à¹Ģà¸£ à¸²à¸ģ
à¸ı à¸«à¸¡à¸²à¸¢
à¸¢à¸Ļ à¸¡
Ġc enter
Ġv s
à¸Ńà¸ļ à¸£à¸¡
à¹ĥà¸Ħà¸£ à¸Ĺ
à¸«à¸¥à¸²à¸¢ à¸Ħà¸£
à¸Ńà¸¢ à¸£
Ġà¹Ģà¸ŀà¸£à¸²à¸° à¸ķ
à¸ª à¹Ħà¸ķà¸¥
à¸²à¸ĩ à¹Ģà¸Ĭ
à¹Ĥà¸Ĭ à¸Ħà¸Ķ
ðŁĺ ĺ
à¸²à¸§ à¸Ħ
à¸Ļà¸Ļ à¸Ļà¸Ļ
à¸Ķ à¹Ģà¸ķ
à¸ª à¸ĭ
à¸ŀà¸£à¸° à¸Ħ
à¸ģ à¸«à¸¡
à¹Ģà¸¥à¸¢ à¸ķ
à¸Ľà¸£à¸° à¹Ģà¸¡
à¹ģ à¸Ļà¸°
à¸Ľ à¸ª
Ġ20 17
à¹Ĥ à¸ĩ
à¸Ńà¸ª à¸²à¸£
à¸ĩà¹Ħà¸ĩ à¸Ħà¸°
à¹Ĥà¸Ķà¸¢ à¹Ģà¸īà¸ŀà¸²à¸°
à¸Ńà¸¢ à¸Ī
à¸²à¹Ħà¸Ľ à¸ª
à¸Ķà¸ķà¸²à¸¡ à¸Ĥ
à¹Ĥà¸Ńà¸Ļ à¹Ģà¸ĩ
à¸Ńà¸ĩ à¹ģà¸¥à¸°
à¸²à¸Ļ à¸Ĥà¸Ńà¸ĩ
à¸ģà¸£à¸¢à¸²à¸Ļ à¸¢à¸Ļà¸ķ
à¸² à¹Ģà¸¢
à¸§ à¸«à¸£
à¸Ķ à¹Ģà¸¡
Ġ à¸Łà¸£
Ġà¹Ĥ à¸Ħà¸£à¸ĩà¸ģà¸²à¸£
à¸²à¸¡ à¸²à¹ĥà¸Ļ
Ġà¸¨ à¸²à¸¥
à¹Ģà¸Ħà¸¢ à¸£
à¸§à¸¢ à¸¡
à¸ĩà¹ģà¸ļà¸ļ à¸¥à¸ĩà¸Ĺà¸°à¹Ģà¸ļ
à¸¢à¸ĩ à¸ķ
à¸Ļà¸Īà¸° à¹Ģà¸Ľ
à¸Ħà¸§à¸²à¸¡ à¹Ģà¸ª
à¸Ľà¸£à¸° à¸«à¸¢
à¸¡ à¹ĥà¸Ļ
à¸²à¸Ļ à¹ĥà¸«
ee k
à¸Ļ à¹Ģà¸§à¸¥à¸²
à¸²à¸Īà¸° à¹Ħà¸Ľ
à¸Ĺà¸¢ à¸²à¸Ļ
à¸ľà¸¡ à¹Ģà¸Ľ
à¸¡à¸²à¸ĸ à¸²à¸¡
Ġ one
à¸Ķ à¸¥à¸Ńà¸ĩ
p o
Ġà¹ģà¸¥à¸° à¸ŀ
à¸ļ à¸ł
à¸´ .
à¸Ľà¸¥ à¸Ńà¸¡
Ġà¹ģà¸¥à¸° à¸ģà¸²à¸£
Ġsam sung
à¹Ħ à¸ŀ
à¸§à¸¢ à¸Ī
Ġà¸ģà¸¥ à¸²à¸¢à¹Ģà¸Ľ
à¸£à¸²à¸Ħ à¸²à¸ĸ
à¸²à¸¢ à¸ŀ
' ,
à¸Ħ à¸ģ
à¸ķ à¸Ķ
à¸ĵ à¸ªà¸¡à¸ļ
à¸²à¸Ļ à¸§à¸¢à¸ģà¸²à¸£
Ġà¸ľà¸¡ à¸ķ
à¸ļà¸Ńà¸ģ à¹Ħà¸¡
à¸ĩà¸«à¸§ à¸°
à¸Ľ à¸łà¸²à¸ŀ
à¸²à¸§ à¸«à¸Ļ
à¸Ńà¸¡ à¹Ģà¸¡
à¸Ļà¹Ħà¸Ľ à¸ķà¸²à¸¡
à¸ķà¸£ à¸ĩà¸Ĥ
à¸§à¸ĩ à¸ķ
à¹ĥà¸Ī à¸Ķ
Ġà¸ķ à¸¥à¸²à¸Ķ
à¸¡à¸²à¸ķ à¸¥à¸Ńà¸Ķ
Ġà¸¥ à¸Ńà¸ĩ
à¸ļ à¸§à¸Ļ
à¸¢à¸Ļ à¸Īà¸ļ
à¸ĸ à¸§
à¸Ļ à¸£à¸°à¸¢à¸°
à¹ģ à¸ģà¸¥
t n
à¸§à¸¢ à¸Ń
à¸¡ à¸²à¸Ī
Ġà¹Ģà¸« à¸Ļ
à¸²à¸ĩ à¹Ģà¸ķ
à¹Ħà¸Ĥ à¸Ľ
Ġà¸ľà¸¡ à¸Ī
à¹Ģà¸Ńà¸² à¹Ģà¸ĩ
à¸²à¸ĩà¸²à¸Ļ à¸ģ
ac t
Ġà¹ĥà¸Ļ à¸ģà¸²à¸£
à¸¥ à¸Ńà¸¢
à¹Ħà¸Ĺà¸¢ à¸£
Ġà¸ģà¸£à¸° à¹Ģà¸Ľ
à¸Ķ à¹Ģà¸ĩ
à¹Ģà¸«à¸¡à¸²à¸° à¸ģ
à¸ģ à¹Ģà¸¡
is s
à¸ģà¸ģà¸ģà¸ģ à¸ģà¸ģà¸ģà¸ģ
Ġà¹Ģà¸£ à¸²à¸§
à¸ķ à¸²à¸£
ak e
à¸° à¹ģà¸ķ
à¹Ĥà¸¥ à¹Ģà¸¡à¸ķà¸£
à¸ŀ à¸ļà¸ģ
à¸ģ à¹Ģà¸ĩ
à¹Ģà¸ŀà¸£à¸²à¸° à¸§
à¸Ńà¸¢à¸²à¸ģ à¸Ĺà¸£à¸²à¸ļà¸§
à¸²à¸ĩ à¸ĩ
à¸²à¸Ħà¸§à¸²à¸¡ à¸ªà¸°à¸Ńà¸²à¸Ķ
Ġà¹ģ à¸Ľ
à¸Ń à¸«à¸£
k ey
à¸²à¸ĩ à¹ģà¸¥à¸°
à¸²à¸¡ à¸²à¸£
à¸ªà¸¡ à¸²à¸Ħà¸¡
Ġ q
à¹ģ à¸¢à¸°
à¸²à¸ģà¸²à¸£ à¸Ĺ
Ġ im
à¸¢ à¹ģà¸¥à¸°
8 5
Ġà¸Īà¸° à¹Ħà¸¡
à¸Ļ à¹Ģà¸ĭ
Ġd r
à¸µ )
à¸Ķà¸Ĥ à¸²à¸Ķ
Ġà¸¡ à¸ģà¸£à¸²à¸Ħà¸¡
i re
à¹Ģ à¹Ģà¸Ħ
à¸§à¸ļà¸£ à¸§à¸¡
à¸ī à¸²à¸¢
à¸²à¸Ļ à¹Ģà¸Ķ
à¸Ļ à¹Ģà¸«
Ġà¸ľà¸¡ à¸£
à¸²à¸Ļ à¸§à¸¢
o x
u g
à¸Ļà¸Ĺ à¸Ļ
Ġw ifi
à¸§à¸²à¸ĩ à¹ģà¸ľ
à¹Ģà¸ģ à¸ĵà¸ĳ
à¸¡à¸²à¸ķà¸£ à¸Ĳà¸²à¸Ļ
à¹ĥà¸Ļ à¸£à¸°à¸Ķ
ol d
à¸Ńà¸ª à¸Ńà¸ļ
à¸ļ à¹Ģà¸Ħà¸£
m m
à¸ķ à¸Ĭ
Ġh e
Ġà¹Ģà¸ŀà¸£à¸²à¸° à¸ĸ
à¹Ģà¸ľà¸¢ à¹ģà¸ŀà¸£
à¸Ńà¸ª à¹Ģà¸ķà¸£
à¸²à¸§ à¹Ĩ
à¸¢à¸Ļ à¸Ļ
à¸Ńà¸ģ à¸ĭ
à¸Ńà¸ģ à¸£
Ġà¸£à¸²à¸¢ à¸ĩà¸²à¸Ļ
Ġâ ľ
à¸ģà¹Ģà¸ģ à¸Ńà¸£
à¸Ļà¹ģ à¸«
à¸« à¸²à¸Ĥ
ow er
à¸Ńà¸¥à¸¥ à¸²à¸£
à¹Ĥà¸ļ à¸£à¸²à¸ĵ
à¹Ĥà¸«à¸¥ à¸Ķ
à¸ªà¸° à¸ªà¸¡
à¸Ńà¸§ à¸²à¸Ļ
à¸ĩ à¸Ľà¸£à¸°à¸Ĭà¸²à¸£
à¸¢ à¸Ńà¸ĩ
à¸Ī à¸ª
à¸§à¸Ļ à¸Ń
à¹ģ à¸ŀà¸¥
à¸Ńà¸ĩ à¸Ĥà¸Ń
à¸²à¸Ľ à¸ģà¸ķ
p ort
Ġà¸ª à¸Ļà¸²à¸¡
à¸° à¸Ľ
Ġà¸ľà¸¡ à¸Ħ
à¸ĩ à¸Ħà¸°
à¹Ģà¸Łà¸ª à¸ļ
ðŁ Ļ
à¸Ħ à¸ķ
à¸²à¸ĺ à¸£
à¸Ńà¸Ľ à¸Ľ
à¸¢à¸ĩ à¸¥
à¸¤ à¸«
à¸Ļ à¸Ńà¸ģà¸Īà¸²à¸ģ
s c
à¸Ķ à¹Ħà¸Ł
Ġà¹Ģà¸£ à¸²à¸¢
Ġof f
à¸§à¸Ļ à¸£
Ġà¸Ĥ à¸ĵà¸°à¸Ļ
à¹Ħà¸¥ à¸Ł
à¸ļ à¹ģà¸Ī
Ġn ew
à¸ļà¸£à¸£ à¸Ĺ
n k
à¸Ī à¸§
à¸²à¹Ĥ à¸Ľà¸£
à¸ĩà¸Ħ à¹Ĥà¸Ľà¸£
8 4
à¸«à¸¥à¸²à¸¢ à¸Ńà¸¢
à¸²à¸ŀ à¸¢à¸²à¸¢à¸²à¸¡
à¹Ģà¸Ĺà¸¨ à¸ģà¸²à¸¥
à¸¡ à¸ģà¸²à¸£
or y
à¸§ à¸ģà¸§
à¹Ĥà¸ŀ à¸ª
wit ter
à¸§à¸¢ à¸£
à¸§à¸Ļ à¸¥à¸Ķ
à¸²à¸ķà¸£ à¸Ĳà¸²à¸Ļ
à¸¥à¸° à¸Ħà¸Ļ
b er
à¸Ńà¸¢ à¹Ħà¸Ľ
it ion
à¸ķà¸²à¸¡ à¸«
à¸Ļà¸Ĺ à¸ļ
à¸Ļà¹Ĥ à¸¢à¸ļà¸²à¸¢
à¸Ĥà¸Ńà¸ĩ à¸ŀ
à¹Ģà¸¡ à¸£
Ġà¸ª à¸°
à¸ĺ à¸£
à¸²à¸ķ à¸Ńà¸Ļ
e p
Ġà¹Ģà¸ ¨
à¸ĩ à¹ĥà¸ª
Ġs et
à¸Ļà¹Ģà¸ģ à¸¡
Ġf l
à¸ģ à¸«à¸¡à¸²à¸¢à¹Ģà¸¥à¸Ĥ
à¸²à¸¢ à¹Ģà¸Ķ
# #
à¸Ńà¸ĩ à¸«à¸¡
à¸ŀà¸£à¸£à¸Ħ à¸ģà¸²à¸£à¹Ģà¸¡
à¹Į âĢĭ
à¹Ħà¸Ĺà¸¢ à¸Ĺ
Ġth ailand
à¸ģ à¸²à¸¢à¸Ļ
à¸Ń à¹ģà¸Ħ
à¹ģ à¸Ľà¸£
à¹Ģà¸ŀà¸£à¸²à¸° à¹Ħà¸¡
à¸Ńà¸¡ à¸ŀ
à¸²à¸ķà¸£ à¸§à¸Ī
à¸ļà¸¡ à¸²à¸Ĺ
à¸ĭ à¸Ńà¸¢
à¸£à¸ĸ à¸ķ
à¸² à¹Ĥà¸Ķà¸¢
à¸¢à¸§ à¸ļ
à¸ĩ à¹Ģà¸ļ
à¸Īà¸° à¹Ģà¸Ń
à¹ĥà¸Ļ à¸Ľà¸£à¸°à¹Ģà¸Ĺà¸¨
à¸ĩà¸Ń à¸²à¸Ī
à¸¢à¸Ļ à¹Ħà¸Ķ
k y
à¸ģà¸¥ à¸ĩà¸Ĺ
à¸£à¸© à¸ĵ
m l
à¸¹ à¹Ĭ
à¸Ĥ à¸Ńà¸ļ
à¸§à¸¢ à¹Ħà¸Ķ
à¸¡ à¸ĸ
à¹Ģà¸Ń à¸Ł
à¸Ļ à¹Ĥà¸Ķà¸¢
Ġà¸¡ à¸«à¸²à¸§
à¸²à¹ģ à¸Ļ
Ġ à¹ĥà¸«à¸¡
à¸° à¹Ħà¸¡
f or
à¸ļ à¸Ħà¸§à¸²à¸¡à¸£
à¹ĥà¸Ļ à¸Ī
à¸Ńà¸Ļà¸²à¸Ħà¸ķ à¹ĥà¸«à¸¡
8 9
à¹Ģà¸£ à¸²à¸Ĭà¸Ńà¸ļ
oun d
Ġ5555 5
à¸Ńà¸¡ à¸Ļ
à¸ª à¸²à¹Ģà¸«à¸ķ
Ġy outube
?? ?
à¸Īà¸° à¹Ģà¸Ķ
à¸Ļà¸Ĺà¸²à¸ĩ à¸ģà¸²à¸£
à¸ĩ à¸ŀà¸¥
à¸ļ à¹Ģà¸Ļ
à¸²à¸§ à¸¡
à¸Ńà¸ĩ à¹ģà¸ķ
Ġ an
à¸²à¸ĩ à¹ĥà¸Ķ
à¸Ńà¸ģ à¸£à¸°à¸Ĺ
à¸¢à¸ĩ à¹ģà¸ķ
facebook com
à¹Ĥ à¸Ļà¸¡
Ġà¹ģà¸¥à¸° à¸Ķ
Ġ à¸¥à¸°à¸Ħà¸£
à¹ģ à¸Ńà¸¥
à¸Ļà¹ģ à¸Ķà¸Ķ
à¹Ĩ à¸Ĺ
à¸ªà¸ķ à¸²à¸£
Ġà¹ ĳ
le t
à¹ĥà¸Ļ à¸Ħà¸£
à¸Ļ à¸łà¸²à¸©
à¸Ń à¸«à¸¡
à¸²à¸ª à¸£
________ ________
à¸ªà¸²à¸¢ à¸ķ
à¸¡à¸²à¸ģ à¸Ļ
Ġà¹Ĥà¸ŀ à¸ªà¸ķ
à¸ķà¸£ à¸ĩà¸Ĺ
à¹Ģà¸Ļ à¸Ńà¸°
à¸Ĭà¸Ńà¸ļ à¸Ĺ
Ġà¹Ĥà¸£ à¸ĩà¹Ģà¸£
à¸²à¸¢ à¸¥
à¸¡ à¹Ģà¸¥
à¸ľà¸¥ à¸Ľà¸£à¸°à¹Ĥà¸¢à¸Ĭà¸Ļ
à¸Ńà¸¢ à¹ĥà¸Ī
à¸§à¸Ļ à¸Ħ
à¸Ĥà¸Ńà¸ĩ à¸¡
à¸²à¹ĥà¸« à¸į
à¹ĥà¸Ļ à¸ģà¸¥
à¸§ à¹Ģà¸¥à¸¢
à¸Ī à¸Ķ
Ġà¹ĥà¸Ħà¸£ à¸Ĺ
à¹Ģà¸Ī à¸²à¸°
à¹Ģà¸ģà¸©à¸ķà¸£ à¸ģà¸£
à¸¢à¸Ļ à¸Ķ
à¸Ķ à¸¥à¸ĩ
à¸²à¸£ à¸²
Ġà¹Ģà¸¥à¸¢ à¹Ħà¸¡
à¸Ħ à¸¡à¸Ĭ
m e
à¹ģà¸ļà¸ļ à¹Ħà¸«à¸Ļ
à¹Ģà¸¥à¸Ĥ à¸Ĺ
Ġsup er
à¸ļ à¸«à¸£
f t
à¸Ĥ à¸Ĺ
Ġm an
à¹ĥà¸Ļà¸ģà¸²à¸£ à¸ķ
à¸Ń à¹Ħà¸£
à¸ªà¸²à¸ĺà¸²à¸£à¸ĵ à¸ª
Ġ3 6
5555 5
¹ Ĳ
à¸Ńà¸Ļ à¹Ģà¸£à¸²
à¸ļà¸²à¸ĩ à¸Ńà¸¢
à¸ĩà¹ģ à¸§à¸Ķà¸¥
à¹Ħà¸Ľ à¹Ħà¸«à¸Ļ
Ġà¸Ľà¸£ à¸²à¸ģà¸ı
Ġà¹ Ĵ
à¸²à¸Ħ à¸Ļà¸Ń
Ġ^ ^
à¸²à¸¢ à¸Ĭ
à¹Ħ à¸ŀà¸£
==== ====
à¸ĸ à¸Ļ
à¹Ģà¸£ à¸²à¸Ī
à ¹Ĳ
à¸ĩ à¸Ľà¸¥
à¸ĵ à¸¢
à¸²à¹Ģà¸£ à¸²à¸Īà¸°
à¸Īà¸Ńà¸Ķ à¸£à¸ĸ
à¸ĩ à¹Ģà¸£à¸²à¸ģ
à¸ļ à¹ģà¸¥à¸°
à¸ªà¸§à¸¢ à¸ĩà¸²à¸¡
à¸§à¸ģ à¸ģ
à¸ĩ à¹Ģà¸£à¸²
à¸ļà¸²à¸ĩ à¸Ħà¸£
à¸²à¸¡ à¸²à¸Ķ
à¸ĩ à¸¥à¸ĩ
Ġà¸ľà¸¡ à¹Ħà¸Ķ
at t
à¸Ħà¸Ļ à¹Ģà¸Ĥ
à¸ŀ à¸Ńà¸ªà¸¡à¸Ħà¸§à¸£
à¸¢à¸§ à¸ķ
à¸ļ à¹Ģà¸¥à¸¢
Ġ //
à¸²à¸Ļ à¸Ĺà¸²à¸ĩ
à¹Ħà¸Ľ à¸Ļ
à¸© à¸ķà¸£
Ġà¸£à¸²à¸¢ à¹Ħà¸Ķ
à¸¡ à¹ģà¸¥à¸°
à¸ŀà¹Ģà¸Ķ à¸Ĺ
à¸£ à¸²
à¸łà¸²à¸ŀ à¸Ĺ
à¸¡à¸Ń à¹Ģà¸ķà¸Ńà¸£
à¸Ļà¸ļ à¸²à¸Ĺ
Ġà¸Ľà¸£à¸° à¹Ģà¸Ķ
à¸¢à¸Ļ à¸Ī
Ġ à¸«à¸¡à¸Ķ
à¸²à¸ĩ à¸«à¸¥
à¸Ļ à¹Ħà¸ĩ
Ġà¸Ľà¸£à¸° à¸ķ
à¸ª à¸ĸ
Ġà¹ģ à¸¡à¸Ļ
à¸Ļà¸Ħ à¸ĩ
à¸Ķ à¹ģà¸ļà¸ļà¸Ļ
à¸Ń à¹Ģà¸Ń
à¸Ĭ à¸²à¸ģà¸²à¸£
à¹Ģà¸Ĥ à¸²à¸Īà¸°
à¸ģà¸²à¸£ à¸ļà¸£
à¸Ń à¹Ģà¸¥à¸¢à¸Ħ
Ġà¹ģ à¸Ĭà¸£
à¸ģà¸© à¸²à¸Ĺ
à¸¢à¸§ à¸Ķ
à¸¡ à¸²à¸Ńà¸¢
Ġf r
à¸ļ à¹Ģà¸¡
à¸ŀ à¸²à¸£
à¸ļà¸ģà¸²à¸£ à¸Ĺ
h a
à¸Ħ à¸Ĭ
Ġsh op
à¸Ń à¸Ľà¸¥
à¸ĩ à¹ģà¸£à¸ĩ
à¸²à¸ĩ à¹Ħà¸Ķ
Ġà¹ģà¸¥à¸° à¸§
Ġà¸¡à¸²à¸ģ à¸ģà¸§
4 7
Ġl ove
d r
à¸ª à¹Ģà¸Ľ
à¸ŀà¸£à¸° à¸Ńà¸ĩà¸Ħ
à¸Ļà¹Ħà¸Ľ à¸Ķ
à¸Īà¸° à¸ģ
à¸Ļà¸° à¸§
à¸§ à¹ģà¸Ĺà¸Ļ
al e
m b
à¸ļ à¸²à¸Ķà¹Ģà¸Ī
Ġà¸Ħà¸²à¸Ķ à¸§
à¸ĩ à¹ģà¸Ħ
s um
à¹Ĥ à¸ī
à¸łà¸²à¸¢ à¸Ļà¸Ńà¸ģ
à¸į à¸Ħ
¹ ķ
p u
à ¹ķ
à¸§à¸ĩ à¸Ľ
à¸Ńà¸ģ à¸Ļ
an ce
à¸Ńà¸ĩ à¸Ńà¸°à¹Ħà¸£
à¸ĩ à¹Ħà¸«à¸¡
à¸²à¸ĩ à¹ģà¸ľ
à¹Ģà¸Ĺ à¸Ħà¸Ļ
Ġà¸ģà¸£à¸° à¸Ĺà¸£à¸§à¸ĩ
Ġ0 9
à¸§à¸Ļ à¸ģ
à¸Ĳ à¸¡
à¸Ńà¸ĩà¸ª à¸²à¸§
Ġ $
à¸¥ à¹Ģà¸¥
à¸ĩà¸²à¸Ļ à¸ģ
à¸²à¸« à¸¡à¸Ń
à¸§à¸ĩ à¸ª
à¸ģà¸¥à¸²à¸ĩ à¸§
Ġ à¸Ńà¸ģ
à¸§à¸¢ à¸Ĭ
à¸Īà¸²à¸ģ à¸Ļ
Ġà¸ķà¸²à¸¡ à¸Ĺ
à¸° à¸£
à¹Ĥà¸Ńà¸ģà¸²à¸ª à¹Ħà¸Ķ
Ġe p
à¸ķ à¸²à¸¥
à¸¡ à¹Ģà¸¥à¸¢
f l
ik e
à¸Ļà¹ģ à¸Ļà¸§
à¹Ģà¸Ĥ à¸²à¹Ħà¸Ľ
à¸Ńà¸¡ à¹ĥà¸«
à¸ģà¸²à¸£ à¸Ń
à¸¥ à¸ĭ
m ail
Ġà¹ĥà¸Ļ à¸Ĥà¸ĵà¸°à¸Ĺ
à¸ļ à¸«à¸¡
à¹Ĥà¸Ĺ à¸£à¸¡
à¹ģà¸Ĺ à¸Ħ
à¸§à¸ĩ à¸ģ
à¸²à¹ģ à¸ŀà¸ĩ
à¹Ĥà¸Ĺà¸£ à¸Ĺ
à¸²à¸Ļ à¸²à¸¢
à¸£à¸²à¸ Ł
à¸ĩà¸Īà¸° à¹Ģà¸Ľ
Ġal l
à¸Ńà¸ĩ à¹Ģà¸Ľà¸¥
à¹Ģà¸Ńà¸ģ à¸Ĭ
à¸ªà¸£ à¸£à¸ŀ
Ġ4 00
à¸¢ à¸ŀ
à¸ĩ à¸Ńà¸°à¹Ħà¸£
à¸Ħà¸§à¸²à¸¡ à¸«à¸¡à¸²à¸¢
à¸§ à¹Ģà¸ª
à¸²à¸Ń à¸Ńà¸ģà¸Īà¸²à¸ģ
Ġt op
à¸Ńà¸ĩà¸ģà¸²à¸£ à¹ĥà¸«
à¸Ĭà¸²à¸¢ à¸Ħà¸Ļà¸Ļ
s ize
à¸ŀà¸Ń à¸Īà¸°
à¹ĥà¸Ļ à¸¢
à¸ĺà¸Ļ à¸²à¸ĺà¸£
m ark
Ġà¹ģà¸¥à¸° à¸Ĭ
à º
6 6
à¸ķ à¸¥
Ġà¸ŀ à¸¤à¸©à¸łà¸²à¸Ħà¸¡
à¸ģ à¹Ģà¸£à¸²
ðŁ į
à¸Ĥà¸Ļà¸²à¸Ķ à¹ĥà¸«à¸į
is h
à¸Ńà¸¢ à¸§
à¸Ńà¸¢ à¸¥
à¸Ķà¹Ģà¸Ĺ à¸Ńà¸¡
à¸ĺ à¸¢à¸¡
ðŁĺį ðŁĺį
à¸Ļà¸ģà¸²à¸£ à¸Ĺ
à¸Ķ à¹Ģà¸Ħà¸£
à¸ļ à¸ŀà¸§à¸ģ
à¸ªà¸ļà¸²à¸¢ à¹ĥà¸Ī
à¸ģà¸© à¸£
à¸²à¹ģ à¸Ī
ov er
à¸Ńà¸ļ à¸Ńà¸ģà¸§
à¸¥ à¹Ģà¸ĭ
à¸Ļà¹Ħà¸Ľ à¸ģ
à¸Ħà¸§à¸²à¸¡ à¸Ī
à¹ģ à¸Ħà¸¥
à¸²à¸§ à¸¥
à¸įà¸« à¸²à¹Ģà¸£
à¸§à¸Ļ à¹Ģà¸£
Ġà¹Ģà¸ŀà¸£à¸²à¸° à¹Ģà¸Ľ
Ġà¸Ķ à¸£
Ġà¸£ à¸£
à¸Ń à¸²à¸§
: :
à¸² à¹Ģà¸«à¸¥
Ġw eek
à¸¤ à¸ģà¸©
à¸ķ à¹Ģà¸ķà¸Ńà¸£
à¸Ĩ à¸©
à¹Ħà¸Ľ à¸Ī
à¸łà¸²à¸Ħ à¹ĥà¸ķ
à¸Ńà¸Ļ à¹Ģà¸ģ
à¸ļà¸²à¸ĩ à¸ª
à¸ķ à¹Ħà¸Ķ
Ġn et
Ġà¸ŀ à¸¤à¸¨à¸Ī
à¹Ħà¸Ĥ à¸¡
à¸¡ à¸²à¸ŀ
à¸Ńà¸Ļ à¸Ħà¸Ļ
à¸Ħà¸²à¸Ķ à¸§
à¸ļ à¸ģà¸§
à¸Ļà¹Ħà¸Ľ à¹ģà¸¥
à¸Ķà¸Ļ à¸ķà¸£
à¸²à¸ĩà¸²à¸Ļ à¸Ńà¸¢
Ġ à¸Ľà¸£à¸°à¸ģ
à¸Ńà¸ģ à¸ª
Ġà¸£à¸²à¸¢ à¸ģà¸²à¸£
Ġà¸Ĭ à¸Ļà¸°
à¸Ļà¸ª à¸Ļ
à¸Ĥà¸Ńà¸ĩ à¸¥
key word
à¸Ħà¸§à¸²à¸¡ à¹Ģà¸Ĭ
à¸ĩà¹Ħà¸ĩ à¹ĥà¸«
à¹ģà¸Ńà¸ļ à¸Ĭà¸Ńà¸ļ
à¸Ī à¸Ń
à¸ļà¸£à¸¡ à¸£à¸²à¸Ĭ
à¸ļ à¹Ģà¸Ħà¸¥
à¸Ķ à¸Īà¸£
à¸²à¸¡ à¸²à¸Ń
à¸ģ à¸¡à¸²
Ġsm s
à¸Ķ à¹ģà¸¢
à¸²à¸Īà¸° à¹ĥà¸«
à¸Ńà¸ĩ à¹Ģà¸ĩ
Ġà¹ĥà¸Ħà¸£ à¹Ģà¸Ħà¸¢
à¸Ńà¸Ļ à¸«
à¸ĵ à¸¡à¸²à¸ģà¸Ħ
Ġà¹ĥà¸Ļ à¸Ĺ
à¸¢à¸Ļ à¸ļ
à¸¢ à¹Ģà¸Ľ
à¸¡à¸²à¸Ľ à¸£à¸°
à¸¤ à¸Ĺà¸ĺ
à¸¢ à¹ĥà¸«
à¸¢à¸Ķ à¸¡à¸²à¸ģ
à¸¡ à¸Ńà¸ļ
à¸²à¸¢ à¸¢
à¸¡ à¸²à¸«
w e
à¸²à¸ģ à¸£à¸£à¸¡
oo l
à¹ģà¸Ļà¸§ à¸Ĺà¸²à¸ĩ
Ġ à¸Ħà¸§à¸²à¸¡à¸ª
à¸Ĥà¸Ńà¸ĩ à¸ģà¸²à¸£
Ġà¸Ļ à¸Ħà¸£
à¸Ķà¸£ à¸²à¸¡
à¹ģà¸¥à¸° à¸ľ
à¸ļà¸Ńà¸ģ à¹Ģà¸¥
à¸Ĥà¸Ńà¸ĩ à¸Ń
8 7
th ailand
à¹ĥ à¸Ķà¸Ĺ
à¸ªà¸²à¸ĺ à¸²à¸£à¸ĵà¸°
à¸¡ à¹ģà¸Ĥ
Ġà¹ģà¸¥à¸° à¸Ī
b b
à¸²à¸ĩ à¹ģà¸ķ
Ġà¸ģ à¸£à¸£à¸¡
à¸Ļà¸Ħà¸Ļ à¸Ķ
à¸²à¸Ļ à¹Ģà¸ģ
à¸Ńà¸ĩ à¹Ģà¸Ń
à¸Ńà¸¢ à¸Ĥ
à¸ķ à¹Ħà¸¡
à¸¡ à¹Ģà¸Ĺ
à¸Ļà¸¡à¸²à¸ģ à¸ģà¸§
à¸Ļà¸²à¸ĩ à¹Ģà¸Ńà¸ģ
Ġm in
à¸¢à¸Ļ à¹Ħà¸¡
Ġà¸Ĥà¸Ń à¸Ńà¸Ļ
à¸²à¸¢ à¸ľ
à¸ģ à¹ģà¸¡
ind ow
à¸§ à¹ģà¸¡
à¸Ńà¸¢à¸²à¸ģ à¹Ģà¸Ľ
r at
à¸Ń à¸Ĺà¸²à¸ĩ
à¸«à¸¡à¸²à¸¢ à¸Ħà¸§à¸²à¸¡à¸§
Ġà¸Ĥ à¸Ńà¸Ħà¸§à¸²à¸¡
ã Ģ
à¸Ľà¸£à¸°à¸ª à¸ļà¸Ħà¸§à¸²à¸¡à¸ª
à¸§à¸¢ à¹Ģà¸£
à¸ļà¸¡ à¸²à¸Ħ
à¸Ļà¸¡ à¸²à¸Ĺ
à¸§ à¹Ģà¸«à¸¡
Ġà¸Ī à¸Ļà¸ģà¸£à¸°à¸Ĺ
à¸Ń à¹Ģà¸ķ
à¸§ à¹Ħà¸«à¸Ļ
à¹Ĥà¸Ī à¸Ĺà¸¢
à¸²à¸Ļ à¸«
à¸® à¸°
Ġp ass
Ġà¸Ħà¸£ à¸Ńà¸ļà¸Ħà¸£
à¸Ħà¸§à¸²à¸¡ à¸Ļ
à¸¡à¸²à¸ķà¸£ à¸ģà¸²à¸£
à¸²à¸ĩ à¹Ģà¸Ĥ
à¸ļà¸£à¸£ à¸Ī
à¸²à¸Ļ à¹Ģà¸£à¸²
ad e
à¸² à¹Ħà¸Ł
à¹Ģà¸ĭ à¸¥
à¹Ĥ à¸¡à¸Ĺ
à¹ĥà¸Ļ à¸¡
à¸§à¸ĩ à¹Ģà¸Ķ
à¸ģà¸© à¸²à¸ķ
ct ion
Ġ à¸£à¸°à¸Ķ
Ġà¸Ī à¸ļ
à¸Ľà¸ģà¸Ħà¸£ à¸Ńà¸ĩ
à¸²à¹Ģà¸ł à¸Ń
Ġà¸Ķ à¸²à¸§
à¸ķ à¹Ĥà¸Ļà¸¡
Ġà¹Ģà¸ŀà¸£à¸²à¸° à¸Ħ
Ġp antip
Ġ à¹Ħà¸«à¸Ļ
à¸¡ à¹Ģà¸ģ
Ġà¸ľ à¸į
à¸Ļà¸ª à¸²à¸¡à¸²à¸£à¸ĸ
à¸Ńà¸Ļ à¸Ľ
à¸ĺà¸£à¸£à¸¡ à¸ģà¸²à¸¢
Ġà¸Ń à¸ĺ
à¸ķà¸²à¸¡ à¸Ľà¸ģà¸ķ
Ġà¸Ħà¸§à¸²à¸¡ à¸Ħ
à¸ľà¸¥ à¸ģà¸£à¸°à¸Ĺ
à¹Ģà¸Ķ à¸Ńà¸£
à¸Ńà¸ĩ à¸Ĭà¸²à¸¢
à¸Ī à¸Ĥà¸ģà¸Ĺ
à¸²à¹Ģà¸£ à¸²à¸¡
à¸Ħ à¸Ńà¸¢
à¸ĩà¸ĩ à¸ĩà¸ĩ
à¸Ļ à¸Ľà¸£à¸°à¸ĺà¸²à¸Ļ
à¸£ à¸«
m i
à¸Ķ à¸Ńà¸Ńà¸ģ
à¸²à¸¢ à¸Ńà¸¢
à¸Īà¸° à¸¥
à¸¥ à¹Ģà¸ŀ
ow n
à¸¡à¸²à¸ģ à¸ģ
e ed
à¸Ńà¸ĩ à¸Īà¸£
à¸ª à¸ļ
Ġt t
à¹ģà¸Ł à¸Ĭ
à¹Ģà¸¥à¸¢ à¸Ļà¸°à¸Ħà¸°
Ġà¹ģà¸¥à¸° à¸Ĥ
à¸Ħ à¸ª
à¹Ħà¸Ľ à¹ĥà¸«
à¹Ģà¸ĭ à¸¥à¸¥
à¸Ļ à¸Ľà¸¥
ag ram
re e
à¸§à¸Ļ à¸°à¸Ħà¸°
' '
Ġà¸Ļà¸²à¸¢ à¸ģà¸£
à¸Ļ à¸«à¸¥à¸²à¸¢
à¸Ļ à¹Ģà¸¥à¸¢à¸Ħ
à¸Ĥà¸Ń à¸Ńà¸Ļ
à¸ª à¸Ĭà¸²à¸ķ
Ġpl us
Ġ !
à¸Ń à¹ģà¸ģ
à¸ļà¸ª à¸²à¸¢
Ġà¹ģ à¸ĭ
Ġà¸« à¸į
az ada
Ġ or
à¸Ń à¸Ħà¸Ļà¸Ĺ
à¹Ģà¸Ĥ à¸²à¸ķ
à¸ļà¸ª à¸§à¸Ļ
à¸Ńà¸¢ à¸¢
à¸²à¸ĩà¹Ħà¸£ à¸Ķ
à¸²à¸ĩà¸Ļ à¸Ńà¸ģ
â Ļ
ðŁ ĵ
!! !!
à¸²à¹Ģà¸ĭ à¸¥à¹Ģà¸ĭ
9 7
à¸£ à¸¢
Ġc an
à¸ģ à¸Īà¸²à¸ģ
à¹Ģà¸īà¸¢ à¹Ĩ
à¸¡à¸²à¸ļ à¸Ńà¸ģ
à¸²à¸Ļ à¸°à¸Ħà¸£
à¸ļ à¹Ģà¸Ĭ
à¸ģ à¹Ħà¸§
à¸² à¹Ĥà¸Ķ
à¸²à¸ĩ à¸ªà¸£à¸£à¸Ħ
Ġ à¸Ńà¸ĩà¸Ħ
Ġà¹Ģà¸¥à¸¢ à¸Ħ
à¸§à¸Ħà¸£ à¸²à¸§
à¸ĩ à¸ļà¸£
Ġd is
à¸¢à¸§à¸Ĭ à¸²à¸į
à¸²à¸Ļ à¹Ģà¸ŀ
à¹Ģà¸Ĥ à¸²à¸£
à¸¢à¸§ à¸¡
od e
à¸Ļ à¸ļà¸Ļ
à¸ĩà¸Īà¸° à¹Ħà¸Ķ
à¸Ń à¸²à¸į
à¸Ńà¸ªà¹Ģà¸ķà¸£ à¹Ģà¸¥
à¸ķ à¸ģà¸£à¸£à¸¡
à¸Ń à¹Ħà¸§
à¸Ńà¸Ļ à¸Ħà¸Ļà¸Ļ
re ss
Ġà¹Ħà¸Ľ à¸Ĺ
à¹Ģà¸«à¸£à¸Ń à¸Ħà¸£
à¹Ģà¸Ĥ à¸²à¹Ģà¸Ľ
à¸ģà¸²à¸£ à¸§
à¸²à¹Ħ à¸«à¸¥
Ġà¸Ńà¸ĩà¸¨ à¸²à¹Ģà¸ĭà¸¥à¹Ģà¸ĭ
~ ~
à¸ĩ à¸¥à¸°
à¸Ĭ à¸²à¸Ĭ
à¹Ģà¸¥à¸¢ à¸ģ
à¸²à¸Ļ à¹ĥà¸Ķ
à¸²à¸Ľ à¸ģ
à¸Ļ à¸Ľà¸£à¸°à¸¡à¸²à¸ĵ
à¸Ńà¸ĩ à¹ģà¸ģ
Ġà¸£à¸ļà¸ģà¸§à¸Ļ à¸ľ
à¸Ĥ à¸Ńà¸£
à¹ģà¸£à¸ģ à¸Ĥà¸Ńà¸ĩ
à¸²à¸ĺà¸£à¸£à¸¡ à¹Ģà¸Ļ
à¸²à¸£à¸° à¸ļà¸ļ
4 6
Ġà¹Ģà¸£ à¸²à¹Ħà¸Ķ
à¸Ń à¹Ģà¸ķà¸Ńà¸£
à¸Ĭ à¸Ĺ
à¸Ħà¸§à¸²à¸¡ à¸Ľà¸¥à¸Ńà¸Ķà¸ł
à¸² à¹Ģà¸ĺ
à¸ª à¸Ńà¸Ļ
à¸« à¸²à¸Ĺ
à¸Ħà¸¥ à¸Ńà¸Ķ
à¸²à¹Ħà¸Ľ à¹ģà¸¥
à¸²à¹Ģà¸£à¸² à¹Ģà¸Ľ
ide o
à¸²à¸Ńà¸°à¹Ħà¸£ à¹Ħà¸¡
www facebookcom
à¸ļ à¸Ńà¸£
4 2
à¸²à¸Ľà¸£à¸° à¸ķ
à¹ģà¸¥à¸° à¸Ń
Ġ %
à¸¢ à¸«à¸Ļ
à¸ĩ à¸ļà¸Ńà¸ģ
à¸Ļ à¸®
à¸²à¸ĩ à¸Ħà¸Ļ
à¸ģà¸ģ à¸£à¸°
à¸Ńà¸ĩ à¹Ĩ
am e
à¸Ńà¸Ļ à¹Ģà¸¥
Ġà¸ŀ à¸Ńà¹Ģà¸£
à¸ģ à¸İ
à¸Ńà¸Ń à¸²à¸Ī
à¸ļà¸ļ à¸²à¸Ķà¹Ģà¸Ī
à¸«à¸¡ à¸²à¸ģ
à¸Ļà¸Ħà¸Ļ à¸Ļ
à¸Ńà¸¢ à¹Ģà¸Ľ
ov id
à¸² à¹Ģà¸¢à¸Ńà¸°
à¹ģà¸Ĺ à¸ļ
as e
à¹Ĥà¸¥ à¸ģà¸£
Ġ à¹ĥ
à¸ļà¸ľà¸¥ à¸ģà¸£à¸°à¸Ĺ
e i
à¸²à¸ĵ à¸²à¸Ī
à¸² à¹Ħà¸«à¸¡
à¸²à¹Ģà¸ŀ à¸¥à¸ĩ
à¹Ģà¸Ħ à¸¡
à¸Ńà¸ĩ à¹Ħà¸§
à¸²à¸Ļ à¸Ħà¸Ļ
Ġà¹Ģà¸Ń à¸Ł
Ġà¹Ģà¸Ĥ à¸²à¹Ħà¸¡
à¹Ĥà¸Ħ à¸ķà¸£
à¸Ļà¹Ģà¸ģ à¸¡à¸ª
à¸įà¸« à¸²à¸Ńà¸°à¹Ħà¸£
Ġ ig
à¹Ģà¸£ à¸²à¸ŀ
o on
à¸ķà¸Ńà¸Ļ à¹ģà¸£à¸ģ
à¸Ńà¸ģ à¸Ń
sp oil
à¸¢ à¹Ģà¸Ķ
à¸ļ à¹Ģà¸ļ
à¸ĩ à¹Ĥà¸ķ
à¸ĩ à¸¨à¸£
Ġm b
à¸ªà¸²à¸¡à¸²à¸£à¸ĸ à¹ĥà¸Ĭ
à¹Ģà¸£ à¸²à¸Ń
à¹ĥà¸Ļ à¸Ńà¸Ļà¸²à¸Ħà¸ķ
à¸²à¸¨ à¸²à¸¥
à¸ģà¸© à¸²à¸Ħà¸§à¸²à¸¡
d u
à¸ģ à¸Ļà¸°
c oth
Ġg b
à¸ĩ à¸«à¸²à¸£
à¸« à¸²à¸Ħ
à¸ģ à¸ģà¸²à¸£à¹Ģà¸¡
à¸ĭ à¸²à¸ģ
Ġà¸ªà¸ĸà¸²à¸Ļ à¸Ĺ
Ġà¹ģà¸ĸ à¸¡à¸¢
à¸ģ à¹Ħà¸«à¸¡
à¸ĸ à¸Ńà¸Ķ
Ġà¹Ģà¸« à¸¡à¸²à¸°
à¸²à¸§ à¸ªà¸Ķ
à¸ļà¸Ĺ à¸ļà¸²à¸Ĺ
à¸Ķà¸« à¸ĩ
Ġ** *
Ġà¸Ļ à¸²à¸Ļ
2 55
Ġà¸ĸà¸²à¸¡ à¸§
à¸Ńà¸Ļ à¹Ģà¸ª
à¸ļ à¹Ĥà¸¥à¸ģ
Ġà¹Ģà¸£ à¸²à¸ª
à¸²à¹ĥà¸Ī à¸ģ
à¸²à¹Ģà¸£ à¸²à¸Ĺ
à¸ģ à¸Ĺà¸²à¸ĩ
à¸ª à¸Ńà¸£
à¸Ļ à¸ĺà¸£à¸£à¸¡
à¸²à¸£ à¸Ńà¸ļ
à¸«à¸Ļ à¸²à¸§
à¸¢à¸Ļ à¹ĥà¸«
Ġ à¸łà¸²à¸©
à¸ģ à¹Ģà¸Ĭ
à¸Ľà¸£à¸°à¸Ĭ à¸²à¸ª
Ġà¸¡ à¸²à¸Ĺ
à¸Ī à¸Īà¸£
Ġ à¸«à¸¥à¸²à¸¢à¸Ħà¸Ļ
Ġà¸Ļà¸²à¸¢ à¸ª
à¸Ķ à¹ģà¸ļà¸ļ
à¸£ à¸²à¸§
à¸¡ à¸¡à¸²à¸ģ
à¹Ģà¸Ħà¸¢ à¹Ħà¸Ľ
à¸ĺ à¸²à¸ķ
Ġà¸ļ à¸¥
à¸ģ à¸Īà¸£
à¸Ĥà¸Ńà¸ĩ à¸Ľà¸£à¸°à¹Ģà¸Ĺà¸¨
à¸ĵ à¸¡à¸²à¸ģà¸Ħà¸£
à¸Ń à¹Ħà¸§à¸£
st agram
ðŁĳ į
Ġà¸Ĥ à¸§à¸ļ
à¹Ħ à¸Ńà¸Ķ
a is
à¸Ļ à¹Ĥà¸Ķà¸Ļ
5 9
à¹ĥà¸Ħà¸£ à¸ģ
Ġà¹Ģà¸¥à¸¢ à¸ķ
à¸ĵà¸° à¸ģà¸£à¸£à¸¡à¸ģà¸²à¸£
à¸ķ à¸ĭ
Ġà¹Ģà¸ģ à¸£
à¸Ķ à¸Īà¸°
à¸Ħà¸§à¸²à¸¡ à¸ŀà¸£
ar a
à¸¢ à¹ĥà¸Ļ
à¸ľà¸¡ à¸¢
à¸Ļà¹Ģà¸Ļ à¸Ńà¸£
à¸§à¹Ģà¸Ńà¸ĩ à¸ģ
à¸Ļ à¸Ħà¸§à¸²à¸¡à¸£
à¸Ī à¸¡
à¸Ħ à¸¡
à¸Ĥ à¸Ļà¸¡
à¸ĩ à¸Ľà¸£à¸°à¹Ģà¸Ĺà¸¨
à¸²à¸ļ à¸²à¸Ĺ
à¸Ĳ à¸Ńà¹Ģà¸¡à¸£
Ġt v
à¸Ńà¸ģ à¸ļ
à¸ļ à¸Ħà¸£à¸Ńà¸ļà¸Ħà¸£
à¸¨ à¸¥
à¸Ń à¹Ģà¸ŀà¸¥à¸ĩ
à¸įà¸²à¸ķ à¹ĥà¸«
à¹Ĥà¸Ħ à¹Ĥà¸£
à¸§à¹Ģà¸Ńà¸ĩ à¸§
à¹ģà¸¥à¸° à¸ŀ
w or
à¸łà¸²à¸Ħ à¸£
ic ial
à¹ĥà¸ļ à¸«à¸Ļ
à¸Ń à¸Ńà¸Ļ
Ġà¸Ħà¸§à¸£ à¸Ĺ
à¸²à¹ģ à¸ľ
à¸£à¸ĸ à¹Ħà¸Łà¸Ł
à¸įà¸« à¸²à¸Ļ
à¸ģà¸Ħà¸Ļ à¸Ļ
à¸£à¸°à¸ļà¸²à¸Ķ à¸Ĥà¸Ńà¸ĩ
Ġà¸¢ à¸Ńà¸¡à¸£
à¸§à¸¢ à¸ĩà¸²à¸Ļà¸Ĺ
à¸ª à¹Ģà¸ķ
à¸ķà¸¥à¸Ńà¸Ķ à¹Ģà¸§à¸¥à¸²
à¸ģ à¹ĥà¸Ĭ
à¸ľà¸¡ à¸Ķ
à¸ŀà¸£à¸° à¸£à¸²à¸¡
pp tv
à¹Ĥ à¸¢à¸ļà¸²à¸¢
à¸ĵ à¹Ģà¸Ľ
à¸²à¸ģà¸İ à¸§
Ġà¹Ħà¸Ľ à¸Ķ
à¹Ģà¸¢à¸Ńà¸£ à¸¡
av e
à¸²à¸¡ à¸ģ
à¸ģà¸²à¸£ à¸¢
Ġà¸ļà¸£à¸£ à¸¢à¸²à¸ģà¸²à¸¨
ã Ĥ
à¸²à¹Ĥ à¸ŀ
à¸Ĥà¸Ńà¸ĩ à¸Ī
à¸£ à¸Ńà¸ĩà¸£
à¸Ĭà¸Ńà¸ļ à¸ģ
à¸Ħ à¸ĭ
à¸ł à¸£à¸£à¸¢
Ġ >
à¸²à¸§ à¸Ĥ
p er
à¹Ģà¸Ķ à¸Ĭ
à¸ª à¸ĩà¸Ħà¸£à¸²à¸¡
à¹ģà¸Ĺ à¸ļà¹Ħà¸¡
à¸Ńà¸¢ à¸Ń
Ġà¸ŀ à¸ļ
Ġà¸¡ à¸²à¸ķà¸£
à¸²à¸Ħ à¸Ļà¸Ļ
à¸Ń à¹Ģà¸Ńà¸ĩ
à¸ģà¸¢ à¸łà¸²à¸ŀ
Ġà¸ģ à¸£à¸ģ
à¸£ à¸Ńà¸ĩà¹Ģà¸Ĺ
à¸£à¸²à¸ļ à¸§
à¹ģà¸Ļà¸§ à¹Ĥà¸Ļ
à¸į à¹Ģà¸ª
à¸Ļà¸ª à¸²à¸¢
à¸ĺ à¸¢à¸²
à¸§ à¸²à¸Ķ
à¸¡à¸« à¸²à¸Ĭà¸Ļ
à¸ĩ à¸Ľà¸£
à¸Ĥà¸²à¸¢ à¸Ĥà¸Ńà¸ĩ
à¸´ à¹ĭ
à¹ģà¸¥à¸° à¸Ī
Ġà¸£ à¸Ń
ã ĥ
à¸Ńà¸ĩà¸ģ à¸ĩ
à¸Ľà¸£ à¸²à¸¡
à¹Ģà¹Ģà¸¥ à¸°
à¸Ńà¸ĩ à¸ķà¸²à¸¡
à¸ļ à¸Ľà¸£à¸°à¸ģ
à¹Ģà¸Ħ à¸Ĭ
Ġà¹ģ à¸¢à¸ģ
à¸Ńà¸ª à¸ĩà¸ª
Ġà¸Ĥ à¸Ńà¸ļ
6 7
à¸§à¸ĩ à¹Ģà¸ĩ
à¸ģ à¸ªà¸Ļ
à¸²à¸« à¸¡à¸Ķ
à¹Ĥà¸«à¸§ à¸ķ
à¸ļ à¹ģà¸ģ
à¸¢à¸ĩ à¹Ħà¸¡
à¸«à¸²à¸£ à¸Ī
à¸²à¸ĩ à¸ĭ
à¸¥à¸ĩ à¸ķ
Ġ3 3
à¸Ķ à¹Ģà¸«à¸¡
à¸Ļ à¹Ģà¸Ľà¸¥
à¸ī à¸°à¸Ļ
à¸ģà¸²à¸£ à¸Ĥ
à¸ĩà¸ĩà¸²à¸Ļ à¸ģ
à¸²à¸¡ à¸²à¸Ħ
à¸ģà¸Ĺ à¸¡
e ar
à¸Ľ à¹Ģà¸Ķ
Ġà¸ī à¸ļ
à¸§à¸ĩ à¹Ģà¸§à¸¥
à¸Ńà¸Ļ à¹ģà¸ķ
à¸¢à¸ĩ à¸Ļ
à¸Ľà¸£à¸° à¸ģà¸²à¸£
à¹Ĥà¸Ķ à¸Ķà¹Ģà¸Ķ
re am
i an
à¸įà¸Ĭ à¸²à¸ģà¸²à¸£
s el
à¸Ń à¸¨
à¸Ĭ à¸į
55555555 55555555
Ġà¹ģà¸¥à¸° à¹Ģà¸¡
Ġà¹Ģà¸ģ à¸²à¸°
à¸Ļà¸Ńà¸Ļ à¸§
ect ion
à¹Ĥà¸ģ à¸«
à¸Ļà¸¡à¸² à¹Ħà¸Ķ
à¸Ń à¸²à¸Ħà¸²à¸£
Ġpl ay
à¹Ħà¸«à¸Ļ à¹Ħà¸Ķ
à¸£à¸ĸ à¸Ĺ
à¸ģà¸²à¸£ à¸Ľ
à¸¡ à¹Ģà¸ª
ot o
à¸® à¸Ńà¸¥
à¸ĩà¸¢ à¸²à¸ģ
à¸Ńà¸Ļ à¹Ģà¸ŀ
4 00
Ġà¸ľ à¸Ĭ
à¸ł à¸²
à¸ģà¸²à¸£ à¸ľ
Ġà¸Ĥ à¸Ńà¸£
à¸Ļ à¹Ģà¸¢
à¸« à¸Ńà¸¡
à¹Ģà¸Ĺ à¸£
à¸Īà¸° à¹Ģà¸«
à¸ĩ à¹ģà¸£à¸ģà¸Ĺ
à¸²à¸§ à¹Ħà¸Ķ
à¸²à¸ĩ à¸«à¸²à¸ģ
à¸²à¸« à¸į
à¸Ńà¸ĩ à¸«à¸£
à¸ģà¸© à¸²à¸ª
Ġà¸ª à¸²à¸£
à¹ģà¸ļ à¸ĩà¸Ħ
à¸Ī à¸ķ
Ġà¹Ĥà¸Ķ à¸¢à¸Ļ
à¹Ģà¸¥ à¸Ļà¸ª
Ġà¹ĥà¸Ļ à¹Ģà¸¡
Ġà¸¡ à¸²à¸ķ
à¸ģà¸²à¸£ à¹ĥà¸«
Ġ à¹Ĥà¸Ķà¸Ļ
à¸²à¸Īà¸° à¹Ģà¸ģ
à¸¡à¸² à¹Ģà¸ģ
à¸§à¸ĩ à¹Ģà¸Ĭ
à¸Ļ à¸ŀà¸¥
à¹ĥà¸Ļ à¸¥
Ġg al
sum er
p t
Ġà¹ģà¸¥à¸° à¹ĥà¸«
à¸Ħà¸Ħà¸¥ à¸Ĺ
à¸Ħà¸Ļ à¸ª
à¸ģà¸²à¸£ à¸Ľà¸£à¸°à¸Ĭ
à¸Ķ à¸Ĺà¸²à¸ĩ
Ġw indow
à¸Ń à¹Ģà¸£à¸²à¸ģ
à¹Ģà¸Ĥ à¸²à¸§
à¸ĵ à¸§
à¸Ħà¸Ńà¸Ļ à¹Ĥà¸Ķ
en s
Ġl ive
l o
à¸Ķ à¸ģà¸£
à¹ģà¸¥ à¸ķ
à¸¢à¸ģ à¹Ħà¸Ķ
à¸ģà¸¥ à¸ĩ
Ġ20 20
à¸§à¹Ģà¸Ńà¸ĩ à¹Ħà¸¡
Ġà¸ĩà¸²à¸Ļ à¸Ļ
à¹Ģà¸ģà¸£ à¸Ķ
Ġà¸Ľà¸£à¸²à¸ģà¸ı à¸§
à¸Ļ à¸¥à¸°à¸Ħà¸£
à¸Ĺ à¸°à¹Ģà¸¥à¸²à¸°à¸ģ
à¸Ľà¸£à¸° à¸«à¸²à¸£
âĢ ¢
à¹ģ à¸Ĺà¸£
à¸²à¸¡à¸²à¸ģ à¸ģà¸§
à¸¹ à¹ĭ
à¸²à¸ĩ à¹Ģà¸ŀ
à¸Ļà¸Ń à¸Ńà¸Ļà¹Ħà¸¥à¸Ļ
a ir
à¸Ńà¸ĩ à¸Ńà¸Ńà¸ģ
à¸Ĥ à¸ĵà¸°à¸Ļ
n ation
t e
à¸²à¸ĩ à¸ĩà¸²à¸Ļ
à¸§à¸Ļ à¸ļ
0 5
Ġcon sumer
à¸Ľà¸£à¸° à¸ģà¸§
à¸Ĥà¸²à¸¢ à¸Ĺ
Ġà¸Ľ à¸²à¸ģ
à¸¡ à¸ŀà¸£
Ġà¸Ħ à¸Ķ
Ġà¹Ĥà¸Ķà¸¢ à¸ª
à¸Ńà¸Ļ à¹Ģà¸ĩ
à¸ļà¸£ à¸Ńà¸ĩ
// //
Ġtr ans
à¸Ľ à¸¡
à¹Ħà¸Ľ à¸Ĭ
Ġà¸ª à¸ģ
Ġà¸ģà¸²à¸£ à¸Ī
à¸Ļ à¸ģà¸¥à¸²à¸ĩ
à¸Ļ à¹ĥà¸Ļà¸ģà¸²à¸£
à¸ª à¸¢
à¹Ħà¸Ľ à¹Ģà¸Ľ
à¸²à¸Īà¸° à¹ĥà¸Ĭ
à¸įà¸« à¸²à¸Ħ
à¸ļ à¹Ģà¸Ľà¸¥
à¹ĥà¸Ħà¸£ à¸¡
à¸Ķ à¸ľà¸¡
à¹Ģà¸Ĥ à¸²à¹Ħà¸Ķ
Ġà¸Īà¸° à¸£
à¸Ĵà¸Ļ à¸²à¸ģà¸²à¸£
à¹ĥà¸Ī à¸¡à¸²à¸ģ
à¸²à¹Ģà¸ģ à¸¥
à¸Ħ à¸ļ
Ġbl ack
Ġ à¸£à¸²à¸Ĭ
à¸Ńà¸ĩ à¹ģà¸ļà¸ļà¸Ļ
à¸ģà¸²à¸£ à¹Ģà¸Ľà¸¥
à¸¡ à¸«à¸£
Ġà¸£à¸ļà¸ģà¸§à¸Ļ à¸Ĭ
Ġà¹Ĥ à¸Ĺ
à¹Ģà¸£à¸² à¹Ģà¸Ĥ
à¹Ģà¸§ à¸¢
à¸Ļà¸Ńà¸Ńà¸ģ à¹Ģà¸ī
8 00
he ight
à¸ģ à¸ľà¸¡
à¸ķ à¸Ī
Ġwor ld
Ġà¹Ĥà¸£ à¸ĩ
à¸¢ à¸ĸ
à¸Ńà¸ĩ à¹ĥà¸ª
à¸Ķà¸ģ à¸İà¸«à¸¡à¸²à¸¢
à¸Ń à¸Ľà¸£
Ġ out
à¸° à¸Ĥ
Ġb ts
à¸Ńà¸¡ à¸ļ
à¸²à¸Ĥà¸Ńà¸ĩ à¸£
à¸Ķ à¸ŀà¸£à¸°
Ġà¸Ħ à¸ĩà¹Ħà¸¡
à¸Ħà¸¥ à¸²à¸¢
à¸²à¸Ĥà¸Ńà¸ĩ à¸ª
à¹Ĥà¸Ń à¸Ĭà¸²
ang k
à¸ŀà¸¢ à¸²à¸ģà¸£
à¸Ħà¸§à¸²à¸¡à¸ª à¸°à¸Ķà¸§à¸ģ
à¸Ļà¸Ń à¸²à¸¢
Ġà¸ŀ à¸¢
à¸²à¸ª à¸²à¸¡
à¸²à¸Īà¸° à¹Ģà¸¥
à¸ķà¸²à¸¡ à¸£
à¸ĩà¸§ à¸Ķ
à¹Ĥà¸Ħà¸£ à¸ĩà¸ªà¸£
n a
à¹Ģà¸Ħà¸¢ à¹Ģà¸Īà¸Ń
à¹Ĥà¸Ńà¸ģà¸²à¸ª à¸Ĺ
à¹ĥà¸Ļ à¸Ħà¸£à¸Ńà¸ļà¸Ħà¸£
Ġà¸Ńà¸²à¸Ī à¸Īà¸°
à¸ªà¸ĩà¸ª à¸²à¸£
à¸¢à¸ĩ à¸Ĥ
à¸ĩ à¸Ĭà¸Ńà¸ļ
à¸µ âĢĿ
à¸«à¸¡ à¸Ń
à¸Ńà¸Ļ à¸«à¸£
à¸Ļà¸° à¹Ģà¸¥
à¸¢ à¸Ĥ
à¸Ńà¸ĩ à¸¡à¸²à¸ģ
à¹Ħà¸ĭ à¸Ķ
Ġà¹Ħà¸Ľ à¸ģ
Ġnot e
à¸ĸà¸²à¸¡ à¹Ģà¸ŀ
a a
à¸¡ à¸ĵà¸ĳ
ri end
à¹Ĩ à¸Ļ
à¸¡ à¹Ģà¸¨à¸£
à¸¥à¸ĩ à¸ŀ
à¸ĩà¹ģ à¸ģà¸£
à¸²à¸ĩ à¸«à¸£
à¸Ļ à¸£à¸°à¸«à¸§
à¸Ħ à¸ĩà¸Īà¸°
à¸Ļà¹Ħ à¸ŀà¸£
à¸§à¸¢ à¸Ĥ
à¸Ńà¸Ļ à¸¡à¸²à¸ģ
Ġà¸Ħà¸Ļ à¸£
à¸Ļà¸ķ à¸ģ
à¹ģà¸¥à¸° à¹Ģà¸Ľ
à¸ĩà¸ª à¸²à¸¡
à¸Ľ à¸²à¸£
à¸ŀà¸£à¸° à¹Ģà¸Ī
à¸° à¹Ģà¸ŀ
à¸ŀ à¸²à¸¢
à¸¡ à¸Ħà¸§à¸²à¸¡
à¹Ĥ à¸ŀà¸¥
à¸Ńà¸ĩà¸ģà¸²à¸£ à¸Ĺ
à¸ģ à¹Ģà¸Ī
) ,
à¹Ģà¸Ķ à¸¥
à¸²à¸ģà¸²à¸£ à¸ģà¸£à¸°à¸Ĺà¸£à¸§à¸ĩ
Ġw ith
à¸° à¸Ī
à¸Ńà¸ĩ à¹Ģà¸ķ
à¸ļ à¸Ńà¸Ļ
Ġà¹ģà¸¥à¸° à¸¥
à¹ģà¸¥à¸° à¸§
Ġ6 00
à¸¥à¸° à¸Ĺ
à¸Ńà¸ĩ à¹Ģà¸«
à¹ĥà¸Ļ à¸«à¸Ļ
à¸¢à¸¡ à¸Ĺ
on y
à¸¢ à¹Ģà¸ģ
à¸¡à¸²à¸ ľ
Ġà¸Ĭ à¸§à¸Ļ
Ġà¸¢à¸ģ à¹Ģà¸§
à¸Ħà¸Ļ à¸Ī
à¸ĩ à¹Ģà¸ŀà¸£à¸²à¸°
à¸Ńà¸ĩà¸ª à¸²à¸¡
à¸§ à¸²à¸ª
à¸Ľà¸£à¸°à¹Ģà¸Ĺà¸¨ à¸Ĺ
à¸²à¸ĩà¸²à¸Ļ à¸Ķ
à¸ī à¸¥à¸²à¸Ķ
ðŁĺ Ĥ
à¸¡ à¹Ģà¸«à¸¥
à¸²à¸§ à¹Ħà¸Ĺà¸¢
à¸§ à¹Ģà¸Ĺ
Ġà¹Ģà¸¢ à¸Ńà¸°
à¸Ĥà¸Ńà¸ĩ à¸ģ
s er
à¸Ķ à¸Ľà¸£à¸°à¸ķ
à¸ģà¸Ķ à¸Ķ
à¸Ńà¸Ļ à¹Ģà¸Ĺ
à¸Ķ à¹ģà¸Ħ
++++++++ ++++++++
à¹Ĥà¸¡ à¸ĩ
Ġà¸Ī à¸Ļà¸¡
à¸Ń à¹Ģà¸§à¸¥
' re
à¸ĩà¸ª à¸¡
à¸§à¸¢ à¹Ħà¸¡
à¸« à¸ģà¸£à¸ĵ
à¸ º
Ġ à¸Ľà¸£à¸°à¹Ģà¸Ĺà¸¨à¹Ħà¸Ĺà¸¢
Ġà¸Īà¸° à¸Ķ
Ġ6 3
à¹ĥà¸Ħà¸£ à¹Ģà¸Ľ
à¸ Į
à¹Ĥ à¸Īà¸£
Ġc o
ol l
Ġà¸Ľà¸£à¸°à¸ģà¸Ńà¸ļ à¸Ķ
h z
à¸Ħà¸Ļ à¹ĥà¸«à¸¡
à¸²à¸ķ à¸²
à¸ł à¸²à¸£à¸°
à¸ļà¸ģà¸²à¸£ à¸£
à¸ªà¸²à¸¢ à¸ģà¸²à¸£à¸ļ
à¸Ħ à¸²à¸£
à¸«à¸¥ à¸Ńà¸ģ
à¸Ľ à¸ģà¸Ľ
à¸ĩà¸ķ à¸Ńà¸ļ
à¸Ļà¸ª à¸Ķ
à¹ģà¸ĸ à¸¡
à¸¥ à¸§
à¸Īà¸²à¸ģ à¸ª
à¸Ĭ à¸Ķ
à¸Ļà¸Ĥà¸Ńà¸ĩ à¸ķ
à¸Ĺà¸£ à¸ĩà¸Ī
à¸²à¸ŀ à¸¥
à¸ĵ à¸Ļ
ail y
à¸²à¸¥ à¸°
à¸Ķ à¸Ńà¸ģ
à¸ļ à¸Ľà¸£à¸°à¸Ĺà¸²à¸Ļ
à¹Ģà¸Ńà¸ĩ à¸Ĺ
à¸ļ à¸łà¸²à¸ŀ
oc ial
à¸Ļ à¸Ľà¸£à¸°à¹Ĥà¸¢à¸Ĭà¸Ļ
à¸ĩ à¹Ģà¸«à¸ķ
à¹Ģà¸Ī à¸ķà¸Ļ
à¹Ħà¸«à¸Ļ à¸¡
à¸²à¸ĸà¸²à¸¡ à¸§
à¸Ńà¸¢ à¸Ļà¸°
à¹Ģà¸Ĥ à¸²à¸¢
Ġâ Ŀ¤
à¸²à¸Īà¸° à¹Ģà¸£
Ġh ot
à¸Ĥà¸Ńà¸ĩ à¸Ĭ
à¹Ħà¸Ľ à¸Ĥ
à¸²à¸« à¸Ńà¸¡
Ġem s
Ġà¸ª à¸²à¸ĺ
à¸ģà¸²à¸£ à¸¥
à¸µ "
à¸Ļà¸Ĺà¸²à¸ĩ à¸Ĺ
à¸ŀà¸ĩ à¸¨
Ġà¸§ à¸£
Ġc he
à¸²à¹ĥà¸Ī à¸ľ
à¸ģà¸²à¸£ à¸ĸ
iv er
à¸²à¹Ħà¸Ľ à¸Ń
à¸Ĭ à¸§
à¸ļ à¸Ľà¸¥
à¸²à¸¡ à¸²à¸ķ
à¹Ħà¸Ľ à¹Ģà¸¥
à¸ļ à¹Ĩ
à¸Ľ à¸£à¸²à¸ļ
Ġà¹Ģà¸§à¸¥ à¸²à¸Ĺ
à¸²à¸§ à¸£à¸²à¸¢à¸ĩà¸²à¸Ļà¸§
à¸Ļà¹Ģà¸Ĺ à¸Ńà¸£
Ġà¹Ĥà¸Ķà¸¢ à¹ĥà¸Ĭ
Ġà¸ģ à¸Ķ
à¹ģà¸ª à¸ĩ
à¸° à¸ªà¸¡
Ġà¸Ĥà¸Ń à¹Ĥà¸Ĺà¸©
Ġà¸£à¸²à¸Ħ à¸²à¸Ľà¸ģ
à¸£à¸²à¸Ħ à¸²à¸ª
à¸ĩà¸²à¸Ļ à¸Ļ
à¸ªà¸ĸà¸²à¸Ļ à¸°
à¸ļà¸£ à¸Ńà¸ļ
er m
25 62
à¸į à¸¥
à¸ĩ à¸Ļà¸°à¸Ħà¸°
à¹Ĥà¸Ī à¸¡à¸ķ
à¸Ľà¸£à¸°à¸¡à¸²à¸ĵ à¸§
Ġà¸Ĭ à¸Ļ
8 1
à¸Ńà¸°à¹Ħà¸£ à¸Ħà¸£
à¸Ľà¸£ à¸²à¸ģà¸²à¸£
à¹Ħà¸Ľ à¸¡
o h
à¸ª à¸ĩà¸ļ
à¸£à¸ĸ à¸Ī
à¸Ńà¸ģ à¸£à¸°
ax y
9 00
à¸ļ à¹Ģà¸ŀà¸£à¸²à¸°
à¸²à¸ª à¸²à¸§
à¸Ń à¸Ńà¸¢à¸²à¸ģ
à¸²à¸¡ à¸ģà¸¥à¸²à¸ĩ
à¸Ńà¸¢ à¸Ħà¸°
à¸ĵ à¸¡à¸²à¸ģ
à¸° à¸°
ig n
à¹Ĥ à¸Ńà¸¥
ĠðŁ ĵ
à¸¡à¸²à¸ļ à¸Ńà¸ģà¸§
à¹Ģà¸Ĥ à¸²à¸Ķ
à¸²à¸ĩ à¸ľ
à¸«à¸£à¸Ńà¸ģ à¸Ħà¸£
à¸§ à¸¥à¸°
à¹ģà¸Ļà¸§ à¸Ħ
à¹Ĥà¸Ľà¸£ à¸Ķ
à¸ķà¸²à¸¡ à¸Ļ
à¸Ļ à¹Ħà¸«à¸Ļà¸Ķ
Ġà¸Īà¸° à¹ĥà¸«
à¸Ļ à¹Ģà¸Ħà¸¢
à¸ªà¸²à¸¡à¸²à¸£à¸ĸ à¸ķ
à¹Ģà¸§ à¸£
à¸¢à¸§ à¹Ħà¸¡
à¸Ļ à¹Ģ
à¸ģà¸²à¸£ à¹Ģà¸ĩ
à¸Ļ à¸ģà¸£
à¸Ń à¸Īà¸£
Ġà¸ģà¸£à¸ģ à¸İ
Ġapp le
à¸ģ à¸²à¸ĩà¹Ģà¸ģ
à¸ģà¸²à¸£ à¸ĭ
à¸²à¹Ģà¸Ľ à¸£
à¸²à¸£à¸° à¸«à¸§
â ĺ
à¸« à¸ĩ
à¸ŀ à¸¡
à¸¢ à¹Ģà¸§à¸¥
à¸Ĺà¸²à¸ĩ à¸ģà¸²à¸£à¹Ģà¸¡
Ġà¹ģà¸¥à¸° à¹Ģà¸£
à¸Ńà¸Ļ à¸ģà¸§
à¸²à¸ĩ à¹Ħà¸«à¸¡
à¹Ģà¸Īà¸£ à¸Ī
à¹Ģà¸Ł à¸Ńà¸£
à¹Ģà¸Ĺà¸¨ à¸ļà¸²à¸¥
Ġà¸Ĥ à¸²à¸Ķ
à¸²à¸ª à¸§à¸¢
Ġà¹Ĥ à¸Ī
à¸ķà¸£ à¸Ĺ
à¸ģà¸²à¸¥ à¸Ĺ
à¸§à¸¢ à¹Ģà¸«à¸ķ
Ġà¸Ĥ à¸Ńà¸Ĥ
à¸²à¸¡ à¹Ģà¸Ļ
à¸Ńà¹Ħà¸Ľ à¸Ļ
à¸ļà¸§ à¸Ĭ
ul l
à¹Ĥà¸¢ à¸ĺ
Ġà¸Ĺ à¸§
Ġà¸Ĭà¸²à¸§ à¸ļ
à¸²à¸Īà¸° à¸ĭ
Ġà¹Ĥà¸£ à¸ĩà¹ģà¸£à¸¡
Ġv i
à¸²à¸Īà¸° à¸ª
Ġà¹Ģà¹Ģà¸¥ à¸°
ðŁĴ Ĺ
à¸Ħà¸Ńà¸¡ à¹Ģà¸¡
er e
à¸ĩà¸Ĺ à¸£
à¸Ńà¹Ģà¸ª à¸Ļà¸Ń
à¸Ļà¸Īà¸° à¹Ħà¸¡
à¸²à¸Ī à¸Ń
à¸ĩ à¸ŀà¸£
à¸ĩà¹ĥà¸Ī à¸Ĺ
à¹Ģà¸¥à¸¢ à¸Ħà¸°
Ġ5 6
-------------------------------- --------------------------------
à¸ª à¹Ĥà¸Ħà¹Ĥà¸£
Ġc c
à¸²à¸Ń à¸²à¸ģà¸²à¸¨
à¸£à¸°à¸¢à¸° à¹Ģà¸§à¸¥
à¸Ħ à¸ĩà¸ķ
à¸Ĥà¸Ńà¸ĩ à¸ļà¸£
à¸Ļà¹ģà¸Ł à¸Ļà¸ģ
Ġre d
re d
à¸Ļà¸¢ à¸²à¸ģ
à¸ļà¸¡à¸² à¹Ģà¸Ľ
à¸Ķ à¹ģà¸Ĺ
à¸§à¸ĩ à¸ļ
à¸Ń à¹Ģà¸ĩ
ro id
à¸Ķ à¹ĥà¸«à¸į
à¸²à¸Ļ à¹ģà¸¥à¸°
à¸ģ à¹Ģà¸ļ
à¹ģ à¸Ŀ
5 6
Ġs o
à¸Ļà¸Ķ à¸²à¸¥
à¸¥ à¸Īà¸²à¸ģ
à¹Ģà¸ģ à¸Ńà¸£
à¸Ļà¸ª à¸²à¸¡
Ġà¸Ħà¸Ļ à¸Ń
Ġà¸Ļà¸²à¸¢ à¸§
à¸Ńà¸ĩ à¹ĥà¸«à¸į
à¸Ļà¸ª à¸£
Ġà¸Ħà¸§à¸²à¸¡ à¹Ģà¸£
à¸§ à¸¥à¸ĩ
à¸ļ à¹Ģà¸Ń
à¹Ģà¸Ħà¸¢ à¸Ķ
à¸ĩà¸ª à¸²à¸§
à¸² à¹Ģà¸§à¸¥
Ġ à¹Ħà¸¥
à¹Ģà¸¢à¸²à¸§ à¸Ĭà¸Ļ
à¸Ľ à¸Ńà¸£
Ġ3 8
â ŀ
à¸«à¸¡ à¸Ńà¸ģ
à¸ĩà¸£ à¸²à¸Ħ
à¸Ńà¸ļ à¸Ħà¸¥
à¸ļ à¸ķà¸²à¸¡
à¸²à¸Īà¸° à¸ĸ
à¸§à¸Ļ à¸ľà¸ªà¸¡
à¸ĩ à¹Ĥà¸Ķ
ĠðŁ Į
à¸¢à¸Ńà¸Ķ à¹Ģà¸¢
à¸Ńà¸Ļ à¹Ģà¸Ħ
à¸ĩ à¸ģà¸£à¸ĵ
à¸Ļ à¸ī
Ġà¸¡ à¸«
à¹ģà¸ľ à¸Ļà¸Ĺ
à¸ľà¸¥ à¸ķ
Ġs s
à¸ĩà¸²à¸Ļ à¸Ķ
à¸²à¸¢ à¸¡à¸²à¸ģ
à¹Ģà¸¥à¸¢ à¸¡
à¸Ń à¹Ģà¸¥à¸¢à¸Ħà¸£
à¸Ļà¸Ļ à¸²à¸Ļ
à¸ļ à¹Ħà¸Ľà¸Ĺ
Ġà¸Ĥà¸Ń à¸ĸà¸²à¸¡
5 7
à¸²à¸ĩà¸²à¸Ļ à¹Ħà¸Ķ
à¸¡à¸Ļ à¸²à¸Ħà¸¡
à¸Ńà¸¢à¸²à¸ģ à¸Ħ
à¸ª à¸§à¸£à¸£à¸Ħ
à¸ĩ à¹Ģà¸§
à¹Ħà¸«à¸Ļ à¸Ħà¸°
à¸¢ à¹Ģà¸ŀ
Ġà¸ª à¸Ńà¸ļ
p ro
à¸Ń à¹Ģà¸«
à¸¤à¸© à¸İ
à¸²à¹ģ à¸ªà¸Ķ
à¸Ńà¸¢ à¸Ńà¸Ķ
Ġg l
p e
à¸²à¸ĩ à¹ģà¸Ļ
Ġâ Ļ
à¸²à¸į à¸Ī
à¸²à¸ķ à¸¥à¸²à¸Ķ
Ġà¸Ļà¸²à¸¢ à¸ģ
à¹Ĥ à¸Ńà¸ģ
à¸Ńà¸Ļ à¸Ļà¸°à¸Ħà¸°
à¸ľà¸¥ à¹Ħà¸¡
à¸Ļà¸Ĺà¸²à¸ĩ à¸ģà¸¥
à¸¢à¸ĩ à¸ŀà¸Ń
à¹Ģà¸Ńà¸² à¹ģà¸ķ
à¸Ļà¸Īà¸° à¸ķ
à¸ģà¸Ħà¸Ļ à¸ģ
ig h
à¸«à¸¥à¸²à¸¢ à¸Ľ
à¸§à¸¢ à¸¥
à¸Ļ à¸ļà¸Ńà¸ģ
à¸²à¸¢à¸Ĺà¸Ńà¸Ķ à¸ªà¸Ķ
ðŁĴ ĸ
Ġà¹ģà¸¥à¸° à¹Ģà¸ŀ
à¸ģà¸²à¸£ à¸Ľà¸£
à¸§ à¹ĥà¸«à¸¡
à¸²à¸Ļà¸§ à¸ĵ
à¸¢à¸Ļ à¸«à¸Ļ
à¸¥à¸° à¸§
à¸£à¸Ńà¸ļ à¸Ĥ
à¸Ļà¹ģ à¸«à¸¥
Ġà¹Ģà¸£ à¸²à¸Ļ
à¸į à¸Ĭà¸²à¸ķ
à¸Ħà¸§à¸²à¸¡ à¸Ķ
à¸²à¸ĩ à¹Ħà¸§
Ġst ar
à¸ķà¸Ńà¸ļ à¸ģà¸¥
à¸ŀà¸¢à¸²à¸¢à¸²à¸¡ à¸Ĺ
à¸ģà¸£à¸°à¸ļ à¸°
Ġà¸¥ à¸ĩà¸Ĺ
Ġà¹Ģà¸£à¸²à¸Ħà¸§à¸£ à¸Ĺ
à¸ĩà¸Ĥ à¸Ļà¸²à¸Ķ
à¸ģà¸© à¸²à¸ģ
âĢ Ķ
Ġa c
à¸Ļà¸¡ à¸²à¸£
à¸²à¸¡ à¸²à¸Ĭ
à¸ļ à¹Ģà¸Ĺ
à¸Ļà¹ģà¸¥à¸° à¸ģ
à¸Ļ à¹Ħà¸«à¸§
à¸ĩà¸Ń à¸²à¸«à¸²à¸£
Ġ à¸Ńà¸°
à¸Ńà¸ĩ à¹ģà¸¡
à¹Ģà¸§à¸¥à¸² à¹Ģà¸Ķ
à¸² à¹ĥ
Ġà¹Ģà¸£ à¸²à¸Ĭà¸Ńà¸ļ
Ġe d
à¸Ķà¸Ńà¸°à¹Ħà¸£ à¸Ĥ
Ġà¸¡ à¸²à¸ª
à¸Ńà¸Ń à¸Łà¸Ł
à¸ģ à¹Ģà¸Ħà¸£
à¸Ĥ à¸ĵà¸°
à¸Ĺ à¸ķ
Ġà¸Ńà¸¢à¸²à¸ģ à¸¡
s u
re view
on ly
à¸Ńà¸¢à¸²à¸ģ à¹Ģà¸¥
s m
à¸¢à¸ĩ à¸§
à¹ģà¸ĸ à¸§à¸Ļ
à¸Ĺà¸²à¸ĩ à¸£
Ġà¸£à¸ļà¸ģà¸§à¸Ļ à¸Ķ
à¸ĩà¸Ĥ à¸¥à¸²
Ġà¸Ī à¸Ļà¸§
à¸Ļà¹ĥà¸Ļ à¸Ĭ
à¸²à¸Ħ à¸¡à¸Ļ
pl ay
à¸ģ à¸ĩ
à¸Ļ à¹Ģà¸ªà¸£
à¸ķà¸Ńà¸Ļ à¹Ģà¸Ĭ
à¹ĥà¸Ļà¸ģà¸²à¸£ à¹Ģà¸Ĥ
à¸Ńà¸ķ à¸Ńà¸Ļ
à¸Ļà¹ģ à¸ľ
Ġ: :
Ġw e
Ġà¸Ń à¸²à¸£à¸¡à¸ĵ
à¸§à¸¢ à¹Ģà¸ķ
à¸ª à¹Ĥà¸¡à¸ªà¸£
à¸²à¸Ľ à¸²à¸ģ
à¸ģà¸ĩà¸²à¸Ļ à¸Ĺ
Ġà¸Ń à¸²à¸ģà¸²à¸¨
à¸²à¸¡ à¸²à¹ĥà¸Ĭ
in a
à¸ļà¸ģà¸²à¸£ à¸ķ
Ġà¹Ģà¸Ķ à¸Ńà¸°
à¸²à¸£à¸° à¸Ķ
ro w
rat ing
à¸ģà¸£à¸°à¸Ķ à¸²à¸©
à¸§à¹Ģà¸Ńà¸ĩ à¸Ĺ
à¸° à¹ģà¸¥
à¸Ħà¸Ļ à¹Ħà¸¡
à¸§ à¸Īà¸²à¸ģ
à¸Ļà¸¡ à¸²à¸ķ
à¸²à¸§ à¸Ĭ
p op
******** ********
Ġà¸ª à¸²à¹Ģà¸«à¸ķ
Ġgal axy
à¹ĥà¸Ļ à¸Ħ
à¹Ħà¸Ľ à¹Ħà¸¡
a ut
Ġ à¹Ģà¸Ńà¸ĩ
à¸Ńà¸ĩ à¹Ħà¸Ľà¸Ĺ
à¸ģà¸£à¸°à¸ļ à¸§à¸Ļà¸ģà¸²à¸£
Ġ3 7
Ġ à¸£à¸°à¸§
à¸²à¸Ļ à¹Ģà¸¥à¸¢
à¸Ļà¸Ħà¸Ļ à¸Ń
à¸Ĥ à¸ģ
à¸Ń à¸Ľà¸£à¸°à¸¡à¸²à¸ĵ
à¸Ļ à¹ĥà¸ª
à¸²à¹Ģà¸£ à¸²à¸ķ
angk ok
à¸²à¸¡ à¸Ļ
0 8
) ;
à¸²à¸£ à¸§à¸¡
à¸¥ à¸²à¸Ļ
à¹ģà¸ļà¸ļ à¹Ģà¸Ķ
Ġb ack
à¹Ħà¸Ľ à¸ļ
Ġ à¸«à¸¡à¸²à¸¢à¹Ģà¸¥à¸Ĥ
à¸²à¸¡ à¸²à¸ª
Ġà¸£à¸ļà¸ģà¸§à¸Ļ à¸ªà¸Ńà¸ļà¸ĸà¸²à¸¡
à¸²à¸ĩà¸£ à¸§à¸Ķà¹Ģà¸£
à¸µ ,
à¸Ķà¸ª à¸£à¸£
à¸Ĥà¸Ńà¸ĩ à¸ļ
Ġà¹Ģà¸« à¸£
à¸²à¹Ĥ à¸Ĺ
à¸Īà¸° à¸Ńà¸Ńà¸ģ
Ġà¹ģ à¸ª
à¸ŀà¸Ń à¸Īà¸°à¸¡
à¸Ĥà¸Ńà¸ĩ à¹Ģà¸Ĥà¸²
à¸ļà¸ª à¸²à¸¡
à¸§à¹Ģà¸Ńà¸ĩ à¸Ķ
à¸ĩ à¸Ħà¸§à¸²à¸¡à¸£
Ġà¸ŀà¸£à¸° à¹Ģà¸Ńà¸ģ
à¸Ħà¸§à¸²à¸¡ à¸ªà¸Ļà¹ĥà¸Ī
à¸Ĭà¸Ńà¸ļ à¸Ķ
à¸²à¸Īà¸° à¸¢
à¸Ĺà¸ĺ à¹Ģà¸Ī
Ġad d
Ġsm art
à¸Ļà¹Ģà¸ŀ à¸¥à¸ĩ
à¸ģ à¹ģà¸«
Ġà¹Ģà¸£ à¸²à¹Ģà¸£
à¸¡ à¸«à¸¥
à¸ķ à¹ģà¸¥
à¸ļ à¸Ŀ
à¸²à¸Ĥ à¸Ńà¸ĩà¸Ĺ
à¸Ļà¸ª à¸²à¸§
Ġf c
à¹Ħà¸ķà¸£ à¸¡à¸²à¸ª
à¸§à¸¢ à¸«à¸£
ĠðŁ Ķ
à¸Ĺà¸£ à¸²à¸¢
6 9
à¸ªà¸ł à¸²
à¸¡ à¹ĥà¸«à¸¡
s l
à¸²à¸¢à¸ģ à¸¯
à¸£à¸° à¸¡
à¸ļà¸£ à¸²à¸ĩà¸§
à¸ĩ à¹Ĥà¸Ķà¸¢
à¸§à¸Ļ à¸¥
à¹Ĥà¸¡ à¹Ĥà¸«
à¸£ à¸¨
à¸¨ à¸Ĺà¸²à¸ĩ
à¸§ à¹Ģà¸Ń
Ġà¹ĥà¸Ļ à¸Ĳà¸²à¸Ļà¸°
Ġà¸ªà¸Ńà¸ļà¸ĸà¸²à¸¡ à¹Ģà¸£
à¸§à¸ĩà¸Īà¸£ à¸Ľ
Ġc ard
à¸Ńà¸ģ à¸«
Ġ à¹Ħà¸Ĥ
Ġr o
à¹ģà¸«à¸¥à¸° à¸Ħà¸£
à¸ĩ à¸®
à¸Ĥà¸Ńà¸ĩ à¹Ģà¸£
r ing
à¹Ģà¸£à¸² à¹Ģà¸«
Ġà¸ģà¸²à¸£ à¹ĥà¸Ĭ
à¸ªà¸²à¸£ à¸°
à¸¨ à¸²à¸Ī
à¸²à¸Ń à¸Ļ
Ġw al
à¸Ľ à¸Ĳà¸¡
à¸Ńà¸ģ à¸Ķ
à¸Ńà¸²à¸Ī à¸Īà¸°à¹Ħà¸¡
à¸Ļà¸ģà¸²à¸£ à¸ķ
Ġà¸ļà¸²à¸Ĺ à¸ķ
à¸ĩ à¹Ģà¸§à¸¥à¸²
à¸Ĥà¸Ńà¸ĩ à¸«à¸Ļ
à¸²à¸Īà¸° à¹Ģà¸Ĥ
c ard
à¸²à¸Īà¸° à¸Ħ
v ice
à¸¡ à¸ĩà¸Ħà¸¥
à¸§ à¹Ģà¸Ī
à¸Ńà¸ĩ à¹Ģà¸ķà¸£
à¸§à¸Ļ à¸°à¸Ħà¸£
à¸²à¸ĩ à¹Ģà¸¥à¸¢
w atch
à¸§à¸ķ à¸²à¸¢
à¸ļà¹ģà¸Łà¸Ļ à¹Ģà¸ģ
Ġà¹Ģà¸Ĥ à¸²à¸ļà¸Ńà¸ģà¸§
6 00
Ġà¸ľà¸¡ à¹ĥà¸Ĭ
à¸ĩ à¹ģà¸Ļ
à¸Ńà¸ĩ à¹Ģà¸Ī
à¸ ¿
à¸£à¸° à¸¥
Ġ1 20
ad only
à¸§à¸ĩ à¸«à¸¥
Ġà¸Ńà¸¢à¸²à¸ģ à¸ªà¸Ńà¸ļà¸ĸà¸²à¸¡
à¸² à¹Ĥà¸£
ht ml
à¸§à¸ĩ à¸Ħ
à¸ĩà¹ģ à¸Ĭà¸¡à¸Ľ
à¸Īà¸° à¹Ģà¸Ľà¸¥
à¸ļ à¸Ĭà¸¡
à¸Ħà¸¥ à¸²à¸ģà¸£
20 18
it ed
à¸ģ à¹Ģà¸¢à¸Ńà¸°
à¸§à¹Ģà¸Ńà¸ĩ à¹Ħà¸Ķ
à¸Ĭ à¸Ļà¸ģ
à¸²à¸¢ à¹Ģà¸Ĥ
à¸į à¹ģà¸Ī
à¸Ķ à¸ģà¸²à¸£à¸Ĺ
l and
à¸ļà¸Ĺ à¸£à¸²à¸ļ
Ġà¸ªà¸ĩà¸ª à¸²à¸£
à¸Ńà¸¢ à¹ģà¸ķ
à¸Ķ à¸Ńà¸ģà¹Ħà¸¡
à¸ļ à¹Ħà¸Ĺà¸¢
à¸Ĥà¸Ńà¸ĩ à¹Ħà¸Ĺà¸¢
à¹ģ à¸Ķà¸Ķ
Ġà¸Ħ à¸ªà¸Ĭ
à¹ģà¸Łà¸Ļ à¹ģà¸¥
à¹ĥà¸Ļ à¹Ģà¸§
Ġà¸«à¸²à¸ģ à¸¡
à¸ĵ à¹Ħà¸Ķ
à¸Ļà¸Ħà¸Ļ à¹Ħà¸¡
!! ï¸ı
à¸²à¹ģ à¸Ĭà¸¡à¸Ľ
si am
à¹Ģà¹Ģ à¸Ļà¸°à¸Ļ
à¹ģà¸¥à¸° à¸¢
à¸ª à¸Ńà¸Ķ
bo x
Ġ à¸łà¸²à¸¢à¹ĥà¸ķ
à¸² à¹Ģà¸ªà¸£
Ġà¹Ģà¸£ à¸²à¸ªà¸²à¸¡à¸²à¸£à¸ĸ
à¹Ģà¹Ģà¸ļ à¸ļà¸Ļ
à¸ģà¸£ à¸ĸ
à¸§ à¸²à¸¢
Ġà¸ģ à¸Ńà¸ĩà¸Ĺ
Ġ1 000
Ġà¹Ģà¸Ħ à¸¥
à¸§à¸§ à¸§
à¸«à¸¡à¸Ķ à¹Ģà¸¥à¸¢
à¸Ī à¸Ńà¸¡
à¸¡à¸² à¹Ħà¸¡
à¸ģà¸²à¸£ à¹Ģà¸Ĥ
Ġà¸¡ à¸²à¸ĸ
Ġà¸ī à¸²à¸ģ
à¹Ħ à¸ª
à¸Ļà¸ª à¸ķ
à¸£à¸§à¸¡ à¸ģ
à¸Ļà¸Ĭ à¸¡
à¸Ń à¹Ĩ
à¸²à¸ĩ à¸Ħà¸Ļà¸ķ
à¸Īà¸° à¸Ń
à¸²à¸Ħ à¸ĵà¸°
à¸²à¸§ à¸«
à¸Ĺà¸²à¸ĩ à¸Ļ
à¸Ń à¸²à¸ĵà¸²à¸Ī
à¸łà¸²à¸Ħ à¹Ģà¸«à¸Ļ
20 17
à¸Ļà¹ģ à¸Ķ
à¸Ļà¸¡à¸²à¸ģ à¸Ĥ
à¹Ģ à¹Ģà¸ģ
Ġà¸Ľ à¸ı
à¸Ļ à¸£à¸²à¸¢
Ġà¸ľà¸¡ à¸Ĺ
à¸§ à¸ľà¸¡à¸ģ
à¸ŀ à¸²à¹Ħà¸Ľ
Ġà¹ģ à¸®
à¸ģà¸£à¸° à¸Ĭ
à¸Ĥà¸Ńà¸ĩ à¸§
à¸ļà¸ª à¸ĸ
Ġà¸ľà¸¡ à¸¢
Ġm on
à¸¥à¸Ľ à¸°
j i
à¸¢ à¹Ħà¸Ľ
à¸²à¹Ħà¸¡ à¸¡
à¸Ļà¸° à¸Ĺ
Ġà¸Īà¸° à¹Ħà¸Ľ
à¸²à¸¢ à¹Ģà¸ŀ
à¸¡ à¸Ļà¸ķ
à¹Ĩà¹Ĩ à¹Ĩ
à¸Ļà¸¢ à¸²à¸§
à¸Ĺ à¸ª
à¸ģà¸ĩà¸²à¸Ļ à¸ªà¸Ńà¸ļà¸ªà¸§à¸Ļ
à¸²à¸¢ à¸Īà¸²à¸ģ
à¹Ħà¸Ń à¹Ģà¸Ķ
à¸¢à¸Ļ à¸Ń
à¸Ļà¹ĥà¸Ļ à¸§
à¸²à¹ģ à¸Ĭà¸£
m at
à¹ģà¸Ł à¸Ļà¸ģ
à¸²à¸£à¸° à¹Ģà¸ĩ
à¹Ģà¸£à¸² à¹ĥà¸Ĭ
à¸¢ à¸²à¸ĩ
à¸Ħà¸Ńà¸¡ à¸ŀ
à¹Ģà¸Ń à¸²à¹ĥà¸Ī
à¹ĥà¸Ļ à¹Ħà¸Ĺà¸¢
à¸¥à¸° à¹Ģà¸¡
a o
Ġp e
à¸§à¹Ģà¸Ńà¸ĩ à¹Ģà¸Ľ
Ġà¸£ à¸²à¸ĩà¸§
à¸Ļà¸²à¸¢ à¸ģ
à¸ģà¸Ħà¸Ļ à¸¡
à¸Ľ à¸ĸ
................ ................
à¸² à¹Ģà¸«à¸Ļ
à¸²à¸Ħ à¸Ļ
à¸į à¸§
ar y
d f
à¸Ļà¸Īà¸° à¸Ĺ
à¸Ī à¸Ķà¸Ĺà¸°à¹Ģà¸ļ
à¸Ļà¸¡ à¸²à¸Ļà¸²à¸Ļ
à¸§ à¹ĥà¸«à¸į
à¹Ħà¸¥ à¸Ħ
à¸ģà¸£ à¸Ńà¸ģ
à¹Ĥà¸ģ à¸ĩ
à¸Ļà¸²à¸¢ à¸ģà¸¯
0 9
Ġà¸Ĥ à¸Ļà¸¡
à¸ģà¸²à¸£ à¸ľà¸¥
Ġa f
à¸²à¸Ļ à¸ļà¸Ļ
an c
à¹ģà¸«à¸¥à¸° à¸Ħ
Ġà¸Ĭ à¸²à¸¢
Ġà¸Ńà¸¢à¸²à¸ģ à¸ĸà¸²à¸¡
à¹Ģà¸£ à¸²à¸ĸ
à¸Īà¸° à¸¡à¸²
b e
à¸²à¸¥ à¸ĩà¸Ĺ
à¸Ńà¸¡ à¹Ĥ
à¸§ à¸ķà¸Ńà¸Ļà¸Ļ
à¹Ģà¸Ń à¸²à¸ķ
à¸¡ à¹Ħà¸Ľà¸Ķ
Ġà¸ŀ à¸Ńà¸ĸ
à¸§à¸¢ à¹Ģà¸Ľ
à¸§ à¹Ģà¸Ĥà¸²à¸ģ
à¸²à¸¡ à¸Ħ
à¹Ĥ à¸ª
à¸¥ à¸²à¸Ńà¸Ńà¸ģ
à¸¡à¸²à¸Ļ à¸²à¸Ļ
Ġà¸ķà¸£à¸§à¸Ī à¸ªà¸Ńà¸ļ
Ġc ont
25 61
à¸²à¹Ģà¸£ à¸²à¸Ħ
à¹ģà¸¥à¸° à¸Ĥ
à¹Ģà¸ľ à¸Ĭ
à¸ģà¸© à¸²à¸ŀ
Ġm ac
âĢ ĵ
à¹Ģà¸ ©
à¸ľà¸¡ à¸Ńà¸¢
à¸Ľà¸£à¸°à¸Ĭ à¸²à¸ģà¸£
à¸į à¸ª
à¸Ļà¸¡à¸² à¹ģà¸¥
à¸Ńà¸ĩ à¸¢à¸Ļà¸ķ
à¸²à¸Ħ à¸°à¸Ļ
à¸¢à¸ģ à¸ķ
Ġweek s
à¸Ľà¸£à¸°à¹Ģà¸Ĺà¸¨ à¸Ń
à¸Ļà¸Ĺà¸²à¸ĩ à¸Īà¸²à¸ģ
à¸ķà¸Ńà¸ļ à¸§
à¸ĩ à¸Ľà¸£à¸°à¸¡à¸²à¸ĵ
Ġà¸ģ à¸°
à¸¡ à¹Ĥ
à¸¨à¸²à¸ª à¸Ļà¸²
à¹ĥà¸Ļà¸ģà¸²à¸£ à¸Ķ
à¹Ģà¸¥à¸¢ à¸ª
t c
à¸Ļà¸ŀ à¸¤à¸«
à¸ķà¸ģ à¹ĥà¸Ī
à¸¡à¸¡ à¸¡à¸¡
Ġà¸Ľà¸£à¸° à¹Ģà¸łà¸Ĺ
à¹ģà¸¡ à¸Ļ
à¹Ģà¸Ħ à¸²à¸£à¸ŀ
Ġc ity
à¸Ńà¸ļ à¸ª
Ġs k
Ġy our
à¸²à¸ĩà¹Ħà¸£ à¸Ħà¸£
à¸¡à¸²à¸ķà¸£ à¸²
ļ «
à¹Ĥà¸¥ à¸ģà¸Ĺ
à¹Ĥà¸Ĭ à¸Ħ
Ġà¹Ģà¸Ĥ à¸²à¸¡
à¸Ľà¸£à¸°à¸ª à¸²à¸Ĺ
à¸£à¸²à¸Ħ à¸²à¸Ĺ
Ġà¹Ĥ à¸£à¸Ħ
m a
à¸ģà¸£ à¸£
à¸ĩà¸ľà¸¥ à¸ģà¸£à¸°à¸Ĺ
Ġin t
à¸²à¸§ à¹Ģà¸Ľ
à¸Ķ à¹Ģà¸Ńà¸ĩ
ðŁ¤ £
à¸¥ à¸Ĭ
à¸Ħà¸§à¸²à¸¡ à¸«à¸§
Ġà¸Ĥà¸Ńà¸ĩ à¸Ĺ
à¸Ļà¸ŀ à¸Ļ
Ġà¸¡ à¸²à¹ģà¸¥
en ce
à¸§ à¹Ģà¸Ļ
à¸¥à¸ĩ à¸¡
à¸į à¸²à¸ĵ
à¸§ à¸ŀà¸Ń
à¸¢ à¸«à¸¥
à¸Ńà¸ģ à¸Ħ
4 3
à¸Ļà¸Ĺà¸²à¸ĩ à¸Ķ
Ġs im
à¸£à¸£ à¸¢à¸²
à¸¢à¸§ à¹Ħà¸Ķ
à¹ĥà¸Ļ à¹Ĥà¸¥à¸ģ
à¸£à¸° à¸¢à¸Ńà¸ĩ
à¸¡ à¹Ģà¸ļ
Ġp ower
à¸Ļà¸ª à¸¡à¸²à¸Ĭ
à¸Ńà¸ĩ à¸Ħà¸Ļà¸Ļ
à¸Ľà¸£à¸° à¸¡à¸²à¸Ļ
à¸ķà¸²à¸¡ à¸ģà¸İà¸«à¸¡à¸²à¸¢
à¸Ńà¸¡ à¸¢
Ġc ar
à¸Ńà¸ĩ à¹ģà¸ļà¸ļ
à¸ĵ à¸ľ
à¸Ļ à¸Ħà¸§à¸£
Ġà¸ģà¸²à¸£ à¸ķ
à¸ķ à¹ģà¸¥à¸°
à¸Ľ à¸°
à¸Ńà¸¢à¸²à¸ģ à¹Ģà¸£
Ġb nk
tn n
à¸Ńà¸ģ à¹ĥà¸«
à¸ļà¸²à¸¢ à¹ĥà¸Ī
un d
er t
à¸²à¸ĸà¸²à¸¡ à¸Ĺ
in al
Ġà¸£à¸²à¸Ħ à¸²à¸ĸ
à¸ŀ à¸Ńà¸ģ
à¸Ńà¸°à¹Ħà¸£ à¹Ħà¸¡
Ġinter net
à¸ªà¸ĩ à¸Ĩ
â Ŀ
à¸Ńà¸° à¸Ħà¸°
à¸ģà¸© à¸²à¸Ķ
à¸Ķ à¸Ŀ
à¸ģ à¸ŀà¸£à¸£à¸Ħ
Ġm r
Ġbe st
à¸Ķà¸Ļ à¸Ħà¸£
Ġà¸¡ à¸²à¸Īà¸²à¸ģ
à¸ĩ à¹Ħà¸«à¸Ļ
à¸¢à¸Ļ à¸¡à¸²
à¸Ĺ à¸Ĭ
à¸ļà¸²à¸Ĺ à¸ªà¸¡à¹Ģà¸Ķ
Ġ à¸ĩà¸ļ
à¸Ĥ à¸Ńà¸Ńà¸ł
à¸Ļ à¸ļà¸Ńà¸ģà¸§
Ġà¸Ńà¸²à¸Ī à¸²à¸£à¸¢
à¸Ĭ à¸¥à¸ļ
as on
à¸Ľ à¸Ĥ
à¸Ńà¸¡ à¹Ģà¸Ľ
20 19
Ġà¹ģà¸¥à¸° à¸Ľ
à¸Ĥà¸Ńà¸ĩ à¸Ħà¸Ļ
à¸£à¸²à¸Ħ à¸²à¹Ħà¸¡
à¸Ńà¸Ķ à¸ģ
à¸Ħà¸§à¸²à¸¡ à¸Ĺ
à¹Ģà¸Ħà¸¢ à¸ķ
à¸¢ à¸«à¸£
à¸Ħà¸§à¸²à¸¡ à¹Ģà¸Ĥ
à¸Ļà¸²à¸¢ à¸ģà¸£
à¸ĩ à¹Ģà¸Ľà¸¥
ord er
à¸Ħà¸¥ à¸Ńà¸ĩ
à¸ĺà¸£à¸£à¸¡ à¸£à¸²à¸Ĭ
à¸Ĺà¸£ à¸Ľà¸£à¸²à¸ģà¸²à¸£
à¸²à¸Ļ à¹Ħà¸«à¸Ļ
à¸¡à¸²à¹Ģà¸¥ à¹Ģà¸ĭ
à¸į à¸ķ
à¹Ģà¸Ķ à¸Ńà¸°
à¸Ĳ à¸§
à¹ģà¸¥à¸° à¸Ķ
Ġà¹Ģà¸ģ à¸²à¸«à¸¥
à¸Ńà¸¢à¸²à¸ģ à¸Ķ
v ideo
à¸²à¸¢ à¸ģà¸§
youtube com
Ġm us
à¸²à¸¢ à¸«
à¸Ļà¸¡ à¸²à¸Īà¸²à¸ģ
à¸ļà¸£à¸£ à¸Ķ
à¹Ģà¸ŀ à¸ĵ
à¸¢à¸Ļ à¹ģà¸¥
à¸ĩà¸²à¸Ļ à¸ķ
à¹Ģà¸£ à¸²à¸Ĥ
Ġ à¸Ľà¸£à¸°à¸Ĭà¸²à¸Ĭ
6 8
à¸Īà¸° à¸§
à¸Ķ à¸£à¸°à¸§
à¸¥ à¸²à¸§
Ġ4 8
à¸Ķ à¹Ģà¸ļ
à¸ķ à¹ĥà¸«
Ġà¹ģ à¸«à¸¥
Ġà¹ģ à¸¢
à¸²à¸ģ à¸£à¸ĵ
à¸¥à¸° à¸¡
à¹Ħà¸Ľ à¸ŀ
à¸¡ à¸Ńà¸ĩà¸§
à¸ĩà¸ª à¸Ļà¸²à¸¡
Ġà¹Ģà¸£ à¸²à¹Ħà¸Ľ
7 8
à¸« à¸²à¸ĭ
at a
¹ ĳ
à ¹ĳ
Ġà¹Ģà¸¡ à¸Ļ
à¹Ģà¸Ļ à¸Ńà¸£
Ġà¸Ħà¸£ à¸²à¸§à¸Ļ
Ġà¸ģ à¸ģ
Ġh u
à¸²à¸Ľà¸£à¸° à¸ª
à¸Ĭà¸¡ à¹Ģà¸Ľ
ĠðŁ İ
Ġà¸£à¸²à¸Ħ à¸²à¹Ħà¸¡
à¹Ģà¸ĭ à¸Ł
à¸Ńà¸¡ à¸Ħ
Ġà¸¡ à¸²à¹Ģà¸Ľ
à¸ĩà¸Īà¸° à¸Ĺ
ul t
à¹Ģà¸§à¸ĵ à¸Ĺ
à¸¡à¸²à¸ Ŀ
à¸Ĭ à¸¥
à¸ģ à¹Ħà¸Ĺà¸¢
i y
à¸ł à¸ŀ
à¹Ĥ à¸Ħà¸¥
Ġà¸ģà¸£à¸ģà¸İ à¸²à¸Ħà¸¡
à¸Ńà¸¡ à¸¥
à¸¡ à¸Ĺà¸£
à¸§à¸¢ à¸ļ
à¸ĩà¸Ħà¸£ à¸£à¸ł
à¸«à¸¡à¸²à¸¢ à¸Ī
à¸Ĺà¸ĺ à¸¨à¸²à¸ªà¸ķà¸£
à¸£à¸²à¸Ĭ à¸ļ
à¹Ħà¸ĭ à¸Ļ
à¸ī à¸¥à¸Ńà¸ĩ
à¹Ģà¸ĺ à¸Ńà¸£
Ġà¸ª à¸¥
à¸ģ à¸łà¸²à¸ŀ
à¸Ļà¹Ģà¸¥à¸¢ à¸Ĺ
à¸ļà¸Ľ à¸§à¸Ķ
à¸§à¸ĩ à¸ŀ
à¸Ļ à¸Ńà¸Ńà¸ģà¸¡à¸²
à¸§à¸¢ à¸ľ
à¸Ńà¸¢ à¸Ńà¸¢
à¸²à¸Ĥà¸Ńà¸ĩ à¸ļ
à¹ĥà¸Ļ à¸Ľà¸£à¸°à¹Ģà¸Ĺà¸¨à¹Ħà¸Ĺà¸¢
à¸ªà¸° à¸ŀà¸²à¸Ļ
à¸²à¸£à¸° à¸Ħ
ĠðŁĺ į
Ġà¹Ģà¸Ī à¸Ń
Ġf riend
à¸Ļà¸Īà¸° à¹Ħà¸Ķ
à¸Ŀ à¸Ļà¸Ł
à¸²à¸£à¸²à¸Ĭ à¸ģà¸²à¸£à¸Ī
à¸° à¸ĩ
à¸ľà¸¡ à¹ĥà¸Ĭ
à¸ļ à¹Ģà¸«
Ġip ad
à¸° à¸ļ
à¸¡ à¹ģà¸ķ
à¸²à¸ģà¸²à¸ģ à¸Ńà¸Ļà¸²à¸¡
à¸Ļà¸ģà¸²à¸£ à¸ª
à¸ĩà¸Ħà¸§à¸²à¸¡ à¸Ħ
à¸įà¸į à¸²à¸ģ
g in
Ġà¹ģà¸ļà¸ļ à¹Ħà¸¡
ðŁĳ ĸ
à¸ª à¸¢à¸²à¸¡
à¹ī )
à¸Ļà¹Ħà¸Ľ à¹Ģà¸£
à¹Ģà¸ŀà¸£à¸²à¸° à¸ķ
à¹Ģà¸ľ à¸¥
an a
à¸Ĥà¸Ńà¸ĩ à¹Ģà¸Ī
ic s
à¸²à¸£à¸° à¸§
à¸¡à¸ĵà¸ĳ à¸¥
ay a
Ġb u
à¸Ľà¸¥à¸²à¸¢ à¸Ľ
à¸¡ à¸ģà¸§
à¸ª à¸ĸà¸²à¸ļ
à¸ģ à¸Ħà¸¥
à¸Ń à¸®
à¸ĩ à¸Ĩ
à¸²à¸¢ à¸Ħà¸£
à¸²à¸ĩ à¸ģà¸¥
d a
à¸ļà¸£ à¸²à¸Ħ
Ġà¸Ńà¸¢à¸²à¸ģ à¸Ĺ
à¸Ļà¹Ħà¸Ľ à¹Ħà¸¡
à¸¡ à¸Ł
Ġà¸Ĺ à¸«à¸²à¸£
w ay
à¸Ļà¹Ħà¸Ľ à¸Ń
à¸£à¸²à¸ ĭ
à¸ª à¸ķà¸£
à¸ģà¸²à¸£à¸ķ à¸¥à¸²à¸Ķ
à¸Ħ à¸¡à¸Ļà¸²à¸Ħà¸¡
à¸§ à¸²à¸¥
à¹Ģà¸Ł à¸£
Ġwindow s
à¸ª à¸²à¸«
à¸²à¹ģ à¸Ļà¸§
Ġsp ort
à¸Ķ à¹ĥà¸ª
.... ..
à¸Ļ à¸ľà¸¡à¸ģ
Ġà¸ŀ à¸¨
à¸Ńà¸Ńà¸ģà¸Īà¸²à¸ģ à¸ļ
à¸Ńà¸ĩ à¸Ľà¸ģà¸ķ
à¸²à¸Ĭ à¸²à¸¢
à¸Īà¸° à¸ļà¸Ńà¸ģ
à¸Ļà¸« à¸Ńà¸¡
à¸²à¸¡ à¸²à¸Īà¸²à¸ģ
à¸Ļà¹Ģà¸Ķ à¸Ńà¸£
à¹ĥà¸Ļ à¹ģà¸ķ
Ġà¹Ĥà¸Ķà¸¢ à¹Ħà¸Ķ
à¸²à¸Ļ à¸«à¸£
à¹Ģà¸£ à¸²à¸ļ
à¸§à¸Ļ à¹Ģà¸ģ
ar ad
à¸²à¸ģ à¸ģ
âŀ ĸ
à¸ªà¸Ķ à¹ĥà¸ª
à¸° à¸ĸ
à¸ª à¸ļà¸Ķ
à¸Ļà¹ģ à¸Ĥ
à¸Īà¸° à¹Ģà¸ª
s et
à¸Ń à¸Ľà¸£à¸°à¸ģ
à¸²à¸¡ à¸²à¹Ģà¸Ľ
à¸Ĳ à¸Ĺ
Ġp art
à¸§à¹Ģà¸Ńà¸ĩ à¹ĥà¸«
Ġà¸ģà¸²à¸£ à¹Ģà¸Ķ
à¸ģà¸© à¸°
m y
à¸Ńà¸¢ à¸Ĭ
à¹ģ à¸Ńà¸Ļ
à¸ĩ à¸ŀà¸Ń
à¹Ĥà¸¥ à¸«
Ġ à¸«à¸¡à¸²à¸¢à¸ĸ
à¸§à¸£à¸£à¸ĵ à¸ł
à¸ķ à¸Ńà¸¥
Ġm ark
t b
à¸ģ à¹ģà¸ļà¸ļà¸Ļ
0 1
à¹Ģà¸ŀ à¸²à¸°
Ġà¸£à¸²à¸¢ à¸¥à¸°à¹Ģà¸Ń
à¸¡ à¹ĥà¸Ī
à¸ĩà¸ķ à¸Ńà¸Ļ
à¸ģà¸£ à¸²à¸¢
Ġon line
à¸Ļà¸¢ à¸Ńà¸Ķ
Ġà¹Ĥà¸£à¸ĩ à¸ŀà¸¢à¸²à¸ļà¸²à¸¥
à¸Ľ à¸ªà¸£à¸£à¸Ħ
à¸Ļà¸Ħà¸Ļ à¸£
à¸Ļà¹Ĥ à¸¢à¸ļ
Ġ0 2
à¸ģà¹ģà¸ªà¸Ķ à¸ĩ
à¸§ à¸Ĭà¸Ńà¸ļ
à¹Ģà¸§à¸¥ à¸²à¸ģ
Ġà¸ŀà¸Ń à¸Īà¸°à¸¡
Ġà¸Ĥà¸ĵà¸° à¹Ģà¸Ķ
4 1
Ġà¸£ à¸Ńà¸ĩà¹Ģà¸Ĺ
à¸ŀà¸¥ à¸²à¸ªà¸ķ
à¸§à¸¢ à¹ģà¸¥
à¸§à¸¢ à¸ŀ
Ġà¹Ĥ à¸«à¸¥
5555 55
à¸Ķ à¸ļà¸£
à¸§à¸ĩ à¹ģà¸£à¸ģ
Ġs u
à¸° à¸¢
www youtubecom
5 8
à¸²à¹Ħà¸Ľ à¹ĥà¸Ĭ
à¸ªà¸° à¸ŀ
à¸ŀà¸§à¸ģ à¸¡
à¸Ļ à¹Ĥà¸ķ
à¸Ļ à¹ĥà¸Ķ
Ġà¸ª à¹Ģà¸Ľ
à¸ķà¸Ńà¸ļ à¹ģà¸Ĺ
à¸§à¸Ĥ à¸²à¸§
à¹Ģà¸¥à¸¢ à¸Ķ
à¸ĸ à¸¥
à¸Ļ à¹Ħà¸Ł
à¸Ķ à¸Ħà¸¥
à¸ĩ à¹ģà¸«
à¹Ĥ à¸¢à¸Ļ
Ġ20 16
à¸Ī à¸Ńà¸ĩ
à¸ĩ à¹ģà¸Ĺ
à¸Ńà¸§ à¸²à¸Ļà¸Ļ
Ġ255 9
à¸Ńà¸ª à¸²à¸¢
Ġà¸Ń à¸Ńà¸ģà¸Īà¸²à¸ģ
à¸ļ à¸Ľà¸£à¸°à¹Ģà¸Ĺà¸¨
à¸Ĺ à¸¥
à¸¡ à¹ĥà¸«à¸į
Ġ3 9
à¸ģ à¹ģà¸ģ
à¸§ à¹Ģà¸«
à¸įà¸« à¸²à¸ģà¸²à¸£
Ġ-- -
à¸ģà¸£à¸°à¸Ī à¸²à¸¢
à¹Ħà¸ĭ à¸ª
Ġsc b
à¹Ģà¸«à¸ĩ à¸²
à¸Ľà¸£à¸²à¸ģà¸ı à¸§
à¸§à¸ĩ à¹Ģà¸§à¸¥à¸²à¸Ĺ
pptv hd
à¸²à¸Ńà¸°à¹Ħà¸£ à¸Ĺ
Ġà¸£ à¸Ńà¸Ķ
Ġà¸Ļà¸²à¸¢ à¸Ń
à¹ĥà¸ļ à¸Ńà¸Ļ
à¸° à¸Ĥà¸Ńà¸ļà¸Ħ
à¸² à¹Ģ
à¸£à¸²à¸ ł
Ġà¹Ģà¸£ à¸²à¸Ńà¸¢
à¸²à¸ Ĩ
à¸§à¸¢ à¸¢
à¸²à¸Ļ à¸²à¸į
à¸§à¸¡ à¸£
à¸ģà¸Ń à¸®à¸Ńà¸¥
à¸§à¸¢ à¸«
à¹Ģà¸¥à¸¢ à¸Ńà¸¢à¸²à¸ģ
à¸Ńà¸ĩ à¸§à¸ĩà¸Īà¸£à¸Ľ
Ġà¸ģ à¸²à¸ĩà¹Ģà¸ģ
à¸§à¸¢ à¹ģà¸ķ
à¸Ļà¸¡ à¸²à¸§
à¸° à¹Ģà¸Ĺ
Ġà¸ªà¸¡ à¹Ģà¸Ķ
à¸Ńà¸ĩà¸Īà¸²à¸ģ à¸¡
Ġà¹Ģà¸ŀà¸£à¸²à¸° à¸£
% ;
< <
à¸Ļ à¸Ľà¸£
à¹ģà¸¥à¸° à¸Ĭ
à¸§ à¹ģà¸ļà¸ļ
Ġ3 50
à¸Ļà¹ģ à¸ļ
à¸Ľ à¸Ĭà¸£
à¸Ļà¸Ħà¸Ļ à¸Ĥ
à¸Ńà¸¡ à¸Ī
à¸²à¸Ļ à¸Ļà¸Ĺ
à¸Ńà¸« à¸²
à¸§ à¸¡à¸²
à¸Ńà¸ĩ à¸Ŀ
à¸ģ à¸Ľà¸¥
à¸¢à¸Ļ à¸ŀ
à¸ģà¸£à¸° à¹Ĥà¸Ķ
à¸Ļà¸° à¸Ī
Ġà¹Ģà¸Ĥ à¸²à¸ļà¸Ńà¸ģ
à¸ĩà¸²à¸Ļ à¸§
a e
à¸£à¸© à¸²
à¸ģ à¸Ľà¸£à¸°à¸¡à¸²à¸ĵ
Ġà¸ĭ à¸¡
à¹ģà¸ªà¸Ķ à¸ĩà¸Ńà¸Ńà¸ģ
oun t
à¸Ĭ à¸Ļà¸Ńà¸Ńà¸Ļà¹Ħà¸¥à¸Ļ
à¸²à¸įà¸Ī à¸Ļà¸ļ
Ġà¸Ī à¸Ļà¸ķà¸Ńà¸Ļà¸Ļ
Ġà¹Ģà¸£à¸²à¸ģ à¸¥
Ġà¸ªà¸Ļà¹ĥà¸Ī à¸ķ
Ġà¹ģà¸¥à¸° à¸«
à¸Ĥà¸Ńà¸ĩ à¹Ģà¸Ķ
Ġà¹ģ à¸Ńà¸£
à¸¢à¸§ à¸ª
à¹Ħà¸Ľ à¸£à¸©à¸ĵ
à¸£ à¸ĩà¸Ħ
à¸¡ à¸¨
à¸²à¸Ħà¸£ à¸Ńà¸ļà¸Ħà¸£
à¸Ļ à¸£à¸°à¸ļà¸ļ
le s
7 9
à¸²à¸Īà¸° à¹Ģà¸Ń
for m
à¹ĥà¸Ļ à¸ģà¸£
à¸Ńà¸¡ à¸§à¸¥
à¹ĥà¸Ļà¸ģà¸²à¸£ à¸£
à¸ģ à¹ĥà¸Ħà¸£
à¹ģà¸¥à¸° à¸¥
à¸Ļ à¹Ģà¸Ĥà¸²
Ġa re
à¸²à¸¡ à¸²à¹ĥà¸«
ðŁĳ ı
à¸²à¸ĩà¸²à¸Ļ à¸ķ
à¹Ģà¸¢à¸Ńà¸° à¹ģà¸¢à¸°
à¸²à¸§ à¹Ħà¸¡
Ġà¸¡ à¸ķ
à¸łà¸²à¸Ħ à¸ķà¸°à¸§
Ġà¸ľ à¸ģà¸ģ
Ġg o
Ġà¸Ļà¸²à¸ĩ à¹Ģà¸Ńà¸ģ
à¸Ļà¹ĥà¸Ļ à¸Ĺ
à¹Ĥ à¸ľà¸¥
à¹Ģà¸«à¸£à¸Ń à¸Ħà¸°
à¸Ńà¸ĩ à¹Ģà¸¡
à¸µ âĢĭ
à¹Ĥà¸Ķà¸¢ à¸ķà¸£à¸ĩ
à¸Ńà¸²à¸Ī à¸Īà¸°à¸¡
Ġb ig
à¸²à¸ĩ à¸ļà¸Ļ
t witter
Ġà¸Ľ à¸§à¸Ķ
vi ews
à¸ģà¸²à¸£ à¸ģà¸£à¸°à¸Ĺ
à¸Ńà¸¢ à¹Ħà¸¡
à¹Ģà¸£ à¸²à¸¥
à¸§à¸¢ à¸ĩà¸²à¸¡
à¹Ħà¸¥ à¸Ĺ
à¸ĵ à¸Ľ
à¸Ńà¸Ńà¸ģà¸¡à¸² à¹Ģà¸Ľ
à¸ģ à¹ĥà¸«à¸¡
p g
à¸² à¹Ģà¸Ł
à¸Ľà¸£à¸°à¸ªà¸²à¸Ļ à¸ĩà¸²à¸Ļ
à¸Ľà¸£à¸° à¸¡à¸²à¸Ĺ
à¸Ļà¹ģ à¸ŀ
Ġà¹Ĥà¸Ķà¸¢ à¹ĥà¸«
âĿ¤ï¸ı âĿ¤ï¸ı
à¸ģ à¹ĥà¸«à¸į
Ġà¹ĥà¸Ļ à¸£
à¹Ĥà¸¥ à¸ģà¸Ļ
à¸Ĺà¸¢à¸²à¸Ļ à¹ģà¸«
à¸ģ à¸ĺ
Ġà¸Ħ à¸ļà¸ģ
à¸ļ à¸¨
à¸²à¸ĩ à¹Ħà¸«à¸¡à¸Ħà¸£
Ġà¸¡ à¸²à¹Ģà¸¥
à¸ģà¸²à¸£ à¹ģà¸ģ
Ġ6 4
à¸ŀ à¸ª
Ġà¸Ĥ à¸Ńà¸ªà¸Ńà¸ļà¸ĸà¸²à¸¡
¹ Ĵ
à ¹Ĵ
à¸ĭ à¸ĭ
ip bs
à¸ļ à¸Ńà¸°à¹Ħà¸£
à¸§à¸¢ à¹Ģà¸¥
à¸Ń à¸Ŀ
à¸Īà¸° à¸ªà¸²à¸¡à¸²à¸£à¸ĸ
à¸ģà¸Ħà¸Ļ à¸Ħ
à¸Ń à¸Ĥà¸Ń
à¹Ģà¸¢à¸Ńà¸° à¸ģà¸§
i i
Ġà¸ľà¸¡ à¸Ńà¸¢à¸²à¸ģ
à¸Ļà¸Ńà¸°à¹Ħà¸£ à¸Ĺ
à¸ļ à¸ŀà¸£à¸£à¸Ħ
à¸ģ à¹Ģà¸Ļ
à¸Īà¸²à¸ģ à¸£
à¸ĺ à¸Ľ
à¸Ńà¸ĩ à¸ļà¸Ńà¸ģ
à¸Ń à¹Ģà¸£à¸²à¹Ħà¸¡
à¸ļ à¹Ģà¸«à¸ķ
à¸ļ à¸łà¸²à¸©
à¸²à¹Ĥ à¸«à¸¡
Ġw ar
Ġà¹Ģà¸ģ à¸¥
à¸¡ à¸Ŀ
à¸Ńà¸ĩ à¸¥à¸ĩ
à¸Ł à¸Ĺ
à¸²à¹Ĥ à¸Ħà¸£à¸ĩà¸ģà¸²à¸£
à¸ĩà¹Ħ à¸ĩà¸ķ
Ġin stagram
à¸į à¸Ĥà¸Ńà¸ĩ
à¸ĩà¸Ħ à¸ĩà¸¡
à¹Ģà¸ĭ à¸Ļ
à¸ĩà¸Īà¸° à¹Ħà¸¡
sh op
Ġà¹Ĥà¸Ķà¸¢ à¸ķ
à¹Ģà¸ļ à¸¥
à¸Īà¸ŀà¸£à¸° à¹Ģà¸Ī
à¸Ń à¸Ńà¸Ńà¸ģ
6 4
Ġt ime
Ġà¹ĥà¸Ļ à¸ŀ
à¸ķ à¸£à¸²à¸Ķ
à¸ģà¸¡à¸²à¸ģ à¸¡à¸²à¸¢
à¸¢à¸ģ à¹Ģà¸§
à¸«à¸¥à¸§à¸ĩ à¸ŀ
à¹Ĥà¸Ĺà¸£ à¸«
à¸²à¸ĩ à¸Īà¸£
à¸¨ à¸§à¸°
à¸ľà¸¡ à¸Ļ
à¸Ń à¸Ħà¸¥
g ee
à¸Ĥà¸²à¸Ķ à¸Ĺ
à¹Ħà¸Ľ à¸«à¸¡à¸Ķ
Ġà¹Ģà¸ģ à¸¡
Ġ19 9
à¸¢à¸ĩ à¹Ģà¸«à¸Ļ
à¸Ńà¸¢ à¹Ģà¸Ĥ
à¸Ļà¹Ģà¸¥à¸¢ à¸Ħà¸£
à¸Ńà¸Ń à¸²à¸Ĭ
b ank
Ġà¹Ģà¸ŀà¸£à¸²à¸° à¸ª
à¸£à¸°à¸¢à¸° à¸¢à¸²à¸§
à¸ģ à¹ģà¸¢
à¸¡ à¹Ģà¸ļà¸Ńà¸£
à¸Ļà¸¡ à¸²à¸Ķ
à¸Ħà¸§à¸²à¸¡ à¹Ħà¸¡
Ġà¹Ĥà¸Ĭ à¸§
à¹Ī ...
Ġre mark
à¹ĥà¸Ļà¸ģà¸²à¸£ à¸Ī
Ġp er
à¸²à¸ĩ à¹Ħà¸«à¸¡à¸Ħà¸°
à¸ª à¸§à¸¡
à¸²à¸Ļà¸§à¸¢ à¸Ħà¸§à¸²à¸¡à¸ªà¸°à¸Ķà¸§à¸ģ
à¸Ļà¸ĺ à¸¡
à¹ĥà¸Ļ à¸Ĳà¸²à¸Ļà¸°
; }
Ġr am
à¸£à¸° à¸ĩ
à¸Ĩ à¸²à¸ķ
b it
à¸Ļà¸§ à¸²à¸¢
à¸Ļ à¸ŀà¸Ń
à¸µ -
Ġc cc
à¸ļ à¸²à¸£
Ġand roid
à¸Īà¸²à¸ģ à¸ķ
Ġ255 7
à¸Ħà¹Ģà¸ģ à¸Ī
à¸Ľ à¹Ħà¸¡
à¸Ńà¸Ļ à¹ģà¸¥à¸°
à¸²à¸Ĥ à¸²à¸Ķ
Ġa cc
à¸«à¸¥à¸²à¸¢ à¸Ĺ
à¸Ľ à¹ģà¸¥
Ġà¸Ķ à¸§à¸ĩ
à¸ĩ à¸ļà¸Ļ
à¸Ĺà¸²à¸ĩ à¹Ģà¸Ķ
à¸§ à¸Ħà¸°
Ġ255 6
ĠâĢ Ŀ
à¸²à¸ĩ à¹Ģà¸Ħ
à¸²à¸Ļ à¹Ģà¸¥
à¸¢à¸Ļ à¸Ĥ
à¸Ľ à¹Ģà¸Ľà¸Ńà¸£
à¸ĩà¸ª à¸ĸà¸²à¸Ļ
à¹Ĥà¸ķ à¹Ģà¸ģ
à¸² à¹Ģà¸ĺà¸Ń
Ġ à¹Ħà¸¥à¸Ļ
Ġre views
à¸ģà¸²à¸£ à¹Ħà¸Ķ
à¸ĩà¸Īà¸° à¸ķ
Ġà¹Ģà¸ŀà¸£à¸²à¸° à¸īà¸°à¸Ļ
Ĩ Ķ
à¸Ļ à¹Ģà¸ĸà¸Ńà¸°
à¸ģà¸ģ à¸ķ
à¸Ĭà¸Ńà¸ļ à¸ľ
Ġà¹Ĥ à¸Ńà¸ģà¸²à¸ª
à¹Ģà¸ª à¸²à¸£
à¹Ģà¸¥à¸¢ à¸Ļà¸°à¸Ħà¸£
à¸ĵ à¸Ń
Ġf ib
à¸¢à¸§ à¸Ń
à¸Ļà¸Ĺ à¸«à¸²à¸£
Ġà¸Ĥà¸Ńà¸ĩ à¹Ĥà¸¥à¸ģ
Ġfont size
à¸Ļà¸Ħà¸£ à¸¨à¸£
Ġà¹Ĥà¸Ĺà¸£ à¸¨
à¸Īà¸Ļ à¸ģà¸§
à¸Ļ à¸Ńà¸°à¹Ħà¸£à¸ģ
à¸Ń à¸ķà¸²à¸¡
à¹Ģà¸Ħà¸¢ à¸ŀ
ðŁĳ ł
n e
Ġà¸Ħà¸Ļ à¸Ĥ
ap an
Ġà¹Ģà¸Ħ à¸¢à¸¡
Ġ15 63
it t
à¸£à¸°à¸Ķ à¸²à¸©
à¸Ĺ à¸¯
à¸¥ à¸ŀ
ou ch
Ġline height
à¸¢à¸Ļ à¸ľ
Ġà¹Ģà¸¥à¸¢ à¸Ĺ
à¸²à¸Ļ à¹Ģà¸Ħ
Ġremark review
Ġreviews ection
à¸¢à¸Ńà¸¡ à¹ĥà¸«
à¸¢à¸ĩ à¸£
Ġà¹Ģà¸Ĥ à¸²à¹Ģà¸Ľ
à¸Ħà¸Ńà¸Ļ à¹Ģà¸ª
à¸Ħà¸§à¸²à¸¡ à¸Ŀ
Ġ5555 55
à¸¢à¸§ à¸Ī
à¹ī âĢĿ
à¸Ļà¸¡à¸² à¹Ģà¸Ľ
à¸ªà¸° à¸Ĺ
Ġb us
à¸²à¸Ļ à¹Ģà¸Ĭ
à¸«à¸¥ à¸²à¸Ķ
à¸ķ à¸ľ
à¸ģà¸²à¸£ à¸¥à¸ĩà¸Ĺ
à¸£à¸° à¸«à¸Ļ
à¹Ģà¸£à¸²à¸Ħ à¸§à¸£
à¸Ķ à¹Ģà¸Ļ
Ġp c
à¸ģ à¸Ńà¸Ńà¸ģ
à¸²à¸Ń à¸²à¸§
à¸« à¸²à¹Ģà¸ĩ
à¹Ģà¸ļ à¸²
à¸Ĭà¸²à¸¢ à¹ģà¸Ķà¸Ļ
à¸ĩ à¸ľà¸¡à¸ģ
à¸Ĥà¸Ńà¸ĩ à¹ģà¸ķ
à¸ķà¸£ à¸²
à¸Ń à¸²à¹Ģà¸ĭ
à¹Ģà¸ĭ à¹Ģà¸§
à¸Ńà¸¥ à¹Ģà¸¥à¸¢
à¸ģ à¸Ńà¸°à¹Ħà¸£
à¸§à¸Ļ à¸ľ
à¸Ļ à¹Ģà¸«à¸Ļ
à¸ªà¸¡ à¸ģ
Ġp m
à¸Ķ à¸Ĺà¸£
à¹Ĥà¸Ľà¸£ à¸ķ
à¸²à¸ĩ à¹Ģà¸Ħà¸£
à¸ŀà¸£à¸°à¸£à¸²à¸Ĭ à¸Ĺà¸²à¸Ļ
à¹Ĥ à¸Ńà¸Ĺ
à¸²à¸ŀ à¸Ļ
à¸ļà¸ļ à¸ļà¸ļ
à¸įà¸« à¸²à¸ª
à¸ĩà¹ĥà¸Ļ à¸Ĭ
à¸²à¸Ļ à¹Ĩ
à¹ģà¸¡ à¸§
à¸« à¸ĩà¸ª
Ġà¸ľà¸¡ à¸Ļ
à¸£à¸§à¸¡ à¸ĸ
à¸ĩ à¸Ħà¸§à¸²à¸¡à¸ª
Ġ255 8
Ġà¹Ģà¸ŀà¸£à¸²à¸° à¸Ļ
à¸ŀà¸§à¸ģ à¸Ĺ
à¸§à¸Ļ à¸Ķ
Ġà¸£ à¸¡à¸§
7 00
à¸Ļà¸ķ à¸Ļ
à¹ģà¸ģ à¸°
à¹Ī )
at er
à¸Ńà¸ĩà¸Ļ à¸Ńà¸Ļ
Ġà¹ģà¸ªà¸Ķ à¸ĩà¸§
à¹ģà¸Ļà¸Ļ à¸ĭ
à¸¢ à¸²à¸Ĺ
Ġà¸Īà¸° à¸ª
à¹Ģà¸§à¸¥ à¸²à¸¡
à¸¢ à¸Ľ
à¸²à¸ª à¸ĩà¸ªà¸²à¸£
à¹ĥà¸Ī à¹ĥà¸«
à¸ĩ à¸Ļà¸°à¸Ħà¸£
âĢĶ âĢĶ
à¸¢à¸ļ à¹Ģà¸£
à¸§à¸¢ à¸Ļà¸°à¸Ħ
à¸ĩ à¸Ħà¸Ļà¸Ĺ
à¸²à¸Īà¸° à¸ŀ
à¹Ħà¸Ľ à¸ķà¸²à¸¡
o ff
à¹Ħà¸Ľ à¹ĥà¸Ĭ
à¸¡ à¸²à¸¡
à¸Ńà¸ĩ à¸ªà¸¡
à¸Ńà¸²à¸Ī à¸¡
à¸£à¸§à¸¡ à¸Ĺ
Ġ qu
à¸ģà¸Ħà¸Ļ à¸ķ
à¸²à¸£ à¸ĩà¸ķ
à¹ĥà¸Ļ à¸ĩà¸²à¸Ļ
ir l
à¸Ķà¸£ à¸ĺà¸²à¸Ļ
à¹Ģà¸ŀà¸£à¸²à¸° à¸Ħ
ak a
Ġà¸Ķ à¸²à¸£
à¹Ģà¸§ à¸Ĭ
Ġà¸ª à¸«à¸£
à¸Ń à¸Īà¸°à¹Ħà¸Ķ
à¸²à¹Ģà¸Ĥ à¸²à¹Ħà¸¡
à¹Ħà¸Ń à¹Ĥà¸Łà¸Ļ
Ġà¸ģ à¸ªà¸Ĺ
à¸Ńà¸ģ à¹ĥà¸Ĭ
à¸²à¹Ħà¸Ľ à¸ķ
à¸²à¸¡ à¸Ĺ
à¹Ĥ à¸Ĥ
à¹ģà¸Ĺà¸Ļ à¸£à¸²à¸©à¸İà¸£
à¸Ĭà¸²à¸§ à¸ŀ
à¸ªà¸²à¸¡à¸²à¸£à¸ĸ à¹Ģà¸Ĥ
à¸Ĺà¸²à¸ĩ à¸ļ
à¹ĥà¸Ļ à¹Ģà¸Ħà¸£
à¸ģ à¸²à¸ģ
Ġ ****
à¸Ńà¸Ķ à¸ª
Ġv is
Ġà¸£ à¸Ńà¸ĩà¸ľ
Ġà¸Ĥ à¸§
Ġs y
à¹ĥà¸Ļà¸ģà¸²à¸£ à¹ĥà¸Ĭ
à¸²à¸Ħ à¸Ķ
à¸²à¸ķà¸£à¸§à¸Ī à¸ªà¸Ńà¸ļ
à¸£à¸²à¸ª à¸²à¸Ĺ
à¸ļ à¹Ģà¸ĺà¸Ń
âĿ¤ âĿ¤
à¸¡à¸² à¹Ģà¸¥à¸¢
à¸ĩà¸ª à¸Ļ
à¸ĩ à¸ļà¸Ńà¸ģà¸§
à¸¢ à¸Ħà¸§à¸²à¸¡à¸£
à¸Ń à¸ľà¸¥
em s
à¸²à¸Īà¸° à¸ģà¸¥
à¸Ńà¸ĩà¸Ĺ à¸Ńà¸ĩ
à¸Ĭà¸¡ à¸§
à¸£à¸ª à¸Ĭà¸²à¸ķ
à¸ł à¸²à¸£à¸ģ
à¸ļà¸ģà¸²à¸£ à¹ĥà¸Ĭ
Ġà¹ģà¸¥à¸° à¸ļ
à¸§ à¹Ģà¸Ĭ
à¸Ńà¸Ń à¸Ń
à¸ļ à¹ģà¸Ħ
à¹Ĥ à¸¢à¸ļ
à¸Ńà¸¢ à¹Ģà¸ģ
Ġà¹Ģà¸£à¸² à¹Ģà¸¥
à¸²à¸Īà¸° à¸Ī
à¸Ļà¸£ à¸Ńà¸ļ
l ive
à¸Ľ à¹Ħà¸Ķ
à¹Ĥà¸Ķ à¸Ļà¸Ķ
à¸ķ à¸Īà¸²à¸ģ
or g
à¸ļà¸¡ à¸²à¸Ń
à¸ģà¸£ à¸Ĺ
à¸Ĥà¸Ńà¸ĩ à¹Ģà¸Ħ
à¸Ļ à¸«à¸²à¸¢
à¸²à¸ķà¸Ńà¸ļ à¸Ĺ
it al
à¸Ń à¹ģà¸Łà¸Ļ
à¸² à¹ĥà¸ļ
Ġwor k
âŀĸ âŀĸ
Ġ à¹Ģà¸Ńà¸ģ
d ay
à¸²à¸ķ à¸²à¸Ķ
à¸Ħ à¸ĵ
Ġ ì
à¹Ģ à¹Ģà¸Ļ
à¸Ńà¸¡ à¹Ģà¸ŀ
à¸¡à¸² à¹Ģà¸Ĺ
à¸Ńà¸ĩ à¸ĩà¸²à¸Ļ
à¸Ńà¸¢à¸²à¸ģ à¹Ħà¸Ľ
à¸Ļà¹Ħà¸Ľ à¸ª
à¸ģ à¹ģà¸Ļ
Ġ à¸įà¸²à¸ķ
à¸Ńà¹Ħà¸Ľ à¸Ĺ
à¸¡ à¹ĥà¸Ĭ
à¸Ļà¸Ħà¸Ļ à¸ķ
s am
Ġà¸Ħ à¸²à¸£
à¸Ŀ à¸²à¸ģà¸£
à¸£ à¸ģà¸£à¸£à¸¡
à¸ªà¸¡ à¸Ħà¸§à¸£
à¸£à¸²à¸Ĭ à¸Ńà¸²à¸ĵà¸²à¸Ī
à¸ģ à¸Ľà¸£
à¸Īà¸° à¸Ľ
Ġ5 7
à¸ļà¸¡ à¸²à¸Ķ
à¸ĩ à¹Ħà¸Ľà¸Ĺ
à¸Ńà¸Ńà¸ģ à¸¡à¸²à¸Īà¸²à¸ģ
à¹Ģà¸Ńà¸ĩ à¸Ħ
Ġth is
à¸¢à¸ģ à¸ģ
ex t
Ġà¹ĥà¸Ļ à¸ģà¸£à¸ĵ
à¹Ģà¸Ĥ à¸²à¸Ńà¸¢
à¸²à¸ª à¸§
à¸Ļà¸Ĺà¸²à¸ĩ à¹Ģà¸Ĥ
à¸Īà¸° à¸ľ
à¸ģ à¹ģà¸Ħ
à¸ĵ à¸ªà¸¡à¸²à¸Ĭ
à¸ķà¸£ à¸ģ
à¸¢à¸Ļ à¹Ģà¸£
à¸¡à¸² à¹Ģà¸ŀ
Ġm c
siam sport
à¸Ńà¸£ à¸²à¸Ħ
à¸Ł à¹Ģà¸Ł
à¸ľà¸¡ à¸Ī
à¸²à¸ĩà¸²à¸Ļ à¸£
à¸Ļ à¸Ľà¸£à¸°à¸ģ
Ġà¸Ļà¸²à¸¢ à¸ģà¸¯
et h
à¸Ļà¹Ĥ à¸Ħà¸£à¸ĩà¸ģà¸²à¸£
Ġf b
à¸Ńà¸°à¹Ħà¸£ à¹Ħà¸Ķ
Ġà¸Īà¸²à¸ģ à¸ģà¸£à¸ĵ
à¸¢ à¸įà¸Ĺ
Ġà¸£à¸§à¸¡ à¹Ħà¸Ľà¸ĸ
er n
à¸Ľà¸²à¸ģ à¸Ħ
. /
à¹Ĥà¸Ľà¸£à¹ģ à¸ģà¸£
à¸¥à¸° à¸Ħ
ðŁ Ĳ
à¸Ħà¸Ļ à¹Ģà¸ģ
à¹ĥà¸Ī à¸£
à¸²à¸Ķ à¸§
à¸ģ à¸²à¸¡
à¸Ħà¸Ļ à¸ŀ
Ġ2 000
à¸Ńà¸ķ à¸Ńà¸ļ
à¸Ĭà¸Ńà¸ļ à¸ŀ
Ġà¹Ħà¸Ľ à¹Ģà¸Ĺ
à¹ĥà¸Ļ à¸Ķ
à¸Ńà¸¥ à¹Ģà¸¥
à¸§ à¸Īà¸°à¸¡
à¸Ķ à¸ģà¸§
à¸ģ à¸ŀà¸£
à¸«à¸£à¸Ńà¸ģ à¸Ħ
à¸¡à¸²à¸ģ à¹Ģà¸¥à¸¢à¸Ħ
à¸¢à¸Ļ à¹Ģà¸ģ
Ġà¹ģ à¸£à¸ģ
Ġ' '
Ġ8 00
à¸Ļà¹ģ à¸Ľà¸¥
à¸Ī à¸Ļà¸Ĺ
p ress
à¸£à¸° à¹ģ
à¸²à¹Ħà¸Ľ à¸¢
Ġà¸ª à¸Ľ
à¸¡à¸²à¸ģ à¹ģà¸¥
à¸²à¸Ń à¸²à¸ģà¸²à¸£
à¸Ļà¸ķ à¸²à¸¢
Ġà¸Ļ à¸ŀ
à¸¥à¸ĩ à¹Ĥà¸Ĺà¸©
à¸Ńà¸ĩà¸Ĥ à¸Ńà¸Ńà¸ł
f c
à¸° à¸ŀà¸£
à¸Ľà¸£à¸° à¹Ģà¸ŀà¸ĵ
à¸Ĥ à¸Ńà¸Ļà¹ģà¸ģ
tha ipbs
Ġà¸Ľà¸£à¸°à¸¡à¸²à¸ĵ à¸Ļ
à¸²à¸Ļ à¸ĸ
à¸ķ à¹Ģà¸Ļ
à¸¥ à¸Ķà¸Ļ
à¸łà¸²à¸© à¸²à¹Ħà¸Ĺà¸¢
à¸Ľà¸¥à¸²à¸¢ à¸Ĺà¸²à¸ĩ
Ġà¹Ĥ à¸Ħà¸£
v el
Ġà¸Īà¸° à¹Ģà¸£
à¸ŀ à¸Ļà¸¡
à¸² à¹Ĥà¸¥
Ġâ Ŀ
Ġà¸Ħà¸Ļ à¹Ħà¸Ĺà¸¢
Ġà¹ģà¸¥à¸° à¸ģà¸¥
à¸ķà¸ģ à¹ģà¸ķ
à¸²à¹ģ à¸¢
Ġà¸Īà¸° à¸¢
à¸²à¸ĩ à¹Ģà¸¥
à¸¢à¸§ à¸Ħà¸£
à¸§à¸¢ à¸¥à¸Ķ
à¸ģ à¹Ģà¸Ń
Ġà¹Ģà¸¥à¸¢ à¸Ńà¸¢à¸²à¸ģà¸£
0 2
à¸Ļà¸¡ à¸²à¸Ń
Ġà¸¡ à¸²à¸Ħ
à¸© à¸Ĳà¸²à¸Ļ
à¸ģà¸²à¸£ à¸Ľà¸ı
à¸²à¹ģ à¸Ľà¸¥
à¹Ĥà¸Ķà¸¢ à¹ĥà¸Ĭ
à¸ķà¸£ à¸ĩà¹Ĩ
à¸Ļà¸¡ à¸²à¸ª
à¸Ńà¸¢ à¸Ļà¸°à¸Ħ
r al
à¸Ľ à¹Ģà¸Ľ
à¸²à¸Ļ à¹ģà¸ķ
Ġà¸Ī à¸Ļà¹Ģà¸£
à¸Ķà¸Ń à¸²à¸ģà¸²à¸£
à¸Ķ à¸¨
à¸¥à¸Ńà¸ĩ à¸Ķ
à¸Ļ à¸ļà¸Ĺ
à¸¢à¸ģ à¸£à¸°à¸Ķ
à¸Ń à¹Ģà¸«à¸¡
à¸Ļà¸£ à¸§à¸¡
Ġà¸Ļ à¸Ńà¸Ļ
Ġa g
à¸° à¹Ģà¸¢
Ġà¸« à¸²à¹Ģà¸ŀ
à¸²à¸¢ à¸ĸ
r a
à¹Ģà¸¥à¸¢ à¸Ń
à¸²à¹Ħà¸Ľ à¸Ħ
Ġw eb
à¹Ģà¸© à¸ģ
à¸ĸ à¸ĸ
à¸ķ à¸Ľà¸£à¸°à¸Ī
à¸¢ à¹Ģà¸¥
à¸¡à¹Ģà¸¡ à¸Ńà¸£
à¸Ńà¸Ń à¸²à¸¢
Ġa v
âľ ¨
à¸ģ à¸Ĭà¸Ļ
à¸Ń à¹Ģà¸¢
à¸ļà¸£ à¸²à¸¢
à¸« à¸²à¹Ģà¸ª
Ġà¹Ģà¸Ńà¸Ł à¸ĭ
Ġà¸Īà¸° à¹ĥà¸Ĭ
à¸Ħà¸§à¸²à¸¡ à¸ģ
à¸² à¹ĥà¸ģà¸¥
Ġà¹Ģà¸Ń à¸²à¸Īà¸£
à¸ķ à¹Ģà¸Ľ
0 3
à¸ģà¸²à¸£ à¸¡
Ġl a
à¸Ķà¹ĥà¸Ļ à¹Ĥà¸¥à¸ģ
à¸ķ à¸Ĥ
à¸Ķà¹Ħà¸Ľ à¹Ģà¸Ńà¸ĩ
à¸ķà¸²à¸¡ à¸¥
à¹Ģà¸ŀà¸£à¸²à¸° à¸Ĺ
à¸¢ à¸łà¸²à¸©
à¸Ĺ à¸ļ
à¸²à¸Ħà¸§à¸²à¸¡ à¸ľ
à¸¢à¸§ à¸§
Ġà¸ķà¸£ à¸ĩà¸Ļ
à¸Ľà¸£à¸°à¸ģà¸Ńà¸ļ à¸Ķ
à¸Ļà¸¥à¸° à¸Ń
Ġm v
Ġà¹ģ à¸§à¸°
Ġ$ '
Ġà¹Ģà¸Ľ à¸£
à¹ģà¸ļà¸ļ à¸§
xx x
à¸²à¸ª à¸²à¸£
à¹Ģà¸Ī à¸Ńà¸Ľ
Ġà¹Ģà¸Ľ à¸Ńà¸£
Ġà¸Ħ à¸«
Ġà¹Ģà¸ŀ à¸Ĭà¸£
à¸Ľ à¸ĭ
à¸ªà¸° à¸Ķ
à¸£à¸°à¸¢à¸° à¹Ģà¸§à¸¥à¸²
il y
Ġ4 2
à¸²à¸Ń à¸²à¸Ĭ
à¸§à¸¢ à¹Ģà¸ŀ
à¸Ľ à¸Ń
à¸Ńà¸¢à¸²à¸ģ à¹Ģà¸«
s o
us h
à¸¢à¸ĩ à¸Ĭ
à¸¡ à¸²à¸«à¸¥à¸²à¸¢
à¸£à¸° à¸Ļ
à¸ĩ à¸©
à¸Ĥà¸²à¸¢ à¸ª
Ġm ax
if e
à¸¢à¸Ķ à¹Ģà¸ŀ
à¸¡ à¹ģà¸¡
à¸§à¸¢ à¹Ģà¸Ĭ
à¸ķà¸Ńà¸ļ à¸£
à¸Ļà¸Ħà¸Ļ à¹Ģà¸Ķ
à¸¥ à¸Ńà¸ĩà¸Ĺ
à¸Ħà¸§à¸²à¸¡ à¸Ń
Ġà¸Ńà¸¢à¸²à¸ģ à¸Ķ
c he
1 50
à¸łà¸²à¸© à¸²
à¸²à¸Ħ à¸ĩà¹Ħà¸¡
à¸ĩà¸«à¸¡ à¸Ķà¸Ĺ
à¹Ĥà¸¡ à¸¢
" "
à¸ŀà¸Ńà¸Ĺ à¸£à¸²à¸ļ
ar ch
arad aily
Ġin d
Ġà¸Ľà¸£à¸°à¸ģà¸Ńà¸ļ à¸ģ
à¸²à¸ĩà¸²à¸Ļ à¹Ģà¸Ľ
à¸ļà¸ª à¸²à¸£
Ġâ ĺ
à¸Ĥ à¸§à¸Ķ
ðŁĳĹ ðŁĳĹ
Ġà¹Ģà¸« à¸ĩ
à¸¢à¸Ļ à¸Īà¸²à¸ģ
à¸²à¸Ļ à¸Ńà¸Ļ
à¸²à¸§ à¸¢
à¸Ńà¸ĩ à¹Ħà¸«à¸Ļ
à¸ĺ à¸Ĺ
Ġà¹Ģà¸£ à¸²à¸ŀ
à¸² à¹Ĥà¸Ĺà¸£
à¹ĥà¸Ļ à¹Ģà¸Ķ
Ġà¸Īà¸° à¸ĭ
à¸§à¸ĩ à¸¥
à¸Ļ à¸Ħà¸§à¸²à¸¡à¸ª
à¸²à¸ļ à¸£à¸£
à¸Ńà¸Ļ à¸°
à¸§ à¹Ģà¸ķ
à¹Ģ à¹Ģà¸Ĺ
à¸²à¹ģ à¸ĸ
à¸§ à¸ļà¸Ńà¸ģà¸§
à¹Ģà¸Ħà¸¢ à¹Ģà¸¥
Ġà¹Ĥà¸¡ à¸ĩ
à¸Ļà¸²à¸Ļ à¹ģà¸¥
0 4
à¸Ĭ à¸ģà¸²à¸¥à¸Ĺ
à¸ĩ à¸£à¸°à¸Ķ
à¸ĩà¸ķ à¸¥à¸Ńà¸Ķ
à¸Ļà¹ģ à¸ĸ
à¹ĥà¸Ī à¸ķ
à¸²à¸ĩ à¸¨
à¸ªà¸§à¸¢ à¹Ĩ
à¸Ļà¸£ à¸²à¸ĩà¸§
à¸Ń à¹ģà¸Ī
ðŁĺ Ĭ
à¸²à¸£ à¸²à¸ĩ
à¸¢à¸¡ à¸ģ
à¸²à¸¢ à¸²à¸ģ
h ot
à¸²à¸Ľ à¸²à¸ĩ
Ġh y
Ġà¸Ńà¸°à¹Ħà¸£ à¸Ĺ
à¸Ļ à¸Ħà¸§
à¸²à¸ķ à¸²à¸¢
à¸¢à¸ģ à¹ĥà¸«
à¸Ńà¸Ķ à¸¡
à¸Ļà¸§ à¸¥
à¸Ľ à¸ł
à¸ŀ à¸Ńà¸ķ
à¸²à¸ĺ à¸²à¸£à¸ĵ
à¹ĥà¸Ļà¸ģà¸²à¸£ à¹Ģà¸¥
à¸¢à¸ģ à¹Ģà¸ģ
à¸£ à¸§
à¸Ńà¸¡ à¹ģà¸¥
à¹ģà¸ģ à¸Ļ
à¸²à¸Īà¸° à¸Ńà¸¢
à¸²à¸§ à¸Ī
à¸Ĺà¸²à¸ĩ à¸Ń
à¸²à¸ĩ à¹Ģà¸¡
Ġà¹Ĥà¸Ń à¹Ģà¸Ħ
à¸¢à¸Ļ à¸ªà¸²à¸¢
à¸Ŀà¸Ļà¸ķ à¸ģà¸«à¸Ļ
à¸Ħà¸Ļ à¹Ħà¸«à¸Ļ
à¹ģà¸ŀ à¸ĩà¸¡à¸²à¸ģ
à¸Ķ à¹Ģà¸¢
à¸«à¸¥ à¸ļà¸«à¸Ļ
Ġi os
à¸Ļà¸Ī à¸ļ
à¹ģà¸ªà¸Ķà¸ĩà¸Ħà¸§à¸²à¸¡ à¸Ħ
Ġà¹ģà¸ļà¸ļ à¸§
Ġc pu
à¹Ģà¸Ń à¸²à¸Ĺ
à¹ģà¸Łà¸Ļ à¹Ĩ
à¹Ģà¸ª à¸Ķ
Ġ6 5
à¸²à¸Ľà¸£à¸° à¸Ĭ
à¸²à¸Ħà¸§à¸£ à¸Ĺ
Ġ5 9
à¸ĩà¹Ħ à¸ĩà¸Ħ
à¸ķà¸²à¸¡ à¸Ĥ
Ġà¸¡ à¸Ļ
os e
ot ion
à¸ģà¸£à¸° à¸ª
à¸Ļà¸Ĥ à¸Ļà¸²à¸Ķ
à¸ŀà¸£à¸£à¸Ħ à¹Ģà¸ŀ
aw ei
v e
à¸Ńà¸Ļ à¸Ļà¸°
à¸ªà¸¡ à¸Ńà¸ĩ
à¸Īà¸£ à¸£à¸¢
à¸Ķ à¸Ļà¸°
à¸Ĭ à¸ķ
à¸Ń à¸ģà¸²à¸£à¸Ĺ
Ġà¸Ŀ à¸£
à¸Ļà¸Īà¸° à¸Ķ
ob ile
à¸Ĥà¸Ļà¸²à¸Ķ à¹Ħà¸«à¸Ļ
à¸ļà¸£à¸£ à¸¢à¸²à¸¢
Ġà¹Ģà¸ŀ à¸¥
à¸²à¸«à¸§ à¸²à¸Ļ
à¸Ńà¸ĩ à¸ĩ
0 7
à¸Ńà¸ĩ à¸Ħà¸§à¸²à¸¡à¸£
ond a
Ġà¸¡à¸²à¸ķà¸£ à¸²
à¸§ à¹Ģà¸ªà¸£
à¸Ĭà¸Ńà¸ļ à¸Ħ
à¹Ģà¸Ń à¸²à¸Ĭà¸Ļà¸°
à¸²à¹ĥà¸Ļ à¸ª
à¸Ńà¸ģ à¹Ħà¸Ķ
à¸Ħà¸§à¸²à¸¡ à¸¢
à¸²à¸¡ à¸²à¸Ī
à¸¡à¸²à¸ģ à¸ģà¸ģ
à¹Ĥà¸Ķ à¸Ļà¸ķ
à¸Ńà¸Ĺ à¸£à¸²à¸ļ
à¹Ģà¸ŀà¸£à¸²à¸° à¹Ģà¸Ľ
à¸¡à¸Ńà¸ĩ à¹Ģà¸«
à¹Ĥà¸Ł à¸ģ
Ġ7 00
à¸²à¸ģà¸²à¸£ à¸ļ
à¸«à¸¡ à¸Ķà¸Ĺ
à¸¡ à¸¥à¸°
à¸ļà¸ŀ à¸Ļ
à¹Ģà¸¥à¸¢ à¸Ļ
à¸Ļà¸²à¸¢ à¸ª
à¸«à¸¥ à¸²à¸Ļ
Ġà¸ľ à¸ļ
Ġà¸£ à¸Ńà¸ĩà¸Ļ
Ġà¹Ĥà¸Ķà¸¢ à¸ľ
à¸²à¸ĩ à¹Ħà¸Ľ
à¸§à¸¢ à¸Ľ
à¸²à¸ļ à¸Ĺ
à¸²à¹Ģà¸ł à¸Ńà¹Ģà¸¡
à¸Ļ à¸Ĥà¸Ń
à¸¥à¸ĩ à¹Ģà¸¥
à¹ģà¸ļà¸ļ à¸¡
Ġ4 4
à¸ľà¸¡ à¸ª
wor k
Ġà¹Ģà¸¥à¸Ĥ à¸²à¸ĺ
à¸ģà¸¥ à¸²à¹Ĥà¸«à¸¡
Ġ ++
Ġs n
à¹Ģà¸ŀà¸¥à¸ĩ à¸Ļ
à¸° à¹Ģà¸Ľ
à¸²à¹Ħà¸Ľ à¹ĥà¸Ļ
à¸¢à¸Ķ à¸ģ
à¹ģà¸Ľà¸¥ à¸ģà¹ĥà¸Ī
à¸ģà¸²à¸£ à¸Ħà¸¥
à¸Ĺà¸²à¸ĩà¸ģà¸²à¸£ à¹ģà¸ŀà¸Ĺà¸¢
à¸Ńà¹Ħà¸Ľ à¸Ķ
Ġà¹Ģà¸¨ à¸£à¸©à¸Ĳ
à¸Ńà¸¢ à¸«à¸¥
à¸Ļ à¹Ħà¸«à¸¡à¸Ħà¸£
Ġà¹ģà¸ĸ à¸¥à¸ĩ
à¸Ļà¸Ħà¸Ļ à¸¥à¸°
à¸Ńà¸¢ à¸ŀ
à¹Ģà¸Ńà¸ģ à¸¥
à¸Ļà¸¡ à¸²à¸Ļ
Ġn ews
à¸Ĺà¸²à¸ĩ à¹Ģà¸¥
Ġg en
à¸Ĥà¸Ļà¸²à¸Ķ à¹Ģà¸¥
à¹ģà¸£ à¸ĩà¸ļ
à¸§ à¸ģà¸£
Ġg e
c on
Ġà¹Ģà¸ĺ à¸Ń
le ction
ðŁĴ ĭ
à¸ªà¸²à¸¡à¸²à¸£à¸ĸ à¸Ļ
à¸ĩ à¸ī
Ġà¸ģà¸²à¸£ à¸£
à¸Ľ à¸«à¸Ļ
à¸ķà¸£ à¸Ļ
tr ue
à¹Ħà¸Ľ à¸ĸà¸²à¸¡
à¸²à¹Ģà¸£ à¸²à¸£
à¸Ļà¸Ĥà¸Ńà¸ĩ à¸Ĺ
à¸Ńà¸ĩà¸ª à¸ĩà¸ª
d e
à¸Ńà¸°à¹Ħà¸£ à¹ĥà¸«
Ġà¸ģà¸²à¸£ à¸ª
à¹ģ à¸ļà¸Ļ
à¸ģà¸£ à¹Ħà¸Ĺà¸¢
Ġt ot
à¸Ļà¸Ĭ à¸²à¸ķ
Ġà¸£ à¸ªà¸Ĭà¸²à¸ķ
à¸°à¸ŀ à¸²à¸Ļ
à¸²à¸ĩ à¸łà¸²à¸ŀ
à¹ģà¸Łà¸Ļ à¸ļà¸Ńà¸¥
à¹Ħà¸Ń à¸ĭ
à¸Ń à¹ģà¸Ĺ
à¸ľà¸¡ à¹Ģà¸£
à¸²à¸§ à¸Ħà¸°
Ġà¸Ĥà¸Ńà¸ĩ à¸ŀ
à¸¥à¸°à¸Ħà¸£ à¹Ģà¸£
à¸Ļ à¹ĥ
à¸²à¹Ģà¸¥à¸¢ à¸Ĺ
à¹Ħ à¸Ĺà¸¡
Ġà¹ģà¸¥à¸° à¹ĥà¸Ĭ
à¸¥à¸ĩ à¸£
¹ ĸ
à¹Ĥà¸Ķà¸¢ à¸¡
à¸² à¹Ģà¸Ńà¸²
Ġl ink
à¸²à¸Ħà¸°à¸Ļ à¸Ńà¸ĩ
à¸ģà¸ĩà¸²à¸Ļ à¸ķ
à¸²à¸£ à¸Ńà¸ĩ
Ġ7 5
à¸Ńà¸²à¸Ī à¹Ħà¸¡
à¸²à¸ģ à¸£à¸°à¸Ĺ
à¸ĺ à¸ł
à¸ļà¸¡ à¸²à¸§
à¸ģà¸²à¸£ à¹Ģà¸ģ
à¸Ńà¸¢ à¸ĸ
à¸® à¸²
Ġà¸Ľà¸£ à¸²à¸ģà¸İà¸§
à¸ļ à¸ŀà¸¥
à¸ģà¸ª à¸£
à¹Ģà¸£ à¸²à¸«
à¸§à¸£ à¸£à¸©
à¸Ĥà¸Ńà¸ĩ à¸Ľ
à¸ª à¹Ĥà¸Ħà¸§
-- -
à¸¢ à¹Ģà¸§à¸¥à¸²
à¸²à¸Ńà¸¢à¸²à¸ģ à¹Ħà¸Ķ
à¸į à¸£
à¸²à¹Ģà¸Ĺ à¸Ńà¸¡
à¹Ĥà¸Ħà¸£ à¸²à¸Ĭ
re n
à ¹ĸ
à¹Ģà¸ľ à¸Ķ
Ġs ing
Ġà¸Ĥ à¸Ńà¸Ńà¸ł
à¸Ĥ à¸¢à¸°
à¸Ķà¸¥ à¸¡
à¸Ĥà¸Ńà¹Ĥà¸Ĺà¸© à¸Ķ
à¹Ģà¸Ĥ à¸²à¸ª
Ġà¸£à¸ļà¸ģà¸§à¸Ļ à¹ģà¸Ļà¸°à¸Ļ
er o
Ġà¸¡ à¸²à¸¥
à¸²à¸Ľà¸£à¸° à¸Ī
c m
le ss
Ġg t
à¸ļ à¸Ĺà¸£
Ġà¸ª à¸ª
im g
à¸ķà¸²à¸¡ à¸ª
à¹ģà¸ĸ à¸§à¸ļ
Ġà¸ªà¸²à¸Ĥ à¸²
à¸´ )
à¸ªà¸²à¸¡à¸²à¸£à¸ĸ à¸Ķ
Ġs ony
âĢ ĺ
à¸²à¸¡ à¸²à¹ģà¸¥
Ġc m
à¸ĺ à¸¢
à¸«à¸¡ à¸Ķà¸ª
m er
à¸¨ à¸ģ
Ġ _
à¸Ńà¸¢ à¸«à¸Ļ
d aradaily
à¸¢ à¸¡à¸²à¸ģ
à¸ĩà¸Ķ à¸ĩà¸²à¸¡
à¹Ĥà¸ŀ à¸ĺ
à¸¡ à¸¡à¸²
à¸Ńà¸Ļ à¹ĥà¸Ī
à¸Ń à¸Ħà¸§à¸£
à¸Ļ à¸łà¸²à¸¢à¹ĥà¸Ļ
à¸ģà¸ĩà¸²à¸Ļ à¸ģ
à¹Ģà¸¡ à¸°
Ġà¸Ĥà¸Ńà¸Ĥ à¸Ńà¸ļà¸Ħ
à¸§à¸¢ à¸ŀà¸£
à¸Ľà¸£à¸²à¸ļ à¸Ľà¸£à¸²à¸¡
à¸²à¸Ńà¸¢à¸²à¸ģ à¹ĥà¸«
à¹Ģà¸« à¸Ńà¸°
à¸²à¸¢ à¸Ĭà¸²à¸¢
à¸Ļà¸ģà¸²à¸£ à¸Ī
Ġà¸Ħà¸£ à¸¡
à¸Ļ à¸Ĭà¸²à¸¢
à¸ľà¸¥ à¸§
à¸Ļà¸ĸ à¸Ļà¸Ļ
à¸¡à¸²à¸Ľà¸£à¸° à¸¡à¸²à¸ĵ
Ġà¸ļ à¸²à¸£
Ġ !!!
à¹ģà¸Ļ à¸§à¸Ļ
à¸¢ à¸Ķà¸Ĺ
à¸ĩà¸¡ à¸Ńà¸ļ
à¹Ĥà¸ĭ à¸¥
à¸² à¹Ģà¸Ħà¸¢
à¸£à¸°à¸ļà¸²à¸¢ à¸Ļ
à¸¡ à¸ŀà¸¥
à¸²à¸£ à¸²à¸¡
à¸²à¸ĩà¹ģà¸¥à¸° à¸ľà¸¥à¸Ľà¸£à¸°à¹Ĥà¸¢à¸Ĭà¸Ļ
à¹Ħà¸«à¸§ à¹ģà¸¥
à¸Ļà¹ģ à¸Ĭà¸¡à¸Ľ
à¸Ħà¸§ à¸£à¸¡
à¸¢à¸§ à¹ģà¸¥
à¹ĥà¸Ħà¸£ à¹Ģà¸Ħà¸¢
à¸Ĺ à¸°à¹Ģà¸ļ
Ġà¸ķ à¸ģà¸¥
à¹ģà¸Ńà¸¥ à¸ģà¸Ńà¸®à¸Ńà¸¥
à¹Ģà¸§à¸¥ à¸²à¸ķ
à¸¢à¸§ à¸£
à¸¡ à¸ŀà¸£à¸°
à¸Ĥà¸Ńà¸ĩ à¸Ķ
à¸ŀà¸Ń à¹Ħà¸Ķ
à¸Ńà¸°à¹Ħà¸£ à¸¡à¸²à¸ģ
re en
à¹ģ à¸ģà¸£à¸¡
à¸§ à¸ķà¸Ļ
à¸Ķ à¹ģà¸Ĥ
à¸° à¸Ńà¸²à¸Ķ
à¸ĩ à¹Ģà¸¢à¸Ńà¸°
à¸Ľà¸£à¸° à¸ĸ
Ġà¸ª à¸ļà¸²à¸¢
ut e
à¸Ńà¸ĩ à¸¢à¸Ńà¸¡à¸£
à¸£à¸²à¸Ĭ à¸ĺà¸²à¸Ļ
Ġ5 8
à¸ģà¸£ à¸§à¸²à¸¥
Ġà¹Ĥ à¸«
à¸Ĥà¸Ńà¸ĩ à¸ŀà¸§à¸ģ
en c
à¸¡à¸« à¸²à¸Ķ
à¸Ķ à¹ģà¸¡
à¸Ń à¹Ģà¸£à¸²à¹Ģà¸Ľ
i um
à¸§à¸ģ à¸²à¸¨
Ġà¸łà¸²à¸ŀ à¸Īà¸²à¸ģ
à¸Ńà¸ĩà¸ģà¸²à¸£ à¹ĥà¸Ĭ
à¹Ģà¸ģà¸£ à¸ĩà¹ĥà¸Ī
à¹Ħ à¸ĸ
à¸Ļà¹ĥà¸Ī à¸Ĺ
à¸²à¸«à¸¥ à¸§à¸ĩ
à¸Ńà¸Ļ à¸Ł
25 60
à¸¢ à¸ģà¸²à¸£
à¸¡ à¹ĥà¸ª
à¸Ķ à¹Ĥ
à¸ªà¸²à¸¡à¸²à¸£à¸ĸ à¸£
Ġà¹ģà¸¥à¸° à¸«à¸Ļ
Ġ20 14
à¸Ļà¹ĥà¸Ļ à¸ļ
Ġst ore
à¹Ģà¸Ħ à¸ª
à¸Ĭà¸¡ à¸ģ
à¹Ĥà¸Ńà¸ģ à¸²à¸¨
à¸ģà¸© à¸²à¸Ħ
à¸Ńà¸ĩ à¸ļà¸Ńà¸ģà¸§
à¹ĥà¸Ļ à¸ģ
v o
à¸ļ à¸ī
à¸Ń à¹Ĥà¸£à¸Ħ
Ġà¹Ģà¸ŀà¸£à¸²à¸° à¸¢
à¸ķà¸£ à¸²à¸ģà¸²à¸£
Ġà¸Ħà¸Ļ à¸Ķ
à¸§ à¹Ħà¸«à¸Ļà¸Ķ
Ġà¸Ń à¸²à¸Ħà¸²à¸£
à¸£à¸ĸ à¹Ģà¸¡à¸¥
à¹Ģà¸§à¸¥ à¸²à¹Ħà¸Ľ
à¸§à¹ģà¸Ĺ à¸Ļà¸Ī
à¸Ļà¸ªà¸ķ à¸²à¹ģ
Ġc ovid
is e
à¸²à¸²à¸²à¸² à¸²à¸²à¸²à¸²
à¸ļ à¸Ħà¸Ļà¸Ļ
à¸Ń à¸ŀà¸§à¸ģ
à¸² à¹Ģà¸Īà¸Ń
Ġà¸Ń à¸²à¸Ĭ
Ġà¸Īà¸° à¹Ģà¸¥
à¹ĥà¸Ļ à¸«à¸¡
à¸¢à¸ĩ à¹ĥà¸ķ
b a
à¸¢à¸ģ à¸¢
à¹ĥà¸Ļ à¸£à¸°à¸ļà¸ļ
ap h
à¸²à¸Īà¸° à¸Ĭ
à¸ĩ à¸łà¸²à¸ŀ
d ate
à¹ī "
ab le
à¸Ĺà¸²à¸ĩ à¸§
à¸° à¸Ĭ
à¸ļà¸£à¸£ à¹Ģà¸Ĺ
à¸¢ à¸²à¹Ģà¸ªà¸ŀà¸ķ
à¸ļà¸Ńà¸ģ à¸Ĺ
à¸¡à¹Ģà¸Ľ à¸į
Ġà¸ª à¹Ģà¸ķ
à¸ŀ à¸ĺ
à¹ĥà¸Ļà¸ģà¸²à¸£ à¸ŀ
ðŁĳ ļ
am a
à¸§à¸ĩ à¹Ģà¸§à¸¥à¸²
as k
à¸ģà¸²à¸£ à¸ªà¸£
à¸²à¸Ĥ à¸²
à¸ģà¸¥ à¸°
Ġà¸ģà¸ªà¸Ĺ à¸Ĭ
à¸Ľ à¹ĥà¸«
à¸Ńà¸ĩ à¸Īà¸°
ou se
à¸²à¸Ńà¸°à¹Ħà¸£ à¹Ħà¸Ķ
0 6
à¸²à¸¢ à¹Ģà¸£
à¹Ĥà¸¥ à¸ģà¸ª
à¸Ń à¸Ħà¸§à¸²à¸¡à¸£
à¸Ńà¹Ħà¸Ľ à¸ģ
à¹ģà¸ĸà¸¥à¸ĩ à¸Ĥ
à¸Ķà¸ģà¸²à¸£ à¸ģ
Ġoff icial
à¸ĩ à¹ģà¸Ī
à¸Ļ à¸£à¸°à¸Ķ
à¸Ļà¸Ńà¸Ļ à¸Ħ
Ġà¹Ĥ à¸®
à¹ģ à¸Ļà¸ļ
Ġ 00
à¹Ģà¸Ĥ à¸²à¸Ļ
à¸Ĭà¸²à¸§ à¸ķ
à¸Ńà¸ķ à¸ģà¸¥
red it
Ġà¹Ĥà¸Ĭ à¸Ħà¸Ķ
à¸Ķ à¹ģà¸«
à¸Īà¸²à¸ģ à¸Ń
à¸²à¸¡ à¸²à¹Ħà¸Ķ
à¸ĩ à¹Ģà¹Ģà¸ķ
à¸Ńà¸Ńà¸ģà¸¡à¸² à¹Ħà¸Ķ
Ġà¹ĥà¸Ļ à¹Ģà¸£
à¸²à¸ª à¸²à¸¢
à¸²à¸ľà¸¡ à¹Ħà¸¡
à¸¢à¸ĩ à¸Ńà¸¢
à¸łà¸²à¸Ħ à¸Ń
Ġ à¸Ĳà¸²à¸Ļ
à¸²à¸«à¸Ļà¸Ķ à¹ĥà¸«
à¹Ĥ à¸§
à¸Ń à¸ī
à¸¢à¸ĩ à¸Ĥà¸Ńà¸ĩ
à¸ģ à¸Īà¸°à¸¡
à¹ĥà¸Ļ à¸ķà¸Ńà¸Ļà¸Ļ
à¸ŀà¸£ à¸£
à¸ģà¸Ĺ à¸²à¸¢
à¹Ģà¸Ĥ à¸²à¸ģà¸¥
l ic
à¹Ĥà¸Ķà¸¢ à¸ķà¸¥à¸Ńà¸Ķ
Ġ ic
Ġ20 15
à¸Īà¸²à¸ģ à¸ľ
à¹Ģà¸ĺ à¸Ńà¹Ħà¸¡
à¹Ģà¸ļ à¸²à¹Ĩ
Ġà¸Ħ à¸ĩà¸ķ
u ck
à¹Ģà¸ķ à¸°
à¸Ľà¸£à¸° à¸«à¸¥à¸²à¸Ķ
à¸Ľà¸£à¸°à¸ĺà¸²à¸Ļ à¸²à¸ĺ
à¸²à¸Ļ à¸²à¸ĩ
ad d
à¸Ķ à¹Ģà¸Ń
à¸²à¸ĸà¸²à¸¡ à¸Ħ
à¸Īà¸ļ à¹ģà¸¥
ed ia
à¸§ à¸²à¸£
à¸Ĺà¸£ à¸ĩ
à¸Ĥà¸Ńà¸ĩ à¹ģà¸Ĺ
ĠâĢ ĭ
à¹Ĥ à¸ķà¸£
à¸ģ à¸Ńà¸²à¸¢
Ġà¹Ģà¸£ à¸²à¸Ĥ
8 2
re m
à¸¡ à¸ĸà¸Ļà¸Ļ
à¸Ľ à¸İ
à¸ķ à¸«
à¸Ķ à¹Ħà¸£
à¸Ĺ à¸Ķ
à¸Ńà¸Ļ à¹Ģà¸£à¸²à¸ģ
ĠðŁ Ļ
à¸ļà¸¡ à¸²à¸£
à¹Ħ à¸Ĭ
à¸Ńà¸Ķ à¸Ń
u al
Ġà¹Ģà¸¥à¸¢ à¸Ńà¸¢à¸²à¸ģà¸Īà¸°
à¹ĥ à¸ļà¸ª
Ġp s
à¸¢ à¹ģà¸ķ
25 0
à¹Ģà¸¡ à¸Ļà¸ķ
à¹Ĥà¸¢ à¸ķ
à¹ģà¸ļà¸ļ à¸ª
Ġl azada
% ,
à¸¡ à¸ĺà¸²à¸Ļ
à¹Ģà¸Ńà¸ĩ à¹Ħà¸Ķ
à¸Ļà¸° à¹ģà¸ķ
Ġà¸Ļà¸²à¸ĩ à¸ªà¸²à¸§
Ġà¸Īà¸° à¹Ģà¸«
à¸ģà¸£à¸° à¸Ľ
Ġb ank
ot a
Ġt witter
à¸Ńà¸Ļ à¸Ħà¸Ļà¸Ń
à¸ķ à¸Īà¸£
b ook
à¸Ń à¸Ńà¸°à¹Ħà¸£à¸ģ
à¸ļ à¸¥à¸ĩ
à¸Ńà¸¡ à¸Ń
bo ard
à¹ĥà¸Ļ à¸£à¸Ńà¸ļ
à¸į à¸²à¸į
à¹Ĥà¸Ĺà¸£ à¸¡à¸²
à¸¢à¸ģ à¸Ħ
Ġà¸Ńà¸¢à¸²à¸ģ à¸ĸà¸²à¸¡à¸§
à¹Ģà¸Ĥà¸² à¹Ģà¸¥
Ġà¹Ģà¸Ĥ à¸²à¸Ħ
Ġà¸¡ à¸²à¹ĥà¸«
à¸ĵ à¸Īà¸°
à¸¢ à¹ĥà¸«à¸¡
Ġg u
Ġà¸ģà¸²à¸£ à¹Ģà¸¥
à¸ĵ à¸Ńà¸¢
à¸Ńà¸Ļ à¸Ļà¸°à¸Ħà¸£
à¸²à¹ĥà¸Ļ à¸Ĭ
à¸«à¸¥à¸²à¸¢ à¸§
à¸Ļà¸Ĺà¸²à¸ĩ à¸ģ
à¸£à¸²à¸Ħ à¸²à¸Ļ
à¹Ģà¸£à¸² à¹ĥà¸«
à¸§ à¸£à¸ĸ
à¸²à¸§ à¸Ĥà¸Ńà¸ĩ
à¸Ļ à¹Ģà¹Ģà¸¥
à¹Ģà¸¥à¸¢ à¸£
à¹Ħà¸Ńà¸Ķ à¸Ńà¸¥
à¸£à¸²à¸ ĺ
Ġà¹Ĥ à¸Ĩà¸©
à¸²à¸Ļ à¸ģà¸¥à¸²à¸ĩ
Ġà¸ķà¸²à¸¡ à¸Ļ
à¸¥ à¹Ħà¸Ķ
à¹Ģà¸Ĥ à¸²à¸ļà¸Ńà¸ģà¸§
à¸ķà¸£ à¸Ľà¸£à¸°à¸Ĭà¸²à¸Ĭà¸Ļ
Ġfr om
à¸ļ à¹Ģà¸«à¸¡
à¸Ńà¸Īà¸²à¸ģ à¸Ļ
à¸Ļà¹Ħà¸Ľ à¸Ńà¸¢
Ġ eng
à¸²à¸Ļ à¸ľà¸¡
à¸²à¸Ĥ à¸Ļà¸¡
à¹Ħà¸Ĺà¸¢ à¸ģ
à¹Ģà¸Ĥ à¸²à¸ŀ
à¸§à¸ĩ à¸Ī
à¸¢à¸¢à¸¢à¸¢ à¸¢à¸¢à¸¢à¸¢
Ġc le
Ġs l
Ġà¹ĥà¸Ļ à¸«
à¸²à¸Ŀ à¸²à¸ģ
Ġà¸ľ à¸Ń
à¸Ńà¸ģ à¸¢
à¸²à¸ĩà¸²à¸Ļ à¸Ĥà¸Ńà¸ĩ
Ġ0 7
à¸Ķ à¸£à¸ĸ
à¹Ģà¸ĺ à¸Ńà¸¡
à¸Ńà¸²à¸«à¸²à¸£ à¸Ĺ
à¸Ńà¸°à¹Ħà¸£ à¹ģà¸ļà¸ļà¸Ļ
à¸Ħà¸Ļ à¹Ģà¸¥
a j
à¹Ģà¸Ķ à¸ļ
Ġà¸ľà¸¡ à¸Ħà¸§à¸£
à¸ĩà¸²à¸Ļ à¹Ħà¸¡
Ġo s
à¸Ńà¹Ģà¸£ à¸²à¸¡
à¸²à¸§ à¹Ģà¸Ķ
à¸§à¸Ļ à¸¡
à¸Īà¸²à¸£à¸ĵ à¸²
Ġà¹Ģà¸Ń à¸²à¹Ħà¸§
ou p
Ġ4 9
Ġà¹ ĵ
à¸£ à¸§à¸¢
Ġà¸¥à¸Ķ à¸¥à¸ĩ
à¸§ à¹Ħà¸§
à¹ģà¸ªà¸Ķ à¸ĩà¸§
er y
à¸Īà¸° à¸ļ
à¸²à¸¥ à¸Ńà¸ĩ
à¸§à¸Ļ à¸ŀ
à¹ĥà¸Ī à¸Ħ
à¹ģà¸¥à¸° à¹Ģà¸ŀ
à¸§à¸¢ à¸Ħà¸°
à¸¢à¸ĩ à¹Ģà¸Ķ
à¸° à¹Ģà¸¥à¸¢
Ġà¸«à¸²à¸ģ à¹Ħà¸¡
Ġà¹ĥà¸Ļ à¸£à¸²à¸Ħà¸²
à¹Ģà¸ĺ à¸Ńà¸Ĺ
s ocial
à¸¡à¸² à¹ģà¸Ĭà¸£
à¸Ńà¸Ł à¸Ł
Ġà¹Ģà¸Ń à¸§
à¸ŀà¸£à¸£à¸Ħ à¸ŀà¸¥
os h
à¸¢à¸¡ à¸ª
à¸²à¸ĩ à¸ģà¸²à¸£
Ġch ar
à¹Ģà¸§à¸¥ à¸²à¹ĥà¸«
Ġk ing
âľ ħ
ou s
u c
ðŁı ¼
à¸Ĺà¸²à¸ĩ à¸ª
à¹Į âĢĻ
Ġà¹ĥà¸Ħà¸£ à¹Ģà¸Ľ
à¸° à¹Ģà¸Ĥ
à¸«à¸¥ à¸Ńà¸Ķ
à¸Ń à¸Īà¸°à¸¡
à¸²à¹Ģà¸ģ à¸©à¸ķà¸£
s r
à¸ĩ à¸£à¸°à¸ļà¸ļ
Ġh ome
à¸¡à¸²à¸ģ à¸ģà¸ģà¸ģà¸ģ
à¸ģ à¸ıà¸«à¸¡à¸²à¸¢
à¸²à¸Ļ à¸ģà¸£à¸°à¸Ĺ
à¸¥ à¹ĥà¸«
à¸ģà¹Ģà¸ģ à¸Ī
Ġà¸Ĥà¸Ńà¸ĩ à¸Ħ
à¸ĵà¸£ à¸ĩà¸Ħ
à¸Īà¸ī à¸£
à¸²à¹Ģà¸Ĥ à¸²
à¹Ĥà¸Ńà¸ģà¸²à¸ª à¹ĥà¸«
à¸ĵ à¸²
à¸²à¸Ļ à¹Ģà¸Ī
Ġà¸£à¸ĸ à¸ķ
à¸ģ à¸Ĭà¸Ńà¸ļ
à¹Ħà¸Ĺ à¸¢à¸Ļ
Ġ ??
Ġ à¸Ĩ
Ġà¹Ģà¸ĺ à¸Ńà¸ģ
à¸²à¸ĩ à¹ĥà¸ģà¸¥
Ġà¸Īà¸° à¸ĸ
Ġà¹Ģà¸ŀà¸£à¸²à¸° à¸ķà¸Ńà¸Ļà¸Ļ
p ink
u x
k k
Ġo ver
à¸ľà¸¡ à¹Ģà¸¥
ðŁĺĺ ðŁĺĺ
à¸ľ à¸Ńà¸¡
à¸ģ à¹ģà¸Ĺ
à¸²à¸Ĥ à¸²à¸§
à¹Ģà¸ŀà¸Ĭà¸£ à¸ļ
Ġà¸Ĥ à¸¢
one y
Ġd es
Ġ0 6
Ġà¸Īà¸° à¹Ģà¸Ĥ
à¸ĩ à¸ķà¸£
à¸§ à¸Ńà¸Ńà¸ģ
à¸Ķ à¸«à¸¢
Ġà¹Ģà¸Ī à¸Ńà¸ģ
à¸²à¸¥ à¸°à¸Ħà¸£
Ġà¸Ī à¸Ļà¸ķ
à¸§à¸¢à¸ļà¸Ńà¸ģ à¸«à¸Ļ
os s
à¸¨à¸§ à¸ģà¸£à¸£à¸¡
à¸° à¹Ģà¸ģ
Ġà¸¡ à¸²à¸Ĭ
à¹Ģà¸§à¸¥ à¸²à¸Ľà¸£à¸°à¸¡à¸²à¸ĵ
à¸Ńà¸Ķ à¸Ńà¸Ńà¸ģ
à¸ļà¸¥ à¸£à¸²à¸Ĭà¸ĺà¸²à¸Ļ
à¹Į '
Ġhu awei
Ġth ai
Ġà¸¥ à¸ļ
Ġà¸Ļ à¸Ńà¸ģ
à¹Ī "
à¸Ī à¸Ĥà¸Ńà¸ĩ
à¸Īà¸²à¸ģ à¸ļ
Ġm ic
à¸Ļ à¸²à¸Ħà¸²à¸£
à¸Ĥà¸²à¸¢ à¹Ħà¸Ķ
à¸²à¸Ľ à¸ı
Ġ9 00
à¹Ī âĢĿ
à¸Ħà¸§à¸²à¸¡ à¸¥
à¸ªà¸²à¸§ à¸£
à¹Ģà¸£ à¸²à¸ªà¸²à¸¡à¸²à¸£à¸ĸ
à¸įà¸« à¸²à¸Ĥà¸Ńà¸ĩ
Ġà¸Ĥà¸Ńà¸ļ à¸ŀà¸£à¸°à¸Ħ
à¸Ĥ à¸Ńà¸¢
à¸ļà¸Ńà¸ģ à¸ķ
sp ring
à¸ĩà¸« à¸²à¸ģ
g a
ann el
à¸²à¹Ĥ à¸ķ
à¸į à¸¡
Ġâ ĸ
ic al
à¸Ļ à¸«à¸§
Ġf an
à¹Ħ à¸ľ
à¸²à¸Ħ à¸ļà¸ģ
à¸ªà¸¡ à¸£
à¸§à¸Ļ à¸Ĥ
à¸Ļà¹Ģà¸ģ à¸¢
à¸Ĺ à¸Ń
à¹ģà¸Ľà¸¥ à¸§
à¸Ĥà¸²à¸¢ à¸ķ
à¸¢ à¸ģà¸¥
à¸Ħà¸²à¸Ķ à¸«à¸§
à¸Ĺà¸²à¸ĩ à¸Ĭ
à¹Ģà¸¥à¸Ĥ à¸²à¸ĺ
à¸Ļà¹Ģà¸Ĥ à¸²à¸ģ
à¸Ļà¹Ģà¸ģ à¸¥
à¸Ķà¸ķ à¸¥à¸Ńà¸Ķ
à¸ĩ à¹ĥà¸Ħà¸£
à¹Ħà¸«à¸Ļ à¸¡à¸²
iv ers
Ġà¸ŀ à¸Ńà¸£
watch v
à¹Ģà¸Īà¸Ń à¸«à¸Ļ
à¸Ļà¹Ĥ à¸į
à¹Ģ à¸Ńà¸¡
à¸¢à¸¡ à¸§
à¸¢à¸Ļ à¸Ľ
à¸ĩà¸ª à¸ķ
à¸ģà¸© à¸²à¹Ģà¸£
à¸²à¸į à¸Īà¸Ļ
Ġà¸Ń à¸¥
à¸²à¹Ģà¸ª à¸¡à¸Ń
à¸Ĥà¸§ à¸²
à¸ľà¸¡ à¹Ģà¸Ĥ
Ġà¹Ħà¸Ľ à¸¢
Ġth at
à¹ĥà¸Ļ à¸ķà¸¥à¸²à¸Ķ
Ġà¸ī à¸°à¸Ļ
am ily
à¸Ļ à¸ĺà¸£à¸£à¸¡à¸Ĭà¸²à¸ķ
à¸Ķ à¹ģà¸£à¸ģ
à¸²à¸¡ à¸²à¸«
à¸ªà¸¡ à¸²à¸£
à¸ģ à¸ļà¸£
à¹Ģà¸§à¸¥ à¸²à¸§
Ġh igh
à¸Ħ à¸ĩ
à¸¨à¸²à¸¥ à¸£
à¸Ļà¸¡à¸² à¹ĥà¸«
c ont
à¸Ķ à¸²à¸§à¸Ļ
à¹Ħà¸Ľ à¸Ħà¸£
à¸° à¸«à¸Ļ
Ġà¹ģà¸Ľà¸¥ à¸§
à¸²à¸ŀ à¹Ģà¸Ī
à¸¢à¸ĩ à¸Ń
Ġà¹ģà¸ļà¸ļ à¸Ĺ
Ġà¹ģ à¸ļà¸ķ
Ġto y
à¸Ļà¸Ħ à¸ķ
à¸ĩà¸¡ à¸²à¸Ĺ
à¹Ĥà¸Ľà¸£ à¹Ģà¸Ī
à¹ģ à¸ļà¸Ħ
à¸Ķ à¸¢à¸²à¸§
à¸ľà¸¡ à¸Īà¸°
à¸ģà¸²à¸£ à¸ķà¸£à¸§à¸Ī
ic t
à¹ģ à¸Łà¸£
à¸§à¸¢à¸ķà¸Ńà¸ļ à¸«à¸Ļ
Ġà¹Ģà¸£à¸² à¹ĥà¸Ĭ
à¸ªà¸²à¸« à¸ģ
à¸Ńà¸¢ à¹ģà¸Ħ
w ard
à¹Ĥ à¸Ĩà¸©
à¸Ļ à¹Ħà¸Ĥ
à¸²à¸Ļà¸§à¸Ļ à¸Ļ
r or
à¹Ģà¸ļ à¸²à¸°
à¸§ à¸Ħà¸Ļ
à¸Ļà¸¡ à¸Ļ
à¸²à¸ł à¸²à¸©
à¸Ļà¸ª à¸§à¸¢
Ġà¸Īà¸° à¸Ĭ
à¸²à¸ĩà¸²à¸Ļ à¹Ħà¸¡
à¸ĩà¸Ĥ à¸Ļà¸²à¸Ķà¸Ļ
Ġà¸ļ à¸Ńà¸¥
à¸²à¸¢ à¸Ńà¸Ķ
à¸²à¸§ à¹ĥà¸«
à¸Ļ à¸¯
Ġc ent
à¸Ńà¸ĩ à¸«à¸¢
av el
Ġsp eed
à¸¢à¸Ļ à¹ģà¸ļà¸ļ
à¸²à¸ķà¸Ńà¸ļ à¸§
à¸¡ à¸ī
à¸²à¸ĩ à¹ģà¸Ĺ
Ġn e
à¹Ĩ à¸Ħ
Ġà¹ĥà¸Ħà¸£ à¸ģ
à¹Ģà¸Ń à¸²à¸Ħ
k ap
à¸£à¸²à¸¢ à¸§
Ġà¹ģà¸¥à¸° à¸«à¸¥
à¸§ à¹Ģà¸ĩ
à¸ĸà¸²à¸¡ à¸Ħ
** *
à¹Ĥà¸Ľà¸£ à¹Ĥà¸¡à¸Ĺ
à¸ĩ à¹ģà¸Ĥ
à¹Ģà¸Ĥ à¸²à¸ļà¸Ńà¸ģ
à¸Ĭ à¸Ľ
à¸ģ à¹ĥà¸ª
à¸²à¹ģ à¸Ńà¸ļ
à¸¡à¸²à¸Ľ à¸£
à¸²à¸Ļà¸ģ à¸²à¹ģà¸Ł
Ġà¸ª à¸ĸà¸²à¸ļ
à¸Ń à¹Ģà¸ŀà¸£à¸²à¸°
à¸Ķ à¹Ħà¸«à¸¡
Ġà¹ģà¸¥à¸° à¹Ģà¸Ī
à¹Ģà¸ĭ à¸Ļà¸ķ
Ġà¹Ģà¸¥ à¸¢à¸¡
Ġbe aut
Ġw in
il d
à¹ģ à¸§à¸£
à¹Ħà¸«à¸Ļ à¸Ħ
Ġ à¸¢à¸ģà¹Ģà¸¥
à¸²à¹ģ à¸ļ
à¸§ à¸²à¸Ĺ
à¸Ļà¹ģ à¸Ī
à¸²à¹Ħà¸Ľ à¸«
Ġ à¸£à¸²à¸¨
à¸ģà¸²à¸£ à¹Ģà¸Ńà¸ĩ
Ġà¸ŀ à¸Ńà¸ķ
à¸Ł à¸ģ
à¸ķà¸£ à¸Ķ
Ġà¹Ĥà¸Ķà¸¢ à¹Ģà¸Ľ
à¸ľà¸¥ à¸ģ
od y
à¸Ļ à¸Ŀà¸²à¸ģ
à¸²à¸Ħ à¸¡à¸Ĺ
à¸Ń à¹Ģà¸«à¸¥
à¸į à¸ŀ
Ġh onda
à¸ļà¸Ħà¸§à¸²à¸¡ à¹Ģà¸ª
Ġà¹Ħ à¸®
w h
8 3
à¹Ģà¸£ à¸²à¸Ĭ
à¸ķà¸£ à¸Ľà¸£à¸°à¸Ĭà¸²à¸Ĭ
Ġà¹Ģà¸£à¸² à¹Ģà¸Ħà¸¢
Ġà¸ķà¸Ńà¸Ļ à¹ģà¸£à¸ģà¸ģ
à¸£ à¸²à¸ģ
à¸²à¸Ļ à¹ĥà¸«à¸¡
à¸ŀ à¹Ģà¸ŀ
à¸Ļà¸Ķà¸²à¸¥ à¹ĥà¸Ī
à¸Ĥà¸¢à¸²à¸¢ à¸ķ
à¸ĩà¸«à¸¡à¸Ķ à¸Ļ
à¹ģà¸Ľà¸¥ à¸ģà¹Ĩ
à¸ļ à¸Ħà¸¥
à¸ģ à¹Ģà¸ŀà¸£à¸²à¸°
à¸²à¸Īà¸° à¸Ļ
a id
s en
à¸ª à¹Ħà¸Ķ
à¸²à¸£à¸§à¸Ī à¸ł
à¹Ĥà¸£à¸Ħ à¸ķ
Ġà¸ªà¸ĸà¸²à¸Ļ à¸ģà¸²à¸£à¸ĵ
à¸Ł à¸¥
à¸²à¸Ļ à¹Ģà¸ª
à¸¢à¸Ļ à¸«
Ġà¸Ĺ à¸°à¹Ģà¸¥
à¸¥à¸° à¸ķ
à¸Ńà¸Ħ à¸Ńà¸¢
à¸Ń à¸Ńà¸¡à¸ª
Ġl og
à¹ģà¸Ī à¸ģ
9 4
à¹Ģ à¸Ńà¸°
Ġ4 1
à¸¡ à¸ªà¸£
Ġd o
à¸ģà¸£à¸£à¸¡ à¸Ĺ
à¸ģà¸²à¸£ à¹ģà¸ªà¸Ķ
à¸Ķ à¸Ńà¸ģà¹Ģà¸ļ
à¸Ńà¸°à¹Ħà¸£ à¸Ļ
à¸¢à¸ĩ à¸¡
à¸§à¸ģ à¸£à¸°
n y
9 1
à¸Ńà¸¢à¸²à¸ģ à¸ģ
à¸° à¹Ģà¸Ĭ
à¸ı à¸Ĳ
à¸²à¹Ħà¸Ľ à¸ĭ
à¹ī âĢĭ
ðŁĻ ı
Ġà¸Ĥ à¸Ńà¸§
à¸ª à¸«
Ġf ir
à¸²à¸Ĺ à¸°à¹Ģà¸¥
m p
Ġà¹Ħà¸Ľ à¹ģà¸¥
Ġt w
à¸ŀà¸§à¸ģ à¸Ħ
à¸ļ à¹ģà¸£à¸ģ
à¸¢ à¸Ķà¸ª
à¸Ńà¸°à¹Ħà¸£ à¸ķ
Ġà¸ŀà¸Ń à¹Ħà¸Ķ
Ġa b
à¸£à¸Ńà¸ļ à¸ķ
à¹Ħà¸Ľ à¸«à¸Ļ
à¹ģà¸ľ à¸Ļà¸ģ
à¸§à¸¡ à¸Ķ
à¸«à¸²à¸¢ à¸²à¸ģ
g o
à¸¨ à¸Ĺ
à¸§ à¹Ħà¸Ĺà¸¢
à¸Ļ à¸Ńà¸£
à¸²à¸Ļ à¹Ģà¸¥à¸Ĥà¸Ĺ
Ġ18 0
à¸Ń à¸Ħà¸°
Ġp ay
à¸²à¸§ à¹ģà¸¥
Ġà¸ģ à¸£à¸°à¸ļ
à¸²à¸£à¸§à¸Ī à¸Ĺ
Ġf ull
app y
à¸ģ à¸ł
à¸Ńà¸Ļ à¸ĺ
à¹ĥà¸Ļ à¸Ńà¸Ķ
à¹Ĥà¸£ à¸Īà¸Ļ
à¸Ńà¸ĩ à¸ģà¸£
à¸²à¹Ĥ à¸Ħ
à¸²à¸£à¸° à¸«à¸Ļ
à¸ģ à¸«à¸į
à¸¡ à¸ļà¸Ńà¸ģ
à¸ĩà¸ªà¸Ńà¸ĩ à¸Ŀ
à¸¨ à¸Ļà¸Ħà¸ķ
à¸Ħà¸£ à¸ĩà¸²à¸Ļ
à¸²à¸Ĥ à¸Ļà¸²à¸Ķ
à¸ŀà¸£à¸°à¸£à¸²à¸Ĭ à¸ļ
à¹Ģà¸¡ à¸Ńà¸£
st er
Ġà¸Ń à¸ł
Ġà¸ļ à¸¥à¸²
à¸ĩà¸Ĥà¸Ńà¸ĩ à¸Ĺ
à¹Ħà¸ŀà¸£ à¸ª
à¸ķ à¹Ģà¸ŀ
', '
à¹Ħà¸£ à¸ģ
à¹ģ à¸Ħà¸Ļ
à¸²à¸Ńà¸²à¸ģà¸²à¸¨ à¸¢à¸²à¸Ļ
l azada
à¸Ńà¸ģ à¸¡
à¸Ńà¸¢à¸²à¸ģ à¸Ńà¸¢
l l
à¸¡ à¹Ģà¸Ń
à¸²à¸¢ à¸ģà¸¥
à¸ļ à¹ģà¸ļà¸ļ
à¹ģà¸¥à¸° à¹ĥà¸«
à¸²à¸Ļà¸²à¸Ļ à¹ģà¸¥
à¹Ģà¸ŀà¸¨ à¸ª
Ġem ail
à¹ģà¸£ à¸ĩà¸¡à¸²à¸ģ
à¹ģà¸¥à¸° à¹Ħà¸Ķ
à¸²à¸ĩ à¸Ŀ
ĠðŁ ĨĶ
à¸Ľà¸£à¸°à¹Ĥà¸¢ à¸Ħ
ĠðŁ ¤
à¸Īà¸° à¸ļà¸Ńà¸ģà¸§
Ġà¸Ħà¸§à¸²à¸¡ à¸Īà¸£
Ġà¹ģ à¸ļà¸£à¸Ļà¸Ķ
à¸Ńà¸Ļ à¹ģà¸£à¸ģ
Ġà¹Ģà¸ŀà¸£à¸²à¸° à¸ŀ
à¸²à¹Ħà¸Ľ à¸£
Ġe v
à¸²à¸¢ à¸²à¸Ĺ
i am
Ġà¸ŀà¸§à¸ģ à¸Ļ
à¸ªà¸¡ à¸¡
Ġà¹ģà¸ŀ à¸Ĺà¸¢
à¸ĸ à¸²à¸Ľ
à¹ģ à¸§à¸Ķà¸¥
à¸§à¸ĩ à¹Ģà¸¢
à¸¡à¸² à¹Ģà¸¢
Ġp o
à¸§à¸ĩ à¸«
à¹Ĥ à¸ģà¸Ļ
à¸ļà¸¡ à¸²à¸Īà¸²à¸ģ
Ġà¸ģ à¸ŀ
à¸Ļà¸ģà¸¥ à¸²à¸¢à¹Ģà¸Ľ
à¸ķà¸²à¸¡ à¸ķ
à¸Ńà¸°à¹Ħà¸£ à¹Ģà¸ģ
à¸Ķ à¸Ľà¸²à¸ģ
à¸¡ à¸¥à¸ĩ
Ġre s
Ġà¸Ļ à¸²à¸ĩà¸ģ
8 6
à¸Ńà¸°à¹Ħà¸£ à¸Ħ
Ġà¹ģà¸¥à¸° à¸Ļà¸²à¸¢
à¸ķà¸£à¸²à¸Ķ à¸Ńà¸ģà¹Ģà¸ļ
à¸£ à¸Ļ
à¸Īà¸° à¸ªà¸£
i el
à¸ĩà¸¡ à¸²à¸Īà¸²à¸ģ
Ġà¸ľà¸¡ à¹Ģà¸«
à¹ģà¸Ł à¸Ļà¸Ĺ
à¸£à¸¡ à¸²à¸Ļ
à¹Ģà¸Ļ à¸Ĭ
à¸¡à¸ķ à¸°à¸§
à¸Ń à¸Ĭà¸²à¸ķ
à¸²à¸ĩ à¹Ħà¸ģà¸¥
à¸¢à¸§ à¸ĭ
à¸Ļà¹ģ à¸¢
à¸Ļà¸ķ à¸¥à¸²à¸Ķ
à¸¢à¸Ĭ à¸Ļà¸°
à¸§ à¹Ħà¸Ľà¸Ĺ
à¸į à¸Ī
à¹Ħà¸«à¸Ļ à¹Ħà¸¡
à¸²à¹Ħà¸£ à¸ģ
à¸Ķ à¹Ħà¸Ĺà¸¢
Ġ à¸łà¸²à¸¢à¸«à¸¥
à¸Ń à¹Ĥ
à¸²à¸¢ à¸«à¸į
5 4
à¸ģ à¹Ħ
à¹Ģà¸«à¸¡à¸²à¸°à¸ªà¸¡ à¸ģ
à¸ķà¸£ à¸łà¸²à¸ŀ
à¸²à¸§ à¸Īà¸£
à¸ļ à¹ĥà¸«à¸¡
Ġ4 7
i q
m in
Ġà¸ª à¹Ĥà¸¡à¸ªà¸£
à¸ŀ à¸ģ
Ġ à¸Ľà¸£à¸°à¸ªà¸ļà¸ģà¸²à¸£à¸ĵ
Ġp ark
à¹Ģà¸£à¸² à¹Ģà¸Ńà¸ĩ
à¹Ģà¸Ń à¸²à¸ľ
Ġà¸ļ à¸§à¸ģà¸ģ
à¸¥ à¸²à¸¡
à¸²à¹ĥà¸Ī à¹Ħà¸Ķ
à¸Ķà¸Ĥ à¸§à¸²à¸ĩ
Ġc ap
à¹Ģà¸Ĭ à¸ªà¹Ģà¸ķà¸Ńà¸£
à¸²à¹ĥà¸Ī à¸Ķ
à¸²à¸ķà¸²à¸¡ à¸Ĺ
à¸²à¸ĩ à¹Ģà¸«
à¹ĥà¸Ī à¹Ħà¸¡
à¸«à¸¡ à¸§à¸ģ
à¸ĩà¹Ħà¸ĩ à¸ĸ
à¸ķà¸²à¸¡ à¸Ħ
à¸Ń à¸²à¸ļà¸Ļ
Ġà¸Īà¸° à¸Ļ
à¸Ńà¸²à¸į à¸²
Ġs ec
à¸²à¸¡ à¸«à¸²à¸¥
Ġmin i
Ġs ol
à¸Ńà¸ª à¸Ļ
ag es
Ġà¹Ħà¸Ľ à¸ķ
à¸Ļà¸Ħà¸Ļ à¸Ĭà¸Ńà¸ļ
u ch
à¸Ńà¸Ńà¸ģ à¸ķ
à¸²à¹Ģà¸£ à¸²à¸Ĭà¸Ńà¸ļ
à¸²à¸ª à¸²à¹Ģà¸«à¸ķ
à¸ļà¸£à¸£ à¸¥
à¸ĵ à¸Ķ
Ġcom p
à¸ĩ à¹Ģà¸Ńà¸ĩ
à¸Ļà¹Ħà¸Ľ à¸ĸ
à¸ĩà¸ģà¸²à¸£ à¸Ĺ
5555 555
à¸¡à¸° à¹Ģà¸£
Ġcl ass
à¸ĩà¸£à¸ĸ à¹Ħà¸Ł
à¸¢ à¹Ģà¸¥à¸¢
à¸ľà¸¡ à¸ģà¸¥
à¸Ńà¸ģà¸²à¸£ à¸£
à¸Ńà¸²à¸Ī à¹Ģà¸Ľ
à¸Īà¸ģà¸£à¸£à¸¡ à¸Ĺ
à¸Ķ à¸Ńà¸°à¹Ħà¸£à¸ģ
à¹Ģà¸£ à¸¢
Ġs un
à¹Ħà¸Ľ à¹Ģà¸Ķ
on line
on s
Ġà¹ģà¸ĸ à¸§
à¸¢ à¸ľ
Ġà¹Ģà¸ª à¸²à¸£
Ġb angkok
à¸¢à¸§ à¹Ģà¸¥à¸¢
à¸Ĺ à¸Ńà¸Ķ
à¸ĩà¹Ĩ à¹ģà¸¥
à¸§à¸¢ à¹Ģà¸¥à¸¢
er a
ðŁĴ Ľ
à¹ģ à¸§à¸§
à¸ªà¸Ńà¸ļ à¹Ģà¸Ĥ
à¸ĩà¹Ĩ à¸Ħ
à¸²à¸Ħà¸§à¸²à¸¡ à¸ª
à¸²à¸Ī à¸²à¸£à¸¢
à¸²à¸ ı
à¸Ļà¹Ĥ à¸ĭ
Ġà¸ģà¸²à¸£ à¸ŀ
à¸²à¹Ģà¸Ĥ à¸²à¸¡
à¸ģà¸²à¸£ à¹ģà¸ŀà¸£
à¸Ļà¹ĥà¸Ļ à¸Ľ
à¸²à¸§ à¸ľ
kap ook
spring news
s k
Ġg old
à¸²à¸Ļà¸§à¸Ļ à¹Ģà¸ĩ
à¸Ńà¸ĩà¸£ à¸²à¸§à¸Ĺ
ðŁĴķ ðŁĴķ
à¹Ĥà¸Ķà¸¢ à¸£à¸§à¸¡
à¸²à¹Ħà¸Ľ à¹Ģà¸£
à¹ĥ à¸ļà¸Ļ
p m
Ġà¸Ĺ à¸Ńà¸ĩ
à¹ĥà¸Ļ à¹Ģà¸Ĥà¸ķ
00 00
à¸Ńà¸Ń à¸²à¸«à¸²à¸£
à¸ĩ à¸łà¸²à¸¢à¹ĥà¸Ļ
à¸¢à¸Ļ à¸¢
à¸Ļ à¸Ľà¸£à¸°à¹Ģà¸Ķ
à¸ĩà¸ģà¸²à¸£ à¹ĥà¸«
Ġà¸Īà¸° à¸ŀ
à¸ª à¸Ħ
======== ========
à¸ģà¹Ģà¸ª à¸ļ
Ġc ode
ar in
t ain
à¸Ļà¸¥ à¸ĩà¸Ĺ
à¸² à¹Ĥà¸¡
à¸Ļ à¹Ģà¸¢à¸Ńà¸°à¸¡à¸²à¸ģ
à¸ģ à¸łà¸²à¸Ħ
à¸ļ à¹Ĥ
n ew
à¸Ļ à¹Ģà¸§à¸Ĺ
à¸ª à¸Ń
à¸Ļà¸Ķ à¸²
Ġ20 13
à¸§ à¹ĥà¸ª
à¸Ńà¸Ļ à¸¡à¸²
Ġà¸ģà¸²à¸£ à¸Ķ
à¸«à¸¥à¸²à¸¢ à¸£à¸Ńà¸ļ
à¸Ļà¹ĥà¸Ļ à¸ª
à¸ĩ à¸¡à¸²à¸ģà¸ģà¸§
à¸²à¸ģà¸²à¸£ à¸ª
à¸²à¸ł à¸²à¸¢à¹ĥà¸Ļ
à¸£à¸ĸ à¸Ħ
à¸Ńà¸¢ à¸Ľ
à¸²à¸«à¸£ à¸Ńà¸ģ
à¹Ģà¸Ĥ à¸²à¸Ń
à¸²à¸Ļà¸Ļ à¸Ńà¸ģ
à¸Ńà¹Ħà¸Ľ à¸ĸ
à¸ĩà¸¡ à¸²à¸£
f in
à¸²à¹Ħà¸Ľ à¸Ńà¸¢
Ġà¸Ī à¸Ńà¸Ķ
à¸Ńà¸¡ à¸Ĭ
à¸Ħà¸¥ à¸²à¸ª
Ġà¹Ĥ à¸Ļ
ast er
Ġà¹Ħà¸Ľ à¸£
à¸Ńà¸°à¹Ħà¸£ à¸Ħà¸°
à¸ģà¸²à¸£ à¸Łà¸£
à¸²à¸Ħà¸§à¸²à¸¡ à¹Ģà¸Ĥ
Ġà¸Ńà¸¢à¸²à¸ģ à¹Ģà¸£
à¸¡ à¸²à¸Ħà¸£
Ġà¸Īà¸° à¸Ī
à¸Ńà¸¢ à¸ģà¸¥
à¸«à¸¥à¸²à¸¢ à¸£
à¸ļ à¸¡à¸²à¸ļ
à¸¥ à¹Ģà¸ģ
n er
à¹Ģà¸£ à¸²à¸ĭ
Ġà¹Ģà¸ī à¸ŀà¸²à¸°
à¸ģà¹Ģà¸ķ à¸°à¸Ĺ
Ġà¸ļà¸²à¸Ĺ à¸Ħ
à¸Ńà¸¡ à¹Ħà¸¡
Ġà¹Ģà¸Ī à¸£
à¸²à¹ģ à¸£à¸ģ
à¹ģà¸ŀ à¸Ĺ
à¸łà¸²à¸ŀ à¸Ļ
à¸²à¸ĩ à¹Ģà¸Ĺ
à¸ļà¸Īà¸²à¸ģ à¸Ħà¸Ļà¸£
d o
à¹Ĥ à¸Ĥà¸Ĺ
à¸Ń à¹ģà¸Ļà¸°à¸Ļ
if t
Ġf ree
à¸¡à¸« à¸²à¸ģ
Ġ( )
Ġ4 6
à¸¢à¸ĩ à¸ľ
à¹ģ à¸ī
ĠâĿ¤ ï¸ı
à¸Ĥà¸Ń à¹Ģà¸Ľ
à¸ģà¸²à¸£ à¹ģà¸ŀà¸Ĺà¸¢
à¸§à¸Ļ à¹Ĩ
à¸ªà¸¡ à¸£à¸ª
à¸Ħà¸Ļ à¹Ģà¸Ľ
à¸Ĭà¸²à¸¢ à¸ģ
à¹Ģà¸Ļ à¸ķ
Ġs r
Ġ4 3
à¸¢ à¸ĭ
Ġ9 9
à¸²à¸ľ à¸¡à¸ģ
à¸²à¸ĩà¸²à¸Ļ à¸«à¸Ļ
tha ir
à¸ľà¸¡ à¹Ħà¸Ľ
à¸²à¸Ļà¸Ķ à¸Ńà¸¥à¸¥à¸²à¸£
Ġà¸¢ à¸²à¸ģ
à¸Ń à¸¥à¸ĩ
Ġà¸Ĺà¸²à¸ĩ à¸Ĭ
à¸ľà¸¡ à¸«à¸Ļ
à¸Ķ à¹ģà¸ģ
à¸¢à¸ĩ à¹Ħà¸Ķ
à¸Ńà¸Ńà¸ģ à¸Ĺ
à¸¡à¸²à¸Ļ à¸²à¸Ļà¹ģà¸¥
à¸ĩ à¹ĥà¸Ļà¸ģà¸²à¸£
à¸²à¸Ĥà¸Ńà¸ĩ à¸ķ
à¸Ń à¸Ńà¸£
à¸Ķ à¸Ľà¸¥
Ġà¹Ģà¸Ń à¸²à¸¡
à¸§ à¹Ģà¸«à¸¥
Ġmark et
à¸§à¸ĩ à¸Ķ
à¸ģà¸Ħà¸Ļ à¸£
Ġà¸Ļà¸²à¸¢ à¸ªà¸¡
Ġà¹Ģà¸Ĥ à¸²à¸Ĺ
à¸«à¸¡à¸Ķ à¸Ńà¸²à¸¢
Ġà¸Ńà¸¢à¸²à¸ģ à¹Ģà¸Ľ
Ġj apan
à¸ŀ à¹Ģà¸£
à¸²à¹Ħà¸Ľ à¸Ĭ
Ġà¸ª à¸¡à¸¡
à¹Ģà¸£à¸² à¹Ģà¸Ķ
Ġà¹Ģà¸ŀà¸£à¸²à¸° à¸ģ
à¸¥à¸²à¸Ķ à¸ŀà¸£
Ġà¹ģà¸Ĺ à¸Ļà¸Ĺ
à¸Ń à¹Ģà¸ķà¸£
à¸«à¸¥à¸²à¸¢ à¸ª
à¸²à¸¡ à¸¡
à¸²à¸Ľà¸£à¸°à¹Ģà¸Ĺà¸¨ à¹Ħà¸Ĺà¸¢
à¸Ķ à¸ŀà¸£
à¹Ĥà¸¢ à¸Ĭà¸Ļ
Ġà¹ģ à¸Ĭà¸¡à¸Ľ
à¸ŀà¸£à¸£à¸ĵ à¸ļ
Ġà¹ģà¸¡à¸Ļ à¸¯
Ġà¸ª à¸¢à¸²à¸¡
à¸¢à¸Ńà¸Ķ à¸Ĥà¸²à¸¢
à¸ľà¸¡ à¹Ģà¸¥à¸¢
à¸ĩ à¹Ģà¸¥à¸¢à¸Ħ
Ġb ook
à¸Ħà¸£ à¸ļà¸Ĺ
à¸µà¹ī ...
à¸²à¸¢ à¸Ħà¸¥
à¸²à¸ĺ à¸²à¸£à¸ĵà¸°
à¸Īà¸° à¹ģà¸ģ
à¸Ļà¸²à¸Ļ à¸²à¸Ĭà¸²à¸ķ
à¹Ģà¸Ħà¸¢ à¸ª
à¹Ģà¸§à¸¥ à¸²à¸Ħ
à¸Ńà¸Ļ à¸Īà¸°à¸¡
à¸Ń à¹Ģà¸ļ
à¸ļ à¹Ģà¸ķ
Ġwh ite
à¸Ħà¸£ à¸Ńà¸ļà¸Ħà¸¥
Ġà¹Ģà¸¡ à¸¢
¹ ĵ
à ¹ĵ
à¸Ļà¹Ĥ à¸Ħ
à¸ł à¸²à¸§
à¸§à¹Ģà¸Ńà¸ĩ à¸Ńà¸¢
com ment
à¹ĥ à¸ļà¸Ĥ
à¸Ĥà¸Ńà¸ĩ à¹Ģà¸ŀ
Ġà¸ŀà¸£à¸° à¸£à¸²à¸Ĭ
à¸¡ à¸«à¸¡
à¸²à¸¢ à¹Ģà¸ģ
à¸ĩ à¹ģà¸ļà¸ļà¸Ļ
Ġà¸Ħà¸Ļ à¸ģ
à¹Ħà¸«à¸¡ à¸§
à¸²à¸¢ à¸²à¸§
à¸²à¹Ħà¸Ľ à¹Ģà¸Ĺ
à¸µ ...
à¸Ļà¸¡ à¸²à¸¡
à¹ģà¸¥à¸° à¸ļ
à¸Ńà¸¡ à¹Ħà¸Ķ
à¸²à¸ĩ à¸£à¸²à¸¢à¹Ħà¸Ķ
Ġà¸ªà¸¡ à¸²à¸Ħà¸¡
ag ue
Ġà¸ľà¸¡ à¸Ħà¸§à¸£à¸Ĺ
Ġà¸Ĭ à¸²à¸ķ
à¸ļà¹Ħà¸Ľ à¹ģà¸¥
à¸ªà¸²à¸§ à¹Ĩ
Ġà¹Ģà¸ŀ à¸Ī
à¸Ńà¸Ļ à¸Īà¸²à¸ģ
à¸Ļà¹ĥà¸Ļ à¸ŀ
à¸ľà¸¡ à¸Ĭà¸Ńà¸ļ
à¸²à¸£ à¸²à¸¢à¹Ħà¸Ķ
à¹Ĥà¸Ĺà¸£ à¹Ģà¸Ĥ
Ġà¸ªà¸²à¸¡à¸²à¸£à¸ĸ à¸Ĺ
à¸Ńà¸¢ à¹Ģà¸Ń
à¸Ľà¸£à¸°à¸¡ à¸§à¸¥
à¸Ńà¸° à¹Ħà¸«à¸¥
Ġà¹Ħ à¸ģ
1 000
Ġà¹Ģà¸ŀà¸£à¸²à¸° à¹Ģà¸Ħ
à¸ľà¸¥ à¸Ķ
à¸Ńà¸ĩ à¸Ľà¸¥
à¸¢à¸ĩ à¸Ī
à¸ĩ à¹Ĥà¸£à¸ĩà¸ŀà¸¢à¸²à¸ļà¸²à¸¥
à¸Ļ à¹Ģà¸Ł
ðŁĴĹ ðŁĴĹ
à¸Ħ à¸Ńà¸£
à¸Ľ à¸¥à¸ĩ
à¹Ģà¸Ń à¸Ń
Ġà¸Ħ à¸Ńà¸£
à¹Ħà¸£ à¸ĩ
Ġà¸Ħà¸Ļ à¸¥à¸°
à¸ģà¸§ à¸²à¸Ķ
à¹ĥà¸ļ à¹Ģà¸ªà¸£
à¸«à¸²à¸£ à¸²à¸Ĭ
à¹ģà¸¥ à¸ģ
à¸«à¸¥ à¸²à¸ļ
Ġ en
à¸ĩà¸£ à¸§à¸¡
à¸ļà¸ģà¸²à¸£ à¸Ī
i er
à¸« à¸²à¹Ħà¸¡
à¸²à¸§ à¹Ģà¸Ĺ
à¸ªà¸²à¸£ à¸ŀ
à¹ģà¸ľ à¸Ļà¸ģà¸²à¸£
à¸Ĵà¸Ļ à¸²à¸ķ
à¸į à¹ĥà¸«
à¸Ķ à¸®
à¸§à¸Ļ à¸Ī
à¹Ģà¸¢à¸²à¸§ à¸Ĭ
à¸ĩà¸Īà¸° à¸Ķ
à¸ģ à¹Ģà¸Ĥà¸²
à¹ģà¸¡ à¸Ļà¸ķ
à¹Ģà¸¡ à¸Ĩ
à¸Ľà¸£à¸°à¸Ĭà¸²à¸Ĭ à¸²à¸ķ
à¸į à¸²à¸ģà¸£à¸£à¸¡
Ġà¸Ķ à¸Ńà¸¥à¸¥à¸²à¸£
à¸ĩà¸Ħ à¸¡à¸Ĺ
à¸Ħ à¸²à¸¢
à¸ļ à¹ģ
Ġà¸ļà¸²à¸ĩ à¸Ħà¸Ļà¸ģ
à¸ŀ à¸į
à¹Ĥà¸Ķà¸¢ à¹Ģà¸£
à¸§ à¹Ģà¸ŀà¸£à¸²à¸°
à¸²à¸§ à¸Ńà¸¢
5 3
à¸§à¸Ļ à¸ģà¸¥
à¸§à¸¢ à¸Ńà¸£
à¸ģà¸© à¸²à¸ģà¸²à¸£
à¸ģà¸© à¸²à¸¡
à¸ŀà¸Ń à¹ģà¸¥
à¸² à¹Ģà¸ķà¸Ńà¸£
à¸ģà¸Ĺà¸£ à¸Ńà¸Ļ
à¹ĥà¸Ħà¸£ à¸ª
Ġb ar
à¹Ģà¸¡ à¸ķà¸ķ
à¹Ģà¸§à¸¥ à¸²à¸Ńà¸¢
Ġà¹Ģà¸Ń à¸²à¹Ģà¸Ľ
à¹ī ...
à¸Ń à¸ŀà¸£
à¸Ķ à¸Ħà¸§à¸²à¸¡à¸£
Ġv ia
à¸ĵ à¸«à¸į
Ġà¸ľà¸¡ à¹Ģà¸£
à¹Ģà¸Ķ à¸Ĭà¸Ļ
Ġà¸ŀ à¸ļà¸ģ
à¸Ńà¸ª à¸ķ
à¸£ à¸§à¸ļà¸£à¸§à¸¡
Ġà¹Ģà¸£ à¸²à¹Ģà¸Ĥ
Ġà¸¡ à¸Ńà¸ĩ
à¸ĩà¸ª à¸§à¸¢
à¸¡à¸Ħà¸£ à¸Ńà¸ĩ
à¸Ļ à¹ĥà¸ģà¸¥
à¸ģà¸Ļ à¸²à¸Ļ
à¸Ĺà¸²à¸ĩ à¹Ģà¸ŀà¸¨
à¸§ à¹Ĥà¸Ķ
à¸²à¸¡ à¸ķ
à¸£à¸°à¸¢à¸° à¸Ĺà¸²à¸ĩ
à¸¢à¹ĥà¸Ī à¸¡à¸²à¸ģ
à¸Ļ à¸¨à¸²à¸¥
Ġà¹Ģà¸Ń à¸²
Ġà¹Ħà¸Ľ à¸ĸ
à¸Ļà¸Ń à¸¥
à¸Ń à¸ŀà¸£à¸°
à¸Ńà¸¡ à¸Ľ
Ġ5 2
Ġà¸ľà¸¡ à¸Īà¸°
à¸Ńà¸Ļ à¹ĥà¸Ĭ
à¸ĺ à¸Ļà¸ļ
Ġà¹ģà¸¡à¸Ļ à¹Ģà¸Ĭà¸ªà¹Ģà¸ķà¸Ńà¸£
à¹ĥ à¸Ķà¸ģ
Ġhot el
Ġà¹Ģà¸§ à¸Ńà¸£
à¸Ļà¸Ħà¸£ à¸Ńà¸ļà¸Ħà¸£
ich on
à¹Ģà¸§à¸¥ à¸²à¸ª
à¸ŀà¸£à¸°à¸£à¸²à¸Ĭ à¸ŀ
à¸ļ à¸ŀà¸£
à¸Ļà¸Ĥ à¸²à¸Ķ
à¸įà¸« à¸²à¸¡
Ġr out
à¸²à¹Ģà¸Ĥ à¸²à¸ģ
Ġà¸ŀ à¸Ħ
à¸¢ à¸ļà¸ª
à¹ģà¸Ĺ à¸ļà¸Ĺ
Ġà¸ľà¸¥ à¸ĩà¸²à¸Ļ
Ġp ost
à¸¢à¸¡ à¸Ħà¸§à¸²à¸¡à¸ŀà¸£
à¸ķà¸¢ à¸ªà¸²à¸£
sh ip
à¸§ à¸²à¸Ļ
Ġà¸¡ à¸²à¸Ļ
Ġb o
à¸ķà¸Ń à¸²à¸ª
à¹Ģà¹Ģà¸ļ à¸ļ
g oogle
à¸Ħà¸§à¸²à¸¡ à¸Ĺà¸£à¸ĩà¸Ī
à¹ģà¸Łà¸Ļ à¹ĥà¸«à¸¡
Ġà¸£ à¸Ńà¸ĩà¸£
à¸ªà¸£à¸£à¸ŀ à¸ª
à¸ĵ à¸¡à¸²à¸ģà¹Ĩ
à¸²à¸ĩ à¸¥à¸°à¹Ģà¸Ń
à¸Ķà¸²à¸£ à¸²
à¸§à¸¡ à¸ª
à¸ĸà¸²à¸¡ à¸Ĺ
à¹Ģà¸§à¸¥ à¸²à¸ľ
à¸ĵ à¸¢à¸²à¸¢
à¸²à¸Ļà¸§à¸Ļ à¸ľ
ðŁĺĤ ðŁĺĤ
à¸§ à¸Ł
à¸§à¸ĩ à¸Ĭ
à¸Ĭ à¸£à¸²à¸ł
à¸Ļà¸ª à¸ĸà¸²à¸Ļà¸Ĺ
à¸ªà¸Ńà¸ĩ à¸Ħà¸Ļ
Ġà¹Ģà¸ī à¸¥
à¸ªà¸Ľ à¸Ńà¸£
f b
à¸ļ à¸£à¸°à¸ļà¸ļ
à¸§ à¸Ķà¸Ĺ
à¸ģà¸²à¸£ à¹Ģà¸ŀ
Ġà¸Ļà¸²à¸¢ à¸Ī
à¸¥à¸Ńà¸Ķ à¸ł
à¸§ à¸Ľà¸¥
à¸Ļà¸Ļ à¸Ļ
à¸§à¸¢ à¹Ħà¸Ĺà¸¢
à¹Ģà¸Ĥ à¸²à¹Ģà¸£
os ition
à¸§ à¹ģà¸ļà¸ļà¸Ļ
Ġà¸Ļ à¸²à¸¡
à¸¢à¸¡ à¸ŀà¸£
à¸Ķ à¹Ģà¸ŀà¸£à¸²à¸°
Ġà¹Ģà¸¥à¸¢à¸Ńà¸¢à¸²à¸ģ à¸Ĺà¸£à¸²à¸ļà¸§
Ġcol lection
à¸ļà¸Ńà¸ģ à¹Ħà¸Ķ
Ġus b
ot e
à¸Ńà¸Ļ à¸ł
à¸Ńà¸Ń à¸Ł
à¹ģà¸Ļà¸§ à¸£
à¸ļà¹Ħà¸Ľ à¸Ķ
Ġf e
Ġg ood
Ġt our
Ġà¸Ĥ à¸§à¸Ķ
Ġà¸¢à¸ģ à¸ķ
à¸Ĳà¸ļà¸²à¸¥ à¸Ĺ
à¸§à¸Ķ à¸¡à¸Ļà¸ķ
Ġà¹Ģà¸£ à¸²à¸ŀà¸¢à¸²à¸¢à¸²à¸¡
à¸²à¸¡ à¸²à¸Ńà¸¢
à¸Ķ à¸£à¸°à¹Ģà¸ļ
à¸Ħà¸£ à¸¡
à¸ĩà¹ĥà¸Ļ à¸Ļ
à¸Ńà¸ļ à¸Ļ
à¸ļà¸Ħ à¸Ķ
à¹Ģà¸Ħ à¸¢à¸ģ
Ġp ack
à¸¡à¸² à¹ģà¸ķ
Ġo k
Ġà¹ģ à¸Ĭà¸¡à¹Ģà¸Ľ
Ġà¹ģà¸¥à¸° à¹Ģà¸Ĥ
à¸¡ à¸¡à¸²à¸ģà¸Ĥ
à¸²à¸ķ à¸Ńà¸ļà¸Ħ
Ġà¹Ģà¸£à¸² à¹Ģà¸«
oth er
à¸ķ à¹ĥà¸Ļ
à¸Ńà¸Ļ à¸ķà¸Ńà¸Ļ
Ġ à¹Ģà¸Ńà¸ģà¸ªà¸²à¸£
7 6
à¸Ńà¸Ļà¹Ģà¸¡ à¸©
à¸ĵ à¸Ī
Ġ à¸¤à¸Ķ
ðŁİ ī
à¸¥à¹Ģà¸¥ à¸Ńà¸£
à¸§à¸Ļ à¹ĥà¸«
à¸Ĥà¸Ńà¸ĩ à¹Ģà¸ĺà¸Ń
ðŁĳ Ļ
à¸ŀ à¸²à¸Ĺ
à¸ļà¸Ħà¸§à¸²à¸¡ à¸Ļ
à¸²à¸ģà¸£à¸° à¹Ģà¸Ľ
à¸įà¸« à¸²à¸Ķ
lo ad
à¸² à¹Ĥà¸£à¸ĩà¹Ģà¸£
à¸Ļà¸ķà¸Ļ à¸²à¸ģà¸²à¸£
à¸ķà¸ķ à¸²à¸Ļ
à¸ļ à¸ŀà¸£à¸°
c d
à¸Ĥà¸Ńà¸ĩ à¸Ļà¸²à¸¢
à¹Ĥà¸ŀ à¸ģ
à¸¢à¸ĩ à¹ĥà¸«
Ġ à¸ĺà¸Ļ
à¸Ńà¸Ħ à¸ķ
à¸įà¸į à¸²à¸ķà¸£
¹ Ķ
à¸Ļ à¸Łà¸£
à¹Ĥà¸Ķà¸¢ à¸ª
## ##
à¸Ķ à¸ķà¸£
à¹Ģà¸§à¸¥ à¸²à¹Ħà¸¡
7 2
à¸Ļ à¸«à¸į
Ġà¸Ħ à¸Ńà¸Ļ
à¹ĥà¸Ħà¸£ à¹Ħà¸¡
an y
à¸²à¸Ń à¸²à¸ĩ
Ġà¸Ľà¸£à¸°à¸¡à¸²à¸ĵ à¸§
à¸Ńà¸¢ à¸«
à¸ĩà¹ĥà¸Ļ à¸§
Ġst e
à¹ģà¸¥ à¸ģà¹Ģà¸Ľà¸¥
à¸ģà¸²à¸£ à¹ģà¸Ī
à¸² à¹Ħà¸Łà¸Ł
à¸¡à¸²à¸ģ à¹Ģà¸ģ
à¸²à¸¢ à¹Ģà¸¥à¸¢
à¸į à¸Īà¸£
à¹ĥà¸Ļ à¸ļà¸£
Ġà¹Ģà¸§à¸¥ à¸²à¸Ļ
à¸¢à¸§ à¹Ģà¸Ĺ
à¸¢à¸²à¸§ à¸Ļà¸²à¸Ļ
oo t
à¸Ļà¸ķ à¸Ńà¸Ļà¸Ĺ
à¸Ń à¸Ńà¸¡
Ġ if
à¸Ńà¸¢ à¸ĭ
à¸²à¸ķ à¸²à¸ģ
à¹Ħà¸Ł à¸Ĺ
à¸ģà¸²à¸£ à¸ķà¸£à¸§à¸Īà¸ªà¸Ńà¸ļ
Ġà¸Ł à¸Ńà¸£
à ¹Ķ
à¸Ľà¸£à¸° à¸Ħ
à¸Ķ à¸¥à¸°
à¸Īà¸° à¸Ľà¸£
à¸Ńà¸ĩ à¸£à¸°à¸§
à¹Ĥ à¸Ħà¸Ļ
à¸Ńà¸²à¸Ī à¸Īà¸°à¹Ģà¸Ľ
m on
le y
à¹Ģà¸ķ à¸¢
à¹Ģà¸§à¸¥ à¸²à¸Ń
à¸Ńà¸Ļ à¹ģà¸¡
à¸ªà¸¥ à¸²à¸¡
n ey
à¸Ĥà¸Ńà¸ĩ à¸ģà¸¥
Ġg irl
à¸ģà¹Ģà¸ģ à¸ĵà¸ĳ
à¸ĩà¸Ĭ à¸Ļà¸°à¹Ģà¸¥
à¸Īà¸²à¸ģ à¸ģ
à¸ł à¸²à¸ľ
p n
Ġà¹ģà¸¥à¸° à¹Ģà¸£à¸²à¸ģ
Ġf ace
à¸Ńà¸Ńà¸ģ à¸Ńà¸²à¸ģà¸²à¸¨
à¸ļ à¸ģà¸£
à¹ģà¸Ĺ à¸Ļà¸Ĺ
à¸ĩà¹Ħ à¸ĩà¹Ħà¸¡
à¸²à¸¢ à¹ģà¸¥à¸°
ang e
à¸ģà¸© à¸²à¸§
à¸²à¹ĥà¸Ī à¸Ħ
à¹Ģà¸Ī à¸Ńà¸Ħ
à¸Ľà¸£à¸°à¹Ģà¸Ĺà¸¨ à¸Ī
d er
à¸Ħà¸§à¸²à¸¡ à¸Ĥ
à¸¢à¸§ à¸°
à¸²à¹ģ à¸ĭ
à¸Ń à¸Ńà¸ªà¹Ģà¸ķà¸£à¹Ģà¸¥
à¸ĩ à¸Ńà¸Ļ
à¹Ģà¸¢à¸Ńà¸° à¹Ĩ
Ġà¹Ĥà¸Ķà¸¢ à¸ģ
Ġà¸¥ à¸Ńà¸ĩà¸Ķ
Ġ à¸ĺà¸£à¸£à¸¡
9 8
Ġà¸ļ à¸²à¸ĩà¸§
à¸Ķà¹Ģà¸Ī à¸Ļà¸§
Ġà¸Īà¸²à¸ģ à¹Ģà¸Ķ
à¸Ńà¸ĩà¸Īà¸²à¸ģ à¹Ģà¸Ľ
à¸²à¸Ļà¸Ľ à¸Ńà¸Ļà¸Ķ
à¸ļ à¸²à¸Ķ
à¸²à¸Ļ à¸ģà¸¥
à¸ŀ à¸²à¸ª
à¸Ńà¸ĩà¸£ à¸Ń
Ġà¸¨ à¸ŀ
à¸ªà¸²à¸¡à¸²à¸£à¸ĸ à¸Ī
à¸§à¸Ļ à¸Ĭ
à¸ĩà¸Ħ à¸ĩà¹Ģà¸Ľ
à¸Ļà¸Ĥ à¸Ļà¸²à¸Ķà¸Ļ
à¸£ à¸Ńà¸ĩ
^ ^
em ent
à¹ĥà¸Ļà¸ģà¸²à¸£ à¸ª
à¸ļ à¹Ĥà¸Ĺà¸£à¸¨
Ġpre mi
à¹Ģà¸¥à¸¢ à¸¢
à¸²à¹Ĥ à¸ģ
Ġb ag
à¸ĵà¸łà¸²à¸ŀ à¸Ķ
ky o
Ġà¸ª à¸°à¸Ķà¸§à¸ģ
à¹Ĥà¸«à¸¥ à¸Ķà¹Ģà¸ŀ
à¸Ļà¸¥ à¸¡
à¸¢à¸Ļ à¸Ħà¸£
à¸Ļà¸Ķ à¸²à¸£
à¸ªà¸²à¸Ĥ à¸²
à¹ģà¸Ī à¸ĩ
à¸Īà¸²à¸ģ à¸Ħ
Ġà¸ľà¸¡ à¸ª
Ġbl ock
à¸¢ à¸Īà¸£
à¹Ģà¸¡ à¸¢
à¹ĥà¸Ļ à¸ªà¸¡
à¸§à¸¢à¸ļà¸Ńà¸ģ à¸Ĺ
à¸ģ à¹Ģà¸«
à¸²à¸¡ à¸²à¸¢
à¸Ļà¹Ħ à¸ª
à¸ĩà¹ģ à¸Ļà¸§
Ġà¸Īà¸° à¸Ħ
à¹ģà¸Łà¸Ļ à¹Ģà¸Ľ
à¹Ģà¸£ à¸²à¸¡à¸²à¸ģ
à¸²à¹Ģà¸Ķ à¸¥
à¹Ģà¸¥à¸¢ à¸¥
à¹ģà¸Łà¸Ļ à¸Ńà¸¢
à¸²à¸Ńà¸°à¹Ħà¸£ à¸ļ
à¸ķà¸²à¸¡ à¹ĥà¸Ī
ðŁĳ Ī
à¸įà¸į à¸²à¸Ĺ
à¸ģà¸²à¸£ à¹ģà¸ķ
à¸¢à¸Ļ à¸łà¸²à¸©
Ġà¸£à¸Ńà¸ĩà¸Ļ à¸²à¸¢à¸ģà¸£
à¸Ļà¸Ħà¸§à¸²à¸¡ à¸ľ
Ġ er
à¸Ļ à¹ģà¸£à¸ģà¸Ĺ
Ġà¸ľà¸¡ à¸Ĭà¸Ńà¸ļ
Ġà¸Ńà¸Ńà¸ģ à¸ģ
Ġà¸ªà¸²à¸¡à¸²à¸£à¸ĸ à¹ĥà¸Ĭ
à¸²à¸« à¸²à¸¢
à¹Ĥ à¸ģà¸¥
à¹Ħ à¸ģà¸£
ar i
à¹Ģà¸£ à¸ķà¸ķ
à¸²à¸£à¸§à¸Ī à¹ģà¸«
nation tv
ab y
à¸²à¸Ļ à¸Ńà¸ĩà¸Ļ
à¸«à¸²à¸Ķ à¹ĥà¸«à¸į
à¸Ĺ à¹Ĥà¸Łà¸Ļ
à¸£à¸© à¸°
à¸Ĵ à¸Ļà¸°
à¹Ģ à¹Ģà¸«
à¸ļà¸ķ à¸Ńà¸Ļà¸Ļ
à¹Ĥà¸ĭ à¸Ļ
à¸® à¸²à¸£
à¸Ĭ à¸ģ
à¸Ń à¸ĸà¸²à¸¡
à¸Ń à¹Ĥà¸Ħà¸§
à¸¢ à¸Ļà¸°
à¸¥à¸Ńà¸ĩ à¹ĥà¸Ĭ
à¸ĩà¸Īà¸° à¸£
re et
à¸Īà¸²à¸ģ à¸Ĭ
à¸Ńà¸Ń à¹Ģà¸Ķà¸Ńà¸£
à¸§ à¸«à¸¡
à¹Ģà¸¨à¸© à¸Ĺ
à¸Ńà¸ĩà¸Ĺà¸²à¸ĩ à¹ĥà¸Ļà¸ģà¸²à¸£à¸ķ
à¸ª à¸ªà¸²à¸§
à¸ļ à¸¥à¸Ķ
à¸Ľà¸£ à¸²à¸¢
Ġà¹Ģà¸ŀà¸£à¸²à¸° à¸ģà¸¥
à¸Ķ à¸ªà¸¡
à¸²à¸¬ à¸ª
à¸Ńà¸ĩà¸¡ à¸²à¸Īà¸²à¸ģ
à¸ŀ à¸£à¸¡
at ive
à¹ģà¸Łà¸Ļ à¹Ģà¸£à¸²
Ġs ub
à¹Ģà¸Ń à¸²à¹Ģà¸£
à¸łà¸²à¸ŀ à¸£à¸§à¸¡
à¹ģà¸ļà¸ļ à¸ķ
à¸Ńà¸Ńà¸ģ à¹Ģà¸Ķ
à¸¡à¸²à¸ģ à¸ª
à¸ľà¸¡ à¸ŀ
à¸Ĺ à¸Ħ
à¹ģà¸ªà¸Ķ à¸ĩà¹ĥà¸«
à¸ľà¸¡ à¹Ģà¸«
Ġl ike
à¸Ńà¸ĩ à¹ģà¸Ī
à¸§ à¸ķà¸Ńà¸Ļ
c ovid
à¸§à¸£ à¸²à¸Ħ
à¸Ńà¸ļ à¸ģ
à¹Ħà¸Ľ à¸Ĺà¸²à¸ĩ
Ġ9 5
à¹Ħà¸Ł à¹ģà¸Ļà¸Ļà¸ĭ
à¸Ļ à¸¢à¸Ļà¸ķ
à¸§à¹Ģà¸£à¸² à¹Ģà¸Ńà¸ĩ
Ġà¹Ģà¸£ à¸²à¸Ń
à¸§à¸¡à¸ĩà¸²à¸Ļ à¸ģ
à¸´ âĢĿ
Ķ ï¸ı
à¸Ļ à¹Ģà¸Ńà¸ģà¸ªà¸²à¸£
à¸Ļà¸ª à¸ĸà¸²à¸Ļ
Ġà¸£à¸ĸ à¸¢à¸Ļà¸ķ
à¹ģà¸¥à¸° à¸«
à¸ĩà¹ĥà¸Ī à¸ģ
à¸²à¸ł à¸£à¸ĵ
à¸ķ à¸Łà¸Ńà¸£
Ġst r
à¹Ģà¸§à¸¥ à¸²à¸Ļà¸²à¸Ļ
à¹Ģà¸Ħà¸¢ à¸Ń
à¹Ĥà¸« à¸Ķ
à¸Ļà¸Ħà¸£ à¸£à¸²à¸Ĭà¸ª
Ġp ar
à¸Ĭà¸²à¸§ à¹Ħà¸Ĺà¸¢
à¹Ģà¸¥à¸¢ à¸«à¸£
Ġ à¸Ħà¸§à¸ļà¸Ħ
à¸§ à¸ļà¸Ńà¸ģ
th ai
à¸²à¸Ħ à¸Ļà¹Ģà¸Ķ
Ġà¹Ģà¸¨à¸£à¸©à¸Ĳ à¸ģ
à¸§à¸¡ à¸ŀ
à¸§ à¹Ģà¸Ĥà¸²
à¸Ń à¸²à¸¥
à¹Ģà¸§à¸ĵ à¸«à¸Ļ
à¸Ľà¸£à¸°à¸¡à¸²à¸ĵ à¹Ģà¸Ĺ
à¸²à¸²à¸²à¸² à¸²
à¸Ķ à¸Ľà¸£
à¸ĩà¸ķà¸Ńà¸ļ à¹ģà¸Ĺà¸Ļ
à¸²à¸ļ à¸²à¸ĩ
à¸²à¹ģ à¸ļà¸£à¸Ļà¸Ķ
à¸Ļà¸Ń à¸²à¸Ĭ
à¸¢ à¸ł
Ġà¸Ńà¸²à¸Ī à¸Īà¸°à¸¡
Ġà¸Ħà¸Ļ à¸ª
Ġà¹Ģà¸¨ à¸£
à¸Ńà¸¢ à¹Ģà¸Ĭ
Ġà¸¡ à¸²à¹ĥà¸Ĭ
à¸«à¸¥à¸²à¸¢ à¹Ģà¸£
à¸Ħ à¸ĩà¹Ģà¸Ľ
à¸Ĳ à¸Ľà¸£à¸°à¸«à¸²à¸£
s up
à¸ŀà¸¢ à¸ŀ
p age
à¸Ļà¸Ĭ à¸²à¸§
à¸ĩà¹ģ à¸¢à¸ģ
à¸Ĥà¸łà¸²à¸ŀ à¸Ķ
à¸Ľà¸¥ à¸²
Ġà¸Ĺ à¸£à¸²à¸ļ
à¹Ģà¸Ń à¸²à¸Ļ
Ġà¹Ģà¸Ń à¸Ń
à¸£à¸ĸ à¹Ģà¸ģ
Ġk n
Ġà¹Ģà¸ŀà¸£à¸²à¸° à¸Ķ
à¹Ģà¸Ńà¸² à¹Ģà¸Ńà¸ĩ
à¸²à¸Ķ à¸«à¸§
à¸²à¸Ľà¸£à¸°à¸ª à¸ļà¸ģà¸²à¸£à¸ĵ
à¸¢à¸§ à¸ŀ
Ġ ----------------------------------------------------------------
à¸Ńà¸Ħà¸§à¸²à¸¡ à¸ª
à¸¢à¸ĩ à¸ŀ
à¸Ĺà¸£ à¸£à¸¨
à¸Īà¸° à¸Ĭà¸Ńà¸ļ
Ġà¸Ĥ à¸Ńà¹Ģà¸Ľ
ic a
à¸ģà¸© à¸²à¹ģà¸¥à¸°
Ġn ation
à¹ĥà¸ļ à¹Ħà¸¡
à¸Ńà¸Ļ à¸ģà¸£
à¸ļ à¸§à¸ģ
Ġ ~
à¸Ńà¸ĩà¸¡ à¸²à¸Ĺ
à¸ªà¸° à¹Ģà¸ģà¸©
à¸Ńà¸ĩ à¸ī
Ġà¹Ĥ à¸ģ
à¸Ľà¸¥à¸²à¸¢ à¹Ģà¸Ķ
à¸¢à¸Ļ à¸ļà¸Ĺ
à¸ķà¸¥à¸²à¸Ķ à¸Ļ
à¸Ńà¸¢à¸²à¸ģ à¸Ĺà¸£à¸²à¸ļ
à¸¢ à¸ĺà¸£à¸£à¸¡
à¸ķ à¸²à¸ģ
Ġn ight
Ġà¸¡ à¸Ńà¸ļ
Ġmar gin
Ġà¸ŀà¸£à¸° à¸Ńà¸ĩà¸Ħ
à¸¡à¸²à¸Ŀ à¸²à¸ģ
à¸Ńà¸ĩ à¹ĥà¸Ī
à¸²à¸¡ à¸ŀà¸¥à¸²à¸Ķ
à¸Ńà¸Ħà¸§à¸²à¸¡ à¸§
à¸²à¸ľà¸¡ à¹Ģà¸Ľ
à¸¥à¸ĩ à¸Ļà¸²à¸¡
à¸ŀà¸£à¸£à¸Ħ à¸Ľà¸£à¸°à¸Ĭà¸²à¸ĺ
Ġà¸ķ à¸²à¸¢
Ġà¹ĥà¸Ļ à¸ķ
Ġà¹Ħà¸Ľ à¸«
à¸Ńà¸ĩ à¹ģà¸Ħ
à¸Ńà¸ĩà¸« à¸²
à¸ĩà¸ĩ à¸ĩ
à¹ģ à¸ļà¸£
ĠðŁ į
à¸§à¸¢ à¸Ńà¸¢
à¸ļ à¹ģà¸Ĥ
à¹Į ...
à¸²à¸Ĭ à¸¡
Ġà¹Ģà¸Ĥ à¸²à¸¢
Ġà¸¡ à¸²à¹ģà¸Ĭà¸£
à¸Ļà¸ģà¸²à¸£ à¸Ķ
à¸² à¹Ģà¸¥à¸¢à¸Ħ
à¸ĩ à¸¡à¸²à¹ĥà¸«
à¸²à¹Ħà¸Ľ à¹Ħà¸Ķ
Ġà¹Ģà¸§à¸¥ à¸²à¸¡
à¸Ħ à¸²à¸¡
p ost
Ġs w
à¸Ńà¸ĩ à¸Ľà¸£à¸°à¸Ķ
Ġà¹ĥà¸Ļ à¸Ī
Ġà¸« à¸Ńà¸¡
w are
Ġà¹Ģà¸¥à¸Ĥ à¸Ĺ
Ġp op
à¸Ħ à¸Ńà¸¥
à¹Ħà¸Ľ à¹Ģà¸Īà¸Ń
à¸²à¸ĩ à¹Ģà¸£à¸²
à¸įà¸« à¸²à¸ķ
à¸ªà¸Ļ à¸ĺ
à¸Ĥà¸²à¸¢ à¸Ķ
à¹Ĥ à¸¡à¸Ļ
à¸ģà¸ªà¸Ļ à¸²à¸Ļ
Ġe y
à¸Ķ à¸ł
Ġ ot
à¹ĥà¸Ļ à¸§à¸ĩ
à¸ģà¸£ à¸ŀà¸£
à¸ĩà¸ģ à¸°
à¸²à¸ģà¸²à¸£ à¸£
à¸²à¹Ģà¸£ à¸²à¸¢
à¸Ķà¸ª à¸£
à¸Ļà¹Ħ à¸ģ
à¸Ńà¸¡ à¸«à¸Ļ
à¸ª à¸ĩà¸ģà¸£à¸²à¸Ļà¸ķ
à¸¢à¸²à¸ģ à¸¡à¸²à¸ģ
à¸²à¸«à¸¥à¸²à¸¢ à¸Ľ
à¸ļà¸Ľ à¸²à¸ģ
à¸¥ à¸Ĥà¸Ńà¸ĩ
à¸ļà¸ģà¸²à¸£ à¹Ģà¸¥
Ġ à¹Ħà¸«à¸¡
Ġ à¸Ńà¸°à¹Ħà¸£à¸ģ
Ġà¹Ĥ à¸Ľ
Ġà¸Ńà¸¢à¸²à¸ģ à¹Ģà¸«
Ġch o
m s
à¸Ķà¸ķ à¸¥à¸²à¸Ķ
à¸ĩà¹ĥà¸Ļ à¸ª
à¸Ķ à¸ģà¸£à¸°à¸Ĺà¸£à¸§à¸ĩ
Ġà¹ģà¸¥à¸° à¸Ńà¸¢
à¸ĸà¸²à¸¡ à¹Ģà¸£
à¸²à¸ķ à¸²à¹Ħà¸«à¸¥
id th
à¸ļà¸ľà¸¥à¸ģà¸£à¸°à¸Ĺ à¸ļà¸Īà¸²à¸ģ
Ġm od
à¸²à¸§ à¸Īà¸²à¸ģ
à¸Ńà¸Ļ à¸Ħà¸¥à¸²à¸¢
Ġà¸ģà¸²à¸£ à¸ģ
à¸£à¸ĵ à¸£à¸ĩà¸Ħ
ha os
à¸Ńà¸¡ à¸Ĥ
Ġà¹Ĥ à¸¥à¸ģ
à¸ĩà¸ģà¸¥ à¸²à¸ĩ
ag on
ä ¸
à¸Ĺà¸²à¸ĩà¸ģà¸²à¸£ à¹Ģà¸ĩ
à¸²à¸Ĥà¸Ńà¸ĩ à¸ģ
à¸§à¸¡ à¹Ģà¸Ľ
Ġch r
à¸²à¹Ĥ à¸Ļ
tt y
à¸ļ à¸Īà¸£
à¸Ńà¸°à¹Ħà¸£ à¸Ń
ig ital
à¹į à¹ī
à¸¢ à¸Īà¸²à¸ģ
Ġà¹ĥà¸Ļ à¹Ģà¸Ķ
à¸£à¸§à¸¡ à¸ķ
à¸Ńà¸ĩ à¹Ģà¸£à¸²
Ġà¹Ģà¸£ à¸²à¸ļà¸Ńà¸ģ
à¸ª à¸²à¸Ħà¸£
à¸Ķ à¸Ľà¸£à¸°à¸Ĭ
Ġà¸ŀ à¸Ńà¸ģ
à¸²à¸Īà¸° à¸Ĥ
à¸²à¸Ķ à¸²
à¸²à¸£à¸° à¹Ģà¸ļ
Ġà¸«à¸²à¸¢ à¹Ħà¸§
à¸¥à¸¢ à¸ģà¸£à¸£à¸¡
à¸²à¸Ł à¸£
à¸Ķ à¸«à¸¡
Ġc up
Ġà¹ģà¸Łà¸Ļ à¹Ģà¸ģ
Ġà¸« à¸²à¸¢à¹Ħà¸Ľ
à¸¡à¸² à¹Ģà¸Ĥ
à¸ŀ à¸ŀ
à¸£à¸Ńà¸ļ à¸Ļ
à¸ŀà¸Ń à¹ĥà¸Ĭ
ol y
à¹ĥà¸Ļ à¸Ħà¸¥
Ġto kyo
à¸Ļ à¹Ģà¸ļà¸Ńà¸£
Ġse ason
à¹ģ à¸ģà¸ģ
tt er
à¹Ģà¸ļ à¸£à¸Ħ
à¸£à¸° à¸¢
à¸¢à¸Ļ à¹Ģà¸ŀ
à¸«à¸¡à¸²à¸¢ à¹Ģà¸«à¸ķ
à¸Ļ à¸«à¸£à¸Ńà¸ģ
Ġà¸¡à¸²à¸Ķ à¸£
à¸¢à¸Ļ à¹Ģà¸Ħà¸£
à¸ķà¸²à¸¡ à¸«à¸¥
à¸Ńà¸ĩ à¹Ģà¸Ħà¸£
à¹ĥà¸Ļ à¸ģà¸£à¸ĵ
à¸Ļà¸¢ à¸²à¸Ħ
le x
Ń Ĳ
à¸Ńà¸°à¹Ħà¸£ à¸ª
Ġwal let
Ġà¹ģà¸¥à¸° à¹Ģà¸ª
à¹Ģà¸Ĥ à¸²à¸ĸ
à¸° à¹Ģà¸ŀà¸£à¸²à¸°
à¸ģà¸²à¸¥ à¸Ļ
à¸Ńà¸ĩà¸Ļ à¸Ńà¸ģ
à¸ľ à¸Ļ
à¸Ļà¸Ļ à¸²à¸ĩ
à¹ģà¸¥à¸° à¸ĸ
Ġ0 5
Ġà¹ģ à¸«à¸¡
Ġmus ic
à¸ĩà¹Ħà¸Ľ à¹ģà¸¥
à¸ª à¸Ľà¸£
à¹Ģà¸Ļ à¸¢
à¸¡à¸²à¸ Ł
à¸²à¸ª à¸Ńà¸ļ
Ġa ut
à¸²à¸Ī à¸Ńà¸Ķ
à¸Īà¸° à¹Ģà¸Ĭ
à¸²à¸ĩà¸²à¸Ļ à¹ĥà¸«
Ġà¸« à¸²à¸ĭ
Ġ0 1
à¸ĩ à¸Ľà¸£à¸°à¸ķ
à¸¢à¸ģ à¸Ĭ
Ġ5 4
à¸¡à¸²à¸ĵ à¸Ļ
à¸¢à¸ģ à¸¡
à¸ªà¹Ĥà¸Ħà¹Ĥà¸£ à¸Ļ
à¸ļà¸ģà¸§ à¸Ļà¸Ĺ
à¸ģà¸²à¸£ à¹Ģà¸ª
à¸Ķ à¸²à¸Ļ
à¹ĥà¸Ļ à¸ģà¸£à¸°à¸Ĺ
à¸ģà¸© à¸²à¸«à¸Ļ
Ġà¸Ĥà¸Ńà¸ĩ à¸§
à¸¡à¸«à¸²à¸Ķ à¹Ħà¸Ĺà¸¢
à¸Ńà¸Ńà¸ģ à¸Ħ
à¸ľ à¸į
à¸Ļà¹Ĥ à¸Ńà¸ģà¸²à¸ª
à¸Ļ à¸¡à¸²à¸ĸ
à¸ªà¸²à¸¡à¸²à¸£à¸ĸ à¸ª
à¸Ħà¸£ à¸£à¸ł
in ter
et ail
à¸²à¸¡ à¸²à¸Ļ
ï¸ıâ ļ«
à¹Ħ à¸Ĺà¸£
Ġh ow
Ġà¸Ńà¸²à¸Ī à¸Īà¸°à¹Ģà¸Ľ
Ġà¸Ńà¸²à¸Ī à¹Ģà¸Ľ
â ĸ
à¸²à¸ķ à¸ģ
à¸Ļ à¸Ńà¸°
à¸ķ à¸«à¸£
à¸§à¸¢ à¸ĸ
à¸Ī à¸Ļà¹Ģà¸ģ
à¸ķ à¸ŀ
à¸Ļà¸Ľ à¸ı
à¸²à¸Ń à¸ĺ
à¸ķà¸²à¸¡ à¸ģ
à¸ļà¸ķ à¸²
Ġ à¸§à¸ĩà¸¨
à¸²à¸¢ à¸²
à¸¢à¸ĩ à¹Ģà¸Ľ
ðŁĳ ľ
à¸²à¹Ħà¸¡ à¸Ħ
à¸Ļ à¹Ħà¸«à¸¡à¸Ħà¸°
à¸ģà¸£à¸ŀà¸£ à¸£à¸Ķ
à¸Ńà¸ĩ à¸ŀà¸§à¸ģà¸Ļ
à¸²à¸ĩ à¹ĥà¸ª
Ġm obile
à¸° à¸Ńà¸¢
à¸Ńà¸ĩ à¸Ńà¸²à¸«à¸²à¸£
à¸« à¸²à¹Ģà¸ŀ
à¸²à¹ĥà¸Ļ à¸§
Ġà¸Ľ à¸§à¸ª
Ġà¹Ģà¸ŀà¸£à¸²à¸° à¹Ģà¸«
b le
à¸ģà¸²à¸£ à¸Ĥà¸Ńà¸ĩ
à¸« à¸Ń
à¸Ļà¸ģà¸²à¸£ à¸£
Ġ à¸Ńà¸Ļà¸²à¸Ħà¸ķ
Ġà¸Ľ à¸²à¸£
à¸²à¸ģà¸²à¸£ à¸Ī
à¸ŀà¸Ń à¸Īà¸°à¸£
à¸²à¸ĩà¸²à¸Ļ à¹ģà¸¥
à¸²à¸¡ à¸²à¸«à¸²à¸ģ
à¸į à¸¡à¸²à¸ģ
er ry
à¸£à¸²à¸Ĭ à¸Ĺ
Ġà¸ľà¸¡ à¸Ĥà¸Ń
à¸įà¸Ĭ à¸²
à¹ģà¸Ł à¸Ļà¸Ħ
7 3
à¹ģà¸Ł à¸Ļà¸ķ
à¸Ķ à¸ī
à¸Ĺà¸²à¸ĩ à¹Ģà¸Ĥ
Ġà¸ģà¸²à¸£ à¸ļ
Ġà¹Ģà¸ĭ à¸Ńà¸£
l in
à¹Ģ à¹Ģà¸ŀ
n am
Ġà¸ŀà¸£à¸° à¹Ģà¸Ī
à¸Ńà¸Ńà¸ģ à¸§
à¹Ģà¸§ à¸Ľ
à¹Į (
à¸¥ à¸Ĥ
à¸ŀà¸£ à¸«à¸¡
re t
à¸Ļà¹ģ à¸Ļà¸°à¸Ļ
à¸Ħà¸Ļ à¸£à¸Ńà¸ļà¸Ĥ
à¹ģà¸¢à¸ģ à¸ģ
Ġ5 1
à¸²à¹Ĥ à¸Ńà¹Ģà¸Ħ
à¹Ģà¸Ī à¸Ńà¸¡
à¹Ģà¸Ń à¸²à¸Īà¸£
à¸Ńà¸ģ à¹Ģà¸£
à¹Ģà¸§à¸ĵ à¸Ķ
à¸Ļ à¸¡à¸²à¸ļ
à¸Ļ à¹Ĥà¸£
à¸¢ à¸ļà¸Ĺ
à¸įà¸« à¸²à¸¢
Ġà¸¢ à¸Ńà¸¡
af e
à¹ĥà¸Ļ à¸Ĺà¸²à¸ĩ
à¸²à¸£à¸° à¸¢à¸°
à¹ĥà¸Ħà¸£ à¸ķ
à¸ģà¸ķ à¸¥à¸Ńà¸Ķ
à¸ªà¸Ķ à¸Ĭ
à¸Ńà¸¢ à¹Ģà¸¥à¸¢
à¸Ļà¸Ħà¸Ļ à¹Ħà¸Ĺà¸¢
à¹ģà¸£à¸ģ à¸Ħ
Ġà¹Ģà¸Ĥ à¸²à¸Īà¸°
à¸ķà¸Ńà¸ļ à¹Ĥà¸Īà¸Ĺà¸¢
à¸Ĥà¸Ńà¸ĩ à¹ģà¸¡
s d
à¸¡ à¸²à¸ŀà¸£
à¸Ńà¹Ģà¸£ à¸²à¸Ńà¸¢à¸²à¸ģ
à¹ĥà¸Ļ à¸ĭ
Ġà¹ĥà¸Ļ à¸Ń
à¸Ľà¸£à¸° à¹Ģà¸ªà¸£
à¸Ĥà¸Ńà¸ĩ à¸ķà¸Ļà¹Ģà¸Ńà¸ĩ
Ġà¹ģà¸¥à¸° à¸«à¸²à¸ģ
à¸Ļà¸Ńà¸Ļ à¹Ħà¸¡
Ġat m
à¹Ħà¸Ń à¹Ģà¸Ńà¸ª
à¸¡ à¹ģà¸ļà¸ļ
à¸ĭà¸° à¸ĩ
à¸Ļà¸¡ à¸²à¸ķà¸¥à¸Ńà¸Ķ
à¸ĩà¸ķà¸Ńà¸ļà¹ģà¸Ĺà¸Ļ à¹ĥà¸Ļà¸ģà¸²à¸£à¹Ģà¸Ĥ
Ġà¸Ĺ à¸°à¹Ģà¸ļ
à¸Ńà¸Ńà¸ģà¸¡à¸² à¹ģà¸¥
à¸Ī à¸Ńà¸¢
haos od
à¸§ à¸ī
à¸ģà¸£à¸° à¸¢à¸°
à¸§ br
à¸Ńà¸¢à¸²à¸ģ à¹Ģà¸Ĥ
Ġj r
à¹ģà¸¥à¸° à¹Ģà¸£
à¸§à¸Ļ à¸§
Ġf u
Ġà¹ģ à¸Ķ
Ġà¸ľà¸¡ à¹Ģà¸Ĥ
à¸ļ à¸Ńà¸Ķ
à¸¨à¸§ à¸ģà¸£
à¸£à¸²à¸¢à¸ģà¸²à¸£ à¸Ļ
Ġà¸« à¸²à¸Ħ
à¸Ńà¸¢ à¸ľ
à¸ĩà¹ģ à¸ĸ
à¸¥ à¸Ńà¸ĩà¸Ħ
Ġà¹ Ķ
à¸ķà¸¥à¸²à¸Ķ à¸«
nation al
mat ichon
à¸Ļà¸ģà¸²à¸£ à¹ĥà¸Ĭ
im ited
à¹ĥà¸Ļà¸ģà¸²à¸£ à¹Ģà¸Ķ
à¸Ļ à¸īà¸ļ
à¸Ļà¸Ħà¸Ļ à¸«à¸Ļ
à¹Ģà¸Ī à¸Ńà¸Ĺ
à¸ĩà¸Ħà¸¡ à¹Ħà¸Ĺà¸¢
Ġas us
7 4
à¸²à¸Ĥ à¸Ńà¸ĩà¸Ļ
à¸ķ à¸£à¸°à¸ģ
à¸ĩ à¸Ľà¸ģà¸ķ
à¸Ĭ à¸°à¸¥
à¸ĩà¸ľà¸¥à¸ģà¸£à¸°à¸Ĺ à¸ļà¸ķ
à¸ķ à¸£à¸²à¸ª
à¸ģà¸²à¸£ à¹Ģà¸ķ
à¸²à¸Ńà¸°à¹Ħà¸£ à¹ĥà¸«
Ġà¸Ĥà¸Ńà¸ĩ à¹ģà¸Ĺ
à¸Ń à¸«à¸§
à¸¢ à¸«
à¹Ģà¸Ń à¸²à¸ģ
à¸ĩ à¸¨à¸²à¸¥
à¸Ķ à¹Ĥà¸Ĺà¸©
à¸Ļà¸Ħà¸Ļ à¸Ħ
à¸ĩà¸Ĥ à¸²à¸¢
à¸²à¹Ħ à¸Ń
à¸Ńà¸ģ à¹Ģà¸Ľ
à¸ģ à¸Ńà¸ĩ
à¸ĩ à¹Ħà¸Ł
à¸Ĭà¸²à¸¢ à¸«à¸²à¸Ķ
à¹ĥà¸Ļ à¹Ģà¸Ļ
à¹ĥ à¸ļà¸£
Ġà¹ ķ
à¸Ĥ à¸ļà¸§à¸Ļ
à¸²à¹Ĥ à¸ŀà¸ĩ
Ġp an
à¹Ģà¸Ń à¸²à¸£à¸ĸ
à¹ģà¸¥à¸° à¸Ľà¸£
à¸¡ à¹Ģà¸Ļ
Ġ5 3
Ġar t
à¸Ĵà¸Ļ à¸²à¸ª
à¹Ģà¸¢à¸Ńà¸° à¹ģà¸¥
Ġp ort
à¸ª à¸ľ
à¸Ńà¸ĩà¸£ à¸²à¸Ħ
à¸Ńà¸ļ à¸£à¸£
à¹Ĥà¸ģ à¸°
à¹Ħà¸Ľ à¹Ģà¸Ĭ
à¸Ńà¸ĩà¸ģà¸²à¸£ à¸Ħ
à¸ķ à¸Ħà¸£
à¸¡ à¹Ģà¸¢
à¸²à¹Ĥ à¸Ĭ
à¹Ħà¸Ľ à¹Ģà¸Ńà¸ĩ
à¸Ļà¸¡ à¸²à¸Ħ
Ġà¸Ńà¸Ńà¸ģ à¸¡à¸²
à¹ĥà¸Ī à¹Ħà¸Ĺà¸¢
à¸ª à¸ŀ
Ġà¸« à¸²à¸Ķ
ĠðŁ ĩ
à¸ģ à¸Ħà¸°
à¹ģà¸¥ à¸£
à¸²à¸ĭ à¸²à¸ģ
Ġà¸£à¸²à¸Ħ à¸²à¸Ļ
à¸Ńà¸Ķ à¸Ńà¸¥
à¸§à¸ģ à¸£à¸°à¸Ĺ
à¸²à¸¡à¸²à¸ģ à¹Ĩ
à¸Ħà¸Ļ à¸Ĭ
Ġ end
à¸¢à¸Ļ à¸ĸ
à¹ĥà¸Ī à¹Ħà¸Ķ
à¸Ńà¸Ļ à¸°à¸Ħà¸°
à¸¢ à¸²à¸ļà¸²à¸¥
à¹Ģà¸Ħà¸¢ à¸ļà¸Ńà¸ģ
à¹Ģà¸ģ à¸¡à¸Ļ
à¹Ģà¸Ī à¸Ńà¸ª
à¸§à¹Ģà¸Ńà¸ĩ à¸¡
à¸²à¹ĥà¸Ī à¹Ħà¸¡
Ġv ol
Ġà¸ª à¸§à¸Ļ
à¸ĩà¹ĥà¸Ī à¹Ģà¸£
à¹Ī âĢĭ
Ġà¹Ģà¸£ à¸²à¸Ķ
à¸Ńà¸ĩ à¹Ģà¸«à¸¡
r u
à¸Ńà¸ģà¸¥ à¸§à¸ĩ
Ġnot ebook
à¹ģà¸«à¸¥ à¸¡
à¸§à¸¡ à¸ķ
Ġà¸ķà¸¥à¸Ńà¸Ķ à¸Ī
à¸²à¸ĩ à¹Ģà¸ª
à¸Ń à¸Ľà¸£à¸°à¹Ĥà¸¢à¸Ĭà¸Ļ
Ġd el
à¸ĩ à¹Ģà¸£à¸²à¹Ħà¸¡
à¸²à¸Īà¸° à¸ľ
à¸²à¸¡ à¸²à¸ŀ
Ġà¸Ĭ à¸²à¸£
g l
à¸ŀà¸£à¸£à¸Ħ à¸Ńà¸Ļà¸²à¸Ħà¸ķà¹ĥà¸«à¸¡
Ġà¹ģ à¸§
à¸ļ à¸ĺà¸Ļà¸²à¸Ħà¸²à¸£
à¸Ńà¸¢ à¸Ĭà¸Ńà¸ļ
à¸ļà¸Ļ à¸²à¸¢
à¸²à¸Ļ à¸Ļà¸²à¸¢
à¸Ńà¹Ħà¸Ľ à¸¢
Ġà¹ģà¸ªà¸Ļ à¸¥
à¸Ķ à¸Ľà¸£à¸°à¸ªà¸ĩà¸Ħ
âľ Į
à¸Ńà¸ĩ à¸«à¸¥à¸§à¸ĩ
à¹Ģà¸Ĥ à¸²à¹ĥà¸«
à¸Ļà¸Ńà¸Ļ à¸Ħà¸£
à¹Ģà¸¥à¸¢ à¹Ħà¸Ķ
à¸¢à¸Ļ à¹Ħà¸§
à¸ķà¸¥à¸Ńà¸Ķ à¸Ĺ
à¹Ģà¸Ń à¸Ĺ
Ġà¸Ńà¸ĩà¸¨ à¸²
à¸Ļà¸Ħà¸Ļ à¸Ī
à¸§à¸ĩ à¹ĥ
à¸Ĥà¸²à¸¢ à¸ģ
Ġà¹ģà¸¥à¸° à¸ļà¸£
à¸Ļà¸ģà¸²à¸£ à¸¨
Ġà¹Ģà¸ľ à¸¢à¸§
à¹ĥà¸Ħà¸£ à¹Ħà¸Ķ
Ġc am
à¸ªà¹Ĥà¸Ħà¹Ĥà¸£ à¸Ļà¸²
à¹ģ à¸£à¸¡
à¸ļà¹Ģà¸ŀ à¸¥
à¸ģà¸ĩà¸²à¸Ļ à¸Ħà¸ĵà¸°à¸ģà¸£à¸£à¸¡à¸ģà¸²à¸£
à¸Ń à¸ĸà¸²à¸¡à¸§
à¸§ à¹Ģà¸Ħà¸¥
à¸Ńà¸¢ à¸ļ
Ġb ox
Ġà¸¡ à¸²à¹Ģà¸£
it a
à¸ªà¸§à¸¢ à¸¡à¸²à¸ģ
ðŁĴ ļ
à¸²à¸Īà¸° à¸ģ
à¸Ńà¸ª à¸ĭ
Ġm iss
à¸Ńà¸Ńà¸ģ à¸¡à¸²à¸Ķ
Ġ ul
Ġà¸Ľà¸£à¸° à¸§
à¸¨ à¸Īà¸£à¸£à¸¢
Ġà¸ŀà¸Ń à¹Ģà¸Ĥ
à¸¡ à¸Ľà¸£
à¹Ģà¸ĸà¸Ńà¸° à¸Ħà¸£
à¸ŀà¸Ń à¹Ģà¸Ĥ
à¹Ģà¸Ļ à¸²à¸°
à¸Ĭà¸£à¸²à¸ł à¸²
Ġà¸Ńà¸²à¸Ī à¸¡
à¸¡ à¹Ħà¸§
à¹Ĥ à¸ļà¸ªà¸ĸ
re ak
à¸ļà¸ª à¸łà¸²à¸ŀ
Ġà¸Ĥ à¸²à¸§
à¸²à¸Ļ à¹ģà¸¡
25 63
Ġà¸ģà¸²à¸£ à¸Ħ
à¸Ńà¸ĩà¸« à¸²à¸Ĺ
à¸²à¸ĩ à¸ªà¸£à¸£à¸ŀà¸ª
Ġà¹ģ à¸Ļà¸°
al k
à¸Ļà¹ģ à¸ªà¸Ļ
Ġl ife
à¸ļà¸ª à¸²à¸§
Ġop po
Ġà¸ģà¸²à¸£ à¹ģà¸Ĥ
à¸²à¸¡ à¸«
à¸ªà¸²à¸¡à¸²à¸£à¸ĸ à¹Ģà¸¥
à¸ŀ à¸²à¸¥
à¸Ļà¸ªà¸ķà¸²à¹ģ à¸ģà¸£à¸¡
à¸§à¸¢ à¹ģà¸ģ
à¸ĩà¸¢ à¸Ńà¸Ķ
ĠâĢ Ķ
Ġà¹ĥà¸Ļ à¸ĩà¸²à¸Ļ
à¸Ĺ à¸°à¸¥
Ġà¹Ĥà¸Ķà¸¢ à¸Ħ
à¸Ńà¸¢à¸²à¸ģ à¸ķ
à¹Ģà¸Ń à¸²à¸£
à¸ļà¸ªà¸²à¸£ à¸łà¸²à¸ŀ
à¸Īà¸²à¸ģ à¸Ī
à¸¢à¸Ļ à¸ĭ
à¹ģà¸£ à¸ĩà¸Ĺ
à¸ªà¸Ńà¸ļà¸ĸà¸²à¸¡ à¸§
à¸ļà¸£à¸ĸ à¸¢à¸Ļà¸ķ
à¸Ĺà¸ĺ à¸£à¸ĵ
à¸ģ à¸£à¸²à¸Ĭ
à¹Ĥà¸Ķ à¸Ļà¸Ĺ
à¹Ģà¸Ńà¸ĩ à¹Ħà¸¡
à¸Īà¸° à¸Ľà¸¥
Ġà¸ªà¸Ļà¸²à¸¡ à¸ļ
à¸¢à¸§ à¸Ńà¸¢
à¹Ĥà¸Ń à¸ĭà¸²à¸ģ
à¸§à¸¢ à¸ķà¸Ļà¹Ģà¸Ńà¸ĩ
à¸Ł à¸²à¸£
à¸ĩà¸ªà¸Ńà¸ĩ à¸Ħà¸Ļ
à¹Ģà¸ļ à¸Ļà¸ĭ
Ġfir st
à¸Ńà¹Ħà¸Ľ à¸Ń
à¸Ńà¸¢à¸²à¸ģ à¸ģà¸¥
à¸ĩ à¸ķà¸£à¸ĩà¸Ļ
Ġst ud
Ġw ill
à¸Ķ à¸ŀà¸¥
à¸Ĥ à¸ļ
à¸ĩ à¸§à¸Ļ
à¸¢à¸ĩ à¸«
à¸²à¸ĩ à¹Ģà¸«à¸¡
à¸²à¹Ĥ à¸Ĥ
à¸ĩ à¹Ģà¸Ĥà¸²
à¸£à¸²à¸Ħ à¸²à¸ķ
Ġà¸Ħà¸Ļ à¸ķ
à¹ĥà¸Ļà¸Ĥ à¸ĵà¸°à¸Ļ
à¸Ħ à¹ĥà¸«à¸¡
à¸°à¸Ļ à¸²à¸§
à¸Ļà¸Ĺ à¸Ńà¸ĩ
ram e
à¹Ģà¸ŀà¸£à¸²à¸° à¸£
à¸Ļà¹Ħà¸Ľ à¸Ħ
Ġà¸Ĭ à¸¥à¸ļ
à¸Īà¸° à¹Ģà¸ŀ
Ġà¹Ģà¸ģ à¸¡à¸ª
Ġ15 00
Ġb en
à¸« à¸²à¸ĩà¸²à¸Ļ
à¸§à¸Ļ à¸ģà¸¥à¸²à¸ĩ
Ġs ch
à¸£à¸ĸ à¸ļ
à¸Ļà¸²à¸Ļ à¸ģ
ðŁĺ Ń
re ad
à¸£à¸²à¸¢ à¸Ļ
à¸Ńà¸ļ à¸ļ
ar n
à¸ģ à¸Ļà¸°à¸Ħà¸°
à¸Ĭ à¸²à¸Ĺ
à¸ĸ à¸Ńà¸Ļ
à¸ĩà¸Īà¸° à¹Ģà¸Ĥ
à¹ģà¸Ńà¸Ķ à¸¡
à¸£à¸°à¸¢à¸° à¸ª
à¸«à¸¥à¸²à¸¢ à¸ķ
à¸¢à¸§ à¸«à¸£
à¸§à¸²à¸ĩ à¹Ħà¸§
ĠâĿ ¥
à¸«à¸²à¸£ à¸²à¸¢à¹Ħà¸Ķ
à¸ĩ à¸į
Ġà¹Ģà¸£ à¸ķà¸ķ
à¹Ĥà¸Ĩà¸©à¸ĵ à¸²
Ġà¹Ģà¸£ à¸²à¸¥
à¸ģà¸²à¸£ à¹Ģà¸Ĭ
à¸ĩ à¸«à¸¢
à¸ķà¸²à¸¡ à¸Ī
@ @
à¹Ģà¸ĺ à¸Ńà¸ķ
à¸¡ à¸Ħà¸Ļ
à¹Ģà¸§à¸¥ à¸²à¸ŀ
à¸Ļà¸ª à¸ļà¸²à¸¢
à¸°à¹Ģà¸¢ à¸²
à¸¢ à¸Ńà¸Ļ
à¹Ĥà¸¡ à¸ĩà¸Ħ
à¹ģà¸¥ à¸ª
Ġb b
à¹Ģà¸Īà¸Ń à¹ģà¸ķ
ur n
à¸²à¸¡à¸²à¸ģ à¸¡à¸²à¸¢
à¸Ķ à¸ģà¸£à¸°
Ġ .....
s on
à¸° à¸Ļà¸°
à¸Ńà¸ģ à¸Ĥ
Ġà¹Ģà¸Ĺ à¸¨
Ġà¸Īà¸° à¸§
à¸ģà¸© à¸²à¸Ńà¸¢
à¹Ģà¸£à¸² à¹ģà¸¥
Ġà¸£à¸°à¸¢à¸° à¸Ĺà¸²à¸ĩ
Ġà¸Ĺà¸²à¸ĩ à¸Ķ
à¸Ļà¹ĥà¸Ī à¹Ħà¸¡
à¸Ļà¸¡à¸²à¸ģ à¸¡à¸²à¸¢
Ġà¹Ģà¸¥à¸¢ à¸Ħà¸£
à¸²à¸¢ à¹ģà¸ļà¸ļ
Ġà¸ķà¸²à¸¡ à¸¥
à¸Ńà¸ĩ à¹Ģà¸Ļ
à¸Ńà¸Ļ à¹ĥà¸Ħà¸£
Ġà¸Ļà¸²à¸¢ à¸ŀ
à¸²à¹ģà¸« à¸ĩ
à¸¡ à¹Ģà¸Ħà¸£
à¸ķ à¸¨à¸²à¸ªà¸ķà¸£
Ġà¸ŀ à¸Ńà¸§
à¸ľà¸¥ à¸ª
à¸Ń à¸²à¸ª
Ġà¸Īà¸° à¹Ģà¸ģ
à¸ĩà¸Īà¸° à¹Ģà¸£
ph p
à¸Ń à¹Ĥà¸ķ
à¸Ķ à¹ģà¸Ļ
f a
à¸ģ à¸Ľà¸£à¸°à¸Ī
à¹Ģà¸£ à¸²à¸ļà¸Ńà¸ģ
à¸Ļà¹Ħà¸Ľ à¹Ģà¸¥à¸¢
à¸Ļà¸²à¸¡ à¸ªà¸ģ
à¸Ńà¸Ļ à¹ĥà¸«à¸¡
à¸²à¸ĩ à¸Ļà¸°
à¸²à¸¢ à¹Ģà¸Ĺ
à¸Ļà¹Ħà¸ĩ à¸ļ
à¹Ģà¸¥ à¸ª
à¸§à¹Ģà¸Ńà¸ĩ à¸Ħ
Ġ ???
à¸ģà¸²à¸£ à¸Ľà¸¥
à¹ģà¸ŀ à¸ĩà¸ģà¸§
à¸Ļà¸¡ à¸²à¸Ī
Ġm em
Ġe l
à¸Ļà¸ģà¸²à¸£ à¸Ĭ
à¸Ļà¸ģà¸²à¸£ à¹ĥà¸«
à¸Ĺà¸²à¸ĩ à¸Ī
à¸µà¹ī (
à¸§ à¹ģà¸ģ
à¸Ń à¸Īà¸°à¹Ģà¸Ľ
à¸Ī à¹Ģà¸£
à¸Ļ à¸łà¸²à¸©à¸²à¸Ń
à¸ĩà¹ģ à¸ľ
à¸¡à¸²à¸ģ à¹ģà¸ķ
à¸Ļ à¸£à¸°à¹Ģà¸ļ
Ġd own
à¸ģà¸© à¸ĵà¸°à¸Ļ
ĠâĻ ¥
à¸Ńà¸ļ à¸Ľ
à¸¡à¹Ħà¸Ľ à¸«à¸¡à¸Ķ
à¸ģ à¸ī
Ġà¸ģà¸£à¸° à¸Ī
à¸ģ à¸ªà¸¡
à¸ļà¸¡ à¸²à¸Ńà¸¢
à¸Ľ à¸Ħà¸£
à¸° à¸«à¸¡
à¹ģà¸Łà¸Ļ à¸ľà¸¡
à¹ģ à¸ªà¸ķ
à¸¥à¸° à¸ª
Ġà¸§à¸ĩ à¸©
à¸Ķà¸ģà¸²à¸£ à¹ģà¸Ĥ
à¸²à¸¢ à¹ģà¸ķ
à¸Ļà¸Ħ à¸ĩà¹Ħà¸¡
à¸²à¸ª à¸ĩà¸ª
à¸Ħà¸Ļà¹Ħà¸Ĺà¸¢ à¸Ĺ
à¸Ķ à¹Ģà¸ļà¸Ńà¸£
à¸Ķ à¸Ħà¸°
à¸ļ à¸Ħà¸°à¹ģà¸Ļà¸Ļ
à¸Ļ à¸Ľà¸£à¸°à¹Ģà¸Ĺà¸¨
à¹ģ à¸ļà¸ģ
.... ...
à¸Ķà¸²à¸£ à¸²à¹Ģà¸Ķà¸¥
à¸ĩ à¸Ĭà¸Ļ
Ġà¸ŀ à¸Ńà¸Ĺ
Ġà¸Īà¸° à¸Ĥ
Ġv al
________________ ________________
à¸Ĵà¸Ļ à¸²à¸Ĺ
à¸¡ à¹ģà¸£à¸ģ
à¸Ķ à¹ĥà¸Ļà¸Ĭ
à¹ģà¸® à¸Ľà¸Ľ
à¸Ńà¸ĩà¸¡ à¸²à¸Ļ
à¸Ńà¸Ńà¸ģà¸¡à¸² à¹ĥà¸«
â Ĺ
à¸ĩà¸Ĥ à¸ĵà¸°à¸Ļ
Ġser vice
à¸ļà¸¡à¸² à¹ģà¸¥
à¹Į /
à¸ŀà¸Ńà¸Īà¸° à¸Ĺà¸£à¸²à¸ļ
à¸¬ à¸²à¸Ĺ
Ġa ct
à¸Ńà¸Ńà¸ģ à¸¡à¸²à¸ģ
à¹Ģà¸£à¸² à¹Ģà¸ª
à¹Ģà¸¥ à¸Ńà¸£
à¸Ļà¸Ħà¸§à¸²à¸¡ à¸Īà¸£
Ġ/ *
à¹Ħà¸Ĺà¸¢ à¹ģà¸¥à¸Ļà¸Ķ
à¸¡ à¹Ģà¸Ĭ
Ġa p
Ġà¸Ĺ à¸°à¹Ģà¸¥à¸²à¸°à¸ģ
à¸Ńà¸ĩ à¸ļà¸Ńà¸ģà¸ģ
Ġà¸ľà¸¡ à¸Ńà¸¢
à¸Ńà¸¢à¸²à¸ģ à¹Ģà¸ª
à¸¢ à¸ĵ
à¸ģ à¹Ĥ
à¹Ģà¸Ĺ à¸¥
Ġ à¸Ľà¸£à¸°à¸ª
à¸Ħà¸Ļ à¸Ńà¸¢
à¸²à¸¢ à¸¡à¸²
Ġà¹Ģà¸Ĥ à¸²
à¸ĩ à¸ł
à¸Ľà¸§à¸Ķ à¸«
à¸Ńà¸Ļà¹Ĩ à¸Ĺ
à¸Ŀ à¸Ļ
Ġà¹Ĥ à¸Ħà¸§
à¸Ńà¹Ħà¸Ľ à¸Ħ
à¹ģà¸ģ à¸Ļà¸Ļ
Ġcl ub
à¸ģà¸© à¸²à¸Ľ
à¸ļà¸¡ à¸²à¸«
à¸Ļà¹ĥà¸Ļ à¸«
à¸Ńà¸¡ à¹ģà¸ĭ
à¸ģ à¹Ĥà¸Ĺà¸©
à¸Ńà¹Ģà¸£ à¸²à¸ķ
à¸ģ à¹Ģà¸«à¸¥
à¸ĩ à¸ŀà¸§à¸ģ
à¸²à¸ķà¸£ à¸ģà¸²à¸£
à¹Ģà¸ĺà¸Ń à¹Ħà¸Ķ
9 3
Ġà¸ķà¸²à¸¡ à¸£
à¸ķà¸Ńà¸Ļ à¹Ģà¸Ķ
à¸²à¸¡à¸²à¸ģ à¸Ĥ
à¸Ļ à¸§à¸ĩ
à¹Ģà¸Ĥ à¸²à¸Ī
Ġ à¹Ħà¸«à¸¡à¸Ħà¸£
à¸¢à¸ĩ à¹Ģà¸Ĺ
ðŁĺ ģ
n o
Ġà¹Ĥà¸Ľà¸£ à¹ģà¸ģà¸£à¸¡
à¸ªà¸Ļà¹ĥà¸Ī à¸Ĺ
à¸¡à¸²à¸ģ à¸§
à¸ĩà¸²à¸Ļ à¹ĥà¸«
à¸°à¸Ĺ à¸°
à¸ģ à¸ķà¸²à¸¡
à¸²à¸§ à¹Ģà¸«à¸Ļ
à¸Ľ à¸¢
hot mail
à¸ĸ à¸²à¸§à¸£
à¸Ļà¹ģà¸«à¸¥à¸° à¸Ħà¸£
à¸§à¸¢ à¸Ħà¸§à¸²à¸¡à¸£
à¸Ńà¸£ à¸²à¸¢
à¸ĵà¸łà¸²à¸ŀ à¸Ĭ
à¹ģà¸¥à¸° à¸ģà¸¥
à¸ģà¸Ń à¸²à¸¨
Ġà¹Ĥà¸Ķà¸¢ à¸Ī
à¸ª à¸²à¸ļ
à¸¡à¸²à¸ ¨
Ġn ik
à¹Ģà¸Ħà¸¢ à¹Ģà¸Ĥ
à¸ķà¸Ńà¸Ļ à¸ķ
à¸¢à¸ĩ à¹Ģà¸¥
Ġà¸Ľ à¸ķà¸Ĺ
à¸łà¸²à¸ŀ à¸Ķ
à¸Ńà¸Ļ à¹Ģà¸Ĭ
à¸ĩà¸ª à¸²à¸¢
à¸ĩ à¸Ħà¸Ļà¸Ń
à¸Ńà¸Ļ à¸Īà¸£
à¸£à¸ĸ à¸ģ
Ġà¹Ħà¸Ľ à¸ª
Ġ6 7
Ġà¸ŀ à¸²à¸£
à¸Ńà¸ĩà¸Ĭ à¸Ļà¸°à¹Ģà¸¥
Ġà¸Ĥ à¸¢à¸²à¸¢
a u
à¸Ļà¸¢ à¸²
à¸Ńà¸¡ à¸²à¸Ĺ
à¸ļà¸ģà¸²à¸£ à¸Ķ
Ġà¸Ń à¹Ģà¸¡à¸£
à¸¡à¸²à¸ģ à¸ĸ
à¸Ńà¸¡ à¸²à¸Īà¸²à¸ģ
Ġà¸ģà¸²à¸£ à¹Ģà¸£
à¸£à¸£ à¸ŀ
à¸²à¹Ģà¸Ĥ à¸²à¸Ħ
à¹Ģà¸Ħ à¸¢à¸Ļ
à¸ļ à¸Ħà¸Ļà¸£
Ġà¸Ħà¸Ļ à¹Ģà¸ģ
Ġc at
à¹Ħà¸Ľ à¸¥
à¸²à¸ģà¸²à¸£ à¸ķ
off icial
Ġser ies
à¸įà¸« à¸²à¸Ńà¸¢
à¸īà¸²à¸ģ à¸Ĺ
Ġà¸Ī à¸Ļà¸ģà¸§
à¸§à¸ĩ à¹Ģà¸Ĺà¸¨à¸ģà¸²à¸¥
à¸« à¸Ńà¸ŀ
f r
à¹Ģà¸§à¸ĵ à¸Ī
à¸Ļ à¸Ļà¸Ĺ
à¸Ħà¸ĵà¸° à¸£
Ġrout er
à¸ģà¸ģ à¸£à¸°à¸Ĺ
à¸¥ à¸£
à¹Ĥà¸Ķ à¸Ļà¸Ī
Ġà¹Ģà¸£à¸²à¸Ńà¸¢à¸²à¸ģ à¸£
à¸¥à¸ĩ à¸¡à¸²
à¸ĩà¹Ģà¸ģ à¸ķà¸§
à¸ŀà¸¥à¸²à¸Ķ à¸Ĥ
à¸ļà¸Ļ à¸ĸà¸Ļà¸Ļ
à¸²à¹ģ à¸«à¸¥
à¸¥ à¹Ħà¸¡
à¹ĥà¸Ļ à¸£à¸°à¸«à¸§
à¸²à¹Ģà¸£à¸² à¹Ħà¸Ķ
à¸Ħà¸Ļ à¹ģà¸£à¸ģ
à¸²à¹Ħà¸£ à¸ª
à¸²à¸¡ à¸§
à¸Ľà¸£à¸°à¸ģà¸Ńà¸ļ à¸ģ
à¸Ļ à¹Ģà¸£à¸²à¹Ħà¸¡
Ġà¸ľà¸¡ à¹Ģà¸¥
à¸ªà¸£ à¸£
à¸ķà¸£à¸§à¸Īà¸ªà¸Ńà¸ļ à¸Ĥ
à¸ģà¸Ħà¸Ļ à¸Ń
à¸Ńà¸ĩ à¸Ľà¸£à¸°à¸Ĭ
à¸Ļà¸²à¸¢ à¸«à¸Ļ
à¸Ī à¸Ļà¸ķ
à¸¢ à¹Ĩ
à¹Ģà¸Ńà¸ĩ à¸Ħà¸£
à¸¢à¸§ à¹Ģà¸Ĭ
t on
à¸¡à¸Ń à¸²à¸«à¸²à¸£
à¹Ģà¸§à¸¥ à¸²à¹Ģà¸£
à¸Ļà¹ģ à¸ªà¸Ķ
Ġà¸Ļà¸²à¸¢ à¸Ĭ
Ġh ar
à¸Ļà¸°à¸Ħà¸° à¸§
à¸Ńà¸ĩ à¸Ħà¸§à¸²à¸¡
à¹Ģà¸Īà¸Ń à¸Ħà¸Ļà¸Ĺ
à¹Ĥà¸¥ à¸Ļ
à¸²à¸§ à¹Ģà¸ģ
Ġà¹Ģà¸ģ à¸©à¸ķà¸£
à¸²à¸¡ à¸²à¸¡
an e
à¸įà¸į à¸²à¸Ļ
Ġfib er
Ġà¸ªà¸²à¸¡à¸²à¸£à¸ĸ à¸ķ
Ġmb ps
à¸Ķ à¹Ģà¸Ħ
Ġtr ip
5 1
à¸Ļà¹Ħà¸Ľ à¹Ģà¸Ĺ
Ġà¸Ľ à¸Ĭà¸Ĭ
à¸Ńà¸¡à¸§à¸¥ à¸Ĭà¸Ļ
à¸Ħà¸§ à¸²à¸¢
à¸²à¸Ķ à¸Ĺ
à¸Ļ à¸Ńà¸Ķ
à¸Ķ à¹Ĥà¸Ńà¸ģà¸²à¸ªà¹ĥà¸«
à¸¡à¸²à¸ģ à¸¡
à¸²à¸ª à¸ĸà¸²à¸Ļ
à¸ļà¹Ħà¸Ľ à¸Ħ
à¸Ļà¸ª à¸²à¹Ģà¸«à¸ķ
à¸ĩà¹ĥà¸Ļ à¸Ľ
5 2
ðŁĴ ľ
Ġà¸Ľ à¸Ĭà¸Ľ
à¸¡ à¹Ħà¸Ĺà¸¢
at or
à¸¡ à¹Ģà¸Ī
à¹ģà¸¥à¸° à¸Ľ
à¸ĩà¸ª à¸§
à¸Ķ à¸ĺ
ðŁ¤£ ðŁ¤£
à¸į à¸¢
à¸Ļà¸¡à¸² à¹Ģà¸£
à¸¡ à¹Ģà¸«
à¸Ļà¸¡ à¸²à¸Ńà¸¢
à¸ĩ à¸ķà¸£à¸ĩà¸Ĥ
à¹Ģà¸¢à¸Ńà¸£ à¸¡à¸Ļ
à¸²à¸¡ à¸ª
à¸²à¸§ à¹Ģà¸Ĥ
Ġà¹Ĵ à¹ķ
à¹Ħà¸Ľ à¹Ģà¸¡
à¸ĩ à¸ŀà¸¢à¸²à¸¢à¸²à¸¡
à¸Ńà¸ĩà¸ģà¸²à¸£ à¸ª
t o
à¸Ńà¸ĩà¸Ħ à¸²à¸¢
à¸ŀà¸£à¸° à¸ļà¸²à¸Ĺà¸ªà¸¡à¹Ģà¸Ķ
à¹Ģà¸Ħà¸¢ à¸ľ
à¸²à¸Ļ à¸§à¸Ļà¸Ĺ
à¸Ńà¸ĩ à¸ľà¸¡
s ite
à¸ĩà¸Ħà¸²à¸£ à¸Ĺ
à¸ªà¸Ńà¸Ķ à¸Ħà¸¥
à¸²à¹Ģà¸ģ à¸²à¸«à¸¥
à¸Ļ à¸ķà¸£à¸ĩ
Ġà¹Ģà¸£à¸²à¸Ħ à¸ļà¸ģ
à¸ģà¸£à¸° à¹Ģà¸Ĺ
à¸ļà¸ģà¸²à¸£ à¸¨
Ġà¸¡ à¸²à¸¢
à¸ĵ à¸Ħà¸°
Ġà¹Ģà¸Ĭ à¸¥à¸ĭ
à¸²à¸Ńà¸°à¹Ħà¸£ à¸Ķ
à¸Ńà¸¢à¸²à¸ģ à¸ŀ
à¸ĩà¸Ń à¸²à¸Ĺ
à¸Ńà¸Ļ à¸Ŀ
t a
Ġà¸Ī à¸Ļà¸ª
Ġà¹Ģà¸ĭ à¸Ļà¸ķ
à¸Ļ à¸²à¸¨
à¸Ķ à¹Ģà¸ªà¸£
à¸ĩà¸ľà¸¥ à¸ķ
à¹Ĥà¸Ķ à¸Ļà¸¥
à¸ĸà¸§ à¸²à¸¢
à¸ĩà¹Ħà¸Ľ à¸ģ
à¸Ńà¸ļ à¸¥
à¸Ĺà¸£ à¸ªà¸²à¸Ħà¸£
Ġà¹ģà¸¥à¸° à¹Ģà¸Ķ
à¸Ħà¹Ģà¸ģ à¸Ńà¸£
à¸µà¹ī âĢĿ
Ġà¸Ľ à¸ķà¸£
à¹ģ à¸Ńà¸ļà¸Ħ
Ġà¹ģ à¸Ńà¸Ķ
Ġà¸ļà¸Ńà¸ģ à¹Ģà¸¥à¸¢à¸§
f er
à¸© à¸İ
à¸ļ à¹Ħà¸Ł
Ġf a
om otion
à¸Ńà¸¢ à¹Ģà¸£
Ġà¹ģà¸¥à¸° à¹ģà¸¥
à¸§à¸¡ à¸Ĭ
à¸ģà¸²à¸£ à¸Ńà¸¢
po int
âĻ ¥
à¸Ń à¹Ģà¸ĭ
à¸§ à¸ŀà¸£
Ġà¹ģà¸ªà¸Ļ à¸ļà¸²à¸Ĺ
à¹ģà¸¥à¸° à¹Ģà¸ª
à¹ģà¸ļ à¸ĩà¸ģ
à¸ģ à¸ļà¸²à¸ĩ
à¸£à¸²à¸¢ à¸Ī
à¸Ńà¸Ħ à¸Ń
à¹ĥà¸Ī à¸Ń
à¸²à¸ª à¸ģ
Ġ>> >
à¸Ĺà¸²à¸ĩ à¸«à¸¥à¸§à¸ĩ
à¸¢à¸ģ à¸°
it s
Ġà¹Ģà¸ª à¸Ļà¸Ń
à¸²à¹Ħà¸Ľ à¸Ī
à¸Ļà¸Ħà¸Ļ à¸¡
à¸´ "
Ġà¹ģ à¸ŀà¸£
à¸ĩà¸ªà¸£ à¸£à¸Ħ
à¸Ńà¸ĩ à¸¥à¸°
à¸ª à¸Ī
à¸²à¸Ńà¸°à¹Ħà¸£ à¹Ģà¸¥à¸¢
à¸Ĺà¸²à¸ĩ à¸ģ
à¸Ļà¹Ħà¸Ľ à¸Ļ
à¸²à¹ĥà¸Ī à¸Ĺ
i w
à¸Ļà¹Ħà¸Ľ à¸ķ
//// ////
à¸Ńà¸ĩ à¹ģà¸£à¸ģ
à¸ĩà¸ŀ à¸Ļ
à¸²à¸ĩà¸Ļ à¸²
à¹Ģà¸Ī à¸Ļ
à¸Ĺà¸ĺ à¸¨à¸²à¸ªà¸Ļ
à¸²à¹Ħà¸¡ à¸Ĺ
à¸Ļà¸Ń à¸²à¸ģà¸²à¸£
à¸²à¹Ħ à¸ª
à¸ļà¸Ĺ à¸§à¸Ļ
Ġà¸¡ à¸²à¸§
à¸¡à¸²à¸ģ à¸Īà¸£
à¸Ńà¸ĩà¸ķ à¸Ńà¸ļ
à¸Ļà¸« à¸²à¸ģ
Ġà¸Ĭà¸Ńà¸ļ à¸Ĺ
Ġà¸£à¸ĸ à¹Ħà¸Ł
à¸²à¸Īà¸° à¸«
à¸ģ à¸ķà¸£
c ess
Ġà¸Ħà¸Ļ à¸Ħ
à¸ĩà¸²à¸Ļ à¹ģà¸ķ
à¸Ńà¸Ļ à¹Ĥà¸ķ
à¸²à¸Ńà¸Ńà¸ģ à¸ģ
Ġà¸Ħà¸Ļ à¸¡
à¸Ľà¸£à¸° à¸ŀ
à¸ŀ à¸ļà¸Ľ
à¹Ģà¸Ĺ à¸Ħ
à¸Ńà¸°à¹Ħà¸£ à¸¡
à¸Ńà¸Ńà¸ģ à¸Ļà¸Ńà¸ģ
à¸¢ à¸¡à¸²
à¸¡ à¹Ħà¸¥à¸Ļ
à¸ģ à¹Ģà¸ĺà¸Ń
à¸²à¸¢ à¸ĭ
Ġm ay
à¸į à¸Ńà¸¢
à¸§à¸ĩ à¸¡à¸²à¸¥
à¸²à¹Ħà¸Ľ à¸ĸ
à¸ĩ à¹ĥà¸Ķ
à¸ŀà¸Ń à¸ĸ
à¸ļà¸Ńà¸ģ à¸ŀ
ðŁĶ ´
Ġs ky
à¸²à¸§ à¹Ģà¸ŀ
à¸ŀà¸¢ à¸²à¸Ļ
à¸ķà¸¥à¸Ńà¸Ķ à¸Ĭ
Ġà¸ĭ à¸Ńà¸¢
à¸Ĺ à¹Ħà¸Ķ
à¹ģà¸¥à¸° à¸ģà¸²à¸£
à¸«à¸¡à¸²à¸¢ à¹ĥà¸«
à¸²à¸¢ à¹Ģà¸ª
Ġà¸ĸà¸²à¸¡ à¹Ģà¸£
à¸¥à¸ĩ à¸ļ
à¸ģà¸¡à¸²à¸ģ à¹Ĩ
Ġ ;
Ġp p
à¹ģà¸Ľ à¸°
Ġà¹ģà¸Ńà¸ļ à¸Ĭà¸Ńà¸ļ
à¸²à¸Ļà¸¡à¸² à¹ģà¸¥
à¸Ĥ à¸¡
7 1
à¸ĩà¸²à¸Ļ à¸Ń
m ove
Ġà¸ªà¸¡ à¸¡à¸ķ
à¸²à¸ĩ à¸ģà¸§
à¸Ļ à¸²à¸Ħ
Ġà¹Ĥà¸Ķà¸¢ à¸Ń
à¸ĸà¸²à¸¡ à¸ģ
à¸ľ à¸Ĭ
Ġa k
à¸ļà¸ģà¸²à¸£ à¸ŀ
le d
à¹Ģà¸£à¸²à¸Īà¸° à¹Ħà¸Ķ
à¸²à¹Ħà¸Ľ à¸Ļ
à¸Ń à¹Ĥà¸Ĺà¸£à¸¨
à¸ĩà¸Ĥ à¸¢à¸°
à¸¢à¸¡ à¸£
à¸²à¸ĩ à¹Ģà¸¢à¸Ńà¸°
à¹Ħà¸Ĥ à¸¢
à¸Ļà¸¡à¸²à¸ģ à¹Ĩ
à¸ļà¸¡ à¸²à¸¡
à¸Ļà¸Ńà¸Ńà¸ģ à¹Ħà¸Ľ
à¸¡ à¹ģà¸ŀ
à¸Ħà¸²à¸Ķ à¸ģà¸²à¸£à¸ĵ
à¸ģ à¸ļà¸Ńà¸¥
à¸Ńà¸¡ à¸Ĥà¸Ńà¸ĩ
à¸Ķ à¹Ģà¸¢à¸Ńà¸°
Ġà¹ģà¸Ł à¸Ļà¸Ħà¸¥
à¸Ļ à¸«à¸²à¸¢à¹Ħà¸Ľ
Ġs ale
à¸Ńà¸¢ à¹Ģà¸Ķ
à¸²à¹Ħ à¸«
à¸²à¸ª à¸ĸà¸²à¸Ļà¸Ĺ
à¸ĩà¹ĥà¸Ī à¸§
Ġp osition
Ġy ear
à¸ļà¸¡à¸² à¹ĥà¸Ĭ
à¸Ńà¸Ńà¸ģ à¸ª
Ġsh ow
à¸ª à¸ĩà¸Ĥà¸¥à¸²
Ġà¸Ľà¸£à¸° à¸Ĺ
à¸ĩà¸ķ à¸°à¸§
à¸§à¸ª à¸§à¸¢
à¸ģà¸£à¸£ à¸¡à¸²à¸ĺ
à¸ļà¸ģà¸²à¸£ à¸ª
à¸²à¸Ĥà¸Ń à¹Ĥà¸Ĺà¸©
Ġmic ro
Ġà¸ķ à¸¡
à¸²à¸Ľà¸£à¸° à¸Ĭà¸²à¸Ĭ
Ġà¹ģà¸¥à¸° à¹Ģà¸¥
à¸Ļà¸²à¸¢ à¸Ī
à¹Ħà¸«à¸Ļ à¸ĸ
Ġà¸Ī à¸Ļà¹Ħà¸Ķ
à¸²à¸«à¸Ļà¸Ķ à¸§
à¸Ľ à¹Ĥà¸łà¸Ħ
Ġà¸ĺ à¸Ħ
à¸ļ à¸ĩ
à¸Ľà¸£à¸° à¸ŀà¸¤à¸ķ
Ġà¸ļ à¸Ńà¸£
à¸² à¹Ĥà¸Ĺà¸£à¸¨
à¸ĺà¸Ļà¸²à¸Ħà¸²à¸£ à¸ģà¸£
Ġà¸ļ à¸Ļ
à¸ĩ à¸Ħà¸§à¸£
à¸ģ à¹Ģà¸¥à¸¢à¸Ħ
à¸²à¸ĩà¸²à¸Ļ à¹Ģà¸ģ
à¸Ńà¸Ļ à¸²à¸Ħ
Ġà¹Ģà¸ŀà¸£à¸²à¸° à¸Ĭ
à¸² à¹Ģà¸§à¸Ńà¸£
à¸¡ à¸ĺ
à¸² à¹Ħà¸«à¸¡à¸Ħà¸£
in ess
à¸ĩà¸Ľ à¸ı
Ġ8 5
à¸²à¸«à¸Ļà¸Ķ à¹Ħà¸§
à¸Ļà¹ģ à¸ģà¸¥
à¸²à¸¢ à¸«à¸£
à¸ĸà¸²à¸¡ à¸ľ
à¸¢à¸įà¸Ĺ à¸Ńà¸ĩ
l ist
à¹Ģ à¹Ģà¸Ĥ
à¸Ļ à¸²à¸¬
f m
à¸ļà¸²à¸¢ à¹ĥà¸«
à¸Ļ à¸Ńà¸¢à¸²à¸ģ
à¸Ī à¸²à¸Ļ
Ġà¸Ĥà¸Ń à¹ģà¸Ħ
ec ial
Ġ* /
à¸Ļà¸Īà¸° à¸£
à¸ģà¸²à¸£ à¸ĩà¸²à¸Ļ
à¸£à¸²à¸Ĭ à¸ģ
z z
à¸Ńà¸ĩ à¸ŀà¸£
à¸§à¸¢à¸Ħà¸§à¸²à¸¡ à¹Ģà¸£
à¸¢à¸Ļ à¸ģà¸²à¸£à¸ª
à¸ĩ à¹Ģà¸ĭ
à¹Ĥ à¸§à¸¢à¸§
à¸Ķ à¹Ģà¸«à¸¥
à¸łà¸²à¸ŀ à¸¥
à¹Ģà¸« à¸§
à¸ĩ à¹ģà¸Łà¸Ļ
à¸²à¸ĩ à¸ªà¸¡
à¸Ĭà¸²à¸§ à¸Ī
à¸ĩà¸§à¸¥ à¸§
à¸¡ à¸ļà¸£
Ġà¸¡ à¸Ħ
à¸Ļà¹Ĥà¸£à¸Ħ à¸ĭ
à¸Ļà¸ģà¸²à¸£ à¸ªà¸£
à¸«à¸²à¸£ à¸ª
an o
Ġà¹Ģà¸Ĺ à¸Ħà¹Ĥà¸Ļà¹Ĥà¸¥à¸¢
Ġà¸¡ à¸Ńà¹Ģà¸ķà¸Ńà¸£
Ġ Â
à¸Ķà¹ĥà¸Ļ à¹ĥà¸Ī
à¸¢à¸ļ à¹Ĩ
à¹Ħà¸Ľ à¹Ģà¸ģ
Ġ7 2
v d
tr a
à¹Ī ?
à¸²à¸£à¸§à¸Ī à¸ģ
Ġ5555 555
à¸Ī à¹Ħà¸Ķ
Ġà¹Ħà¸Ľ à¹Ģà¸£
n g
Ġbl ue
à¹ģà¸« à¸§à¸Ļ
à¸Ļà¸Ĥà¸Ńà¸ĩ à¸Ħ
Ġcan on
b nk
à¹Ģà¸ ĵ
à¸Ĭ à¹Ģà¸Ĭ
Ġà¸« à¸²à¸Ĺ
à¸£à¸²à¸Ĭ à¸§à¸ĩà¸¨
à¸ĩ à¸Ħà¸Ļà¸«à¸Ļ
Ġà¸ª à¹Ħà¸ķà¸¥
à¸į à¸Ń
à¸¢à¸§ à¹ĥà¸Ļ
à¸¡à¸« à¸²à¸¨à¸²à¸¥
à¸ģà¸Ħà¸Ļ à¸«à¸Ļ
v is
à¸¢à¸ģ à¸Ļ
à¸¢à¸§ à¹Ģà¸Ĥ
à¸Ķ à¹ģà¸Ńà¸£
à¸¡ à¸¡à¸Ļ
Ġm l
Ġà¹Ĥà¸Ħ à¸ķà¸£
à¸ģà¸²à¸£ à¸Ĥà¸Ļà¸ª
à¹Ģà¸Ļ à¸¡
Ġmr t
à¸Īà¸²à¸ģ à¸ģà¸²à¸£à¸Ĺ
à¸§à¸¢ à¹ģà¸Ĭà¸£
à¸¡à¸ŀà¸£à¸° à¹Ģà¸ģ
à¸Ļà¸ŀ à¸Ńà¸Ķ
à¸Ĭà¸²à¸§ à¸Ń
Ġà¹Ģà¸Ń à¹Ģà¸Ĭ
à¸ĩ à¹Ģà¸§à¸¥à¸²à¸Ĺ
ðŁį ĥ
à¸Ħà¸£ à¸²à¸§à¸Ļ
Ġr gb
Ġà¹ģ à¸Ńà¸ŀ
à¸Ļà¹Ħà¸Ľ à¸¡
à¸Ĥà¸Ńà¸ĩ à¹Ģà¸¡
à¸²à¹ģ à¸Ľ
Ġà¸ģà¸²à¸£ à¹Ģà¸ĩ
Ġà¹Ģà¸ŀà¸£à¸²à¸° à¹Ģà¸£
Ġà¹Ĥà¸Ķà¸¢ à¹Ģà¸£
à¸ģà¸£à¸° à¸«à¸Ļ
Ġà¸ļ à¸ģ
à¸²à¸Ń à¸ģ
à¸¡ à¸ķà¸²à¸¡
à¸¢à¸Ķ à¸Ń
ur a
as y
à¸Ļ à¸ģà¸£à¸ĵ
à¸ŀà¸£à¸°à¸£à¸²à¸Ĭ à¸Ķ
à¸Ļà¸ģà¸²à¸£ à¸ģ
à¸²à¸§ à¹Ģà¸Ĭ
Ġk pop
à¸Ħ à¸ŀ
à¸Ļà¸Ĥà¸Ńà¸ĩ à¸ľ
Ġà¸Ħà¸ĵà¸° à¸ģà¸£à¸£à¸¡à¸ģà¸²à¸£
à¸Ńà¸ģà¸²à¸£ à¸Ħ
Ġà¹Ģà¸« à¸¢
Ġà¹ĥà¸Ħà¸£ à¸ŀà¸Ńà¸¡
à¸Ńà¸¢ à¹Ģà¸ŀ
à¸Ńà¸ĩ à¸«à¸¡à¸²à¸¢
t i
à¸Īà¸²à¸ģ à¸ģà¸¥
Ġl ight
à¸Ńà¸²à¸Ī à¸Ĺ
à¸ŀà¸¢ à¸²à¸Ļà¸«à¸¥
à¸Īà¸²à¸ģ à¸ŀ
à¸¥à¸° à¸Ĭ
à¸ĩà¹ģ à¸ªà¸Ķ
à¸§à¸²à¸ĩ à¹ĥà¸Ī
Ġà¸§ à¸²à¸ĩà¹ģà¸ľ
à¸Ļ à¸į
à¸Ķ à¸Ħà¸§à¸²à¸¡à¸ª
Ġà¸ŀ à¸Ńà¸¥
p ing
Ġup date
Ġdis play
Ġà¸ľà¸¡ à¸Ķ
d etail
à¸ģà¸©à¸²à¸Ħà¸§à¸²à¸¡ à¸Ľà¸¥à¸Ńà¸Ķà¸ł
à¹Ģ à¹Ģà¸Ĭ
g h
Ġc ore
à¸¢à¸§ à¹ĥà¸«
Ġà¸Ľ à¸¥à¸Ńà¸Ķà¸ł
à¸¢à¸Ļ à¸¥
à¸Ļà¹Ħà¸Ľ à¸¢
à¹Ģà¸ģà¸© à¸¡
à¸ģà¸£à¸°à¸ļ à¸§à¸Ļ
à¸ĩ à¹Ģà¸Ńà¸ģà¸ªà¸²à¸£
à¸Ļà¹Ħ à¸«à¸¥
à¸Ńà¹Ħà¸Ľ à¹Ħà¸Ķ
à¸Ķ à¹Ģà¸ŀà¸¥à¸ĩ
j ect
à¸ĩ à¹ĥ
à¸ģà¸© à¸²à¹Ħà¸Ķ
à¸²à¸Ľ à¸£à¸°à¸Ĺ
à¸Ķ à¸Ĳà¸²à¸Ļ
Ġ1 10
à¹Ĥà¸£à¸ĩ à¹Ħà¸Łà¸Ł
Ġà¸Ľ à¸§à¸Ĭ
à¸Ļà¸Ħà¸Ļ à¸ª
à¸Ļà¸¥à¸°à¸Ń à¸Ńà¸ĩ
à¸¨ à¸ķ
à¸Ńà¸Ķ à¸Ĺà¸Ļ
à¸ĩ à¹Ħà¸¥
à¸Ļ à¹Ģà¸«à¸¢
à¸Ķà¸Ħà¸§à¸²à¸¡ à¹Ģà¸ª
Ġà¸Ħà¸Ļ à¹Ģà¸Ķ
à¹Ĥ à¸«à¸¡à¸Ķ
à¸ŀ à¸«à¸¥
à¸²à¸Ļà¸§à¸Ļ à¸«à¸Ļ
à¸Ĥà¸Ń à¸Ĥà¸Ńà¸ļà¸Ħ
à¹Ģà¸§à¸¥ à¸²à¸Ķ
à¸²à¹Ħà¸Ľ à¸§
Ġà¹ģà¸¥à¸° à¸ķà¸Ńà¸Ļà¸Ļ
à¸ªà¸Ļà¹ĥà¸Ī à¸ķ
à¹Ģà¸ŀ à¸¥à¸ĩà¸Ĺ
à¹ģà¸¥à¸° à¸Ħà¸§à¸²à¸¡
à¸¢à¸Ļ à¹ĥà¸«à¸¡
Ġwh at
Ġh r
Ġà¸ŀà¸£à¸° à¸ŀ
ĠðŁĺ ĺ
Ġà¸ªà¸° à¹Ĥà¸ŀà¸ģ
à¹ģà¸¡ à¸Ļà¸¢
à¸ªà¸²à¸¡à¸²à¸£à¸ĸ à¹Ģà¸Ľ
à¸ŀ à¸Īà¸Ļ
à¸²à¸Ħ à¸Ļà¸£
à¸ĵà¸° à¸£
à¸ĸà¸²à¸¡ à¸ķ
Ġà¹Ģà¸Ĥ à¸²à¸£
à¸Ĥà¸Ńà¸ĩ à¸Ĥà¸§
à¸ļ à¸Ħà¸§à¸²à¸¡à¸Ħ
Ġà¸Īà¸° à¸Ńà¸¢
i ent
Ġvis a
à¸ļ à¹Ģà¸Ńà¸ĩ
à¸Ńà¸ģ à¸ľ
à¸Ĺà¸ĺ à¸£
à¸£à¸°à¹ģ à¸§à¸ĩ
à¹Ħà¸Ľ à¸ģà¸§
à¸Ńà¹Ģà¸ŀ à¸¥
à¸¥à¸° à¸¥à¸²à¸¢
à¸§ à¸ģà¸²à¸£
à¹Ħà¸«à¸Ļ à¹ģà¸Ļà¸°à¸Ļ
à¸ŀ à¸Ńà¸Ħ
à¸ģ à¸Ľà¸£à¸°à¸ģ
à¸§ à¹ģà¸Łà¸Ļ
Ġ ]
à¸Ĥ à¸§à¸ļ
Ġà¸Īà¸° à¹Ģà¸Ķ
à¸Ħà¸£ à¸Ńà¸ĩ
Ġà¸Ħ à¸Ńà¸¥
à¹Ĥà¸ķ à¸°
Ġh ave
ing s
à¸Ļà¸¢ à¸²à¸¢
à¸Ļà¸Ļ à¸²à¸¢
à¸ĩà¸Ħ à¸ļà¸ģ
à¸²à¸ģà¸²à¸£ à¸ĭ
Ġa i
à¸į à¸Ļ
à¹ģà¸ļà¸ķ à¹Ģà¸ķà¸Ńà¸£
à¹Ģà¸Īà¸Ń à¹ģà¸ļà¸ļà¸Ļ
à¸Ńà¸ķ à¹Ģà¸ķà¸Ńà¸£
à¸ĩà¸Ħà¸§à¸²à¸¡ à¹Ģà¸Ľ
à¸¢à¸¢à¸¢à¸¢ à¸¢
à¹ģà¸ļà¸ļ à¸Ħ
à¸²à¸Ĺà¸²à¸ĩ à¸Ńà¸Ńà¸ģ
Ġre al
à¸Ļ à¹ĥà¸ķ
à¸Ńà¸ĩ à¸²à¸Ļ
à¸Ķ à¹ģà¸Ľà¸¥à¸ĩ
à¸Ľà¸£à¸°à¸ª à¸ļà¸ł
à¸¨ à¸¡
à¸ļ à¹ĥà¸ª
à¸ĩà¸Īà¸²à¸ģ à¸§
à¸²à¸Ĥà¸Ńà¸ĩ à¸Ħ
Ġ4 50
à¸ķà¸Ńà¸ļ à¸ªà¸Ļ
à¸ģ à¸Ńà¸¥
à¸ŀà¸¥ à¸Ńà¸¢
Ġà¸¥à¸° à¸ģ
à¸¡à¸²à¸Ĥ à¸Ń
Ġà¹ģ à¸ģà¸£
à¹Ĥà¸¥ à¸ģà¸Ħà¸£
as er
à¸¡ à¹Ģà¸«à¸¡
à¸²à¸«à¸¢ à¸²à¸ļ
à¸ĩ à¹Ģà¸¥à¸¢à¸Ħà¸£
à¸¡ à¸§à¸¥
à¸ķà¸²à¸¡ à¸Ķ
Ġà¹Ģà¸Ħà¸£ à¸Ķ
à¸§ à¹Ģà¸£à¸²à¹Ħà¸¡
à¸Ńà¸Ķ à¸Ħ
à¸²à¸ĩà¸²à¸Ļ à¸ļ
Ġà¹ģà¸Ĺ à¸Ļ
à¸Ķà¸ŀà¸¥à¸²à¸Ķ à¸Ľà¸£à¸°à¸ģà¸²à¸£
Ġs he
à¸¢à¸Ļ à¸«à¸£
Ġà¹Ģà¸ŀà¸£à¸²à¸° à¹Ģà¸£à¸²à¹Ħà¸¡
à¸Ķ à¹Ģà¸ģà¸¥
à¸£à¸°à¸ļ à¸Ńà¸ļ
à¸Ńà¸ª à¸²à¸¡à¸²à¸£à¸ĸ
à¸Ħà¸Ļ à¹Ħà¸Ĥ
d h
Ġà¸ł à¸£à¸£à¸¢
Ġà¹Ģà¸£ à¸²à¹ģà¸Ħ
à¸¥à¸ĩà¸ª à¸Ļà¸²à¸¡
à¸²à¸Ļ à¹Ģà¸«à¸£
Ġs al
à¹Ĥà¸ķ à¸Ĥ
à¹Ģà¸ª à¸ĸ
Ġà¸ķ à¸Ļà¹Ģà¸Ńà¸ĩ
à¹ĥà¸Ī à¹Ģà¸¢
Ġà¸ŀà¸Ļ à¸ĩ
à¸¡à¸Ń à¸Ńà¸Ļà¹Ħà¸¥à¸Ļ
à¸Ķ à¹Ģà¸Ľà¸¥
à¸¡à¸² à¹Ģà¸¡
à¸Ĥ à¸Ńà¸§
à¸Ńà¸ĩà¸ģà¸²à¸£ à¸£
à¸Ń à¹ĥà¸ª
à¸²à¸¡ à¸²à¸Ĥ
à¸ķà¹Ģà¸Ļ à¸ª
Ġ à¸Ľà¸£à¸°à¸Ĭ
à¸§ à¹Ģà¸§
à¸® à¸Ńà¸£
à¸²à¸ĩ à¹Ģà¸ªà¸£
à¸Ńà¸²à¸ģà¸²à¸¨ à¸Ĺ
à¸Ńà¸ģ à¹Ģà¸ĩ
à¸Ļà¸Ĺ à¸°à¹Ģà¸ļ
Ġà¹Ĥ à¸ªà¸Ķ
à¸ªà¸¡ à¸¡à¸ķ
à¸£à¸° à¹Ģà¸§
à¸ģà¸²à¸£ à¹Ħà¸¡
à¹Ĥ à¸ļà¸§
à¸²à¸ª à¸¥
Ġà¸Ń à¸²à¸¨
Ġà¹ģà¸¥à¸° à¹Ģà¸Ĭ
à¸ĵ à¸Ĭ
à¸§ à¸Ńà¸¢à¸²à¸ģ
à¸ļ à¹Ģà¸§
à¸Ļ à¸ĺà¸£à¸£à¸¡à¸Ķ
à¸²à¹Ĥ à¸Ħà¸£
à¹Ģ à¸Ńà¸¢
à¹Ĥà¸Ĺà¸£ à¸ģà¸¥
à¸ķà¸£ à¸ª
à¸ĩà¸Ħà¸£ à¸Ńà¸ļà¸Ħà¸£
à¸¡à¸«à¸²à¸ģ à¸©
à¸Ļà¸Ĺà¸²à¸ĩ à¸ķ
à¸¡ à¹ģà¸ģ
à¸ĩ à¹Ĥà¸¡
à¸²à¸Ķ à¸£
à¹Ĥ à¸£à¸¡
à¸łà¸²à¸ŀ à¸ĸ
à¸£ à¸ļ
à¸° à¹Ģà¸Ķ
à¸ģà¸Ħà¸Ļ à¹Ħà¸Ķ
à¸Ń à¹Ģà¸Ĥà¸²
à¸ĩà¸Ļ à¸²à¸Ļ
thair ath
Ġà¸Ķ à¸Ńà¸ģ
à¹Ĥà¸£ à¹ģà¸¡à¸Ļà¸ķ
à¸²à¸Ļà¸§à¸¢ à¸ģà¸²à¸£à¸ª
Ġ à¸«à¸§à¸²à¸Ļ
à¸ĩà¸ĩà¸²à¸Ļ à¸Ĺ
à¸ļà¹Ģà¸£ à¸²à¸§
' t
à¸ª à¹Ĥà¸ģ
à¸Ń à¸Ĭà¸Ńà¸ļ
Ġ5 000
à¸§ à¸Ŀ
fl ix
ou d
à¸Ńà¸²à¸Ī à¸Īà¸°à¸ķ
à¸²à¸ĩ à¹Ħà¸ĩ
iv al
à¸ľà¸¡ à¸Ń
à¸²à¸ĩà¹Ĩ à¸Ĺ
à¸ģà¸İà¸«à¸¡à¸²à¸¢ à¸Ĺ
à¸ĩà¹Ħà¸Ľ à¸Ķ
Ġpro du
à¸ģà¸©à¸²à¸ŀ à¸¢à¸²à¸ļà¸²à¸¥
à¸²à¸« à¸²à¸¢à¹Ħà¸Ľ
Ġà¹ģà¸ļ à¸ĩà¸Ħ
Ġà¸ķ à¸Īà¸§
à¸£à¸²à¸Ħ à¸²à¸ŀ
à¸£ à¸Ķà¸ģ
à¹Ħà¸Ĺà¸¢ à¸¥
à¸«à¸²à¸ģ à¸¡
Ġh appy
à¸Ļà¸ģà¸²à¸£ à¹Ģà¸ĩ
à¸ļà¹ĥà¸Ħà¸£ à¸Ĺ
à¸¢à¸Ļ à¸¡à¸«à¸²à¸¥
à¸Ķ à¸īà¸²à¸ģ
à¹ģà¸Ł à¸Ļà¸¡
à¸ŀà¸§à¸ģ à¹Ģà¸Ĥà¸²
à¹Ģ à¹Ģà¸¢
à¸¥ à¸Ł
à¸²à¹ģ à¸Ķ
à¸Ĥà¸Ń à¸Ĥ
Ġà¸ŀà¸£ à¸ļ
à¹Ģà¸Ń à¸²à¸Ĭ
à¸Ľà¸£à¸°à¸ģà¸§ à¸Ķ
à¸² à¹ĥà¸Ļà¸ģà¸²à¸£
à¸Ńà¸Ĥà¸Ńà¸ĩ à¸Ĺ
Ġch amp
Ġche ck
à¸Ī à¸Ļà¹Ħà¸¡
à¸²à¹Ħ à¸Ĺ
à¸Ļ à¹Ģà¸ĭà¸Ńà¸£
enter tain
à¹Ħà¸«à¸¡ à¸Ĺ
c el
à¸Ĥ à¸Ńà¸ª
à¸Ķà¸Īà¸²à¸ģ à¸Ńà¸°à¹Ħà¸£
Ġgr and
à¸§à¸§à¸§à¸§ à¸§à¸§à¸§à¸§
à¹Ħà¸Ł à¹Ħà¸«à¸¡
Ġ à¸ĩà¸Ķ
à¹ĥà¸Ħà¸£ à¸Ħ
à¸ļà¸Ńà¸ģ à¸«à¸Ļ
à¸¢à¸Ļ à¸²à¸Ĺ
à¸Ĭà¸²à¸¢ à¸Ŀ
à¸ķà¸Ńà¸Ļ à¸ģà¸¥à¸²à¸ĩà¸Ħ
à¸ķ à¹ģà¸ŀà¸Ĺà¸¢
Ġà¸Īà¸° à¸ģà¸¥
à¸Ī à¹Ħà¸¡
à¹ĥà¸Ħà¸£ à¸Ķ
à¸ļà¸ļ à¸£à¸£
à¸ĩ à¹Ģà¸Ħà¸£à¸²à¸°à¸«
à¸Ľ à¸Ī
à¸§à¸Ļ à¹Ħà¸Ľ
à¹ģà¸¢à¸ģ à¸¢
à¹Ģà¸Īà¸£ à¸Īà¸²à¸ģ
à¸ĩà¸ĩ à¸²
à¹Ĥ à¸ļà¸Ļ
à¸ĩà¹Ĩ à¸ģ
à¸²à¸ľ à¸¡à¸Ĺ
à¹ĥà¸Ļ à¹ģà¸ĩ
in s
à¹Ģà¸Ń à¸²à¸¥
à¸Ĳà¸²à¸Ļ à¹Ģà¸¨à¸£à¸©à¸Ĳà¸ģ
à¸²à¸Ńà¸²à¸Ī à¸Īà¸°
à¸ļà¸¡ à¸²à¸ª
à¸§à¸Ļ à¹Ģà¸Ľ
Ġà¹Ģà¸«à¸¡à¸²à¸° à¸ģ
à¸ĩà¸²à¸Ļ à¸ª
h i
Ġà¸«à¸²à¸ģ à¸Ħ
à¸¡à¸Ĺ à¸°à¹Ģà¸¥
à¸¥ à¸ľ
Ġà¸§à¸ĩ à¹Ģà¸ĩ
à¹ģà¸ªà¸Ķà¸ĩà¸Ħà¸§à¸²à¸¡ à¸¢
Ġ( @
à¹ģ à¸Ńà¸Ħ
à¸įà¸į à¸²à¸§
à¸ĩ à¸Ńà¸¢à¸²à¸ģà¹ĥà¸«
Ġv o
Ġà¸ľà¸¡ à¸ģà¸¥
à¸ĩà¸«à¸§ à¸°à¸Ĺ
à¸Īà¸²à¸ģ à¸«à¸Ļ
à¸ł à¸£à¸£à¸¢à¸²
Ġà¹ĥà¸Ļ à¸¢
à¸Ķ à¸Ľà¸£à¸°à¹Ĥà¸¢à¸Ĭà¸Ļ
à¸²à¸ł à¸²à¸Ħ
Ġs ur
Ġ3 000
à¸Ĺ à¹Ħà¸¡
à¸²à¸¡ à¸²à¸§
Ġà¸ŀà¸¢ à¸²à¸ļà¸²à¸¥
Ġà¹Ħ à¸ķ
à¸łà¸²à¸Ħ à¸Ĺ
à¸ŀà¸ļ à¹Ģà¸«
à¸Ļà¹ģà¸«à¸¥à¸° à¸Ħ
à¸ģà¹Ĩ à¸Ĺ
à¸ļ à¸ĺ
à¸Ń à¹ģà¸Ĥ
Ġà¹Ģà¸ ĸ
à¸²à¸ĩà¹Ħà¸£ à¹ĥà¸«
à¸ķà¸£à¸§à¸Ī à¸Ħ
à¸²à¸ĩ à¹ĥà¸«à¸į
à¹Ĥ à¸Ļà¸°
à¸ļà¸¡à¸² à¹Ģà¸¥
à¹Ģà¸Ĺ à¸Ńà¸¡
st ock
à¸Ļ à¹Ģà¸¨à¸£à¸©à¸Ĳà¸ģ
à¸¡à¸²à¸ģ à¸ģà¸ģà¸ģ
à¸Ĥà¸Ńà¸ĩ à¹Ĥà¸¥à¸ģ
Ġs an
à¸Ļà¸Ļ à¸Ńà¸ģ
Ġ à¹ĥà¸«à¸į
à¸į à¸ļ
à¸Īà¸°à¹Ħà¸Ľ à¹Ģà¸Ĺ
à¹Ģà¸Ħà¸¢ à¸ĸ
à¸Ńà¸²à¸«à¸²à¸£ à¹Ģà¸Ĭ
Ġà¹Ģà¸¢ à¸Ńà¸£
à¸Ľà¸£à¸°à¸ª à¸ļà¸Ľ
à¹Ħà¸ģà¸¥ à¸ģ
à¸Ļà¹Ħà¸Ľ à¸£
Ġb order
à¸ģ à¹Ģà¸£à¸²à¸ģ
à¸Ĭà¸¡ à¸£à¸¡
à¹Ģà¸Ĭ à¸©à¸Ĳ
à¸²à¸¡ à¸²à¹Ģà¸¥
à¸Ļà¸Ĺà¸²à¸ĩ à¹Ħà¸Ľà¸Ĺ
1 20
à¸ļà¸¡à¸² à¹Ħà¸Ķ
à¸įà¸« à¸²à¹ĥà¸«
Ġà¸ľà¸¡ à¸Ńà¸¢à¸²à¸ģà¸£
à¸ģ à¹ģà¸£
à¸Ńà¸ĩ à¸ģà¸¥à¸²à¸ĩ
à¹ģ à¸«à¸¡
t y
Ġà¹ģ à¸Ĭ
Ġe ver
Ġà¸Ħ à¸ĵ
à¸²à¸¡ à¸Ľ
à¸ª à¸¡à¸²à¸ĺ
à¸Ļà¹ĥà¸Ļ à¸£
à¹Ģà¸Ħà¸¢ à¸ĭ
à¸£à¸²à¸Ĭ à¸ł
à¸¡à¸²à¸£ à¸¢à¸²à¸Ĺ
Ġd igital
à¸¢à¸° à¸¥à¸²
Ġr un
à¸Ľà¸¥ à¸Ńà¸ļ
à¸Īà¸° à¸«à¸¢
Ġà¸ģ à¸İà¸«à¸¡à¸²à¸¢
Ġà¹Ģà¸Ħ à¸¢à¸Ħ
à¹ĥ à¸ł
à¹Ģà¸§à¸ĵ à¸Ļ
Ġà¸ľà¸¡ à¸ŀ
à¸²à¸¢ à¸£à¸ĸ
à¸²à¸Ħà¸° à¹ģà¸Ļà¸Ļ
à¸Ļ à¸£à¸²à¸¢à¸ģà¸²à¸£
à¸Ļ à¹Ģà¸īà¸ŀà¸²à¸°
à¹Ĥ à¸ļà¸£
à¸ģà¸¡à¸²à¸ģ à¸Ħ
Ġà¹ģà¸¥à¸° à¹Ģà¸ģ
à¸¢à¸ª à¸¥à¸°
à¸§à¸ĩ à¸¡
à¸Ī à¸ŀ
à¸Ńà¸ĩà¸ģà¸²à¸£ à¸ķ
à¸ģ à¹ģà¸Ĥ
Ġà¸Ĥà¸²à¸¢ à¹ģà¸¥
à¸Ķ à¸Īà¸°à¸Ĺ
Ġà¸ľà¸¡ à¹Ģà¸Ĭ
Ġs en
à¸¢à¸¡ à¸Ń
à¸¢à¸¥ à¸¡
à¸ļà¸ª à¸ĸà¸²à¸Ļà¸ģà¸²à¸£à¸ĵ
à¹Ģà¸£ à¸²à¸ľ
à¸Ļ à¸£à¸²à¸¢à¹Ħà¸Ķ
Ġà¸Ħ à¸Ńà¸¡
à¸ĩ à¸ĺà¸£à¸£à¸¡
???? ????
à¸²à¸Ĥ à¸Ļà¸²à¸Ķà¸Ļ
à¹Ģà¸ĸà¸Ńà¸° à¸Ħ
Ġtr avel
à¹ģà¸Ń à¸Łà¸£
à¹Ģà¸ł à¸ª
à¹Ģà¸Ī à¸¥
à¸§ à¹Ħà¸ĩ
Ġà¹ģ à¸Ń
à¸Ńà¸ģ à¸«à¸Ļ
à¸Ĳà¸²à¸Ļ à¸°à¸Ĺ
à¸Ļà¹Ħ à¸Ĺà¸Ļ
à¸Ĳ à¸ģ
à¹Ħà¸«à¸Ļ à¸Ļ
Ġd ec
à¸Ń à¸ľà¸¡à¸ģ
à¹Ģà¸Ī à¸Ńà¸ķ
à¸ķà¸²à¸¡ à¸¡à¸²
Ġop en
à¹Ħà¸Ľ à¹ģà¸Ī
à¸Ļà¸« à¸²
Ġm ap
ðŁĴ ĵ
à¸Ń à¹ĥà¸«à¸į
à¸łà¸²à¸ŀ à¸ª
à¹Ģà¸£à¸² à¹Ģà¸ģ
Ġst reet
à¸²à¹Ģà¸Ĥ à¸²à¹Ģà¸Ľ
à¸Ĥà¸²à¸¢ à¸ļ
à¸²à¸ĩ à¸ľà¸¡
à¹Ģà¸§ à¸Ļà¸ķ
à¹ĥà¸Ī à¸ª
à¹ģà¸¥à¸°à¸ª à¸«à¸ģà¸£à¸ĵ
à¸Ńà¸ĩ à¸ªà¸Ńà¸ļ
à¸° à¸ģà¸£
à¸²à¸¢ à¸Īà¸£
à¸ĩà¹Ħà¸Ľ à¸¢
à¸¢ à¸Ķà¸ķ
à¹ģà¸ļà¸ļ à¸Ń
à¸²à¸ľ à¸¡à¸ķ
à¸Ķà¸ĸ à¸Ļà¸Ļ
à¸Ķ à¹Ģà¸ĭ
Ġtoy ota
à¸²à¹ģ à¸Ķà¸ĩ
à¸į à¸Ķ
Ġ20 12
ĠðŁĴ ķ
à¸Ľ à¸²à¸¥
à¸ĩà¸ķ à¸¥à¸²à¸Ķ
à¸£ à¸Ļà¸Ķ
à¸£à¸²à¸Ĭ à¸²
à¸ļ à¹Ģà¸£à¸²à¸ģ
à¹Ģà¸Ħ à¸²à¸°
à¸ľà¸¥ à¸ľà¸¥
so ft
à¸²à¸§ à¹Ĥà¸ŀ
à¸Ľ à¹Ģà¸¥
à¸Ļà¸ģà¸£à¸° à¹ģà¸ª
Ġst ation
Ġ18 00
à¸Ļà¹Ģà¸ģ à¸²à¸«à¸¥
à¸Ńà¸Ķ à¸Ħà¸¥
à¸ªà¸²à¸¡à¸²à¸£à¸ĸ à¸ŀ
à¸²à¸£ à¸²à¸ĩà¸§
Ġà¸¥ à¸²à¸ģ
Ġn or
c ol
à¸²à¸¢ à¸«à¸¥
à¸ĩà¸Ń à¸²à¸ģà¸²à¸£
à¸«à¸¥à¸²à¸¢ à¸ŀ
g mail
à¸ĩ à¸Ħà¸§
à¹Ģà¸ĺ à¸Ńà¹Ģà¸Ľ
à¸Ī à¸Ħ
Ġ uk
à¸²à¸Ĥ à¸§
à¸Ī à¸į
à¸ĩà¸¡à¸²à¸ģ à¸Ĺ
Ġà¹Ģà¸ŀà¸£à¸²à¸° à¸ľà¸¡
à¹ģà¸¥à¸° à¸«à¸Ļ
à¸Ńà¹Ģà¸£ à¸²à¸Ħ
à¸ķà¸Ńà¸Ļ à¹Ģà¸¢
Ġà¸Ĥ à¸Ńà¸ª
à¸Ļ à¹ĥà¸ļ
Ġun ivers
à¸Ńà¸¡ à¹Ģà¸ª
cont ent
Ġà¹Ģà¸Ĥ à¸²à¸ķ
Ġà¸« à¸²à¸£
à¸ļà¸Ńà¸ģ à¸Ħ
à¸Ńà¸¢ à¸¡à¸²
à¸ĩà¸£ à¸Ńà¸ļ
à¸²à¸£à¸§à¸Ī à¸Ī
à¸° à¹Ģà¸Ļ
à¸Īà¸° à¹ģà¸Ī
à¸§à¸¢à¸ķà¸Ńà¸ļ à¸Ĺ
à¸ĩ à¹Ģà¸Ħà¸¥
ðŁĳ Ľ
à¸¢à¸ļ à¸ĩ
p re
à¸£ à¸ĵà¸°
à¸Ļ à¹Ĥà¸Ĺà¸£à¸¨
à¸²à¸ĩ à¸ĸà¸Ļà¸Ļ
à¸ģ à¸Ħà¸§à¸²à¸¡
à¸ģà¸²à¸£ à¸Ŀ
add ing
à¸¢à¸¡ à¸Ļ
à¸Ļà¹Ģà¸ŀà¸£à¸²à¸° à¸Ńà¸°à¹Ħà¸£
à¸ķ à¸«à¸Ļ
à¸Ĥà¸Ńà¸ĩ à¸Ĥ
à¸§ à¸Ħà¸¥
à¸ļ à¸Ľà¸£à¸°à¸Ĭà¸²à¸Ĭ
à¹Ħ à¸Ħà¸£
Ġà¹Ģà¸Ł à¸ĭà¸ļ
Ġs um
Ġà¸Ń à¹Ģà¸¥
, ,
Ġl ong
à¸Ļà¸ª à¸°à¸ŀ
Ġà¸¥à¸ĩ à¸ŀ
Ġshop ee
w eb
à¸Ĥà¸Ń à¹Ģà¸¥
à¸²à¸¢ à¹ģà¸£à¸ĩ
à¸Ĥà¸Ńà¸ĩ à¸ŀà¸£à¸£à¸Ħ
à¸Ļ à¸Ńà¸Ļà¸ģ
Ġg ame
à¸ļà¸Ńà¸ģ à¹Ģà¸Ħ
i or
à¸¢à¸ĩ à¸«à¸Ļ
à¸Ļà¸£à¸²à¸Ħ à¸²à¸ĸ
Ġà¹Ģà¸Ń à¸²à¹ĥà¸Ī
à¸Ĥà¸Ńà¸ĩ à¹ĥà¸«à¸¡
Ġw idth
à¸ģà¸ģà¸ģà¸ģ à¸ģ
à¸Ļà¸ª à¸ģ
Ġà¸ĸ à¸Ńà¸Ķ
à¸²à¸¡ à¸²à¹Ģà¸£
Ġà¸ª à¸ĸ
le ct
à¸²à¸Ļà¸¡à¸² à¹Ħà¸Ķ
. (
à¸¢à¸§ à¹ģà¸ķ
à¸łà¸²à¸¢à¹ĥà¸Ļ à¸§
Ġà¸Ħà¸§à¸²à¸¡ à¹Ģà¸Ľ
Ġc are
à¸Ļà¸«à¸¥ à¸Ńà¸ģ
à¸§à¹Ģà¸Ńà¸ĩ à¸ķ
à¸Ķ à¸Ļà¸°à¸Ħà¸°
à¸° à¸ĭ
à¹ĥà¸Ļ à¸£à¸ĸ
à¸ļà¸Ńà¸ģ à¸£
à¸Ħà¸Ļ à¸ĭ
Ġà¸ľ à¸ļà¸ģ
à¸ļ à¸Ńà¸²à¸¢
à¹ģà¸«à¸¥à¸° à¸Ĺ
Ġà¹Ĥà¸Ķ à¸¢à¸§
Ġc or
à¸Ńà¸¥ à¸Ķ
Ġà¸Ħà¸Ļ à¹Ħà¸¡
à¸²à¸ĩà¹Ħà¸£ à¸Ħà¸°
à¸Ķ à¹ģà¸ľ
à¸²à¹ĥà¸Ļ à¸Ľ
Ġà¸ŀ à¸¤à¸ķ
à¸²à¸Īà¸° à¹Ģà¸Ķ
à¸ģà¸Ĥ à¸²à¸Ķ
à¸²à¸£à¸§à¸Ī à¹Ħà¸Ķ
Ġ ir
à¸Ńà¸¢ à¹Ģà¸¥
à¸Ļ à¸«à¸¥à¸²à¸¢à¸Ħà¸Ļ
Ġ å
à¸Ļà¹ģ à¸Ķà¸Ļ
à¸Ħà¸Ļ à¸ļà¸Ńà¸ģà¸§
à¸²à¸ŀà¸£à¸° à¸¢à¸²
Ġà¸ģ à¸£à¸²à¸ļ
à¸ģ à¸Ńà¸Ķ
à¸Ńà¸¡à¹Ĥ à¸¢à¸ĩ
Ġà¹ĥà¸Ļ à¸Ļ
à¸ĩ à¹ĥà¸ģà¸¥
à¸ģà¸© à¸²à¸Ĥ
à¸Ļà¸Ńà¸Ļ à¸Ķ
Ġà¹Ģà¸Ħà¸¢ à¹Ģà¸Ľ
Ġph oto
à¸ŀà¸£à¸° à¸Ĺ
à¹Ģà¸¥à¸¢ à¸Īà¸£
à¸Ĭ à¸Ļà¸¡
à¸Ļ à¸¡à¸²à¸Ĥ
à¸° à¹Ĩ
à¸ģà¸¥à¸²à¸ĩ à¹Ģà¸¡
à¹Ģà¸Ń à¸²à¸ª
à¸Ħà¸£ à¸ļà¸ĸ
Ġà¸ŀ à¸Ńà¸ģà¸¥
à¸²à¸ĩà¸²à¸Ļ à¹ĥà¸Ļ
à¸Ľ à¸£à¸²à¸¨
Ġ à¸ĩà¸§à¸Ķ
Ġà¸«à¸²à¸ģ à¸ķ
à¸¡ à¸Ħà¸¥
Ġà¸łà¸²à¸Ħ à¸ķà¸°à¸§
à¸²à¸¡ à¸²à¸ĸ
à¸ģà¸© à¸²à¸ĺ
à¸²à¸ĩ à¸Ļà¸°à¸Ħà¸°
à¹Ħ à¸ļ
à¸ļ à¹Ħà¸¥
à¸ķà¸£ à¸Ħ
Ġà¸Ńà¸²à¸Ī à¸Īà¸°à¹Ħà¸¡
Ġà¸Ĺà¸²à¸ĩ à¸£
à¸Ĥà¸Ń à¸ŀ
à¸²à¸ĩ à¹Ģà¸Ľà¸¥
à¹Ģà¸Ī à¸Ńà¸Ļ
à¹Ģà¸Ń à¸²à¹Ģà¸Ĥ
à¸łà¸²à¸ŀ à¸ļ
à¸° à¸«à¸¥
à¸Ĭà¸Ńà¸ļ à¸¡
à¸¢à¸ģ à¸Ĺ
à¸²à¸Ī à¸Ļà¸ĸ
à¸Ńà¸ĩà¸£à¸²à¸§ à¸Ĥà¸Ńà¸ĩ
à¸Ľ à¸Ńà¸¢
aw a
à¸Ĥ à¸Ļ
à¸²à¸Ĥà¸Ńà¸ĩ à¸ľ
ðŁĴĽ ðŁĴĽ
à¸²à¸¥à¸ĩ à¸ģà¸£à¸ĵ
à¸ķà¸£ à¸ĩà¸«à¸Ļ
à¸Ń à¹Ħà¸«à¸¡
à¸Ĥ à¸Ķ
à¸Ļà¸Ħà¸Ļ à¸ŀ
à¸²à¸Ļ à¹Ģà¸«à¸¥
à¸§à¸¢ à¸Ńà¸°à¹Ħà¸£
à¸§ à¸Ĺà¸²à¸ĩ
à¸¡ à¸ĩ
à¸Ńà¸ĩ à¹ģà¸Ĥ
à¹Ģà¸ŀà¸£à¸²à¸° à¸ģà¸¥
à¸Ĭà¸²à¸§ à¹Ģà¸Ļ
à¸Ļà¸Ĺà¸£ à¸²
à¸ģ à¹Ģà¸¢
Ġn on
à¸ĩà¹ĥà¸Ļ à¸Ĺ
Ġ à¹ĥà¸ķ
Ġà¹Ģà¸¥à¸¢ à¸ªà¸ĩà¸ª
Ġà¸ģà¸£à¸° à¸ķ
Ġà¸Ńà¸¢à¸²à¸ģ à¹Ģà¸¥
à¸²à¸¡ à¸²à¸ĭ
Ġà¸ķà¸²à¸¡ à¸Ķ
ðŁĴ ¯
à¸Ńà¸ĩ à¸Ľà¸ı
Ġh i
à¸ªà¸¡ à¸«à¸§
à¸ĩ à¹Ģà¸«à¸Ļ
à¸²à¸ĩ à¸Īà¸°
à¸«à¸¢ à¸²à¸ļ
à¸£à¸ĸ à¸ª
à¸Ļà¹ĥà¸Ļ à¹Ģà¸£
r on
Ġà¹ģà¸Ĺ à¸ļ
à¸ģ à¹ģà¸Łà¸Ļ
à¹ĥà¸Ī à¸Ļ
à¹ģà¸¥ à¸ľ
à¸ģà¸Ļ à¸²à¸¢à¸ģà¸£
Ġm s
à¸Ńà¸« à¸²à¸ģ
à¸Ļ à¹Ģà¸ľ
à¸²à¸¡ à¸Ī
ĠðŁĴ ĸ
à¸ģà¸²à¸£ à¸ªà¸Ļ
à¸Ĭ à¸ª
à¸ķà¸ģ à¹Ģà¸Ľ
à¸²à¸Ń à¸²à¸ĩà¸Ħ
Ġà¹Ģà¸£à¸² à¹Ģà¸Ńà¸ĩà¸ģ
Ġb row
à¸§ à¸Ĥà¸Ńà¸ĩà¸ķ
à¸ģà¸©à¸²à¸Ħà¸§à¸²à¸¡ à¸ªà¸ĩà¸ļ
Ġà¹Ģà¸Ī à¸²à¸°
Ġà¸¥à¸ĩà¸Ĺ à¸°à¹Ģà¸ļ
à¸ĵ à¸«à¸Ļ
in o
à¸Ĳ à¸ªà¸ł
à¸§ à¸«à¸²à¸¢
Ġk ey
Ġ1 30
à¸ľà¸¡ à¸ĸ
op e
Ġh ouse
ðŁĴ Ļ
à¸įà¸Ĭà¸²à¸ģà¸²à¸£ à¸ķ
iel d
à¸²à¸Ļ à¸¨
à¸§ à¹Ģà¸Ľà¸¥
à¸Ļà¸ģà¸²à¸£ à¸ŀ
Ġ ë
à¸ĩà¹ģ à¸¢
à¸ª à¸²à¸ģà¸¥
à¸ĩà¸Īà¸²à¸ģ à¹Ħà¸Ķ
Ġà¹Ģà¸Ī à¸¡à¸ª
Ġà¸Ħ à¸Ńà¸Ļà¹Ĥà¸Ķ
à¸Ńà¸¡ à¸²à¹Ħà¸Ķ
à¸²à¸ľ à¸¡à¸¡
à¸²à¸Ļ à¹Ģà¸§
à¸Ļà¸Ĥ à¸Ļà¸¡
à¸Ļà¹Ĥ à¸ģ
à¸ļà¸ŀ à¸Ńà¸Ķ
à¸Ļ à¸Ńà¸ĩà¸Ħ
à¸ķà¸£à¸§à¸Ī à¸ª
à¸ŀà¸£à¸° à¸Ńà¸²à¸Ĺ
à¸ģà¸Ķ à¹Ģà¸Ľ
à¸ªà¸ģ à¸Ńà¸£
Ġà¸Ķ à¸Ńà¸ģà¹Ģà¸ļ
à¸¢à¸Ļ à¹ĥà¸Ļ
à¸Ļà¹ĥà¸Ļ à¸ķ
o f
à¸ģà¹ĥà¸Ī à¸ģ
à¸ģà¸Ħ à¸²à¸¡
à¸Ńà¸ĩ à¸¢à¸Ńà¸¡
à¸Ńà¸¢ à¹Ģà¸Ĺ
Ġ <
à¸µà¹Ī âĢĿ
à¸²à¹Ħà¸Ľ à¹Ģà¸¥
à¹Ģà¸Ń à¸²à¸Ĥ
à¸²à¸ŀ à¸¥à¸²à¸Ķ
à¸¬ à¸²à¸¥à¸ĩà¸ģà¸£à¸ĵ
à¸ļ à¸²à¸Ļ
à¹Ģà¸Ń à¸²à¹Ģà¸Ľà¸£
à¸ģà¸Ķ à¹Ģà¸ĩ
p al
à¸Ļà¹ĥà¸Ī à¹Ħà¸Ķ
à¹Ģà¸£ à¸²à¸«à¸Ļ
u y
Ġà¸ŀ à¸Ľà¸Ĭà¸£
à¹Ģà¸ģà¸©à¸ķà¸£ à¹ģà¸¥à¸°à¸ªà¸«à¸ģà¸£à¸ĵ
à¸ļà¸Ń à¸²à¸ģà¸²à¸¨
à¸Ĭà¸Ńà¸ļ à¹ĥà¸«
Ġl ed
à¸²à¸§ à¸ŀ
à¹Ģà¸Īà¸Ń à¸ľ
à¸£à¸° à¹Ģà¸Ĥ
à¸¢ à¸Ńà¸°à¹Ħà¸£
à¸Ńà¸ĩà¸Īà¸²à¸ģ à¸ķ
à¸²à¸¢ à¹ģà¸ŀ
à¸² à¹Ĥà¸Ķà¸¢à¸ªà¸²à¸£
à¸Īà¸°à¸¡ à¸²à¸£
à¸Ļà¹Ħà¸Ľ à¸ĭ
Ġm i
à¹Ģà¸ĺ à¸Ńà¹Ħà¸Ľ
à¹Ģà¸ļ à¸£
à¸ģà¸£à¸° à¹Ģà¸ļ
á Ħ
à¸Ļà¸Ĥà¸Ńà¸ĩ à¸Ĥà¸§
à¸ļà¸Ļ à¸ŀ
à¸¢à¸ģ à¸ª
sam gee
à¸ĩ à¸«à¸į
à¸Ħ à¸Ĥà¸Ńà¸ĩ
re at
à¸Ńà¸¢à¸²à¸ģ à¸¥à¸Ńà¸ĩ
à¸¢ à¹Ģà¸Ĺ
Ġgr oup
à¸«à¸¡ à¸²
Ġs ocial
Ġà¸£à¸Ńà¸ļ à¸Ļ
à¸ģà¸²à¸£ à¹Ģà¸ģà¸©à¸ķà¸£
à¹Ĥ à¸ĸ
à¸ķà¸ļà¸Ńà¸¥ à¹Ĥà¸¥à¸ģ
à¸Ķà¸Ķ à¸Ķ
à¸Ľà¸Ľ à¸ª
à¸° à¸ķà¸Ńà¸Ļà¸Ļ
l ink
à¸Ķà¸Ķà¸Ķà¸Ķ à¸Ķà¸Ķà¸Ķà¸Ķ
à¹ĥà¸Ļ à¸£à¸²à¸¢à¸ģà¸²à¸£
à¸ģà¸ķ à¸²
à¸¡à¸² à¹Ģà¸ķ
t f
à¸ªà¸¡ à¸Ķ
à¸²à¸ĩà¸²à¸Ļ à¸Ļ
à¹Ģà¸Ńà¸²à¹Ħà¸Ľ à¸Ĺ
à¸ŀà¸¢ à¸²à¸ģà¸£à¸ĵ
à¸¡ à¸Īà¸°
à¹Ĥà¸Ķ à¸Ļà¸¢
à¸Ļ à¸ŀà¸£à¸°à¹Ģà¸Ńà¸ģ
à¸Ļà¸ķ à¸Ńà¸ļ
à¸Ħà¸£ à¸Ĺ
Ġà¸ģà¸£à¸£à¸¡ à¸ģà¸²à¸£à¸ľ
à¸²à¸ģà¸¥ à¸²à¸ĩ
à¸© à¸Ī
Ġsam gee
à¹Ħà¸Ĺà¸¢ à¸¡
à¸ķà¸ģà¸¥ à¸ĩà¸ģ
à¸²à¸¡ à¸Ń
Ġà¹ģà¸¥à¸° à¸Ľà¸£
à¹ģà¸£ à¸ĩà¸Ķ
à¸²à¸¡ à¹Ħà¸¡
à¸²à¹ģà¸£ à¸ĩ
Ġc op
à¸§à¸ĩ à¹Ģà¸£
à¸Ńà¸Ļà¸ª à¸¡à¸²à¸Ĭ
à¸µ ?
à¸Ńà¸ĩà¹Ħà¸Ľ à¸ķ
à¸ĵ à¸Īà¸°à¸Ĺ
à¸¥ à¸Ńà¸ģ
à¸ª à¸Ńà¸¢
à¸ĩà¸²à¸Ļ à¸Ħ
k o
à¸Ńà¸¡ à¸Ńà¸¢
à¸ķ à¸Ľ
à¸ģ à¹ģà¸ĭ
à¸²à¹Ģà¸¥ à¸Ļà¹Ħà¸Ĺà¸Ļ
à¸ķà¸£à¸§à¸Īà¸ªà¸Ńà¸ļ à¹ĥà¸«
d tac
à¸Ń à¸Ĺà¸£
Ġà¸¥ à¸¡à¸ķà¸°à¸§
à¸Ļà¸ļ à¸Ńà¸¥
à¹Ģà¸Ħà¸¢ à¸Ĭ
à¸Ńà¸Ńà¸°à¹Ħà¸£ à¸Ħà¸£
à¸²à¸Īà¸° à¹Ģà¸Ľà¸¥
à¸ĩà¸Ĥ à¸²à¸Ķ
à¹Ĥà¸¥ à¹Ĥà¸ģ
ak i
à¸ª à¸²
à¸¢ à¹Ģà¸Ļ
Ġm ag
Ġas ia
ĠðŁĺ Ĥ
à¸ļ à¸ģà¸£à¸°à¸Ĺ
à¸Ķ à¹Ħà¸Ľà¹ģà¸¥
u z
à¸Ĥà¸Ńà¸ĩ à¸«
à¹Ģà¸¥ à¸§
à¸Ļ à¸ĩà¸²à¸Ļà¸Ĺ
à¸ļà¸Ĺ à¸ª
Ġhd d
à¸§à¸¢ à¹Ĥà¸£à¸Ħ
à¹Ģà¸Īà¸Ń à¸ŀ
à¸Ńà¸¡à¹Ģà¸¡ à¸Ļà¸ķ
à¸ģà¸© à¸²à¸Ļ
à¸ļ à¸ģà¸£à¸°à¹Ģà¸Ľ
à¸²à¸£à¸²à¸¢ à¸ģà¸²à¸£
à¹Ĥà¸ģà¸« à¸ģ
Ġà¸ľà¸¡ à¸Ĥ
Ġman ag
à¸ģà¸©à¸² à¹Ĥà¸£à¸Ħ
à¸ķà¸£ à¸§à¸Īà¸£
Ġà¸¡ à¸²à¸Ń
à¸§à¸ĩ à¸Ħà¸£
à¸ĩà¸Ħ à¸¥à¸Ńà¸Ķ
à¸Ľà¸£à¸°à¹Ģà¸łà¸Ĺ à¸Ļ
à¸Ļ à¸²à¸£
99 0
wor ld
à¸Ńà¸ĩà¸ª à¸Ńà¸Ļ
à¸¢à¸ĩ à¸¢
Ġ ant
à¸Ĥà¸²à¸¢ à¹ĥà¸«
à¸Ļà¹ĥà¸Ī à¸ģ
à¸Ńà¸Ļ à¸Īà¸°à¹Ģà¸Ľ
âĢĭ âĢĭ
à¸§à¸ĩ à¸ģà¸¥à¸²à¸ĩ
à¹ģà¸¥à¸° à¹Ģà¸Ĥ
à¸Ļà¸²à¸Ļ à¹Ĩ
Ġ16 0
à¹ģà¸£ à¸ĩà¸ģ
à¹Ģà¸£à¸² à¹Ģà¸Ĭ
à¸Ĺà¸²à¸ĩ à¸Ńà¸Ńà¸ģ
à¸ģà¸ģà¸ģà¸ģà¸ģà¸ģà¸ģà¸ģ à¸ģà¸ģà¸ģà¸ģà¸ģà¸ģà¸ģà¸ģ
à¸¡à¸²à¸ ł
à¸ģà¸© à¸²à¹Ģà¸ŀ
à¹Ģà¸Ħà¸¢ à¹Ģà¸ģ
à¸Ńà¸Ļ à¹Ģà¸Ī
à¸ĵ à¸ĵ
à¸ģà¸ģ à¸İà¸«à¸¡à¸²à¸¢
à¸§ à¸ļà¸Ħ
à¸Ļà¸ķ à¸²
à¸° à¸«à¸£
à¹ĥà¸Ļ à¸ĸ
à¸µà¹ī "
à¸Ļà¸ģà¸²à¸£ à¹Ģà¸Ķ
à¸ĩ à¹Ĥà¸¥à¸ģ
à¸²à¸§ à¹Ģà¸§à¸Ńà¸£
à¸² à¹Ģà¸Ńà¸ģà¸ªà¸²à¸£
à¸ĩà¸¡ à¸²à¸Ļ
à¸Ľà¸£à¸°à¹Ģà¸Ĺà¸¨ à¸į
Ã ©
bl og
à¸¢à¸ĩ à¸Ħà¸£
à¸¢ à¹ģà¸ļà¸ļ
à¹Ģà¸¢à¸Ńà¸° à¹Ģà¸¥à¸¢
à¸²à¸§ à¸«à¸²
à¸ĩ à¹Ģà¸Ĥà¸²à¸ģ
à¸²à¸Ń à¸ĩà¸Ħ
ou l
Ġc redit
à¸Ĥà¸Ńà¸ĩ à¸¢
Ġ7 8
à¸ļà¹Ħà¸Ľ à¸ģ
à¸ŀ à¸Ļà¸ĺ
à¹Ħà¸Ľ à¹Ģà¸Ĥ
Ġà¸ģ à¸°à¸§
à¸Ļà¸¡ à¸°à¹Ģà¸£
à¹ģà¸ĸà¸¥à¸ĩ à¸ģà¸²à¸£à¸ĵ
à¸ĩ à¹Ħà¸£
à¸ģà¸£à¸°à¸Ī à¸ģ
à¸Ńà¸Ļ à¸¥à¸ĩ
à¸«à¸²à¸£ à¸Ĺ
à¸ĸ à¸Ńà¸¢
à¸²à¹Ħà¸Ľ à¹ĥà¸«
à¸£à¸²à¸Ĭ à¸Ķ
à¸ĸà¸²à¸¡ à¸ŀ
à¸¡ à¹Ĥà¸£à¸Ħ
Ġà¸£à¸²à¸¢ à¸Ĭ
à¸Ħà¸§à¸²à¸¡ à¸ŀà¸¢à¸²à¸¢à¸²à¸¡
à¸¢ à¹Ģà¸ª
à¸§ à¹ģà¸ŀ
à¸«à¸¥à¸²à¸¢ à¸Ĭ
à¸²à¸Īà¸²à¸ģ à¸Ĺ
à¸ŀà¸Ń à¹Ģà¸ŀ
à¸ªà¸²à¸¡à¸²à¸£à¸ĸ à¸Ĭ
à¸Ľà¸£ à¸²à¸ģà¸İà¸§
à¸²à¸ĩà¸²à¸Ļ à¸Ľà¸£à¸°à¸Ī
à¸ļà¸²à¸ĩ à¸Ļà¸²
à¸§à¸ĩ à¸Ń
à¸ĩà¸ªà¸Ļà¸²à¸¡ à¸ļ
Ġt ag
ion s
à¸Ńà¸¢à¸²à¸ģ à¹ĥà¸Ĭ
à¸Ķà¸ķà¸²à¸¡ à¸ģ
à¸Ńà¸Ļ à¹ģ
à¸Ńà¸ĩ à¸ªà¸£
à¸ĩà¸²à¸Ļ à¸¡
Ġà¹Ģà¸¥ à¸Ļà¸ª
à¸Ńà¸ĩà¸¡ à¸²à¸£
à¸Ńà¸Ļà¹ĥà¸Ļ à¸ģà¸¥
à¸ģ à¹Ħà¸«à¸¡à¸Ħà¸£
à¸Ľ à¸ļ
à¸²à¹Ģà¸Ĥ à¸²à¸Ĺ
à¸ķ à¸£à¸²à¸
ðŁĺ Ĩ
ik o
Ġ ----
à¸Ħà¸£ à¸£
à¸Īà¸° à¸¥à¸ĩ
à¸§à¸¢ à¹Ģà¸ª
Ġà¹Ģà¸ŀà¸£à¸²à¸° à¸Ńà¸¢
à¹ĥà¸Ļ à¸Ŀ
Ġà¹Ģà¸ŀà¸£à¸²à¸° à¸Ńà¸°à¹Ħà¸£
à¸Ńà¸ĩ à¸Ħà¸¥
à¸ļà¸ļ à¸ļ
à¸Ļ à¸ĺà¸£à¸£à¸¡à¸Ķà¸²
à¸²à¸¢à¹Ħà¸Ľ à¸Ńà¸¢
à¸¢à¸į à¸ªà¸«à¸£
Ġà¹ģà¸¥à¸° à¸ĭ
à¸Ľ à¸Īà¸²à¸ģ
à¸Ĥà¸Ń à¸Ħà¸§à¸²à¸¡à¸Ĭ
à¸Ĥ à¸Ī
à¸²à¸¢ à¸Ńà¸Ńà¸ģ
à¸Ńà¸« à¸²à¸Ĺ
Ġj un
Ġ à¸Ńà¸ļ
à¸Ļà¹ģ à¸ľà¸¥
Ġà¹Ģà¸£ à¸²à¸Ńà¸²à¸¢
ì Ŀ
à¸Ńà¸ģà¸²à¸£ à¹ĥà¸Ĭ
à¹Ĥ à¸ļà¸ģ
à¸Īà¸ļ à¸¥à¸ĩ
Ġà¸Ī à¸Ļà¸ļ
à¸Ĭà¸Ńà¸ļ à¸ª
à¸²à¸ķ à¸Ļà¹Ģà¸Ńà¸ĩ
à¸Ĥ à¸²
à¸ªà¸ª à¸ªà¸ª
à¸¢ à¹Ģà¸Ĥ
à¸ľà¸¥à¸ģà¸£à¸°à¸Ĺ à¸ļà¸ķ
à¸§à¸Ļ à¹Ģà¸ŀ
à¸Ķà¸¡ à¸ģà¸²à¸£à¸ĵ
à¹Ģà¸¥à¸¢ à¹ĥà¸Ĭ
Ġa ward
ðŁĳį ðŁĳį
à¸Ķ à¸łà¸²à¸ŀ
à¸¢à¸¡ à¹Ħà¸§
à¸Ńà¸ļ à¹ĥà¸«
Ġà¸Ĥà¸Ńà¸ĩ à¸ķ
à¸Ń à¹Ħà¸«à¸Ļ
Ġà¸ģà¸²à¸£ à¹Ģà¸Ľ
Ġd on
à¸« à¸²à¹Ħà¸Ķ
à¸¢à¸§à¸¢ à¸²
à¸ļà¸£ à¸Ńà¸ĩà¸§
Ġà¸Ļ à¸²à¸¬
à¸Īà¸° à¹Ħà¸Ľà¸Ĺ
à¸Ħà¸§à¸²à¸¡ à¹Ģà¸Ħà¸¥
à¸ģà¸£à¸£à¸¡à¸ģà¸²à¸£ à¸ļà¸£
à¸²à¸§ à¹Ħà¸§
à¹Ģà¸¨à¸© à¸ª
à¸§ à¸Īà¸°à¸ķ
à¹Ģà¸£ à¸²à¸Ł
à¸¥ à¹ģà¸¥
Ġà¸Ī à¸¢à¸¢
Ġ à¸£à¸°à¹Ģà¸ļ
xx xx
à¸«à¸¡à¸Ķ à¸ģ
Ġà¸ģ à¸Ħ
à¸Ńà¸Ķ à¸ķ
à¸²à¸ĩ à¸¥à¸°
à¸Ńà¸ª à¸²à¸¡
à¸Ń à¸¨à¸²à¸¥
à¸Ħà¸£ à¹Ģà¸Ľ
Ġà¹Ģà¸£à¸²à¸Īà¸° à¸Ĺ
p c
à¸²à¸Ļ à¸Ļà¸°à¸Ħà¸°
à¸«à¸§ à¸²à¸Ķ
à¸§ à¸Īà¸°à¹Ħà¸¡
Ġm ask
à¸²à¸ŀ à¸Ńà¸Ķ
à¸Ń à¹Ģà¸ļà¸Ńà¸£
à¸«à¸¡ à¸Ńà¸Ĭ
à¸§ à¸Ńà¸°à¹Ħà¸£
Ġà¸ª à¸ļ
Ġà¸ķ à¸¥
à¸¡ à¸Ľà¸²à¸ģ
à¹Ģà¸¥à¸Ĥ à¸ļ
h y
Ġà¹ģ à¸Ńà¸Ļ
à¸Ńà¸ĩ à¹Ģà¸«à¸¥
p ol
à¸Ļà¹ģ à¸ª
à¸Ńà¸Ļ à¸Ħà¸Ļà¸Ĺ
à¸Ļà¸Ķ à¸£
à¸Ļà¸ª à¸²à¸£
à¸Ńà¹Ħà¸Ľ à¹Ģà¸£
à¸§ à¸Īà¸°à¸Ĺ
à¸¢ à¹Ģà¸«à¸¡
à¸§à¸Ļ à¸Ħà¸£
Ġà¸¡ à¸«à¸²à¸¥
Ġc ream
à¹Ħà¸« à¸§à¸ģ
à¸²à¸Ļà¸¡ à¸²à¸Ļ
Ġà¸Ĥ à¸Ńà¸¢
à¸ĩà¹Ģà¸Ĺ à¸£à¸²
à¸ĩ à¸£à¸²à¸¢à¸¥à¸°à¹Ģà¸Ń
à¸§à¸£ à¸Ńà¸Ķ
Ġb oy
à¹Ĥà¸¥ à¸§
à¸Ńà¸ĩà¸Īà¸²à¸ģ à¸§
Ġà¸Ĭ à¸¡à¸ŀ
ath er
à¸ŀà¸£à¸°à¸£à¸²à¸Ĭ à¸§
à¸² à¹Ħà¸«à¸Ļ
Ġs il
Ġt ax
à¸ĩà¸Īà¸° à¸Ĥ
Ġà¹Ģ à¹Ģà¸ļ
à¸ĩ à¹ģà¸ŀ
à¸²à¸ĩ à¹ģà¸¡
à¸Ĥà¸Ńà¸ļ à¸ŀà¸£à¸°à¸Ħ
v ent
à¸²à¹Ģà¸Ĥ à¸ķ
à¸§à¸¢ à¸ģà¸¥
Ġ6 8
Ġà¸Īà¸²à¸ģ à¸Ĥ
9 2
à¸ķà¸£ à¸ķ
Ġà¹Ģà¸Ķ à¸£à¸ª
Ġcent ral
à¸Ļà¸Ļ à¸²à¸ĩà¹Ģà¸Ńà¸ģ
in stagram
Ġn ov
Ġà¸ļà¸Ńà¸ģ à¹ĥà¸«
à¸£à¸²à¸¢ à¸ģà¸²à¸£à¸Ĺ
Ġà¸£à¸²à¸Ħ à¸²à¸Ĺ
à¸Ħà¸£ à¸ķ
à¸Ĺà¸²à¸ĩ à¸«à¸¥
à¸Ĥà¸Ń à¸Ħà¸§à¸²à¸¡à¸£
ip hone
Ġà¹Ģà¸Ń à¸²à¹ģà¸ļà¸ļ
Ġv iv
à¸Ĭà¸Ńà¸ļ à¸Ļ
à¸Ļà¹ģ à¸Ĺà¸Ļ
om a
à¸²à¸ĩ à¹ģà¸Ħ
à¸Ļ à¹Ĥà¸Ľà¸£
à¸Ļà¸¢ à¸Ńà¸¡
à¸ĵà¸«à¸¡ à¸Ń
à¸« à¸²à¹Ģà¸£
à¸µà¹ī )
Ġ2 555
à¸Īà¸° à¸«à¸¥
à¸Ĭ à¹Ĥà¸¢
à¸Ļ à¹Ĥà¸¥à¸ģ
à¸¡à¸¡ à¸Ńà¸ĩà¸Ĥà¸Ńà¸ĩ
1 10
à¸²à¸ĩà¸Ĥ à¸§à¸²à¸ĩ
à¸Ļà¹Ħà¸Ľ à¸Ī
à¸²à¸ĩà¸ģ à¸°à¸Ľ
Ġl ip
Ġp tt
Ġ ----------------
Ġà¸ª à¸Ńà¸ĩ
à¸ģà¸²à¸£ à¸Ńà¸Ńà¸ģ
à¸Ĭà¸²à¸¢ à¸«à¸Ļ
Ġà¸ŀà¸¥ à¹Ģà¸Ńà¸ģ
à¸Ļà¹ĥà¸Ī à¸ĭ
à¸¢à¸ĩ à¹Ģà¸£
Ġà¸ľà¸¡ à¸Ńà¸²à¸¢
à¸Ħà¸£ à¸ļà¸£à¸Ńà¸ļ
à¸²à¸ĩ à¸Ńà¸Ńà¸ģ
Ġà¹Ĥà¸Ķà¸¢ à¸£à¸°à¸ļ
à¸ģà¸²à¸£à¸Ĺ à¸«à¸²à¸£
à¹Ģà¸Ħà¸¢ à¸Ī
Ġà¸Ĺ à¸Ļà¸²à¸¢
Ġà¹Ģà¸£à¸²à¸Īà¸° à¹Ħà¸Ķ
à¸Ľà¸£à¸°à¸Ĭà¸²à¸Ĭ à¸Ļà¹Ħà¸Ķ
à¸Ńà¸¢ à¸«à¸£
Ġà¸łà¸²à¸ŀ à¸¢à¸Ļà¸ķà¸£
à¸ļà¸ª à¸²à¸«
à¸Ħ à¹ĥà¸«
Ġà¹ģ à¸Ńà¸Ľ
à¸§à¸¢ à¸¡à¸²à¸ģ
~~ ~~
à¸ļ à¹Ģà¸«à¸¥
y le
à¸Ńà¸ĩ à¸£à¸ĸ
à¸Ń à¹Ģà¸§
à¸²à¸Ĭ à¸²à¸Ķ
Ġ à¸łà¸²à¸©à¸²à¸Ń
à¸ªà¸ĸ à¸²à¸Ľ
Ġf il
à¸ķà¸Ńà¸Ļ à¸ļ
à¸§ à¹ģà¸Ļ
20 20
à¸Ļà¹ģ à¸Ķà¸ĩ
Ġb i
à¸ģà¸© à¸²à¸Ī
à¸Ļà¹Ģà¸Ĭ à¸ªà¹Ģà¸ķà¸Ńà¸£
à¸ģà¸ª à¸²à¸¡
à¹Ĥà¸Ħà¸§ à¸ķ
à¹Ģà¸¥ à¸§à¸£
à¸Ļà¹Ħà¸«à¸Ļ à¸Ĺ
Ġsh are
v en
Ġà¹Ĥà¸¡ à¸ĩà¹Ģà¸Ĭ
à¸Ĥà¸Ńà¸ĩ à¸Ħà¸Ļà¸Ĺ
à¹Ĥà¸Ķ à¸Ļà¸ģ
à¸ģà¸²à¸£ à¸«
à¸ģà¸© à¸²à¹ĥà¸Ļ
Ġm et
à¸Ł à¸ķ
à¸Ńà¸ĩà¸Īà¸²à¸ģ à¹Ħà¸¡
à¸Ńà¸ĩà¸Ń à¸ĺ
Ġà¹Ģà¸ª à¸¡à¸Ń
à¹ģà¸¥à¸° à¹Ģà¸Ħà¸£
ï¸ıâļ« ï¸ıâļ«
ad ow
à¸¡ à¸Ńà¸Ńà¸ģ
m r
Ġ à¹Ħà¸Łà¸¥
à¸ļà¹Ģà¸£ à¸²à¸Ĺ
à¸ļà¸²à¸ĩ à¸Ħà¸Ļà¸ģ
b ts
à¸ĩà¹Ģà¸ģ à¸¥
à¸Ĳ à¸ªà¸łà¸²
à¸Ńà¸¡ à¸²à¸ĸ
à¸¢à¸ĩ à¸Ľ
Ġà¸ªà¸²à¸¢ à¸ģà¸²à¸£à¸ļ
à¸Ļà¸Ķ à¸²à¸¡
à¸ĩà¹Ħà¸ĩ à¹Ħà¸Ķ
Ġinter national
à¸¢à¸Ļ à¸Ħà¸ĵà¸°
à¸Ļà¹Ģà¸ģ à¸²à¸°
à¹ĥà¸Ī à¸Īà¸£
à¸Ħ à¸«
à¸Ľ à¹Ĥà¸Ľ
Ġà¸ľà¸¡ à¸ĭ
à¸ļ à¹ģà¸Ĺ
Ġg am
Ġà¸Ĥ à¸Ńà¸Ĺ
à¸ªà¸£ à¸ĵ
Ġm at
++++++++++++++++ ++++++++++++++++
à¸²à¸Ńà¸°à¹Ħà¸£ à¸ľ
à¸¢ à¹Ģà¸Ħ
à¸Ħà¸§à¸²à¸¡ à¸ģà¸¥
à¸Ļà¸Ĺà¸²à¸ĩ à¹Ħà¸Ľà¸¢
à¸ľà¸¥ à¸ķà¸Ńà¸ļà¹ģà¸Ĺ
à¸Ń à¸£à¸°à¸«à¸§
à¹Ģà¸§à¸¥ à¸²à¸ģà¸¥
à¸²à¸£à¸¢ à¸²à¸Ĺ
à¸µà¹Ī âĢĭ
er man
Ġà¸Ĥà¸Ń à¸Ħà¸§à¸²à¸¡à¸£
à¹Ĥ à¸ĺ
à¸Ħ à¹Ħà¸Ķ
à¸Ĥ à¸Ńà¸Ĺ
à¸Ħà¸Ļ à¹ĥà¸Ĭ
à¹Ģà¸Ħà¸¢ à¹ĥà¸«
à¸ģà¸²à¸£ à¸Ľà¸£à¸°à¸ģà¸²à¸¨
ðŁĺ Ħ
à¸ĩà¸ª à¸ĩà¸ª
à¹Ĳ à¹Ĳ
Ġp at
à¸²à¸¥ à¸ĩà¹Ħà¸Ľ
p df
à¸²à¸Ń à¸Ńà¸Ļà¹Ħà¸¥à¸Ļ
Ġf ore
à¸ĩ à¸«à¸£à¸Ń
¹ ĺ
Ġà¸ķà¸Ńà¸Ļ à¹Ģà¸Ĭ
à¸¢à¸«à¸²à¸¢ à¸Ĺ
st ar
à¸²à¸¨ à¸ŀ
à¸¢à¸§ à¹Ģà¸Ľ
à¹ģà¸Ĺà¸ļ à¸Īà¸°à¹Ħà¸¡
Ġg ps
à¸Ķ à¹Ģà¸ķà¸£
Ġt ab
Ġle ague
à¸ģà¸Ń à¸²à¸Ĺ
à¸ŀà¸§à¸ģ à¹Ģà¸Ĥ
à¸¡ à¸Ńà¸£
à¸Ńà¸Ļà¸Ķ à¸Ńà¸Ļ
à¹Ģà¸Ī à¸Ķ
à¸Ļà¸«à¸¡à¸Ķ à¹ģà¸¥
à¸§ à¸Īà¸°à¹Ħà¸Ķ
à¸Ń à¹ģà¸Ķ
à¸§à¸Ļ à¹Ħà¸Ķ
à¸²à¸Ń à¸£
à¸²à¸Ľà¸£à¸° à¹Ĥà¸¢à¸Ĭà¸Ļ
à¸ģà¸£à¸£à¸¡ à¸ª
à¸Ńà¹Ħà¸Ľ à¹ģà¸¥
à¸ģà¸© à¸²à¹ĥà¸«
à¸²à¸ŀà¸§à¸ģ à¸Ļ
à¸ªà¸²à¸¡à¸²à¸£à¸ĸ à¸¢
à¸¢à¹ĥà¸Ī à¸ģ
b ur
k r
Ġà¸Īà¸° à¸ģ
à¸Ńà¸ģ à¸İà¸«à¸¡à¸²à¸¢
m ar
Ġp adding
à¸Ńà¸¡ à¸²à¸£
à¸§à¸£à¸£à¸© à¸Ĺ
b ig
à¸²à¹Ħà¸¡ à¸¢
à¸ļ à¸¡à¸²à¸ĸ
à¸Ķ à¹Ģà¸¥à¸¢à¸Ħ
Ġa ss
à¸ķ à¸¥à¸ģ
à¸²à¸Ļ à¸ģà¸§
Ġte ch
à¸ļà¸¡ à¸Ńà¸ļ
à¸Ļà¸Īà¸²à¸ģ à¸Ĺ
:: ::
à¸ģà¸ķ à¸Ńà¸Ļà¸Ļ
Ġà¸Ĥà¸Ńà¸ĩ à¸ľà¸¡
à¸ĩà¸ļ à¸Ńà¸¥
à¸Ńà¸ģ à¸Ĭ
à¸Ń à¹Ģà¸ªà¸£
à¸«à¸¥à¸²à¸¢ à¹Ģà¸Ķ
à¸Ļà¸¡à¸² à¹ĥà¸Ĭ
al th
à¸ļà¸Ńà¸ģ à¸Ķ
à¹Ģà¸ĺ à¸Ńà¸Ħ
à¸Ħà¸Ļ à¹ĥà¸Ļ
ind ex
à¸ªà¸²à¸¢ à¸Ļ
à¸Ľà¸£à¸°à¹Ģà¸Ĺà¸¨ à¸Ļ
à¸Ķ à¸Ľà¸£à¸°à¸Ī
à¸§à¸ĩ à¸£
à¸²à¸Ĺ à¸²à¸¢
Ġà¸ļà¸Ńà¸ģ à¸ģ
à¸ļ à¹Ģà¹Ģà¸Ł
à¸Ļà¸ł à¸²à¸£à¸°
à¹Ģà¸ģ à¸¡à¸Ĺ
Ġà¹ģà¸ĸ à¸¡à¸¡
à¸Ńà¸¢à¸²à¸ģ à¸ĭ
à¸Ĭà¸²à¸¢ à¸Ħà¸Ļà¸«à¸Ļ
Ġà¹Ħà¸Ľ à¸Īà¸Ļà¸ĸ
à¸ªà¸²à¸¢ à¸ŀ
á ħ
à¸Ńà¸Ļ à¹Ģà¸Ļ
à¸² à¹Ģà¸ļà¸Ńà¸£
à¸ģà¸łà¸²à¸Ħ à¸ª
à¸§à¸ĩ à¹Ģà¸§à¸¥à¸²à¸Ļ
à¹ģà¸Ħ à¸Ľà¸Ĭ
à¹ģà¸ªà¸Ķà¸ĩà¸Ħà¸§à¸²à¸¡ à¹Ģà¸ª
Ġà¹Ģà¸Ĺ à¸ŀ
à¸²à¸Ļà¸¡ à¸²à¸¡
à¸Ľà¸§ à¸Ķà¸Ĺ
à¸¥à¸Ķ à¸Ħ
Ġblack pink
à¸§à¹Ģà¸Ńà¸ĩ à¹ģà¸¥
à¸Ĭ à¸²à¸ģ
à¹ģà¸ļà¸ļ à¸ļ
à¹ģ à¸Ńà¸Ł
Ġst and
Ġà¸ģà¸£à¸¡ à¸Ń
Ġà¹ģ à¸Ńà¸Ļà¸Ķ
à¹Ĥà¸Ķ à¸£
à¸Ļà¹Ģà¸¥à¸¢ à¸Ķ
à¹Ģà¸ŀà¸£à¸²à¸° à¸Ńà¸°à¹Ħà¸£
ul ar
à¸ĩ à¸ĺ
à¸įà¸« à¸²à¹Ģà¸ģ
u i
à¸§ à¸Īà¸°à¸£
à¸²à¸ĩ à¹Ģà¸ĩ
Ġg ot
à¹Ĥà¸£à¸ĩà¹ģà¸£à¸¡ à¸Ĺ
à¸ĩà¸Īà¸° à¸ª
à¸²à¸¢ à¹Ģà¸¥
à¸²à¸¢ à¹Ģà¸Ħà¸£
à¸ĵ à¸Ńà¸²à¸Ī
à¸Ĳà¸ļà¸²à¸¥ à¸ģ
à¸²à¹Ģà¸ª à¸Ļ
à¸Ľà¸£à¸°à¹Ģà¸Ĺà¸¨ à¸Ĭà¸²à¸ķ
à¸Ķ à¸ľà¸¥
à¹Ģà¸Ń à¸²à¸Ńà¸Ńà¸ģ
à¹Ħà¸Ľ à¸Ľ
à¸Ńà¸ĩ à¹ģà¸Ĺ
à¹Ĩ à¸¡
à¸Ńà¸Ļà¸Ļ à¸Ńà¸Ļ
à¸Ń à¹ģà¸ŀ
à¸Īà¸²à¸ģ à¸¥
à¹Ĥà¸£à¸Ħ à¸Ī
Ġre c
à¸¢à¸§ à¹Ģà¸¡
-------------------------------- ----------------
y s
à¸² à¹Ģà¸«à¸£
à¸ģ à¹ģà¸£à¸ģ
à¸£à¸²à¸ļ à¸£
Ġk y
à¸¢à¸ĩ à¹Ģà¸ŀ
à¸Ħà¸Ļ à¸Ľ
pl us
Ġweb site
Ġ à¸Ńà¸ļà¸ķ
ðŁĳ ī
à¸Ń à¸«à¸¢
ug ab
à¸²à¸ĭ à¸²à¸Ķ
Ġà¸Ĥà¸Ńà¸ĩ à¸£
à¸ĩà¸¡ à¸§à¸¥
Ġm ir
à¸Ńà¸Ħà¸§à¸²à¸¡ à¸Ľà¸¥à¸Ńà¸Ķà¸ł
Ġn ok
à¸ļ à¸£à¸²à¸Ĭà¸ģà¸²à¸£
à¹ĥà¸Ļ à¹Ģà¸Ĭ
à¸ĵ à¹Ģà¸Ķà¸Ĭà¸Ļ
à¸²à¸Ħà¸§à¸²à¸¡ à¸Ķ
Ġp a
m w
à¸Ķà¹Ģà¸Ĭ à¸¢
à¸¹à¹Ī âĢĿ
à¹Ģà¸Īà¸Ń à¹Ģà¸ŀ
à¸ĩà¸Ĥ à¸Ńà¹ĥà¸«
à¸ļà¹ģà¸Ł à¸Ļà¸Ħ
à¹Į :
à¸Ĺ à¸Ńà¸ĩà¸Ħ
Ġà¸ģà¸£à¸° à¹ģà¸ª
¹ Ļ
à¹Ħà¸Ĺà¸¢ à¸ŀà¸²à¸ĵ
à¸Ļ à¸Ħà¸§à¸²à¸¡à¸Ħ
à¸²à¸Ħ à¸¥à¸Ńà¸Ķ
Ġ1 25
à¸Ńà¸Ļà¸¡ à¸ģà¸£à¸²à¸Ħà¸¡
à¸Ńà¸Ļ à¸°à¸Ħà¸£
à¸Ńà¸Ļ à¹Ģà¸ķ
st em
à¸²à¸ĩ à¸Ł
à¸ļ à¸Ńà¸Ńà¸ģ
Ġ17 0
âĢ į
à¹Ĥà¸¥ à¸ķ
à¸Ļà¸Ħà¸£ à¸Ľà¸Ĳà¸¡
à¸§à¸Ļ à¸Ľà¸£à¸°à¸ģà¸Ńà¸ļ
à¸¢à¸ļ à¹Ħà¸¡
à¹Ĥà¸£ à¸ĩà¸ŀ
à¸Ńà¸Ļ à¸Ħà¸¥
à¹Ģ à¹Ģà¸Ī
à¸¡ à¸Ľà¸£à¸°à¸ª
à¸²à¹Ģà¸£ à¸²à¸Ħà¸§à¸£
à¸²à¸Ļ à¸²à¸Ħ
à¸ģà¸£ à¸¡à¸Ń
à¸Ńà¸ķ à¸ķ
à¸µ (
à¸łà¸²à¸ŀ à¸£
ðŁĳı ðŁĳı
Ġà¸¥ à¸Ńà¸ĩà¸Ħ
à¸¡à¸ķ à¸¥à¸Ńà¸Ķ
Ġv er
à¸² à¹Ģà¸ľ
à¹Ģà¸Ĥà¸² à¹Ģà¸¥à¸¢
à¸Ńà¸Ļ à¹ģà¸Ń
à¸²à¸Ļ à¹Ģà¸Ńà¸ĩ
ol og
à¸£à¸ĵ à¸²à¸ģà¸²à¸£
à¸ĩà¸ŀ à¸ļà¸§
p a
. "
à ¹Ļ
à¸Ń à¹ģà¸Ķà¸ĩ
à¸Ńà¸¡à¸²à¸ģ à¸ģà¸§
à¸Ĥà¸łà¸²à¸ŀ à¸Ī
à¸« à¸§à¸¢
à¸Ļà¸ļ à¸²à¸ĩ
à¸« à¸²à¸«à¸¡à¸Ń
à ¹ĺ
à¸²à¸Ļ à¹Ģà¸£à¸²à¸ģ
à¸Ńà¸ĩ à¹Ħà¸Ľà¸Ķ
Ġà¸Ĥà¸Ńà¸ĩ à¸ľ
à¸ĩà¹ĥà¸Ļ à¸ķ
à¸Ļ à¹Ĥà¸¡
à¹Ģà¸Ń à¸¥
à¸ģ à¸Īà¸°à¹Ģà¸Ľ
à¸£à¸²à¸Ħ à¸²à¸ģ
à¸ģà¸²à¸ĩà¹Ģà¸ģ à¸ĩà¸¢
à¸§ à¸Ħà¸Ļà¸Ĺ
à¹Ĥ à¸Ńà¸£
à¸Ľà¸£ à¸ģà¸ķ
à¸ªà¸Ļ à¹Ģà¸Ĺà¸¨
à¸§à¸Ļ à¸Ńà¸¢
à¸²à¸ĺ à¸Ļà¸²à¸Ħà¸²à¸£
à¸ĩà¸Ĥ à¸§
Ã Ĺ
à¸Ħ à¸ĩà¸¡
à¸£à¸°à¸¢à¸° à¹Ģà¸§à¸¥à¸²à¸Ĺ
à¸ķà¸£ à¸ĩà¸Ī
à¸Ĥà¸Ń à¹Ģà¸ĩ
à¸²à¸§ à¸ģà¸¥
à¸²à¸¡ à¸«à¸²à¸§
à¸ĩ à¹Ħà¸«à¸¡à¸Ħà¸£
à¸Ĺ à¸Ī
à¹Ģà¸¥ à¸Ļ
à¸Ńà¸ģ à¹Ģà¸Ĥ
à¸Ħà¸Ļ à¹Ĥà¸ķ
p le
à¸Ĺ à¹Ģà¸¡
à¸§à¸ĩ à¸Ĥ
a ur
Ġà¸ģà¸²à¸£ à¹Ģà¸Ĥ
hd news
à¸§ à¹Ģà¸Īà¸Ńà¸£
Ġà¸Ī à¸¡
à¸ļà¸ª à¸¡à¸²à¸Ĭ
Ġà¸Ļ à¸§
à¸ªà¸¡ à¸Ħ
à¹ģà¸ķ à¸°
à¸¢à¸§ à¹Ĥà¸ķ
Ġà¸ŀà¸£à¸° à¸ļà¸²à¸Ĺà¸ªà¸¡à¹Ģà¸Ķ
à¸¢à¸Ńà¸Ķ à¹Ģà¸ĩ
à¸²à¹Ħà¸Ľ à¸ŀ
à¸Ń à¸Ħà¸Ļà¸Ń
à¸²à¸«à¸¡ à¸²à¸¢à¸Ĺ
à¸ģà¸ķ à¸Ńà¸Ļ
à¹Ĥà¸Ķ à¸Ļà¸ļ
à¸Ń à¸ķà¸£à¸§à¸Īà¸ªà¸Ńà¸ļ
à¸° à¹Ģà¸Ħ
à¸Ħ à¸ªà¸¡
à¹Ģà¸ŀà¸£à¸²à¸° à¸ĸ
à¸ĵ à¸Ļà¸°à¸Ħà¸°
Ġà¸£à¸²à¸Ħà¸² à¹Ģà¸ķ
à¸Ńà¸ļà¸Ħ à¸Ńà¸ļ
à¸ļ à¸²à¸Ľ
à¸ĩà¸ŀà¸¥ à¸²à¸ªà¸ķ
à¸ĩ à¹Ģà¸¢
à¸Ĥ à¸¡à¸²à¸ģ
à¸Ļà¸Ńà¸Ļ à¸«à¸¥
à¸Ħ à¸ªà¸Ĭ
à¹Ĥ à¸«à¸Ļ
à¸ĩà¸¢ à¸²à¸ĩ
à¸Ńà¸ĩ à¹Ģà¸ļ
à¸ŀà¸£à¸° à¸ļà¸£à¸¡à¸£à¸²à¸Ĭ
à¸ļà¸²à¸ĩ à¹Ģà¸£
à¸Ĺà¸ĺ à¸¨
à¸£ à¸Ĭ
à¸Ĥ à¸Ńà¸ķ
à¸Ńà¸Ķ à¸Ļ
à¸²à¹Ħà¸Ľ à¹Ģà¸Ľ
Ġ6 9
à¸ĩ à¹Ģà¸ķà¸£
à¸²à¸¡ à¸£
Ġà¹Ĥà¸Ķà¸¢ à¸£
à¸ģà¸Ĳà¸²à¸Ļ à¸Ĺ
à¸° à¹Ĥà¸ģ
à¸Ļ à¹Ħà¸Ń
à¸Ĺà¸£ à¸ĩà¸ŀà¸£à¸°
à¸²à¹Ħà¸£ à¹Ħà¸¡
à¸¢à¸Ķ à¸Ķ
à¹ĥà¸Ļà¸ģà¸²à¸£ à¸ģ
Ġpack age
Ġà¹ĥà¸Ļ à¸£à¸°à¸«à¸§
Ġ0 4
à¹Ģà¸Ĺà¸ŀ à¸«à¸£
Ġà¸ŀà¸£ à¸«à¸¡
à¸Ļà¹Ģà¸£ à¸²à¸Ĺ
à¹Ħ à¸§à¸Ļ
à¸Ĭà¸Ńà¸ļ à¹Ģà¸£à¸²
à¸Ńà¸¢ à¹Ģà¸«
à¸Ļà¸ģà¸²à¸£ à¹Ģà¸£
à¹Ģà¸Ħà¸¢ à¹Ģà¸£
à¸Ń à¸£à¸°à¸ļà¸ļ
à¸Ľà¸£ à¸²à¸£à¸ĸ
à¸²à¸ª à¸Ľà¸Ńà¸£
à¸ģà¸ĩà¸²à¸Ļ à¸Ń
Ġ Ì
Ġà¸«à¸¥à¸²à¸¢ à¸Ħà¸£
à¸Ļ à¸²à¸§
à¸ļ à¸£à¸²à¸ĵ
à¸Ĭà¸Ļ à¸ļà¸Ĺ
Ġà¹Ģà¸£ à¸²à¹Ģà¸Ķ
Ġà¸ķà¸Ńà¸Ļ à¹Ģà¸Ķ
à¸Ń à¸Ħà¸£à¸Ńà¸ļà¸Ħà¸£
à¸¥à¸ĩ à¸§
à¹Ħà¸Ľ à¸ªà¸¡
Ġà¸Ńà¸°à¹Ħà¸£ à¹ģà¸ļà¸ļà¸Ļ
à¹Ģà¸Ń à¸²à¸Ķ
à¸¡ à¸Ļà¸°
à¸ķ à¹ĥà¸«à¸¡
à¸Ķ à¹Ģà¸ģà¸¡
à¸Ħ à¸ĩà¸Ĺ
Ġ2 20
Ġà¸¡ à¸²à¸ŀà¸£
à¸¡ à¹Ħà¸«à¸Ļ
Ġsk in
à¸²à¸ĩ à¸§à¸Ķ
à¸Ńà¸Ļ à¹Ģà¸ĭà¸Ńà¸£
à¸²à¸ĸ à¸Ļà¸Ļ
à¸µà¹ī âĢĭ
à¸¨ à¸ķà¸°à¸§
à¹ģà¸¥ à¸¥
à¸ĩà¹ĥà¸Ļ à¹Ģà¸£
2 000
Ġbeaut y
à¸ļà¸¡ à¸²à¸ķ
gr ound
f ect
à¸²à¸Ļ à¹Ģà¸Ļ
à¸§à¹Ģà¸Ńà¸ĩ à¸¢
id a
Ġwal k
b angkok
à¹Ģà¸£à¸²à¸Īà¸° à¹Ħà¸¡
Ġf ood
à¸Ĭ à¸²à¸Ļ
à¸Ńà¸Ļ à¸£à¸ĸ
à¸ļà¸ģà¸²à¸£ à¸Ħ
à¸Īà¸° à¸ŀà¸¢à¸²à¸¢à¸²à¸¡
à¹ģà¸Ńà¸Ľ à¸ŀà¸¥
à¸ĵ à¸Ĥ
à¸²à¸ģà¸²à¸£ à¸Ħ
à¸¢à¸ĩ à¸ļ
Ġh ard
à¸Ļà¹Ģà¸Ī à¸Ńà¸£
à¹Ĥà¸Ĭ à¸Ħà¸Ĭ
à¸Ń à¸Ńà¸¢à¸²à¸ģà¸£
à¸Ń à¸²à¸Ļ
à¸ľà¸¡ à¸ĭ
Ġà¸ŀ à¸Ńà¸Ħ
à¸²à¸£à¸° à¸ļà¸²à¸¢
à¸ģà¸Ħà¸Ļ à¸Ķ
à¸ģà¸Ħà¸Ļ à¸§
à¸Īà¸° à¸Ł
à¸ļà¸Ńà¸ģ à¹Ħà¸Ľà¸§
ee p
à¹ģà¸¥à¸° à¸ļà¸£
à¸Ńà¸ĩà¸Īà¸²à¸ģ à¸Ĺ
c a
à¸¢à¸¡ à¸Ī
Ġà¹ĥà¸Ħà¸£ à¸ŀà¸Ńà¸Ĺà¸£à¸²à¸ļ
à¸ģ à¸Ļà¸°à¸Ħà¸£
à¸§à¸¢ à¹Ģà¸Ĥ
f rame
Ġacc ount
à¸¡ à¸Ńà¸¥à¸¥
à¸Ńà¸ĩ à¸ĸà¸²à¸¡
à¸²à¹Ģà¸Ĺ à¸Ħà¹Ĥà¸Ļà¹Ĥà¸¥à¸¢
à¸ģ à¸£à¸²à¸Ł
à¸§à¸¥à¸°à¸Ħà¸£ à¸Ĺ
à¸Īà¸° à¸ģà¸¥à¸²à¸¢à¹Ģà¸Ľ
à¸į à¸Ľ
à¸ļà¹Ħà¸Ľ à¸ª
à¹Ģà¸¡ à¸¥à¸¥
Ġà¹Ģà¸£ à¸²à¸Ĭ
Ġ6 6
à¸Ļà¸Ńà¸Ńà¸ģ à¸Īà¸²à¸ģ
Ġà¸Ľà¸£à¸°à¹Ģà¸Ĺà¸¨ à¸Ń
à¸«à¸£ à¸Ńà¸Ħ
à¹ĥà¸Ļà¸ģà¸²à¸£ à¹ģà¸Ĥ
à¸ģà¸²à¸£ à¹Ģà¸Ħà¸¥
à¸ģ à¸²à¸Ĺ
à¸ĵ à¸ĺà¸£à¸£à¸¡
à¸²à¸§ à¸ĭ
à¸Ńà¸¢ à¹Ħà¸§
à¸²à¹Ģà¸£ à¸²à¸Ń
Ġà¸¡ à¸²à¸Ńà¸¢
à¸Ħà¸§à¸²à¸¡ à¹ģà¸ķà¸ģà¸ķ
Ġà¹Ĥà¸Ķà¸¢ à¸¢
à¸ŀ à¸Ľà¸Ĭà¸£
à¸ļ à¹Ĥà¸Ħà¸£à¸ĩà¸ģà¸²à¸£
à¹Ģà¸Ĺ à¸²
Ġm ake
Ġà¸ŀ à¸²à¸¢
à¸ģà¸¥ à¸Ļà¸Ħà¸£
Ġapp lic
Ġà¹Ģà¸ŀà¸¥à¸ĩ à¸Ļ
à¸²à¹Ħà¸ĩ à¸Ħà¸£
à¸¢ à¹Ħà¸§
à¸¥ à¸²à¸Ńà¸Ńà¸ģà¸Īà¸²à¸ģ
à¸Īà¸²à¸ģ à¸Ĥ
à¹ģà¸ļà¸ļ à¸Ķ
à¸ģ à¸Ĭà¸²à¸ķ
à¸Ńà¸ĩà¸ģà¸²à¸£ à¸ģ
à¹Ī ,
à¸Ļà¸²à¸¢ à¸§
à¸ªà¸²à¸¢ à¸ª
à¸Ńà¸ļ à¸²à¸ĩà¸Ĺ
à¸ĩà¸¡à¸²à¸ģ à¹Ĩ
à¸ĩà¸Īà¸° à¸ĸ
n n
Ġ à¸«à¸¡à¸²à¸¢à¸Ħà¸§à¸²à¸¡à¸§
à¸ĵ à¹Ģà¸Ī
Ġà¸Ħà¸§à¸²à¸¡ à¹Ģà¸«
à¸²à¸ķ à¸²à¸Ļ
Ġss d
om i
à¸ķà¸²à¸¡ à¸Ń
à¸Ļà¸²à¸Ļ à¸¡à¸²à¸ģ
à¸ĩ à¸Ńà¸Ńà¸ģà¹Ħà¸Ľ
à¸Ĭà¸²à¸¢ à¸Ħ
à¸ļ à¸§à¸¡
à¸ģà¸«à¸¥ à¸²à¸Ļ
à¸Ļà¸Ńà¸ģ à¸£à¸°à¸ļà¸ļ
Ġs ex
Ġà¸ª à¸ĩà¸Ħà¸£à¸²à¸¡
à¸²à¸¡ à¸ĸà¸Ļà¸Ļ
Ġà¹Ģà¸Ń à¸ª
Ġex press
Ġb el
à¹Ģà¸ĭ à¸Ļà¹Ģà¸ķà¸Ńà¸£
à¹ģà¸ªà¸Ķ à¸ĩà¸ķ
à¸ĩà¸²à¸Ļ à¸Ńà¸¢
à¸Ļà¸ģà¸²à¸£ à¹Ģà¸¡
à¸©à¸¢ à¸Ĭà¸Ļ
m o
à¸Ķà¹Ģà¸ŀ à¸¥
à¸Ļ à¸²à¸ĩà¸ģ
Ġch an
à¹Ĥà¸Ĺà¸£ à¸Ħ
Ġà¹ģà¸Ł à¸Ļà¸ģ
Ġà¸ª à¸§à¸¡
à¸Ńà¸Ńà¸Ńà¸Ń à¸Ńà¸Ńà¸Ńà¸Ń
Ġre l
à¸ªà¸§à¸¢ à¸Ĺ
Ġnet flix
à¸²à¸« à¸²
à¹Ģà¸¥à¸¢ à¸ĸ
Ġà¹Ħà¸Ľ à¸Ń
à¸Ĥà¸²à¸Ķ à¹ģà¸Ħà¸¥
à¸§ à¹ĥà¸Ħà¸£
à¸ķà¸Ńà¸ļ à¹Ĥà¸ķ
à¹Ģà¸Ĭ à¸Ł
à¸²à¸¢à¸¡ à¸²à¸Ńà¸¢
à¸¢à¸¡ à¹Ģà¸Ľ
à¹Ģà¸Ĺ à¸§
à¸ĩà¸Īà¸²à¸ģ à¸¡
ðŁĶ ¥
à¹Ĥà¸Ķà¸¢ à¸ķà¸£
à¸Ńà¸£ à¸Ńà¸ĩà¸£
Ġà¸ģ à¸²à¹ģà¸Ł
à¸Ļà¸Ĺ à¸£à¸¡
à¸²à¸Ħ à¸Ļà¹Ħà¸Ĺà¸¢
Ġà¹Ģà¸Ń à¸²à¸¥
Ġun l
à¸ģ à¹Ħà¸Ľà¹ģà¸¥
à¸ģ à¹Ģà¸Ńà¸ĩ
à¸¢à¹ĥà¸Ī à¸Ĺ
à¸²à¹Ħà¸¡ à¸ľ
à¸ŀ à¸ļà¸ľ
à¸Ľ à¸Ĥà¸Ńà¸ĩ
Ġà¸ģ à¸ª
à¹Ģà¸¥à¸¢ à¹ģà¸ķ
à¸ĩ à¸ĩà¸§
Ġ à¸«à¸¡à¸²à¸¢à¹Ģà¸«à¸ķ
à¸ĩ à¸£à¸²à¸¢à¸ģà¸²à¸£
à¸¢ à¸²à¸ļ
à¸Ķ à¸Ĥà¸²à¸¢
Ġà¹Ĥà¸Ķà¸¢ à¹Ģà¸Ī
à¸²à¸Ļ à¸¥à¸°
Ġà¸¥ à¸Ńà¸ĩà¸«
à¸¡ à¸ĵ
Ġà¸Ħà¸£ à¸ļ
Ġl g
à¸¡à¸²à¸ķà¸£ à¸§à¸Ī
at ure
à¸¢à¸Ķ à¸Ļ
à¸§ à¹ģà¸«à¸¥à¸°
à¸² à¹Ħà¸¥
à¸Ļà¸£à¸ĸ à¹Ħà¸Ł
à¹ģà¸ªà¸Ķà¸ĩà¸Ħà¸§à¸²à¸¡ à¹Ģà¸«
à¹Ī -
Ġà¹ĥà¸Ļ à¸¡
à¸ªà¸²à¸£ à¹Ģà¸Ħà¸¡
à¸²à¹Ģà¸Ķ à¸¡
Ġà¸Īà¸²à¸ģ à¸Ľ
à¸Ķ à¸Ħà¸Ļ
z a
à¸ļ à¸Ľà¸£à¸°à¸Ĭà¸²à¸Ĭà¸Ļ
à¸§à¸²à¸ĩ à¸ķ
Ġà¸Ľà¸¥ à¸²à¸¢
à¸ģà¸© à¸²à¸ľ
k a
à¸Ĺ à¸Ľà¸£à¸°à¸ģ
à¸Ĺ à¸Ķà¸¥à¸Ńà¸ĩ
à¸Ńà¸ĩ à¹ĥà¸Ļà¸§
à¹ģà¸Ħ à¸¡à¹Ģà¸Ľà¸į
à¹Ģà¸£à¸² à¹Ģà¸ŀ
Ġà¸ģ à¸£à¸°à¸Ķ
à¸Ļà¹Ĩ à¸Ĺ
à¸¡à¸² à¹Ģà¸Ĭ
à¸Ķ à¸Ńà¸Ļà¹Ģà¸¡
à¸ļà¸ļ à¸Ńà¸ģà¸§
à¸Ļà¹Ĥ à¸Ī
à¸¡à¸Ľ à¸Ĺà¸²à¸Ļ
à¸Ńà¹Ģà¸£ à¸²à¸Ĺ
à¸¥ à¸Ī
à¸²à¹ĥà¸Ī à¸ĸ
à¸ª à¹ģà¸¥
à¹ĥà¸Ħà¸£ à¹Ģà¸Ĥ
à¸į à¹Ģà¸ķ
à¸Ĺà¸ĺ à¸²
Ġà¸«à¸¥à¸²à¸¢ à¹Ĩ
Ġà¹Ģà¸¥à¸¢ à¸¥à¸Ńà¸ĩ
ĠðŁĳ Ĺ
à¹Ģà¸Ń à¸²à¸Ĥà¸Ńà¸ĩ
à¸Ńà¹Ħà¸Ľ à¸§
à¸¡ à¹Ħà¸«à¸¡
à¸Ńà¸ĩà¸Ń à¸²à¸¨
à¹ģ à¸£à¸°
à¹Ħà¸Ľà¸« à¸²à¸«à¸¡à¸Ń
¹ Ĺ
à¸Ńà¸¡ à¸ģà¸¥
à¸Ĭà¸Ńà¸ļ à¸Ń
Ġà¸Ī à¸Ļà¸ľà¸¡
à¸²à¸Ļ à¸Ł
Ġs d
à¸Ńà¸Ľ à¸ģà¸ķ
Ġà¹Ĥà¸Ľà¸£ à¹Ĥà¸¡à¸Ĭ
à¸²à¸£à¸ĸ à¸ķ
à¹Ģà¸Ī à¸Ńà¸Ń
if ic
Ġà¸Ľà¸£à¸° à¸«à¸¢
à¸° à¹Ħà¸Ķ
Ġd ata
à¹Ģà¸ĺ à¸Ńà¸Ļ
à¸Ķà¸ģà¸²à¸£ à¹Ģà¸£
à¸§à¸¡ à¹Ĥà¸Ħà¸£à¸ĩà¸ģà¸²à¸£
à¸¡à¸² à¹Ģà¸Ķ
à¸į à¸«à¸Ļ
b ack
à¹ĥà¸Ļ à¹Ģà¸Łà¸ª
à¸ļ à¸ģà¸¥à¸²à¸¢à¹Ģà¸Ľ
à¸ģà¸£ à¸Ń
à¹Ģà¸ĺ à¸Ńà¸¢
à¹ģà¸¥ à¸Ķ
à¸Ļà¹ģà¸ļà¸ļ à¹Ħà¸«à¸Ļ
à¸²à¸¢à¸Ĺ à¸°à¹Ģà¸ļ
à¸Ħà¸§à¸²à¸¡ à¸ĸ
Ġà¸ķ à¸Ħ
à¸£à¸ĸ à¸¡
à¸Ķ à¹Ĥà¸Ķà¸¢
à¸²à¸Ĭ à¸²à¸§
ĠðŁĳ į
à¹Ģà¸ļ à¸¥à¸¥
Ġà¸«à¸²à¸ģ à¸Ĺ
à¹Ģà¸ľ à¸¢à¸§
à¸ģà¸£ à¸²à¸Ħ
t ag
à¸Ļà¹Ģà¸ª à¸¡à¸Ń
à¸Ķ à¸Ļà¸°à¸Ħà¸£
à¸¢à¸Ķ à¸²à¸¢à¸Ĺ
à¸Ļà¸ķ à¸ģà¹Ģà¸ī
20 16
ch annel
à¸²à¹ĥà¸Ļ à¸Ĺ
à¸Ĥà¸Ńà¸ĩ à¸Ľà¸£à¸°à¸Ĭà¸²à¸Ĭà¸Ļ
à¸Ļà¹Ģà¸£ à¸²à¸ķ
Ġà¸£à¸ļà¸ģà¸§à¸Ļ à¹Ģà¸ŀ
à¸²à¸¢ à¹Ģà¸¡
Ġà¸Ī à¸Ļà¹Ģà¸ģ
à¹ģà¸¥à¸° à¸Ħà¸£à¸Ńà¸ļà¸Ħà¸£
à¸Ĺà¸²à¸ĩ à¹Ģà¸¨à¸£à¸©à¸Ĳà¸ģ
Ġà¹ģà¸¥à¸° à¸ľà¸¡à¸ģ
à ¹Ĺ
à¸¡ à¸Īà¸£
à¸ŀà¸Ń à¹Ģà¸Ľ
à¸¥ à¹Ģà¸§
à¸²à¹ĥà¸Ħà¸£ à¸¡
à¸¨à¸²à¸Ī à¹ģà¸Ķà¸ĩ
à¸Ķà¸¡ à¸¨
à¸ļ à¸§à¸ĩ
à¸Ľà¸£ à¸²à¸ģà¸İ
à¸Ķ à¸ļà¸Ńà¸¥
à¹Ĥà¸¥à¸ģ à¸Ńà¸Ńà¸Ļà¹Ħà¸¥à¸Ļ
à¸£à¸²à¸ ŀ
Ġà¸« à¸²à¸Ĥ
à¸ĩ à¹Ģà¸ļà¸Ńà¸£
à¸²à¸Ļà¸¡ à¸²à¸Ĺ
à¸Ļ à¸¡à¸²à¸Ĭ
à¸¢à¸§ à¸ĸ
à¸¡à¸²à¸ģ à¸¢
à¸ķ à¹Ģà¸£
à¹Ģà¸ª à¸ŀ
à¸Ļà¹ģ à¸Ļà¸¥
à¸Ńà¸ĩ à¸ĸà¸Ļà¸Ļ
Ġ ........
à¸ģà¸ĩà¸²à¸Ļ à¹ĥà¸«à¸į
à¹Ģà¸Ĥ à¸²à¹Ģà¸Ĥ
à¸²à¸ķà¸£ à¸²
à¹ĥà¸Ļà¸ģà¸²à¸£ à¸ªà¸£
à¸Ļà¹ģà¸¥à¸° à¸¡
Ġà¹Ģà¸«à¸¡à¸²à¸° à¸ª
à¸į à¹ĥà¸Ī
à¸§à¹Ĩ à¸Ļ
Ġà¸ļ à¸¡à¸Ī
Ġà¹Ģà¸ŀà¸£à¸²à¸° à¸¥
à¸Ļà¸²à¸¢ à¸Ĺ
à¸ķ à¹ģà¸«
Ġt om
Ġt a
Ġk e
à¸§à¸ĩ à¸ĭ
à¸£ à¸§à¸Ķà¹Ģà¸£
à¸Ī à¸Ĭ
Ġà¸ŀ à¸Ńà¸Ļ
Ġl i
à¸Ķ à¹Ĥà¸Ħ
à¸Ķà¸Ĥ à¸Ńà¸Ńà¸ł
à¸²à¸ĩà¸ģ à¸Ńà¸ģ
Ġà¹Ĥà¸Ķà¸¢ à¸ģà¸²à¸£
w r
à¸Ńà¸ĩà¸Ľ à¸£à¸²à¸ļ
Ġà¸ģ à¸ķ
à¸łà¸²à¸Ħ à¸Ļ
Ġà¸Ĺ à¸²à¸ĩà¸Ĺ
Ġc p
à¸Ħà¸§à¸£ à¸ķ
à¸¶ à¹Ĭ
à¹ģà¸ªà¸Ķ à¸ĩà¸ª
à¸Ĥà¸Ńà¸ĩ à¸Ľà¸£à¸°à¹Ģà¸Ĺà¸¨à¹Ħà¸Ĺà¸¢
à¸¡ à¹Ģà¸Ľà¸¥
à¹ĥ à¸§
Ġà¸£à¸ļà¸ģà¸§à¸Ļ à¸Ĥà¸Ńà¸Ħ
à¸²à¹Ħà¸Ľ à¸¡
à¸¥à¸ģ à¸²à¸ģà¸£
à¸Ļà¹Ħà¸Ľ à¸Ĥ
Ġà¸£ à¸Ńà¸¢
à¸²à¸¢ à¸¡à¸²à¹Ģà¸Ľ
à¸£à¸²à¸ ¥
à¸¡ à¹Ģà¸Ħ
à¸£à¸²à¸Ħ à¸²à¹Ģà¸Ĺ
y l
Ġà¸ªà¸§à¸¢ à¸ĩà¸²à¸¡
à¹ģà¸ļà¸ļ à¸Ī
à¸²à¸ª à¸Ļà¸²à¸¡
à¹Ģà¹Ģà¸£ à¸ģ
à¹Ģà¸ŀà¸£à¸²à¸° à¸Ļ
à¸Ļà¹ĥà¸Ī à¹Ģà¸¥
à¹Ģà¸£à¸²à¸Īà¸° à¸Ĺ
à¸Ńà¸¡ à¹Ģà¸£
à¸ķà¸£ à¹Ģà¸Ķà¸ļ
à¹ĥà¸Ļ à¸ªà¸Ļà¸²à¸¡
Ġ0 3
s ale
à¸ĩà¸Ĥ à¸²à¸£
à¸ķà¸Ńà¸Ļ à¸Īà¸ļ
à¸« à¸²à¸ķ
à¸Ńà¸ĩ à¹Ģà¸Ĥà¸²
à¸Ļà¸²à¸Ļ à¸¡à¸²à¸Ļ
à¸Ńà¸ĩ à¹Ģà¸Īà¸Ń
à¸²à¸§ à¹Ģà¸£
Ġà¸Ļà¸²à¸¢ à¸Ńà¸Ļ
à¸§à¸¡ à¸Ľà¸£à¸°à¸Ĭ
à¸¢à¸Ńà¸¡ à¸Ĺ
à¸Ńà¸Ļ à¸ªà¸¡
à¸²à¸Ļ à¸ªà¸°à¸Ķà¸§à¸ģ
à¸Ļà¸Ĥ à¸§
à¹Ģà¸£à¸² à¹Ģà¸Ħà¸¢
à¹Ģà¸£à¸²à¸ķ à¸¥à¸Ńà¸Ķ
à¸Ńà¸ĩ à¸ŀà¸¢à¸²à¸¢à¸²à¸¡
à¸ļà¸ģà¸²à¸£ à¹Ģà¸Ķ
à¸Ī à¸²à¸¢
à¸ĩ à¸ĸà¸²à¸¡
Ġà¸Ķ à¸£à¸²à¸¡
g y
à¸Ħà¸Ļ à¸ĸ
à¸£à¸²à¸¢ à¹ĥà¸«à¸į
à¸ģ à¸ŀà¸¥
à¸§ à¹ģà¸£à¸ģ
à¸Īà¸²à¸ģ à¹Ģà¸Ķ
Ġà¹Ģà¸Ł à¸Ńà¸£
Ġà¹Ħà¸Ľ à¸ĭ
à¸Ńà¸ĩ à¹Ģà¸ĭ
à¸§à¸Ļ à¹ģà¸¥
à¸Ķà¸ķà¸²à¸¡ à¸ķ
à¸¥à¸° à¸Ļ
à¸Ĭà¸Ńà¸ļ à¸¡à¸²à¸ģ
Ġà¹Ģà¸¢ à¸Ļ
à¹Ģà¸Ĥ à¸²à¸Ĭà¸Ńà¸ļ
à¸ĵ à¹Ģà¸¥
à¸Ńà¸ĩà¸£ à¸Ńà¸¢
à¸²à¸£ à¸²à¸į
à¸¢à¸Ļ à¹ģà¸Ľà¸¥
Ġapplic ation
à¸ļà¸Ńà¸ģ à¹Ģà¸£à¸²à¸§
Ġa bs
Ġte am
à¸²à¸Ļ à¸«à¸¡
Ġà¸Īà¸Ļ à¸¡à¸²à¸ĸ
Ġà¹Ģà¸£ à¸²à¸«
à¸Ļà¸Ńà¸Ļ à¸Ńà¸¢
Ġà¸ªà¸Ńà¸ļà¸ĸà¸²à¸¡ à¸«à¸Ļ
o om
à¸Ļà¸¡ à¸²à¸¢
Ġà¹ģà¸¥à¸° à¸ªà¸£
Ġà¸ŀ à¸Ńà¹Ģà¸Ľ
à¸ģ à¹Ģà¸«à¸Ļ
à¸Ńà¸Ļ à¹ĥà¸Ļà¸«
à¸ģà¸£à¸° à¹Ĥà¸Ľà¸£
Ġà¸ļ à¸§à¸ģ
à¸ļà¸ģà¸²à¸£ à¹Ģà¸Ľ
à¸Ķà¸¥ à¸ļ
Ġ7 7
Ġà¹ģà¸¥à¸° à¹ģà¸¡
à¹Ģà¸£à¸²à¸Īà¸° à¸ķ
Ġà¸¡à¸²à¹Ģà¸¥ à¹Ģà¸ĭ
Ġà¸ª à¸¡à¸²à¸£
à¸Ļà¸Ħà¸§à¸²à¸¡ à¸ĸ
à¸ĩ à¸¥à¸°à¸Ħà¸£
à¹Ģà¸Ķ à¸Ļ
à¸Īà¸ī à¸²à¸Ĭ
à¸² à¹ĥà¸Ķ
à¸Ļà¸Īà¸° à¸¢
Ġà¸Īà¸²à¸ģ à¸£
oo th
à¸ļà¹Ħà¸Ľ à¸§
Ġà¹Ģà¸ª à¸Ļ
à¸ģà¸ĩà¸²à¸Ļ à¸Ľà¸£à¸°à¸Ī
à¸²à¹Ħà¸£ à¸Ħà¸£
à¸Ńà¸ĩ à¸¥à¸Ńà¸ĩ
ri st
à¸Ńà¸ĩ à¸Ĺà¸£
Ġà¸ª à¸°à¸ŀ
à¸²à¸ĩ à¸²à¸¡
à¹Ģà¸Ł à¸£à¸¡
à¸²à¸Ļ à¹ĥà¸Ĭ
h over
à¸ĭ à¸Ńà¸Ł
à¸Ńà¸°à¹Ħà¸£ à¸ľ
à¸Ńà¸Ľ à¸ı
à¹Ģà¸Ľ à¸Ħ
à¹Ĥà¸ī à¸Ļà¸Ķ
Ġp hone
ðŁĶ´ ðŁĶ´
ill a
à¹Ħà¸Ĺà¸¢ à¹Ħà¸Ķ
à¸¡à¸² à¹ĥà¸«à¸¡
à¸Ń à¸Ńà¸ª
à¸Ńà¸ĩà¸Ħ à¸Ķ
à¸Ļ à¸Ļà¸°à¸Ħ
à¸Ļà¸ª à¸Ļà¸²à¸¡
à¸Ķ à¹Ģà¸¥à¸¢à¸§
à¸²à¹Ĥ à¸Ī
à¸Ļà¹ģà¸ļà¸ļ à¹Ħà¸¡
Ġà¸ģà¸²à¸£ à¸ļà¸£
Ġos aka
Ġm ot
à¸²à¸ĩ à¸ŀà¸£
à¹Ģà¸Ł à¸ĭ
! ?
Ġà¸ģà¸²à¸£ à¸Ļ
à¸ļà¸Ń à¸²à¸ģà¸²à¸£
à¹Ĥà¸Ĺà¸£ à¸Ħà¸¡à¸Ļà¸²à¸Ħà¸¡
à¸Ńà¸ģà¸²à¸£ à¸ķ
à¹Ģà¸Ī à¸¡à¸ª
à¹Ĥà¸Ķ à¸Ļà¸«
à¸Ķ à¹Ħà¸«à¸Ļ
Ġà¸¡ à¸²à¹Ħà¸Ķ
à¸Ļà¸¡ à¸«
à¸²à¸Ļ à¸ģà¸²à¸£à¸Ĺ
à¸¡à¸ł à¸²à¸£à¸°
à¸ĩ à¸£à¸°à¸«à¸§
es c
à¸²à¸ĩ à¸Ħà¸§à¸²à¸¡à¸ª
Ġà¸ģ à¸Ľà¸Ľà¸ª
à¸§à¸Ķ à¸«
ðŁĴĸ ðŁĴĸ
à¸¥à¸ĩ à¹Ģà¸£
Ġà¹ģ à¸ŀà¸¥
à¸Ĺà¸²à¸ĩ à¸Ħ
à¹ģà¸Łà¸Ļ à¹Ħà¸¡
Ġà¸«à¸¡ à¸Ń
Ġ12 8
à¸ķ à¹Ħà¸Ľ
Ġà¸«à¸¥ à¸§à¸ĩà¸ŀ
Ġà¹Ģà¸£ à¸²à¸ĭ
à¸¥à¸° à¸Ń
à¸ģà¸²à¸£ à¸«à¸¥
Ġm er
à¸Ļà¸Ĥà¸Ńà¸ĩ à¹Ģà¸£à¸²
Ġà¹Ģà¸£ à¸²à¸ĸ
à¸²à¸ķ à¸²à¸£
Ġà¸Ī à¸Ń
Ġm aster
à¸ģà¸Ħà¸Ļ à¹Ģà¸Ķ
ou ld
à¸²à¹Ģà¸Ĥ à¸²à¸Īà¸°
à¸¢ à¹ģà¸ģ
à¸ļà¹Ħà¸Ľ à¸Ńà¸¢
à¸ļà¸Ľà¸£à¸°à¸Ĺà¸²à¸Ļ à¸Ńà¸²à¸«à¸²à¸£
à¸²à¹Ģà¸Ĥ à¸²à¸£
à¸Ńà¸ģà¸²à¸£ à¸ŀ
à¸ŀ à¸Ńà¸ª
à¸Ī à¸ļà¸ģ
Ġà¸¡ à¸¡
we ight
à¸Ķ à¸Ĭà¸²à¸¢à¹ģà¸Ķà¸Ļ
à¸Ńà¸Ļ à¸Ńà¸Ńà¸ģ
à¹Ĥà¸¥ à¸ģà¸ģ
à¸ģà¸¥ à¸²à¸ĩà¸Ĺ
à¸Ļà¸ª à¸Ńà¸ĩ
y c
Ġà¸£à¸²à¸Ħ à¸²à¸ģ
à¸ģ à¸®
à¸µà¹Ī ...
à¸Ĺà¸£à¸²à¸ļ à¸Ĥ
++ +
f amily
à¸Ńà¸ĩà¸¡ à¸²à¸Ķ
à¸§ à¸¨
à¸Ľà¸ģà¸Ħà¸£ à¸Ńà¸ĩà¸ª
Ġà¹Ģà¸Ĥ à¸²à¸Ī
à¹Ģà¸Ńà¸²à¹ĥà¸Ī à¹ĥà¸ª
à¸ªà¸Ńà¸ĩ à¸Ľ
is m
à¸²à¸¡ à¸²à¸¥
à¸²à¹ĥà¸Ļ à¸ķ
à¸¢à¸§ à¸Īà¸°
à¸ģà¸¥ à¸¡
à¸¥à¸ĩ à¸Ĭ
à¸Ħà¸§à¸£ à¸£
à¸¢ à¹Ģà¸¡
à¸Ńà¸ĩà¸ģà¸²à¸£ à¸Ńà¸°à¹Ħà¸£
à¸ŀà¸£à¸°à¸£à¸²à¸Ĭ à¸ģ
à¸§à¹Ģà¸Ńà¸ĩ à¸ļ
à¸¢à¸§ à¸«
à¸Ńà¸¢à¸²à¸ģ à¸¢
à¸ļà¸ģ à¸ŀà¸£
Ġop t
à¸ª à¹Ħà¸¡
à¹ĥà¸Ħà¸£ à¸ļ
à¹Ģà¸£à¸² à¹ģà¸Ħ
à¸Ļà¹ģ à¸Ħà¸£
à¸²à¸Ħà¸§ à¸ļà¸Ħ
à¸ļ à¸¡à¸²à¸Ĥ
Ġà¹Ĥ à¸Ńà¸Ļà¹Ģà¸ĩ
à¹Ĥà¸¡à¸ĩ à¹Ģà¸¢
m ax
à¹Ĥà¸Ľà¸£ à¹Ħà¸Łà¸¥
à¸ģà¸£ à¸¡à¸ª
Ġà¸Ī à¸Ļà¹Ħà¸¡
à¹ģà¸Ńà¸ļ à¸£
à¹Ģà¸§ à¸Ł
Ġ10 1
à¹Ģà¸£à¸²à¸Ħ à¸ļà¸ģ
g en
à¸ģà¸²à¸¡ à¹Ģà¸Ĺà¸ŀà¸«à¸£
Ġdr ive
Ġà¸ŀ à¸¥à¸²à¸Ķ
à¸Ńà¸ŀ à¸Ļ
à¸ĩà¸ª à¸Ńà¸ĩà¸Ĺ
à¸£à¸§à¸¡ à¸Ħ
à¸ļà¸¡ à¸²à¸Ļ
à¸Ļà¹ģ à¸Ľ
à¸²à¸ģ à¸ª
Ġb ody
à¸²à¸ĩ à¹ĥà¸«à¸¡
Ġm ov
à¸²à¸Ļ à¸²
à¹Ģà¸¡ à¸©
à¸Ń à¹Ħà¸Ń
à¸²à¸Ļ à¸£à¸°à¸ļà¸ļ
Ġà¸ªà¹Ģà¸ķ à¹Ģà¸Ķ
à¸Ļà¸Ńà¸ģ à¸ļ
à¹Ģà¸ Ĵ
à¸Ħà¸Ļ à¹Ħà¸Ķ
à¹Ģà¸® à¸ĩ
à¹Ģà¸Ħà¸¢ à¸¥
à¸Ļ à¹Ħà¸ģà¸¥
à¹Ħà¸«à¸Ļ à¸£
Ġ20 10
oc al
à¸¢à¸¡ à¸Ĭà¸¡
à¸²à¸ĩà¸²à¸Ļ à¸Ħ
à¸Ķ à¸Ńà¸Ńà¸ģà¸¡à¸²
ĠðŁĺį ðŁĺįðŁĺį
à¸Ļà¹ģà¸£ à¸ĩà¸¡à¸²à¸ģ
§ ðŁĴ
à¸²à¸£ à¸§à¸¢
à¸Ńà¸¥à¸¥ à¸²à¹Ģà¸Ī
à¸²à¹Ģà¸£ à¸²à¸Ńà¸¢
Ġt est
à¸Ń à¹Ħà¸ĩ
à¸Ķ à¹Ĥà¸Ħà¸£à¸ĩà¸ģà¸²à¸£
à¸Ħà¸§à¸²à¸¡ à¸¢à¸²à¸§
Ġà¸ŀà¸£à¸£à¸Ħ à¸ŀà¸¥
à¸Ńà¸Ļ à¹Ģà¸£à¸²à¸¡
à¸ļà¸ģà¸²à¸£ à¹Ģà¸£
Ġsport s
Ġ14 0
à¹Ģà¸īà¸ŀà¸²à¸° à¸ģ
à¸ģà¸£ à¸²à¸ĩà¸§
Ġà¸§ à¸²à¸ĩ
à¸²à¸Ĥ à¸Ńà¸ļà¸Ħ
à¸ļà¸Ļ à¹Ģà¸ķ
à¸Ńà¸²à¸ģà¸²à¸¨ à¸£
à¸ŀà¸£à¸£ à¸Ħà¸£
à¸Ļà¸Ĺ à¸§
à¸ķà¸£ à¸ĩà¹Ħà¸Ľ
à¸ģ à¸Ĩ
à¸ģ à¸ı
à¹ģà¸ļà¸ļ à¸Ĭ
à¸¢à¸§ à¸«à¸Ļ
Ġà¹Ģà¸ģ à¸£à¸Ķ
à¸Īà¸Ńà¸¡ à¹Ģà¸ģà¸¥
à¸Ħ à¸Ľ
Ġà¹Ħà¸Ĺà¸¢ à¹ģà¸¥à¸Ļà¸Ķ
à¸²à¸Ķ à¸ŀà¸£
à¸Ļà¹ģà¸ļà¸ļ à¸Ĺ
w an
Ġà¸ª à¸Ķ
à¸ľà¸¥ à¸¥
à¸£à¸Ńà¸ļ à¸Ĺ
à¸«à¸²à¸¢ à¸ķ
à¸²à¸¨ à¸ģ
à¸Ļà¸Ŀ à¸£
à¸Ńà¸²à¸Ī à¸ķ
à¸Ľà¸£à¸°à¹Ģà¸Ĺà¸¨ à¸ģ
à¸Ļà¸Ĥà¸Ńà¸ĩ à¸Ļ
Ġà¸£à¸²à¸¢à¸ĩà¸²à¸Ļ à¸§
à¹ģà¸® à¸£
Ġà¸£à¸ļà¸ģà¸§à¸Ļ à¸«à¸Ļ
à¸§à¸¢ à¸Ħà¸§à¸²à¸¡à¸ª
à¸ĩà¸¡ à¸²à¸Ķ
à¸²à¸¡ à¸²à¸ķà¸Ńà¸ļ
Ġ à¸ĩà¸ļà¸Ľà¸£à¸°à¸¡à¸²à¸ĵ
à¸ĩà¸Ħ à¸²à¸Ķà¸§
mark et
Ġst op
à¹ģà¸ļà¸ļ à¹Ģà¸ķ
à¸Ľà¸¥ à¸Ķà¸¥
à¸ģà¸£ à¸¢
à¸£à¸°à¸Ļ à¸Ńà¸ĩ
à¸ĩ à¹Ĥà¸Ī
Ġà¸ŀà¸£à¸£à¸Ħ à¹Ģà¸ŀ
Ġint el
Ġt mb
à¸Ļà¹ģ à¸ĭ
à¸Ńà¸¡ à¸«
Ġà¸£à¸²à¸Ħ à¸²à¸Ľà¸£à¸°à¸¡à¸²à¸ĵ
Ġà¹Ģà¸ŀ à¸¨
à¸ļà¹Ħà¸Ľ à¹Ģà¸Ľ
Ġre t
k haosod
à¹Ģà¸Ķ à¸¢
à¸¢ à¸²à¸ª
à¸Ļà¹Ĥ à¸Ĭà¸§
Ġj ust
à¹Ģà¸ģ à¸¢
Ġà¸łà¸²à¸ŀ à¸Ĺ
Ġà¹Ģà¸£ à¸²à¹Ģà¸ŀ
Ġà¸£à¸²à¸Ħ à¸²à¸ª
à¸Ļà¸Ĺà¸²à¸ĩ à¹Ģà¸¥
à¹Ģà¸ªà¸Ļà¸Ń à¹ĥà¸«
à¸²à¹Ģà¸£ à¸²à¸Ķ
à¸¥ à¹Ĥà¸Ķ
Ġà¸ģà¸²à¸£ à¸¨
à¸ĵ à¹Ģà¸Ńà¸ĩ
à¸ªà¸¡ à¸Ĺ
ĠðŁĺ Ĭ
Ġà¹Ģà¸ŀà¸£à¸²à¸° à¸ľ
ugab oo
à¸ĩà¸Ī à¸ļ
à¸ŀà¸£à¸° à¸ª
à¹ĥà¸Ļ à¸£à¸°à¸¢à¸°
m al
à¸Ńà¸¢à¸ģ à¹Ģà¸¥
Ġà¸Ĥà¸Ńà¸Ħà¸§à¸²à¸¡ à¸Ĭ
à¸Ńà¸¡ à¸²à¸Ħ
ðŁĮ Ł
Ġin st
à¸Ń à¸Ľà¸£à¸°à¸Ĭà¸²à¸Ĭ
à¸¢à¸Ļ à¹Ģà¸ģà¸¡à¸ª
Ġv ideo
à¸²à¹ģà¸ŀà¸ĩ à¹Ģà¸ŀà¸Ĭà¸£
Ġà¹ĥà¸Ļ à¸Ĥ
à¸ļ à¸ģà¸£à¸ĵ
__ _
Ġse arch
à¸« à¸§à¸ĩ
à¸ķ à¸Ńà¸ļà¸Ħ
à¸Ļà¸Ĥ à¸²à¸¢
Ġà¹ģà¸ķ à¸ģà¸ķ
Ġb al
à¸ľà¸¡ à¸Ĥ
Ġà¹Ģà¸¥ à¸¢à¸ģ
à¹Ħ à¸Ńà¸Ĺ
à¸¢à¸§ à¸į
Ġgt x
Ġ ur
à¹Ģà¸ļ à¸£à¸ģ
Ġà¹Ģ à¹Ģà¸¡
à¸łà¸²à¸© à¸²à¸Ī
Ġâĸ º
Ġà¸Ĥà¸Ń à¹Ģà¸Ĭ
à¸Ľ à¸Ĺà¸£
à¸²à¹Ģà¸£ à¸²à¸Ļ
à¸Ļà¸Īà¸° à¸ª
à¸ķ à¹Ģà¸¥
à¸¡à¸¡ à¸Ńà¸ĩ
à¸Ļ à¸Ļà¸Ĺà¸ļ
à¸Ķà¸Ī à¸Ń
à¹Ģà¸ŀà¸£à¸²à¸° à¸ŀ
à¸¥ à¹ĥà¸Ļ
Ġchr ome
à¸ļà¸Ļ à¹Ģà¸§à¸Ĺ
à¸ģà¸²à¸£ à¸Ł
à¸§ à¹Ģà¸Ńà¸ģ
Ġà¹Ģà¸ŀà¸£à¸²à¸° à¹Ģà¸¡
à¸ķ à¸Ĺà¸£
bo y
Ġà¹Ģà¸¥à¸¢ à¹Ħà¸Ķ
à¸£à¸¡ à¸¢
à¹Ģà¸£ à¸Ļ
à¸Ħà¸Ļ à¸¢
âĢĶâĢĶ âĢĶâĢĶ
à¸ļà¸ª à¸ĸà¸²à¸Ļ
à¸Ńà¸¡ à¸²à¹ģà¸¥
Ġm hz
Ġ om
à¸Ńà¸ģà¸Īà¸²à¸ģ à¸Ļ
à¸ĩ à¸ļà¸Ĺ
à¸ģà¸£à¸°à¸Ĺà¸£à¸§à¸ĩ à¸ªà¸²à¸ĺà¸²à¸£à¸ĵà¸ª
Ġà¸¢ à¸²à¸¡
à¸¡à¸Ń à¹Ħà¸ĭà¸Ħ
à¸²à¸ĩ à¹Ģà¸Ļ
à¸ĩà¹ģ à¸Ł
Ġà¹ĥà¸Ļ à¹ĥà¸Ī
Ġà¹Ĥà¸¡à¸ĩ à¹Ģà¸¢
à¸²à¸£à¸° à¸ļ
à¸²à¸Ļ à¸Īà¸²à¸ģ
à¸§ à¸Ľà¸£à¸°à¸¡à¸²à¸ĵ
Ġà¹Ģà¸ŀà¸£à¸²à¸° à¸Ń
à¸ģà¸¥ à¸ĩà¸ģ
à »
Ġà¸ŀ à¸Ńà¸ª
à¸ªà¸° à¹Ģà¸Ĺ
à¸Ħà¸§à¸²à¸¡ à¸ªà¸Ļ
à¸Ńà¸ĩà¸Ĥ à¸Ńà¸ļà¸Ħ
**************** ****************
Ġt ak
à¸ķà¸£ à¸ĩà¸ª
Ġm il
à¸Ńà¸ĩà¸Ĥ à¸§
à¸Ńà¸¡ à¸§
à¸Ļà¸Ĺà¸²à¸ĩ à¸Ļ
l a
Ġà¸Ľà¸£à¸° à¸¢
à¸ķ à¸ģà¸ģ
à¸Ń à¸ŀà¸Ń
p ack
à¸ŀ à¸¤à¸ģà¸©
à¸ģ à¸£à¸²à¸ļ
Ġà¸Ĥà¸Ńà¸ĩ à¸Ī
à¹ĥà¸Ħà¸£ à¸ªà¸Ļà¹ĥà¸Ī
à¹Ĩà¹Ĩà¹Ĩà¹Ĩ à¹Ĩà¹Ĩà¹Ĩà¹Ĩ
Ġà¸Ľ à¸Ńà¸Ļà¸Ķ
à¸² à¹Ĥà¸£à¸ĩà¹ģà¸£à¸¡
Ġw as
à¸²à¸« à¸Ļà¸°
à¸ĩà¹Ģà¸ģ à¸²à¸«à¸¥
Ġc over
à¸Ī à¹Ħà¸Ĺà¸¢
à¸§ à¹ģà¸«
d d
à¸Ń à¸²
à¹Ĥà¸Ĺ à¸Ļ
à¸Ĥ à¸§à¸²à¸ĩ
à¸Ī à¹ģà¸¥à¸°
Ġà¹Ģà¸Ń à¸²à¸Ĺ
à¸ģà¸¡ à¸²à¸Ħ
Ġà¸ĩà¸²à¸Ļ à¸Ĺ
Ġà¹ģà¸¥à¸° à¸ªà¸²à¸¡à¸²à¸£à¸ĸ
à¸²à¹Ĥ à¸ĩ
à¸ĩà¸¡ à¸²à¸ķ
Ġ12 00
à¸§ à¸Ħà¸Ļà¹Ģà¸Ķ
à¸¢ à¹ģà¸«
Ġà¸Īà¸²à¸ģ à¸Ī
à¸ķà¸¢ à¸ģà¸£à¸£à¸¡
à¸ģà¸© à¸²à¸Ĭà¸²à¸ķ
à¸Ń à¹Ģà¸ĺà¸Ń
à¸ļ à¸Ńà¸²à¸«à¸²à¸£
à¸² à¹Ħà¸«à¸¡à¸Ħà¸°
à¹Ħà¸«à¸Ļ à¹ģà¸¥
Ġà¸ķ à¸²à¸£à¸²à¸ĩ
Ġsh in
à¹Ħà¸Ľ à¸ŀà¸£
à¸ĩ à¹Ģà¸Ħà¸¢
à¹ģà¸ľ à¸Ļ
à¸ģ à¹ĥà¸ļ
à¸Ħ à¹Ģà¸ķà¸Ńà¸£
à¸ĩà¹ģ à¸Ķà¸Ķ
Ġph ot
à¸ļà¸Ńà¸ģ à¹Ģà¸¥à¸¢à¸§
Ġà¹Ģà¸§à¸¥ à¸²à¸ľ
à¸Ńà¸Ħ à¸Ńà¸Ļà¹Ĥà¸Ķ
à¸Ĳ à¸Ļ
à¸Ńà¸¢ à¹Ģà¸«à¸¡
à¹Ĩ à¸«à¸Ļ
à¸ĩà¹ĥà¸Ļ à¸ŀ
à¸ł à¸²à¸§à¸Ķ
à¸Ļà¸ģà¸²à¸£ à¸Ħ
Ġvo ice
à¸ªà¸¡à¸²à¸Ħà¸¡ à¸ģ
à¹ģà¸Ļ à¸Ļà¸Ĺ
à¸²à¸ĩ à¹ģà¸£à¸ĩ
à¸ĩ à¸Ńà¸°
à¸Ļà¸¡ à¸²à¸ķà¸£à¸Ĳà¸²à¸Ļ
w ik
h u
à¸²à¸Ļ à¹Ģà¸Ħà¸£
à¸Ļà¸ľà¸¥ à¸«
à¹ģà¸Ľà¸£ à¸£
all y
à¸²à¸Īà¸° à¸¥
es e
ay s
Ġf re
à¸Ńà¸ĩà¸£ à¸Ńà¹ĥà¸«
à¸ĩà¸ª à¸ļà¸²à¸¢
à¸§à¹Ħà¸Ľ à¸ģ
Ġw ater
à¸ļà¸Ńà¸ģ à¸¡
à¸²à¸ľ à¸²à¸ģ
à¸Ľà¸£à¸°à¸ģà¸Ńà¸ļ à¸Ńà¸²à¸Ĭ
à¸¢à¸§ à¹Ģà¸Ķ
g et
à¸ĩ à¹Ĥà¸ģ
à¸¡à¹Ģà¸«à¸¥ à¸§
à¸Ń à¹ģà¸ļà¸ļà¸Ļ
Ġà¸ģà¸²à¸£ à¹Ģà¸¡
à¸Ļà¸Ħà¸Ļ à¸ľ
à¸§ à¸Īà¸°à¹Ģà¸Ľ
à¹Ģà¸Ń à¸Ĭ
à¸° à¸«
à¸Ńà¸ģ à¹ĥà¸Ī
à¸ķà¸Ńà¸Ļ à¸ļà¸Ļ
Ġà¹Ģà¸Ń à¸²à¹Ħà¸Ľ
à¹Ģà¸§à¸¥ à¸²à¸£
Ġre st
Ġ8 9
p ic
à¸ķ à¹Ģà¸¡
âĢĿ âĢľ
à¸Ķ à¹Ģà¸£à¸²
à¸Ńà¸ķ à¸¥à¸Ńà¸Ķ
à¸¥à¸ĩ à¸ģ
Ġim ages
à¸į à¹Ħà¸Ķ
à¸ĩà¸Ĥà¸Ńà¸ĩ à¸ķ
à¸Ļà¸ģ à¸Ńà¸ĩà¸Ĺ
Ġr om
à¸Ĥà¸Ńà¸ĩ à¸ĭ
à¸¢ à¹Ģà¸Ĭ
à¹Ĥà¸Ńà¸ģà¸²à¸ª à¸Ļ
à¸ģ à¸°à¸§
à¸ĩ à¸Ńà¸¢à¸²à¸ģà¸Īà¸°
à¸²à¹Ģà¸£ à¸²à¸ª
Ġà¸ģà¸²à¸£ à¸¡
à¸Ĭà¸§à¸Ļ à¸Ħ
à¸Ńà¸Ńà¸ģ à¸¡à¸²à¸Ĺ
à¸ľà¸¥ à¸ļ
à¸²à¸Ļà¸ªà¸°à¸Ķà¸§à¸ģ à¸ĭ
à¸Ķà¸ª à¸ķ
à¸² à¹ĥà¸ķ
à¸Ľ à¸ĺà¸£à¸£à¸¡
à¸ķ à¸«à¸¥
à¸łà¸²à¸Ħ à¸ķ
à¸£à¸ĸ à¸£
à¸²à¸Īà¸° à¸Ń
à¸Ńà¸Ļ à¸Īà¸°à¹Ħà¸¡
à¸§à¸¡ à¸ĸ
à¸ĩà¸Ħà¸§à¸²à¸¡ à¹Ģà¸«
j s
à¸ļà¸Ħà¸§à¸²à¸¡ à¸Īà¸£
r ad
à¸§ à¸ķà¸²à¸¡
Ġ7 11
Ġà¹Ĥà¸ĭ à¸¥
Ġi i
à¹Ĥ à¸ģà¸ª
à¸ļ à¸«à¸²à¸¢
Ġà¹ģà¸¥à¸° à¹ĥà¸Ļ
à¸¢à¸Ńà¸Ķ à¸Ħ
Ġà¹Ħ à¸ķà¸£
à¸Ńà¸Ļ à¹Ģà¸ĭ
d p
uk i
à¹Ħà¸Ľ à¹Ģà¸¢
Ġus a
à¹Ĥà¸Ķà¸¢à¸ªà¸²à¸£ à¸Ĺ
à¸²à¹Ĥ à¸ĭ
à¸Ħà¸£ à¹Ħà¸Ķ
à¸ĩ à¹Ģà¹Ģà¸¥
à¸²à¸Ļ à¹Ģà¸Ĺ
Ġà¸Ĥ à¸Ńà¸Ļà¹ģà¸ģ
Ġà¹Ģà¸Ĺ à¸Ħà¸Ļ
à¸ķà¸£ à¸ĩà¸§
à¸Ńà¸ĩà¸ģà¸²à¸£ à¸ĭ
à¸ļ à¸Ľà¸£à¸°à¹Ģà¸Ĺà¸¨à¹Ħà¸Ĺà¸¢
à¸ªà¸²à¸£ à¸ªà¸Ļà¹Ģà¸Ĺà¸¨
à¸²à¸ĩà¸²à¸Ļ à¸ª
à¸Ļà¸¡ à¸²à¸ŀ
Ġun ited
Ġpo int
à¸¡à¸¡ à¸¡
à¸§ à¹ģà¸Ħ
Ġà¸ģ à¸Ńà¸ĩà¸«à¸Ļ
à¸ĸà¸²à¸¡ à¸ĸ
à¸łà¸²à¸Ħ à¸ģà¸¥à¸²à¸ĩ
à¸²à¸¢ à¹ĥà¸Ĭ
Ġà¹ģà¸¥à¸° à¹Ģà¸Ħà¸£
à¹Ģà¸Ĥ à¸²à¸¡à¸²à¸ģ
Ġà¹ģà¸Ĺ à¸ļà¹Ħà¸¡
à¸Ļà¸ĺ à¸£
à¸¡à¸²à¸ģ à¸Ķ
Ġà¸Ńà¸°à¹Ħà¸£ à¸Ľà¸£à¸°à¸¡à¸²à¸ĵà¸Ļ
Ġro om
à¸¡à¸²à¸Ľ à¸¥
ov o
à¸ģà¹ģà¸ªà¸Ķ à¸ĩà¸Ĺ
à¸Ļà¹Ģà¸Ńà¸ĩ à¸ģ
à¸ļà¸Ńà¸ģ à¸Ļ
à¸Ļà¸Ľ à¸²à¸ģ
Ġt ouch
à¹Ģà¸ĭ à¹Ĥà¸¥à¸Ļ
à¸¢à¸ļ à¸Ķ
à¹Ħà¸¡ à¸Ħ
à¸Ļà¸Ļ à¸²à¸¢à¸ģà¸£
à¸ĩà¹Ħ à¸«à¸¥
à¹Ģà¸¡ à¸Ĭ
à¸Ľ à¹ĥà¸Ļ
à¸²à¸ª à¸«à¸£
à¸ĩà¸Ħ à¸ĩà¸ķ
à¸Ķ à¹Ĥà¸£à¸Ħ
à¸¥à¸ĩ à¸Ħà¸°à¹ģà¸Ļà¸Ļ
à¸Ļ à¸Ľà¸£à¸°à¸ªà¸ļà¸ģà¸²à¸£à¸ĵ
à¸¡à¸² à¹Ĥà¸Ķà¸¢à¸ķà¸¥à¸Ńà¸Ķ
à¹Ģà¸Ľà¸£ à¸¢
à¸į à¸ģà¸§
Ġà¸ª à¸Ħ
à¸ĩ à¸§à¸ĩ
à¹ģà¸ļà¸ļ à¸£
à¸° à¸ľ
à¸²à¸ĩà¹Ħà¸£ à¸ķ
à¹Ģà¸¥à¸¢ à¹ĥà¸«
Ġoff ice
à¸Ĺ à¸Ķà¸ªà¸Ńà¸ļ
à¸įà¸« à¸²à¸Ħà¸§à¸²à¸¡
à¸Ķ à¸²à¸ļ
à¹Ģà¸«à¸¡à¸²à¸° à¸ª
Ġà¸ªà¸Ńà¸ļà¸ĸà¸²à¸¡ à¸ľ
à¸²à¸ķ à¸Ńà¸Ļà¸Ĺ
à¸ļ à¸Ļà¸Ĺ
à¸²à¸ Ĳ
à¸²à¸ĸà¸²à¸¡ à¸Ļ
à¸Ńà¸ª à¸ģ
ap e
à¸¥ à¹Ģà¸Ľ
à¸¢à¸¡ à¸Ķ
m c
à¹Ģ à¸Ńà¸£
Ġbr and
à¸Ķà¸ķà¸²à¸¡ à¸Ĺ
à¹Ģà¸Ĥà¸² à¹ģà¸¥
Ġf inal
à¸²à¸ĩà¸Ĺ à¸Ńà¸ĩ
à¸²à¸¡ à¹Ħà¸Ľ
mb ps
à¸ļà¸£à¸¡à¸£à¸²à¸Ĭ à¸²à¸ł
Ġge tty
à¹Ħà¸® à¹Ĥà¸ĭ
Ġà¸¡ à¸²à¸Ħà¸£
k e
à¸Ńà¹ĥà¸Ħà¸£ à¸¡
à¹ģà¸¥à¸° à¹ĥà¸Ĭ
ðŁĴ Ħ
à¸²à¸Ń à¸Ńà¸Łà¸Ł
à¸Ń à¹ģà¸ľ
Ġa ud
à¸ģ à¹ģà¸Ľ
à¸Ńà¸Ħà¸§à¸²à¸¡ à¸Ĭ
à¸ļà¸Ńà¸ģ à¹Ģà¸ŀ
Ġà¹Ģà¸£ à¸²à¸ľ
à¸¢à¸§ à¸Ľ
à¸īà¸²à¸ģ à¸Ļ
Ġà¹Ģà¸Ħà¸¢ à¹Ħà¸Ķ
à¸¬ à¸²à¸¯
à¸Ī à¸Ķà¸«à¸¡à¸²à¸¢
Ġà¸Ļà¸²à¸¢ à¸Ļ
Ġà¹Ģà¸Ĺ à¸£
à¹ĥà¸Ļà¸ģà¸²à¸£ à¹Ģà¸£
à¸²à¸Ĺ à¸²à¸Ļ
à¸ŀà¸¢à¸²à¸ģà¸£ à¸ĺà¸£à¸£à¸¡à¸Ĭà¸²à¸ķ
à¸łà¸²à¸ŀ à¸ģ
à¹Ģà¸§à¸¥ à¸²à¹Ģà¸Ĥ
à¸Ĭ à¸°
bl ack
n d
à¸Ńà¸Ńà¸ģ à¹Ģà¸ª
à¸Ħà¸Ļ à¸¥
Ġà¸Ħà¸Ļ à¸«à¸Ļ
à¸Ĺ à¹Ģà¸Ľ
à¸²à¸Ļ à¸Ńà¸ĩ
Ġà¸Ķ à¸²à¸§à¸Ļ
à¸łà¸²à¸ŀ à¸Ĥà¸Ńà¸ĩ
Ġà¹Ĥà¸Ķà¸¢ à¸¥
à¹Ģ à¸Ļà¸ģ
ĠðŁ ı
à¸® à¸Ńà¸Ļà¸Ķ
à¸Ńà¸¡ à¸ĸ
Ġà¹ģà¸¥à¸° à¸Ĺà¸²à¸ĩ
Ġà¸Īà¸²à¸ģ à¸ģà¸²à¸£à¸Ĺ
à¸Ľ à¸«
Ġd oc
à¸Ļ à¹Ģà¸Ńà¸ģ
à¸Ĺà¸£à¸²à¸ļ à¸Ĭ
Ġà¹Ģà¸Ĥ à¸²à¹Ħà¸Ķ
Ġà¹ģà¸¥à¸° à¸Īà¸°
à¸Ńà¸ģ à¸Ńà¸¢
Ġ à¹Ħà¸«à¸§
à¸²à¸¢ à¹Ħà¸«à¸Ļ
à¸Ĥà¸ĵà¸° à¹Ģà¸Ķ
à¸ĺ à¸²à¸£
à¸Ńà¸Ļà¸ŀ à¸¤à¸¨à¸Ī
Ġà¸Ħ à¸ĩà¹Ģà¸Ľ
Ġà¹Ģà¸§ à¸Ĺ
Ġcom m
à¸Ļà¸Ĭ à¸Ļ
à¸Ĭà¸į à¸²
Ġà¸Ħà¸§à¸£ à¹Ģà¸¥
as ia
à¸¢à¸²à¸ģ à¸Ĺ
à¸ªà¸²à¸§ à¸ģ
Ġb aby
à¹Ģ à¸Ńà¸Ļ
Ġà¸£ à¸ļà¸ģà¸§à¸Ļà¸Ĺ
à¸Ľ à¸ģà¸²à¸£
à¸ĩà¸ª à¸Ńà¸ļ
Ġà¸«à¸²à¸ģ à¸ľ
à¸¢à¸²à¸ģ à¸£à¸ĵ
à¸Ķà¸ķà¸²à¸¡ à¸Ĭà¸¡
à¹Ħà¸Ľ à¹ģà¸ķ
à¹Ĩ à¸Ļà¸°à¸Ħà¸°
Ġp age
à¸Ľ à¹Ģà¸ģ
à¸ŀ à¸Ĭ
m v
à¸Ļ à¸«à¸£à¸Ń
à¸Ķ à¹Ģà¸§
à¸ĵ à¸Ĭà¸²à¸¢
à¸¡à¸² à¹ģà¸Ī
à¸Ļà¸£ à¸Ńà¸¢
à¸ķà¸Ńà¸ļ à¹Ħà¸Ķ
Ġà¸«à¸¡ à¸Ńà¸ģ
f ile
à¸Ń à¸£à¸°à¸Ķ
Ġm ed
Ġà¹Ģà¸§à¸¥ à¸²à¸Ľà¸£à¸°à¸¡à¸²à¸ĵ
Ġd ream
à¸ģ à¸¡à¸²à¸ģà¸ģà¸§
âĿ ¥
à¸įà¸« à¸²à¹ĥà¸Ļ
à¸Ļà¸Ĥà¸Ńà¸ĩ à¸Ľ
à¸¢à¸§ à¸¥
à¸Ĥ à¸¥
à¹ģà¸ļà¸ļ à¹Ģà¸Ľ
à¸²à¸Ļà¹Ħà¸Ľ à¹Ħà¸Ķ
à¸° à¸Ľà¸¥
Ġ à¸ĩà¸²à¸¡
à¸Ļà¸ķà¸£ à¸²à¸¢à¸ķ
à¹Ģà¸ļ à¸ķ
b um
à¸²à¸¡ à¸°
à¸Ļà¸ĸ à¸¥
Ġwh o
Ġw atch
à¹Ģà¸Ī à¸Ńà¸ļ
Ġh er
à¸Īà¸²à¸ģ à¸§
à¸Ńà¸¡ à¸²à¸ķ
à¸¢à¸Ķ à¸Ħ
à¸Ńà¸ľà¸¡ à¹Ħà¸¡
us e
à¸Ĵà¸Ļ à¸²à¸Ĥ
à¸ĩà¸Īà¸° à¸ģà¸¥
à¸Ĥà¸Ńà¸ĩ à¸ī
Ġam az
à¸²à¸ĩ à¹Ģà¸ľ
à¸Ļà¸ķà¸£ à¸ĩà¸Ļ
à¸¡ à¸²à¸«à¸¥
Ġà¹Ģà¸£ à¸²à¹Ģà¸ª
Ġl en
à¸µà¹Ī "
à¸²à¹ĥà¸Ī à¸ĩ
à¸Ļà¸¡à¸² à¹Ģà¸ŀ
à¸¢à¸ļ à¸Ńà¸¢
à¹Ģà¸¢à¸Ńà¸° à¸Ĥ
à¸£à¸Ń à¸Ńà¸¢
à¸Ļà¸Ĥà¸Ńà¸ĩ à¸£
à¸¢à¸§ à¹ģà¸¥à¸°
Ġà¸ª à¸°à¸Ĺ
à¸įà¸« à¸²à¸Ń
entertain ment
à¹Ħ à¸ģà¸Ķ
à¸§à¸¢ à¹Ģà¸ĩ
à¸ļ à¹Ģà¸ŀà¸¥à¸ĩ
à¸²à¸Ķ à¸ŀ
Ġà¸Ńà¸¢à¸²à¸ģ à¸ģ
à¸ķà¸£ à¸²à¸Ħ
à¸Ĺà¸ĺ à¸¨à¸²à¸ªà¸Ļà¸²
à¸Ń à¸§à¸ģà¸²à¸¨
Ġà¸ķà¸¥à¸²à¸Ķ à¸«
Ġâľ ¨
) )
à¹Ģà¸ŀà¸£à¸²à¸° à¹Ģà¸Ħ
à¹Ħà¸Ľ à¹Ģà¸«
Ġsup port
à¸Ľà¸£à¸° à¸Ľ
à¸²à¸Ļ à¸Īà¸°
à¹Ģà¸ĭ à¸ķ
ore d
à¸¥ à¸Ķà¸ª
à¸Ļà¸¡à¸² à¹Ģà¸¥
à¸Ń à¹Ħà¸«à¸Ļà¸Ķ
Ġk id
à¸ģ à¸ļà¸²à¸Ĺ
à¹Ħà¸Ĥ à¸Ńà¸¢
à¸Ļà¹ģà¸Ļà¸§ à¸Ĺà¸²à¸ĩ
à¹Ģà¸¥à¸¢ à¹Ģà¸Ľ
à¹Ģà¸® à¸¥
à¸¡à¸²à¸ģ à¹Ģà¸¥à¸¢à¸Ħà¸£
à¸¢à¸Ļ à¸Ħà¸§à¸²à¸¡à¸Ħ
à¸Ķà¹ĥà¸Ļ à¸£à¸Ńà¸ļ
à¸° à¹ģà¸¡
à¸£à¸²à¸Ħ à¸²à¸Ħ
à¸ļà¸²à¸ĩ à¸£
à¸²à¸Ķ à¸Ļ
Ġà¸Īà¸° à¹Ģà¸Ń
Ġe ar
ðŁĩ ¸
à¸²à¸ģ à¸£à¸¡
à¸Ĺà¸£ à¸¢à¸¨
Ġcon n
âŀĸâŀĸ âŀĸâŀĸ
Ġà¸« à¸²à¸§
à¹ģà¸ļà¸ļ à¸ģ
Ġm m
Ġ++ +
à¸įà¸į à¸²à¸Ń
á Ģ
à¸Ńà¸Ńà¸ģ à¹ģà¸¥
Ġm g
à¸ĩà¸Īà¸° à¸ĭ
à¸ĩ à¸Ńà¸Ńà¸ģà¸¡à¸²
à¸²à¸§ à¸«à¸²à¸§
à¸Ļà¸Īà¸° à¸Ħ
Ġà¸«à¸²à¸ģ à¹Ģà¸Ľ
à¸Ńà¸£ à¸«
à¸ķà¸²à¸¡ à¸§
Ġà¹Ģà¸Ħà¸¢ à¹Ģà¸«
à¸§à¸¢ à¹Ģà¸Ķ
à¸ĩà¸ª à¸¡à¸²à¸ĺ
Ġà¸ķà¸²à¸¡ à¸Ĥ
à¸Ľ à¸ªà¸ķ
à¹Ħà¸Ķ à¸£
à¹Ģà¸Ĥ à¸²à¸¥
à¸ģà¸ª à¸²à¸Ĥà¸²
ph ot
à¸¢à¸ļ à¸Ħ
à¸«à¸¥à¸²à¸¢ à¸Ħà¸Ļà¸Ĺ
à¸²à¹ĥà¸Ī à¸ķ
à¹ģà¸¥ à¹Ģà¸£
Ġfl ash
à¹ģà¸Ńà¸Ļ à¸Ķà¸£
à¸Ļà¸ģà¸²à¸£ à¹Ģà¸¥
à¸ķà¸ģ à¸«à¸¥
à¸Ļà¸£à¸ĸ à¸Ĺ
à¹Ĥà¸Ķà¸¢ à¸ģà¸²à¸£
à¸ĩà¸¡ à¸²à¸§
à¸²à¸¡ à¸²à¹Ģà¸ģ
Ġst art
i et
à¸²à¸Ħà¸£ à¸Ńà¸ĩà¸Ĭ
Ġà¸Ĥà¸Ńà¸ĩ à¸ģ
Ġà¹ĥà¸Ħà¸£ à¸ŀà¸Ńà¸£
à¸Ł à¸Ńà¸¥
Ġtrue move
Ġch ina
à¸ģà¸ª à¸łà¸²à¸ľ
à¸µ !
à¸Ļà¹ģà¸¥à¸° à¸Ľà¸£à¸²à¸ļà¸Ľà¸£à¸²à¸¡
Ġà¸Ĺà¸²à¸ĩ à¹Ģà¸Ī
à¸¹à¹Ī "
à¸² à¹Ĥà¸Ķà¸Ļ
à¸²à¸ ¤
à¸Ńà¹Ģà¸£ à¸²à¸£
Ġr ock
à¸²à¸ł à¸²à¸¢
à¸Ľà¸£à¸°à¸ª à¸ļà¸Ń
Ġp ub
Ġp ol
à¸¢à¸§ à¹Ģà¸Ńà¸ĩ
à¸¥ à¹ģà¸¥à¸°
à¸ĩà¸ķ à¸Ńà¸Ļà¸Ĺ
à¸Īà¸° à¸«à¸¡à¸Ķ
à¹ģ à¸«à¸Ļ
à¸ŀ à¸Ħ
à¸Ń à¹ģà¸«
à¸ľà¸¡ à¸ļ
à¸łà¸²à¸ŀ à¸¢
à¸²à¸¡à¸²à¹ĥà¸Ļ à¸Ĭ
à¸² à¹Ģà¹Ģà¸¥
à¸ļ à¸įà¸²à¸ķ
Ġà¸¡ à¸Ńà¸ĩà¸§
à¹Ģà¸§ à¸¨
à¸Ńà¸ģ à¸Ī
à¸ģà¸£à¸£à¸¡à¸ģà¸²à¸£ à¸ľ
à¸¢à¹ĥà¸Ī à¸Ķ
à¸¢ à¸Ļà¸°à¸Ħà¸°
à¸Ķ à¸Ĭà¸¡à¸§
5555555555555555 5555555555555555
à¸ª à¹Ģà¸£
Ġcle an
à¹ģ à¸Ńà¸Ļà¸Ķ
à¹ĥà¸Ļà¸ģà¸²à¸£ à¸Ħ
à¸© à¸ª
Ġà¸« à¸ĩà¸ª
à¸Ńà¸ģ à¹ģà¸¥
um p
à¸Ńà¸°à¹Ħà¸£ à¸¢
Ġà¸ľà¸¡ à¹Ģà¸Ħà¸¢
. ,
Ġst ory
à¸Ļà¸Ļ à¸²à¸¢à¸ģà¸¯
à¸Ĳ à¸Ń
à¸ļ à¸²à¸ª
à¸Ħ à¸«à¸Ļ
à¸ģà¸£ à¸Ļ
% )
à¸§à¸¡ à¸ªà¸Ļ
Ġfib re
à¸Ļ à¸Ńà¸Ļà¸Ĺ
Ġà¸¡ à¸²à¸ŀ
Ġà¸Ħà¸§à¸²à¸¡ à¸ķ
à¸Ńà¸ļ à¸²à¸ĩ
à¸ŀà¹Ģà¸ŀ à¸ª
Ġm ore
à¸Īà¸į à¸ł
Ġà¹Ģà¸ŀà¸£à¸²à¸° à¹Ģà¸ŀ
à¸ģà¸Ķ à¸²à¸«à¸²à¸£
à¸Ħà¸§à¸£ à¹ĥà¸Ĭ
à¸²à¸Ī à¸²à¸£
ce pt
à¸ĩà¸ļ à¸²à¸¥
à¸Ĭà¸£ à¸ļ
à¸§à¸¢ à¸Ńà¸ĺ
à¹Ĥà¸Ĺà¸© à¸Ī
à¸Ńà¸ĩà¸Ĥà¸Ńà¸ĩ à¹Ģà¸£
à¸Ļà¸£à¸²à¸Ħ à¸²
Ġà¸Ļ à¸Ńà¸ģà¸Ļ
à¸²à¸Īà¸° à¸Ľ
à¸Ļà¸Ĺà¸²à¸ĩ à¸ª
à¹Ģà¸£ à¸²à¸Ńà¸²à¸¢
à¸Ļà¹Ģà¸£ à¸²à¸Ħ
à¸Ļà¸ģà¸²à¸£ à¸ģà¸£à¸°à¸Ĺ
à¸«à¸¡ à¸§à¸Ķ
!!ï¸ı !!ï¸ı
à¸Ĥà¸Ńà¸ĩ à¸Īà¸£
ou th
à¸Ķà¹ĥà¸Ī à¸ģ
à¸ļ à¸Ļà¸°
à¸Ńà¸Ķ à¸Ķ
à¸¢ à¸Ľà¸£à¸°à¸ģ
an i
Ġ7 1
à¸Ľ à¸Ĭà¸Ĭ
Ġin n
à¸Ľà¸£à¸°à¸ģà¸²à¸¨ à¸ľà¸¥
à¸¢à¸Ńà¸Ķ à¸Ļ
à¸²à¸ª à¸²à¸¢à¸ŀ
à¸ĩà¸Ħ à¸ĩà¸Ńà¸¢
tt om
à¸¡à¸²à¸ģ à¹Ģà¸Ĺ
à¸²à¹Ĥ à¸Ńà¸ģà¸²à¸ª
à¸²à¸ķà¸Ńà¸ļ à¸¥
à¸¡ à¹ģà¸¢
Ġà¹Ĥà¸Ĺà¸£ à¹Ħà¸Ľ
à¸ŀ à¸Ńà¸Ļ
à¸ĩà¸ģà¸²à¸£ à¸ľà¸¥
à¹ģ à¸§à¸ģ
tt e
à¸ģà¸ļ à¸²à¸¨à¸ģ
à¸Ń à¸²à¸ģ
à¸ģà¸¥ à¸Ńà¸ļ
Ġà¸Īà¸° à¸ªà¸²à¸¡à¸²à¸£à¸ĸ
à¸ªà¸²à¸§ à¸Ĺ
à¸Ĥà¸Ńà¸ĩ à¹Ģà¸¥
à¹Ĥ à¸Ńà¸Ħ
Ġà¸ģà¸²à¸£ à¹ĥà¸«
à¸ĩ à¹ĥà¸ļ
à¸Ļ à¹Ģà¸Ńà¸ģà¸¥
Ġà¸Ĥà¸Ńà¸ĩ à¸Ļ
Ġà¹Ģà¸ĭ à¸ķ
Ġà¹Ģà¸£à¸²à¹Ģà¸¥à¸¢ à¸ķ
Ġf in
à¸ļà¸²à¸ĩ à¸§
à¸ģà¸Ľ à¸²à¸ģ
à¸Ļà¸Ļà¸Ļà¸Ļ à¸Ļà¸Ļà¸Ļà¸Ļ
ar m
à¹ĥà¸Ļà¸ª à¸łà¸²à¸ŀ
à¹Ģà¸Ħ à¸Ńà¸£
Ġà¸ªà¸§à¸¢ à¸¡à¸²à¸ģ
Ġà¸ģ à¸¢
à¸²à¹Ģà¸ģ à¸£
à¸ļà¹Ħà¸Ľ à¹Ģà¸£
Ġc f
Ġf it
à¸² à¹Ĥà¸¥à¸ģ
à¸ģà¸²à¸£ à¸Īà¸£à¸²à¸Īà¸£
à¹Ĥà¸Ķ à¸Ļà¸ª
à¸²à¸ĩà¸Ħà¸£ à¸Ńà¸ļà¸Ħà¸£
Ġà¸Ĥà¸Ńà¸ĩ à¸¡
à¸²à¸ĩà¸²à¸Ļ à¸§
Ġà¸¡ à¸²à¸Ī
à¸«à¸¥à¸²à¸¢ à¸Ī
à¸ŀà¸§à¸ģ à¹Ģà¸£à¸²
à¹ī ,
à¹Ģà¸ŀà¸£à¸²à¸° à¸¢
à¸ĩà¹ģà¸£ à¸ģà¸ģ
à¸²à¸¡ à¸²à¸ļ
p ay
Ġà¸Ľ à¸Ĺ
Ġà¹Ĥ à¸Ħà¸¥
à¸Ļà¹Ģà¸£ à¸²à¸£
à¸Ńà¸Ń à¸ĺ
à¸²à¹ģ à¸«à¸¥à¸°
Ġà¸ŀà¸§à¸ģ à¸Ĺ
Ġà¸ĭ à¸²à¸¥
à¹Ģà¸ĭ à¸£
à¸ĩà¸²à¸Ļ à¸ļ
Ġà¸Īà¸²à¸ģ à¸§
à¸Ńà¸ĩ à¸Ļà¸°
à¸²à¸¡ à¸ļ
à¹ĥà¸Ļà¸ģà¸²à¸£ à¸Ĥ
à¹ģà¸£ à¸ģà¸§
Ġà¹Ħ à¸«à¸¥
à¹ģà¸Ńà¸Ľ à¹Ģà¸Ľ
à¹Ħà¸«à¸Ļ à¸Ń
à¸²à¸Ńà¸Ńà¸ģ à¹Ħà¸Ľ
à¸¨ à¸§à¸£
à¹Ĥà¸Ń à¹Ģà¸Ħà¸£
à¸Īà¸° à¸Ĥà¸Ń
ðŁĴ ¦
it or
à¸Ńà¸ĩ à¸ķà¸£à¸§à¸Ī
à¹Ģà¸Ńà¸²à¹Ħà¸Ľ à¹ĥà¸Ĭ
à¸²à¸ĩ à¸ªà¸Ļ
Ġm oney
à¸ģà¸²à¸¡à¹Ģà¸Ĺà¸ŀà¸«à¸£ à¸£à¸©à¸²
à¸ĩà¸ĩ à¸°
à¸Ķà¸Ńà¸°à¹Ħà¸£ à¹Ħà¸¡
Ġsp ons
Ġre f
à¸Ļà¸ļ à¸Ńà¸£
à¸² à¹Ħà¸Ĥ
à¸Ĥà¸Ńà¸ĩ à¸ķà¸Ļ
à¹Ģà¸Īà¸Ń à¹Ģà¸£
à¸²à¸ªà¸²à¸£ à¸Ħà¸²à¸¡
/ %
à¸Ļà¹Ģà¸§à¸¥ à¸²à¸Ļà¸²à¸Ļ
à¸Ļà¸Īà¸° à¹Ģà¸ģ
à¹ĥà¸Ļ à¹Ģà¸ģà¸¡
à¹Ģà¸Ľ à¸£à¸¡
à¸ĩà¹ģ à¸Ľà¸¥
à¸Īà¸° à¹ģà¸ķ
Ġv ers
à¸Ķà¸¡ à¸²à¸Īà¸²à¸ģ
oll ow
à¸Ļà¸ģà¸²à¸£ à¸Ńà¸¢
à¹Ģà¸ŀ à¸¥à¸¢
à¸ªà¸ķ à¸Ńà¸£
w ifi
à¸Ļà¸²à¸Ļ à¸ģà¸§
Ġà¸ªà¸ķ à¸²à¸£
Ġm en
à¸ªà¸²à¸§ à¸Ļ
à¹Ģà¸Ĥà¸ķ à¸ŀ
à¸²à¸ĩ à¸¡à¸²
Ġb it
at ed
à¸¡à¸²à¸ģ à¹Ħà¸¡
Ġc re
b d
à¸Ļà¹Ħà¸Ľ à¸«à¸¡à¸Ķ
Ġà¹ĥà¸Ļ à¸ļ
à¹ģà¸Ļà¸§ à¸«à¸Ļ
à¸Ńà¸Ħà¸§à¸²à¸¡ à¹Ģà¸Ľ
à¸Ħ à¹ģà¸¥
à¹ĥà¸Ī à¹ģà¸¥
3 50
à¸ŀà¹Ģà¸Ķ à¸ķ
à¸Ļ à¸įà¸²à¸ķ
à¹ģà¸ļà¸ļ à¸ŀ
à¸«à¸¥à¸§à¸ĩ à¸Ľ
à¸Ĺà¸£à¸£à¸¨ à¸ģà¸²à¸£
à¸ĭà¸° à¹ģà¸¥
à¸Ī à¹ĥà¸«
à¸Ńà¸Ńà¸ģ à¹Ģà¸Ľ
à¸ģà¸¥ à¸ĩà¹Ħà¸Ľ
à¸Ħà¸§à¸²à¸¡ à¸Ĭà¸Ńà¸ļ
Ġà¹Ģà¸ŀà¸£à¸²à¸° à¹ģà¸¡
à¸Ńà¸Ļ à¸Ľà¸£
Ġw om
à¹Ģà¸īà¸ŀà¸²à¸° à¸ķ
à¸¢à¸Ļ à¸£à¸ĸ
à¸Ľà¸£à¸²à¸ģà¸ı à¸ģà¸²à¸£à¸ĵ
à¸ģà¸© à¸²à¸£
à¸Ľà¸£à¸°à¹Ģà¸Ĺà¸¨ à¸ķ
à¸Īà¸° à¹Ģà¸ķ
à¸Ķ à¸Īà¸ļ
Ġà¸£ à¸Ľà¸ł
Ġ7 50
Ġbus iness
à¸§à¸ľà¸¡ à¹Ģà¸Ńà¸ĩ
à¸²à¸«à¸¥à¸²à¸¢ à¸Ħà¸£
Ġà¹ģà¸ģ à¸Ļà¸Ļ
à¸Ĩà¸²à¸ķ à¸ģà¸£à¸£à¸¡
à¸Ńà¸¢à¸²à¸ģ à¹Ģà¸Ľà¸¥
à¸²à¸«à¸¥à¸²à¸¢ à¸§
à¸ŀà¸£à¸° à¸ªà¸ĩà¸Ĩ
à¸Ļà¸ŀ à¸ļà¸§
à¸²à¸ģ à¸¢
Ġcont r
à¸²à¸ķà¸£ à¸ĩà¸Ļ
à¸Ńà¸¡à¸§à¸¥ à¸Ĭ
n ess
à¸Ļà¸Ħà¸£ à¸ļ
à¸£ à¸ķ
à¸ļ à¸¨à¸ŀ
à¹Ģà¸¥à¸¢ à¸¥à¸Ńà¸ĩ
à¸²à¸§ à¸Ľ
à¹Ĥà¸Ķà¸¢ à¸Ń
ch an
à¸ļà¸ļ à¸Ńà¸¥
à¸²à¹ģ à¸Ĺà¸Ļ
Ġm al
à¸Ń à¹Ģà¹Ģà¸¡
à¹Ĥà¸ķ à¹Ĥà¸¢à¸ķ
à¸¡ à¸Ńà¸ĩà¸«à¸Ļ
Ġà¸Ķ à¸Ńà¸ģà¹Ħà¸¡
à¸Ľà¸£à¸°à¸ĸ à¸¡
Ġà¹Ģà¸ŀà¸£à¸²à¸° à¸Ľ
Ġ æ
à¸²à¸ĩ à¸Ļà¸°à¸Ħà¸£
Ġà¸ļ à¸Ĺà¸Ĺ
à¸Ļà¸¡à¸²à¸ģ à¸Ĺ
à¹ģà¸Ńà¸ŀ à¸ŀà¸¥
Ġà¹Ģà¸ŀà¸£à¸²à¸° à¹Ģà¸£à¸²à¸ģ
Ġk r
à¸²à¸¢ à¹Ģà¸ļ
g u
à¹Ģà¸£à¸² à¹ģà¸ķ
à¸ļ à¸Ĭà¸²à¸ķ
à¸¡à¸²à¸ĸà¸²à¸¡ à¸§
Ġm ain
à¸¢à¸ĩ à¹Ħà¸§
Ġà¹ĥà¸Ļ à¸¨
l ight
à¹ĥà¸Ļà¸ģà¸²à¸£ à¸Ĭ
à¹Ģà¸¥à¸¢ à¹Ģà¸¥
à¸ªà¸§à¸Ļ à¸ª
j pg
à¸² à¹Ģà¸§à¸¥à¸²
à¹Ģà¸Ĥ à¸²à¸Ĭ
à¸° à¸¢à¸²à¸Ļ
Ġà¸ªà¸Ńà¸ļà¸ĸà¸²à¸¡ à¹Ģà¸ģ
à¸Ļ à¸²à¸ĸ
à¸¥ à¸²à¸ģà¸²à¸£
à¸Ļà¸Īà¸° à¸Ĥ
à¸²à¹Ħà¸Ľ à¸Ĥ
Ġà¸Ĥà¸Ń à¹Ģà¸¥
à¸Ń à¸Īà¸°à¹Ħà¸Ľ
à¸Ńà¸ĩ à¸Ľà¸£à¸°à¸Ĭà¸²à¸Ĭ
à¸Ńà¸ľà¸¡ à¹Ģà¸Ľ
à¸²à¸Ńà¸Ńà¸ģ à¸¡à¸²
à¸£à¸²à¸¡ à¸Ħ
à¸Ī à¸Ļà¹Ħà¸Ķ
Ġt y
k h
à¸²à¸« à¸¥à¸ĩ
à¸ŀà¸£à¸£à¸Ħ à¸Ĺ
à¸Ī à¸Ļà¸¡
à¹Ĥà¸Ĺà¸£ à¸«à¸²
à¸Ĳ à¹ģà¸¥à¸°
it le
Ġà¹ģà¸Ĥ à¸§à¸ĩ
à¸¢à¸§ à¹Ģà¸¥
Ġà¸ģà¸²à¸£ à¸ĩà¸²à¸Ļ
ĠðŁĴ Ĺ
Ġà¸Ĺ à¸²à¸Ļ
ch o
à¸Ĺà¸²à¸ĩ à¹Ģà¸Ī
à¸ķà¸£ à¸Ľà¸£à¸°à¸Ī
à¸Ļà¹Ħà¸Ľ à¹ĥà¸«
Ġà¹Ħà¸Ľ à¸Ħ
à¸Ĥà¸Ńà¸ĩ à¸ªà¸«à¸£
à¸ķà¸£ à¸Ĭ
à¸Ńà¸ĩà¸ģà¸²à¸£ à¸Ī
Ġt ext
à¹Ĥà¸Ķ à¸Ļà¸Ĥ
à¸ģ à¹ģà¸ŀ
Ġb ut
pro du
à¸ķà¸²à¸£ à¸²à¸ĩ
à¹Ī ..
Ġà¸Ĥ à¸²à¸ģà¸¥
à¸ªà¸Ńà¸ļ à¸Ľà¸²à¸ģà¸Ħ
à¸²à¸Ńà¸¢à¸²à¸ģ à¸£
à¸ļà¸²à¸¢ à¸§
à¸ļ à¹ģà¸ľ
Ġà¸Ī à¸Ńà¸ĩ
à¸¡à¸²à¸Ľ à¸£à¸°à¸ģ
à¸ļ à¸Ŀà¸²à¸ģ
Ġà¸Ħà¸Ļ à¹Ĥà¸ªà¸Ķ
g er
Ġt im
Ġvi ew
Ġà¸Ĥà¸Ńà¸Ħà¸§à¸²à¸¡ à¹Ģà¸«
Ġà¹Ģà¸¡ à¸¥
à¸ł à¸²à¸§à¸Ļ
Ġà¹ģà¸® à¸£
Ġà¸Ļà¸²à¸¢ à¸ĺ
à¹Ĥà¸Ĭ à¸ķ
à¸ļà¸²à¸ĩ à¸Ĭ
Ġà¸ŀà¸§à¸ģ à¸Ħ
à¸ŀà¸Ń à¹Ģà¸£
à¸ģ à¸Ľà¸£à¸°à¹Ģà¸łà¸Ĺ
Ġà¸Īà¸° à¸ļà¸Ńà¸ģà¸§
à¸Ńà¸Ħà¸§à¸²à¸¡ à¸ľ
Ġà¸Ī à¸Ļà¸Ľ
à¸ĩ à¸«à¸²à¸¢
Ġà¸ª à¸²à¸¢à¸ķ
à¸ļà¸Ħà¸§à¸²à¸¡ à¹Ģà¸Ľ
à¸Ļà¸Ńà¸ģ à¹ĥà¸Ī
à¸²à¹Ĥ à¸ģà¸£à¸ĺ
Ġà¹ģ à¸ī
Ġà¹ĥà¸Ħà¸£ à¹Ħà¸¡
à¸¢à¸Ļ à¹ģà¸¥à¸°
à¸²à¸£à¸§à¸Ī à¸Ĭ
Ġà¹Ĥ à¸Ĩà¸©à¸ĵ
à¸Ļ à¸Ĩ
à¸¥à¸ĩ à¸Īà¸²à¸ģ
à¸Ļà¹Ĩ à¸ģ
à¸¢à¸ķ à¸°à¸§
à¸²à¹ģ à¸¡à¸§
à¸²à¸¢ à¹Ģà¸ļà¸Ńà¸£
c all
ann a
à¹Ħà¸Ĥ à¹ĥà¸«
à¸Ĭ à¸°à¸ķ
Ġ6 50
Ġà¹Ĥà¸Ķà¸¢ à¸«à¸¥
à¸Ķà¸Ĭà¸Ńà¸ļ à¸ķ
à¸¥à¸° à¸¥
à¸Ńà¸°à¹Ħà¸£ à¸«à¸£
à¹Ħà¸Ĥ à¹Ħà¸Ķ
à¸Ńà¸ĩ à¸ģà¸Ķ
Ġà¸ľ à¸ªà¸¡
à¸ķ à¹Ģà¸Ķ
Ġà¹Ģà¸£à¸² à¹Ģà¸Ĭ
à¸§à¸¢ à¸ģà¸²à¸£à¸Ĺ
à¸łà¸²à¸Ħ à¹Ģà¸Ńà¸ģà¸Ĭà¸Ļ
à¸Īà¸° à¹ĥà¸ª
Ġst at
à¸ļà¹Ħà¸Ľ à¸«
à¸ĺà¸£à¸£à¸¡ à¸Ĺ
à¸Ħ à¸Ĥ
à¹Ĥà¸® à¸¡
à¸² à¹Ģà¸īà¸¥
à¸ķà¸Ńà¸Ļ à¸¡
à¸ĸà¸²à¸¡ à¹Ģà¸Ħ
à¸¡ à¸Ħà¸§
à¸«à¸²à¸ģ à¹Ħà¸¡
à¸Ķ à¹Ħà¸Ľà¸ģ
Ġair port
à¸¡ à¸Ħà¸Ļà¸Ĺ
Ġv at
à¸ľà¸¡ à¹ĥà¸«
Ġà¸Ĥ à¸²à¹Ģà¸Ĥ
à¸ģà¸© à¸²à¸Īà¸²à¸ģ
Ġà¸® à¸²à¸£
à¹Ħà¸Ĺà¸¢ à¸ŀ
à¸Ńà¸¢ à¸§à¸²à¸ĩ
à¸Ħà¸£ à¸ªà¸¡à¸²à¸Ĭ
Ġà¹Ģà¸£à¸²à¸Īà¸° à¹Ħà¸¡
Ġà¹Ģà¸Ħ à¸¢à¸Ĺ
Ġà¹Ģà¸ŀ à¸¥à¸ĩà¸Ĺ
à¸ĩà¸Īà¸° à¸¢
à¸ģ à¸Ħà¸§à¸²à¸¡à¸Ħ
à¸Ń à¹ģà¸Ļ
à¹Ģà¸Ńà¸ģà¸ªà¸²à¸£ à¸Ĺ
à¸ķà¸ļà¸Ńà¸¥ à¸Ĺ
Ġà¹Ģà¸¥à¸¢ à¸£
à¸ĩà¸§à¸¥ à¹Ģà¸£
à¸ĩà¹Ģà¸ģà¸ķ à¹Ģà¸«
à¸Ļà¸¡à¸²à¸ģ à¸Ħ
à¸ŀ à¸Ńà¸¥
à¸ģà¸²à¸£ à¹ģà¸«
à¸Ķ à¸Ńà¸Ńà¸ģà¹Ħà¸Ľ
à¹Ģà¸£à¸² à¹Ģà¸Ńà¸ĩà¸ģ
ak orn
à¸²à¸Ĥ à¸Ńà¹ĥà¸«
à¸¢à¸§à¸Ļ à¸°
à¸Ļà¸Ńà¸ģà¸Īà¸²à¸ģ à¸Ļ
à¹Ģà¸Ł à¸¥
à¸Ńà¸ĩ à¸ªà¸Ļ
à¸ģ à¸²à¹ģà¸Ł
à¹Ĥ à¸Ńà¸Ķ
à¹Ħà¸Ľ à¸Ł
à¸Ńà¸ĩ à¸Ńà¸²à¸¢
áĦ ı
à¹Ģà¸Ńà¸²à¸¡ à¸²à¹ĥà¸Ĭ
à¸ľà¸¡ à¹Ģà¸Ĭ
à¸Ļà¹Ģà¸ŀà¸£à¸²à¸° à¸§
Ġà¹Ħà¸Ľ à¸Ńà¸¢
6 50
à¸§ à¸Ľà¸ģà¸ķ
our ce
Ġà¸Ħà¸§à¸²à¸¡ à¸Ķ
à¸ķà¸£ à¸Ń
à¸Ľ à¸«à¸¥
à¸Ļà¹Ħà¸Ľ à¸§
à¹Ģà¸Ħà¸¢ à¸Ĥ
Ġc al
à¸ŀ à¸ŀà¸²à¸Ļ
à¸ĩ à¸¥à¸ĩà¸Ĺà¸°à¹Ģà¸ļ
à¹Ĥà¸Ĺà¸£ à¸ķ
à¸²à¸§ à¸«à¸£
à¸²à¹Ħ à¸ģ
à¹Ģà¸Ħà¸¥ à¸¡
à¸° à¹ģà¸ģ
à¸²à¸¡ à¸²à¸ķà¸¥à¸Ńà¸Ķ
ĠðŁĴ ł
à¸ķà¸§ à¹ģà¸ŀà¸Ĺà¸¢
Ġà¹Ģà¸Ń à¸²à¹ģà¸ķ
à¸Ńà¸°à¹Ħà¸£ à¹Ģà¸ŀ
à¸łà¸²à¸Ħ à¸ł
à¸Ļà¸²à¸Ļ à¸Ļ
à¸ģ à¹Ħà¸Ł
à¸Ńà¸¢ à¸ķà¸²à¸¡
à¸²à¸ĩ à¸Ńà¸Ńà¸ģà¹Ħà¸Ľ
Ġà¹Ĥà¸Ĺ à¸©
Ġpl an
im a
à¸²à¸ĩà¸ŀ à¸²à¸£
à¸¢à¸Ļ à¹Ģà¸Ĥ
à¸ļ à¹ģà¸ª
à¹ĥà¸Ļ à¸§à¸ĩà¸ģà¸²à¸£
n al
à¸Ļ à¸Ľà¸£à¸°à¸ķ
Ġs ong
à¸ĩà¸Ħ à¸ĵà¸°à¸ģà¸£à¸£à¸¡à¸ģà¸²à¸£
à¸Ī à¸ļà¸¡
à¸¢à¸ĩ à¸Ħà¸Ļà¹Ģà¸Ķ
Ġà¹Ĥà¸Ķà¸¢ à¸Īà¸°à¸¡
à¸¡à¸²à¸Ĭ à¸Ńà¸ļ
à¸ķà¸¥à¸Ńà¸Ķ à¹Ħà¸Ľ
Ġà¹Ħà¸Ľ à¹Ħà¸Ķ
ouch er
à¸Ħ à¸²à¸ļ
à¸ķ à¹ģà¸ļà¸ļ
Ġr ov
à¸Ļà¸²à¸¢ à¸Ń
à¹Ĥà¸ª à¸ĺà¸£
Ġà¸Ń à¸ª
à¸ģà¸© à¸²à¸Ľà¸£à¸°à¸ķ
à¹ī .
à¸Ĥà¸Ńà¸ĩ à¸Ľà¸£à¸°à¸Ĭà¸²à¸Ĭ
Ġà¸¥à¸ĩ à¸§
à¸ļà¸ļà¸Ĺ à¹Ģà¸Ľ
à¸¥ à¹Ģà¸Ķ
à¸²à¹Ħà¸£ à¸ķ
l ish
à¸Ļ à¹Ģà¸§à¸¥à¸²à¸Ĺ
à¸²à¸ĩà¸²à¸Ļ à¸¡
g ram
à¸ĩ à¸¥à¸Ķ
à¸Ľà¸²à¸ģ à¸ģ
à¸£à¸Ńà¸ļ à¸ļ
à¸ģà¸£à¸°à¹ģà¸ª à¸Ĥ
à¸Ńà¸¢ à¹Ħà¸«à¸¡
Ġo h
Ġà¸ģà¸¥ à¸²à¸ĩ
à¸Ńà¸Ļ à¹Ģà¸«à¸¡
Ġà¸ľà¸¡ à¸ªà¸ĩà¸ª
à¸Ńà¸ĩ à¸ļà¸£
à¸ļ à¹Ģà¸¢
à¸Ķ à¸ķà¸£à¸ĩ
à¸Ķ à¹ģà¸Ī
à¹Ħà¸Ľ à¸ģà¸¥
à¸²à¸Ńà¸°à¹Ħà¸£ à¸Ńà¸¢
à¸§ à¸ĺà¸Ļà¸²à¸ĺà¸£
Ġj an
à¸ļà¸ģà¸²à¸£ à¸Ĭ
à¸ļ à¹Ĥà¸Ķà¸¢
à¸Ĭà¸Ńà¸ļ à¹Ģà¸¥
se arch
à¸ĩ à¹Ģà¸ľ
à¸ļà¸ľà¸¡ à¸§
à¸ģà¸ģ à¸°
ðŁĳł ðŁĳł
Ġà¸Ľà¸£à¸°à¸ĺà¸²à¸Ļ à¸²à¸ĺ
à¸Ńà¸¡ à¸²à¹ĥà¸Ĭ
à¸²à¸¢ à¸ķà¸£à¸ĩà¸Ĥ
à¸¢à¸Ķ à¸Ĭ
Ġà¹ģà¸¥à¸° à¸Ħà¸§à¸²à¸¡
à¹Ģà¸Ĭ à¸¥à¸ĭ
à¸¢à¸Ķ à¹Ģà¸£
Ġk aw
à¸į à¹Ħà¸¡
à¸ĩà¸«à¸¡à¸Ķ à¸ģ
à¸ĩà¸Ħà¸§à¸²à¸¡ à¸Ķ
Ġà¸ŀà¸£à¸° à¸£à¸²à¸¡
à¸Ļà¸Ħ à¸ĩà¸Ĥà¸Ńà¸ĩ
az da
à¸Ĭà¸Ńà¸ļ à¸£
Ġà¹Ĥà¸Ķà¸¢ à¸ŀ
à¸§à¸Ļ à¹ģà¸ļ
à¸ľà¸¡ à¸Ńà¸¢à¸²à¸ģ
à¸Ĺ à¸ŀ
à¸Ĺ à¸ĭ
à¸Ļ à¸«à¸¡à¸²à¸¢à¸Ħà¸§à¸²à¸¡à¸§
à¹Ĥà¸Ħà¸£à¸ĩà¸ģà¸²à¸£ à¸Ļ
Ġà¸ģà¸²à¸£ à¸Ĥ
à¹Ģà¸£à¸² à¹Ģà¸«à¸¡
à¸ģà¸ģà¸ģà¸ģ à¸ģà¸ģ
à¸¡à¸Ńà¸ļ à¹ĥà¸«
à¹Ģà¸£à¸²à¸Ħà¸§à¸£ à¸Ĺ
âľħ âľħ
à¹ģà¸¥ à¸Ĺ
à¸Ńà¸ĩ à¹Ħà¸«à¸¡
à¸«à¸£ à¸Ńà¸ģà¸§
à¸¬ à¸²à¸Ł
à¸Ńà¸Ĥ à¸Ļà¸¡
Ġà¸£à¸ĸ à¹Ģà¸ģ
à¸¡ à¸Ĺà¸²à¸ĩ
à¸Ľ à¸ŀ
Ġ3 60
à¸ļà¸ľà¸¥à¸ģà¸£à¸°à¸Ĺ à¸ļ
à¸Ļ à¹Ĥà¸Ķà¸¢à¹Ħà¸¡
à¸ģ à¹Ģà¸ĭ
à¹Ħà¸Ľ à¸ķà¸£à¸§à¸Ī
1 25
à¸²à¸ª à¸Ńà¸Ļ
Ġà¸Ī à¸Ļà¹Ģà¸Ľ
à¸Ń à¹Ģà¸Ĺà¸¨
à¸Īà¸²à¸ģ à¸Ľ
à¸²à¸ª à¸ĸ
à¸§ à¸«à¸£à¸Ń
à¸²à¹Ĥ à¸«
à¸ĩà¹ĥà¸Ļ à¸Ī
b tn
à¸łà¸²à¸¢à¹ĥà¸Ļ à¸ļ
à¸²à¸Ļ à¸°à¸Ħ
à¹ĥà¸Ļ à¸Ĥà¸ĵà¸°à¸Ĺ
à¸ģ à¸Ħà¸§
Ġà¸ªà¸²à¸¡à¸²à¸£à¸ĸ à¸Ļ
y n
à¸ŀà¸Ńà¸Īà¸° à¹ģà¸Ļà¸°à¸Ļ
à¹Ģà¸ĺ à¸Ńà¸§
Ġl and
áħ ²
Ġl o
f o
Ġdes ign
Ġsch ool
à¹Ģà¸§à¸¥ à¸²à¹Ģà¸Ľ
à¸Ńà¸ĩà¸Ļ à¸Ħà¸£
à¸Ļ à¸ĸà¸²à¸¡
âĢ¢ âĢ¢
à¸§à¸ĩ à¹Ģà¸Ľ
Ġà¸ľà¸¡ à¹Ģà¸ŀ
à¸¥à¸° à¹Ģà¸Ķ
à¸²à¸Ļà¹Ħà¸Ľ à¸ª
à¸¢ à¹ģà¸ļà¸ļà¸Ļ
Ġà¸¥ à¸Ńà¸ĩà¹Ħà¸Ľ
à¸ĩà¸¡à¸²à¸ģ à¸Ħ
Ġà¹Ħ à¸ģà¸¥
Ġà¸ģà¸²à¸£ à¸ģà¸£à¸°à¸Ĺ
à¸²à¹ĥà¸Ļ à¸£
à¸Ńà¸¢ à¸Īà¸£
Ġà¸ª à¸Ńà¸Ļ
à¸¥à¸° à¸£
à¸ļ à¸¢à¸Ńà¸Ķ
t w
oog l
à¸§à¸Ļ à¸Ľ
à¸ģ à¸²à¸įà¸Īà¸Ļà¸ļ
Ġf ire
à¸ĩà¸ģà¸¥ à¸²à¸¢à¹Ģà¸Ľ
Ġsy stem
à¸ģà¸²à¸£ à¹Ģà¸ķà¸£
à¸ķà¸¥à¸Ńà¸Ķ à¸§
Ġà¹ĥà¸Ļ à¸«à¸Ļ
à¸ļà¸¡ à¸²à¸¢
à¸¥à¸° à¸ļ
à¸ĩà¹ĥà¸Ļ à¸«
ĠðŁ Ĳ
à¹ģà¸£ à¸ģà¸ķ
à¹ģà¸ģà¸£ à¸Ļà¸Ķ
à¸ļà¹Ħà¸Ľ à¸Ń
à¸¢à¸ģ à¸Ĥ
à¹ģà¸Ńà¸ļ à¸Ń
à¸²à¸Ńà¸²à¸Ī à¸Īà¸°à¹Ħà¸¡
b c
à¸¥à¸° à¸Ľ
à¸Ħà¸§à¸£ à¹Ģà¸¥
à¹Ĥà¸Ĭ à¸ģ
à¸Ļà¸Ĺà¸²à¸ĩ à¸ģà¸²à¸£à¹Ģà¸¡
à¸Ńà¸°à¹Ħà¸£ à¸Ńà¸¢
ðŁĳ Į
à¸¡ à¹ģà¸ļ
à¸ĵ à¸Īà¸°à¸£
à¸²à¹Ĥ à¸Ĭà¸§
Ġnet work
uk u
Ġnik on
Ġt em
à¸Ħ à¸Ńà¸Ľ
16 0
à¸Ķà¸ķà¸²à¸¡ à¹Ħà¸Ķ
à¸ĩ à¸Ĭà¸²à¸¢
à¸¡à¸² à¹ĥà¸ª
à¸ŀà¸£à¸° à¸Ń
à¸ģ à¹Ħà¸Ľà¸ģ
à¸« à¸²à¸ĩà¸²à¸Ļà¸Ĺ
ad em
à¸Ļ à¹Ģà¸Ĺà¸ŀ
à¸Ńà¸Ļ à¸ļà¸Ńà¸ģà¸§
à¸¡ à¸ĩà¸§
à¸²à¹Ģà¸£ à¸²à¸§
à¸Ĥà¸²à¸¢ à¹Ħà¸¡
Ġf est
à¸Ļà¸£à¸ĸ à¸¢à¸Ļà¸ķ
à¸²à¸Ŀ à¸£
Ġà¸ŀ à¸Ńà¸Ĥ
à¸ĩà¸Ļ à¸²à¸Ļà¹ģà¸¥
à¸ģ à¹ģà¸ľ
à¸Ĺ à¸Ńà¸¢
à¸§ à¸ªà¸¡
à¸ĩ à¸Ńà¸ģ
à¸Ńà¸Ļ à¸²à¸¢
Ġk im
49 7
à¸¢à¸§à¸° à¹Ģà¸ŀà¸¨
à¸Ħà¸§à¸²à¸¡ à¹Ģà¸ģ
à¸¥à¸°à¸Ħà¸£ à¸Ĺ
ah a
Ġà¹Ģà¸ª à¸Ķ
à¸²à¸ģà¸²à¸£ à¹ĥà¸Ĭ
à¸Ńà¸²à¸Ī à¹Ģà¸ģ
à¸ģ à¸ģà¸£
à¸Ķ à¸ªà¸Ļ
à¸ķà¸ķ à¸¡
à¸Ńà¸ĩà¸¡ à¸²à¸Ħ
à¸Ĥ à¸Ńà¸Ķ
à¸¡à¸Ħ à¸ĵà¸°à¸ģà¸£à¸£à¸¡à¸ģà¸²à¸£
Ġà¸ķà¸£ à¸ĩà¸ģ
à¹ģà¸Ķ à¸ĩà¸Ĺ
Ġà¹Ĥ à¸Ńà¸ĭ
or k
Ġr ob
à¸ī à¸¥
à¸ĩ à¸Ľà¸£à¸°à¹Ģà¸Ķ
à¹ĥà¸Ļ à¸ł
à¸ªà¸Ńà¸ĩ à¹Ģà¸Ķ
à¸ģà¸ĩà¸²à¸Ļ à¸ļà¸£
à¸¢à¸Ļ à¹ĥà¸Ī
Ġà¸ľà¸¡ à¹Ģà¸Ńà¸ĩà¸ģ
à¸Ńà¸ĩà¸¡ à¸²à¸ķ
Ġl an
à¸Ķà¸Ķ à¸Ńà¸ģà¹Ģà¸ļ
Ġà¸Ī à¸Ńà¸«
à¹Ģà¸ŀà¸£à¸²à¸° à¹Ģà¸£
Ġà¸Ľà¸£à¸°à¹Ģà¸Ĺà¸¨ à¸Ĺ
à¸ļ à¸£à¸²à¸ĭ
à¸ģ à¸ľà¸¥
Ġà¸Ĥà¸Ńà¸Ħà¸§à¸²à¸¡ à¸ģà¸£
à¹Ĥà¸¢ à¸Ħ
à¸Ħà¸§à¸£ à¹Ģà¸Ľ
à¸Ł à¹Ģà¸§à¸Ńà¸£
à¸Ħà¸²à¸Ķ à¸Ħ
Ġà¸Ī à¸Ļà¸¥
à¸²à¸Ħ à¸Ńà¸¡
à¸£à¸²à¸ Ĳ
j a
à¸Ńà¸ĩ à¹Ħà¸£
à¸ģà¸²à¸£ à¸Ĥà¸²à¸¢
à¸ģà¸© à¸²à¸«
à¸ļ à¸Ĭà¸²à¸§
à¹Ģà¸¥à¸¢ à¸ļà¸Ńà¸ģà¸§
Ġà¹ĥà¸Ļ à¸Ńà¸Ļà¸²à¸Ħà¸ķ
à¸ĩ à¸ŀà¸Ńà¹ĥà¸Ī
à¸Ļà¸Ī à¸Ļà¸ĸ
ĥ £
à¸Ļ à¹Ģà¸¥à¸Ĥ
à¹Ģà¸Ĺ à¸Ńà¸£
à¸ĩà¸Īà¸° à¹Ģà¸¥
à¸£ à¸Ńà¸ģ
Ġà¸Ŀ à¸Ļà¸ķ
Ġchamp ion
Ġà¸ª à¸«
Ġà¸ŀà¸£à¸° à¸ļà¸£à¸¡à¸£à¸²à¸Ĭ
à¸Ńà¸ĩ à¹ģà¸ļ
à¸Ļà¸Ĺà¸²à¸ĩ à¹Ģà¸Ķ
à¸Ķà¸ģà¸²à¸£ à¸ª
Ġpl at
à¸Ļà¹Ĥà¸Ķ à¸§
Ġback ground
à¸Ļà¸£à¸ĸ à¸ķ
à¸§à¸¢ à¹Ĩ
à¸¢à¸¡ à¸«
% );
à¹ĥà¸Ħà¸£ à¸Ńà¸¢
Ġà¹Ĥà¸Ķà¸¢ à¸Ľ
à¸ģà¸ģà¸²à¸£ à¸°
à¸ģà¹Ħ à¸ļà¸Ħ
Ġn ext
à¸ľà¸¥ à¸Ħ
à¹ģ à¸ļà¸¡
à¸ķà¸Ńà¸Ļ à¹Ħà¸«à¸Ļ
à¸Ħ à¸¢
à¸ŀà¸¥ à¸Ńà¸Ķ
à¸¢à¸ļ à¹Ħà¸Ľ
à¸ģà¹Ģà¸Ĥ à¸²à¸¡à¸²à¸ģ
à¸²à¸ª à¸²à¸ªà¸¡
Ġà¹Ģà¸ļ à¸¥
à¸§ à¸Ńà¸°
à¸¢à¸Ļ à¹ģà¸ķ
à¸ŀà¸¥à¸²à¸Ķ à¸Ĺ
à¸Ńà¸ª à¸²à¸£à¸ģ
s a
à¸ ĥ
à¸§à¸Ļ à¸£à¸²à¸Ĭà¸ģà¸²à¸£
à¸²à¸¢ à¹Ħà¸§
Ġà¹ĥà¸Ļ à¸Ħà¸£
à¸²à¸Ńà¸²à¸§ à¸²à¸ªà¸§
à¸Īà¸° à¹Ģà¸Īà¸Ń
à¸į à¹Ģà¸Ĭ
à¸¡à¸« à¸²
Ġà¸£à¸ĸ à¸Ĺ
à¸Ļà¸¡à¸² à¹Ģà¸ģ
à¸²à¸Ľ à¸¥à¸²
Ġà¸łà¸²à¸Ħ à¹ĥà¸ķ
à¸«à¸£à¸Ńà¸ģ à¸Ļà¸°
à¸ģà¸ģ à¸Ńà¸¥
à¸ĩà¹Ħà¸ĩ à¸¡
à¸¥à¸¥ à¸¥à¸¥
Ġà¹Ħà¸Ľ à¹Ģà¸Ľ
sen al
à¸ªà¸²à¸¡à¸²à¸£à¸ĸ à¹Ģà¸Ķ
s ans
à¸ŀà¸¥ à¹Ģà¸¡
à¸ĩà¸Ńà¸Ńà¸ģ à¹Ģà¸Ľ
à¸ĩ à¹Ģà¸ĺà¸Ń
à¸Ĭà¸²à¸¢ à¸Ķ
à¸Īà¸° à¸«à¸Ļ
à¸Ńà¹Ģà¸£ à¸Ĭ
à¹ģà¸ªà¸Ķ à¸ĩà¸ľà¸¥
à¸ĩ à¸Ľà¸£à¸°à¸Ī
à¸Īà¸° à¹Ģà¸Ļ
à¸«à¸¡à¸Ķ à¸Ħ
à¸Īà¸ģà¸£à¸£à¸¡ à¸ķ
j o
à¸ļà¸Ļ à¸²à¸ĩà¹Ģà¸Ńà¸ģ
à¸²à¸ĩ à¹Ģà¸Ī
Ġà¸Ī à¸Ļà¹Ģà¸¡
à¸ģ à¸²à¸įà¸Īà¸Ļ
à¸¥à¸ĩ à¹ĥà¸Ļ
cl ub
à¸Ħà¸Ļ à¸ģà¸¥
st ory
Ġà¸ľà¸¡ à¸¥à¸Ńà¸ĩ
à¸ĩà¸Ľ à¸²à¸ģ
à¸²à¸Ħ à¸Ļà¸Ķ
à¸Ńà¸Ļ à¹Ģà¸¥à¸¢à¸§
à¸²à¸Ī à¸Ńà¸¡
à¸ļà¸ģà¸²à¸£ à¹ģà¸Ĥ
Ġtrans form
à¸Ĥ à¸Ļà¸²à¸Ļ
Ġà¸Ĥ à¸Ńà¸ķ
à¸ķà¸Ńà¸ļ à¹ģà¸Ĺà¸Ļ
ad y
à¸¢ à¸²à¸ģà¸¥
à¸įà¸« à¸²à¹Ħà¸Ķ
à¹Ģà¸¥à¸¢ à¸ŀ
à¹ģ à¸ļà¸¥
ĠðŁĳ ī
à¸Ľ à¹Ģà¸Ĺ
à¸ªà¸ł à¸²à¸ľ
à¸Ĺà¸²à¸ĩ à¸ļà¸£
à¸¡ à¸§à¸¢
à¸Ļà¸Īà¸° à¹Ģà¸Ĥ
à¸Ńà¸ĩà¹Ħà¸Ľ à¹Ģà¸£
à¸Ļà¸²à¸ĩ à¹Ģà¸Ī
à¸Ń à¸Ľà¸£à¸°à¸Ĭà¸²à¸Ĭà¸Ļ
Ġpremi um
Ġà¹ģà¸¥à¸° à¸Ĥà¸Ń
à¸ŀ à¸Ńà¸¢
Ġà¸į à¸²à¸į
à¸Ļà¹Ħà¸Ľ à¸«
in th
à¸ªà¸²à¸¢ à¸ķà¸²
à¸² à¹Ģà¸¥à¸¢à¸Ħà¸£
à¸¢ à¹Ĥà¸Ļ
à¸§à¸Ļ à¸«
à¸ł à¸Ĭ
g oogl
Ġn one
à¸²à¹Ĥà¸Ĺ à¸©
à¸Ĭà¸Ńà¸ļ à¸ķ
à¹Ģà¸¥à¸¢ à¸«à¸£à¸Ń
à¸Ļà¸¥ à¸Ķ
à¸ļ à¸®
Ġpp tv
à¸ĩà¹ĥà¸Ī à¸Ķ
Ġà¸ŀà¸Ń à¸Īà¸°
à¹Ĥà¸Ī à¸Ĺà¸ģ
à¹Ĥ à¸ģà¸Ķ
q ue
Ġà¹ĥà¸Ļ à¸Ħ
à¸²à¸ª à¸²à¸ĺà¸²à¸£à¸ĵ
Ġà¹Ģà¸Ł à¸ª
à¸Ńà¸Ńà¸°à¹Ħà¸£ à¸Ħà¸°
à¸Īà¸²à¸ģ à¸ļà¸£
à¸Īà¸°à¹Ħà¸Ľ à¸ķ
à¸¡à¸²à¸ģà¹Ĩ à¸Ħ
à¹Ģà¸Ńà¸²à¸¡ à¸²à¸Ĺ
Ġâ Ĺ
l ate
Ġf amily
Ġà¹Ģà¸¥à¸¢ à¸Ī
à¸²à¸ĩ à¸£à¸°à¸«à¸§
à¹Ģà¸Ħà¸¢ à¸Ńà¸¢
à¸¢à¸Ļ à¸Ĥà¸Ńà¸ĩ
Ġm ess
Ġ à¸ĩà¸§
à¸Ńà¸Ļ à¹ģà¸ļà¸ļ
à¹ģà¸¥ à¸Ļ
à¸ģ à¸Ńà¸ļà¸£à¸¡
à¸ģà¸£à¸° à¹ģà¸Ĺ
Ġà¸ľà¸¥ à¹Ħà¸¡
à¸Ħà¸§à¸²à¸¡ à¹Ģà¸Ħà¸£
17 0
à¸Ĳ à¸¨à¸²à¸ªà¸ķà¸£
Ġq ue
le ase
à¸Ńà¸ĩà¹Ħà¸Ľ à¸¢
à¸Ľà¸£à¸°à¸ģà¸²à¸¨ à¸§
à¸²à¸ĩ à¹ģà¸ļà¸ļ
à¸Ļ à¹Ģà¹Ģà¸ķ
à¸£à¸²à¸¢à¸ĩà¸²à¸Ļ à¸Ĥ
à¸Ńà¸ĩà¸ģà¸²à¸£ à¸Ķ
Ġà¸ģ à¸¢à¸¨
à¸Ńà¸Ńà¸ģà¸¡ à¸²à¸Ńà¸¢
topic stock
à¸ļà¸¡à¸²à¸Ħ à¸ļà¸ģ
à¸¡ à¸Ńà¸Ļ
d s
à¸¥ à¸ĩà¸Ħ
Ġà¸£à¸²à¸Ħ à¸²à¹Ģà¸Ĺ
Ġà¸£ à¸²à¸§
Ġà¸Īà¸° à¹Ģà¸Ľà¸¥
à¸ķà¸ķ à¸²
Ġà¸ª à¸ķà¸£
à¹Ħà¸«à¸§ à¸Īà¸£
à¸ªà¹Ģà¸Ľ à¸Ļ
à¸¡à¸Ĭ à¸Ļà¸Ĺ
Ġà¸£ à¸Ńà¸ķ
à¸£à¸Ńà¸¢ à¸¢
Ġà¸Ļà¸²à¸¢ à¹ģà¸ŀà¸Ĺà¸¢
à¸²à¸Ħà¸§à¸²à¸¡ à¸Īà¸£
à¹Ħà¸¥ à¸Ķ
à¹Ĥà¸Ńà¹Ģà¸Ħ à¸ģ
à¸²à¸Ľà¸£à¸°à¸ģ à¸²à¸¨
à¸§ à¸ŀà¸§à¸ģ
à¸²à¸¢ à¸ļà¸£
à¸¡ à¸ģà¸£
à¸ģ à¸Ńà¸¢à¸²à¸ģ
à¸Ńà¸Ń à¹Ĥà¸ķ
à¸²à¹Ħ à¸ĩà¸ķ
Ġà¸¥ à¸Ńà¸ĩà¸Ĺ
à¸ļà¸ģà¸²à¸£ à¸ģ
à¸ĵ à¸ļ
Ġà¸ģà¸²à¸£ à¸Īà¸£à¸²à¸Īà¸£
à¸Ī à¸¥
Ġ9 8
Ġà¸Ī à¸Ļà¸Ļ
à¸Ńà¸ģ à¹Ħà¸ģ
à¹Ģà¸Ĥ à¸²à¸«
à¸ªà¸²à¸¡à¸²à¸£à¸ĸ à¸ģ
à¸²à¹Ĥ à¸Ĩà¸©à¸ĵ
à¸Ńà¸ĩà¸ķ à¸¥à¸Ńà¸Ķ
à¹Ģà¸īà¸¢ à¹Ģà¸¥à¸¢
à¸Ń à¹Ģà¸Ł
Ġaf ter
Ġà¹Ģà¸ŀà¸£à¸²à¸° à¹Ħà¸Ķ
Ġk m
à¸¢ à¹Ģà¸Ľà¸£
à¸Ĭà¸²à¸¢ à¸ķ
à¸Ļà¸ģà¸²à¸£ à¸¢
à¸Ī à¸²à¸£
âľ Ķï¸ı
à¸§à¹Ģà¸Ńà¸ĩ à¸Ļ
à¸«à¸¢ à¸Ńà¸Ķ
à¸ĩ à¸ľà¸¡à¹Ħà¸¡
à¸Ĺà¸²à¸ĩ à¸ľ
Ġm om
à¸²à¸¢à¸Ĺ à¸«à¸²à¸£
à¸ģà¹ĥà¸Ī à¸¡à¸²à¸ģ
à¸Ķà¸ģ à¸ıà¸«à¸¡à¸²à¸¢
u tt
à¸Ļ à¸Ľà¸£à¸°à¹Ģà¸Ĺà¸¨à¸Ĺ
à¸Ŀà¸Ļà¸ķ à¸ģ
à¸Ļà¸Ĺ à¸Ļà¸²
à¸Īà¸° à¸ĸà¸²à¸¡
à¸Ļ à¸£à¸²à¸¢à¹Ģà¸Ķ
à¸¨ à¸Ļà¸²
Ġ> <
à¹Ĥà¸Ħ à¸Īà¸£
Ġs wit
à¸Ĳ à¸ķ
Ġ à¸Ńà¸°à¸Ħà¸£
à¸ĭ à¸²à¸£
à¸¥à¸Ľ à¸²à¸ģà¸£
à¸ªà¸Ńà¸ļ à¸ķ
à¸£à¸¡ à¸§
à¸ľà¸¡ à¸Ńà¸²à¸¢
à¸²à¸«à¸£ à¸Ń
Ġà¹Ĥà¸«à¸¥ à¸Ķà¹Ģà¸ŀ
à¸Ľ à¹Ģà¸ŀ
à¸²à¸²à¸²à¸² à¸²à¸²
à¸Ĭà¸²à¸¢ à¸Ń
à¹Ĥà¸¡ à¹Ģà¸Ķà¸¥
p ool
à¸§à¸¢ à¹Ģà¸ŀà¸£à¸²à¸°
à¸Ļà¸Ĺà¸Ļ à¸Ļà¸Ĺ
à¸Ļà¹ģà¸¥à¸° à¸ª
à¸Ļà¹Ģà¸£ à¸²à¸¡
à¸Ļà¸ģà¸²à¸£ à¹ģà¸ģ
f ir
Ġà¹Ĥ à¸Īà¸£
à¸Ń à¹ĥà¸ģà¸¥
à¸¢à¸Ļ à¹Ģà¸Ķ
à¸§à¸ķ à¸¥à¸Ńà¸Ķ
à¸²à¹Ģà¸¡ à¸Ļ
à¸° à¸ģà¸¥
Ġà¸Ĥ à¸Ńà¹Ģà¸£
Ġà¸Ħ à¸ĩà¸Īà¸°
à¹ģà¸¢à¸ģ à¸ķ
Ġà¸Ńà¸¢à¸²à¸ģ à¸ķ
d own
à¸Ľà¸£à¸°à¸Ĭà¸²à¸Ĭ à¸Ļà¸Ī
à¸²à¸Ļ à¸ļà¸Ńà¸ģà¸§
à¸Ńà¸Ļ à¹Ĥà¸¢à¸Ļ
Ġà¹ĥà¸Ļ à¸ģà¸²à¸£à¸Ĺ
Ġà¸Ńà¸¢à¸²à¸ģ à¸ĭ
Ġà¸Ħà¸Ļ à¸Ī
Ġà¹ģ à¸Łà¸£
à¸Ĺ à¸Ļà¸²à¸¢
Ġà¸Ĥà¸Ńà¸ĩ à¸ª
à¸² à¹Ĥà¸£à¸ĩ
Ġs ir
à¸¢à¸ļ à¸§
7 50
à¸¡ à¹Ħà¸Ł
ðŁĴļ ðŁĴļ
18 0
à¸Ķà¸Ĭ à¸¥à¸ļ
à¸ģ à¸Ľà¸ı
à¸Īà¸²à¸ģ à¸¡
à¸Ńà¸ĩà¸ķ à¸¥à¸²à¸Ķ
à¹Ģà¸Ńà¸ĩ à¸§
à¸ŀà¸£à¸° à¸Ļà¸Ħà¸£
Ġà¸Ĥ à¸Ńà¸ŀ
r ight
à¸§à¸Ļà¸¥à¸Ķ à¸Ħ
à¸ļà¸Ńà¸ģ à¹ģà¸¡
à¸Ī à¸¢
Ġà¸ľ à¸ļà¸Ĭ
à¸Ĺ à¸°à¹Ģà¸¥à¸²à¸°
Ġn at
à¸²à¸ļ à¸Ńà¸Ķ
à¸ģ à¹Ģà¸ĭà¸¥
à¸ķà¸£ à¸ªà¸§
à¸Ńà¸Ļà¹Ĩ à¸ŀ
Ġaut o
à¸ģà¸©à¸²à¸Ħà¸§à¸²à¸¡à¸ªà¸ĩà¸ļ à¹ģà¸«
à¸Ńà¸ĩ à¹ģà¸«
à¸Ĭà¸Ńà¸ļ à¹Ģà¸£
à¸įà¸« à¸²à¸Ĭ
à¸įà¸« à¸²à¸Ĥ
à¸ģ à¹ģà¸ĸà¸§
Ġ à¹Ħà¸ĭ
à¸« à¸²à¸Ĺà¸²à¸ĩ
à¸Ńà¸Ļ à¸²à¸Ļ
à¸Ĺà¸²à¸ĩ à¸ĺ
Ġà¹Ģà¸£ à¸Ń
à¸Ńà¸ķ à¸ģà¸¥à¸ĩ
Ġs ign
Ġco ach
10 1
à¸Ħà¸£ à¸ģ
à¸ĩà¹ģ à¸ĭ
à¸¥ à¸Ħà¸£
à¸Ĥà¸Ńà¸ĩ à¹Ģà¸£à¸²à¸ģ
à¸Ļà¹ģ à¸ļà¸£à¸Ļà¸Ķ
Ġà¸Ħà¸§à¸²à¸¡ à¸¡
à¸Ĭ à¸Ķà¸²
à¸Ķ à¸Ńà¸²à¸¢
à¸ĩà¸ķ à¸²à¸¢
Ġà¸¡ à¸²à¸«
n t
à¸§à¸Ļ à¹ģà¸£à¸ģ
Ġà¹ģ à¸Ńà¸¥
à¸ļ à¸Īà¸°
Ġà¹Ģà¸ŀà¸£à¸²à¸° à¸«à¸Ļ
Ġà¸Ĥà¸Ń à¸Ĭ
à¸Ńà¸£ à¸£à¸ĸ
Ġth an
Ġà¸ĺà¸Ļà¸²à¸Ħà¸²à¸£ à¸ģà¸£
º ðŁĩ¸
Ġà¹ĥà¸Ħà¸£ à¸ŀà¸Ńà¸Īà¸°à¸¡
à¸ĩ à¸ŀà¸£à¸£à¸Ħ
à¸Ħà¸£ à¹Ģà¸¥
à¸ķà¸²à¸¢ à¹ģà¸¥
Ġà¹Ĥà¸Ķà¸¢ à¸Ľà¸ģà¸ķ
à¹Ģà¸ĵ à¸£
à¸ĩà¸Ļ à¸²à¸¢
à¸ļà¸Ħà¸§à¸²à¸¡ à¸ķ
à¸Ń à¸«à¸²à¸£
à¸ģà¸²à¸£ à¸ªà¸¡
à¸ģà¸©à¸ĵà¸° à¹Ģà¸Ľ
à¸į à¸ľ
à¸Ńà¸ĩ à¹Ĥà¸Ķà¸¢
à¹Ģà¸ĺ à¸Ńà¸Ķ
à¸Ļà¹ģà¸Ł à¸Ļà¸Ħà¸¥
à¸ļà¸²à¸ĩ à¸Ĥ
à¸²à¸¢ à¸ľà¸¥
à¸§à¸ĩ à¸¤à¸Ķ
à¸²à¸«à¸£ à¸ĵ
Ġer ror
à¸Ļà¸ķà¸²à¸¡ à¸Ĺ
à¸Īà¸²à¸ģ à¹Ħà¸Ľ
à¹ģà¸® à¸¡
à¸¢à¸§ à¹Ĩ
à¸ģà¸²à¸£ à¸£à¸²à¸¢à¹Ģà¸Ķ
à¸Ħ à¹Ħà¸¡
à¸Ħà¸Ńà¸¡ à¸¡
à¸Ħà¸Ļ à¸ļ
Ġà¸Ħà¸§à¸²à¸¡ à¸ľ
Ġl ow
Ġz en
Ġm o
Ġà¸Ńà¸¢à¸²à¸ģ à¹Ģà¸Ľà¸¥
à¸²à¸§ à¹Ģà¸¡
à¸§à¹ģà¸Ĺ à¸Ļà¸Ĥà¸Ńà¸ĩ
ud e
à¸²à¸ĩà¸Ľà¸£à¸°à¹Ģà¸Ĺà¸¨ à¸Ĺ
à¸ªà¸Ńà¸ļà¸ĸà¸²à¸¡ à¹Ħà¸Ķ
à¹Ģ à¹Ģà¸ĸ
id er
Ġà¹Ģà¸£ à¸²à¸ĸà¸²à¸¡
Ġà¸ŀ à¸Ńà¸ľ
g g
f ood
à¸Ķà¸ª à¸²à¸¢
Ġà¹Ģà¸ Ŀ
à¸ĩà¹Ģà¸ģ à¸²à¸°
Ġn a
ðŁĳĹ ðŁĳļ
Ġc d
à¸ģà¸£à¸° à¹Ģà¸Ķ
Ġa pr
à¸ļà¸ª à¸£
à¸Ńà¹Ħà¸Ľ à¸ķ
à¸ĩà¸¡ à¸Ńà¸ĩà¸«
à¸£à¸ĸ à¸ļà¸£à¸£à¸Ĺ
Ġf ut
à¸ļ à¸ķà¸£
à¸Ħà¸Ļ à¹ĥà¸Ļà¸Ħà¸£à¸Ńà¸ļà¸Ħà¸£
à¸Ńà¸ģà¸²à¸£ à¸ª
à¸ĩà¹ĥà¸Ļ à¸£
ï¸ıâ ĸ
Ġro ad
à¸²à¸¢ à¹Ģà¸«à¸¡
Ġd a
à¹ĥà¸Ļà¸ģà¸²à¸£ à¹ģà¸ģ
à¸¥à¸° à¸Ī
à¸Īà¸° à¸Ĥà¸²à¸¢
à¸Ľà¸²à¸ģ à¹Ģà¸ª
Â °
Ġà¹Ģà¸Ĥ à¸²à¹Ģà¸£
à¸Ī à¸Ńà¸ĩà¸ķ
à¹Ĥà¸Ķ à¸Ļà¸Ļ
Ġch annel
à¸ĩ à¸¯
à¸²à¸¢ à¹Ģà¸£à¸²à¸ģ
à¸ĩà¹Ĩ à¸Ħà¸£
Ġà¸Īà¸²à¸ģ à¸Ń
Ġà¸Ĥà¸Ńà¸ĩ à¸Ń
Ġk h
Ġfu ji
b iz
à¸§à¸¢ à¹Ģà¹Ģà¸Ļà¸°à¸Ļ
à¹Ĥà¸¡ à¹Ĥ
ac om
Ġà¸ķ à¸Ļà¸Ī
à¸Ńà¸ĩà¸ģà¸²à¸£ à¸¢
à¸ķà¸£à¸§à¸Ī à¸Ħà¸Ļà¹Ģà¸Ĥ
à¸¢à¸²à¸ģ à¸Īà¸Ļ
Ġà¸¡à¸²à¸ģ à¸¡à¸²à¸¢
à¸ŀ à¹Ģà¸ªà¸£
à¸ļà¸ģà¸²à¸£ à¹Ģà¸ĩ
à¸§à¹Ģà¸£ à¸²à¸ķ
à¸ªà¸§à¸¢ à¸Ķ
à¸²à¸¡ à¸²à¹Ģà¸ŀ
Ġbl u
_ ^
à¹ģà¸¥à¸° à¹Ģà¸Ķ
à¸Ĭà¸Ńà¸ļ à¸Ńà¸¢
à¸²à¹Ħà¸Ľ à¹Ģà¸Ĭ
Ġà¸ļ à¸²à¸Ķà¹Ģà¸Ī
à¸²à¸Ĥ à¸²à¸Ĺ
à¸Ķà¸¡ à¸²à¸Ĺ
à¸²à¸Ļà¸Ĥ à¸§
à¹Ĥà¸Ľà¸£ à¹Ĥà¸¡
à¸§à¸£ à¸Ńà¸¢
à¸«à¸¡ à¸Ńà¸Ļ
à¸ª à¹Ģà¸Ľà¸Ńà¸£
à¹Ħà¸«à¸Ļ à¸ķ
à¹Ĥà¸Ńà¸ģà¸²à¸ª à¸ķ
Ġw est
à¸ļ à¹Ħà¸Ń
p or
ðŁĻ ĭ
Ġà¹ĥà¸Ļ à¸ģà¸¥
à¸Ń à¸Īà¸°à¸Ĺ
à¸Ħà¸§à¸²à¸¡ à¹Ģà¸«à¸¡à¸²à¸°à¸ªà¸¡
à¸ģà¸£à¸°à¸Ĺà¸£à¸§à¸ĩ à¸ģà¸²à¸£à¸Ħà¸¥
à¸Ļà¹ģà¸¥à¸° à¸Ļ
à¸¥ à¹Ģà¸ĩ
à¸Ĭà¸²à¸¢ à¸¡
à¹Ħà¸Ľ à¹ĥà¸Ļ
à¸ļà¸£ à¸§à¸¡
Ġà¸Īà¸²à¸ģ à¸ģà¸£à¸°à¸Ĺ
f ore
Ġà¸Īà¸²à¸ģà¸ģà¸²à¸£ à¸ķà¸£à¸§à¸Īà¸ªà¸Ńà¸ļ
Ġ7 3
à¸«à¸¡à¸²à¸¢ à¹Ģà¸£
ĠðŁİ ī
à¸²à¸ĩà¸²à¸Ļ à¹Ģà¸ŀ
à¸¢à¸§à¸Ĭà¸²à¸į à¸Ķ
à¸Ļà¹ģà¸ļà¸ļ à¹Ģà¸Ķ
à¸ĭ à¸²à¸Ļ
à¸ĩà¸²à¸Ļ à¸Ĥà¸Ńà¸ĩ
Ġt el
à¸Ńà¸« à¸²à¹Ĥà¸Ķà¸¢
à¹Ħ à¸ŀà¸ļ
à¸¡ à¹ģà¸Ī
à¸§à¸¢ à¸Īà¸£
oun g
à¹ĥà¸Ķ à¸ļ
à¸²à¹Ħà¸¡ à¸ŀ
à¸ªà¸²à¸¢ à¸Ķ
à¸²à¸Ľà¸£à¸° à¹Ģà¸¡
oh n
à¸£à¸²à¸Ĭ à¸§
Ġt f
à¸ªà¸²à¸¡ à¸ª
à¸²à¹Ħà¸¡ à¸Ļ
à¸ĩà¸ª à¸ĸà¸²à¸Ļà¸Ĺ
à¸§à¸Ķ à¸Ļ
à¸Ńà¸Ħ à¸Ńà¸¡
à¸Ľ à¸ľà¸¥
à¹Ģà¸Ńà¸ª à¹Ģà¸Ń
Ġc e
à¸²à¸¥ à¸Ķ
m et
à¸ģ à¸«à¸§
Ġso ft
à¸ªà¸Ļà¹ĥà¸Ī à¹Ģà¸£
Ġà¸Ń à¸Ńà¸ªà¹Ģà¸ķà¸£à¹Ģà¸¥
Ġv oucher
à¸Ńà¸ĩ à¸Ńà¸¥
à¸ģà¸£à¸¡ à¸Ľ
à¸²à¸Ńà¸²à¸Ī à¸²à¸£à¸¢
à¹Ĥà¸¡ à¹Ģà¸Ķ
ro om
à¸ķà¸Ńà¸ļ à¸Ĺ
à¸ģ à¸«à¸¥à¸²à¸¢à¸Ħà¸Ļ
Ġà¹ģ à¸ģà¸¥
im age
à¸Ĭ à¸Ħ
à¸²à¸ĩ à¸Ĥà¸§
à¸²à¸¡à¸²à¸ģ à¸Ĺ
à¸ĩ à¹Ĥà¸Ķà¸Ļ
à¹Ģà¸Ĥ à¸²à¸Ĥ
Ġà¸« à¸ĩ
Ġc afe
à¸Ħà¸Ļ à¹ĥà¸«
à¸įà¸«à¸² à¹ģà¸ļà¸ļà¸Ļ
Ġ <<
Ġhe art
à¸ĭ à¸°à¸Ĺ
Ġà¹Ĥà¸Ķà¸¢ à¸£à¸§à¸¡
à¸²à¹ĥà¸Ļ à¸ŀ
à¹Ħà¸Ľ à¹Ģà¸ª
à¸²à¹Ģà¸£à¸² à¹Ģà¸¥
Ġ7 6
s an
Ġn ar
Ġg reen
à¸° à¹Ĥà¸ģà¸Ļ
à¸Ķ à¹Ħ
à¸²à¹Ħà¸¡ à¸£
Ġà¸ķà¸£ à¸ĩ
Ġà¸Ĭà¸²à¸§ à¹Ģà¸Ļ
Ġà¸ªà¸²à¸ĺ à¸²à¸£à¸ĵ
à¸ļà¸Ń à¸²à¸£à¸¡à¸ĵ
à¹Ģà¸Ĥ à¸Ļ
à¸§à¹Ģà¸Ńà¸ĩ à¸ª
à¸²à¸ģ à¸°
ðŁĳ ĩ
Ġviv o
à¹ĥà¸Ļ à¸ªà¸²à¸¢à¸ķ
à¸ĩà¹ģ à¸Ńà¸ļ
Ġà¸ģà¸²à¸£ à¸¢
à¸¡à¸²à¸Ĥ à¸Ńà¸ĩ
à¸¢à¸ĩ à¸Īà¸²à¸ģ
à¸Ļà¸ª à¸§
bo ttom
à¸¡à¸¡ à¸Ĭà¹Ĥà¸¢
à¸Ļà¸²à¸ĩ à¸ªà¸²à¸§
à¸ģà¹Ĩ à¸Ļ
Ġfan page
qu are
Ġw ay
à¸Ĭà¸²à¸¢ à¸£
à¸ĩà¹ģ à¸ļ
Ġà¸ķà¸£ à¸ĩà¸Ĥ
à¸ĺà¸¢à¸¡ à¸¨
Ġà¸ŀ à¸¡
à¸²à¸ĩ à¸¥à¸ĩ
à¸²à¸ļ à¸Ńà¸¥
Ġà¸¥ à¸¡
à¸²à¸¢ à¸ĩà¸²à¸Ļ
Ġà¸Ļà¸Ńà¸ģ à¹Ģà¸«à¸Ļ
à¸¢ à¹Ĥà¸Ĺà¸£à¸¨
à¸²à¹Ģà¸£ à¸²à¸Ńà¸¢à¸²à¸ģ
Ġà¹Ĥà¸Ķà¸¢ à¸Ĭ
à¸² à¹Ģà¸®
à¸Ńà¸¡ à¸²à¸§
Ġm ode
ðŁ ĸ
à¸§à¸¢ à¹Ģà¸ģ
à¸Ĳà¸ļà¸²à¸¥ à¹Ħà¸Ķ
à¸ĩ à¸Ŀà¸£
à¸Ńà¸Ļ à¸Ħà¸°
Ġ à¸Ľà¸£à¸°à¸Ĭà¸²à¸Ĭà¸Ļ
à¸Ļà¸ģà¸²à¸£ à¸Ļ
à¸Ħà¸§à¸²à¸¡ à¸ŀ
Ġà¸£à¸²à¸Ħ à¸²à¸ķ
Ġà¸£à¸§à¸¡ à¹Ģà¸Ľ
ol ute
à¸²à¸ľà¸¥ à¸ĩà¸²à¸Ļà¹Ħà¸Ķ
à¹Ĥà¸¡ à¹Ģà¸¡
Ġà¸¡ à¸£
à¸ģ à¹ģà¸ļ
à¸Ĺà¸²à¸ĩ à¸ŀ
à¸ĩà¸¡à¸²à¸ģ à¸Ĥ
à¸Ļà¸Ńà¸²à¸Ī à¸²à¸£à¸¢
à¸Ńà¸ĩ à¸Ļà¸°à¸Ħà¸°
à¸Ķ à¹Ģà¸§à¸¥à¸²
Ġà¸£à¸²à¸¢ à¹Ģà¸Ķ
à¸²à¸¡à¸² à¹ĥà¸ª
à¸¡ à¸Ļà¸°à¸Ħà¸°
à¸Ļ à¹Ģà¸Ńà¸²
à¸ĵ à¸ĸ
ia omi
Ġà¹Ĥà¸£ à¸ĩà¸ĩà¸²à¸Ļ
à¸Ķ à¹ģà¸Ĺà¸Ļ
t or
à¸Ķ à¸ķà¸£à¸§à¸Ī
Ġy am
à¸ļà¸¡ à¸²à¸ŀ
à¸ķ à¸łà¸²à¸ŀ
Ġc ash
à¸¡à¸² à¹Ģà¸¢à¸Ńà¸°
à¸§ à¸łà¸²à¸ŀ
Ġà¸ŀ à¸ĩà¸©
à¸ĩà¸Īà¸²à¸ģ à¸ľ
Ġà¸Ļ à¸£
à¸ļ à¸¥à¸°à¸Ħà¸£
à¸Ļà¸° à¹Ħà¸¡
à¸ĵ à¹Ģà¸ŀ
à¸Ĥà¸Ńà¸ĩ à¸Ĺà¸£
à¹ģà¸ªà¸Ķ à¸ĩà¸Ĺ
à¸£à¸Ńà¸ļ à¹ģà¸£à¸ģ
à¸²à¹ģà¸Łà¸Ļ à¹Ģà¸ģ
Ġ16 00
à¸²à¸ĩà¸²à¸Ļ à¸Ī
à¹ģà¸Ńà¸ļ à¸¡
à¸²à¸Ľà¸£à¸° à¸Ľ
c redit
à¸Ń à¹Ģà¸¢à¸Ńà¸°
à¸¡ à¸Ļà¸¡
Ġre g
Ġà¹Ĥ à¸¢
à¸Ńà¸ĩà¸£ à¸Ńà¸Ķ
à¸²à¸¢ à¹Ĩà¸ģ
à¸ļà¸Ļ à¹Ĥà¸¥à¸ģ
d is
Ġà¹Ĥ à¸ļà¸£
Ġà¸Īà¸²à¸ģ à¸Ħ
Ġo il
Ġ à¸Ńà¸¡à¸£
Ġà¸ķà¸²à¸¡ à¸«à¸¥
à¸Ļà¸ģà¸²à¸£ à¹Ģà¸Ľ
à¹Ħà¸ģà¸¥ à¸Īà¸²à¸ģ
à¸ģà¸Ħà¸Ļ à¹Ħà¸¡
à¸Ī à¸Ķà¸Ī
ol f
à¸Ħà¸Ļ à¸ªà¸§à¸¢
à¸Ńà¸ļ à¸Ĭ
à¸Ńà¸ľà¸¡ à¸¡
à¸¬ à¸²à¸ª
à¸²à¸« à¸Ńà¸ŀ
à¹ĥà¸Ļà¸ģà¸²à¸£ à¸ļà¸£
ĠðŁĶ ´
Ġam er
à¹ĥà¸Ī à¸ļ
à¹ģà¸¥à¸° à¹Ģà¸Ī
à¸²à¸Ĥà¸Ńà¸ĩ à¸§
à¸Ń à¸į
à¸ļà¸Ńà¸ģ à¹Ħà¸§
Ġà¸ģà¸²à¸£ à¸ĭ
à¹ģà¸¥à¸° à¹Ģà¸ģ
ðŁĮ ¸
à¹ģà¸¥à¸° à¹Ģà¸¥
à¸įà¸Ĭ à¸§à¸Ļ
à¸ª à¸Ńà¸ĩà¸ķ
à¸ļ à¹Ģà¸ĭ
Ġh as
à¹Ĥà¸ģ à¹ģà¸¥à¸ķ
à¹Ģà¸ļ à¸ª
à¹Ģà¸Ħ à¸²à¸Ļ
à¸²à¸Ķ à¹ĥà¸«à¸į
Ġà¸Ħ à¸Ńà¸¢
v ide
b an
à¸Ĳà¸ļà¸²à¸¥ à¸ķ
ðŁĺ Ģ
à¸§à¸£ à¸§
à¸Ń à¸ŀà¸¢à¸ŀ
un e
Ġ5555 55555555
ðŁĴĭ ðŁĴĭ
à¸²à¸£à¸§à¸Ī à¸ķ
à¸ģà¸¥ à¸²à¸¡
à¸Ń à¹Ģà¸ģà¸¡
à¹Ģà¸ Į
à¸²à¸Ļà¸Ńà¸²à¸«à¸²à¸£ à¸Ĺ
à¸Ļà¸«à¸Ļ à¸²à¸§
à¸ģ à¸°à¸Ĺ
à¸Ļà¹Ħà¸Ľ à¹Ģà¸Ľ
à¸ķà¸£ à¸Ļà¸²à¸¢à¸«à¸Ļ
à¹Ģà¸ģà¸£ à¸ĩà¸§
Ġspons ored
Ġà¹Ħ à¸ª
à¸Ń à¸łà¸²à¸ŀ
à¸Ĥà¸Ńà¸ĩ à¸Ŀ
à¸Ļà¸§ à¸²
à¸Ńà¸¢à¸²à¸ģ à¸ĸà¸²à¸¡
à¸§à¹Ģà¸Ńà¸ĩ à¸Ń
Ġà¹ģ à¸Ľà¸£
Ġà¸ģà¸²à¸£ à¸ªà¸£
à¸«à¸²à¸¢ à¸Ħ
eng er
à¸¢à¸«à¸²à¸¢ à¸ª
Ġà¹Ĥà¸Ķà¸¢à¹Ģà¸īà¸ŀà¸²à¸° à¸Ńà¸¢
à¸Ń à¸¥à¸°
à¸Ħà¸£ à¸£à¸²à¸Ĭà¸Ĺ
à¸ªà¸ªà¸²à¸§ à¸°
à¸²à¸Ĭ à¸²à¸§à¸ļ
à¸§à¸¡ à¸«
à¸²à¸ª à¸¡à¸²à¸Ĭ
Ġpro ject
à¸£à¸°à¸ļà¸²à¸Ķà¸Ĥà¸Ńà¸ĩ à¹Ģà¸Ĭ
p at
à¸Ł à¸²à¸Ķ
à¸«à¸²à¸£ à¸ŀà¸£à¸£à¸Ħ
à¸ĩà¸Īà¸²à¸ģ à¸ķ
à¸Ħà¸Ħà¸¥ à¸Ń
Ġà¹Ģà¸Ĥ à¸²à¹Ģà¸¥à¸¢
à¸ĩà¸Ħ à¸ĩà¹Ħà¸¡
à¹ĥà¸Ħà¸£ à¹ĥà¸Ĭ
à¸ªà¸²à¸£ à¸§
Ġar senal
à¹ĥ à¸Ŀ
à¸Ķ à¹Ĥà¸Ľà¸£
Ġmac book
à¸ļà¸¡à¸² à¹ĥà¸«
à¸²à¸¢à¸ģ à¹Ģà¸¥
à¸ľà¸ªà¸¡ à¸ľ
Ġà¸Ī à¸Ńà¸£
à¸Ħà¸§à¸£ à¸Īà¸°
à¸ļà¸ķ à¸¥à¸Ńà¸Ķ
id as
à¸Ľà¸£à¸°à¸Ĭà¸²à¸Ĭ à¸Ļà¸ķ
à¸²à¸ģ à¸Ńà¸Ļ
b i
à¸¢à¸Ķ à¹Ħà¸Ķ
Ġg et
à¸Ħà¸Ńà¸Ľ à¹Ģà¸ķà¸Ńà¸£
Ġre m
à¸§à¸Ļ à¹Ģà¸§
à¸¡ à¸²à¸ķà¸Ńà¸ļ
Ġtax i
à¸¢à¸Ļ à¸¡à¸²à¸ģ
à¸Ķ à¸Ńà¸£
à¸ŀ à¹Ģà¸Ľ
à¸Ĭà¸Ńà¸ļ à¹Ģà¸Ħ
Ġà¸£à¸§à¸¡ à¸ģ
à¸´ ...
à¸ģà¸«à¸Ļ à¸²
à¸¢à¸Ļ à¸ģà¸¥
Ġà¹ĥà¸Ļ à¸Ľà¸£à¸°à¹Ģà¸Ĺà¸¨à¹Ħà¸Ĺà¸¢
Ġà¸¡ à¸ģà¸£
à¸ļà¸Ļ à¹Ģà¸ģà¸²à¸°
à¸²à¹Ħà¸Ľ à¹Ģà¸¥à¸¢
à¸Ń à¹Ģà¸¨à¸£à¸©à¸Ĳà¸ģ
à¸Ń à¹Ħà¸Ł
3 70
à¸ĩà¸ª à¸ģ
à¸«à¸¥ à¸ĩà¸£
à¸²à¸Ļ à¸ŀà¸£
Ġà¹ģà¸¥à¸° à¹Ģà¸ĩ
Ġà¸ŀ à¸Ńà¹Ħà¸Ľ
à¸ĩ à¸Ħà¸Ļà¹Ģà¸Ķ
à¸¢à¸Ļ à¹Ģà¸¥
à¸Ł à¸¡
à¸įà¸į à¸²à¹Ĥà¸Ĺ
à¸²à¹ĥà¸Ħà¸£ à¸Ĺ
or a
à¸²à¸ĩ à¸Ħà¸§à¸²à¸¡à¸£
à¸įà¸« à¸²à¸«à¸Ļ
à¸Īà¸°à¹Ħà¸Ľ à¸£
à¸ķà¸£ à¸£
à¹Ģà¸£ à¸²à¸Īà¸°à¸¡
à¸Ĥà¸Ńà¸ĩ à¸ĺà¸Ļà¸²à¸Ħà¸²à¸£
à¹ģà¸Ī à¸ĩà¸§
Ġà¹Ģà¸Ĥ à¸²à¸ŀ
Ġ20 11
à¸§à¸Ļ à¸ĸ
à¸Ń à¸Ńà¸Ķ
à¸²à¸ķ à¸²à¹Ħà¸¡
à¸Ńà¸¡ à¸²à¸Ļ
à¹ģà¸¡à¸Ļ à¸¯
ðŁĺ Ķ
Ġà¸Ĺ à¸£à¸²à¸ļà¸§
à¸«à¸²à¸¢à¹Ħà¸Ľ à¹Ģà¸¥à¸¢
Ġm ult
99 9
à¸« à¸«
Ġk it
l og
ad er
à¸Ľ à¸ľ
Ġà¸Ľà¸£à¸°à¸ĺà¸²à¸Ļ à¹Ģà¸Ī
à¸²à¹Ģà¸£ à¸²à¸Ī
Ġà¸Ńà¸Ńà¸ģ à¹ģà¸ļà¸ļ
à¸ļà¸£ à¸£à¸ĵ
Ġà¹Ģà¸¥à¸¢à¸Ńà¸¢à¸²à¸ģ à¸ĸà¸²à¸¡à¸§
à¸Ļà¸Ĥà¸Ńà¸ĩ à¸§
Ġà¸£à¸ĸ à¸Ī
à¸²à¸ĩ à¹Ģà¸£à¸²à¸ģ
à¸Ĥà¸łà¸²à¸ŀ à¸Ĺ
à¸Ĥà¸Ńà¸ĩ à¹Ģà¸Ĥ
à¹ģà¸¥à¸° à¸ĭ
à¸Ĭà¸²à¸¢ à¹Ħà¸¡
à¸ģà¸Ĥ à¸Ļà¸²à¸Ķ
à¸ĩ à¸Ńà¸Ķ
à¸ļà¸ģà¸²à¸£ à¸ªà¸Ļ
à¸¡ à¹ģà¸«
à¸´ ,
à¹Ģà¸Ī à¸Ļà¸ĭ
à¸Ī à¸Ļà¸Ļ
à¹Ģà¸ī à¸¥à¸¢
à¸²à¹ĥà¸Ļ à¸«
Ġà¹Ģà¸ŀà¸£à¸²à¸° à¸Ľà¸ģà¸ķ
id d
à¸Ńà¸Ń à¸²à¸Ĺ
Ġb ill
à¸ķà¸¥à¸²à¸Ķ à¸«à¸¥
à¸ģà¸ĩà¸²à¸Ļ à¸ª
à¸¡à¸¥à¸° à¸¥à¸²à¸¢
à¸ĩà¸Ĺ à¸«à¸²à¸£
à¸ļà¸ª à¸§
à¸ĵà¸łà¸²à¸ŀ à¸ª
à¹Ģà¸¡ à¸ĺ
à¸Ńà¸Ħà¸§à¸²à¸¡ à¸Ħ
à¸Ļà¸ģà¸²à¸£ à¸Ľ
à¸ĩà¹ģ à¸Ļà¸°à¸Ļ
à¸²à¸ª à¸ª
Ġin box
à¹ĥà¸Ļ à¸ªà¸ĸà¸²à¸Ļà¸ģà¸²à¸£à¸ĵ
à¸²à¸ª à¸°
ĠâĻ ¡
à¸ļà¹Ģà¸£ à¸²à¸Ħ
à¸ļ à¸ľà¸¡à¸ģ
à¸µà¹Ī :
à¸Ľ à¸£à¸¡
à¸Ī à¹ĥà¸«à¸¡
à¸¢à¸ĩ à¹Ħà¸®
à¸Ĥà¸Ń à¸Ħà¸§à¸²à¸¡à¹Ģà¸«
à¸²à¸ĩà¸²à¸Ļ à¸Ń
Ġad v
à¸£à¸°à¸ļ à¸§à¸Ļà¸ģà¸²à¸£
à¸ĩà¸¢ à¸²à¸§
Ġ à¸£à¸°à¸ļà¸²à¸¢
Ġà¸ŀ à¸Ńà¸ŀ
Ġà¹ģ à¸ľà¸¥
Ġà¹ĥà¸Ħà¸£ à¹Ģà¸Ħà¸¢à¹ĥà¸Ĭ
à¸łà¸²à¸¢à¹ĥà¸Ļ à¸«
ut ion
Ġà¹Ģà¸Ĥ à¸²à¸Ķ
à¸«à¸¥à¸²à¸¢à¹Ĩ à¸Ńà¸¢
Ġres ort
à¹ģà¸ļà¸ļ à¹Ħà¸«à¸Ļà¸Ķ
à¸§à¹Ģà¸Ńà¸ĩ à¹Ģà¸¥à¸¢
Ġà¹Ģà¸ŀà¸£à¸²à¸° à¸Ĥ
Ġà¹ģà¸¥à¸° à¸Īà¸°à¸¡
à¸ĩà¸ª à¸Ńà¸ĩà¸Ĥ
ĠðŁĻ ı
à¸²à¸ĩ à¸ķà¸²à¸¡
à¸Īà¸ŀà¸£à¸° à¸Ļà¸²à¸ĩà¹Ģà¸Ī
Ġà¹Ģà¸ŀà¸£à¸²à¸° à¹Ģà¸Ķ
à¸²à¸¢ à¹ģà¸Ķà¸ĩ
55 0
à¸Ńà¸¡ à¸ľ
à¸ĩà¸ģà¸²à¸£ à¸Ī
à¸ŀà¸²à¸ģ à¸¢
à¸Ļà¸§ à¸Ķ
à¸į à¹Ģà¸ŀ
.... .....
à¸²à¹ĥà¸Ħà¸£ à¹Ģà¸Ľ
à¸ĩà¹Ģà¸£ à¸²à¸Ĺ
à¸Ńà¸ĩ à¸Ħà¸¥à¸Ńà¸Ķ
à¹Ģà¸ªà¸¡ à¸Ńà¸§
à¸Ļ à¹Ģà¸®
à¸²à¹Ħà¸Ľ à¹Ģà¸ľà¸¢à¹ģà¸ŀà¸£
à¸ĩà¸ģà¸²à¸£ à¹Ģà¸¥
ob al
à¹ģà¸® à¸°
Ġl et
à¸Ńà¸ĩ à¹ģà¸Ļ
à¸Ńà¸ļ à¹Ģà¸Ķ
à¸Ħà¸£ à¹Ģà¸£
à¸ģà¸²à¸£ à¸Ħà¸§à¸ļà¸Ħ
com e
à¸Ī à¹Ģà¸Ľ
Ġstud io
à¸į à¹Ģà¸Ľ
à¸Ĭ à¸Ļà¸Ļ
à¸²à¸ŀà¸£à¸° à¹Ģà¸Ńà¸ģ
Ġd dr
à¹Ģà¸£ à¸²à¸Ľ
à¸§ à¹Ħà¸«à¸¥
à¹ģà¸¥ à¸Ħ
à¸ĩà¸« à¸²
à¸´ âĢĭ
à¸Ń à¹Ħà¸«à¸§
à¸²à¸ļà¸Ńà¸ģ à¹ĥà¸«
Ġà¸ģà¸£à¸° à¸Ľ
à¸²à¸ģà¸²à¸£ à¸Ń
à¸Ńà¸ĩà¹Ħà¸Ľ à¸ģ
à¸Ļà¸ģà¸²à¸£ à¹Ģà¸ŀ
à¸²à¹Ģà¸£à¸² à¹Ħà¸Ľ
à¸¡ à¸Ľà¸¥
Ġl ook
à¸ģà¸Ĥà¸Ńà¸ĩ à¸Ħ
à¸Ħà¸§à¸£ à¹ĥà¸«
. âĢĿ
à¸Ļà¹ĥà¸Ī à¹ĥà¸«
à¸ģà¸²à¸£ à¸ģà¸¥
à¸ģà¸ĩà¸²à¸Ļ à¸£
à¸²à¸Ŀ à¸Ļ
Ġ5555 5555
Ġà¸ľà¸¡ à¸Ń
à¸Ńà¸ĩà¸ģà¸²à¸£ à¹Ģà¸ĩ
à¹Ģà¸Īà¸Ń à¸Ħà¸Ļ
à¸ļà¸£à¸ĸ à¸Ī
Ġà¹Ħ à¸ŀ
à¸§ à¹Ģà¸ĭ
à¸Ľà¸Ĭ à¸Ľ
à¸´ (
ob e
à¸²à¹ģà¸¥à¸° à¸¡
à¸Ńà¸ĩà¸ģà¸²à¸£ à¹Ģà¸£
Ġà¸Ħà¸§à¸²à¸¡ à¹Ģà¸Ĭ
Ġà¹Ģà¸Ī à¸Ńà¸£
à¸Ķà¸Ļà¸Ħà¸£ à¸£à¸²à¸Ĭà¸ª
à¸§à¸¢ à¹Ģà¸Ħà¸£
à¹Ģà¸Ń à¸²à¸Ń
à¹Ĥà¸Ĺà¸£ à¹ģà¸Ī
à¸²à¸Ļ à¹Ħà¸§
à¸²à¸Ļ à¸ļà¸£
Ġh and
à¸ģà¸Ĥà¸Ńà¸ĩ à¸ķ
à¸Ļà¹Ģà¸ŀ à¸¥
Ġà¸Ĺà¸£ à¸ĩà¸ŀà¸£à¸°
à¹Ĥ à¸Łà¸£
à¸ļà¹ĥà¸Ħà¸£ à¸ģ
................................ ................................
ĠðŁĴ ¯
Ġ7 9
à¹Ģà¸ģ à¸ķ
à¸²à¸ľà¸¥ à¸ĩà¸²à¸Ļ
à¸²à¸¡à¸²à¸ģ à¸Ħ
à¸Ħà¸§à¸²à¸¡à¸ª à¸§à¸¢à¸ĩà¸²à¸¡
h r
à¹ģà¸Ĥ à¸Ļ
à¸ķà¸¥à¸Ńà¸Ķ à¹Ģà¸¥à¸¢
Ġr y
à¸ªà¸Ńà¸ļà¸ĸà¸²à¸¡ à¹Ģà¸ŀ
à¸Ĥà¸²à¸¢ à¸«
Ġunivers ity
à¸¢ à¹ģà¸«à¸¥à¸°
à¸ªà¸§ à¸Ļà¸Ĺ
à¹ĥà¸Ħà¸£ à¸Ń
à¹Ħà¸Ľ à¸Īà¸Ļà¸ĸ
à¸ŀà¸«à¸¥ à¹Ĥà¸¢à¸ĺ
Ġp al
à¸Ķ à¹Ĥà¸ķ
Ġg mm
Ġà¸ģà¸£à¸° à¹Ĥà¸Ľà¸£
Ġd ark
à¸ĩ à¸Ľà¸£à¸°à¸ģà¸²à¸¨
es h
à¸² à¹Ģà¸Ħà¸¥
à¹ģ à¸ģà¸§
à¸²à¸Ĥà¸Ńà¸ĩ à¸«
Ġlen ovo
à¸¢à¸ĩ à¹ģà¸¥
à¸«à¸¥à¸²à¸¢ à¹ģà¸«
à¸ļà¸²à¸ĩ à¸ķ
à¸ģ à¹Ħà¸«à¸¡à¸Ħà¸°
à¸Ĺà¸²à¸ĩ à¸ķ
à¸Ļà¹ģà¸¥à¸° à¸Ĺ
à¸ģà¸£à¸° à¹Ģà¸ŀà¸²à¸°
à¹Ĥà¸Ħà¸£à¸ĩà¸ģà¸²à¸£ à¸Ĺ
à¸® à¸Ńà¸ķ
Ġà¹ĥà¸Ī à¹Ģà¸¢
Ġà¸Ī à¸Ńà¸¡
à¹ģà¸Ĥ à¸§à¸Ļ
à¸ģà¸£ à¸ģ
à¸ĩà¸Īà¸° à¸Ĭ
à¸ģà¸² à¹ĥà¸ķ
Ġà¸«à¸¥ à¸²à¸Ļ
à¸ļà¸ķ à¸Ńà¸Ļ
à¸¢à¸ĩ à¹ģà¸¡
à¸ģà¸¥à¸²à¸ĩ à¸ĸà¸Ļà¸Ļ
à¸Ńà¸Ńà¸ģ à¸¡à¸²à¸§
à¸£à¸°à¸ļà¸²à¸Ķà¸Ĥà¸Ńà¸ĩ à¹Ħà¸§à¸£
5 000
Ġà¸Ń à¸²à¸ļà¸Ļ
à¸²à¸ĩà¸²à¸Ļ à¹ĥà¸«à¸¡
à¹Ģà¸Īà¸Ń à¹Ģà¸¥à¸¢
à¸Ńà¸Ńà¸ģ à¹Ħà¸Ķ
Ġ à¸£à¸°à¸¢à¸Ńà¸ĩ
à¸£à¸ĸ à¹Ģà¸Ĥ
Ġà¸Ļà¸²à¸¢ à¸¨
à¸§à¸¢ à¹ģà¸¡
à¸¥ à¹Ģà¸£
à¸Ńà¸ĩà¸£ à¸Ńà¸ļ
à¸¥ à¸ģà¸£
à¹Ģà¸Ńà¸ĩ à¸Ķ
à¹ĥà¸Ļà¸ģà¸²à¸£ à¸ĭ
Ġà¸Ńà¸¢à¸²à¸ģà¸ªà¸Ńà¸ļà¸ĸà¸²à¸¡ à¸§
à¸¡à¸² à¹Ģà¸Īà¸Ńà¸ģ
à¸Ķà¸ģà¸²à¸£ à¹ĥà¸«
à¸¡à¸£ à¸ª
à¸łà¸²à¸¢à¹ĥà¸Ļ à¸Ľà¸£à¸°à¹Ģà¸Ĺà¸¨
3 60
n ot
à¸Ķ à¹Ħà¸Ľà¸Ĺ
à¸ª à¸Ńà¸ĩà¸Ĺ
à¸Ń à¹Ĥà¸Ńà¸ģà¸²à¸ª
à¸Ī à¹ģà¸¥à¸°à¸ª
Ġà¸Ħà¸§à¸²à¸¡ à¸Ī
à¸ģ à¸Ħà¸§à¸²à¸¡à¹Ģà¸«
à¸¨ à¸ģà¸£
à¸Ńà¸Ľ à¹ĥà¸Ĭ
Ġà¹Ģà¸ģ à¸¢
à¸Ħà¸£ à¸ļà¸ģ
Ġà¸Ĭà¸Ńà¸ļ à¸¡à¸²à¸ģ
à¸§ à¹Ĥà¸ķ
à¸§à¸Ļ à¸ł
Ġà¸Ń à¸§
Ġ7 4
à¹ĥà¸Ļà¸Ĺ à¸§
à¹Ģ à¹Ģà¸ª
Ġà¹Ģ à¹Ģ
Ġà¹Ģà¸ª à¸¡
Ġà¹Ĥà¸Ķà¸¢ à¹Ģà¸¡
à¸§à¸Ļ à¸Ħà¸Ļà¸Ĺ
à¹Ģà¸Ń à¸§
à¸Ľà¸£à¸°à¸ģà¸Ńà¸ļ à¸ģà¸²à¸£à¸Ĺ
Ġà¸Ń à¸²à¸§
à¸ģà¸£ à¸ķ
à¸ŀà¸£à¸° à¸¡à¸«
à¹ģà¸ªà¸Ķà¸ĩ à¸Ħà¸§à¸²à¸¡à¸£
à¸¡à¸²à¸Ĥ à¸²à¸¢
à¸ļ à¹Ĥà¸¥
à¸²à¸£ à¸ĩà¸Ĭ
Ġ8 8
Ġpr in
à¸ĵ à¹ĥà¸«
à¸ģ à¸Īà¸°à¹Ħà¸¡
à¸¡à¸£ à¸Ķà¸ģ
à¹Ħà¸Ľà¹Ħà¸«à¸Ļ à¸¡à¸²
à¸Ļà¹ĥà¸Ī à¹ĥà¸Ļà¸ķ
à¹Ĥà¸Ķà¸¢ à¸£à¸Ńà¸ļ
à¹ĥà¸Ī à¸¡
à¸²à¸£à¸ĸ à¸¢à¸Ļà¸ķ
à¸ĩà¸²à¸Ļ à¸Ľà¸£à¸°à¸Ī
à¸Ĥ à¹ĥà¸«
Ġ4 000
à¸§ à¹Ħà¸Ľà¸Ķ
Ġc ase
à¸£à¸°à¸ļà¸Ńà¸ļ à¸Ľà¸£à¸°à¸Ĭà¸²à¸ĺ
à¸Ńà¸ĩ à¹ģà¸Ńà¸£
Ġs at
à¸Ńà¸ĩà¸ª à¸§
à¸Ļà¸ª à¸ĩà¸ģà¸£à¸²à¸Ļà¸ķ
Ġà¸ĺ à¸Ńà¸ª
p hone
à¹Ģà¸ªà¸Ļà¸Ń à¸Ĭ
à¸§à¸¡ à¸Ĥ
Ġà¸ľà¸¡ à¸Ńà¸¢à¸²à¸ģà¸Īà¸°
à¸²à¸Ļ à¸²à¸Ĭà¸²à¸ķ
à¸£à¸²à¸¢ à¸«à¸Ļ
à¸Ļà¸Ĺà¸²à¸ĩ à¸Ĥ
à¹Ģà¸Ńà¸ª à¹Ħà¸Ń
à¸Ńà¸ģ à¹Ģà¸Ķ
Ġf un
Ġp et
à¹Ģà¸Ī à¸Ńà¸§
à¸Ĺà¸²à¸Ļ à¸Ńà¸²à¸«à¸²à¸£
-------- ----
sm s
à¹ģà¸ª à¸ļ
à¸Ļà¸ģà¸²à¸£ à¸ļ
à¸Ńà¸Ļà¸ģà¸£ à¸ģà¸İ
az z
à¸ĺ à¸¡
à¸Ļà¸Ĺ à¸°à¹Ģà¸¥
à¸§ à¸ģà¸¥à¸²à¸ĩ
way s
à¸²à¸ĸà¸²à¸¡ à¸ģ
à¸Ńà¸°à¹Ħà¸£ à¹Ģà¸Ľ
à¸¹ âĢĿ
à¸²à¸Ķ à¸ģà¸²à¸£à¸ĵ
ðŁĴ °
Ġà¹Ģà¸ŀà¸£à¸²à¸° à¸Ī
à¸«à¸¥ à¸²à¸ģ
ers on
à¹Ģà¸§à¸¥à¸² à¹Ģà¸¥
à¸ļ à¸«à¸į
à¸Ńà¸Ńà¸¡ à¸Ĺà¸£
à¸ķà¸£ à¸ĸ
à¹Ģà¹Ģ à¸Ńà¸ļ
à¸²à¸Ĥà¸Ńà¸ĩ à¸Ń
à¸£à¸ļà¸ģà¸§à¸Ļ à¸Ķ
Ġà¸Ńà¸¢à¸²à¸ģ à¸¥à¸Ńà¸ĩ
à¹Ĥà¸Ķ à¸Ļà¹ģ
pptv news
ä º
à¸ģà¸£à¸£à¸¡ à¸ģà¸²à¸£à¸ª
à¸²à¹ģà¸ŀ à¸Ĺà¸¢
à¸° à¹ĥà¸«
Ġâľ ħ
à¸§à¸¢ à¸Ħà¸Ļ
à¸ĩà¸ŀ à¸Ńà¸¡
à¸²à¸ģà¸²à¸£ à¸Ķ
Ġà¹ĥà¸Ļ à¸£à¸Ńà¸ļ
à¸¥ à¸«à¸Ļ
à¸ĩà¸Ĥ à¸¥
Ġp as
à¹Ĥà¸£ à¸Ħà¸Ļ
à¸ĩà¸Ń à¸²à¸£à¸¡à¸ĵ
Ġà¸Ļà¸Ħà¸£ à¸£à¸²à¸Ĭà¸ª
à¸£à¸°à¸ļà¸²à¸Ķà¸Ĥà¸Ńà¸ĩ à¹Ĥà¸£à¸Ħ
à¸ĩà¸Ħ à¸²
Ġnok ia
à¸²à¸ģà¸²à¸£ à¹Ģà¸¥
à¹ģà¸ļà¸ļ à¹Ģà¸£
à¸²à¸ł à¸²
à¸¢à¸ĩ à¹Ģà¸ŀà¸£à¸²à¸°
Ġà¹Ĥà¸ĭ à¸Ļ
Ġ8 4
à¸§à¸Ĺ à¸Ńà¸ĩ
à¸Ńà¸¢à¸²à¸ģ à¸Ń
à¹Ħà¸ĩ à¸Ħà¸£
2 90
à¸§à¸§à¸§à¸§ à¸§
à¸ĩà¸Īà¸²à¸ģ à¸ª
à¸£à¸²à¸Ķ à¸¢
à¸¡à¸²à¸ ī
Ġed ition
à¸Ĺ à¸²à¸«à¸£à¸ĵ
à¸²à¸¡ à¸²à¸ķà¸£à¸Ĳà¸²à¸Ļ
à¸² à¹Ĥà¸£à¸ĩà¸ŀà¸¢à¸²à¸ļà¸²à¸¥
s mm
à¸Ń à¹ĥà¸ļ
à¸§à¸¢à¸ĩà¸²à¸Ļ à¸£
à¸§à¸Ļ à¸ģà¸£à¸ĵ
à¸°à¸¥ à¸²
à¸Ńà¸Ļ à¸łà¸²à¸©
Ġs a
à¸§à¸¢ à¸²à¸§
à¸ĭ à¸²à¸Ń
Ġà¸ªà¸ĸà¸²à¸Ļ à¸°
à¸Ĥà¸Ńà¸ĩ à¸Ĺà¸²à¸ĩ
Ġà¸¢ à¸²à¸¢
à¸¢à¸Ļ à¹Ģà¸ª
d ec
à¸Ļà¸Īà¸° à¸ĸ
à¸Ľà¸ķ à¸²à¸£
Ġe u
à¹Ģà¸ĺ à¸Ńà¸¡à¸²à¸ģ
à¸Ļà¸£ à¸²à¸§
à¸²à¹ģ à¸Ŀ
à¸Ļà¸Īà¸° à¸Ĭ
à¸Ļà¸ª à¸¥
à¹Ģà¸¥ à¸ķ
à¸¡ à¸ĩà¸§à¸Ķ
à¸ĩà¸Īà¸²à¸ģ à¸£
à¸Ńà¸Ńà¸ģ à¸ļ
Ġà¹Ħà¸Ń à¹Ĥà¸Łà¸Ļ
Ġà¹Ħà¸Ľ à¹Ģà¸¥à¸¢
à¸ģà¸¡ à¸§à¸¢
à¸ª à¹ģà¸ķ
à¸Ńà¸Ķ à¸Ĥ
à¸ķà¸£à¸§à¸Īà¸ªà¸Ńà¸ļ à¸Ĺ
Ġà¹ĥà¸Ļ à¹ģà¸ķ
à¸Īà¸Ī à¸²à¸Ļ
Ġl ast
à¸Ĥà¸Ńà¸ĩ à¸¨
à¸Ńà¸Ļ à¸ģà¸²à¸£
Ġà¹Ģà¸£à¸²à¸Īà¸° à¸ķ
à¸ĩ à¸Ńà¸Ńà¸ģà¸Īà¸²à¸ģ
à¸Ńà¸¡ à¹Ģà¸Ĥ
à¸£à¸²à¸Ħà¸² à¹Ģà¸ķ
à¸²à¸ª à¸²à¸¢à¸ª
à¸ļ à¹ģà¸ļà¸ļà¸Ļ
à¸Ļà¸Ļ à¸²à¸¢à¸ģ
à¸Ńà¸¢à¸²à¸ģ à¸Īà¸°à¸Ĺ
à¸ªà¸²à¸¡à¸²à¸£à¸ĸ à¹ĥà¸«
et v
Ġà¸Īà¸° à¸Ń
à¸ŀà¸§à¸ģ à¸ŀ
à¸Ńà¸Ńà¸°à¹Ħà¸£ à¸Ĺ
Ġà¹ĥà¸Ļ à¸¥
à¸Ńà¸²à¸Ī à¸Īà¸°à¸Ĺ
à¸Ń à¸Īà¸°à¸ķ
à¸ģ à¸Ńà¸£
à¸²à¸ĩ à¸£à¸ĸ
Ġà¹Ģà¸§à¸¥ à¸²à¸Ħ
à¸ªà¸ļà¸²à¸¢ à¹Ĩ
à¹Ĥ à¸¨à¸ģ
à¸²à¸Ħà¸§à¸²à¸¡ à¸Ħ
à¸¡à¸² à¹ĥà¸Ļ
à¹Ģà¸Ńà¸ģ à¸Ń
à¸Ļà¸²à¸¨ à¸ł
à¸ļà¸Ĥ à¸¢à¸°
à¸ģ à¸łà¸²à¸©
à¸ĩà¹Ħà¸Ľ à¹ĥà¸«
er ation
Ġh ero
à¸Ļà¹Ģà¸¡ à¸Ļ
à¸ģà¸Ĥà¸Ńà¸ĩ à¹Ģà¸£à¸²
facebook twitter
à¸²à¸ļ à¸²à¸ĩà¸Ĺ
à¹ģà¸Ļà¸° à¸Ķ
à¸Ľà¸łà¸²à¸ŀ à¸ķ
à¸£à¸²à¸¢à¸ĩà¸²à¸Ļ à¸ķ
à¸Ĺà¸£à¸²à¸ļ à¸ģ
à¸ģ à¹Ģà¸ŀà¸¥à¸ĩ
à¸§à¸ĩ à¹Ħà¸¡
à¸²à¸Īà¸° à¹Ģà¸«
Ġs we
à¹Ī !
à¸ļà¸Ĺ à¹Ģà¸£
Ġà¸Ħà¸§à¸²à¸¡ à¸ªà¸²à¸¡à¸²à¸£à¸ĸ
à¸Ļà¹Ĥ à¸Ħà¸£
à¹Ħà¸ķà¸£ à¸Ľ
à¸Ńà¸Ļ à¸«à¸¡
à¸Īà¸²à¸ģ à¸«
Ġà¹Ģà¸ģà¸²à¸° à¸ķ
à¸Ļà¸ª à¸łà¸²à¸ŀ
à¸Ĥà¸Ńà¸ĩ à¸ŀà¸£à¸°
à¸²à¸ĩ à¸£à¸°à¸Ķ
à¸²à¸Īà¸° à¹Ģà¸ª
Ġt erm
à¸« à¸²à¸¡
facebooktwitter line
Ġà¹Ģà¸ĺ à¸Ńà¹Ģà¸Ľ
Ġà¸ªà¸Ļà¹ĥà¸Ī à¸Ĺ
à¸¥à¸Ķ à¸ģà¸£à¸°à¸«à¸Ļ
Ġle g
à¹ĥà¸Ļà¸ģà¸²à¸£ à¹Ģà¸Ľ
Ġ à¸²
or o
en n
à¸²à¸ľà¸¥ à¸²à¸į
i ence
à¹ģà¸£ à¸ĩà¸Ī
à¸ļà¸Ĺ à¸Ħà¸§à¸²à¸¡
à¸Ķà¸Ĥ à¸Ļà¸²à¸Ķ
à¸Ńà¸¡ à¸²à¹Ģà¸Ľ
à¸Ńà¸¡ à¸²à¸Ń
à¸²à¸į à¸²à¸ķ
à¸²à¸Ī à¸¡
à¸²à¸Ľà¸£à¸° à¸¡
Ġà¹Ĥ à¸ģà¸¥
à¸ĵ à¸²à¸ĺ
à¸ļ à¹Ĥà¸Ĺà¸©
à¹Ģ à¹Ģà¸Ķ
à¸Ĵà¸Ļ à¸²à¸£à¸°à¸ļà¸ļ
à¸Ńà¸ĩ à¸Ĥà¸Ńà¹Ĥà¸Ĺà¸©à¸Ķ
à¸Ķà¹Ģà¸Ī à¸Ńà¸ģ
à¸¡ à¹ģà¸Ļ
à¸ĩà¸Īà¸° à¹Ģà¸ģ
Ġl ist
à¸Ńà¸Ļ à¹ģà¸Ħ
à¸¡à¸² à¹ģà¸Ļà¸°à¸Ļ
Ġà¹Ĥ à¸ģà¸£à¸ĺ
à¹ģà¸Ļà¸§ à¸ķ
à¸ĭà¸° à¸Ń
à¸Ńà¸¢ à¸Ĥà¸Ńà¸ĩ
à¹Ģà¸Ń à¸Ńà¸£
à¸Ļà¸¡ à¸²à¸«
à¹ĥà¸Ī à¸Ńà¸¢
Ġà¸ģà¸£à¸£à¸¡ à¸ģà¸²à¸£
à¹Ģà¸ļà¸¥ à¹Ģà¸¢
à¸ľà¸¥ à¸Ĥ
Ġsec ret
à¸Ļ à¹Ĥà¸£à¸ĩà¹Ģà¸£
à¸ģà¸Ĥà¸Ńà¸ĩ à¸Ĺ
f ace
à¸ªà¸²à¸Ĥ à¸²à¸Ĺ
à¸§ à¹Ĥà¸¥
à¸ªà¸łà¸²à¸ŀ à¸Ńà¸²à¸ģà¸²à¸¨
Ġà¸Ńà¸¢à¸²à¸ģ à¹Ħà¸Ľ
à¸Ļà¸Ĥ à¸²à¸§
à¸ģ à¹Ĥà¸ķ
à¸«à¸²à¸£ à¸Ľà¸£à¸°à¹Ģà¸Ĺà¸¨
Ġà¸Ħà¸§à¸²à¸¡ à¸¢à¸²à¸§
Ġà¹ĥà¸Ļ à¸ģà¸£
à¸ģ à¹Ħà¸¥à¸Ļ
? )
Ġw a
à¸Ńà¸Ħà¸§à¸²à¸¡ à¸¡
Ġo ct
à¸ķà¸ģà¸¥ à¸ĩ
à¸ģ à¸ģà¸²à¸£à¸Ĺ
oo p
à¹Ĥà¸Ķ à¸Ļà¹ĥà¸Ī
à¸ģà¸© à¸²à¸Ĥà¸Ńà¸ĩ
à¹ģà¸¥à¸° à¹Ģà¸Ĺà¸Ħà¹Ĥà¸Ļà¹Ĥà¸¥à¸¢
Ġà¹Ħà¸Ĺà¸¢ à¸£
à¸¢à¸§ à¸ľ
à¸Ľà¸£à¸°à¹Ģà¸łà¸Ĺ à¸Ĺ
Ġun iq
Ġà¸£à¸²à¸Ħ à¸²à¸ŀ
à¸Ħà¸§à¸²à¸¡ à¸ĩà¸²à¸¡
Ġà¹ģà¸Łà¸Ļ à¹Ģà¸£à¸²à¸ģ
Ġtech n
arin tv
à¸ķ à¹Ģà¸Ĥ
Ġte aser
à¹Ĩ à¹ģà¸¥
à¸Īà¸° à¸ķà¸Ńà¸ļ
à¸Ńà¸ģ à¸ŀ
à¸¢à¸£ à¸łà¸²à¸ŀ
à¹Ģà¸£ à¸²à¸ļà¸Ńà¸ģà¸§
Ġt ar
is a
à¸Ńà¹Ħà¸Ľ à¸Ħà¸£
à¹ĥà¸Ļ à¸¨
à¸ĩ à¸£à¸°à¸ļ
à¸ļ à¹ĥà¸ļ
à¸²à¸ª à¸ĩà¸Ħà¸£à¸²à¸¡
Ġà¸ķ à¸Ļà¸ģ
à¸¢à¸ļ à¹Ģà¸ªà¸¡
à¹ĥà¸Ļ à¹Ĥà¸£à¸ĩà¹Ģà¸£
à¸ĩ à¹Ģà¸īà¸¢
âĺ ħ
à¸§à¸Ļ à¸£à¸§à¸¡
à¸²à¸Ļ à¹Ģà¸£à¸²à¸¡
à¸ªà¸²à¸¡à¸²à¸£à¸ĸ à¸ªà¸£
à¸£à¸²à¸Ħ à¸²à¸Ķ
à¸ģà¹Ģà¸ģ à¸¥
à¸²à¹Ħà¸¡ à¸ģ
Ġà¸ľ à¸Ļ
à¸¢à¸Ńà¸¡ à¹ģà¸ŀ
à¹Ĥà¸Ĺà¸£à¹Ħà¸Ľ à¸ĸà¸²à¸¡
à¹Ģà¸¥à¸¢ à¸ĭ
à¸ĩ à¸Ńà¸¥
Ġà¸Ńà¸²à¸Ī à¸Ĺ
Ġà¸Ńà¸²à¸Ī à¹Ħà¸¡
à¸§à¸ĩ à¸ģà¸²à¸£à¸ļ
à¸²à¸Ļ à¸ģà¸²à¸£à¸Ħ
à¸Ł à¸ĭ
à¸ļ à¹ģà¸ŀ
Ġà¸Ľ à¸¥à¸Ķ
à¸ĩà¹Ħ à¸ģà¸¥
à¹Ģà¸£ à¸¥
à¹Į @
à¸Ĺà¸²à¸ĩ à¹Ħà¸«à¸Ļ
Ġk ore
ĠðŁĴ ĭ
à¸²à¸Ńà¸²à¸Ī à¸Īà¸°à¸¡
Ġà¸£ à¸Ńà¸ļà¸Ħ
à¹Ģà¸§à¸¥à¸² à¹Ģà¸ŀ
à¸ķà¸£ à¹ĥà¸«à¸¡
Ġ255 4
à¸«à¸Ļ à¸²à¹ģà¸Ļ
ro ss
à¸¬ à¸²à¹ģà¸«
à¸¢à¸§à¸Ĺ à¸°à¹Ģà¸¥
à¸¢à¸¡ à¸¢
à¸Ńà¸¢ à¹ģà¸¥à¸°
à¸ļà¸²à¸ĩ à¸ģà¸¥
g am
à¹Į #
Ġ9 1
à¸ĩà¸Ĺà¸²à¸ĩ à¸ļà¸ģ
Ġn um
à¸Ļ à¹Ģà¸īà¸¢
à¸Ńà¸Ļà¹Ģà¸¡à¸© à¸²à¸¢à¸Ļ
à¸ķ à¸Ħà¸Ļ
à¸Ńà¸ĩ à¹ģà¸Ľ
à¹ģà¸Ľà¸¥ à¸ģà¸«à¸Ļ
Ġp d
à¸¥à¸ĩ à¹Ħà¸Ķ
à¸Ńà¸ĩ à¸®
à¸¡à¹Ĥ à¸ªà¸¡
ire less
Ġà¸Ħ à¸¥à¸Ńà¸ĩ
à¸ĩà¸ģà¸²à¸£ à¸ķ
à¸ĩà¸ĸ à¸Ļà¸Ļ
á ŀ
à¸ļà¸Ļ à¹Ģà¸Ħà¸£
Ġ55 0
à¸ģà¸¢ à¸²à¸§
à¸²à¸ŀà¸£à¸£à¸Ħ à¸Ľà¸£à¸°à¸Ĭà¸²à¸ĺ
à¸Ńà¸ĩ à¹ģà¸¢
Ġà¸Ħà¸§à¸£ à¹ĥà¸Ĭ
à¹Ģà¸ģ à¸ª
Ġà¹ĥà¸Ļ à¸ķà¸Ńà¸Ļà¸Ļ
' ;
à¹Ģà¸Ĺà¸¨à¸ļà¸²à¸¥ à¹Ģà¸¡
tag s
à¸Ļà¸Īà¸° à¸Ļ
t d
à¸¢à¸ĩ à¹ĥà¸Ķ
à¸ĩ à¹Ģà¸Īà¸Ń
à¸Ļà¹Ģà¸¥à¸¢ à¸§
à¸ģ à¹Ģà¸§
à¸Ħà¸Ļ à¸Ĥà¸²à¸¢
Ġs iam
à¹Ĥà¸£ à¸ĩà¸«à¸Ļ
à¸¨ à¸ª
ðŁĴ ¥
à¸ĩà¸Ħ à¸ĵà¸°
à¸Ńà¹Ħà¸Ľ à¸ª
br br
à¸Īà¸° à¹Ģà¸Ńà¸²
à¸Ļ à¹Ħà¸ĭ
à¸ĩ à¹Ĥà¸Ħ
à¸ĩà¸ģà¸²à¸£ à¹ĥà¸Ĭ
h l
à¸Ŀà¸²à¸ģ à¸Ĥ
à¸įà¸įà¸²à¸ĵ à¸Ĺ
Ġc oun
Ġà¹Ģà¸Ń à¸²à¹Ģà¸ĩ
à¸Ļà¸ķà¸£ à¸ĩà¸ģ
Ġ.... ..
Ġkn ow
à¸²à¸ģ à¸ģà¸ģ
Ġà¸ļà¸Ńà¸ģ à¹Ħà¸¡
à¸Ļ à¸łà¸²à¸Ħ
Ġm el
à¸Īà¸²à¸ģ à¹Ģà¸ŀ
à¹ģà¸ļà¸ļ à¸ľ
Ġà¸ŀà¸£à¸£à¸Ħ à¸Ľà¸£à¸°à¸Ĭà¸²à¸ĺ
Ġc iv
ðŁ¤ ĺ
à¸«à¸¡à¸Ķ à¹Ħà¸Ľ
à¸ĩà¸£à¸ĸ à¸ķ
à¸¥ à¸Ķà¸ķ
ĠðŁ¤ £
um ent
à¸¢à¸¡ à¸Ĥà¸Ńà¸ĩ
à¸Ńà¸²à¸Ĭ à¸įà¸²à¸ģà¸£à¸£à¸¡
à¹ĥà¸Ļ à¸¤à¸Ķ
if ul
à¸Ħà¸£ à¹Ģà¸Ĥ
à¸²à¸ģà¸²à¸£ à¸ģ
à¸¢ à¸ģà¸²à¸£à¸ª
Ġgr ab
Ġà¸ªà¸Ńà¸ļà¸ĸà¸²à¸¡ à¸Ħ
Ġà¹Ģà¸Ĥ à¸²à¸ģà¸¥
à¸Ļà¹Ģà¸Ńà¸ĩ à¸Ħ
Ġb ir
à¸²à¸Ļà¹ĥà¸Ķ à¸¡
p ly
Ġà¹ģà¸¥à¸° à¹Ģà¸Ļ
à¹Ģà¸ŀ à¸£
à¸Īà¸ļ à¸Ľ
à¸ļà¸²à¸ĩ à¸Ħà¸Ļà¸Ĺ
Ġis o
à¸²à¹Ģà¸Ń à¸¥
à¹ģ à¸Ħà¸§à¸£
à¸Ľ à¸²à¸Ķ
Ġk a
à¸Ńà¸ĩ à¸«à¸²à¸£
à¸§à¸¢ à¹Ģà¸Ī
à¸Ķà¸Ńà¸°à¹Ħà¸£ à¸Ńà¸¢
à¸Ķà¸Ħà¸§à¸²à¸¡ à¸ªà¸²à¸¡à¸²à¸£à¸ĸ
à¸¢à¸Ńà¸¡ à¸Ī
ł ģ
ur al
à¸Ńà¸ģ à¸ģà¸¥
à¸ļà¸Ĺ à¸Ńà¸Ķà¸Ń
à¸Ļà¹Ĥà¸¢à¸ļ à¸²à¸¢à¸Ĥà¸Ńà¸ĩ
à¸§à¸Ļ à¹ģà¸ķ
Ġà¸¡ à¸²à¸Ĥ
Ġà¸Ĥà¸Ńà¸Ħà¸§à¸²à¸¡ à¸Ħ
v ic
Ġà¸Ń à¸Ńà¸£
à¹Ħ à¸Ńà¸£
à¸Ńà¸Ĥ à¸¢à¸²à¸¢
à¸¡ à¸²à¸ķà¸²à¸¡
à¸Ķà¸Ĥ à¸Ńà¸Ļà¹ģà¸ģ
à¸Ńà¸Ķ à¹Ħà¸¡
à¸Ĳà¸²à¸Ļ à¸Ĺ
Ġà¹ģà¸ĸ à¸¡à¸ķ
à¸Īà¸ī à¸²
à¸²à¹ģ à¸¢à¸ģ
à¸²à¸Ľà¸£à¸° à¸§
à¸Ķà¸ģà¸²à¸£ à¸ķ
à¹ģà¸¥ à¸Ńà¸¢
at ing
t m
à¸²à¸ķà¸£ à¸ĩ
à¸§à¸¡ à¸Ħ
Ġà¸ķà¸²à¸¡ à¸Ħ
à¸Ńà¸Ļ à¹ģà¸Łà¸Ļ
à¸¢à¸Ļ à¹Ģà¸¥à¸¢
à¸Ńà¸¢ à¸Ńà¸Ńà¸ģ
à¸Ńà¸Ļ à¹Ħà¸«à¸¡
à¸ŀà¸¥ à¹Ģà¸£
à¸Ľ à¹Ħà¸§
à¸¢à¸²à¸Ļ à¸¢à¸Ļà¸ķ
à¸Ńà¸ĩ à¹Ģà¸§
à¸ļà¸£à¸ĸ à¸ķ
Ġever y
à¸Ļà¹ĥà¸Ļ à¸Ń
à¸²à¸Ļ à¸Ĺà¸£
Ġ our
à¹Ģà¸Ĥ à¸²à¸ļ
ĠðŁĵ Į
à¸Ńà¸¡ à¹Ĩ
à¸ģ à¸Īà¸°à¹Ħà¸Ķ
à¸ĩ à¸ģà¸£à¸£à¸¡
à¸²à¸Ļ à¹Ħà¸Ľà¹ģà¸¥
Ġh all
à¹Ħà¸Ľ à¸Ľà¸£
Ġà¹Ģà¸£à¸²à¹Ģà¸¥à¸¢ à¹Ħà¸¡
à¹ģà¸¡ à¸Ĺ
Ġà¸Ĭ à¸Ńà¸ļà¸Ħ
à¸ĩà¸Īà¸° à¸Ī
Ġà¹Ħà¸Ľ à¸§
Ġor ig
Ġà¹ģ à¸ŀà¸ĩ
Ġà¸ŀà¸§à¸ģ à¸¡
à¸ŀà¸¢ à¸²à¸¡
ick et
à¸ļà¸ļà¸£à¸£ à¸¢à¸²à¸ģà¸²à¸¨
à¸Ļà¸Ĺ à¸²
à¸ĩà¸Ľ à¸§à¸ĩ
Ġtr ack
à¸ļ à¸Ńà¸ĩà¸Ħ
Ġà¸Ĥà¸Ńà¸£ à¸ļà¸ģà¸§à¸Ļ
à¸ģ à¹ģà¸Ĭà¸Ĺ
à¹Ģà¸ŀà¸£à¸²à¸° à¸ª
oo tb
à¸Ħà¸£ à¸ªà¸Ńà¸ļ
à¸«à¸¡ à¸Ńà¸Ķ
à¸ģ à¹Ĥà¸ĭ
à¸¢à¸Ļ à¸Ńà¸°à¹Ħà¸£
Ġà¹ģ à¸¡à¸Ĺ
à¸Ļà¸Ĺà¸²à¸ĩ à¸ļ
à¸ľà¸¡ à¹Ģà¸ª
à¸· à¹Ĭ
à¸Ļ à¹Ĥà¸¥
à¸Ķ à¸Ľà¸ı
à¸Ļà¸Ļ à¸Ńà¸Ļ
à¸Ļà¸ª à¹Ħà¸ķà¸¥
à¹Ģà¸ĭà¸¥ à¸Ł
à¸Ľà¸łà¸²à¸ŀ à¸«à¸£
à¸²à¸«à¸Ļà¸Ķ à¸Ī
Ġj ack
Ġà¹ģà¸¥à¸° à¸Ĥà¸Ńà¹ĥà¸«
à¸Ĭ à¸Į
à¸¹ "
à¹Ħà¸Ĺà¸¢ à¹Ħà¸¡
à¸Ļà¹ĥà¸Ī à¸Ķ
à¸ļà¹Ģà¸£à¸² à¹Ħà¸Ķ
à¸¢à¸Ļ à¸ªà¸¡à¸£à¸ª
à¸Ļà¸Ńà¸Ńà¸ģ à¸¡à¸²à¸Īà¸²à¸ģ
à¸Ńà¸ĩ à¹Ģà¸Īà¸Ńà¸ģ
à¸²à¸Ľà¸£à¸° à¸«à¸¢
à¸ŀ à¸Ķ
ðŁ ¥
à¹Ĥà¸¡ à¸ĩà¹Ģà¸Ĭ
à¸Ļà¸ĺ à¸Ļà¸²à¸Ħà¸²à¸£
à¸¡à¸² à¹Ģà¸«
Ġà¸ľà¸¡ à¹Ģà¸Ķ
à¸ĩà¹ģ à¸Ķ
à¸Ļà¹ģ à¸Ńà¸£
à¸ķ à¹Ģà¸ģ
Ġà¸Ļ à¸Ńà¸Ļà¹Ħà¸¡
à¹Ĥà¸£ à¸ļ
à¸²à¸¨ à¸£
à¸Ļà¹Ħà¸Ľ à¸Ħà¸£
à¹ģà¸Ľà¸¥à¸ģ à¹ĥà¸«à¸¡
z e
od a
Ġà¹Ĥà¸«à¸¥ à¸Ķ
à¸Ľ à¸£à¸²à¸ªà¸²à¸Ĺ
Ġà¹Ģà¸ŀà¸£à¸²à¸° à¸ļ
Ġà¹ģà¸¥à¸° à¸ģà¸²à¸£à¸Ĺ
à¹Ĥà¸Ķ à¸¢à¸Ļ
à¹Ģà¸Ń à¸²à¸ļ
à¸²à¸¢ à¸²à¹Ģà¸ªà¸ŀà¸ķ
à¸Īà¸²à¸£à¸ĵ à¸²à¸Ķ
oly mp
Ġà¸Ńà¸¢à¸²à¸ģ à¸«
à¸µ '
à¸ļà¸ģà¸²à¸£ à¸¢
à¹Ģà¸¢à¸Ńà¸° à¸Ńà¸¢
à¸Ļ à¸²à¹Ģà¸¡
à¸Ķ à¸łà¸²à¸©
à¸Ńà¸ĩ à¹Ģà¸ľà¸Ĭ
Ġk l
à¹Ħà¸Ł à¹Ģà¸Ĥ
à¸²à¸ĩà¸ģ à¸İà¸«à¸¡à¸²à¸¢
à¹Ĥà¸« à¸Ķà¸£
f e
à¹Ħà¸ĩ à¸§
Ġâ ļ«
à¸²à¹Ħ à¸ĩà¸ģ
à¸²à¹Ģà¸Ļ à¸²à¸ļ
à¸ĩà¸ª à¸łà¸²à¸ŀ
à¸ļà¹Ģà¸£ à¸²à¸¡
3 000
à¸¡ à¸Ńà¸ĩà¹Ħà¸¡
c p
à¸«à¸¥à¸²à¸¢ à¸Ħ
Ġà¸ľà¸¡ à¸ŀà¸¢à¸²à¸¢à¸²à¸¡
à¸Īà¸²à¸Ħ à¹Ģà¸ĩ
thaipbs news
à¸¥à¸¢ à¹Ģà¸Ķà¸Ĭ
ire ct
à¹Ħà¸Ľ à¸ªà¸Ńà¸ļ
à¸ļ à¸²à¸ģ
à¸Ĺà¸²à¸ĩà¸Ĺ à¸°à¹Ģà¸¥
à¸Ļà¸ģà¸²à¸£ à¹ģà¸Ĥ
ðŁĺŃ ðŁĺŃ
à¸ªà¸²à¸£ à¸ªà¸ģ
Ġà¸Ħà¸Ļ à¹Ģà¸Ľ
à¸Ńà¸¢à¸²à¸ģ à¸ª
à¸ªà¸£à¸£à¸ŀ à¸²à¸ģà¸£
Ġpr omotion
Ġà¸ķ à¸¥à¸ģ
à¸Ļà¸£ à¸ģ
à¸ĺà¸£à¸£à¸¡ à¸¨à¸²à¸ªà¸ķà¸£
à¸°à¸Ĺ à¸°à¸ģ
Ġ à¸Ľà¸£à¸°à¸Ĭà¸²à¸ĺ
Ġà¹ģà¸¥à¸° à¹Ģà¸Ħ
à¸ģ à¹Ģà¸ĸ
à¸¥ à¸ĺà¸£à¸£à¸¡
à¸Ļà¸Īà¸²à¸ģ à¸ķ
at s
à¸Ńà¸Ń à¸Ńà¸Ļà¹Ħà¸¥à¸Ļ
à¸ļà¸¡à¸² à¹Ģà¸£
à¸ķà¸Ńà¸ļ à¹Ħà¸Ľà¸§
Ġà¸¡à¸« à¸²à¸Ĭà¸Ļ
à¸Ńà¸¢à¸²à¸ģ à¸Īà¸°à¸£
Ġà¸ķà¸Ńà¸Ļ à¹Ģà¸¢
à¸Īà¸Ļ à¸«à¸¡à¸Ķ
f ly
à¹Ħà¸Ĺ à¸¢à¸§
id ge
-------- -
à¸įà¸į à¸²à¸Ī
Ġà¸ªà¸° à¸Ńà¸²à¸Ķ
à¸Ńà¸ĩ à¸¨à¸²à¸¥
à¸Ńà¸Ľ à¸²à¸ģ
ap ter
Ġà¹Ģà¸ľà¸¢ à¹ģà¸ŀà¸£
Ġà¸ªà¸łà¸²à¸ŀ à¸Ķ
z y
à¸²à¹Ĥà¸ŀ à¸ªà¸ķ
à¸Ĺ à¹Ĥà¸ĺ
à¸ªà¸¡ à¸¨
Ġà¹Ģà¸Ħ à¸¡
à¸¥à¸ĩ à¸Ĥ
à¸Ńà¸¡ à¸²à¸Ķ
à¸§à¹Ģà¸£ à¸²à¸¡
Ġm oon
à¸ªà¸ģ à¸Ľà¸£
Ġà¸ª à¸ĩà¸ģà¸£à¸²à¸Ļà¸ķ
à¸²à¸ŀà¸£à¸° à¸Ńà¸ĩà¸Ħ
Ġà¹Ģà¸£ à¸²à¹ĥà¸«
à¸Ĥà¸Ńà¸ĩ à¹Ģà¸£à¸²à¸Ħ
à¸²à¸ª à¸ĸà¸²à¸Ļà¸ģà¸²à¸£à¸ĵ
Ġe asy
à¹Ĥà¸Ĺà¸£ à¸ª
à¸Ļà¹Ħ à¸®
à¸Ķ à¹Ģà¸«à¸Ļ
à¸§à¸¢ à¸ªà¸£
à¸Ħà¸Ńà¸¡à¹Ģà¸¡ à¸Ļà¸ķ
Ġà¹ģ à¸Ħà¸£
à¸ĩà¸Īà¸° à¸Ħ
à¸Ń à¸Ĭà¸²à¸§
Ġà¸ļ à¸²à¸ĩà¸ª
à¸Ļ à¹Ģà¸īà¸¥
à¸Ļà¹Ģà¸Ħ à¸¢à¸ģ
à¸ļà¹ģà¸Ł à¸Ļà¸Ĺ
à¸Ńà¸Ļ à¹ģà¸ļà¸ļà¸Ļ
à¸²à¸«à¸¥ à¸Ńà¸ģ
à¹Ĥà¸Ĺ à¸Ļà¸ª
Ġ10 5
Ġq r
à¸²à¸Ļ à¸Ŀ
Ġà¹Ģà¸¢à¸Ńà¸£ à¸¡
à¸°à¸Ĥ à¸²à¸¡
à¹ĥà¸Ħà¸£ à¹Ģà¸¥à¸¢
Ġà¹Ģà¸Ĺ à¸Ńà¸¡
à¸ĩà¸ģà¸¤à¸© à¹Ħà¸Ķ
à¸Ńà¸¡à¹Ĥ à¸¢à¸ĩà¸ģ
Ġm ah
à¸¢à¸¢à¸¢à¸¢ à¸¢à¸¢
à¸Ń à¹ģà¸Ľ
à¸ģà¸Ħà¸Ļ à¸Ĭ
à¸Ĥà¸Ńà¸ĩ à¸¡à¸Ļ
à¸²à¸¢ à¹Ģà¸Ńà¸ĩ
à¸ļà¸£à¸ĸ à¹Ħà¸¡
à¸Ļà¸ĺ à¸ļ
à¸ļà¹ģà¸Łà¸Ļ à¸¡à¸²
à¹ĥà¸Ļà¸ª à¸«à¸£
à¸²à¸Ĥà¸Ńà¸ĩ à¸¡
à¸Ł à¸ª
Ġh el
Ġà¹Ģ à¹Ģà¸Ł
255 9
Ġsol id
à¸Ļ à¹Ģà¸«à¸£à¸Ń
Ġà¸Ľà¸§à¸Ķ à¸«
$ $
à¸Ńà¸¡à¹Ģà¸ŀ à¸¢
Ġtrans ition
à¸ģà¸Ħà¸£ à¸Ńà¸ļà¸Ħà¸£
Ġà¸¥ à¸²à¸§
à¸ģà¸© à¸²à¸Ĭ
Ġà¸£à¸ĸ à¹Ģà¸¡à¸¥
à¸²à¸ģ à¸²à¸Ĭà¸²à¸Ķ
à¸µ âĢĻ
à¸¢ à¹Ģà¸Ī
Ġà¹Ĥà¸Ķà¸¢ à¸Ĥ
Ġà¸ģ à¸£à¸Ńà¸ļ
Ġsing le
à¸Ńà¸ĩ à¹Ģà¸Ĥà¸²à¸ģ
Ġà¹Ħà¸Ľ à¸£à¸©à¸ĵ
à¹Ĥà¸ł à¸Ĭà¸Ļ
à¸ģà¸© à¸ĵà¸°à¸Ĺ
er al
à¸Ļ à¸¡à¸²à¸Ľ
à¹Ģà¸ª à¸ŀà¸ķ
à¸Ńà¸Ļ à¹Ģà¸£à¸²à¹Ħà¸¡
Ġà¸Ħà¸§à¸²à¸¡ à¸«à¸¡à¸²à¸¢
à¸Ħà¸Ļ à¹Ģà¸£
à¸Ļà¸Ĺ à¸²à¸Ļ
à¸Ńà¸¢ à¸ªà¸Ļà¹ĥà¸Ī
vo ic
à¸Ļà¸ķ à¸Ńà¸Ļà¸ķ
enc y
Ġà¹ģà¸¥à¸° à¸Ħà¸£
à¸Ńà¸ĩà¸ģà¸²à¸£ à¸Ļ
à¸§à¹Ģà¸Ńà¸ĩ à¸¡à¸²à¸ģ
à¸Ī à¸Ļà¸ª
20 15
Ġk bank
à¸Ńà¸ĩà¸Ń à¸²à¸Ĺ
à¸ĩ à¸¡à¸²à¹Ģà¸Ľ
Ġd vd
à¸¢à¸§ à¹Ħà¸Ľ
Ġà¸Ħ à¸Ńà¸¡à¸ŀ
à¸Ļ à¹Ģà¸ĺà¸Ń
à¸ĩ à¹Ħà¸Ĥ
à¸ª à¸Ńà¸ĩà¸Ħ
à¹Ģà¸¥à¸¢ à¸Ńà¸¢à¸²à¸ģà¸Īà¸°
Ġà¸ľà¸¡ à¸ĸ
produ ct
Ġà¸ķ à¸²à¸ģ
Ġà¸ª à¸°à¸ŀà¸²à¸Ļ
à¸ļà¸Ļ à¸«à¸Ļ
à¸²à¸Ńà¸°à¹Ħà¸£ à¸Ħà¸£
ch ar
Ġà¹ ĸ
à¸ĩ à¹Ģà¸£à¸²à¹Ħà¸Ľ
Ġà¸Īà¸²à¸ģ à¸ª
à¸ĩà¸Ħà¸§à¸²à¸¡ à¸ģ
à¸Ń à¹ĥà¸Ķ
t itle
à¸£à¸ĸ à¸Ķ
à¸ĩà¸ģ à¸²à¸¬
à¸Īà¸° à¸«à¸²à¸¢
à¸ĵ à¸Īà¸°à¹Ħà¸Ķ
à¸ŀ à¹Ģà¸ģà¸£
c ar
à¸²à¸ĩ à¹Ģà¸Ń
à¸Ńà¸Ļ à¹Ģà¸ŀà¸£à¸²à¸°
Ġcon c
à¹ģ à¸Ķà¸ģ
sp ot
olog y
à¸¥à¸Ķ à¸£à¸²à¸Ħ
k bank
à¸Ĥ à¸Īà¸£
à¸ģ à¹Ģà¹Ģà¸¥
ðŁ ļ
ðŁĩ ºðŁĩ¸
à¸ģà¸Ĺà¸²à¸¢ à¹ģà¸Łà¸Ļà¸Ħà¸¥
t u
à¸Ńà¸ļ à¸ŀà¸£à¸°à¸Ħ
à¸²à¸Ļ à¸ĺ
Ġà¹ĥà¸Ħà¸£ à¹ĥà¸Ĭ
à¸Ĭà¸°à¸¥ à¸Ńà¸ķ
y a
á »
à¸Ĺà¸ģ à¸ł
à¸ªà¸¡à¸£ à¸£à¸ĸ
Ġà¹Ģà¸ŀà¸£à¸²à¸° à¹Ģà¸Ĥ
à¸²à¸ķ à¸ģà¹ĥà¸Ī
sam sung
à¸Ńà¸²à¸ģà¸²à¸£ à¸Ĺ
à¸§ à¹Ģà¹Ģà¸ķ
à¸Ĭà¸Ļà¸° à¹Ģà¸¥
à¸£à¸Ń à¸Ĭ
à¹Ħ à¸ļà¸£
Ġfut ure
à¸ķ à¹ģà¸ķ
Ġà¹ģ à¸Ķà¸ĩ
Ġà¹Ģà¸ĺ à¸Ńà¹Ħà¸¡
x d
à¸¢ à¸²à¸¥
à¸Ħà¸¥à¸²à¸ª à¸ª
à¸ĩà¹Ħà¸Ľ à¸ª
Ġle ft
Ġà¹ģ à¸£à¸¡
à¸Īà¸²à¸£à¸ĵ à¸²à¸§
à¸Ĳà¸ļà¸²à¸¥ à¸Ī
à¸²à¸ĩà¸²à¸Ļ à¸ļà¸£
Ġa ust
à¸¥ à¸ķà¸£
Ġà¹ģà¸¥à¸° à¸Ŀ
à¸ķà¸Ńà¸ļ à¹Ħà¸¡
Ġunl imited
à¸įà¸« à¸²à¹Ħà¸¡
à¸¡ à¸Ħà¸Ļà¸£
à¸¢à¸Ļ à¹Ĥà¸£à¸ĩà¹Ģà¸£
à¹ģà¸Ľà¸¥ à¸ģà¸Ĺ
Ġà¹ģà¸Łà¸Ļ à¸ľà¸¡
Ġà¹Ħà¸¡ à¹Ĥà¸Ħà¸£
i os
Ġ8 1
à¸²à¸Ļà¸ķ à¸°à¸§
Ġmar vel
Ġ à¸Ĳ
à¸§ à¹Ģà¸ĺà¸Ń
à¸Ļ à¹Ģà¸§à¸Ńà¸£
à¸Īà¸°à¸ķ à¸²à¸¢
à¹Ģà¸Ī à¸Ļà¸ķ
à¸ĩà¸²à¸Ļ à¹Ģà¸Ľ
à¸Ļà¸Ĺà¸²à¸ĩ à¸¡à¸²à¸ĸ
à¸Ļà¸Ń à¸²à¸ģà¸²à¸¨
à¸ĩà¸£ à¸²à¸ĩà¸§
à¸Ńà¸ģ à¹Ģà¸¥
à¸ĩà¸ĩà¸²à¸Ļ à¹ģà¸¥
à¸Ļ à¸¥à¸ĩà¹Ħà¸Ľ
Ġà¸£à¸ļà¸ģà¸§à¸Ļ à¸ŀ
Ġà¹ģà¸¥à¸° à¹Ģà¸«
à¸²à¸ľà¸¥ à¹Ħà¸¡
à¸²à¸ľà¸¡ à¸£
14 0
à¸Ļà¸łà¸²à¸ŀ à¸Ĺ
à¹Ģà¸Ĥ à¸¢
à¸Ľà¸¥ à¸Ķ
ootb all
Ġà¸ģà¸²à¸£ à¸§
à¸¡ à¸ªà¸Ļ
Ġà¸Ĥ à¸§à¸²à¸ĩ
à¸Ĥà¸Ńà¸ĩ à¸į
Ġà¹ĥà¸Ļ à¸ªà¸¡
à¸²à¸Ńà¸Ļ à¸²à¸Ħà¸ķ
à¸ļà¸Ńà¸ģ à¹Ħà¸Ľ
à¸²à¹Ħ à¸ģà¸¥
Ġà¸ķ à¸Ľà¸Ĺ
à¸¡à¸² à¹Ģà¸Īà¸Ń
Ġà¹Ģà¸Ĺà¸¨ à¸ļà¸²à¸¥
à¸ĩà¸²à¸Ļ à¸Īà¸£
à¹ģà¸ĸ à¸¡à¸¢
à¹ģà¸£ à¸ĩà¸ª
Ġà¹Ģà¸Ķ à¸§
à¸¡à¸² à¹Ģà¸ª
à¸ĭà¸° à¸Ķ
à¹Ģà¸¡ à¸²
à¸Ńà¸°à¹Ħà¸£ à¸¡à¸²à¸ģà¸¡à¸²à¸¢
à¹Ģà¸Ħ à¸²à¸£
um an
Ġà¹Ħà¸Ń à¸ĭ
à¸ļ à¹ģà¸Ļ
à¸ĩà¸Ĺ à¸°à¹Ģà¸¥
à¸¡à¸² à¹ģà¸Ħ
Ġà¸Ńà¸¢à¸²à¸ģ à¸Ĥà¸Ńà¸Ħ
Ġà¹ģà¸¥à¸° à¸ŀà¸£
à¸ĩ à¹Ģà¸«à¸£à¸Ń
à¸²à¸Ńà¸° à¸Ħ
à¸²à¸Ļ à¹Ģà¸Łà¸ĭà¸ļ
Ġà¸Ĭ à¸²à¸į
à¸Ļà¸Ķ à¸²à¸§
Ġr ad
à¸Ķà¸¥ à¸Ńà¸ģà¸£
à¸ĩà¸ª à¸¡à¸²à¸Ĭ
à¸Ń à¸²à¸£à¸°à¹Ģà¸ļ
à¸Ńà¸Ļ à¹ģà¸£à¸ĩ
Ġx iaomi
fl ow
à¹ģà¸ŀà¸¥ à¸Ļà¸Īà¸°
à¸ĩà¸Ĥ à¸¢à¸²à¸¢
à¸²à¸¢ à¹ģà¸Ħ
à¸Ĥ à¸Ńà¸¡
k n
ðŁĺ Ļ
à¹Ģà¸¢à¸Ńà¸° à¸Ħ
à¸Ķà¸£ à¸Ńà¸Ľ
Ġà¸Ľà¸£à¸° à¹Ģà¸¡
Ġ à¸Ļà¸°à¸Ħ
à¸²à¹ģà¸Ł à¸Ļà¸Ħà¸¥
à¸Ķà¸ķà¸²à¸¡ à¸ģà¸İà¸«à¸¡à¸²à¸¢à¸Ĺ
à¸ļà¸Ńà¸ģ à¹Ģà¸¥à¸¢
à¹ģà¸Łà¸Ļ à¹Ģà¸£à¸²à¸ģ
o e
à¸ł à¸²à¸¯
à¹Ģà¸Ńà¸° à¹ĥà¸Ī
à¸£à¸ļà¸ģà¸§à¸Ļ à¸Ĭ
à¸Ĳà¸ļà¸²à¸¥ à¸Ļ
à¹ģà¸Ļà¸§ à¸Ĥ
à¹ĥà¸Ħà¸£ à¸§
à¹Ĥà¸Ķà¸¢ à¸Ħ
à¸Ńà¸ŀ à¸Ńà¸Ķ
à¸²à¸Īà¸° à¸§
Ġm a
à¸Ńà¸ĩà¹Ħà¸Ľ à¸£
à¸Ļ à¸Ľà¸£à¸°à¸¡à¸²à¸Ĺ
Ġsp f
Ġà¹Ģà¸ĭ à¸£
à¸ģà¸£à¸²à¸¢ à¸ģà¸²à¸£
Ġ à¹Ħà¸ĭà¸ª
à¸Ħà¸Ļ à¸Ĭà¸Ńà¸ļ
Ġk an
Ġà¹ĥ à¸ļà¸Ĺ
à¸įà¸²à¸ķ à¸Ŀà¸²à¸ģà¸£
Ġin it
m en
à¸²à¸§ à¸£à¸²à¸¢à¸ĩà¸²à¸Ļ
Ġaward s
r ic
Ġà¸Ĥà¸Ń à¹ģà¸Ļà¸°à¸Ļ
Ġà¹Ĥ à¸ľà¸¥
à¸ģà¸Ķ à¸Ľ
à¸ģà¹ģà¸¥à¸° à¸Ķ
à¸£à¸° à¸Ħà¸²à¸¢
à¹ģà¸¥à¸° à¸ľà¸¥
à¸¢à¸§ à¹Ģà¸£
as px
à¸ªà¸ł à¸²à¸§à¸°
Ġà¸ŀà¸Ńà¸¡ à¸²à¸ĸ
Ġz one
à¸Ĺà¸£ à¸ĩà¸Ħ
à¸Ĺ à¸ľ
Ġc our
à¸Ķà¸ķ à¸Ńà¸Ļà¸Ļ
à¸ĩ à¸ķà¸£à¸§à¸Īà¸ªà¸Ńà¸ļ
Ġa tt
Ġ à¹Ħà¸¥à¸Ł
à¸ļ à¸ŀà¸£à¸°à¹Ģà¸Ńà¸ģ
ó łģ
à¸Ĥà¸Ń à¸ŀà¸£
à¸²à¹Ħà¸¡ à¹Ģà¸Ħ
à¸¹ -
à¸Ĳà¸ļà¸²à¸¥ à¸Ĭ
à¸ļà¹Ħà¸Ľ à¸¢
Ġà¸Ńà¸²à¸Ī à¸Īà¸°à¸ķ
Ġà¸Ĥà¸Ńà¸ĩ à¹Ģà¸Ķ
à¸Ńà¸Ńà¸ģà¸Īà¸²à¸ģ à¸Ĺ
Ġ3 20
Ġà¹Ģà¸Ļ à¸¢
or s
à¸Ķà¸ķ à¸²
Ġb ay
à¸Ĥ à¸²à¸ª
Ġà¸£ à¸§
à¸²à¸ĩ à¸Ľà¸¥à¸Ńà¸Ķà¸ł
ah oma
Ġà¹Ģà¸Ń à¸²à¸ĩ
à¸²à¹Ģà¸£ à¸²à¸ľ
Ġs ound
à¸²à¹Ģà¸ł à¸Ńà¸Ĺ
à¸¢à¸ĩ à¸«à¸¡
Ġf ox
Ġb reak
à¸²à¸ļà¸Ńà¸ģ à¹Ģà¸¥
Ġà¸Ħ à¸ĩà¸¡
à¹Ģà¸Ńà¸Ł à¸ĭ
à¸ĩà¸ģà¸¤à¸© à¸Ĺ
Ġà¸ŀ à¸¢à¸²à¸ģà¸£à¸ĵ
à¸ģ à¸²à¸¬à¸ª
Ġà¹Ģ à¸Ńà¸£
à¸§à¸¢à¸Ħà¸§à¸²à¸¡ à¹Ģà¸Ľ
Ġà¸ŀà¸Ń à¹Ģà¸«
Ġà¸ŀà¸Ń à¹Ģà¸¥
à¸ģ à¸Īà¸Ļ
à¸²à¸ĩà¹Ħà¸£ à¹Ħà¸Ķ
à¸ĩà¸Ħà¸¡ à¹ģà¸¥à¸°
à¸¡à¸ĩà¸²à¸Ļ à¹Ħà¸Ķ
Ġà¹ģ à¸Ħà¸¥
à¸Ļà¸ļ à¸¥
Ġd u
Ġ---------------------------------------------------------------- ------------------------------------------------
à¸Ľ à¸Ĳ
à¸§ à¸²à¸«
à¸Ļà¸ª à¸Ńà¸ĩà¸Ħà¸Ļ
à¸ģà¸£à¸°à¸Ĺ à¸ļà¸ķ
Ġà¹ĥà¸Ħà¸£ à¸ªà¸Ļà¹ĥà¸Ī
à¸ļà¸Ľ à¸°
Ġt s
itt le
à¸Ńà¸Ĥ à¸Ļà¸²à¸Ķ
Ġà¹Ĥà¸Ľà¸£ à¸Ķ
à¸²à¸Ļ à¹Ģà¸«à¸¡
y ou
à¸²à¸ŀ à¸¢
à¸¢à¸ĩ à¹Ĥà¸Ķà¸¢
à¸§ à¸Īà¸°à¹Ħà¸Ľ
à¸ģ à¹ĥà¸Ļà¸Ĺ
à¸Ńà¸ļ à¸«
à¹Ĩ à¸Ķ
à¸ģ à¸²à¸Ķ
à¸Ĺà¸²à¸ĩ à¹ģà¸ģ
à¸ļà¸²à¸Ķ à¹ģà¸ľà¸¥
à¸Ńà¸ĩ à¹Ģà¸Ńà¸ĩ
Ġh ol
à¸§à¸ĩ à¹Ģà¸ģ
à¹Ħà¸Ĺà¸¢ à¹Ģà¸Ľ
Ġd i
à¸Ńà¸Ħà¸§à¸²à¸¡ à¸Ļ
à¸Ńà¸Ļà¸ŀ à¸¤à¸©à¸łà¸²à¸Ħà¸¡
à¸Ńà¸ĩ à¸Ńà¸Ńà¸ģà¹Ħà¸Ľ
à¸ĩà¹Ħà¸Ľ à¹Ħà¸Ķ
à¹Ħà¸Ľ à¹Ħà¸ģà¸¥
à¹ĥà¸Ļà¸ģà¸²à¸£ à¸Ľ
à¸§à¸²à¸ĩ à¸Ī
à¸Ń à¸Ńà¸Ļà¸²à¸Ħà¸ķ
à¸ģà¸ļà¸²à¸ĩ à¹ģà¸«
à¸µ /
à¸²à¸ª à¸°à¸ŀ
à¹Ħà¸Ł à¸ķ
à¸ĩà¹Ħà¸ĩ à¸§
m g
à¸Ļà¸¢ à¸Ńà¸¡à¹ĥà¸«
Ġh un
Ġmarket ing
Ġà¹ģ à¸Ĺà¸£
Ġà¸¡ à¸²à¸ķà¸£à¸Ĳà¸²à¸Ļ
à¸Ńà¸Ńà¸ģ à¹ĥà¸«
à¸Ļà¸Ń à¸²à¸£à¸¡à¸ĵ
Ġà¸ļà¸²à¸Ĺ à¹Ģà¸Ĺ
ic om
à¸Ńà¸Ńà¸ģ à¹Ģà¸¥à¸¢
Ġà¸Ħà¸§à¸²à¸¡ à¸Ļ
à¸ĩà¸²à¸Ļ à¸£
à¸Ńà¸¢à¸²à¸ģ à¸ĸà¸²à¸¡à¸§
à¸ĩà¸£à¸ĸ à¹Ģà¸¡à¸¥
à¸Ĥà¸Ńà¸ĩ à¸Ĭà¸²à¸ķ
à¸° à¹ģà¸Ħ
à¸²à¸Ļ à¸Ļà¸°à¸Ħà¸£
à¹ģà¸ŀ à¸Ħà¹Ģà¸ģà¸Ī
à¸Ńà¸ļ à¸Īà¸°
à¸Ń à¸ķà¸£à¸§à¸Ī
Ġ order
à¸ģà¸£à¸°à¸Ĺ à¸ļ
à¸Ħà¸£ à¸ŀà¸Ļ
à¸²à¸¥ à¸²à¸¢à¸ª
Ġm ost
z en
à¸Ļà¸¡à¸² à¹ĥà¸«à¸¡
à¸Ļà¸¡à¸²à¸Ļà¸²à¸Ļ à¹ģà¸¥
à¸Ħà¸Ļ à¸§
Ġà¸Ń à¸Ńà¸ģà¸ķ
Ġex o
Ġà¸£à¸ĸ à¸ļà¸£à¸£à¸Ĺ
à¸Ĭà¸Ńà¸ļ à¹Ģà¸ŀ
à¸¡ à¸ģà¸²à¸£à¸Ĺ
à¹ģ à¸Ńà¸Ļà¸ķ
à¸Ļ à¹Ĥà¸Ĺà¸©
Ġà¸ģ à¸Ńà¸¥
Ġà¹Ģà¸¥ à¸¢à¸§
à¸²à¹Ĥ à¸«à¸¥
20 14
à¸²à¸«à¸Ļ à¸²à¸§
à¹Ģà¸ªà¸¡ à¸Ńà¸ģ
à¸Ļà¹Ħà¸Ľ à¸Ĭ
à¸ĩ à¹ģà¸Łà¸Ļà¹Ģà¸ģ
Ġn ow
à¸²à¸Ĥà¸Ńà¸ĩ à¸£à¸ĸ
à¸ĩ à¸ļà¸ª
à¸«à¸²à¸¢à¹Ħà¸Ľ à¹Ħà¸«à¸Ļ
Ġ5 99
à¸ŀà¸²à¸ģà¸© à¸²
à¸Ļà¹ģ à¸Ĭà¸£
à¸Ķà¸ģà¸²à¸£ à¸Ļ
Ġà¸ķà¸²à¸¡ à¸Ĭ
Ġà¸ľà¸¡ à¸Ńà¸¢à¸²à¸ģà¸Ĺà¸£à¸²à¸ļà¸§
à¸²à¸¢ à¸¥à¸°à¹Ģà¸Ń
à¸ļà¸Ńà¸ģ à¸¥
Ġc it
à¸Ļà¸° à¸ª
k i
à¸§à¸ĩà¹ĥ à¸¢
ðŁĻı ðŁı»
à¹Ħà¸Ń à¹Ģà¸Ń
à¸Ń à¹ģà¸ĸ
Ġà¹ģà¸ļà¸ļ à¸¡
à¸ĩà¸ĩà¸ĩà¸ĩ à¸ĩà¸ĩà¸ĩà¸ĩ
à¸¨à¸²à¸¥ à¸Ī
à¸Ĵà¸Ļ à¸²à¸Ħ
à¸ªà¸¥ à¸²à¸¢
à¸¥à¸ĩ à¸¡à¸ķ
Ġt ur
f df
à¸¨à¸²à¸ªà¸Ļ à¸²à¸ŀ
à¸²à¸ªà¸²à¸ĺà¸²à¸£à¸ĵ à¸ł
à¸²à¹Ħà¸Ľ à¹Ģà¸ģ
Ġà¸Īà¸° à¸«
à¹Ĥà¸Ħà¸£ à¸ķ
c y
am m
à¸¡à¸²à¸Ĥ à¸Ńà¸Ħ
à¸ĩ à¹Ĥà¸Ľ
n ing
Ġtrans late
Ġà¸Ļ à¸²à¸Ħ
à¸ģ à¹Ģà¸§à¸¥à¸²
à¸Ń à¹Ħà¸ĭà¸Ħ
à¸²à¸ĩ à¹ĥà¸Ĭ
à¸²à¹ĥà¸Ī à¹Ģà¸£
Ġà¸ķà¸Ńà¸Ļà¹ģà¸£à¸ģ à¸Ħ
Ġal bum
âĿ Į
à¸ļà¸ª à¹Ĥà¸¡à¸ªà¸£
à¸²à¸«à¸¡ à¸ĵ
à¸Ħà¸§à¸²à¸¡ à¸«à¸¥à¸²à¸ģà¸«à¸¥à¸²à¸¢
à¸ĸà¸²à¸¡ à¸«à¸Ļ
à¸ģ à¸Ńà¸Ńà¸ģà¹ģà¸ļà¸ļ
à¸ĩà¸Ĺ à¸Ńà¸ĩ
à¸Ļà¸Ħà¸£ à¸ªà¸§à¸£à¸£à¸Ħ
à¸Ńà¸ļ à¸Ķ
10 5
à¸²à¸ĩà¸ģ à¸²à¸¢à¸Ĺ
à¸²à¸ľà¸¡ à¹Ħà¸Ķ
à¹Ģà¸ģ à¸¡à¸£
r ay
à¹Ĥà¸¢à¸ļ à¸²à¸¢à¸Ĥà¸Ńà¸ĩ
à¸£à¸ĸ à¹Ĥà¸Ķà¸¢à¸ªà¸²à¸£
à¸ļà¹Ģà¸£ à¸²à¸¡à¸²à¸ģ
à¹Ħà¸Ľ à¹Ģà¸ŀ
à¸Ī à¸ģà¸²à¸£à¸Ĺ
à¸Ħà¸Ļ à¹Ģà¸Ĭ
à¸Ļ à¸ľà¸¡à¹Ħà¸¡
à¸« à¸²à¸ł
à¸© à¸²
à¸ĩà¸ģà¸¤à¸© à¸ģ
à¸ĩà¸Ħà¸§à¸²à¸¡ à¸ķ
à¸ĩà¸Ħ à¸¡à¸Ńà¸Ńà¸Ļà¹Ħà¸¥à¸Ļ
à¸§ à¹Ģà¸£à¸²à¹Ģà¸Ľ
à¹Ģà¸¥à¸¢ à¸Ńà¸¢à¸²à¸ģà¸£
à¸ļà¸ķ à¸¥à¸²à¸Ķ
p i
à¹Ģà¸Ļ à¸ĭ
à¸§à¸Ļ à¸¢
Ġà¸¡ à¸²à¸¡
à¸Ķà¹Ģà¸ľà¸¢ à¸ĸ
à¹Ĥà¸Ľà¸£ à¸¢
à¸ŀà¸§à¸ģ à¹Ģà¸Ħ
à¸²à¹ģà¸¥à¸° à¸ª
à¸ķà¸Ńà¸²à¸ª à¸²
Ġà¹ģà¸Ł à¸Ĭ
à¸ĩà¸ģ à¸£à¸°à¸Ķ
à¸Ńà¸ĩ à¸£à¸²à¸Ĭ
à¹Ĥ à¸«à¸¡
à¸«à¸¥à¸²à¸¢à¸Ħà¸Ļ à¸ģ
ang o
à¸ĩà¹Ħà¸Ľ à¹Ģà¸¥à¸¢
à¸Ļà¹Ĥ à¸ŀ
à¸§ à¸¥à¸Ńà¸ĩ
Ġà¹Ĥ à¸Ńà¸¥
à¸Ĭà¸¡ à¸Ħà¸¥
Ġ à¸ĺà¸£à¸£à¸¡à¸Ĭà¸²à¸ķ
à¸Ńà¸ľà¸¡ à¸ķ
à¸ļà¸²à¸ĩ à¸ŀà¸¥
à¸²à¸¢ à¹Ģà¸Ħ
Ġey e
à¹Ģà¸ľ à¸¥à¸Ń
à¸Ĵà¸Ļ à¸²à¸Ľà¸£à¸°à¹Ģà¸Ĺà¸¨
à¸Ńà¸ĩ à¹Ģà¸«à¸Ļ
à¸§à¹Ħà¸Ľ à¹ģà¸¥
à¸²à¸¡ à¸Ĥ
à¸²à¹Ħà¸ĩ à¹ĥà¸«
à¸Ļ à¸ŀà¸£à¸£à¸Ħ
à¸ģà¸Ķ à¹Ħà¸¥à¸Ħ
à¸Ħà¸§à¸£ à¸Īà¸°à¹Ģà¸Ľ
Ġà¸Ļ à¸¨
à¸Ńà¸Ńà¸ģ à¹Ħà¸Ľà¸Ĺ
à¸ĩà¸²à¸Ļ à¹ĥà¸«à¸¡
Ġà¸ļà¸£ à¸£à¸Ķ
à¸Ķ à¸¡à¸²à¹ģà¸¥
Ġr t
à¸ģ à¹Ģà¸ļà¸Ńà¸£
à¸Ħà¸§à¸²à¸¡ à¸«
à¸²à¸Ļ à¹Ģà¸Ń
Ġf ollow
à¸ĩ à¹Ĥà¸Ĭ
à¸¢à¸¡ à¸Ħ
à¸¢à¸Ļ à¹Ģà¸ļà¸Ńà¸£
à¸Ńà¸°à¹Ħà¸£ à¹ģà¸Ļà¸°à¸Ļ
s b
à¸¥à¸ĩ à¸Ń
à¹ģà¸Ķà¸Ļ à¸ĭ
à¸ģà¸£ à¸Ķ
à¸¢ à¹ģà¸Ħ
à¸ĩà¹ģ à¸ªà¸Ļ
à¸Ń à¸Ńà¸¢à¸²à¸ģà¸Īà¸°
[...]
