{"<s>":0,"<pad>":1,"</s>":2,"<unk>":3,"<mask>":4,"!":5,"\"":6,"#":7,"$":8,"%":9,"&":10,"'":11,"(":12,")":13,"*":14,"+":15,",":16,"-":17,".":18,"/":19,"0":20,"1":21,"2":22,"3":23,"4":24,"5":25,"6":26,"7":27,"8":28,"9":29,":":30,";":31,"<":32,"=":33,">":34,"?":35,"@":36,"A":37,"B":38,"C":39,"D":40,"E":41,"F":42,"G":43,"H":44,"I":45,"J":46,"K":47,"L":48,"M":49,"N":50,"O":51,"P":52,"Q":53,"R":54,"S":55,"T":56,"U":57,"V":58,"W":59,"X":60,"Y":61,"Z":62,"[":63,"\\":64,"]":65,"^":66,"_":67,"`":68,"a":69,"b":70,"c":71,"d":72,"e":73,"f":74,"g":75,"h":76,"i":77,"j":78,"k":79,"l":80,"m":81,"n":82,"o":83,"p":84,"q":85,"r":86,"s":87,"t":88,"u":89,"v":90,"w":91,"x":92,"y":93,"z":94,"{":95,"|":96,"}":97,"~":98,"¡":99,"¢":100,"£":101,"¤":102,"¥":103,"¦":104,"§":105,"¨":106,"©":107,"ª":108,"«":109,"¬":110,"®":111,"¯":112,"°":113,"±":114,"²":115,"³":116,"´":117,"µ":118,"¶":119,"·":120,"¸":121,"¹":122,"º":123,"»":124,"¼":125,"½":126,"¾":127,"¿":128,"À":129,"Á":130,"Â":131,"Ã":132,"Ä":133,"Å":134,"Æ":135,"Ç":136,"È":137,"É":138,"Ê":139,"Ë":140,"Ì":141,"Í":142,"Î":143,"Ï":144,"Ð":145,"Ñ":146,"Ò":147,"Ó":148,"Ô":149,"Õ":150,"Ö":151,"×":152,"Ø":153,"Ù":154,"Ú":155,"Û":156,"Ü":157,"Ý":158,"Þ":159,"ß":160,"à":161,"á":162,"â":163,"ã":164,"ä":165,"å":166,"æ":167,"ç":168,"è":169,"é":170,"ê":171,"ë":172,"ì":173,"í":174,"î":175,"ï":176,"ð":177,"ñ":178,"ò":179,"ó":180,"ô":181,"õ":182,"ö":183,"÷":184,"ø":185,"ù":186,"ú":187,"û":188,"ü":189,"ý":190,"þ":191,"ÿ":192,"Ā":193,"ā":194,"Ă":195,"ă":196,"Ą":197,"ą":198,"Ć":199,"ć":200,"Ĉ":201,"ĉ":202,"Ċ":203,"ċ":204,"Č":205,"č":206,"Ď":207,"ď":208,"Đ":209,"đ":210,"Ē":211,"ē":212,"Ĕ":213,"ĕ":214,"Ė":215,"ė":216,"Ę":217,"ę":218,"Ě":219,"ě":220,"Ĝ":221,"ĝ":222,"Ğ":223,"ğ":224,"Ġ":225,"ġ":226,"Ģ":227,"ģ":228,"Ĥ":229,"ĥ":230,"Ħ":231,"ħ":232,"Ĩ":233,"ĩ":234,"Ī":235,"ī":236,"Ĭ":237,"ĭ":238,"Į":239,"į":240,"İ":241,"ı":242,"Ĳ":243,"ĳ":244,"Ĵ":245,"ĵ":246,"Ķ":247,"ķ":248,"ĸ":249,"Ĺ":250,"ĺ":251,"Ļ":252,"ļ":253,"Ľ":254,"ľ":255,"Ŀ":256,"ŀ":257,"Ł":258,"ł":259,"Ń":260,"à¸":261,"à¸²":262,"à¸²à¸":263,"à¸Ļ":264,"¹Ī":265,"à¹Ī":266,"à¸Ń":267,"¹Ģ":268,"à¹Ģ":269,"¹ī":270,"à¹ī":271,"à¹Ģà¸":272,"à¸£":273,"à¸ģ":274,"à¸±":275,"à¸¡":276,"à¸ĩ":277,"à¸µ":278,"à¸§":279,"à¸¢":280,"à¸Ķ":281,"à¸ļ":282,"à¸Ħ":283,"à¸¥":284,"à¸°":285,"¹Ħ":286,"à¹Ħ":287,"à¸Ĺ":288,"à¸´":289,"à¸ķ":290,"¹ģ":291,"à¹ģ":292,"à¸«":293,"à¸ª":294,"à¸Ī":295,"à¸·":296,"à¸Ľ":297,"¹ĥ":298,"à¹ĥ":299,"¹ĩ":300,"à¹ĩ":301,"à¸µà¹Ī":302,"à¸Ńà¸ĩ":303,"à¸¹":304,"à¸¸":305,"à¸Ĥ":306,"à¸Ĭ":307,"à¸ŀ":308,"à¸²à¸£":309,"à¸²à¸ģ":310,"¹į":311,"à¹į":312,"à¸²à¸Ļ":313,"Ġà¹Ģà¸":314,"à¸²à¸¢":315,"¹Į":316,"à¹Į":317,"à¸²à¸ĩ":318,"à¸²à¸¡":319,"à¹Ħà¸¡":320,"¹Ĥ":321,"à¹Ĥ":322,"à¸Ńà¸¢":323,"à¹ģà¸¥":324,"à¸Ńà¸Ļ":325,"à¸ĸ":326,"à¸·à¹Ī":327,"à¸ľ":328,"à¹Ģà¸£":329,"à¸¶":330,"à¸£à¸°":331,"à¹Ħà¸Ķ":332,"à¸Ħà¸£":333,"à¹Ģà¸Ľ":334,"à¸ģà¸²à¸£":335,"à¹ĥà¸«":336,"à¹Ħà¸Ľ":337,"à¹Ģà¸¥":338,"à¸±à¹ī":339,"à¸µà¹ī":340,"à¸Ńà¸ģ":341,"à¸Īà¸°":342,"à¸«à¸Ļ":343,"à¹ĥà¸Ļ":344,"à¸¹à¹ī":345,"Ġà¹ģ":346,"à¸ĵ":347,"à¸ĭ":348,"à¸Ńà¸ļ":349,"à¹ģà¸¥à¸°":350,"à¸²à¸§":351,"à¸Ħà¸Ļ":352,"à¸§à¸¢":353,"à¸²à¸Ħ":354,"à¸Ħà¸§":355,"à¸į":356,"à¹Ģà¸Ĥ":357,"à¸Ľà¸£à¸°":358,"à¸²à¸Ĺ":359,"à¸Ĥà¸Ńà¸ĩ":360,"Ġà¸ģ":361,"Ġà¸Ĺ":362,"à¹Ģà¸ģ":363,"Ġà¸ª":364,"à¹Ģà¸«":365,"à¹Ģà¸Ķ":366,"à¹Ģà¸ŀ":367,"à¸Ļà¸Ĺ":368,"à¸Ł":369,"à¸¹à¹Ī":370,"Ġà¸¡":371,"à¸«à¸¥":372,"à¸²à¸Ī":373,"à¸ł":374,"à¸Ħà¸§à¸²à¸¡":375,"à¸¨":376,"à¸²à¸«":377,"à¸ĺ":378,"à¹Ģà¸Ħ":379,"à¹Ģà¸¥à¸¢":380,"à¸ģà¸¥":381,"Ġà¸ķ":382,"à¸²à¸ķ":383,"à¸Ńà¸¡":384,"à¸£à¸²à¸":385,"à¸«à¸¡":386,"à¹Ģà¸Ĺ":387,"à¸«à¸£":388,"à¸§à¸Ļ":389,"à¸ľà¸¡":390,"Ġà¸Ħ":391,"à¸Īà¸²à¸ģ":392,"¹Ĩ":393,"à¹Ĩ":394,"Ġ1":395,"à¸¡à¸²à¸ģ":396,"Ġà¹ģà¸ķ":397,"à¸©":398,"à¸Ļà¸°":399,"à¹ĥà¸Ī":400,"Ġà¸ŀ":401,"à¹ĥà¸Ĭ":402,"Ġ2":403,"à¸ļà¸ļ":404,"..":405,"à¸´à¹Ī":406,"Ġà¸Ļ":407,"à¹Ģà¸ª":408,"Ġà¸£":409,"ĠĊ":410,"à¸²à¸Ķ":411,"à¸Ńà¸Ķ":412,"à¹Ħà¸£":413,"Ġà¹ģà¸¥à¸°":414,"à¸²à¸ª":415,"à¸¢à¸Ļ":416,"à¸±à¹Ī":417,"à¸ģà¸£":418,"à¸ķà¸£":419,"à¹ģà¸ķ":420,"âĢ":421,"à¸Ńà¸°":422,"à¸²à¸¥":423,"à¸Ńà¸£":424,"à¸¢à¸§":425,"à¸·à¹ī":426,"à¸Ļà¸Ļ":427,"Ġà¹Ģà¸£":428,"à¹Ģà¸¡":429,"à¸²à¸Ń":430,"à¸¡à¸²":431,"à¹Ģà¸Ń":432,"Ġà¸Ń":433,"à¹Ĥà¸Ķ":434,"à¹Ģà¸Ī":435,"Ġà¸Ī":436,"à¸²à¸ŀ":437,"à¸ģà¸§":438,"à¸ļà¸£":439,"à¸¶à¹Ī":440,"Ġà¹Ģà¸ŀ":441,"à¸ĩà¸²à¸Ļ":442,"00":443,"à¹Ģà¸§":444,"à¸Ńà¸¢à¸²à¸ģ":445,"à¸Ħà¸°":446,"Ġà¸Ĥ":447,"à¸§à¸ĩ":448,"Ġà¹Ħà¸¡":449,"à¸¸à¹Ī":450,"à¹Ģà¸ķ":451,"à¸£à¸²à¸°":452,"55":453,"à¹ģà¸ļà¸ļ":454,"à¸ĩà¸Ĺ":455,"à¸Ļà¸ģ":456,"à¹Ģà¸Ļ":457,"à¸¶à¹ī":458,"à¹Ģà¸£à¸²":459,"Ġà¸ļ":460,"à¹Ģà¸Ĭ":461,"Ġà¸Ľ":462,"à¸Ĺà¸¢":463,"--":464,"à¸²à¸Īà¸°":465,"à¸Ļà¸ķ":466,"à¸ĩà¸ª":467,"Ġà¸§":468,"à¹īà¹į":469,"Ġà¸ĸ":470,"à¸¡à¸²à¸":471,"à¸§à¸¡":472,"Ġà¸Ĭ":473,"à¸£à¸¡":474,"à¸¢à¸ĩ":475,"à¸²à¹Ħà¸¡":476,"à¹Ĥà¸Ķà¸¢":477,"à¸Ļà¸ª":478,"à¸Ńà¸°à¹Ħà¸£":479,"à¸²à¸ļ":480,"à¸Ĳ":481,"à¹Ģà¸Ńà¸ĩ":482,"à¸§à¸ģ":483,"à¸Ļà¸Ķ":484,"Ġ3":485,"à¸Ńà¸Ńà¸ģ":486,"à¹Ģà¸ĩ":487,"Ġs":488,"à¸¥à¸°":489,"ðŁ":490,"à¸ĩà¸Ħ":491,"Ġà¸ĭ":492,"à¸«à¸§":493,"in":494,"à¸¥à¸ĩ":495,"à¸²à¹ģ":496,"Ġà¹Ģà¸Ľ":497,"¹Ĭ":498,"à¹Ĭ":499,"à¸ĩà¸ģ":500,"à¸Ļà¸Ħ":501,"à¸Īà¸£":502,"à¸²à¸Ĭ":503,"à¸²à¹ĥà¸«":504,"Ġà¹ģà¸¥":505,"à¸²à¸Ĥ":506,"Ġà¸Ķ":507,"Ġ(":508,"à¸Ľà¸£":509,"à¸Ŀ":510,"à¸¢à¸ģ":511,"à¹ĥà¸Ħà¸£":512,"à¸Ĺà¸£":513,"an":514,"à¹Ħà¸Ĺà¸¢":515,"Ġ#":516,"Ġà¸«à¸£":517,"à¹Ģà¸ļ":518,"à¸Ļà¸¡":519,"à¹Ħà¸«à¸Ļ":520,"à¸ģà¸ģ":521,"er":522,"Ġà¸¥":523,"on":524,"à¸ľà¸¥":525,"à¹Ħà¸§":526,"à¸Ĺà¸²à¸ĩ":527,"à¸ķà¸²à¸¡":528,"à¹ģà¸¡":529,"Ġà¸ľà¸¡":530,"à¸Ļà¸§":531,"à¹ģà¸£":532,"Ġt":533,"à¸Ńà¸ª":534,"à¸ĩà¸Ļ":535,"Ġà¹Ĥ":536,"à¸łà¸²à¸ŀ":537,"Ġà¸¢":538,"à¸ŀà¸£":539,"Ġc":540,"à¸ļà¸Ńà¸ģ":541,"à¹Ħà¸«à¸¡":542,"à¹Ģà¸¢":543,"à¸ģà¸£à¸°":544,"à¹Ģà¸§à¸¥":545,"à¸´à¹ī":546,"à¸ģà¸©":547,"à¸Ńà¸Ļà¸Ļ":548,"Ġà¹Ģà¸ŀà¸£à¸²à¸°":549,"à¸ģà¸ķ":550,"à¸ģà¸Ĺ":551,"Ġà¸Īà¸°":552,"à¸Ľà¸¥":553,"à¸ªà¸¡":554,"ĠâĢ":555,"à¸ĩà¹Ħà¸¡":556,"à¸ªà¸Ļ":557,"à¹Ģà¸«à¸¡":558,"à¹ĥà¸«à¸¡":559,"à¸ī":560,"à¸²à¹Ħà¸Ľ":561,"Ġà¹ĥà¸Ļ":562,"à¸²à¸£à¸ĸ":563,"à¸²à¹Ģà¸Ľ":564,"à¹Ģà¸Ħà¸¢":565,"à¸ªà¸Ķ":566,"à¸²à¸Ľ":567,"à¹ģà¸ģ":568,"Ġà¹Ĥà¸Ķà¸¢":569,"à¸²à¹Ģà¸£":570,"Ġà¸«":571,"à¸Ńà¸§":572,"à¸ļà¸ģ":573,"à¹Ģà¸Ĺà¸¨":574,"à¸ĩà¸ķ":575,"à¸Ļà¸Ń":576,"à¹Ĥà¸£":577,"Ġa":578,"à¸Ħà¸¥":579,"à¸Ńà¸¥":580,"Ġà¸ľ":581,"à¸²à¸«à¸Ļ":582,"à¸Ļà¸¢":583,"Ġm":584,"à¹Ħà¸ĩ":585,"Ġà¹Ģà¸¥":586,"à¸Ļà¹Ħà¸Ľ":587,"Ġ4":588,"à¹Ģà¸Ħà¸£":589,"à¸ĩà¸¡":590,"à¸Ķà¸Ĺ":591,"Ġp":592,"à¸£à¸ĸ":593,"à¹Ģà¸Ľà¸¥":594,"à¸²à¸¡à¸²à¸£à¸ĸ":595,"à¸Ĭà¸Ńà¸ļ":596,"à¸Ļà¹ģ":597,"Ġà¹Ģà¸¡":598,"re":599,"à¸ĸà¸²à¸¡":600,"Ġ5":601,"----":602,"à¸²à¸Ńà¸¢":603,"Ġà¹Ħà¸Ķ":604,"à¸®":605,"à¹Ģà¸ĭ":606,"âĢĿ":607,"à¹Ģà¸ŀà¸£à¸²à¸°":608,"Ġà¸Ńà¸¢à¸²à¸ģ":609,"Ġb":610,"à¸²à¸ģà¸²à¸£":611,"Ġà¹Ģà¸Ĥ":612,"à¸²à¸«à¸£":613,"à¸§à¸Ī":614,"à¸Ľà¸£à¸°à¹Ģà¸Ĺà¸¨":615,"Ġà¸Ħà¸Ļ":616,"à¸ĩà¸Ĥ":617,"à¸²à¸ĩà¸²à¸Ļ":618,"à¸¸à¹ī":619,"à¸Ńà¸ĩà¸Ĺ":620,"à¸Łà¸Ļ":621,"Ġh":622,"à¸«à¸¥à¸²à¸¢":623,"à¸Ķà¸ª":624,"¹ĭ":625,"à¹Ĥà¸¥":626,"à¹ĭ":627,"à¸Ķà¸ķ":628,"à¹ģà¸Ħ":629,"à¸¢à¸¡":630,"ĠâĢľ":631,"à¸ŀà¸£à¸°":632,"ar":633,"à¸²à¸¨":634,"à¸ļà¸Ĺ":635,"Ġà¸Ńà¸¢":636,"à¸Ĺà¸ĺ":637,"or":638,"à¹Ģà¸«à¸¥":639,"à¸Ńà¸ķ":640,"à¹ĥà¸«à¸į":641,"...":642,"à¸²à¸ĸ":643,"à¸ĵà¸°":644,"en":645,"à¸Ļà¸°à¸Ħà¸°":646,"à¸Ńà¸ļà¸Ħ":647,"à¹ģà¸Ĺ":648,"à¸Ńà¸Ĺ":649,"à¸Ķà¸§":650,"Ġà¹Ģà¸«":651,"à¸Ńà¸Ħ":652,"à¸£à¸²à¸¢":653,"at":654,"Ġf":655,"à¹ĥà¸ª":656,"à¸¡à¸²à¸ĵ":657,"à¸²à¸°":658,"à¸²à¸ľ":659,"Ġ\"":660,"om":661,"à¸Ļà¸°à¸Ļ":662,"à¸Ļà¹Ħà¸¡":663,"à¸«à¸¡à¸Ķ":664,"à¸ŀà¸¥":665,"Ġà¹Ģà¸Ħ":666,"Ġ:":667,"à¹ģà¸ļà¸ļà¸Ļ":668,"à¸ĩà¸§":669,"Ġà¹Ģà¸Ķ":670,"à¸£à¸£à¸¡":671,"al":672,"à¸ļà¸Ļ":673,"Ġà¸ģà¸²à¸£":674,"à¸¡à¸Ļ":675,"Ġl":676,"à¸Ľà¸£à¸°à¸Ĭ":677,"à¸¢à¸Ķ":678,"à¸§à¹Ģà¸Ńà¸ĩ":679,"à¸²à¹Ħà¸Ķ":680,"à¸ŀà¸¢":681,"à¸£à¸²à¸ļ":682,"à¹Ģà¸«à¸ķ":683,"à¹Ħà¸Ł":684,"à¸¢à¸§à¸ģ":685,"à¸Ńà¸Ń":686,"à¸Ļà¸£":687,"à¸ģà¸Ķ":688,"à¸įà¸«":689,"Ġ6":690,"à¸ļà¸ª":691,"à¸Ľà¸£à¸°à¸ģ":692,"à¸ĩà¹Ħà¸ĩ":693,"Ġà¸ģà¸¥":694,"à¸ļà¸ģà¸²à¸£":695,"Ġà¸ļà¸²à¸Ĺ":696,"à¸§à¸£":697,"à¸Ļà¸Ĺà¸²à¸ĩ":698,"à¹Ģà¸£à¸²à¸ģ":699,"Ġà¸«à¸¥":700,"à¹ģà¸£à¸ģ":701,"à¸Ļà¹Ħà¸Ķ":702,"à¸ģà¸ª":703,"à¸¤":704,"à¸Ļà¸Ħà¸Ļ":705,"Ġà¸Ħà¸£":706,"Ġà¸Īà¸²à¸ģ":707,"à¸¥à¸Ńà¸Ķ":708,"à¸Ĭà¸²à¸¢":709,"âĢĭ":710,"à¸Ńà¸ĩà¸Ļ":711,"it":712,"à¸ģà¸£à¸£à¸¡":713,"Ġd":714,"à¸¢à¸ļ":715,"à¸ŀà¸Ń":716,"à¸Ĥà¸Ń":717,"à¸Ļà¸ļ":718,"à¸¯":719,"à¸Ńà¸Ļà¸ģ":720,"ic":721,"à¸«à¸¡à¸²à¸¢":722,"à¸ĺà¸£à¸£à¸¡":723,"à¹Ģà¸¢à¸Ńà¸°":724,"à¸ļà¸ķ":725,"à¸ªà¸²à¸¡à¸²à¸£à¸ĸ":726,"à¸Ļà¸ģà¸²à¸£":727,"à¸Ļà¸Ĭ":728,"à¸Ľà¸£à¸°à¸¡à¸²à¸ĵ":729,"à¸Ļà¸Ńà¸¢":730,"Ġw":731,"à¸ģà¸Ħ":732,"à¸Ħà¸§à¸£":733,"à¸ªà¸£":734,"à¸ªà¸Ńà¸ļ":735,"Ġà¸Ĥà¸Ńà¸ĩ":736,"à¸ĩà¹ģà¸ķ":737,"à¸ļà¸¡":738,"à¸Ħà¸§à¸²à¸¡à¸£":739,"....":740,"à¸Ļà¸Ĥ":741,"Ġà¹Ħà¸Ľ":742,"à¸Īà¸°à¸¡":743,"à¸Ļà¸ŀ":744,"à¸Ĭà¸²à¸ķ":745,"à¹ģà¸Łà¸Ļ":746,"à¸Ļà¸Ī":747,"5555":748,"am":749,"à¹Ģà¸ī":750,"à¸ĩà¸£":751,"à¸ģà¸Ħà¸Ļ":752,"à¹Ħà¸Ĥ":753,"Ġg":754,"tt":755,"à¸Ļà¹Ģà¸Ľ":756,"à¸²à¸Ĥà¸Ńà¸ĩ":757,"st":758,"à¸¡à¸Ĺ":759,"à¸Ļà¹ĥà¸Ī":760,"à¸ĩà¹Ģà¸£":761,"Ġ-":762,"à¸Ļà¸°à¸Ħà¸£":763,"ou":764,"à¸ĩà¸Ķ":765,"à¸§à¸Ķ":766,"à¸ļà¸Ħ":767,"000":768,"à¸Ńà¹Ħà¸¡":769,"à¸£à¸²à¸Ĭ":770,"à¹ĥà¸Ļà¸ģà¸²à¸£":771,"Ġ25":772,"à¸ĩà¹Ģà¸Ľ":773,"//":774,"à¹Ħà¸¥":775,"à¸«à¸²à¸¢":776,"à¸Ĭà¸Ļ":777,"Ġà¹Ģà¸Ń":778,"à¹Ģà¸¨":779,"à¸Ļà¹Ģà¸£":780,"à¹ģà¸Ī":781,"Ġà¸«à¸Ļ":782,"à¸Ńà¸Ļà¸Ĺ":783,"à¸Ĥà¸²à¸¢":784,"à¸£à¸Ħ":785,"Ġ20":786,"à¸«à¸²à¸£":787,"à¸²à¹ĥà¸Ī":788,"il":789,"à¸Ńà¸ĩà¸ģ":790,"à¸Ļà¹Ģà¸Ķ":791,"à¸²à¸ĺ":792,"ac":793,"à¸²à¸ĩà¸Ĺ":794,"Ġà¹ĥà¸«":795,"à¸ĸà¸²à¸Ļ":796,"à¹Ĥà¸¡":797,"à¸Ķà¸ģ":798,"à¸ĩà¸Īà¸²à¸ģ":799,"Ġà¸ŀà¸£":800,"à¹Ģà¸Ńà¸ģ":801,"à¸Ńà¸Ħà¸§à¸²à¸¡":802,"à¸Ńà¹Ħà¸Ľ":803,"à¸²à¸ĩà¸ģ":804,"Ġà¹Ģà¸Ĭ":805,"à¸«à¸į":806,"à¹ģà¸ŀ":807,"à¸Ńà¸Ľ":808,"Ġ7":809,"à¸Ńà¸ĩà¸ģà¸²à¸£":810,"Ġn":811,"à¸Ķà¸Ļ":812,"à¸Ńà¸ĩà¸¡":813,"à¸¡à¸ķ":814,"à¸ĩà¸Īà¸°":815,"à¸²à¹Ģà¸Ĥ":816,"à¹Ĥà¸Ĺà¸£":817,"à¸Ĵ":818,"Ġà¹Ģà¸ģ":819,"Ġà¹Ģà¸¥à¸¢":820,"à¸Ńà¸ĩà¸Ħ":821,"à¸Ńà¸ĩà¸£":822,"à¹ģà¸«":823,"à¸Ļà¸²à¸Ķ":824,"à¹ģà¸Ĥ":825,"**":826,"à¹ģà¸Ļ":827,"à¸įà¸į":828,"à¸Ļà¸Ħà¸£":829,"Ġà¸ķà¸Ńà¸Ļà¸Ļ":830,"à¹Ģà¸ĺ":831,"à¸ı":832,"à¸²à¸©":833,"à¸¢à¸£":834,"à¸²à¸«à¸²à¸£":835,"à¸ĩà¸«à¸§":836,"is":837,"à¸Ļà¸ľ":838,"à¸İ":839,"à¸Ħà¸Ļà¸Ĺ":840,"à¸ĩà¸ģà¸²à¸£":841,"à¸Ķà¸Ĥ":842,"à¸Ļà¸¥":843,"à¹Ģà¸ªà¸£":844,"Ġà¹Ģà¸Ī":845,"à¸¡à¸ŀ":846,"à¸ģà¸Ħà¸£":847,"à¸ļà¸§":848,"oo":849,"à¸Ĺà¸£à¸²à¸ļ":850,"à¸Ļà¸ĺ":851,"à¸ĩà¸ļ":852,"Ġà¹Ģà¸§":853,"à¸Ķà¸Ķ":854,"à¸²à¸«à¸¥":855,"à¸§à¸§":856,"à¸Ľà¸£à¸°à¸ª":857,"à¹Ģà¸Ł":858,"à¸ģà¸Ļ":859,"à¸ģà¸Ńà¸¢":860,"à¸łà¸²à¸Ħ":861,"à¸Ļà¹ĥà¸Ļ":862,"à¸ģà¸£à¸°à¸Ĺ":863,"à¸Ńà¹ĥà¸«":864,"à¹Ģà¸ķà¸Ńà¸£":865,"à¸ļà¸Ńà¸ģà¸§":866,"Ġà¹Ģà¸ª":867,"à¸Ĳà¸²à¸Ļ":868,"à¸²à¹Ĥ":869,"à¸Ļà¸«à¸Ļ":870,"ww":871,"ttp":872,"à¸Ļà¸Īà¸°":873,"he":874,"à¸ªà¸ķ":875,"à¸ŀà¸§à¸ģ":876,"Ġà¸Ļà¸²à¸¢":877,"à¸Ļà¹Ģà¸ģ":878,"Ġ10":879,"à¸ĩà¹Ĩ":880,"Ġà¹ĥà¸Ħà¸£":881,"--------":882,"à¸Ħà¸§à¸²à¸¡à¸ª":883,"à¸¢à¸°":884,"à¹Ģà¸§à¸¥à¸²":885,"://":886,"le":887,"à¸²à¹Ģà¸Ļ":888,"à¹Ģà¸¥à¸¢à¸Ħ":889,"ĠðŁ":890,"__":891,"à¸Ļà¸«":892,"à¸ĩà¹ģ":893,"à¸²à¸Īà¸²à¸ģ":894,"Ġà¸Ĥà¸Ńà¸ļà¸Ħ":895,"à¸ĩà¸Ń":896,"à¸²à¸ĩà¹Ħà¸£":897,"à¸²à¸Ńà¸°":898,"à¸ĩà¸Ī":899,"com":900,"à¸²à¸²":901,"à¸ģà¸ĩà¸²à¸Ļ":902,"Ġe":903,"à¸łà¸²à¸©":904,"Ġà¹Ģà¸£à¸²à¸ģ":905,"à¹Ģà¸ľ":906,"à¸ļà¸²à¸Ĺ":907,"à¸¡à¸Ń":908,"à¸ªà¸²à¸£":909,"à¸¢à¸¢":910,"à¸£à¸°à¸Ĺ":911,"à¹Ģà¸Īà¸Ń":912,"à¹Ĥà¸ķ":913,"à¸²à¸ĭ":914,"ip":915,"à¸ļà¸²à¸ĩ":916,"à¸Ńà¸ĩà¸ª":917,"à¹ģà¸Ļà¸°à¸Ļ":918,"!!":919,"à¸¡à¸ª":920,"à¹Ĥà¸Ľà¸£":921,"à¹Ģà¸Ĥà¸²":922,"Ġ8":923,"à¸£à¸²à¸Ħ":924,"à¸ĩà¸ģà¸¥":925,"op":926,"à¸ļà¸²à¸¢":927,"Ġà¸ķà¸²à¸¡":928,"à¸§à¸Ĺ":929,"à¸´à¹Į":930,"à¸¥à¸Ķ":931,"ing":932,"à¸Ļà¸Ĥà¸Ńà¸ĩ":933,"ot":934,"à¸Ńà¹Ģà¸£":935,"à¸¥à¸²à¸Ķ":936,"à¸Ńà¸ĩà¸ķ":937,"Ġà¹Ģà¸Ļ":938,"Ġà¹ģà¸¡":939,"à¸²à¸Ńà¸°à¹Ħà¸£":940,"à¸Ļà¸²à¸¢":941,"à¸Ļà¸Ńà¸Ļ":942,"à¸Ļà¸Ľ":943,"à¸Ĵà¸Ļ":944,"à¸¡à¸¡":945,"à¹Ĥà¸¥à¸ģ":946,"à¸£à¸ĵ":947,"à¸²à¹Ħ":948,"à¸²à¸ĩà¸Ļ":949,"à¸Ńà¸²à¸Ī":950,"à¸Ļà¸ĸ":951,"à¸ĩà¹Ħà¸Ķ":952,"et":953,"à¸Ĭà¸¡":954,"à¸²à¸Ħà¸£":955,"à¸ķà¸¢":956,"à¸£à¸°à¸Ķ":957,"Ġà¹ĥà¸Ĭ":958,"à¸ķà¸Ńà¸Ļ":959,"à¸ķà¸£à¸§à¸Ī":960,"à¸²à¸Ļà¸§à¸Ļ":961,"à¸ģà¸¥à¸²à¸ĩ":962,"as":963,"à¸§à¸Ħ":964,"20":965,"à¸Ļà¸Ĺà¸£":966,"à¹ģà¸ªà¸Ķ":967,"à¸ģà¸²à¸£à¸Ĺ":968,"id":969,"à¸Ļà¸¡à¸²":970,"à¸«à¸¢":971,"à¸ĩà¹ĥà¸Ļ":972,"à¸§à¸¢à¸ģ":973,"à¸²à¸Ħà¸¡":974,"à¸łà¸²à¸¢":975,"à¸Ľà¸£à¸°à¸Ĭà¸²à¸Ĭ":976,"ad":977,"à¸ļà¸ľ":978,"à¸ĩà¸¢":979,"à¸²à¸ķà¸£":980,"à¹Ĥà¸Ĺ":981,"à¸²à¸Ľà¸£à¸°":982,"à¹Ħà¸Ń":983,"à¸£à¸°à¸«à¸§":984,"à¸Ļà¹Ģà¸ŀ":985,"à¸Ńà¸ĸ":986,"à¸ªà¸°":987,"el":988,"Ġk":989,"à¸ĩà¹ĥà¸Ī":990,"à¸ķà¸Ńà¸Ļà¸Ļ":991,"à¸£à¸ģ":992,"Ġ9":993,"à¸Ħà¸Ļà¸Ļ":994,"ion":995,"à¸²à¹ĥà¸Ļ":996,"à¸ģà¸²à¸£à¸ĵ":997,"à¸ĩà¸«à¸Ļ":998,"à¸²à¸ģà¸¥":999,"à¸¡à¸«":1000,"à¸²à¸£à¸°":1001,"à¸Ķà¸Ħ":1002,"à¸ĩà¸Ĭ":1003,"à¸Ľà¸£à¸°à¸Ī":1004,"Ġ0":1005,"à¸²à¹Ģà¸ŀ":1006,"à¸²à¸¢à¸Ĺ":1007,"à¸ģà¸£à¸ĵ":1008,"à¸Łà¸£":1009,"Ġà¹Ģà¸§à¸¥":1010,"++":1011,"à¹Ģà¸«à¸Ļ":1012,"à¹Īà¹į":1013,"à¹Ģà¸£à¸²à¹Ħà¸¡":1014,"à¹Ħà¸Ľà¸Ĺ":1015,"à¸ķà¸Ńà¸ļ":1016,"à¸ģà¸Ĥ":1017,"à¸Ļà¹ģà¸¥":1018,"ew":1019,"Ġà¹Ģà¸Ĺ":1020,"à¸ªà¸²à¸¢":1021,"Ġv":1022,"à¸²à¹Ģà¸Ķ":1023,"Ġ256":1024,"19":1025,"Ġà¹ģà¸ļà¸ļ":1026,"Ġr":1027,"ttps":1028,"à¸Ĩ":1029,"à¸Ńà¸Ĥ":1030,"à¹Ģà¸Ńà¸²":1031,"à¸²à¸£à¸§à¸Ī":1032,"à¹Ĥà¸¢":1033,"à¸Ĭà¸£":1034,"à¹Ĥà¸Ń":1035,"un":1036,"à¸¥à¸Ńà¸ĩ":1037,"ch":1038,"Ġà¸£à¸²à¸Ħ":1039,"à¸Ńà¸ŀ":1040,"à¸Īà¸Ī":1041,"à¸ļà¸²à¸¥":1042,"à¹ĥà¸ģà¸¥":1043,"à¸ļà¸ģà¸§à¸Ļ":1044,"à¹ĥà¸Ķ":1045,"à¸ĩà¹Ģà¸ģ":1046,"à¸Ńà¸ļà¸Ħà¸£":1047,"à¸²à¹Ģà¸ª":1048,"à¸¢à¸²à¸¢":1049,"es":1050,"à¸¥à¸°à¸Ħà¸£":1051,"à¸Ńà¸ľ":1052,"à¸Ķà¸£":1053,"à¸£à¸°à¸ļà¸ļ":1054,"à¹Ģà¹Ģà¸¥":1055,"à¸Ńà¹Ģà¸Ľ":1056,"à¸Ľà¸ģà¸ķ":1057,"à¸Īà¸°à¸Ĺ":1058,"à¸«à¸¥à¸°":1059,"à¸Ļà¸¡à¸²à¸ģ":1060,"à¸Ńà¸ģà¸²à¸ª":1061,"à¸²à¸ģà¸²à¸¨":1062,"à¸Ļà¹Ģà¸¥à¸¢":1063,"ay":1064,"à¸ļà¸Ĥ":1065,"à¸ĩà¸ĩà¸²à¸Ļ":1066,"à¸ķà¸Ļ":1067,"and":1068,"à¹Ħà¸¥à¸Ļ":1069,"à¸ĩà¸Ħà¸£":1070,"Ġà¸£à¸§à¸¡":1071,"à¸²à¸ĩà¸§":1072,"ol":1073,"Ġà¹Ģà¸£à¸²":1074,"à¸§à¸ª":1075,"à¸ĩà¸Ńà¸¢":1076,"à¸Īà¸°à¹Ģà¸Ľ":1077,"ig":1078,"à¹Ģà¸Ĺà¸ŀ":1079,"à¹ĥà¸ķ":1080,"à¸ĩà¸«":1081,"à¸ģà¸¡":1082,"à¸įà¸Ĭ":1083,"à¹Ħà¸«à¸¡à¸Ħà¸£":1084,"à¸ļà¹Ħà¸Ľ":1085,"us":1086,"10":1087,"à¸§à¸Ļà¸ķ":1088,"Ġà¸Ħà¸§à¸²à¸¡":1089,"à¸ĩà¹Ħà¸Ľ":1090,"Ġà¸¨":1091,"à¸²à¸Ħà¸²à¸£":1092,"à¸Ńà¸ĩà¸Īà¸²à¸ģ":1093,"à¹ģà¸ľ":1094,"à¸ĩà¸Ľ":1095,"à¸ĺà¸Ļ":1096,"à¹Ģà¸ŀà¸¥à¸ĩ":1097,"à¸Ńà¸²à¸¢":1098,"à¸¢à¸Ļà¸ķ":1099,"à¸Ńà¸ĩà¹Ģà¸Ĺ":1100,"Ġ15":1101,"th":1102,"à¸£à¸°à¸ļ":1103,"à¸Ńà¸ģà¸§":1104,"à¸¡à¸²à¸Ĭ":1105,"ðŁĺ":1106,"à¸²à¸Ħà¸§":1107,"à¸²à¹Ģà¸ģ":1108,"Ġà¸ļà¸£":1109,"à¹Ģà¸¥à¸Ĥ":1110,"à¸²à¸Ļà¸Ĺ":1111,"à¸²à¸¡à¸²à¸ģ":1112,"Ġà¹Ĩ":1113,"à¹ĥà¸ļ":1114,"à¸ĩà¸Ĥà¸Ńà¸ĩ":1115,"à¸ªà¸ĸà¸²à¸Ļ":1116,"à¸Ļà¹Ĥ":1117,"à¸ĩà¸ĩ":1118,"à¸Ńà¸ģà¸Īà¸²à¸ģ":1119,"à¸£à¸©":1120,"à¸ĩà¸ŀ":1121,"à¸¡à¸²à¸¢":1122,"à¸Ļà¹ĥà¸«":1123,"à¸¢à¸Ńà¸¡":1124,"Ġà¸ªà¸§":1125,"Ġo":1126,"à¸Ķà¸ĸ":1127,"Ġà¸Ľà¸¥":1128,"à¸Ķà¸Ń":1129,"à¸°à¹Ģà¸¥":1130,"à¸Ńà¸«":1131,"à¸Ńà¸ĩà¸Ķ":1132,"à¸ģà¸ŀ":1133,"à¸Ķà¸ķà¸²à¸¡":1134,"à¸Ļà¸²à¸Ļ":1135,"à¹ģà¸ĸ":1136,"à¸Ķà¸ģà¸²à¸£":1137,"à¸²à¹ĥà¸Ĭ":1138,"à¸§à¸ķ":1139,"ine":1140,"Ġà¸ķà¸Ńà¸Ļ":1141,"à¸Ļà¸ĭ":1142,"à¸Ńà¸²à¸«à¸²à¸£":1143,"ðŁĳ":1144,"à¸²à¹ģà¸¥":1145,"à¹Ĥà¸Ńà¸ģà¸²à¸ª":1146,"à¸Īà¸Ļ":1147,"à¸²à¸¢à¸Ļ":1148,"à¸¡à¸ģ":1149,"à¸¤à¸©":1150,"Ġà¸Ĥà¸Ń":1151,"à¸²à¸¢à¸ģ":1152,"à¸¡à¸Ĥ":1153,"à¸Ĭà¸²à¸§":1154,"à¸¥à¸ĩà¸Ĺ":1155,"à¸²à¹Ģà¸¥":1156,"à¸§à¸Ĥ":1157,"à¸ŀà¸²à¸°":1158,"à¸ķà¸¥à¸Ńà¸Ķ":1159,"à¸ļà¸Ńà¸¥":1160,"à¸²à¸ĵ":1161,"ag":1162,"à¸Ħà¸Ļà¸Ń":1163,"im":1164,"à¸Īà¸°à¹Ħà¸Ķ":1165,"à¸£à¸Ńà¸ļ":1166,"à¸ļà¸¥":1167,"à¸Ļà¹Ģà¸Ĥ":1168,"Ġre":1169,"à¸ģà¹Ģà¸£":1170,"à¸²à¸ĩà¸Ħà¸£":1171,"à¸²à¸Ħà¸§à¸²à¸¡":1172,"à¹ģà¸Ķ":1173,"à¸ĳ":1174,"ðŁĴ":1175,"Ġà¸ŀà¸Ńà¸Ķ":1176,"à¸Īà¸ļ":1177,"25":1178,"à¸ľà¸¡à¸ģ":1179,"à¸²à¸į":1180,"à¹Ĥà¸Ħà¸£":1181,"à¸ĩà¹ĥà¸«":1182,"à¸Ĺà¸£à¸²à¸ļà¸§":1183,"à¸Ķà¸¡":1184,"à¸¸à¹Ĭ":1185,"à¹Ģà¸¨à¸©":1186,"Ġin":1187,"à¸£à¸Ń":1188,"ent":1189,"à¸ŀà¸£à¸£à¸Ħ":1190,"à¸Ļà¹Ĩ":1191,"à¸°à¸§":1192,"à¸²à¸Ļà¸¡à¸²":1193,"à¹Ģà¸īà¸ŀà¸²à¸°":1194,"à¸¨à¸²à¸ª":1195,"Ġà¸£à¸²à¸¢":1196,"à¹ģà¸Ł":1197,"à¸²à¸Ļà¸Ļ":1198,"à¹Ħà¸Ľà¸Ķ":1199,"à¸ĩà¸Ħà¸§à¸²à¸¡":1200,"à¸¡à¸²à¸ģà¸ģà¸§":1201,"Ġà¸ŀà¸Ń":1202,"à¸ªà¸²à¸§":1203,"à¸£à¸§à¸¡":1204,"à¸°à¸Ħ":1205,"30":1206,"Ġthe":1207,"à¸Ńà¸ģà¸ķ":1208,"à¸Ĳà¸ļà¸²à¸¥":1209,"à¹Ĥà¸Ļ":1210,"à¸Īà¸°à¸ķ":1211,"à¸ģà¸ĭ":1212,"ro":1213,"Ġà¸«à¸¡":1214,"à¸Ľà¸£à¸°à¸ģà¸Ńà¸ļ":1215,"à¸Ļà¹ģà¸¥à¸°":1216,"à¸ĩà¸«à¸¡à¸Ķ":1217,"à¸ªà¸Ļà¹ĥà¸Ī":1218,"à¸²à¸£à¸ĵ":1219,"à¸ªà¸§à¸¢":1220,"à¸ļà¸Ķ":1221,"à¸Ĥà¸Ļà¸²à¸Ķ":1222,"Ġà¸Ľà¸£à¸°":1223,"à¸Īà¸°à¹Ħà¸¡":1224,"555":1225,"à¸§à¹Ħà¸Ľ":1226,"à¹Ģà¸ł":1227,"ed":1228,"à¸ŀà¸Ĺ":1229,"à¹Ĥà¸ģ":1230,"à¹ģà¸Ľ":1231,"à¸°à¸Ħà¸£":1232,"à¹Ģà¸ķà¸£":1233,"à¸²à¸Ńà¸¢à¸²à¸ģ":1234,"à¸ķà¸ķ":1235,"à¸įà¸²à¸ķ":1236,"Ġà¹Ģà¸«à¸¡":1237,"Ġà¹ģà¸ģ":1238,"Ġhttps":1239,"à¸ĩà¸¥":1240,"à¹Ģà¸¥à¸¢à¸Ħà¸£":1241,"à¸ļà¸ŀ":1242,"à¹Ĥà¸Ĺà¸©":1243,"à¹Ħà¸ĭ":1244,"à¸ģà¸«à¸Ļ":1245,"à¸Ļà¹Ģà¸Ĺ":1246,"à¸Ńà¸¢à¸Ħ":1247,"à¸ĺà¸²à¸Ļ":1248,"à¸ĩà¹Ħ":1249,"à¸²à¹Ħà¸£":1250,"à¸łà¸²à¸¢à¹ĥà¸Ļ":1251,"à¸ĵà¸ĳ":1252,"à¸ĩà¸ĸ":1253,"ap":1254,"ir":1255,"iv":1256,"à¹ģà¸ª":1257,"à¸£à¸£":1258,"Ġà¸Ł":1259,"à¸£à¸°à¸¢à¸°":1260,"à¸°à¸Ĺ":1261,"à¸²à¸ĩà¹Ĩ":1262,"à¸§à¸«à¸Ļ":1263,"à¸Ńà¹Ģà¸Ľà¸¥":1264,"à¹Ģà¸Ħà¸¥":1265,"Ġà¸«à¸²à¸ģ":1266,"à¸ĩà¸¡à¸²à¸ģ":1267,"Ġy":1268,"à¸²à¸ĸà¸²à¸¡":1269,"à¸¨à¸£":1270,"à¹Ħà¸«à¸§":1271,"à¸²à¸ĩà¸Ħ":1272,"à¸Ńà¸ģà¸²à¸£":1273,"à¸Ļà¸²à¸¡":1274,"à¹Ģà¸ļà¸Ńà¸£":1275,"à¸²à¸Ļà¸¡":1276,"Ġ12":1277,"à¹ģà¸Ļà¸Ļ":1278,"à¸ģà¹Ĩ":1279,"Ġ19":1280,"à¸Ķà¸¥":1281,"à¸²à¸Ļà¸ģ":1282,"ow":1283,"à¸ģà¸¡à¸²à¸ģ":1284,"à¹ģà¸Ļà¸§":1285,"??":1286,"Ġà¸Ħà¸¥":1287,"à¹Ģà¸ĺà¸Ń":1288,"à¸¡à¸²à¸£":1289,"ook":1290,"à¸ļà¹Ģà¸£":1291,"50":1292,"à¸Ńà¸¢à¸Ħà¸£":1293,"à¸¥à¸¥":1294,"à¸¢à¸Ńà¸Ķ":1295,"à¸²à¹Ħà¸«à¸£":1296,"à¸Ńà¹ģà¸¡":1297,"Ġj":1298,"à¸°à¹Ģà¸ļ":1299,"à¸µà¹ĭ":1300,"à¸ķà¸§":1301,"Ġà¸Ŀ":1302,"à¸Ńà¸ĩà¹Ħà¸Ľ":1303,"à¹ĥà¸Ļà¸Ĭ":1304,"à¸Ńà¸Ńà¸ģà¸¡à¸²":1305,"à¸§à¸¡à¸ģ":1306,"à¹Ĥà¸Ħ":1307,"à¹Ģà¸§à¸ĵ":1308,"à¸ļà¹Ģà¸ŀ":1309,"à¸¢à¸Ĭ":1310,"à¹Ģà¹Ģà¸ķ":1311,"Ġ30":1312,"Ġà¸£à¸ļà¸ģà¸§à¸Ļ":1313,"à¸²à¹ģà¸¥à¸°":1314,"à¸§à¹Ħà¸¡":1315,"à¸²à¸¢à¹Ģà¸Ľ":1316,"à¸²à¸Ļà¸ķ":1317,"à¸Ļà¹Ģà¸ª":1318,"à¸Ńà¸ĩà¸§":1319,"Ġà¸Ĺà¸²à¸ĩ":1320,"à¸Ńà¸Ļà¸Ĥ":1321,"Ġtr":1322,"ant":1323,"18":1324,"à¸ªà¸²à¸¡":1325,"ï¸":1326,"à¸²à¸¢à¸²à¸¡":1327,"ï¸ı":1328,"à¸Ħà¸£à¸Ńà¸ļà¸Ħà¸£":1329,"à¸ģà¸Ń":1330,"à¹Ĥà¸£à¸Ħ":1331,"à¸ļà¸£à¸£":1332,"à¸²à¸§à¸§":1333,"à¸²à¸ł":1334,"eb":1335,"à¸Ļà¹Ģà¸Ńà¸ĩ":1336,"à¸¢à¸²à¸ģ":1337,"à¸Ľà¸£à¸°à¹Ĥà¸¢":1338,"à¸ĩà¹ģà¸¥":1339,"Ġst":1340,"à¸Ńà¸ĩà¸Ń":1341,"à¸ļà¸¡à¸²":1342,"à¹Ħà¸«à¸¡à¸Ħà¸°":1343,"à¸ļà¸Ľ":1344,"à¸Ńà¸Ĭ":1345,"à¹Ĥà¸ŀ":1346,"à¸¬":1347,"à¸ĩà¹Ģà¸Ĺà¸ŀ":1348,"à¸ļà¸Ń":1349,"à¸Ļà¸«à¸¥":1350,"à¸§à¸¥":1351,"Ġà¸ĺ":1352,"à¸Ńà¸°à¹Ħà¸£à¸ģ":1353,"à¹Ģà¸Ĥà¸²à¸ģ":1354,"à¸§à¸²à¸ĩ":1355,"Ġà¹ģà¸ĸ":1356,"à¸ŀà¸¢à¸²à¸¢à¸²à¸¡":1357,"à¸Ķà¸«à¸Ļ":1358,"à¸¥à¸°à¹Ģà¸Ń":1359,"à¹Ĥà¸Ĭ":1360,"à¸²à¹Ģà¸£à¸²":1361,"à¸Ľà¸ı":1362,"à¸²à¸¢à¸Ħ":1363,"à¸§à¹Ģà¸£":1364,"Ġà¸ī":1365,"Ġà¹ģà¸Ħ":1366,"à¸ļà¸£à¸ĸ":1367,"Ġ,":1368,"à¸ķà¸£à¸ĩ":1369,"ak":1370,"à¸Ľà¸£à¸°à¹Ģà¸Ĺà¸¨à¹Ħà¸Ĺà¸¢":1371,"one":1372,"à¸²à¸ĩà¸¡":1373,"Ġà¹Ģà¸ķ":1374,"ue":1375,"à¸ĵà¸°à¸Ĺ":1376,"à¸²à¸ļà¸²à¸¥":1377,"----------------":1378,"à¸İà¸«à¸¡à¸²à¸¢":1379,"à¸²à¸ľà¸¡":1380,"à¹Ĩà¹Ĩ":1381,"www":1382,"à¹ģà¸ļ":1383,"à¸ĩà¸ĭ":1384,"à¹Ħà¸Ľà¸ģ":1385,"à¸Ńà¸Ļà¹Ģà¸Ķ":1386,"ub":1387,"à¸´à¹Ĭ":1388,"Ġà¹Ģà¸ļ":1389,"à¹Ģà¸ĸ":1390,"à¸ķà¸ģ":1391,"à¸§à¸Ħà¸£":1392,"à¸«à¸£à¸Ń":1393,"Ġà¸Ńà¸²à¸Ī":1394,"____":1395,"à¸ļà¸«à¸Ļ":1396,"à¸ļà¹Ħà¸¡":1397,"à¸ĵà¸Ħ":1398,"um":1399,"à¸Ħà¸Ļà¹Ģà¸Ķ":1400,"à¸ģà¸Ī":1401,"à¸²à¸«à¸Ļà¸Ķ":1402,"à¸ĺà¸Ļà¸²à¸Ħà¸²à¸£":1403,"à¹ģà¸«à¸¥à¸°":1404,"à¸²à¸Ńà¸Ńà¸ģ":1405,"à¸Ńà¸ļà¸ĸà¸²à¸¡":1406,"à¸Ńà¸Ĥà¸Ńà¸ĩ":1407,"à¸²à¸Īà¸£":1408,"os":1409,"à¸¡à¸£":1410,"à¸²à¸ģà¸£":1411,"à¸Ńà¸ĩà¸ŀ":1412,"à¸Ķà¸Ī":1413,"à¸Ľà¸£à¸°à¸ģà¸²à¸¨":1414,"Ġà¸£à¸ĸ":1415,"à¸Ħà¸§à¸²à¸¡à¸Ħ":1416,"à¸¡à¸Ĭ":1417,"à¸¢à¸Ĺ":1418,"à¹ģà¸¢":1419,"à¸Ńà¸ĩà¸«":1420,"ail":1421,"âĢĻ":1422,"Ġ/":1423,"à¸¡à¸Ħ":1424,"à¸Ńà¸¢à¸²à¸ģà¹ĥà¸«":1425,"à¸Ńà¸ĩà¸Ĥà¸Ńà¸ĩ":1426,"à¸¡à¸²à¸Ļ":1427,"à¸§à¸¢à¸Ħ":1428,"à¹Ĥà¸Ķà¸Ļ":1429,"à¸²à¸¢à¸£":1430,"à¸£à¸©à¸Ĳ":1431,"Ġà¸Ńà¸²à¸¢":1432,"ov":1433,"à¸Ńà¹Ħà¸Ķ":1434,"à¸§à¸ĩà¸«à¸Ļ":1435,"Ġà¸ľà¸¡à¸ģ":1436,"à¹ģà¸Ľà¸¥":1437,"Ġà¸®":1438,"à¸ģà¸Ľ":1439,"à¸Ķà¹ĥà¸Ļ":1440,"à¸²à¸§à¸Ļ":1441,"Ġ18":1442,"à¸¡à¸Ķ":1443,"à¸ĩà¸ľ":1444,"à¸ĩà¹Ģà¸Ķ":1445,"à¸¡à¸Ļà¸ķà¸£":1446,"Ġà¹Ģà¸Ħà¸£":1447,"........":1448,"à¸¡à¹Ģà¸ķ":1449,"Ġà¸ªà¸¡":1450,"à¹Ĥà¸ĭ":1451,"à¸Ńà¸ĩà¸Ĥ":1452,"Ġà¸ªà¸²à¸¡à¸²à¸£à¸ĸ":1453,"à¸²à¸ķà¸Ńà¸ļ":1454,"Ġ14":1455,"à¸Ńà¸ģà¸¥":1456,"à¹ģà¸£à¸ĩ":1457,"à¸Ļà¸ģà¸¥":1458,"à¸Ļà¸Īà¸²à¸ģ":1459,"à¸¢à¸Ħà¸°":1460,"Ġà¸ŀà¸£à¸°":1461,"à¸ģà¸¢":1462,"Ġà¹Ħ":1463,"à¸ģà¸²à¸£à¸ķ":1464,"à¸Ńà¸¡à¸ģ":1465,"à¸¡à¸²à¸°":1466,"out":1467,"à¹Ĥà¸£à¸ĩà¹Ģà¸£":1468,"à¸Ľà¸£à¸°à¹Ĥà¸¢à¸Ĭà¸Ļ":1469,"à¸ĩà¹Ģà¸Ĥ":1470,"à¸ĩà¸ģà¸¤à¸©":1471,"à¸¢à¸Ħ":1472,"Ġ11":1473,"Ġsp":1474,"à¸²à¸£à¸¡":1475,"à¸ļà¸ģà¸²à¸£à¸ĵ":1476,"Ġâ":1477,"à¸Ħà¸Ķ":1478,"à¸Ńà¸Ļà¸Ķ":1479,"à¸²à¹ģà¸Ļà¸°à¸Ļ":1480,"Ġà¸ĵ":1481,"à¸§à¸Ńà¸¢":1482,"ec":1483,"à¸²à¹Ģà¸Ħ":1484,"à¸Ńà¸Ļà¸«à¸Ļ":1485,"à¸ŀà¸¢à¸²à¸ļà¸²à¸¥":1486,"à¸Ļà¹ģà¸ļà¸ļ":1487,"à¸Īà¸²à¸£à¸ĵ":1488,"à¸²à¹Ħà¸ĩ":1489,"à¸¡à¸²à¸Ĺ":1490,"à¸ģà¸²à¸£à¸ª":1491,"à¸ķà¸£à¸§à¸Īà¸ªà¸Ńà¸ļ":1492,"Ġ16":1493,"à¸ķà¸²à¸¢":1494,"à¹Ħà¸Ľà¹ģà¸¥":1495,"à¸«à¸£à¸Ńà¸ģ":1496,"à¸«à¸²à¸ģ":1497,"ur":1498,"à¸§à¸ĩà¸Ļ":1499,"up":1500,"à¸ļà¸ľà¸¡":1501,"à¸ģà¸ľ":1502,"à¸ļà¸ªà¸Ļ":1503,"à¸¨à¸²à¸ªà¸ķà¸£":1504,"Ġà¸ªà¸£":1505,"à¸Ĥà¸ģà¸Ĺ":1506,"15":1507,"à¸Īà¸°à¸£":1508,"à¸§à¸ļ":1509,"à¸Ļà¹Ģà¸¥":1510,"à¸²à¸Īà¸°à¹Ģà¸Ľ":1511,"à¸Ńà¸ĩà¹Ģà¸£":1512,"à¸ģà¸©à¸²":1513,"à¸ĩà¸Ħà¸¡":1514,"à¸Ńà¸ĩà¸Ī":1515,"Ġà¸Ľà¸£":1516,"à¸²à¸ĩà¸ķ":1517,"à¸²à¹Ģà¸Ĺ":1518,"à¸ķà¸ª":1519,"Ġà¸ŀà¸¥":1520,"à¸¢à¸²à¸§":1521,"Ġà¸Ĭà¸Ńà¸ļ":1522,"à¸ĩà¸²à¸¡":1523,"à¸Ńà¸²à¸ģà¸²à¸£":1524,"à¹Ĥà¸Ĺà¸£à¸¨":1525,"à¹Ģà¸¨à¸£à¸©à¸Ĳ":1526,"à¸Īà¸°à¹Ħà¸Ľ":1527,"à¹Ħà¸Łà¸Ł":1528,"à¸ĵà¸Ħà¸£":1529,"à¸²à¸ĩà¸Ľà¸£à¸°à¹Ģà¸Ĺà¸¨":1530,"à¸ģà¹Ħà¸¡":1531,"==":1532,"Ġà¸ģà¸£à¸°":1533,"à¸²à¸ŀà¸£":1534,"à¸²à¹Ģà¸¥à¸¢":1535,"à¸²à¸Ħà¸ķ":1536,"à¸Ľà¸²à¸ģ":1537,"à¸§à¸Ļà¹ĥà¸«à¸į":1538,"à¸Ļà¸Ńà¸Ńà¸ģ":1539,"17":1540,"Ġch":1541,"à¸ĩà¹Ģà¸¥":1542,"à¸§à¸¢à¹Ģà¸«à¸¥":1543,"à¸¢à¸Ħà¸£":1544,"à¸ģà¸Ĭ":1545,"à¸Ĳà¸¡à¸Ļà¸ķà¸£":1546,"à¹Ħà¸ģà¸¥":1547,"à¸Ĥà¸Ńà¸ļà¸Ħ":1548,"à¸Ľà¸£à¸°à¸ªà¸ļà¸ģà¸²à¸£à¸ĵ":1549,"à¹Ģà¸£à¸²à¸¡":1550,"Ġà¸Ńà¸Ńà¸ģ":1551,"12":1552,"à¸ªà¸§à¸Ļ":1553,"à¸²à¹ģà¸«à¸Ļ":1554,"Ġà¸ķà¸£":1555,"à¸Ńà¸Ļà¸¡":1556,"à¸Ńà¸Ļà¸ķ":1557,"16":1558,"à¸Ńà¸ĩà¸ļ":1559,"Ġ100":1560,"à¸ģà¹ģà¸¥":1561,"ews":1562,"à¸Ļà¸²à¸ĩ":1563,"à¸ģà¸ļ":1564,"à¸ģà¸Ĥà¸Ńà¸ĩ":1565,"Ġà¸Ļà¸Ńà¸ģà¸Īà¸²à¸ģ":1566,"à¸²à¸Ļà¸ļà¸²à¸Ĺ":1567,"Ġth":1568,"à¸ģà¸ģà¸ģà¸ģ":1569,"à¹ģà¸Ĺà¸Ļ":1570,"à¸Ńà¸ĩà¹ĥà¸Ĭ":1571,"Ġof":1572,"à¸ªà¸Ńà¸ĩ":1573,"oc":1574,"Ġ13":1575,"à¸ªà¸Ńà¸ļà¸ĸà¸²à¸¡":1576,"if":1577,"à¸²à¸ĩà¸Ķ":1578,"à¸²à¹Ģà¸¡":1579,"à¸Ķà¹Ģà¸Ī":1580,"à¸ŀà¸Ļ":1581,"à¸¨à¸²à¸¥":1582,"à¸Ńà¹Ģà¸ª":1583,"à¸ªà¸ģ":1584,"à¸ģà¸²à¸£à¹Ģà¸¡":1585,"à¸²à¸Ĭà¸Ńà¸ļ":1586,"à¸²à¸Īà¸°à¸¡":1587,"à¸±à¹Ĭ":1588,"à¸§à¸Ń":1589,"à¸Ľà¸Ķ":1590,"à¸Ĺà¸²à¸Ļ":1591,"à¸ĸà¸Ļà¸Ļ":1592,"à¸Ļà¹ģà¸ķ":1593,"Ġà¸ģà¸£":1594,"Ġ5555":1595,"ht":1596,"à¹Ħà¸«":1597,"à¸Ńà¸Ļà¸£":1598,"à¸¡à¸²à¸ĸ":1599,".)":1600,"em":1601,"à¸ķà¸¥à¸²à¸Ķ":1602,"à¹ĥà¸Ļà¸ª":1603,"à¸Ńà¸Ī":1604,"à¸Ńà¸Ļà¹Ĩ":1605,"à¸ģà¸£à¸¡":1606,"à¸ļà¸Ī":1607,"à¸²à¹Ģà¸Ĭ":1608,"à¸Ķà¹Ħà¸Ľ":1609,"****":1610,"à¸Ńà¸Ńà¸°à¹Ħà¸£":1611,"à¸¥à¸ļ":1612,"ter":1613,"à¸ģà¹Ģà¸ŀ":1614,"à¸Ķà¸ļ":1615,"à¹ĥà¸Ļà¸Ĺ":1616,"à¸¢à¸ª":1617,"à¸ģà¸²à¸£à¸Ī":1618,"à¸ļà¸Ĭ":1619,"à¹Ĥà¸£à¸ĩ":1620,"à¸ģà¹Ģà¸ģ":1621,"à¸Ńà¸¢à¹Ĩ":1622,"à¸²à¸Ŀ":1623,"à¸§à¸°":1624,"à¹Ģà¸ģà¸©":1625,"à¸²à¸ķà¸²à¸¡":1626,"Ġà¹Ģà¸ľ":1627,"à¸Ńà¸Ļà¹Ħà¸¥à¸Ļ":1628,"Ġ'":1629,"à¹ĥà¸Ļà¸§":1630,"à¹Ħà¸Ĥà¸Ĥ":1631,"à¹Ģà¸£à¸²à¸Ħ":1632,"ĠĠĊ":1633,"à¹Ģà¸«à¸¡à¸²à¸°":1634,"à¸Ńà¸Ļà¸²à¸Ħà¸ķ":1635,"à¸Ļà¸ķà¸£":1636,"à¸¢à¸²à¸Ļ":1637,"à¸Ńà¹Ģà¸¡":1638,"Ġ24":1639,"Ġà¹ģà¸¥à¸°à¸¡":1640,"à¸Ĺà¸£à¸§à¸ĩ":1641,"à¸²à¸ļà¸Ńà¸ģ":1642,"à¸²à¸ĩà¸ª":1643,"à¸¡à¸§":1644,"à¸ļà¸Ħà¸§à¸²à¸¡":1645,"à¸²à¸£à¸¡à¸ĵ":1646,"à¸ŀà¸¥à¸²à¸Ķ":1647,"à¹Ĥà¸Ħà¸£à¸ĩà¸ģà¸²à¸£":1648,"à¹Ģà¸§à¸Ńà¸£":1649,"à¸©à¸¢":1650,"à¸ĩà¹ģà¸£à¸ģ":1651,"à¸¢à¸§à¸Ĥ":1652,"à¸Ļà¹Ģà¸Ĭ":1653,"à¸ģà¸£à¸£à¸¡à¸ģà¸²à¸£":1654,"Ġà¸Īà¸£":1655,"à¸¥à¸Ľ":1656,"à¸°à¸Ļ":1657,"Ġà¸Ħà¸§à¸£":1658,"à¸Ķà¸§à¸ģ":1659,"à¸²à¹Ģà¸ĩ":1660,"à¸²à¸ĩà¹Ģà¸Ķ":1661,"à¸ģà¸²à¸¥":1662,"à¹ģà¸Ńà¸ļ":1663,"à¸Ńà¸«à¸Ļ":1664,"à¸Ļà¹ģà¸ļà¸ļà¸Ļ":1665,"Ġ.":1666,"à¸Ļà¹Ģà¸ķ":1667,"Ġà¸ļà¸Ńà¸ģ":1668,"à¸²à¸Ļà¹Ħà¸Ľ":1669,"à¹Ħà¸«à¸Ļà¸Ķ":1670,"à¸²à¹ģà¸ķ":1671,"à¸²à¸¢à¸ª":1672,"à¸²à¸¢à¸ķ":1673,"à¸²à¸Ļà¸Ħ":1674,"ut":1675,"à¸Ħà¸Ļà¸£":1676,"Ġi":1677,"Ġx":1678,"à¸§à¹ģà¸ķ":1679,"à¸ªà¸Ļà¸²à¸¡":1680,"Ġà¸ĩà¸²à¸Ļ":1681,"à¸Ńà¸Ħà¸§à¸²à¸¡à¹Ģà¸¡":1682,"à¸ĩà¸ľà¸¥":1683,"à¸²à¸ĩà¸Ń":1684,"à¸Ļà¸°à¸Ħ":1685,"à¹Ģà¸¨à¸£à¸©à¸Ĳà¸ģ":1686,"à¸°à¸¥":1687,"antip":1688,"à¸Īà¸ģà¸£à¸£à¸¡":1689,"Ġà¹Ģà¸ĭ":1690,"ebook":1691,"à¸¡à¸²à¸Īà¸²à¸ģ":1692,"à¸¡à¸²à¸ļ":1693,"Ġ50":1694,"à¸²à¸ĩà¸«à¸Ļ":1695,"à¸Ļà¸Ńà¸°à¹Ħà¸£":1696,"ia":1697,"ee":1698,"à¸ģà¸²":1699,"à¸ĵà¸Ĺ":1700,"Ġ17":1701,"à¸²à¸ĩà¸Ħà¸°":1702,"à¸Ńà¸¢à¸²à¸ģà¸Īà¸°":1703,"à¸¢à¸ļà¸£":1704,"à¸Ļà¹Ģà¸«à¸¡":1705,"11":1706,"à¸¡à¸²à¸ķ":1707,"à¸°à¸Ħà¸°":1708,"Ġà¹Ģà¸ĩ":1709,"Ġà¸ŀà¸§à¸ģ":1710,"à¸§à¸¢à¸Ħà¸§à¸²à¸¡":1711,"à¹Ģà¸¥à¸¢à¸§":1712,"à¸Ħà¸Ħà¸¥":1713,"sp":1714,"à¸Ńà¸Ļà¸§":1715,"à¸²à¸Ł":1716,"à¸Ńà¸ĩà¹Ģà¸Ľ":1717,"à¹ģà¸ŀà¸Ĺà¸¢":1718,"à¸Ķà¹ĥà¸«":1719,"à¸Ļà¸Ńà¸ģ":1720,"à¹Ģà¸£à¸²à¸Īà¸°":1721,"à¸²à¸¡à¸²":1722,"à¸Ķà¸Ĥà¸Ńà¸ĩ":1723,"à¸ļà¹Ħà¸Ķ":1724,"à¸¢à¸Ļà¸£":1725,"à¹Ģà¸ģà¸£":1726,"à¸§à¹Ĥà¸¡":1727,"Ġà¹Ĥà¸£":1728,"à¸Ļà¸Ł":1729,"Ġà":1730,"à¸ªà¸ĩà¸ª":1731,"à¸£à¸²à¸¢à¸ģà¸²à¸£":1732,"à¸ĸà¸²à¸¡à¸§":1733,"à¸§à¸¢à¸Ħà¸£":1734,"à¸¡à¸¢":1735,"99":1736,"à¸Ķà¸Īà¸²à¸ģ":1737,"ab":1738,"à¸Ńà¸Ńà¸ģà¹Ħà¸Ľ":1739,"à¹ģà¸¢à¸ģ":1740,"Ġsh":1741,"à¸Ļà¹Ħ":1742,"à¸Ĺà¸¢à¸²à¸¥":1743,"Ġ+":1744,"++++":1745,"à¸²à¹Ģà¸Ń":1746,"Ġà¸ĸà¸²à¸¡":1747,"à¸Ŀà¸²à¸ģ":1748,"Ġà¸ªà¸Ńà¸ļà¸ĸà¸²à¸¡":1749,"à¸įà¸«à¸²":1750,"à¸Ļà¹Ģà¸Ī":1751,"ation":1752,"à¸Ńà¸¢à¸²à¸ģà¸£":1753,"à¸Ķà¹Ħà¸¡":1754,"ul":1755,"Ġà¹":1756,"à¸Ńà¸Ļà¸Ħ":1757,"à¹Ģà¸®":1758,"à¸²à¸Ĺà¸²à¸ĩ":1759,"Ġà¸ķà¸²à¸¡à¸«":1760,"ort":1761,"à¸¢à¸«à¸²à¸¢":1762,"à¸²à¹ģà¸Ł":1763,"à¸ļà¹ģà¸Łà¸Ļ":1764,"à¸¡à¸²à¸ª":1765,"à¸Ļà¸¥à¸°":1766,"à¸Ńà¹Ģà¸Ļ":1767,"Ġà¸ľà¸¥":1768,"à¸Ķà¹Ģà¸Ķ":1769,"à¸¡à¸Ľ":1770,"60":1771,"à¹ģà¸Ķà¸ĩ":1772,"à¸Ńà¸²à¸ģà¸²à¸¨":1773,"ĠâĢĺ":1774,"à¸ģà¸²à¸£à¸Ħ":1775,"à¹Ģà¸£à¸²à¸Ĺ":1776,"Ġà¹ģà¸Łà¸Ļ":1777,"à¹Ģà¸«à¸£à¸Ń":1778,"à¸Ķà¸¢":1779,"Ġà¹Ģà¸£à¸²à¹Ħà¸¡":1780,"à¸Īà¸°à¸Ķ":1781,"à¸Ĭà¸¡à¸Ľ":1782,"à¸ªà¸§":1783,"à¹Ģà¸§à¸¥à¸²à¸Ĺ":1784,"à¸Ķà¸ŀ":1785,"Ġà¸ļà¸²à¸ĩ":1786,"à¸įà¸įà¸²à¸ĵ":1787,"à¹Ģà¸Īà¸Ńà¸ģ":1788,"à¸Ľà¸¥à¸Ńà¸Ķ":1789,"à¸Ńà¸ĩà¹ĥà¸«":1790,"ang":1791,"à¸Ļà¹Ģà¸¡":1792,"à¸ķà¸Ĺ":1793,"à¸²à¸Ļà¸²à¸Ļ":1794,"à¸Ķà¸Ńà¸¢":1795,"Ġto":1796,"Ġline":1797,"à¸²à¹Ĩ":1798,"Ġà¸Īà¸°à¸¡":1799,"à¸ģà¸ĸ":1800,"à¸Ńà¸ľà¸¡":1801,"à¹Ħà¸ķ":1802,"à¸ģà¹ĥà¸Ī":1803,"à¸Ķà¹Ģà¸Ĭ":1804,"14":1805,"à¸Ńà¸Ńà¸ģà¸Īà¸²à¸ģ":1806,"à¸Ļà¸Īà¸£":1807,"à¸Ńà¸ĩà¹Ħà¸¡":1808,"à¸§à¸¢à¸ģà¸²à¸£":1809,"top":1810,"à¸ĩà¸Īà¸²à¸ģà¸Ļ":1811,"à¸ļà¹Ģà¸£à¸²":1812,"Ġà¸¡à¸²à¸ģ":1813,"à¹Ģà¸ģà¸¥":1814,"à¹Ģà¸Ńà¸ģà¸ªà¸²à¸£":1815,"à¸ĩà¹ģà¸£à¸¡":1816,"à¸Ľà¸Ĺ":1817,"à¸ĵà¸łà¸²à¸ŀ":1818,"à¸Ķà¸¡à¸²à¸ģ":1819,"à¸²à¸«à¸¡":1820,"à¸ĩà¸²à¸Ļà¸Ĺ":1821,"à¸Ķà¹Ħà¸Ķ":1822,"à¸«à¸¥à¸§à¸ĩ":1823,"à¸Ļà¹Ģà¸ŀà¸£à¸²à¸°":1824,"à¸Ĥà¸łà¸²à¸ŀ":1825,"62":1826,"à¸£à¸²à¸¢à¹Ħà¸Ķ":1827,"à¸¡à¸ľ":1828,"à¸Ńà¸ĩà¸ľ":1829,"à¸²à¸Ħà¸§à¸£":1830,"à¸ĩà¹Ħà¸ĩà¸Ķ":1831,"à¸Ńà¹Ģà¸ŀ":1832,"acebook":1833,"à¸¢à¸²":1834,"à¸Ļà¸Ħà¸§à¸²à¸¡":1835,"à¸Ļà¸²":1836,"à¸²à¹Ģà¸«à¸ķ":1837,"od":1838,"à¸Ńà¹Ģà¸Ķ":1839,"à¸Ķà¸Ĭ":1840,"à¹Ģà¸£à¸²à¸ķ":1841,"à¸ªà¸ļà¸²à¸¢":1842,"à¸Ħà¸ĵà¸°":1843,"à¸§à¸¢à¹ģà¸Ļà¸°à¸Ļ":1844,"ard":1845,"à¸ĩà¹Ħà¸ĩà¸ģ":1846,"à¸²à¸ĩà¸Ī":1847,"all":1848,"à¹Ĥà¸Ī":1849,"Ġà¹Ĥà¸Ķ":1850,"Ġà¸ł":1851,"Ġà¸ģà¸§":1852,"à¸ŀà¸ļ":1853,"à¸£à¸°à¹Ģà¸ļ":1854,"à¸²à¸§à¸Ĺ":1855,"à¸Ľà¸¥à¸²à¸¢":1856,"à¸«à¸¥à¸²à¸¢à¸Ħà¸Ļ":1857,"à¸¡à¸²à¸ķà¸£":1858,"à¸Ľà¸Ķà¸²à¸«":1859,"à¸¡à¸²à¸Ĥ":1860,"Ġà¸Ħà¸Ļà¸Ĺ":1861,"à¸Ńà¸¢à¸ģ":1862,"vi":1863,"Ġà¹Ģà¸§à¸¥à¸²":1864,"à¸Ńà¸ĩà¸ĸ":1865,"à¸Ńà¸ĩà¸Ĭ":1866,"à¸Ĥà¸²à¸Ķ":1867,"Ġà¸Ļà¸²à¸Ĺ":1868,"à¸Ķà¸«":1869,"à¹Ģà¸ģà¸²à¸«à¸¥":1870,"à¸Ĺà¸¡":1871,"à¹Ģà¸Łà¸ª":1872,"à¸ģà¹Ħà¸Ľ":1873,"à¸Ķà¸Ńà¸°à¹Ħà¸£":1874,"à¸Ńà¸ĩà¹Ģà¸¥":1875,"à¸Ľà¸¥à¸Ńà¸Ķà¸ł":1876,"à¸ŀà¸ĩ":1877,"à¸ļà¸ĸ":1878,"Ġà¹Ģà¸Ħà¸¢":1879,"Ġà¸Īà¸Ĥà¸ģà¸Ĺ":1880,"à¸ļà¸Ħà¸Ļ":1881,"iz":1882,"à¸Ķà¹Ģà¸«":1883,"Ġ2562":1884,"à¸²à¸Ļà¸Ĥ":1885,"à¸Ķà¹Ģà¸ľ":1886,"à¸Ļà¸«à¸£":1887,"Ġ23":1888,"Ġà¹Ģà¸ĺ":1889,"à¸ªà¸ª":1890,"à¹Ģà¸£à¸²à¹Ģà¸Ľ":1891,"ĠâĢĵ":1892,"à¸°à¸ģ":1893,"à¸¤à¸ķ":1894,"à¸°à¹Ģà¸¥à¸²à¸°":1895,"Ġà¸Īà¸²à¸ģà¸Ļ":1896,"à¸ļà¹Ģà¸Ĥ":1897,"à¸²à¸Ļà¸²à¸Ī":1898,"Ġà¸Ĥà¸²à¸¢":1899,"Ġà¹ģà¸Ļà¸°à¸Ļ":1900,"à¹Ģà¸ģà¸¡":1901,"à¸¡à¸²à¸ģà¸Ĥ":1902,"à¸¡à¸²à¸ģà¹Ĩ":1903,"à¸¡à¸²à¸ģà¸Ħ":1904,"news":1905,"à¸²à¹ĥà¸Ħà¸£":1906,"à¸¢à¸ģà¸§":1907,"à¸²à¹Ģà¸ł":1908,"à¸¢à¹ĥà¸Ī":1909,"à¸¡à¸²à¸Ķ":1910,"Ġ555":1911,"à¸Ħà¸§à¸ļà¸Ħ":1912,"à¹Ģà¸Īà¸£":1913,"à¸Ľà¸£à¸°à¸ķ":1914,"13":1915,"à¸ĵà¸¥":1916,"à¸Ļà¸£à¸ĸ":1917,"à¸ĩà¹ģà¸¥à¸°":1918,"à¸ķà¸ļà¸Ńà¸¥":1919,"à¸Ľà¸£à¸°à¸Ĭà¸²à¸Ĭà¸Ļ":1920,"à¸Ĥà¸Ńà¸ĩà¸Ĺ":1921,"à¹Ĥà¸Ħà¸§":1922,"Ġà¸Ĺà¸£":1923,"à¸ĩà¸Ńà¸Ńà¸ģ":1924,"à¸ľà¸¡à¹Ħà¸¡":1925,"à¸Ķà¹Ĩ":1926,"à¸¡à¸²à¹ģà¸¥":1927,"à¸²à¸£à¸¢":1928,"Ġà¸£à¸°à¸«à¸§":1929,"à¸Ńà¸ĩà¸«à¸Ļ":1930,"à¸Ńà¹Ģà¸Ĥ":1931,"Ġà¸£à¸²à¸Ħà¸²":1932,"à¸²à¸ĩà¸£":1933,"à¸²à¸¢à¹Ħà¸Ľ":1934,"à¸§à¸ĸ":1935,"à¸²à¸Ļà¸«à¸Ļ":1936,"ack":1937,"à¸²à¹Ģà¸Ī":1938,"à¹Ĥà¸Ńà¸Ļ":1939,"à¸²à¸ļà¸Ńà¸ģà¸§":1940,"à¸²à¹Ģà¸ĭ":1941,"à¸ĩà¸ģà¸§":1942,"ube":1943,"à¸Ĥà¸Ńà¸ĩà¸ķ":1944,"ight":1945,"à¸ĵà¸°à¸Ļ":1946,"à¸±à¹ĭ":1947,"à¸ªà¸¥":1948,"à¸ļà¹Ģà¸ĩ":1949,"à¹Ħà¸«à¸Ļà¸ģ":1950,"à¸¢à¸²à¸¡":1951,"à¸Ħà¸°à¹ģà¸Ļà¸Ļ":1952,"ce":1953,"à¸¥à¸ģ":1954,"à¸Ļà¹Ģà¸Ļ":1955,"Ġà¸łà¸²à¸ŀ":1956,"à¸Ķà¸Ľ":1957,"à¸¥à¸Ħ":1958,"à¸£à¸°à¸§":1959,"pantip":1960,"à¹ģà¸ŀà¸£":1961,"à¸£à¸²à¸¢à¸ĩà¸²à¸Ļ":1962,"à¹Ģà¸£à¸²à¸£":1963,"à¹Ģà¸ģà¸©à¸ķà¸£":1964,"Ġà¸Ńà¸¢à¸²à¸ģà¸£":1965,"à¹Ģà¸Ńà¸²à¸¡":1966,"Ġà¹ģà¸Ĺ":1967,"Ġà¹Ĥà¸Ĺà¸£":1968,"à¸¸à¹Į":1969,"pp":1970,"à¸Ńà¸¡à¸£":1971,"à¸ģà¹Ħà¸Ķ":1972,"à¸Ķà¹Ģà¸Ľ":1973,"Ġà¸ģà¸£à¸°à¸Ĺ":1974,"à¹ĥà¸Ļà¸«":1975,"à¹Ĥà¸£à¸ĩà¸ŀà¸¢à¸²à¸ļà¸²à¸¥":1976,"à¸ģà¸²à¸£à¸ļ":1977,"à¸¡à¹Ħà¸Ķ":1978,"à¸Ńà¸Ńà¸¢":1979,"Ġà¹ģà¸¥à¸°à¸Ĺ":1980,"Ġ@":1981,"outube":1982,"art":1983,"à¸Ļà¸Ħà¸Ļà¸Ĺ":1984,"à¸Ļà¹ĥà¸«à¸¡":1985,"Ġà¸Īà¸°à¹Ħà¸Ķ":1986,"à¸§à¹ĥà¸Ī":1987,"à¹ģà¸Ľà¸¥à¸ĩ":1988,"à¸Ķà¹Ģà¸«à¸ķ":1989,"à¸²à¸ģà¸§":1990,"Ġ200":1991,"à¸Ļà¸ľà¸¥":1992,"à¹Ģà¸īà¸¢":1993,"à¸§à¸Ļà¸Ĺ":1994,"à¸²à¸ªà¸Ļà¹ĥà¸Ī":1995,"Ġà¹ģà¸Ī":1996,"Ġà¹Ĥà¸Ķà¸¢à¸¡":1997,"36":1998,"à¸ģà¸«":1999,"ik":2000,"à¸ĩà¹Ģà¸ª":2001,"à¸²à¸Ļà¸Ķ":2002,"à¸¡à¸²à¹Ģà¸Ľ":2003,"Ġà¸£à¸§à¸¡à¸ĸ":2004,"à¹Ģà¸ĸà¸Ńà¸°":2005,"à¸ĩà¹Ģà¸ŀ":2006,"à¸ĺà¸£à¸£à¸¡à¸Ķ":2007,"à¸Ļà¸Ħà¸¥":2008,"à¸²à¸ļà¸£":2009,"à¸Ńà¸Ħà¸£":2010,"à¸Ńà¸Īà¸°":2011,"à¸Ķà¹ĥà¸Ī":2012,"Ġà¸Ľà¸£à¸°à¸¡à¸²à¸ĵ":2013,"à¸¢à¸Ļà¸Ĺ":2014,"à¸Ĭà¸²":2015,"à¸Ńà¸Ļà¸ª":2016,"topic":2017,"à¸Ķà¹ģà¸¥":2018,"à¸Ńà¸ĩà¸¢":2019,"à¹ĥà¸Ļà¸Ľ":2020,"à¸Ľà¸ģà¸£à¸ĵ":2021,"à¸¡à¸²à¸Ľ":2022,"à¹ģà¸ĭ":2023,"à¹ģà¸Ĭà¸£":2024,"à¸ĩà¸Ĭà¸²à¸ķ":2025,"à¸Ńà¸¡à¸ª":2026,"à¸Ńà¹Ģà¸¥":2027,"à¸Ńà¸Ļà¸Īà¸°":2028,"à¸¥à¸Ĺ":2029,"à¸Ńà¸ªà¸£":2030,"à¸ģà¸£à¸Ńà¸ļ":2031,"à¸¡à¸²à¹ĥà¸«":2032,"à¸Ńà¹Ģà¸ģ":2033,"à¸«à¸²à¸¢à¹Ħà¸Ľ":2034,"Ġtrue":2035,"à¸²à¸ĩà¸ģà¸²à¸¢":2036,"à¸Ĥà¸§":2037,"à¸Ļà¸ģà¸£à¸°à¸Ĺ":2038,"à¹Ģà¸łà¸Ĺ":2039,"à¸§à¸¢à¸Ĺ":2040,"à¸Ńà¸¢à¸²à¸ģà¹Ħà¸Ķ":2041,"Ġà¹Ģà¸£à¸²à¸Īà¸°":2042,"à¸ģà¹ģà¸¥à¸°":2043,"Ġà¸Ĥà¸ĵà¸°à¸Ĺ":2044,"à¸§à¸Ĭ":2045,"à¸§à¸¢à¸Ļà¸°à¸Ħà¸°":2046,"à¸«à¸¡à¸²à¸¢à¹Ģà¸¥à¸Ĥ":2047,"à¸¢à¸ķ":2048,"à¸§à¸ŀ":2049,"à¸ģà¸İà¸«à¸¡à¸²à¸¢":2050,"à¸ªà¸²à¸ĺ":2051,"à¸Ļà¹Ģà¸ĩ":2052,"à¹ĥà¸Ļà¸ķ":2053,"à¸Ķà¹Ģà¸£":2054,"40":2055,"à¸Ńà¸Ł":2056,"ive":2057,"à¸Ńà¸¡à¸Ĺ":2058,"à¸¢à¸ĩà¹ĥà¸«à¸¡":2059,"pantipcom":2060,"à¸Ńà¸ĩà¹Ħà¸«":2061,"à¸¢à¸ģà¹Ģà¸¥":2062,"à¸§à¸ĩà¸Ĺ":2063,"à¹Ģà¸Ħà¸¢à¸¡":2064,"Ġà¸¥à¸ĩ":2065,"Ġ21":2066,"à¸ŀà¸£à¸°à¸£à¸²à¸Ĭ":2067,"à¸Ĥà¸²à¸§":2068,"à¸µà¹Ĭ":2069,"à¸Ļà¸ģà¸§":2070,"à¸©à¸ĵ":2071,"à¸Ĺà¸ģ":2072,"à¹Ĥà¸£à¸ĩà¹ģà¸£à¸¡":2073,"à¹Ģà¸£à¸²à¹Ħà¸Ľ":2074,"à¸²à¹Ħà¸ĩà¸Ķ":2075,"Ġà¸ĩ":2076,"à¸ģà¹Ģà¸ķ":2077,"Ŀ¤":2078,"Ġip":2079,"à¸ĺà¸£à¸£à¸¡à¸Ĭà¸²à¸ķ":2080,"à¸ģà¸²à¸£à¸£":2081,"Ġ?":2082,"Ġ22":2083,"Ġ...":2084,"à¸Ļà¹Ģà¸ķà¸Ńà¸£":2085,"à¹ĥà¸Ļà¸ŀ":2086,"à¸Ľà¸£à¸°à¸§":2087,"Ġà¸Ļà¸²à¸ĩ":2088,"Ġà¸Ńà¸¢à¸²à¸ģà¸Ĺà¸£à¸²à¸ļà¸§":2089,"à¸Ńà¸Ļà¹Ħà¸¡":2090,"Ġà¸Ńà¸°à¹Ħà¸£":2091,"à¸ģà¸²à¸£à¹ĥà¸Ĭ":2092,"Ġ255":2093,"à¸£à¸ª":2094,"à¸²à¸Ľà¸£":2095,"à¸Ħà¸§à¸²à¸¡à¹Ģà¸Ľ":2096,"à¸ļà¸£à¸Ļà¸Ķ":2097,"av":2098,"à¸ļà¹Ģà¸Ľ":2099,"90":2100,"à¸ģà¸£à¸°à¸Ĺà¸£à¸§à¸ĩ":2101,"Ġà¸Ľà¸ģà¸ķ":2102,"Ġà¹Ģà¹Ģà¸ķ":2103,"Ġà¹Ĥà¸Ķà¸¢à¹Ģà¸īà¸ŀà¸²à¸°":2104,"à¸ģà¸£à¸°à¸ļ":2105,"à¸Ļà¹ģà¸Ħ":2106,"amp":2107,"à¸£à¸²à¸Ħà¸²":2108,"à¸Ńà¸ĩà¹Ģà¸Ĥ":2109,"à¹Ģà¸£à¸²à¹Ħà¸Ķ":2110,"à¸ģà¸²à¸£à¸Ķ":2111,"à¸Ńà¸¢à¸Ķ":2112,"à¸£à¸²à¸¢à¸¥à¸°à¹Ģà¸Ń":2113,"à¸ĩà¹Ģà¸¥à¸¢":2114,"à¸«à¸²à¸§":2115,"à¹ģà¸Ĭ":2116,"ai":2117,"Ġà¹Ħà¸Ń":2118,"à¸ģà¸¥à¸²à¸¢à¹Ģà¸Ľ":2119,"ore":2120,"à¹Ģà¸¡à¸¥":2121,"à¸ĩà¸«à¸¥":2122,"à¸§à¹Ģà¸Ľ":2123,"à¸¡à¸²à¸ģà¸Ĺ":2124,"à¸¢à¸¥":2125,"à¹Ģà¸Ĥà¸ķ":2126,"à¸²à¸ĩà¹Ħà¸£à¸ģ":2127,"à¸¢à¸Ńà¸¡à¸£":2128,"à¸§à¸Īà¸°":2129,"à¸¡à¸ļ":2130,"à¹Ħà¸«à¸¥":2131,"à¸ªà¸«à¸£":2132,"Ġ[":2133,"à¸²à¸§à¸ģ":2134,"ĠðŁĺ":2135,"à¸Ńà¸ĩà¸Ĺà¸²à¸ĩ":2136,"à¸ģà¹Ģà¸¥":2137,"à¸²à¸²à¸²à¸²":2138,"à¸Ńà¸Ħà¸§à¸²à¸¡à¸Ĺ":2139,"à¸Ľà¸£à¸°à¹Ģà¸Ķ":2140,"à¸Ńà¸¢à¸¡":2141,"Ġà¹Ģà¸¢":2142,"ont":2143,"à¸ģà¸£à¸°à¸Ī":2144,"Ġà¹ĥà¸ª":2145,"à¸¡à¹Ģà¸Ľ":2146,"à¸ĩà¸«à¸£":2147,"à¸ģà¸²à¸£à¹Ģà¸¥":2148,"à¸Ńà¸ĩà¸¥":2149,"à¸²à¸Ļà¸Ħà¸£":2150,"à¸²à¹ģà¸¡":2151,"à¸Ńà¸ĩà¹Ħà¸Ķ":2152,"à¸Ńà¸¢à¸Ĺ":2153,"à¸ģà¸Ĳà¸²à¸Ļ":2154,"à¸Ļà¸¨":2155,"à¸ļà¸Īà¸²à¸ģ":2156,"Ġà¸Ļà¸Ńà¸ģà¸Īà¸²à¸ģà¸Ļ":2157,"à¸Ķà¸Ĭà¸Ńà¸ļ":2158,"à¸ļà¸ĭ":2159,"à¸£à¸²à¸¡":2160,"à¸²à¸Ļà¸ª":2161,"Ġà¹Ģà¹Ģà¸¥":2162,"à¸Ľà¸Ľ":2163,"à¸ģà¹Ģà¸Ĥ":2164,"à¸²à¸«à¸¥à¸²à¸¢":2165,"à¸Ĥà¸Ńà¹ĥà¸«":2166,"à¸ģà¸©à¸ĵ":2167,"oil":2168,"à¹Ĥà¸Ńà¹Ģà¸Ħ":2169,"à¸Ńà¸Ļà¹Ħà¸§":2170,"à¸Ńà¸Īà¸²à¸ģ":2171,"à¸«à¸²":2172,"à¸²à¸ģà¸ı":2173,"à¸²à¸Ļà¸§":2174,"à¸Ļà¸²à¸Ĺ":2175,"à¸ªà¸¡à¸ļ":2176,"Ġà¸£à¸Ńà¸ļ":2177,"à¸²à¸§à¸Ķ":2178,"Ġà¸ļà¸²à¸ĩà¸Ĺ":2179,"à¹Ģà¸ģà¸²à¸°":2180,"à¸ªà¸ł":2181,"à¸Ĥà¸Ļà¸²à¸Ķà¸Ļ":2182,"Ġà¹Ģà¸Ĥà¸²à¸ģ":2183,"ate":2184,"à¹Ģà¸¢à¸Ńà¸°à¸¡à¸²à¸ģ":2185,"à¸°à¸ŀ":2186,"se":2187,"Ġà¹Ģà¸£à¸²à¹Ģà¸¥à¸¢":2188,"à¸Ļà¸ķà¸²à¸¡":2189,"Ġà¸Ĥà¸Ļà¸²à¸Ķ":2190,"80":2191,"à¹Ĥà¸ŀà¸ªà¸ķ":2192,"à¸Ļà¸ľà¸¡":2193,"Ġand":2194,"Ġà¹Ģ":2195,"ok":2196,"à¸Ńà¸ĩà¹Ģà¸Ķ":2197,"à¹Ĥà¸«à¸¥":2198,"à¸Ļà¸ķà¸Ńà¸Ļ":2199,"à¸Ńà¸ĭ":2200,"à¸Ħà¸²à¸Ķ":2201,"à¸Ńà¸ĩà¹Ģà¸ª":2202,"ord":2203,"Ġbe":2204,"ial":2205,"à¸²à¸¢à¸Ķ":2206,"55555555":2207,"à¸¤à¸Ķ":2208,"ong":2209,"à¸°à¹Ģà¸¥à¸²à¸°à¸ģ":2210,"à¸ģà¸£à¸°à¹Ģà¸Ľ":2211,"à¸¢à¸²à¸ģà¸²à¸¨":2212,"24":2213,"à¸ģà¹Ģà¸¥à¸¢":2214,"à¹ģà¸£à¸ģà¸Ĺ":2215,"à¸ĩà¸Īà¸²à¸ģà¸Ĺ":2216,"à¹Ĥà¸«":2217,"à¸Ħà¸Ńà¸¡":2218,"à¸ļà¸«":2219,"à¸¡à¸¥":2220,"à¹Ģà¸Ńà¸²à¹Ħà¸Ľ":2221,"à¹ģà¸«à¸¥":2222,"Ġais":2223,"à¸§à¸¢à¸§":2224,"à¹Ģà¸Ńà¸ĩà¸ģ":2225,"à¸¢à¸§à¸Ĺ":2226,"Ġ2561":2227,"à¸²à¸Ļà¹ģà¸¥":2228,"à¸§à¸Ĥà¸Ńà¸ĩ":2229,"à¸ĩà¸ģà¸£":2230,"à¸ģà¹Ģà¸Ľ":2231,"à¸Ńà¹Ģà¸Ĺ":2232,"à¸Ķà¹Ģà¸¥":2233,"100":2234,"ct":2235,"à¸§à¹Ģà¸Ĥ":2236,"Ġpl":2237,"à¸¡à¸Ī":2238,"23":2239,"à¸§à¹Ħà¸Ķ":2240,"à¸ģà¸²à¸£à¸ŀ":2241,"à¸¥à¸¢":2242,"à¸Ńà¸²à¸Ĺ":2243,"à¸¥à¸²":2244,"à¸ĩà¹ģà¸ļà¸ļ":2245,"à¸²à¸£à¸²à¸Ĭ":2246,"à¸Ńà¸¢à¸¡à¸²à¸ģ":2247,"our":2248,"à¸ĩà¸£à¸ĸ":2249,"à¸²à¸ĩà¹Ģà¸Ľ":2250,"à¸¢à¸§à¸Ļ":2251,"à¹Ģà¸ĭà¸Ńà¸£":2252,"ly":2253,"à¸Ħà¸Ńà¸Ļ":2254,"à¸§à¸¢à¸ķ":2255,"à¹Ħà¸Ľà¹Ģà¸Ĺ":2256,"à¹Ģà¸Ħà¸£à¸Ķ":2257,"à¸Īà¸Ńà¸Ķ":2258,"à¸Ľà¸£à¸°à¸ĺà¸²à¸Ļ":2259,"à¸ģà¸©à¸ĵà¸°":2260,"Ġà¹ģà¸ļà¸ļà¸Ļ":2261,"à¸¢à¸¢à¸¢à¸¢":2262,"à¹ģà¸¥à¸°à¸ª":2263,"à¸ĵà¹ģà¸¡":2264,"à¸²à¸¢à¹Ħà¸Ķ":2265,"Ġà¹ģà¸¥à¸°à¸ģ":2266,"à¸ĩà¹Ħà¸§":2267,"à¸ļà¹ĥà¸Ħà¸£":2268,"aw":2269,"à¸§à¸¢à¸Ķ":2270,"à¸§à¸Īà¸£":2271,"ss":2272,"à¸²à¹ģà¸ļà¸ļ":2273,"à¸Ļà¹Ħà¸«à¸Ļ":2274,"Ġà¸ªà¸ĸà¸²à¸Ļ":2275,"Ġà¸Ńà¸¢à¸²à¸ģà¹ĥà¸«":2276,"à¸Ħà¸£à¸ļ":2277,"https":2278,"à¸Ńà¸Ļà¹ģà¸¥":2279,"à¹ĥà¸Ļà¸£":2280,"à¸ĩà¹ģà¸¡":2281,"à¸Ħà¹Ĥà¸Ļ":2282,"à¸ªà¸°à¸Ķà¸§à¸ģ":2283,"63":2284,"à¸Ľà¸Ļ":2285,"à¸²à¸ĩà¹Ģà¸ģ":2286,"à¸ĩà¸¡à¸²":2287,"à¸Ńà¸²à¸Īà¸Īà¸°":2288,"à¸¥à¸ĩà¸Ĺà¸°à¹Ģà¸ļ":2289,"hone":2290,"à¸£à¸²à¸°à¸«":2291,"à¸¡à¸Ĭà¸²à¸ķ":2292,"Ġà¸Ħà¸°":2293,"à¸²à¸Ļà¸Ń":2294,"à¸Ļà¹ģà¸¡":2295,"à¸²à¸ķà¸¥à¸Ńà¸Ķ":2296,"Ġà¸Ńà¸¢à¸²à¸ģà¹Ħà¸Ķ":2297,"à¸Ķà¸Ħà¸§à¸²à¸¡":2298,"à¸Ńà¸ªà¸¡":2299,"à¸Ńà¸¥à¸¥":2300,"à¸Ļà¸Ŀ":2301,"à¸¢à¸²à¸¢à¸²à¸¡":2302,"à¸Ķà¹Ģà¸ŀ":2303,"à¸ģà¸«à¸¥":2304,"à¸²à¹Ħà¸§":2305,"à¸Ńà¸²à¸Ķ":2306,"à¹Ĥà¸¥à¸¢":2307,"à¸ļà¸Ĥà¸Ńà¸ĩ":2308,"à¸¡à¸Ħà¸£":2309,"à¸Ļà¹Ģà¸Ħà¸£":2310,"az":2311,"à¸Ńà¸ĩà¸Ńà¸¢":2312,"ĠðŁĴ":2313,"à¸ķà¸ĸ":2314,"à¸ģà¸¨":2315,"à¸²à¸ªà¸²à¸¡à¸²à¸£à¸ĸ":2316,"Ġ40":2317,"à¸ļà¸Ľà¸£":2318,"à¸°à¸ķ":2319,"à¸Ļà¹ģà¸«à¸¥à¸°":2320,"à¸Ħà¹Ĥà¸Ļà¹Ĥà¸¥à¸¢":2321,"à¹Ģà¸Ħà¸£à¸²à¸°à¸«":2322,"à¹Ħà¸Ľà¹Ģà¸£":2323,"à¸Ħà¸Ļà¸Ķ":2324,"à¹Ģà¸«à¸£":2325,"à¸²à¸ªà¸¡":2326,"________":2327,"à¸²à¸Ļà¸ŀ":2328,"à¸²à¸ĩà¸Īà¸²à¸ģ":2329,"à¹Ĥà¸Ķà¸¢à¸ªà¸²à¸£":2330,"tv":2331,"à¸²à¹ģà¸ļà¸ļà¸Ļ":2332,"à¸Ĺà¸Ļ":2333,"Ġà¹Ĥà¸Ķà¸¢à¸Ĺ":2334,"Ġà¸Ľà¸£à¸°à¹Ģà¸Ĺà¸¨":2335,"view":2336,">>":2337,"à¸Ľà¹ģà¸ļà¸ļ":2338,"à¸²à¸¢à¸¡":2339,"à¸²à¸ĩà¸¡à¸²à¸ģ":2340,"Ġà¹Ģà¸«à¸¥":2341,"à¸Ńà¸Ļà¸ŀ":2342,"Ġà¸Ńà¸Ķ":2343,"Ġà¹ģà¸¥à¸°à¸ª":2344,"ex":2345,"à¸ļà¸¢":2346,"à¸²à¸ļà¸²à¸ģ":2347,"à¸ªà¸Ĺ":2348,"à¸«à¸§à¸²à¸Ļ":2349,"à¸ģà¹ģà¸ªà¸Ķ":2350,"à¸ŀà¸§à¸ģà¸Ļ":2351,"Ġsm":2352,"à¸Ńà¸Ļà¸Ń":2353,"à¸ģà¸£à¸¢à¸²à¸Ļ":2354,"Ġà¹Ģà¸£à¸²à¸¡":2355,"sh":2356,"à¸Ńà¹Ģà¸¡à¸£":2357,"à¸ķà¸£à¸ĩà¸Ļ":2358,"ark":2359,"à¸Īà¸°à¸ŀ":2360,"à¸²à¸¢à¸Ĥà¸Ńà¸ĩ":2361,"35":2362,"à¸Ńà¸ĩà¸Ľ":2363,"à¸Ļà¹Ħà¸£":2364,"à¸§à¹Ģà¸¥":2365,"à¸²à¸Ńà¸²à¸Ī":2366,"à¸¡à¸łà¸²à¸©":2367,"à¸¢à¸ĩà¸Ķ":2368,"Ġà¹ģà¸¥à¸°à¸ķ":2369,"à¸ļà¹ģà¸¡":2370,"à¸§à¸ľà¸¡":2371,"Ġal":2372,"à¸Ļà¸ł":2373,"à¸Ļà¸Ļà¸°":2374,"Ġ60":2375,"Ġà¸ľà¸¡à¹Ħà¸¡":2376,"à¸ģà¹Ģà¸ª":2377,"à¸²à¸ĩà¸ļ":2378,"à¸Ħà¸Ļà¹Ħà¸Ĺà¸¢":2379,"Ġà¸Ńà¸²à¸Ĺ":2380,"à¸ĭà¸°":2381,"Ġbl":2382,"à¸Ĭà¸Ļà¸°":2383,"à¸Ńà¸ģà¸Ĺ":2384,"Ġhttp":2385,"à¸įà¸Ĺ":2386,"à¸§à¹Ĥà¸¡à¸ĩ":2387,"xx":2388,"à¸²à¸¢à¹Ģà¸ĩ":2389,"à¸²à¹ģà¸ģ":2390,"à¸²à¸Ļà¸°":2391,"à¸Ķà¹Ģà¸Ĺ":2392,"à¸ĩà¸§à¸¥":2393,"à¸¡à¸Ńà¸ĩ":2394,"à¸īà¸²à¸ģ":2395,"Ġà¸ªà¸ĩà¸ª":2396,"à¸¢à¸Ī":2397,"à¸ªà¸¡à¸²à¸Ĭ":2398,"à¹Ĥà¸Ķà¸¢à¹Ħà¸¡":2399,"à¸ģà¸²à¸£à¸ģ":2400,"ob":2401,"Ġà¹Ĥà¸Ľà¸£":2402,"ey":2403,"à¹Ħà¸Ľà¸ĸ":2404,"Ġà¸Ĥà¸Ńà¹ĥà¸«":2405,"à¸ĩà¹Ģà¸¡":2406,"line":2407,"à¸Ńà¸¡à¸²à¸ģ":2408,"48":2409,"à¸¥à¸¡":2410,"à¸¨à¸Ļ":2411,"à¸Ńà¸Ńà¸Ļà¹Ħà¸¥à¸Ļ":2412,"à¸Ľà¸£à¸°à¸Ĺ":2413,"à¸Ńà¸ł":2414,"à¸Ĥà¸Ńà¸ĩà¸ľ":2415,"à¸ļà¹Ģà¸Ķ":2416,"à¹Ħà¸Ľà¸ª":2417,"Ġà¹ģà¸«":2418,"à¹Ģà¸§à¸Ĺ":2419,"à¸ĩà¹Ģà¸ģà¸ķ":2420,"à¸²à¸§à¸ķ":2421,"à¸¢à¸Ńà¸¢":2422,"à¹ĥà¸Ļà¸ļ":2423,"à¹Ģà¸Ńà¸²à¹Ħà¸§":2424,"à¸²à¸ĩà¹Ħà¸¡":2425,"à¸¢à¸ĩà¸ģ":2426,"à¸Ļà¸«à¸¡":2427,"à¸²à¸Īà¸°à¹Ħà¸Ķ":2428,"ice":2429,"à¸Ĥà¸Ńà¸ĩà¸Ħ":2430,"à¸ĩà¹Ģà¸ªà¸£":2431,"à¸¡à¸łà¸²à¸©à¸ĵ":2432,"à¸²à¸Īà¸°à¸Ĺ":2433,"ers":2434,"à¸Ļà¹Ģà¸Ħ":2435,"à¸¡à¹Ħà¸¡":2436,"à¸Ļà¹Ħà¸Ľà¹Ħà¸Ķ":2437,"à¸Ńà¸ĩà¸ĭ":2438,"à¸Ļà¹ĥà¸Ĭ":2439,"Ġà¹Ħà¸§":2440,"à¸²à¹ģà¸Ħ":2441,"Ġà¸ªà¸§à¸¢":2442,"70":2443,"à¸Ĺà¸«à¸²à¸£":2444,"à¸Ńà¸¢à¸Ļà¸°à¸Ħà¸°":2445,"à¸²à¸Ħà¸°":2446,"à¹Ģà¸¨à¸£":2447,"à¸²à¸Ķà¹Ģà¸Ī":2448,"à¸Łà¸Ńà¸£":2449,"ax":2450,"à¸ģà¸ģà¸§":2451,"Ġà¸ªà¸²à¸Ĥ":2452,"à¹Ħà¸ģ":2453,"--------------------------------":2454,"à¸Ľà¸£à¸°à¸Ĭà¸²à¸ĺ":2455,"à¸Ĳà¸²à¸Ļà¸°":2456,"à¸¡à¸²à¸ģà¸¡à¸²à¸¢":2457,"à¸Ńà¸¢à¹Ħà¸Ķ":2458,"à¸ģà¸Ŀ":2459,"à¸Īà¸ī":2460,"og":2461,"Ġà¹Ģà¸«à¸ķ":2462,"à¸ĩà¹Ģà¸Ĺ":2463,"à¸²à¸Ļà¸«à¸¥":2464,"Ġà¹Ģà¸Ľà¸¥":2465,"à¸²à¸Ļà¹Ħà¸¡":2466,"à¸¢à¸ļà¸ģ":2467,"à¸¡à¸²à¹Ģà¸¥":2468,"à¸²à¸Ļà¸¥":2469,"à¸Ĺà¸Ĺ":2470,"ri":2471,"à¸Ńà¸ģà¹Ħà¸¡":2472,"Ġz":2473,"45":2474,"à¹Ħà¸Ľà¸ķ":2475,"âĿ¤":2476,"à¸Ļà¹Ħà¸§":2477,"à¸ĩà¸ľà¸¡":2478,"à¸Ńà¸¡à¸²":2479,"Ġà¸£à¸§à¸¡à¸Ĺ":2480,"à¸Ľà¸£à¸°à¹Ģà¸łà¸Ĺ":2481,"à¸ĩà¹ĥà¸Ĭ":2482,"Ġà¹Ģà¸ŀà¸£à¸²à¸°à¸¡":2483,"Ġà¹Ħà¸Ĺà¸¢":2484,"à¸ĩà¹Ģà¸Ń":2485,"à¸²à¸ĩà¸²à¸Ļà¸Ĺ":2486,"à¸Īà¸°à¹ĥà¸«":2487,"oun":2488,"ung":2489,"à¸įà¸įà¸²":2490,"à¸§à¸¢à¸ĩà¸²à¸Ļ":2491,"à¸ķà¸²à¸¡à¸Ĺ":2492,"à¸Ļà¸ĩà¸²à¸Ļ":2493,"à¹Ģà¸«à¸¡à¸²à¸°à¸ªà¸¡":2494,"ize":2495,"Ġ)":2496,"61":2497,"à¸Ħà¸Ļà¸«à¸Ļ":2498,"Ġà¸¡à¸²à¸£":2499,"à¹Ģà¸īà¸¥":2500,"Ġon":2501,"500":2502,"ass":2503,"à¸°à¸¡":2504,"====":2505,"end":2506,"à¸§à¹ĥà¸«":2507,"à¹Ģà¸¡à¸ķà¸£":2508,"à¹ģà¸Ńà¸£":2509,"à¸²à¸Ľà¸¥":2510,"à¸ģà¹ĥà¸Ļ":2511,"22":2512,"à¸Ĭà¸Ĭ":2513,"à¹Ħà¸ķà¸¥":2514,"à¸Ŀà¸£":2515,"à¸ĩà¸ģà¸£à¸°à¸Ĺ":2516,"à¹ģà¸¥à¸Ļà¸Ķ":2517,"à¸Ńà¸ĩà¸«à¸¥":2518,"Ġà¸Ħà¸§à¸²à¸¡à¸£":2519,"!!!":2520,"à¸¥à¸ĩà¹Ħà¸Ľ":2521,"à¸Ńà¸ĺ":2522,"à¸²à¸¢à¸§":2523,"Ġà¹Ĥà¸Ń":2524,"à¸Ļà¹ģà¸Ļ":2525,"à¸¡à¸²à¸ģà¸Ħà¸£":2526,"à¸¡à¹Ģà¸ĩ":2527,"youtube":2528,"à¹Ģà¸Ľà¸£":2529,"Ġà¹ģà¸¥à¸°à¹Ħà¸¡":2530,"à¸Īà¸°à¸ª":2531,"à¸ļà¸Ħà¸Ļà¸Ĺ":2532,"à¸²à¸Ļà¸Ńà¸²à¸«à¸²à¸£":2533,"à¹Ģà¸¥à¸¢à¸Ĺ":2534,"à¸Ħà¸£à¸ĩà¸ģà¸²à¸£":2535,"à¸¢à¸£à¸ķ":2536,"à¹ĥà¸Īà¸§":2537,"à¸²à¸Ļà¹Ħà¸Ķ":2538,"à¸Īà¸°à¸Ħ":2539,"à¸Ļà¹Ħà¸Ĺà¸¢":2540,"à¸Ĭà¸¢":2541,"Ġà¸ŀà¸Ļ":2542,"à¸§à¸ľ":2543,"à¸ļà¸Ńà¸¢":2544,"à¹Ĥà¸ł":2545,"ill":2546,"à¸ĩà¸Ħà¸£à¸²à¸¡":2547,"ailand":2548,"à¸Ħà¸§à¸²à¸¡à¹Ģà¸«":2549,"à¸Ńà¸ĩà¸£à¸²à¸§":2550,"à¸Īà¸°à¹Ģà¸Ĥ":2551,"à¸ģà¸Ĭà¸²à¸¢":2552,"à¸Ĭà¸§à¸Ļ":2553,"Ġ2019":2554,"à¹Ģà¸Ĥà¸²à¹Ħà¸¡":2555,"à¸²à¹Ģà¸«à¸¡":2556,"à¹Ĥà¸Ľ":2557,"à¹Ħà¸Ľà¸«":2558,"à¸²à¸ŀà¸£à¸°":2559,"à¹Ĥà¸Ĭà¸§":2560,"ðŁı":2561,"Ġà¸«à¸¥à¸²à¸¢":2562,"à¸£à¸°à¸ļà¸²à¸¢":2563,"à¸²à¸«à¸¡à¸²à¸¢":2564,"à¸Ńà¹Ħ":2565,"à¸Ńà¸Ķà¸£":2566,"à¸Ļà¹Ģà¸¢à¸Ńà¸°":2567,"à¸Ľà¸ģà¸Ħà¸£":2568,"à¸²à¸¯":2569,"à¸Ķà¸§à¸ĩ":2570,"à¸ļà¹ģà¸ķ":2571,"à¸ģà¸²à¸£à¸Ļ":2572,"à¹Ĩà¸ģ":2573,"Ġse":2574,"à¸§à¸£à¸£à¸ĵ":2575,"à¸Ľà¸ķ":2576,"à¸Ńà¸Ļà¸ļ":2577,"Ġ**":2578,"Ġ28":2579,"à¹Ģà¸«à¸¢":2580,"à¸Ńà¸Ļà¹Ģà¸£":2581,"à¸ĩà¸«à¸¥à¸²à¸¢":2582,"à¸Ńà¸²à¸£à¸¡à¸ĵ":2583,"à¹Ģà¸«à¸ĩ":2584,"Ġà¸Ĭà¸²à¸§":2585,"à¹Ħà¸«à¸¡à¸Ħ":2586,"à¸ļà¹ģà¸¥":2587,"à¸ĺà¸£à¸£à¸¡à¸Ļ":2588,"à¸ĩà¹Ģà¸Ĭ":2589,"à¸łà¸²à¸©à¸²à¸Ń":2590,"à¸¢à¸Ļà¹ģà¸Ľà¸¥à¸ĩ":2591,"Ġpro":2592,"à¸Ńà¸Ńà¸ģà¸ģ":2593,"à¸§à¸«":2594,"à¸²à¸ĩà¸Ĭ":2595,"Ġà¸łà¸²à¸Ħ":2596,"à¸§à¸¡à¸¡":2597,"à¸ģà¸£à¸°à¸Ķ":2598,"Ġ26":2599,"à¸¢à¸Ļà¹Ħà¸Ľ":2600,"34":2601,"à¸²à¸Ļà¸£":2602,"à¸²à¸ĩà¸¢":2603,"à¸Ńà¸ļà¸£":2604,"à¸ĩà¸¨":2605,"à¸Ńà¸ĩà¹Ģà¸ģ":2606,"à¸²à¸Ľà¸£à¸°à¸¡à¸²à¸ĵ":2607,"Ġà¸Ĥà¸Ńà¸Ħ":2608,"à¸¥à¸²à¸¢":2609,"à¸ĵà¸ŀ":2610,"ast":2611,"à¸²à¸ĩà¸Ĭà¸²à¸ķ":2612,"ind":2613,"Ġ27":2614,"à¸ĩà¸ªà¸£":2615,"à¸Īà¸°à¹Ģà¸£":2616,"Ġà¹ģà¸¥à¸°à¸¢":2617,"à¹Ģà¸Ľà¸Ńà¸£":2618,"Ġex":2619,"à¸¡à¸Īà¸²à¸ģ":2620,"à¸Īà¸ģà¸²à¸£":2621,"à¸ŀà¸²à¸ģ":2622,"Ġà¸¢à¸ģ":2623,"à¸ŀà¸£à¸°à¹Ģà¸Ńà¸ģ":2624,"à¸§à¸¢à¹ĥà¸«":2625,"à¸²à¸§à¸°":2626,"à¸Ńà¸¢à¸¥à¸°":2627,"à¸Īà¸°à¹Ģà¸¥":2628,"age":2629,"à¸Ńà¸ĩà¸ģà¸¥":2630,"à¸Ħà¸ļà¸ģ":2631,"à¸Ĭà¸²à¸§à¸ļ":2632,"Ġà¸ģà¸²à¸£à¸Ĺ":2633,"à¹Ģà¸ŀà¸¥":2634,"à¸Ńà¸°à¹Ħà¸£à¸ļ":2635,"à¸ķà¸ł":2636,"à¸Ńà¹ĥà¸Ļ":2637,"Ġà¹Ģà¸£à¸²à¸Ħ":2638,"are":2639,"à¸Ńà¸²à¸Ĭ":2640,"ity":2641,"à¸£à¸ĸà¹Ħà¸Ł":2642,"Ġà¸ªà¸²à¸¢":2643,"à¸Ńà¸Ńà¸ł":2644,"à¸ļà¹ĥà¸«":2645,"à¸§à¹Ģà¸¡":2646,"à¸Ńà¸¢à¸ª":2647,"à¹Ģà¸Ńà¹Ģà¸Ĭ":2648,"à¸Ńà¸¡à¸ķ":2649,"Ġapp":2650,"à¹Ģà¸Ńà¸ª":2651,"à¸¡à¹ĥà¸«":2652,"cr":2653,"à¸²à¸Īà¸°à¹Ħà¸¡":2654,"à¸Ńà¸ĩà¸¨":2655,"à¸Ńà¸¢à¹ĥà¸«":2656,"ain":2657,"à¸Ńà¸ļà¸Ĺ":2658,"Ġà¹Ģà¸¥à¸¢à¸Ńà¸¢à¸²à¸ģ":2659,"à¸ľà¸¥à¸ĩà¸²à¸Ļ":2660,"Ġà¹Ģà¸£à¸²à¸ķ":2661,"à¸ĸà¸²à¸ļ":2662,"à¹Ħà¸Ľà¸£":2663,"Ġcr":2664,"à¹ģà¸¥à¸°à¸¡":2665,"px":2666,"Ġà¹Ģà¸¡à¸ķà¸£":2667,"à¹Ģà¸ŀà¸¨":2668,"Ġun":2669,"à¸ĩà¸ģà¸²à¸¢":2670,"à¸Ľà¸£à¸°à¸¡":2671,"à¸Ļà¹ģà¸£":2672,"à¸Ķà¸ĭ":2673,"à¸ģà¸°":2674,"Ġà¸¯":2675,"Ġà¹ģà¸ŀ":2676,"à¸ĩà¹Ģà¸Ī":2677,"à¸Ńà¸£à¸ĸ":2678,"Ġcol":2679,"à¸¡à¸²à¹Ħà¸Ķ":2680,"à¹ģà¸¥à¸°à¸Ĺ":2681,"à¹Ģà¸ľà¸¢":2682,"bo":2683,"Ġà¹Ģà¸ķà¸£":2684,"Ġà¸ªà¸Ļ":2685,"à¹Ħà¸Łà¸¥":2686,"à¸§à¹Ģà¸Ķ":2687,"ect":2688,"pl":2689,"ide":2690,"à¸Ĥà¸Ńà¸ĩà¹Ģà¸£à¸²":2691,"à¸ļà¹ĥà¸Ī":2692,"à¸ªà¸²à¸Ĥ":2693,"à¸Ńà¸¢à¸Ļ":2694,"à¸Ńà¸°à¸Ħà¸£":2695,"à¸²à¹Ģà¸ļ":2696,"à¸Ħà¸Ļà¸ģ":2697,"Ġcon":2698,"ink":2699,"Ġà¸Īà¸°à¹Ģà¸Ľ":2700,"à¸§à¸ĩà¸¨":2701,"Ġà¸Īà¸°à¸Ĺ":2702,"à¸²à¸¬":2703,"à¸Ĥà¸Ńà¸ĩà¸ľà¸¡":2704,"à¹Ģà¸ªà¸¡à¸Ń":2705,"à¸²à¸Ļà¸§à¸Ļà¸¡à¸²à¸ģ":2706,"à¹Ģà¹Ģà¸ļ":2707,"à¸Ķà¸Ħà¸£":2708,"Ġà¹Ģà¸®":2709,"à¸ļà¹Ģà¸Ħ":2710,"Ġà¹ģà¸¥à¸°à¸Ń":2711,"à¸§à¸¢à¸Ļ":2712,"facebook":2713,"Ġà¸ķà¸Ńà¸Ļà¸Ĺ":2714,"à¸¢à¸ģà¸£":2715,"à¸£à¸Ńà¸Ķ":2716,"28":2717,"à¸¡à¸²à¸Ħ":2718,"à¸ģà¹Ģà¸Ķ":2719,"à¸Ńà¸¢à¸ģà¸§":2720,"à¸Ńà¸Ļà¹Ģà¸Ľ":2721,"à¸Īà¸°à¸ĸ":2722,"à¸¢à¸Ļà¸ķà¸£":2723,"à¸ļà¸ģà¸¥":2724,"à¹Ħà¸ĭà¸ķ":2725,"ram":2726,"à¹Ģà¸Ħà¸¢à¸Ĺ":2727,"Ġà¹ĥà¸Ļà¸§":2728,"à¸²à¹ĥà¸ª":2729,"à¸ŀà¸Ńà¸Ķ":2730,"à¹Ģà¸£à¸²à¸§":2731,"à¹ĮâĢĿ":2732,"à¸ķà¸Ļà¹Ģà¸Ńà¸ĩ":2733,"à¸ªà¸Ńà¸ļà¸ªà¸§à¸Ļ":2734,"à¸ªà¸ĸà¸²à¸Ļà¸Ĺ":2735,"à¸²à¹Ģà¸ķ":2736,"à¸ĩà¸Ħà¸¥":2737,"à¸Ńà¸Ļà¸ľ":2738,"à¸²à¹Ħà¸Ĺà¸¢":2739,"Ġà¸ģà¸Ĺà¸¡":2740,"à¹Ħà¸§à¸£":2741,"à¹Ħà¸«à¸Ļà¸Ĺ":2742,"Ġà¹ģà¸¥à¸°à¸Ļ":2743,"ist":2744,"à¸Ļà¸Ĳà¸²à¸Ļ":2745,"à¸£à¸²à¸Ĭà¸ģà¸²à¸£":2746,"à¸Ħà¸Ļà¸ķ":2747,"âľ":2748,"à¸ĭà¸ļ":2749,"à¸Ķà¸ŀà¸¥à¸²à¸Ķ":2750,"à¸ģà¸²à¸¢":2751,"Ġà¹Ģà¸£à¸²à¸£":2752,"à¸Īà¸ŀà¸£à¸°":2753,"à¸Ńà¹ģà¸¥":2754,"à¸²à¸§à¸£":2755,"à¸²à¹ĥà¸«à¸¡":2756,"à¸Ĩà¸©à¸ĵ":2757,"à¹Ħà¸Ľà¸¢":2758,"à¸²à¸ķà¸²à¸¥":2759,"à¸²à¸ĩà¸Ĥ":2760,"à¹Ĥà¸Ľà¸£à¹ģ":2761,"à¸Ńà¸ģà¹Ģà¸ļ":2762,"à¸Ķà¸²à¸£":2763,"à¹Ģà¸¥à¸¢à¹Ħà¸¡":2764,"hd":2765,"à¹ģà¸ķà¸ģà¸ķ":2766,"à¸²à¸ĩà¸Ħà¸§à¸²à¸¡":2767,"à¹ģà¸ªà¸Ļ":2768,"à¸Ĥà¸Ńà¹Ĥà¸Ĺà¸©":2769,"à¸ĩà¸ªà¸Ńà¸ĩ":2770,"Ġà¹ĥà¸Ī":2771,"Ġà¸Ĭà¸¡":2772,"à¹ĥà¸Ļà¸Ń":2773,"Ġà¸ªà¸Ļà¹ĥà¸Ī":2774,"est":2775,"ðŁĺį":2776,"à¸¥à¸Ļ":2777,"à¹ģà¸ļà¸£à¸Ļà¸Ķ":2778,"à¸ķà¸ļ":2779,"à¸Ńà¸Ļà¸Ī":2780,"à¸ŀà¸Ńà¹ĥà¸Ī":2781,"tr":2782,"ud":2783,"à¹ĥà¸Ļà¹Ģà¸£":2784,"à¹Ģà¸Ĥà¸²à¸¡":2785,"uk":2786,"à¸²à¸ªà¸ķà¸£":2787,"à¸Ħà¸§à¸£à¸Ĺ":2788,"à¸²à¸Īà¸°à¸ķ":2789,"Ġpr":2790,"co":2791,"à¸ļà¹Ĥà¸ķ":2792,"à¹Ħà¸«à¸Ļà¸ļ":2793,"Ġad":2794,"Ġà¸«à¸§":2795,"à¸ŀà¸ķ":2796,"ib":2797,"à¹Ģà¸ªà¸ĺ":2798,"à¸¢à¸Ń":2799,"Ġà¸ģà¸£à¸ĵ":2800,"ver":2801,"à¸Ńà¸°à¹Ħà¸£à¸Ĺ":2802,"à¸ģà¸£à¸ĺ":2803,"Ġà¸ķà¸¥à¸Ńà¸Ķ":2804,"................":2805,"à¸Īà¸°à¸¢":2806,"à¸§à¸¥à¸°à¸Ħà¸£":2807,"à¸¡à¸«à¸Ļ":2808,"à¸Ļà¸Ĭà¸Ńà¸ļ":2809,"à¸£à¸ŀ":2810,"à¸Ńà¹Ģà¸£à¸²":2811,"à¹Ģà¸£à¸²à¸¢":2812,"à¸Ľà¸£à¸°à¸¢":2813,"à¸Ļà¹ģà¸ģ":2814,"37":2815,"Ġspoil":2816,"Ġà¸Ħà¸°à¹ģà¸Ļà¸Ļ":2817,"à¸ĩà¸Ĺà¸²à¸ĩ":2818,"à¸ĵà¸ģ":2819,"à¸¢à¸Ļà¸ģ":2820,"à¸²à¹Ħà¸¡à¹Ħà¸¡":2821,"à¹Ĥà¸¡à¸ªà¸£":2822,"à¸Ńà¸Ļà¹Ħà¸Ķ":2823,"à¸ĩà¹Ħà¸¡à¸Ħ":2824,"à¸Ļà¹ģà¸£à¸ģ":2825,"à¹Ĥà¸łà¸Ħ":2826,"27":2827,"à¸²à¹Ħà¸Ľà¸Ĺ":2828,"à¹Ħà¸Ľà¸§":2829,"à¸§à¹ģà¸Ĺ":2830,"ps":2831,"Ġ|":2832,"Ġà¸Ħà¸²à¸Ķ":2833,"à¸¢à¸ļà¸²à¸¢":2834,"à¸Īà¸ģ":2835,"à¸ªà¸ĸà¸²à¸Ļà¸ģà¸²à¸£à¸ĵ":2836,"à¸ĵà¸«":2837,"à¸²à¸«à¸²à¸ģ":2838,"à¹ģà¸ĸà¸§":2839,"à¹Ģà¸ģà¸¡à¸ª":2840,"Ġà¸£à¸°à¸ļ":2841,"à¸ķà¸ªà¸²à¸«":2842,"à¹Į\"":2843,"Ġà¹Ģà¸£à¸²à¹Ģà¸Ľ":2844,"à¸Ħà¸ĩà¹Ħà¸¡":2845,"ans":2846,"à¸²à¸Ļà¸ģà¸²à¸£":2847,"à¸§à¸Ļà¸¡à¸²à¸ģ":2848,"Ġcl":2849,"à¸ķà¹ĥà¸Ī":2850,"à¸Ńà¸Ļà¸Ńà¸¢":2851,"à¸Ķà¸ĩà¸²à¸Ļ":2852,"à¸²à¸¢à¹Ĩ":2853,"à¸²à¹ĥà¸Īà¸§":2854,"à¸Ļà¸«à¸¡à¸Ķ":2855,"à¸£à¸ĸà¸¢à¸Ļà¸ķ":2856,"à¸¡à¸ĩà¸²à¸Ļ":2857,"à¸£à¸²à¸Ķ":2858,"à¸¥à¸¯":2859,"à¸Ĺà¸²à¸ĩà¸ģà¸²à¸£":2860,"Ġus":2861,"à¸ľà¸ªà¸¡":2862,"à¸Ĳà¸ĺà¸£à¸£à¸¡à¸Ļ":2863,"à¸ªà¸łà¸²à¸ŀ":2864,"à¸īà¸ļ":2865,"à¸²à¸¥à¸²à¸¢":2866,"à¹ģà¸®":2867,"ts":2868,"cc":2869,"à¹Ħà¸Ľà¸Ń":2870,"à¸ļà¹Ħà¸§":2871,"à¸ªà¸°à¸Ńà¸²à¸Ķ":2872,"Ġà¹Ģà¸ŀà¸¥à¸ĩ":2873,"Ġiphone":2874,"à¸¡à¸°":2875,"à¸ĩà¹Ħà¸Ĺà¸¢":2876,"à¹ģà¸ļà¸ļà¹Ħà¸¡":2877,"Ġà¹Ģà¸Ł":2878,"Ġà¸¥à¸°":2879,"à¸ģà¹ģà¸ķ":2880,"200":2881,"ock":2882,"à¸Ńà¸¢à¸ķ":2883,"à¸²à¸ģà¸²à¸ģ":2884,"à¸¡à¸²à¸§":2885,"à¸²à¸ľà¸¥":2886,"à¸²à¸Ľà¸£à¸°à¸ģ":2887,"à¸ģà¹ĥà¸«":2888,"ĠðŁĳ":2889,"à¸ķà¸°à¸§":2890,"Ġyou":2891,"à¹Ģà¸ªà¸Ļà¸Ń":2892,"à¹ģà¸ªà¸Ķà¸ĩà¸Ħà¸§à¸²à¸¡":2893,"à¹Ģà¸ŀà¸Ī":2894,"Ġà¹Ĥà¸¡":2895,"Ġà¸ļà¸Ńà¸ģà¸§":2896,"à¸§à¸¡à¸ĩà¸²à¸Ļ":2897,"âĢľ":2898,"ank":2899,"Ġà¹ĥà¸Ļà¸Ĭ":2900,"à¸Ĥà¸¢à¸²à¸¢":2901,"à¸µ.":2902,"à¸Ļà¸«à¸¢":2903,"à¸Ĺà¸²à¸ĩà¸Ĺ":2904,"à¸§à¸¢à¸Ļà¸°à¸Ħà¸£":2905,"à¸Ńà¹ģà¸¥à¸°":2906,"à¸Īà¸²à¸ģà¸ģà¸²à¸£":2907,"oog":2908,"Ġem":2909,"à¸ŀà¸Ńà¸¡":2910,"à¸ģà¸Īà¸°":2911,"à¸²à¹Ħà¸Ľà¸Ķ":2912,"Ġ&":2913,"à¸Ķà¹Ģà¸¥à¸¢":2914,"à¸¡à¸«à¸²à¸§":2915,"Ġà¹ģà¸¥à¸°à¹Ģà¸Ľ":2916,"Ġ2018":2917,"à¹Ģà¸ŀà¸Ĭà¸£":2918,"à¸²à¹ģà¸«":2919,"à¸²à¸ŀà¸§à¸ģ":2920,"à¸§à¸Ļà¸Ĥà¸Ńà¸ĩ":2921,"à¸ļà¸ľà¸¥":2922,"Ġà¸ŀà¸£à¸£à¸Ħ":2923,"à¸ģà¹Ģà¸ķà¸°":2924,"à¸£à¸°à¸ļà¸²à¸Ķ":2925,"à¸²à¸Ļà¸ļ":2926,"Ġà¸ľà¸¡à¸§":2927,"ah":2928,"à¸Ķà¸ľ":2929,"à¸Īà¸²à¸ģà¸Ĺ":2930,"Ġis":2931,"à¸§à¸¢à¸ĭ":2932,"à¸ģà¸ªà¸²à¸§":2933,"à¹Ģà¸£à¸²à¹Ģà¸¥à¸¢":2934,"à¸ŀà¹Ģà¸Ķ":2935,"88":2936,"à¸²à¸ĩà¸¥":2937,"à¸£à¸Ķ":2938,"à¸Ńà¹ĥà¸Ĭ":2939,"à¸Ļà¸²à¸Ķà¸Ļ":2940,"à¸ĩà¸ļà¸Ľà¸£à¸°à¸¡à¸²à¸ĵ":2941,"gb":2942,"à¸Ķà¹Ģà¸ľà¸¢à¸§":2943,"Ġà¹ģà¸¥à¸°à¸£":2944,"à¸ķà¸£à¸ĩà¸ģ":2945,"Ġà¹Ħà¸£":2946,"à¸ľà¸¡à¸¡":2947,"à¹Ĥà¸ļ":2948,"Ġ29":2949,"à¸Ńà¸°à¸Ħ":2950,"à¸²à¸ī":2951,"br":2952,"à¸§à¸Ļà¸°":2953,"++++++++":2954,"à¸ķà¸£à¹Ģà¸Ħà¸£à¸Ķ":2955,"Ġà¹ĥà¸Ħà¸£à¸¡":2956,"à¸§à¹Ģà¸£à¸²à¸ģ":2957,"Ġsc":2958,"à¸Īà¸°à¸Ĭ":2959,"ff":2960,"à¸Ńà¸¢à¹ģà¸¥":2961,"à¸Ńà¸Ļà¸«à¸¥":2962,"à¹Ĥà¸£à¸Ľ":2963,"oth":2964,"Ġfacebook":2965,"à¸§à¸¢à¸ª":2966,"à¸ģà¹Ģà¸Ĺ":2967,"Ġà¸¡à¸²":2968,"à¸Ńà¸ªà¸¡à¸Ħà¸§à¸£":2969,"à¸Īà¸°à¸Ļ":2970,"à¸Ķà¸²à¸§":2971,"à¸²à¸ģà¸«à¸¥à¸²à¸¢":2972,"à¸£à¸²à¸©":2973,"à¸²à¸Ļà¹Ģà¸£":2974,"à¸§à¸Ļà¸«à¸Ļ":2975,"enter":2976,"ess":2977,"à¸Ĥà¸Ńà¸ĩà¸Ļ":2978,"à¸°à¸Ķà¸§à¸ģ":2979,"à¸§à¸Ļà¸Ļ":2980,"à¸Ĥà¸ĵà¸°à¸Ĺ":2981,"à¸ģà¸ģà¸²à¸£":2982,"à¸Ĥà¸Ńà¸ĩà¸£":2983,"à¸Ķà¸¢à¸Ńà¸Ķ":2984,"à¸Ńà¸ªà¸Ńà¸ĩ":2985,"Ġ500":2986,"Ġà¹ĥà¸ļ":2987,"à¸¥à¸Ķà¸¥à¸ĩ":2988,"à¸Īà¸°à¹ĥà¸Ĭ":2989,"à¸Ķà¹Ģà¸ģ":2990,"à¸ģà¸Ĺà¸£":2991,"à¸Ńà¹ĥà¸Ħà¸£":2992,"Ġ31":2993,"Ġfor":2994,"à¸ģà¸Ħà¸Ļà¸Ĺ":2995,"à¸ķà¸ªà¸²à¸«à¸ģà¸£à¸£à¸¡":2996,"Ġ*":2997,"à¸Ĥà¸Ńà¸Ħ":2998,"à¸ĩà¸Ħà¸Ļ":2999,"à¸Ħà¸§à¸²à¸¡à¸¡":3000,"à¹Ģà¸Ĺà¸Ħà¹Ĥà¸Ļà¹Ĥà¸¥à¸¢":3001,".....":3002,"qu":3003,"Ġà¹Ģà¸£à¸²à¸Ńà¸¢à¸²à¸ģ":3004,"à¸Ļà¸ĩ":3005,"********":3006,"Ġà¸Ľà¸£à¸°à¸Ī":3007,"à¸ªà¸Ļà¸²à¸¡à¸ļ":3008,"à¸ĩà¸«à¸¡":3009,"à¸Ńà¸ĩà¹Ħà¸Ĺà¸¢":3010,"à¸Īà¸Ļà¸ĸ":3011,"26":3012,"à¸ĩà¹ĥà¸«à¸į":3013,"Ġ300":3014,"29":3015,"à¸Ħà¸Ń":3016,"à¸ļà¹Ģà¸¥":3017,"à¹Ĥà¸¡à¸Ĭ":3018,"à¹Ģà¸Īà¸Ńà¸£":3019,"à¸Ńà¸ĩà¹ģà¸¥":3020,"à¸Ļà¸ŀà¸£":3021,"à¸²à¸ªà¸ķ":3022,"à¸¡à¸ĭ":3023,"à¸Ńà¸¡à¸Ķ":3024,"Ġà¸Īà¸°à¸ķ":3025,"à¸ĩà¹Ģà¸ķ":3026,"à¸¢à¸į":3027,"à¸²à¸£à¸²à¸¢":3028,"à¸§à¸§à¸§à¸§":3029,"à¹Ħà¸Ľà¹Ģà¸¥à¸¢":3030,"à¸ģà¸£à¸°à¹ģà¸ª":3031,"the":3032,"à¸²à¸Ļà¸Ĭ":3033,"à¸Ļà¸ģà¸£à¸°":3034,"à¸ľà¸¡à¸Ĺ":3035,"à¸Ļà¸Ħà¸Ķ":3036,"à¸Ńà¸Ļà¹ĥà¸«":3037,"à¹ģà¸¥à¸°à¸ķ":3038,"à¸Ńà¹Ģà¸Ħ":3039,"à¸§à¸¡à¸²à¸ģ":3040,"à¸¡à¸²à¸¥":3041,"ove":3042,"à¸ģà¸²à¸£à¹ģà¸Ĥ":3043,"à¸²à¸Ļà¸°à¸Ħà¸°":3044,"à¸¨à¸ŀ":3045,"à¹ģà¸Ĭà¸¡à¸Ľ":3046,"à¸Ļà¸²à¸Ħà¸¡":3047,"à¹ģà¸§":3048,"à¸Ļà¹ĥà¸«à¸į":3049,"à¸Ľà¸§":3050,"à¸²à¸¢à¸Ń":3051,"ie":3052,"à¸Ķà¸Ł":3053,"à¸Ľà¸£à¸²à¸ģà¸ı":3054,"à¸§à¹Ĩ":3055,"tac":3056,"à¸Ħà¸§à¸²à¸¡à¸Ĭ":3057,"à¸²à¸Ħà¸¥":3058,"à¸ļà¸ªà¸¡":3059,"ph":3060,"à¸²à¹Ģà¸Ħà¸£":3061,"à¸Ńà¸Ļà¹Ģà¸¡":3062,"à¹ģà¸¥à¸°à¸£":3063,"à¸£à¸²à¸ĵ":3064,"ost":3065,"Ġà¹Ģà¸ŀà¸£à¸²à¸°à¸§":3066,"à¸²à¸ĩà¸ŀ":3067,"à¸²à¹ģà¸Ĥ":3068,"à¸¢à¹Ģà¸£":3069,"à¸Ķà¹Ģà¸Īà¸Ļ":3070,"Ġà¸Īà¸Ļà¸Ĺ":3071,"à¸Ńà¸¢à¸²à¸ģà¸Ĺ":3072,"à¸Ļà¸Ńà¸²à¸Ĺ":3073,"à¸Ńà¹Ħà¸«à¸£":3074,"à¸²à¸Ļà¸Ī":3075,"à¹Ħà¸Ľà¸Ħ":3076,"Ġà¸ªà¸²à¸¡":3077,"à¸Ńà¹Ģà¸¥à¸¢":3078,"à¸Ńà¸Ĥà¸²à¸¢":3079,"à¸Ńà¹Ģà¸Ĭ":3080,"à¸Ħà¸§à¸²à¸¡à¸ľ":3081,"Ġà¹ģà¸ĸà¸¡":3082,"à¸Ńà¸Ļà¸¢":3083,"Ġsam":3084,"à¸Ľà¸ģ":3085,"Ġà¸ªà¸²à¸§":3086,"à¸ĩà¹Ħà¸ĩà¸ļ":3087,"à¸²à¹Ģà¸Ľà¸¥":3088,"à¸Ķà¹Ģà¸Ĥ":3089,"à¸ļà¸Ł":3090,"à¸§à¸Ļà¸ģà¸²à¸£":3091,"à¸¡à¹ģà¸¥":3092,"à¸ªà¸ĩ":3093,"Ġà¸Īà¸Ļ":3094,"à¸ģà¹Ģà¸ī":3095,"à¸Ļà¸ķà¸£à¸²à¸¢":3096,"à¸²à¸ļà¸Ļ":3097,"à¸Ńà¹Ģà¸«à¸ķ":3098,"à¹ģà¸Ķà¸Ļ":3099,"à¸²à¸²à¸²":3100,"à¸²à¸Ļà¸Ńà¸¢":3101,"à¹Ģà¸Ŀ":3102,"Ġwh":3103,"à¸²à¹ģà¸Łà¸Ļ":3104,"à¸ŀà¸ļà¸§":3105,"à¸Ńà¸Ħà¸Ļ":3106,"21":3107,"à¸¡à¸Ĥà¸Ńà¸ĩ":3108,"à¸²à¸¨à¸²à¸ªà¸ķà¸£":3109,"à¸ĩà¹Ģà¸Ĺà¸ŀà¸¯":3110,"à¸Ńà¸Ļà¸¥à¸°":3111,"Ġà¹Ĥà¸ŀ":3112,"à¸Ļà¸Ļà¸°à¸Ħà¸°":3113,"à¸ĩà¹Ĥ":3114,"à¸²à¸ķà¸Ńà¸Ļà¸Ļ":3115,"à¸«à¸¡à¸²à¸¢à¸ĸ":3116,"44":3117,"à¸ĵà¸ķ":3118,"à¸Ļà¹Ĥà¸£à¸Ħ":3119,"à¸¢à¸¡à¸ķ":3120,"Ġ55":3121,"à¹ģà¸Ńà¸ŀ":3122,"à¸Ļà¸Ńà¸²à¸Ī":3123,"Ġà¸Ľà¸£à¸°à¸ģà¸Ńà¸ļ":3124,"Ġà¹ģà¸Ł":3125,"Ġà¸¯à¸¥à¸¯":3126,"Ġà¸¥à¸Ķ":3127,"à¹Ģà¸Ĥà¸²à¸Ĺ":3128,"à¸ļà¸£à¸£à¸¢à¸²à¸ģà¸²à¸¨":3129,"à¸ªà¸²à¸¡à¸²à¸£à¸ĸà¸Ĺ":3130,"à¸Īà¸°à¸Ī":3131,"à¹Ģà¸Ħà¸¢à¹Ģà¸Ľ":3132,"à¸£à¸£à¸¢":3133,"à¸«à¸²à¸Ķ":3134,"à¸įà¸ģ":3135,"Ġu":3136,"à¸§à¸ģà¸¥":3137,"à¸ģà¸«à¸£":3138,"Ġà¸Ľà¸£à¸°à¸ĺà¸²à¸Ļ":3139,"à¸ªà¸£à¸°":3140,"Ġà¸£à¸°à¸ļà¸ļ":3141,"à¸ªà¹Ģà¸ķà¸Ńà¸£":3142,"à¸§à¹ģà¸¥":3143,"Ġnot":3144,"Ġ08":3145,"à¸ģà¸ģà¸¥":3146,"à¹Ģà¸£à¸²à¸ª":3147,"à¸ļà¸Ńà¸ģà¹ĥà¸«":3148,"à¸Ńà¸Ļà¸Ĥà¸Ńà¸ĩ":3149,"Ġ2563":3150,"ðŁĳĹ":3151,"ite":3152,"à¸£à¸ļà¸ģà¸§à¸Ļ":3153,"à¸Ļà¹Ģà¸Ń":3154,"à¸²à¸ĩà¹ĥà¸Ļ":3155,"à¸ªà¸¡à¹Ģà¸Ķ":3156,"à¸Ļà¹Ģà¸ªà¸²à¸£":3157,"à¸²à¸§à¸Ń":3158,"à¸Ķà¸²":3159,"à¸§à¹Ģà¸£à¸²":3160,"oogle":3161,"ãģ":3162,"à¸°à¸ª":3163,"à¸«à¸¥à¸²à¸¢à¹Ĩ":3164,"à¸Īà¸²à¸Ħ":3165,"à¸Ńà¸ĩà¹ĥà¸Ļ":3166,"à¸²à¸¢à¸Ī":3167,"Ġar":3168,"ell":3169,"à¸ĵà¸«à¸ł":3170,"Ġà¸ģà¸£à¸¡":3171,"à¹ģà¸ļà¸ļà¸Ĺ":3172,"à¸Ķà¸ĩ":3173,"à¸Ļà¹Ģà¸«à¸¥":3174,"à¸ķà¸Ĥà¸Ńà¸ĩ":3175,"à¸ĩà¸ģà¸£à¸°":3176,"à¸Ńà¸«à¸¥":3177,"à¸§à¹Ģà¸Ħ":3178,"Ġà¸łà¸²à¸¢à¹ĥà¸Ļ":3179,"Ġà¹Ģà¸¡à¸©":3180,"à¸ļà¸Ħà¸§à¸²à¸¡à¸ª":3181,"Ġà¹Ģà¸£à¸²à¸Ħà¸§à¸£":3182,"à¸ģà¸²à¸£à¹Ģà¸Ķ":3183,"à¸Ńà¸²à¸¨":3184,"à¸§à¸Ķà¸¥":3185,"à¸£à¸²à¸©à¸İ":3186,"Ġà¸ķà¸Ńà¸Ļà¹ģà¸£à¸ģ":3187,"à¸¢à¸Ļà¹Ģà¸Ľ":3188,"Ġ2560":3189,"à¸ĩà¹Ģà¸ĩ":3190,"à¸¢à¸Ļà¸ª":3191,"ure":3192,"à¸Ńà¸Ļà¸ĭ":3193,"à¸ĩà¹Ģà¸Ħ":3194,"à¸Ķà¸¡à¸²":3195,"à¹Ĥà¸£à¸ĩà¸ĩà¸²à¸Ļ":3196,"à¸¡à¹Ĩ":3197,"à¸²à¹ģà¸ŀ":3198,"à¹ĥà¸Īà¸ģ":3199,"à¸¢à¸ĩà¸Ĺ":3200,"Ġà¹ģà¸Ļ":3201,"Ġ35":3202,"à¸²à¸¡à¸²à¸Ĺ":3203,"Ġ--":3204,"Ġà¹ģà¸¥à¸°à¸Ħ":3205,"à¸ļà¸Ĺà¸²à¸ĩ":3206,"à¸Ħà¸Ļà¸¥à¸°":3207,"Ġde":3208,"à¹Ģà¸¢à¸²à¸§":3209,"à¸Ńà¸°à¹Ħà¸£à¹Ģà¸¥à¸¢":3210,"49":3211,"à¸¢à¸ĩà¸ª":3212,"à¸ļà¹ĥà¸Ĭ":3213,"Ġà¹Ĥà¸Ĭ":3214,"à¸²à¸ŀà¸£à¸£à¸Ħ":3215,"à¸Ķà¹Ģà¸ª":3216,"à¸Ļà¹Ĥà¸Ķ":3217,"à¸łà¸²à¸ŀà¸¢à¸Ļà¸ķà¸£":3218,"à¸Ħà¸§à¸²à¸¡à¸ķ":3219,"pr":3220,"à¸ĩà¹ģà¸ģ":3221,"à¸ģà¸Ńà¸ĩà¸Ĺ":3222,"à¸ªà¸£à¸£à¸Ħ":3223,"Ġcom":3224,"Ġà¹Ģà¸ŀà¸£à¸²à¸°à¹Ħà¸¡":3225,"à¸ķà¸£à¸ĩà¹Ħà¸«à¸Ļ":3226,"75":3227,"à¸Ńà¸²à¸£":3228,"à¸ľà¸¡à¸§":3229,"à¸Ĥà¸Ļà¸ª":3230,"à¸Īà¸°à¸ĭ":3231,"à¸Ľà¸£à¸°à¸ªà¸ĩà¸Ħ":3232,"Ġà¹Ģà¸ľà¸¢":3233,"à¸ļà¹Ģà¸Ī":3234,"Ġà¸ªà¸ł":3235,"à¸Ħà¹Ģà¸ģ":3236,"Ġsup":3237,"à¸¢à¸Ķà¸Ļà¸²à¸¡":3238,"à¸¢à¸Ļà¸§":3239,"à¸ªà¸Ĭ":3240,"Ġà¸¨à¸£":3241,"à¸Ķà¹ģà¸¥à¸°":3242,"à¸²à¸Ħà¸Ļà¸Ĺ":3243,"à¸Ĥà¸Ńà¸ĩà¸ª":3244,"Ġà¸ŀà¸¢à¸²à¸¢à¸²à¸¡":3245,"eng":3246,"à¸Ļà¸ķà¸¥à¸Ńà¸Ķ":3247,"Ġà¸Ńà¸²à¸«à¸²à¸£":3248,"à¸¡à¸Ĭà¸Ļ":3249,"39":3250,"à¸Ńà¸ģà¸ģ":3251,"à¸Ńà¸Ļà¸¥":3252,"à¹Ħà¸Ĺ":3253,"à¸ĩà¹ģà¸£":3254,"à¸Ńà¸Ļà¸ĸ":3255,"Ġle":3256,"Ġà¹ģà¸ļ":3257,"à¸²à¸ģà¸£à¸°":3258,"à¹ģà¸ªà¸Ķà¸ĩ":3259,"à¸Ńà¸Ļà¹Ħà¸Ĥ":3260,"à¸²à¸Ĥà¸²à¸¢":3261,"à¸§à¸ĭ":3262,"à¸ĵà¸«à¸¡":3263,"à¸²à¹ģà¸£":3264,"Ġà¸ĸà¸Ļà¸Ļ":3265,"à¸Ńà¸ĩà¸Ł":3266,"à¸£à¸°à¸ģ":3267,"à¹Ģà¸Łà¸ĭà¸ļ":3268,"ifi":3269,"à¸¡à¹Ģà¸ŀ":3270,"à¸Ńà¹ĥà¸«à¸¡":3271,"à¸ĩà¸ķà¸Ńà¸Ļà¸Ļ":3272,"Ġà¸£à¸Ńà¸ĩ":3273,"by":3274,"à¸Ńà¸¡à¸¡":3275,"à¸Ħà¸Ĺ":3276,"Ġà¸ŀà¸Ńà¸¡":3277,"à¹Ħà¸Ļà¹Ģà¸ķ":3278,"à¸¢à¸Ļà¸Ĭ":3279,"à¸Ļà¹Ģà¸«à¸ķ":3280,"à¹ģà¸§à¸°":3281,"à¸Ńà¹Ħà¸Ĺà¸¢":3282,"ann":3283,"à¸Īà¸°à¹Ģà¸ģ":3284,"Ġà¹Ģà¸¥à¸Ĥ":3285,"à¸Ńà¸Ļà¹ģà¸ģ":3286,"à¸ĩà¸Ł":3287,"à¸ģà¸²à¸£à¹Ģà¸Ľ":3288,"af":3289,"à¸²à¸ĩà¸Ńà¸¢":3290,"Ġà¹ģà¸¥à¸°à¹Ħà¸Ķ":3291,"à¸£à¸²à¸©à¸İà¸£":3292,"Ġday":3293,"à¹ĥà¸Ļà¹Ģà¸¡":3294,"38":3295,"31":3296,"à¸Ļà¸Īà¸°à¸¡":3297,"à¸Ńà¸¢à¸²à¸ģà¸¡":3298,"à¸¡à¸Ńà¸¢":3299,"Ġ>>":3300,"Ġà¹ģà¸ªà¸Ļ":3301,"à¸£à¸ł":3302,"à¸§à¸¡à¸Ĺ":3303,"à¹Ģà¸§à¸¥à¸²à¸Ļ":3304,"ment":3305,"Ġà¸į":3306,"ðŁĮ":3307,"à¸Ńà¸Ńà¸ģà¹ģà¸ļà¸ļ":3308,"à¸Ļà¸Ĺà¸²à¸ĩà¹Ħà¸Ľ":3309,"à¸¢à¹ģà¸¥":3310,"ach":3311,"à¸¬à¸²":3312,"à¹Ģà¸¥à¸¢à¸Ļà¸°":3313,"à¸Ľà¸£à¸°à¸¡à¸²à¸ĵà¸Ļ":3314,"à¸²à¹Ħà¸¡à¸ĸ":3315,"à¸ĩà¹Ģà¸«à¸¥":3316,"à¸ģà¹Ģà¸«à¸¡":3317,"à¸²à¸£à¸ŀ":3318,"Ġà¸¢à¸Ńà¸Ķ":3319,"à¹Į,":3320,"à¸ķà¸°":3321,"à¸Ĳà¸¯":3322,"à¸ĸà¸²à¸Ļà¸Ĺ":3323,"à¸Ńà¹Ģà¸Ī":3324,"à¸¢à¸Ļà¸Ńà¸¢":3325,"à¸²à¸Ļà¸¡à¸²à¸ģ":3326,"à¸Ľà¸Ĭ":3327,"à¸²à¹ģà¸Ĺ":3328,"à¸ªà¹Ģà¸ĭ":3329,"à¸¡à¹Ħà¸Ľ":3330,"à¸Ļà¹ģà¸Ĺ":3331,"à¸łà¸²à¸¢à¹ĥà¸ķ":3332,"à¸£à¸²à¸¨":3333,"à¸§à¹Ģà¸ŀ":3334,"Ġam":3335,"à¸¡à¸«à¸²à¸¥":3336,"à¸¥à¸ª":3337,"à¸¡à¹Ģà¸Ĥ":3338,"Ġas":3339,"à¸²à¸£à¸ģ":3340,"à¸§à¹Ĥà¸¥à¸ģ":3341,"à¸²à¸Īà¸°à¸£":3342,"à¸Ļà¸¥à¸ĩ":3343,"à¸Ńà¸Ļà¹Ħà¸Ľ":3344,"Ġ^":3345,"à¸²à¸Ĭà¸Ļ":3346,"Ġà¹ģà¸Ĥ":3347,"à¸ļà¸Ńà¸ģà¸ģ":3348,"à¸ĩà¸ķà¸²à¸¡":3349,"Ġà¹ģà¸ªà¸Ķ":3350,"à¸²à¸Ńà¸²à¸«à¸²à¸£":3351,"à¸¢à¸ļà¹Ģà¸Ĺ":3352,"wit":3353,"à¸Ńà¸Ļà¸Ħà¸£":3354,"Ġgr":3355,"à¹Ģà¸Ħà¸¢à¸Ħ":3356,"à¸¨à¸§":3357,"à¸Ńà¹ģà¸ķ":3358,"à¸Ńà¹Ģà¸Ħà¸£":3359,"à¸Ńà¸Ńà¸Ńà¸Ń":3360,"à¸²à¸¢à¸«à¸Ļ":3361,"à¸ļà¹Ħà¸ĭà¸ķ":3362,"à¸ļà¸ļà¸£":3363,"Ġà¸ľà¸¡à¸¡":3364,"Ġà¹Ĥà¸Ķà¸¢à¹Ħà¸¡":3365,"à¸²à¸¢à¹Ħà¸¡":3366,"à¸ģà¸²à¸£à¸Ĭ":3367,"Ġid":3368,"à¸Ļà¹Ģà¸£à¸²à¸ģ":3369,"à¸Ķà¹ģà¸ķ":3370,"Ġà¹Ĥà¸Ħ":3371,"Ġ{":3372,"Ġà¸§à¸ĩ":3373,"à¸Ļà¹Ħà¸«à¸¡":3374,"à¸£à¸Ńà¸¢":3375,"à¸ģà¸²à¸£à¸¨":3376,"ðŁı»":3377,"ix":3378,"à¸ķà¸ģà¸¥":3379,"à¸²à¸Ńà¸°à¹Ħà¸£à¸ģ":3380,"à¸Ķà¸«à¸¡à¸²à¸¢":3381,"Ġà¸ľà¸¡à¹Ģà¸¥à¸¢":3382,"à¸ģà¸¥à¸²à¸ĩà¸Ħ":3383,"à¸Ħà¸Ļà¸Ħ":3384,"à¸§à¸¢à¸«à¸Ļ":3385,"à¹Ģà¸£à¸²à¸Ķ":3386,"à¸Ľà¸£à¸°à¸ªà¸²à¸Ļ":3387,"à¸ķà¸²":3388,"à¹Ģà¸ŀà¸£à¸²à¸°à¸¡":3389,"à¸Ħà¸§à¸²à¸¡à¸§":3390,"à¸²à¹Ģà¸£à¸²à¹Ħà¸¡":3391,"à¸§à¹Ģà¸¥à¸Ĥ":3392,"à¸ģà¸£à¸²à¸Ħà¸¡":3393,"à¸Ńà¸Ļà¹ĥà¸Ļ":3394,"Ġà¸ģà¸¡":3395,"à¸Īà¸Ĺ":3396,"à¹Ĥà¸Ľà¸£à¹ģà¸ģà¸£à¸¡":3397,"à¸ĵà¸ª":3398,"Ġà¹ģà¸¥à¸°à¸ľ":3399,"à¸ĩà¹Ģà¸¨":3400,"à¸ĩà¸Łà¸£":3401,"à¸Ļà¹ģà¸Łà¸Ļ":3402,"Ġà¸Ħà¸Ļà¸Ļ":3403,"à¸ķà¸Ħ":3404,"à¸Ķà¸ªà¸Ńà¸ļ":3405,"à¸Ķà¸«à¸£":3406,"à¸Ķà¸«à¸§":3407,"à¸§à¸¢à¸Ļà¸°":3408,"à¸Ĺà¸§":3409,"Ġà¸¡à¸²à¸Ķ":3410,"Ġà¸Ńà¸ĩà¸¨":3411,"ood":3412,"à¸§à¹Ģà¸ģ":3413,"ath":3414,"à¸Ļà¹ģà¸Ł":3415,"à¸²à¸«à¸§":3416,"à¸¡à¸²à¸ĺ":3417,"à¸Ĺà¸¢à¸²":3418,"à¸¥à¸²à¸Ħà¸¡":3419,"à¹ģà¸¥à¸°à¹Ħà¸¡":3420,"à¸Ńà¸Ļà¹Ħà¸«à¸§":3421,"à¸¡à¸łà¸²à¸ŀ":3422,"ld":3423,"Ġà¸ļà¸£à¸£":3424,"à¹Ĥà¸ªà¸Ķ":3425,"atch":3426,"Ġit":3427,"à¸Ħà¸§à¸²à¸¡à¹Ģà¸£":3428,"Ġà¹Ģà¸ī":3429,"à¸²à¸ĩà¸Ĺà¸²à¸ĩ":3430,"à¹Ģà¸£à¸²à¸Ńà¸¢":3431,"à¹Ģà¸ªà¸¡":3432,"à¸Ĺà¸¢à¸²à¸¨à¸²à¸ªà¸ķà¸£":3433,"à¸§à¸£à¸£à¸Ħ":3434,"à¸¢à¸ĩà¸Ħ":3435,"à¹ģà¸Łà¸Ļà¹Ģà¸ģ":3436,"Ġair":3437,"Ġwww":3438,"à¸Ľà¹Ħ":3439,"à¸ĩà¹Ħà¸ĩà¸Ħà¸£":3440,"à¸Ńà¸Ļà¹Ģà¸Ĥ":3441,"à¸²à¸ļà¸¥":3442,"à¸Ľà¸Ħ":3443,"à¸ģà¸Ł":3444,"à¸ĩà¸Ļà¸°":3445,"à¸Ńà¸Ļà¸ģà¸¥":3446,"à¸²à¹Ģà¸«":3447,"à¸²à¸Ļà¸ĭ":3448,"int":3449,"à¸ĩà¹Ģà¸ŀà¸¥à¸ĩ":3450,"Ġwor":3451,"à¸«à¸¡à¸Ķà¹ģà¸¥":3452,"à¸Ľà¸£à¸°à¸Ķ":3453,"net":3454,"Ġ}":3455,"à¸ĺà¸£à¸£à¸¡à¸Ķà¸²":3456,"à¸ļà¹ģà¸Ł":3457,"à¸Ļà¸ķà¸Ńà¸Ļà¸Ļ":3458,"Ġà¸Ńà¸£":3459,"à¸ŀà¸²à¸ģà¸©":3460,"Ġbr":3461,"à¸²à¸§à¸ĸ":3462,"ich":3463,"Ġà¹Ģà¸£à¸²à¸Ĺ":3464,"à¸ļà¹Ģà¸ª":3465,"à¸§à¸Ľà¸£à¸°à¹Ģà¸Ĺà¸¨":3466,"à¸ªà¸Ľ":3467,"Ġ80":3468,"à¸²à¸ĺà¸£à¸£à¸¡":3469,"à¸Ļà¸ŀà¸£à¸°":3470,"à¸Ļà¸£à¸²à¸Ħ":3471,"Ġ45":3472,"à¸ĩà¸ŀà¸£à¸°":3473,"à¸«à¸¥à¸²à¸ģà¸«à¸¥à¸²à¸¢":3474,"à¸§à¸ļà¸£":3475,"à¸Ľà¸§à¸Ķ":3476,"à¹ģà¸¥à¸°à¸ģ":3477,"à¸Ńà¸Ļà¹Ĥà¸Ķ":3478,"Ġà¹Ĥà¸¥":3479,"à¹Ģà¹Ģà¸Ł":3480,"à¹Ħà¸Ľà¹Ħà¸Ķ":3481,"à¹Ĥà¸Ĩà¸©à¸ĵ":3482,"ðŁİ":3483,"Ġà¸£à¸ŀ":3484,"à¸Ļà¸ŀà¸§à¸ģ":3485,"ond":3486,"Ġà¸Ħà¸§":3487,"à¸Ńà¸Ńà¸ģà¸¡":3488,"à¸ķà¸Ń":3489,"à¸ĵà¸£":3490,"à¸²à¸¢à¹ĥà¸Ļ":3491,"à¸²à¸¢à¹ģà¸¥":3492,"à¸Ńà¸ĩà¹Ģà¸ŀà¸¥à¸ĩ":3493,"à¸²à¸ĩà¹Ģà¸£":3494,"à¸Ńà¸ļà¸Ń":3495,"Ġà¸Ħà¸ĵà¸°":3496,"à¸Ļà¸§à¸²à¸Ħà¸¡":3497,"à¹Ĥà¸Ł":3498,"à¹Ħà¸ĭà¸Ħ":3499,"à¸Ńà¹ģà¸ļà¸ļ":3500,"à¸°à¸Ķ":3501,"à¸²à¹ģà¸Łà¸Ĭ":3502,"à¹Ĥà¸®":3503,"à¸Ļà¸ªà¸¡":3504,"à¸²à¸Ļà¹ĥà¸Ļ":3505,"à¸¤à¸©à¸łà¸²à¸Ħ":3506,"à¹Ģà¸¡à¸Ļ":3507,"à¸Ńà¸ķà¸Ńà¸Ļà¸Ļ":3508,"sung":3509,"à¸§à¸Ķà¹Ģà¸£":3510,"Ġhd":3511,"Ġà¸Ńà¸²à¸ģà¸²à¸£":3512,"à¸Ńà¸Ļà¸Ĭ":3513,"à¸Ńà¸Ķà¸Ĺ":3514,"à¸ľà¸¡à¸Ħ":3515,"à¸²à¸£à¸ĵà¸°":3516,"à¸Ńà¸ĩà¹Ģà¸Ĭ":3517,"Ġ32":3518,"à¸Ĭà¸²à¸¢à¸Ĺ":3519,"Ġà¸ķà¸Ńà¸ļ":3520,"à¹Ħà¸®":3521,"à¸¢à¸Ĥà¸Ńà¸ĩ":3522,"à¸Ńà¸¢à¸¥à¸ĩ":3523,"à¸ĩà¸Īà¸°à¸¡":3524,"à¸ľà¸¡à¸£":3525,"à¹ģà¸¥à¸°à¸Ļ":3526,"à¸ŀà¸²à¸Ļ":3527,"à¸Ħà¸Ħ":3528,"à¸ĩà¹Ģà¸Ħà¸£":3529,"à¸ľà¸¥à¸Ĺ":3530,"Ġà¸Ńà¸Ļ":3531,"à¸Ńà¸ĩà¸¡à¸²":3532,"à¸Ħà¸Ļà¸¡":3533,"à¸Ļà¹ģà¸£à¸ĩ":3534,"à¹Ģà¸ªà¸Ļ":3535,".-":3536,"Ġà¸£à¸«":3537,"à¸ĩà¸Ľà¸£à¸°à¹Ģà¸Ĺà¸¨à¹Ħà¸Ĺà¸¢":3538,"à¸¡à¸«à¸²à¸Ļà¸Ħà¸£":3539,"à¸²à¸Ļà¸¢":3540,"Ġà¹ģà¸ľ":3541,"Ġop":3542,"Ġup":3543,"Ġà¸ªà¸ķ":3544,"à¹ĥà¸Ļà¸ģà¸²à¸£à¸Ĺ":3545,"à¸Ľà¹Ħà¸ķà¸¢":3546,"à¸ŀà¸Ńà¸£":3547,"Ġà¸ķà¸£à¸§à¸Ī":3548,"à¸ļà¸²à¸ĩà¸Ĺ":3549,"à¸²à¸ĩà¹ĥà¸«":3550,"à¸«à¸²à¸¥":3551,"à¸²à¸§à¸ªà¸²à¸£":3552,"à¹Ĥà¸ģà¸£à¸ĺ":3553,"Ġà¹ĥà¸Ļà¸Ľ":3554,"à¸ľà¸¡à¸ķ":3555,"à¸ģà¸«à¸¥à¸²à¸¢":3556,"à¸²à¹Ħà¸¡à¸ķ":3557,"à¸¢à¸§à¸Ĭ":3558,"à¸²à¸§à¸ª":3559,"à¸§à¸¢à¸ļà¸Ńà¸ģ":3560,"à¸Ĵà¸Ļà¸ĺà¸£à¸£à¸¡":3561,"à¸Ķà¹Ħà¸§":3562,"à¸¨à¸²à¸ªà¸Ļ":3563,"Ġfont":3564,"à¸ļà¸«à¸¥":3565,"à¸¡à¸²à¸ģà¹Ģà¸¥à¸¢":3566,"à¸§à¹Ģà¸ķà¸Ńà¸£":3567,"95":3568,"ðŁĶ":3569,"Ġdtac":3570,"à¸ªà¸²à¸Ļ":3571,"à¸Ńà¸ĩà¹Ģà¸¥à¸¢":3572,"à¹ģà¸Ľà¸¥à¸ģ":3573,"à¸¥à¸²à¸ģ":3574,"à¸ļà¹ĥà¸Ļ":3575,"à¸ªà¸²à¸ĺà¸²à¸£à¸ĵ":3576,"à¸©à¸Ĳ":3577,"96":3578,"à¸²à¹Ģà¸ªà¸ŀà¸ķ":3579,"à¸²à¹Ģà¸§":3580,"à¸²à¸Ľà¸£à¸°à¹Ģà¸Ĺà¸¨":3581,"à¸²à¸Ħà¸§à¸²à¸¡à¸£":3582,"à¸łà¸²à¸§à¸°":3583,"à¸ļà¸£à¸¡":3584,"à¸Ļà¸łà¸²à¸ŀ":3585,"Ġà¸Ńà¸¢à¸²à¸ģà¸Ĺà¸£à¸²à¸ļ":3586,"à¹Ģà¸£à¸²à¹Ģà¸£":3587,"ash":3588,"à¹ĥà¸Ķà¹Ĩ":3589,"à¸ĩà¹Ģà¸«":3590,"à¹Į-":3591,"à¸¥à¸Ń":3592,"Ġ61":3593,"Ġà¹Ģà¸ļà¸Ńà¸£":3594,"à¸ģà¸¯":3595,"Ġby":3596,"à¸ľà¸¡à¹Ħà¸Ķ":3597,"cl":3598,"à¸¥à¸ĩà¸ª":3599,"à¹ģà¸Ń":3600,"à¸ļà¸Ħà¸£":3601,"Ġà¸ĩà¸ĩ":3602,"à¸ģà¸ģà¸ģ":3603,"à¸ļà¸ļà¸Ĺ":3604,"à¸ĩà¸Ńà¸¢à¸²à¸ģ":3605,"oy":3606,"à¸²à¸ªà¸Ļ":3607,"Ġà¹ģà¸£":3608,"Ġà¸Ľà¸£à¸°à¸ģà¸²à¸¨":3609,"à¹Ħà¸Ľà¸ĭ":3610,"Ġ..":3611,"à¸Ĭà¸¡à¸ŀ":3612,"à¸¡à¹Ģà¸¡":3613,"à¸²à¸Ļà¹Ģà¸¡":3614,"à¹Ģà¸Ńà¸ģà¸Ĭà¸Ļ":3615,"à¸ĩà¸Ħà¸Ļà¸Ļ":3616,"à¸²à¸ĩà¸Ĥà¸Ńà¸ĩ":3617,"à¸²à¹Ģà¸ŀà¸£à¸²à¸°":3618,"Ġ62":3619,"à¸²à¸Ļà¸ľ":3620,"à¹ĥà¸Īà¸Ĺ":3621,"Ġmar":3622,"à¸ļà¸ĩà¸²à¸Ļ":3623,"à¸Ļà¸Ħà¸°":3624,"à¸²à¸Ļà¸Ľ":3625,"ada":3626,"à¸ŀà¸Ńà¸Ĺ":3627,"à¸²à¸¢à¸ģà¸£":3628,"à¸ķà¸¡":3629,"à¸Īà¸°à¸ģà¸¥":3630,"Ġà¸ªà¸łà¸²à¸ŀ":3631,"à¸Ńà¸ĩà¹ĥà¸«à¸¡":3632,"à¸Ńà¸Ļà¸ªà¸Ļ":3633,"à¸Ńà¸ļà¸ķ":3634,"Ġreview":3635,"à¸Ħà¸ĵà¸°à¸ģà¸£à¸£à¸¡à¸ģà¸²à¸£":3636,"33":3637,"à¸Ńà¸Ļà¹Ģà¸¥à¸¢":3638,"à¸¢à¸§à¸¢":3639,"ace":3640,"Ġà¸Ŀà¸²à¸ģ":3641,"à¸¡à¸²à¹ĥà¸Ĭ":3642,"à¸²à¸¢à¸Ĺà¸Ńà¸Ķ":3643,"à¸ŀà¸¤à¸ķ":3644,"à¸Ļà¸Ńà¸²à¸«à¸²à¸£":3645,"à¸«à¸£à¸Ńà¸Ħà¸£":3646,"tha":3647,"à¸²à¸ģà¸İ":3648,"à¸Ľà¸£à¸°à¸Ĭà¸²à¸£":3649,"Ġ90":3650,"io":3651,"Ġph":3652,"app":3653,"à¹Ĥà¸Łà¸Ļ":3654,"à¹ģà¸ĸà¸¥à¸ĩ":3655,"à¸¢à¹Ħà¸Ķ":3656,"à¸Ħà¸Ļà¸Ĥ":3657,"Ġ34":3658,"à¸Ļà¸ļà¸£":3659,"à¸²à¸ĩà¹Ħà¸£à¸ļ":3660,"ome":3661,"à¸§à¸Ļà¸ª":3662,"ry":3663,"à¸£à¸²à¸¢à¸ĩà¸²à¸Ļà¸§":3664,"à¸Īà¸£à¸²à¸Īà¸£":3665,"à¸£à¸²à¸ª":3666,"Ġme":3667,"à¸Ńà¸ĩà¸Ħà¸£":3668,"Ġ=":3669,"Ġà¹ģà¸Ļà¸§":3670,"Ġ150":3671,"à¸¥à¸°à¸ģ":3672,"à¹Ģà¹Ģà¸£":3673,"à¸ĩà¸²à¸Ļà¹Ħà¸Ķ":3674,"Ġà¹ģà¸¥à¸°à¸ĸ":3675,"à¸įà¸«à¸²à¸Ĺ":3676,"à¹ģà¸Ħà¸£":3677,"à¸Ńà¸ĩà¹Ģà¸ŀ":3678,"à¹ģà¸ļà¸ķ":3679,"à¸²à¸Ńà¸²à¸¢":3680,"à¹ģà¸ķà¸ģ":3681,"Ġà¸«à¸¢":3682,"à¸Īà¸°à¸Ĥ":3683,"à¸¨à¸Ī":3684,"à¹Ĥà¸Ķà¸¢à¸Ĺ":3685,"à¹Ģà¸£à¸²à¸Ļ":3686,"à¸Ħà¸§à¸²à¸¡à¸ªà¸²à¸¡à¸²à¸£à¸ĸ":3687,"à¹Ģà¸Ħà¸¢à¹ĥà¸Ĭ":3688,"Ġpre":3689,"à¸¢à¹Ħà¸¡":3690,"à¸Ļà¸Ľà¸ģà¸ķ":3691,"à¹Ĥà¸Ĺà¸£à¹Ħà¸Ľ":3692,"à¸²à¸Ĭà¸²à¸ķ":3693,"à¸²à¸Ĺà¸£":3694,"à¸ģà¸²à¸£à¹Ģà¸£":3695,"à¸²à¸ĩà¸ĸ":3696,"à¹Ĥà¸«à¸§":3697,"ĠâĢ¢":3698,"à¸ļà¸²à¸ĩà¸Ħà¸Ļ":3699,"à¸Ĭà¸²à¸£":3700,"à¹Ģà¸¢à¸Ńà¸£":3701,"à¸ĩà¹ĥà¸«à¸¡":3702,"à¸²à¸§à¸ļ":3703,"à¸ĩà¹Ĩà¸Ĺ":3704,"à¸Ńà¸²à¸Īà¸²à¸£à¸¢":3705,"à¸£à¸²à¸¢à¹Ģà¸Ķ":3706,"Ġà¸ĺà¸Ļà¸²à¸Ħà¸²à¸£":3707,"ðŁ¤":3708,"à¸£à¸²à¸ĩà¸§":3709,"à¸¢à¸¨":3710,"à¸Ńà¸°à¹Ħà¸£à¸Ķ":3711,"ï¸ıâ":3712,"Ġà¸Īà¸²à¸ģà¸Ĺ":3713,"Ġ70":3714,"à¸ĩà¹Ģà¸Ĺà¸ŀà¸¡à¸«à¸²à¸Ļà¸Ħà¸£":3715,"à¹ģà¸Ńà¸Ķ":3716,"à¸²à¸Ħà¸²à¸į":3717,"Ġà¸Ļà¸°":3718,"à¸°à¸Ń":3719,"à¹Ħà¸Ľà¸Ńà¸¢":3720,"Ġà¸¢à¸²à¸§":3721,"à¸²à¸¢à¹ĥà¸«":3722,"à¸ŀà¸£à¸£à¸ĵ":3723,"à¸²à¸£à¸²à¸Ĭà¸ģà¸²à¸£":3724,"à¹Ģà¸Ħà¸¢à¹Ħà¸Ķ":3725,"à¸§à¹ĥà¸Ļ":3726,"à¸Ńà¸Ļà¸ľà¸¡":3727,"Ġà¹ģà¸Ńà¸ļ":3728,"à¸²à¸¢à¸Ĥ":3729,"à¸£à¸²à¸¢à¸Ĭ":3730,"à¸ĸà¸²à¸Ļà¸ģà¸²à¸£à¸ĵ":3731,"ime":3732,"à¸§à¹ĥà¸Ĭ":3733,"à¸Ńà¸Ļà¸²à¸¡":3734,"à¸Ĥà¸ª":3735,"à¸Ĵà¸Ļà¸²":3736,"à¸ĩà¹Ģà¸«à¸¡":3737,"Ġà¸Īà¸Ļà¸ĸ":3738,"Ġser":3739,"à¸¡à¸ł":3740,"à¸ģà¸¤à¸ķ":3741,"à¸²à¸Ļà¹Ģà¸Ĥ":3742,"à¸§à¸ĩà¸§":3743,"à¹ģà¸¥à¸°à¸Ħ":3744,"à¸¡à¸²à¹Ģà¸£":3745,"à¸Ļà¸²à¸¢à¸Ļ":3746,"à¸²à¸ĩà¹ģà¸¥":3747,"Ġà¸£à¸°à¸¢à¸°":3748,"Ġà¸Ńà¸²à¸£":3749,"à¹ĥà¸Ħà¸£à¸£":3750,"à¹Ĥà¸Ľà¸£à¹Ĥà¸¡à¸Ĭ":3751,"Ġà¹Ģà¸Ĥà¸ķ":3752,"à¸²à¸¢à¸Ľ":3753,"Ġcolor":3754,"à¹Ĥà¸ĭà¹Ģà¸Ĭ":3755,"à¸ĩà¸ģà¸£à¸²à¸Ļà¸ķ":3756,"à¸Īà¸°à¸«":3757,"Ġinter":3758,"à¸²à¸Ļà¹Ģà¸Ľ":3759,"à¸¢à¹Ģà¸ĩ":3760,"à¸²à¸łà¸²à¸ŀ":3761,"Ġà¸ļà¸²à¸ĩà¸Ħà¸£":3762,"à¸Īà¹ģà¸¥":3763,"à¸Ķà¹ĥà¸«à¸¡":3764,"Ġà¹Ģà¸ŀà¸£à¸²à¸°à¸Ĺ":3765,"à¸°à¹Ģà¸£":3766,"si":3767,"à¸§à¸ĩà¸ģà¸²à¸£":3768,"à¸§à¸Ľ":3769,"à¸¢à¸ĩà¸£à¸²à¸¢":3770,"word":3771,"à¸Ķà¹ĥà¸Ĭ":3772,"à¸Ńà¸ĩà¹Ģà¸Ħ":3773,"à¸ļà¹Ģà¸Ĥà¸²":3774,"à¹Ħà¸Ńà¸Ī":3775,"à¸ģà¹Ģà¸Ľà¸¥":3776,"à¹ģà¸ĩ":3777,"Ġ250":3778,"à¹Ħà¸ķà¸£":3779,"à¸§à¸«à¸¥":3780,"77":3781,"à¸Īà¸°à¸Ńà¸¢":3782,"à¸Ńà¸ĩà¸Ľà¸£":3783,"à¸Ńà¸¢à¸Ļà¸°à¸Ħà¸£":3784,"à¸¥à¸ķ":3785,"à¸Ļà¸Ļà¸°à¸Ħà¸£":3786,"à¸§à¹Ģà¸£à¸²à¸°":3787,"à¸²à¸¥à¸ĩ":3788,"ge":3789,"à¸«à¸²à¸¢à¹ĥà¸Ī":3790,"ust":3791,"à¸Ļà¹Ģà¸§":3792,"à¹ģà¸£à¸ĩà¸ĩà¸²à¸Ļ":3793,"à¸¤à¸¨à¸Ī":3794,"bs":3795,"à¹Ģà¸£à¸²à¹Ģà¸¥":3796,"à¸Ľà¸£à¸°à¸ģà¸Ńà¸ļà¸ģà¸²à¸£":3797,"à¸²à¸¢à¸łà¸²à¸ŀ":3798,"Ġà¹ĥà¸ģà¸¥":3799,"à¸Ŀà¸Ļà¸ķ":3800,"à¸ļà¹Ģà¸ģ":3801,"à¹ĥà¸Ļà¸Ĥ":3802,"à¸ĩà¹Ģà¸¨à¸ª":3803,"à¸§à¸¢à¸Ħà¸§à¸²à¸¡à¸Ĺ":3804,"à¸²à¸Ĥà¸Ńà¸ĩà¸ģà¸£à¸°à¸Ĺ":3805,"à¹ĥà¸Ļà¸Ļ":3806,"à¸ķà¸Ńà¸Ļà¸Ĺ":3807,"à¸Ĺà¸°à¹Ģà¸¥":3808,"à¸ķà¸Ńà¸¢":3809,"Ġà¹Ĥà¸ĭ":3810,"à¸¡à¹Ģà¸Ķ":3811,"à¹ģà¸ģà¸£":3812,"65":3813,"Ġà¸Ļà¸°à¸Ħà¸£":3814,"à¸Ĺà¸²à¸ĩà¸Ķ":3815,"orn":3816,"à¸Ńà¹ĥà¸Ī":3817,"à¸Ķà¸Ĺà¸°à¹Ģà¸ļ":3818,"à¸²à¸®":3819,"à¹ĥà¸Ļà¹ĥà¸Ī":3820,"à¸ĩà¸Ńà¸²à¸¢":3821,"à¸łà¸²à¸¢à¸«à¸¥":3822,"à¸²à¹Ģà¸ªà¸Ļà¸Ń":3823,"Ġ!!":3824,"à¸ĩà¸Īà¸£":3825,"à¹Į)":3826,"man":3827,"âĿ¤ï¸ı":3828,"Ġà¸Ļà¸°à¸Ħà¸°":3829,"ith":3830,"à¸ģà¸£à¸°à¸ķ":3831,"ile":3832,"à¸«à¸£à¸Ńà¸Ħà¸°":3833,"à¸Ńà¹Ģà¸§à¸¥à¸²":3834,"à¸ĵà¹Ħà¸¡":3835,"à¸²à¹Ģà¸Ńà¸ĩ":3836,"à¸²à¸¢à¸ļ":3837,"Ġà¹Ħà¸Ł":3838,"à¸ģà¹ģà¸ļà¸ļ":3839,"à¸²à¸Īà¸°à¸Ķ":3840,"à¸Ļà¹ĥà¸Ħà¸£":3841,"à¸Łà¸Ł":3842,"à¸ĩà¸ªà¸²à¸¡à¸²à¸£à¸ĸ":3843,"à¸ļà¸Ħà¸Ļà¸Ń":3844,"à¹ģà¸ŀà¸ĩ":3845,"Ġà¸Ĥà¸ĵà¸°":3846,"à¸¢à¸Ļà¸Ħ":3847,"à¸¡à¸²à¸ĭ":3848,"Ġà¹Ģà¸ªà¸£":3849,"????":3850,"à¸ĩà¸ľà¸¥à¹ĥà¸«":3851,"à¹Ģà¸Ĥà¸²à¸Ħ":3852,"à¸Ńà¸ĩà¸Ħà¸Ļ":3853,"à¸²à¸£à¸²à¸Ħ":3854,"à¹ģà¸Ĭà¸Ĺ":3855,"à¸¢à¸Ķà¸²à¸¢":3856,"à¸Ķà¸Ķà¸Ķà¸Ķ":3857,"http":3858,"à¸ŀà¸²à¸ĵ":3859,"à¹ģà¸ľà¸¥":3860,"à¸ĩà¹Ģà¸Ļ":3861,"à¸Ħà¸§à¸²à¸¡à¸Īà¸£":3862,"à¹Ģà¸Ħà¸¢à¹Ģà¸«":3863,"ick":3864,"à¸ĩà¹ĥà¸Īà¹ĥà¸«":3865,"à¸ļà¸²à¸Ĺà¸Ħ":3866,"à¸²à¸ĩà¸Ľ":3867,"à¸§à¹Ģà¸Ħà¸£":3868,"Ġno":3869,"Ġgoogle":3870,"à¸Ļà¸¢à¸²à¸¢à¸Ļ":3871,"à¹ģà¸£à¸ģà¸ģ":3872,"Ġat":3873,"à¸Ĥà¸¢":3874,"à¸¡à¸ģà¸¥":3875,"à¹Ĩà¹Ĩà¹Ĩà¹Ĩ":3876,"à¹Ģà¹Ģà¸¡":3877,"à¸Ļà¸Ľà¸£à¸°à¸Ī":3878,"Ġà¸ļà¸Ĺ":3879,"à¸ŀà¸£à¸°à¸ŀ":3880,"sport":3881,"à¸¢à¸ĩà¹ģà¸Ħ":3882,"à¸¢à¸§à¸Ħ":3883,"à¸²à¸Ĭà¸Ļà¸°":3884,"à¸ģà¹Ģà¸Ħ":3885,"Ġà¹ĥà¸Ļà¸ª":3886,"à¸§à¸ĩà¸Īà¸£":3887,"à¸¡à¸²à¸Ń":3888,"Ġà¸ģà¸ģà¸ķ":3889,"à¹Ģà¹Ģ":3890,"à¸§à¸¢à¸ķà¸Ńà¸ļ":3891,"Ġà¹ģà¸Ľà¸¥":3892,"à¹ģà¸Ńà¸Ľ":3893,"à¸Ļà¹ĥà¸Īà¸§":3894,"à¸²à¸ĩà¸«":3895,"bl":3896,"Ġà¸Ńà¸¢à¸²à¸ģà¸Īà¸°":3897,"ðŁĴķ":3898,"ðŁĩ":3899,"à¸Ńà¸ļà¸Ńà¸ģ":3900,"Ġà¸ľà¸¡à¹Ģà¸Ľ":3901,"à¸¤à¸©à¸łà¸²à¸Ħà¸¡":3902,"à¹Ģà¸ĺà¸Ńà¸ģ":3903,"à¸Ļà¹Ģà¸£à¸²":3904,"à¸§à¹ģà¸¥à¸°":3905,"Ġcall":3906,"Ġà¸ļà¸²à¸ĩà¸Ħà¸Ļ":3907,"à¸Ļà¹Ģà¸ļ":3908,"Ġà¹Ĥà¸ķ":3909,"Ġsize":3910,"Ġ....":3911,"Ġte":3912,"à¹ģà¸Łà¸Ļà¸Ħà¸¥":3913,"à¸Ľà¸£à¸°à¸Ĭà¸²à¸Ĭà¸Ļà¸Ĺ":3914,"à¸²à¸Ļà¸Ĥà¸²à¸¢":3915,"à¸ĩà¸Ŀ":3916,"à¸Ķà¹Ģà¸ľà¸¢":3917,"à¸²à¸«à¸¢":3918,"à¸Ńà¸ªà¸Ńà¸ļà¸ĸà¸²à¸¡":3919,"Ġà¸«à¸²à¸¢":3920,"300":3921,"à¹Ħà¸«à¸Ļà¸Ħà¸£":3922,"à¸įà¸«à¸²à¸ģ":3923,"à¸Ķà¸ģà¸¥":3924,"à¸Ķà¸Ľà¸ģà¸ķ":3925,"à¸Ļà¹Ģà¸§à¸¥":3926,"à¸ĩà¸«à¸²à¸Ħà¸¡":3927,"à¸ļà¸¡à¸²à¸ģ":3928,"à¸Ĺà¸Ńà¸ĩ":3929,"à¸§à¸²":3930,"à¸¡à¹Ģà¸£":3931,"ck":3932,"à¸²à¸ĩà¹Ģà¸Ńà¸ģ":3933,"à¸ĩà¸Ħà¸²à¸£":3934,"à¸ŀà¸ĩà¸©":3935,"gr":3936,"Ġà¸ªà¸¡à¸²à¸Ĭ":3937,"Ġmy":3938,"Ġà¹Ģà¸¡à¸©à¸²à¸¢à¸Ļ":3939,"à¸Ļà¹Ħà¸Ľà¸Ĺ":3940,"Ġà¸Īà¸²à¸ģà¸ģà¸²à¸£":3941,"à¸²à¸Ĥà¸Ń":3942,"à¹Ģà¸£à¸²à¸ģà¸¥":3943,"à¸Ľà¸£à¸°à¸Ĺà¸²à¸Ļ":3944,"à¹Ģà¸£à¸²à¸Ńà¸¢à¸²à¸ģ":3945,"Ġà¹ĥà¸Ħà¸£à¸£":3946,"à¸ĩà¸ªà¸²à¸£":3947,"à¸²à¹Ħà¸Ľà¸ģ":3948,"Ġà¹Ģà¸£à¸²à¸Ī":3949,"à¸Ķà¸«à¸¥":3950,"à¹Ģà¸¥à¸¢à¸Ī":3951,"à¸ĩà¹Ģà¸§à¸¥":3952,"Ġà¸ŀà¸ļà¸§":3953,"'s":3954,"à¸¸à¹ĭ":3955,"à¸¢à¸¢à¸¢":3956,"à¸ļà¸Ĥà¸Ńà¸ļà¸Ħ":3957,"à¸ĵà¸¡":3958,"à¸£à¸²à¸Ĭà¸ª":3959,"ies":3960,"32":3961,"à¸²à¸§à¸Ħà¸£":3962,"à¸²à¹Ģà¸£à¸²à¸ģ":3963,"à¸ıà¸«à¸¡à¸²à¸¢":3964,"à¸¢à¸Ļà¸¡":3965,"Ġcenter":3966,"Ġvs":3967,"à¸Ńà¸ļà¸£à¸¡":3968,"à¹ĥà¸Ħà¸£à¸Ĺ":3969,"à¸«à¸¥à¸²à¸¢à¸Ħà¸£":3970,"à¸Ńà¸¢à¸£":3971,"Ġà¹Ģà¸ŀà¸£à¸²à¸°à¸ķ":3972,"à¸ªà¹Ħà¸ķà¸¥":3973,"à¸²à¸ĩà¹Ģà¸Ĭ":3974,"à¹Ĥà¸Ĭà¸Ħà¸Ķ":3975,"ðŁĺĺ":3976,"à¸²à¸§à¸Ħ":3977,"à¸Ļà¸Ļà¸Ļà¸Ļ":3978,"à¸Ķà¹Ģà¸ķ":3979,"à¸ªà¸ĭ":3980,"à¸ŀà¸£à¸°à¸Ħ":3981,"à¸ģà¸«à¸¡":3982,"à¹Ģà¸¥à¸¢à¸ķ":3983,"à¸Ľà¸£à¸°à¹Ģà¸¡":3984,"à¹ģà¸Ļà¸°":3985,"à¸Ľà¸ª":3986,"Ġ2017":3987,"à¹Ĥà¸ĩ":3988,"à¸Ńà¸ªà¸²à¸£":3989,"à¸ĩà¹Ħà¸ĩà¸Ħà¸°":3990,"à¹Ĥà¸Ķà¸¢à¹Ģà¸īà¸ŀà¸²à¸°":3991,"à¸Ńà¸¢à¸Ī":3992,"à¸²à¹Ħà¸Ľà¸ª":3993,"à¸Ķà¸ķà¸²à¸¡à¸Ĥ":3994,"à¹Ĥà¸Ńà¸Ļà¹Ģà¸ĩ":3995,"à¸Ńà¸ĩà¹ģà¸¥à¸°":3996,"à¸²à¸Ļà¸Ĥà¸Ńà¸ĩ":3997,"à¸ģà¸£à¸¢à¸²à¸Ļà¸¢à¸Ļà¸ķ":3998,"à¸²à¹Ģà¸¢":3999,"à¸§à¸«à¸£":4000,"à¸Ķà¹Ģà¸¡":4001,"Ġà¸Łà¸£":4002,"Ġà¹Ĥà¸Ħà¸£à¸ĩà¸ģà¸²à¸£":4003,"à¸²à¸¡à¸²à¹ĥà¸Ļ":4004,"Ġà¸¨à¸²à¸¥":4005,"à¹Ģà¸Ħà¸¢à¸£":4006,"à¸§à¸¢à¸¡":4007,"à¸ĩà¹ģà¸ļà¸ļà¸¥à¸ĩà¸Ĺà¸°à¹Ģà¸ļ":4008,"à¸¢à¸ĩà¸ķ":4009,"à¸Ļà¸Īà¸°à¹Ģà¸Ľ":4010,"à¸Ħà¸§à¸²à¸¡à¹Ģà¸ª":4011,"à¸Ľà¸£à¸°à¸«à¸¢":4012,"à¸¡à¹ĥà¸Ļ":4013,"à¸²à¸Ļà¹ĥà¸«":4014,"eek":4015,"à¸Ļà¹Ģà¸§à¸¥à¸²":4016,"à¸²à¸Īà¸°à¹Ħà¸Ľ":4017,"à¸Ĺà¸¢à¸²à¸Ļ":4018,"à¸ľà¸¡à¹Ģà¸Ľ":4019,"à¸¡à¸²à¸ĸà¸²à¸¡":4020,"Ġone":4021,"à¸Ķà¸¥à¸Ńà¸ĩ":4022,"po":4023,"Ġà¹ģà¸¥à¸°à¸ŀ":4024,"à¸ļà¸ł":4025,"à¸´.":4026,"à¸Ľà¸¥à¸Ńà¸¡":4027,"Ġà¹ģà¸¥à¸°à¸ģà¸²à¸£":4028,"Ġsamsung":4029,"à¹Ħà¸ŀ":4030,"à¸§à¸¢à¸Ī":4031,"Ġà¸ģà¸¥à¸²à¸¢à¹Ģà¸Ľ":4032,"à¸£à¸²à¸Ħà¸²à¸ĸ":4033,"à¸²à¸¢à¸ŀ":4034,"',":4035,"à¸Ħà¸ģ":4036,"à¸ķà¸Ķ":4037,"à¸ĵà¸ªà¸¡à¸ļ":4038,"à¸²à¸Ļà¸§à¸¢à¸ģà¸²à¸£":4039,"Ġà¸ľà¸¡à¸ķ":4040,"à¸ļà¸Ńà¸ģà¹Ħà¸¡":4041,"à¸ĩà¸«à¸§à¸°":4042,"à¸Ľà¸łà¸²à¸ŀ":4043,"à¸²à¸§à¸«à¸Ļ":4044,"à¸Ńà¸¡à¹Ģà¸¡":4045,"à¸Ļà¹Ħà¸Ľà¸ķà¸²à¸¡":4046,"à¸ķà¸£à¸ĩà¸Ĥ":4047,"à¸§à¸ĩà¸ķ":4048,"à¹ĥà¸Īà¸Ķ":4049,"Ġà¸ķà¸¥à¸²à¸Ķ":4050,"à¸¡à¸²à¸ķà¸¥à¸Ńà¸Ķ":4051,"Ġà¸¥à¸Ńà¸ĩ":4052,"à¸ļà¸§à¸Ļ":4053,"à¸¢à¸Ļà¸Īà¸ļ":4054,"à¸ĸà¸§":4055,"à¸Ļà¸£à¸°à¸¢à¸°":4056,"à¹ģà¸ģà¸¥":4057,"tn":4058,"à¸§à¸¢à¸Ń":4059,"à¸¡à¸²à¸Ī":4060,"Ġà¹Ģà¸«à¸Ļ":4061,"à¸²à¸ĩà¹Ģà¸ķ":4062,"à¹Ħà¸Ĥà¸Ľ":4063,"Ġà¸ľà¸¡à¸Ī":4064,"à¹Ģà¸Ńà¸²à¹Ģà¸ĩ":4065,"à¸²à¸ĩà¸²à¸Ļà¸ģ":4066,"act":4067,"Ġà¹ĥà¸Ļà¸ģà¸²à¸£":4068,"à¸¥à¸Ńà¸¢":4069,"à¹Ħà¸Ĺà¸¢à¸£":4070,"Ġà¸ģà¸£à¸°à¹Ģà¸Ľ":4071,"à¸Ķà¹Ģà¸ĩ":4072,"à¹Ģà¸«à¸¡à¸²à¸°à¸ģ":4073,"à¸ģà¹Ģà¸¡":4074,"iss":4075,"à¸ģà¸ģà¸ģà¸ģà¸ģà¸ģà¸ģà¸ģ":4076,"Ġà¹Ģà¸£à¸²à¸§":4077,"à¸ķà¸²à¸£":4078,"ake":4079,"à¸°à¹ģà¸ķ":4080,"à¹Ĥà¸¥à¹Ģà¸¡à¸ķà¸£":4081,"à¸ŀà¸ļà¸ģ":4082,"à¸ģà¹Ģà¸ĩ":4083,"à¹Ģà¸ŀà¸£à¸²à¸°à¸§":4084,"à¸Ńà¸¢à¸²à¸ģà¸Ĺà¸£à¸²à¸ļà¸§":4085,"à¸²à¸ĩà¸ĩ":4086,"à¸²à¸Ħà¸§à¸²à¸¡à¸ªà¸°à¸Ńà¸²à¸Ķ":4087,"Ġà¹ģà¸Ľ":4088,"à¸Ńà¸«à¸£":4089,"key":4090,"à¸²à¸ĩà¹ģà¸¥à¸°":4091,"à¸²à¸¡à¸²à¸£":4092,"à¸ªà¸¡à¸²à¸Ħà¸¡":4093,"Ġq":4094,"à¹ģà¸¢à¸°":4095,"à¸²à¸ģà¸²à¸£à¸Ĺ":4096,"Ġim":4097,"à¸¢à¹ģà¸¥à¸°":4098,"85":4099,"Ġà¸Īà¸°à¹Ħà¸¡":4100,"à¸Ļà¹Ģà¸ĭ":4101,"Ġdr":4102,"à¸µ)":4103,"à¸Ķà¸Ĥà¸²à¸Ķ":4104,"Ġà¸¡à¸ģà¸£à¸²à¸Ħà¸¡":4105,"ire":4106,"à¹Ģà¹Ģà¸Ħ":4107,"à¸§à¸ļà¸£à¸§à¸¡":4108,"à¸īà¸²à¸¢":4109,"à¸²à¸Ļà¹Ģà¸Ķ":4110,"à¸Ļà¹Ģà¸«":4111,"Ġà¸ľà¸¡à¸£":4112,"à¸²à¸Ļà¸§à¸¢":4113,"ox":4114,"ug":4115,"à¸Ļà¸Ĺà¸Ļ":4116,"Ġwifi":4117,"à¸§à¸²à¸ĩà¹ģà¸ľ":4118,"à¹Ģà¸ģà¸ĵà¸ĳ":4119,"à¸¡à¸²à¸ķà¸£à¸Ĳà¸²à¸Ļ":4120,"à¹ĥà¸Ļà¸£à¸°à¸Ķ":4121,"old":4122,"à¸Ńà¸ªà¸Ńà¸ļ":4123,"à¸ļà¹Ģà¸Ħà¸£":4124,"mm":4125,"à¸ķà¸Ĭ":4126,"Ġhe":4127,"Ġà¹Ģà¸ŀà¸£à¸²à¸°à¸ĸ":4128,"à¹Ģà¸ľà¸¢à¹ģà¸ŀà¸£":4129,"à¸Ńà¸ªà¹Ģà¸ķà¸£":4130,"à¸²à¸§à¹Ĩ":4131,"à¸¢à¸Ļà¸Ļ":4132,"à¸Ńà¸ģà¸ĭ":4133,"à¸Ńà¸ģà¸£":4134,"Ġà¸£à¸²à¸¢à¸ĩà¸²à¸Ļ":4135,"Ġâľ":4136,"à¸ģà¹Ģà¸ģà¸Ńà¸£":4137,"à¸Ļà¹ģà¸«":4138,"à¸«à¸²à¸Ĥ":4139,"ower":4140,"à¸Ńà¸¥à¸¥à¸²à¸£":4141,"à¹Ĥà¸ļà¸£à¸²à¸ĵ":4142,"à¹Ĥà¸«à¸¥à¸Ķ":4143,"à¸ªà¸°à¸ªà¸¡":4144,"à¸Ńà¸§à¸²à¸Ļ":4145,"à¸ĩà¸Ľà¸£à¸°à¸Ĭà¸²à¸£":4146,"à¸¢à¸Ńà¸ĩ":4147,"à¸Īà¸ª":4148,"à¸§à¸Ļà¸Ń":4149,"à¹ģà¸ŀà¸¥":4150,"à¸Ńà¸ĩà¸Ĥà¸Ń":4151,"à¸²à¸Ľà¸ģà¸ķ":4152,"port":4153,"Ġà¸ªà¸Ļà¸²à¸¡":4154,"à¸°à¸Ľ":4155,"Ġà¸ľà¸¡à¸Ħ":4156,"à¸ĩà¸Ħà¸°":4157,"à¹Ģà¸Łà¸ªà¸ļ":4158,"ðŁĻ":4159,"à¸Ħà¸ķ":4160,"à¸²à¸ĺà¸£":4161,"à¸Ńà¸Ľà¸Ľ":4162,"à¸¢à¸ĩà¸¥":4163,"à¸¤à¸«":4164,"à¸Ļà¸Ńà¸ģà¸Īà¸²à¸ģ":4165,"sc":4166,"à¸Ķà¹Ħà¸Ł":4167,"Ġà¹Ģà¸£à¸²à¸¢":4168,"Ġoff":4169,"à¸§à¸Ļà¸£":4170,"Ġà¸Ĥà¸ĵà¸°à¸Ļ":4171,"à¹Ħà¸¥à¸Ł":4172,"à¸ļà¹ģà¸Ī":4173,"Ġnew":4174,"à¸ļà¸£à¸£à¸Ĺ":4175,"nk":4176,"à¸Īà¸§":4177,"à¸²à¹Ĥà¸Ľà¸£":4178,"à¸ĩà¸Ħà¹Ĥà¸Ľà¸£":4179,"84":4180,"à¸«à¸¥à¸²à¸¢à¸Ńà¸¢":4181,"à¸²à¸ŀà¸¢à¸²à¸¢à¸²à¸¡":4182,"à¹Ģà¸Ĺà¸¨à¸ģà¸²à¸¥":4183,"à¸¡à¸ģà¸²à¸£":4184,"ory":4185,"à¸§à¸ģà¸§":4186,"à¹Ĥà¸ŀà¸ª":4187,"witter":4188,"à¸§à¸¢à¸£":4189,"à¸§à¸Ļà¸¥à¸Ķ":4190,"à¸²à¸ķà¸£à¸Ĳà¸²à¸Ļ":4191,"à¸¥à¸°à¸Ħà¸Ļ":4192,"ber":4193,"à¸Ńà¸¢à¹Ħà¸Ľ":4194,"ition":4195,"à¸ķà¸²à¸¡à¸«":4196,"à¸Ļà¸Ĺà¸ļ":4197,"à¸Ļà¹Ĥà¸¢à¸ļà¸²à¸¢":4198,"à¸Ĥà¸Ńà¸ĩà¸ŀ":4199,"à¹Ģà¸¡à¸£":4200,"Ġà¸ªà¸°":4201,"à¸ĺà¸£":4202,"à¸²à¸ķà¸Ńà¸Ļ":4203,"ep":4204,"Ġà¹Ģà¸¨":4205,"à¸ĩà¹ĥà¸ª":4206,"Ġset":4207,"à¸Ļà¹Ģà¸ģà¸¡":4208,"Ġfl":4209,"à¸ģà¸«à¸¡à¸²à¸¢à¹Ģà¸¥à¸Ĥ":4210,"à¸²à¸¢à¹Ģà¸Ķ":4211,"##":4212,"à¸Ńà¸ĩà¸«à¸¡":4213,"à¸ŀà¸£à¸£à¸Ħà¸ģà¸²à¸£à¹Ģà¸¡":4214,"à¹ĮâĢĭ":4215,"à¹Ħà¸Ĺà¸¢à¸Ĺ":4216,"Ġthailand":4217,"à¸ģà¸²à¸¢à¸Ļ":4218,"à¸Ńà¹ģà¸Ħ":4219,"à¹ģà¸Ľà¸£":4220,"à¹Ģà¸ŀà¸£à¸²à¸°à¹Ħà¸¡":4221,"à¸Ńà¸¡à¸ŀ":4222,"à¸²à¸ķà¸£à¸§à¸Ī":4223,"à¸ļà¸¡à¸²à¸Ĺ":4224,"à¸ĭà¸Ńà¸¢":4225,"à¸£à¸ĸà¸ķ":4226,"à¸²à¹Ĥà¸Ķà¸¢":4227,"à¸¢à¸§à¸ļ":4228,"à¸ĩà¹Ģà¸ļ":4229,"à¸Īà¸°à¹Ģà¸Ń":4230,"à¹ĥà¸Ļà¸Ľà¸£à¸°à¹Ģà¸Ĺà¸¨":4231,"à¸ĩà¸Ńà¸²à¸Ī":4232,"à¸¢à¸Ļà¹Ħà¸Ķ":4233,"ky":4234,"à¸ģà¸¥à¸ĩà¸Ĺ":4235,"à¸£à¸©à¸ĵ":4236,"ml":4237,"à¸¹à¹Ĭ":4238,"à¸Ĥà¸Ńà¸ļ":4239,"à¸§à¸¢à¹Ħà¸Ķ":4240,"à¸¡à¸ĸ":4241,"à¹Ģà¸Ńà¸Ł":4242,"à¸Ļà¹Ĥà¸Ķà¸¢":4243,"Ġà¸¡à¸«à¸²à¸§":4244,"à¸²à¹ģà¸Ļ":4245,"Ġà¹ĥà¸«à¸¡":4246,"à¸°à¹Ħà¸¡":4247,"for":4248,"à¸ļà¸Ħà¸§à¸²à¸¡à¸£":4249,"à¹ĥà¸Ļà¸Ī":4250,"à¸Ńà¸Ļà¸²à¸Ħà¸ķà¹ĥà¸«à¸¡":4251,"89":4252,"à¹Ģà¸£à¸²à¸Ĭà¸Ńà¸ļ":4253,"ound":4254,"Ġ55555":4255,"à¸Ńà¸¡à¸Ļ":4256,"à¸ªà¸²à¹Ģà¸«à¸ķ":4257,"Ġyoutube":4258,"???":4259,"à¸Īà¸°à¹Ģà¸Ķ":4260,"à¸Ļà¸Ĺà¸²à¸ĩà¸ģà¸²à¸£":4261,"à¸ĩà¸ŀà¸¥":4262,"à¸ļà¹Ģà¸Ļ":4263,"à¸²à¸§à¸¡":4264,"à¸Ńà¸ĩà¹ģà¸ķ":4265,"Ġan":4266,"à¸²à¸ĩà¹ĥà¸Ķ":4267,"à¸Ńà¸ģà¸£à¸°à¸Ĺ":4268,"à¸¢à¸ĩà¹ģà¸ķ":4269,"facebookcom":4270,"à¹Ĥà¸Ļà¸¡":4271,"Ġà¹ģà¸¥à¸°à¸Ķ":4272,"Ġà¸¥à¸°à¸Ħà¸£":4273,"à¹ģà¸Ńà¸¥":4274,"à¸Ļà¹ģà¸Ķà¸Ķ":4275,"à¹Ĩà¸Ĺ":4276,"à¸ªà¸ķà¸²à¸£":4277,"Ġà¹ĳ":4278,"let":4279,"à¹ĥà¸Ļà¸Ħà¸£":4280,"à¸Ļà¸łà¸²à¸©":4281,"à¸Ńà¸«à¸¡":4282,"à¸²à¸ªà¸£":4283,"________________":4284,"à¸ªà¸²à¸¢à¸ķ":4285,"à¸¡à¸²à¸ģà¸Ļ":4286,"Ġà¹Ĥà¸ŀà¸ªà¸ķ":4287,"à¸ķà¸£à¸ĩà¸Ĺ":4288,"à¹Ģà¸Ļà¸Ńà¸°":4289,"à¸Ĭà¸Ńà¸ļà¸Ĺ":4290,"Ġà¹Ĥà¸£à¸ĩà¹Ģà¸£":4291,"à¸²à¸¢à¸¥":4292,"à¸¡à¹Ģà¸¥":4293,"à¸ľà¸¥à¸Ľà¸£à¸°à¹Ĥà¸¢à¸Ĭà¸Ļ":4294,"à¸Ńà¸¢à¹ĥà¸Ī":4295,"à¸§à¸Ļà¸Ħ":4296,"à¸Ĥà¸Ńà¸ĩà¸¡":4297,"à¸²à¹ĥà¸«à¸į":4298,"à¹ĥà¸Ļà¸ģà¸¥":4299,"à¸§à¹Ģà¸¥à¸¢":4300,"à¸Īà¸Ķ":4301,"Ġà¹ĥà¸Ħà¸£à¸Ĺ":4302,"à¹Ģà¸Īà¸²à¸°":4303,"à¹Ģà¸ģà¸©à¸ķà¸£à¸ģà¸£":4304,"à¸¢à¸Ļà¸Ķ":4305,"à¸Ķà¸¥à¸ĩ":4306,"à¸²à¸£à¸²":4307,"Ġà¹Ģà¸¥à¸¢à¹Ħà¸¡":4308,"à¸Ħà¸¡à¸Ĭ":4309,"me":4310,"à¹ģà¸ļà¸ļà¹Ħà¸«à¸Ļ":4311,"à¹Ģà¸¥à¸Ĥà¸Ĺ":4312,"Ġsuper":4313,"à¸ļà¸«à¸£":4314,"ft":4315,"à¸Ĥà¸Ĺ":4316,"Ġman":4317,"à¹ĥà¸Ļà¸ģà¸²à¸£à¸ķ":4318,"à¸Ńà¹Ħà¸£":4319,"à¸ªà¸²à¸ĺà¸²à¸£à¸ĵà¸ª":4320,"Ġ36":4321,"55555":4322,"¹Ĳ":4323,"à¸Ńà¸Ļà¹Ģà¸£à¸²":4324,"à¸ļà¸²à¸ĩà¸Ńà¸¢":4325,"à¸ĩà¹ģà¸§à¸Ķà¸¥":4326,"à¹Ħà¸Ľà¹Ħà¸«à¸Ļ":4327,"Ġà¸Ľà¸£à¸²à¸ģà¸ı":4328,"Ġà¹Ĵ":4329,"à¸²à¸Ħà¸Ļà¸Ń":4330,"Ġ^^":4331,"à¸²à¸¢à¸Ĭ":4332,"à¹Ħà¸ŀà¸£":4333,"========":4334,"à¸ĸà¸Ļ":4335,"à¹Ģà¸£à¸²à¸Ī":4336,"à¹Ĳ":4337,"à¸ĩà¸Ľà¸¥":4338,"à¸ĵà¸¢":4339,"à¸²à¹Ģà¸£à¸²à¸Īà¸°":4340,"à¸Īà¸Ńà¸Ķà¸£à¸ĸ":4341,"à¸ĩà¹Ģà¸£à¸²à¸ģ":4342,"à¸ļà¹ģà¸¥à¸°":4343,"à¸ªà¸§à¸¢à¸ĩà¸²à¸¡":4344,"à¸§à¸ģà¸ģ":4345,"à¸ĩà¹Ģà¸£à¸²":4346,"à¸ļà¸²à¸ĩà¸Ħà¸£":4347,"à¸²à¸¡à¸²à¸Ķ":4348,"à¸ĩà¸¥à¸ĩ":4349,"Ġà¸ľà¸¡à¹Ħà¸Ķ":4350,"att":4351,"à¸Ħà¸Ļà¹Ģà¸Ĥ":4352,"à¸ŀà¸Ńà¸ªà¸¡à¸Ħà¸§à¸£":4353,"à¸¢à¸§à¸ķ":4354,"à¸ļà¹Ģà¸¥à¸¢":4355,"Ġ//":4356,"à¸²à¸Ļà¸Ĺà¸²à¸ĩ":4357,"à¹Ħà¸Ľà¸Ļ":4358,"à¸©à¸ķà¸£":4359,"Ġà¸£à¸²à¸¢à¹Ħà¸Ķ":4360,"à¸¡à¹ģà¸¥à¸°":4361,"à¸ŀà¹Ģà¸Ķà¸Ĺ":4362,"à¸£à¸²":4363,"à¸łà¸²à¸ŀà¸Ĺ":4364,"à¸¡à¸Ńà¹Ģà¸ķà¸Ńà¸£":4365,"à¸Ļà¸ļà¸²à¸Ĺ":4366,"Ġà¸Ľà¸£à¸°à¹Ģà¸Ķ":4367,"à¸¢à¸Ļà¸Ī":4368,"Ġà¸«à¸¡à¸Ķ":4369,"à¸²à¸ĩà¸«à¸¥":4370,"à¸Ļà¹Ħà¸ĩ":4371,"Ġà¸Ľà¸£à¸°à¸ķ":4372,"à¸ªà¸ĸ":4373,"Ġà¹ģà¸¡à¸Ļ":4374,"à¸Ļà¸Ħà¸ĩ":4375,"à¸Ķà¹ģà¸ļà¸ļà¸Ļ":4376,"à¸Ńà¹Ģà¸Ń":4377,"à¸Ĭà¸²à¸ģà¸²à¸£":4378,"à¹Ģà¸Ĥà¸²à¸Īà¸°":4379,"à¸ģà¸²à¸£à¸ļà¸£":4380,"à¸Ńà¹Ģà¸¥à¸¢à¸Ħ":4381,"Ġà¹ģà¸Ĭà¸£":4382,"à¸ģà¸©à¸²à¸Ĺ":4383,"à¸¢à¸§à¸Ķ":4384,"à¸¡à¸²à¸Ńà¸¢":4385,"Ġfr":4386,"à¸ļà¹Ģà¸¡":4387,"à¸ŀà¸²à¸£":4388,"à¸ļà¸ģà¸²à¸£à¸Ĺ":4389,"ha":4390,"à¸Ħà¸Ĭ":4391,"Ġshop":4392,"à¸Ńà¸Ľà¸¥":4393,"à¸ĩà¹ģà¸£à¸ĩ":4394,"à¸²à¸ĩà¹Ħà¸Ķ":4395,"Ġà¹ģà¸¥à¸°à¸§":4396,"Ġà¸¡à¸²à¸ģà¸ģà¸§":4397,"47":4398,"Ġlove":4399,"dr":4400,"à¸ªà¹Ģà¸Ľ":4401,"à¸ŀà¸£à¸°à¸Ńà¸ĩà¸Ħ":4402,"à¸Ļà¹Ħà¸Ľà¸Ķ":4403,"à¸Īà¸°à¸ģ":4404,"à¸Ļà¸°à¸§":4405,"à¸§à¹ģà¸Ĺà¸Ļ":4406,"ale":4407,"mb":4408,"à¸ļà¸²à¸Ķà¹Ģà¸Ī":4409,"Ġà¸Ħà¸²à¸Ķà¸§":4410,"à¸ĩà¹ģà¸Ħ":4411,"sum":4412,"à¹Ĥà¸ī":4413,"à¸łà¸²à¸¢à¸Ļà¸Ńà¸ģ":4414,"à¸įà¸Ħ":4415,"¹ķ":4416,"pu":4417,"à¹ķ":4418,"à¸§à¸ĩà¸Ľ":4419,"à¸Ńà¸ģà¸Ļ":4420,"ance":4421,"à¸Ńà¸ĩà¸Ńà¸°à¹Ħà¸£":4422,"à¸ĩà¹Ħà¸«à¸¡":4423,"à¸²à¸ĩà¹ģà¸ľ":4424,"à¹Ģà¸Ĺà¸Ħà¸Ļ":4425,"Ġà¸ģà¸£à¸°à¸Ĺà¸£à¸§à¸ĩ":4426,"Ġ09":4427,"à¸§à¸Ļà¸ģ":4428,"à¸Ĳà¸¡":4429,"à¸Ńà¸ĩà¸ªà¸²à¸§":4430,"Ġ$":4431,"à¸¥à¹Ģà¸¥":4432,"à¸ĩà¸²à¸Ļà¸ģ":4433,"à¸²à¸«à¸¡à¸Ń":4434,"à¸§à¸ĩà¸ª":4435,"à¸ģà¸¥à¸²à¸ĩà¸§":4436,"Ġà¸Ńà¸ģ":4437,"à¸§à¸¢à¸Ĭ":4438,"à¸Īà¸²à¸ģà¸Ļ":4439,"Ġà¸ķà¸²à¸¡à¸Ĺ":4440,"à¸°à¸£":4441,"à¹Ĥà¸Ńà¸ģà¸²à¸ªà¹Ħà¸Ķ":4442,"Ġep":4443,"à¸ķà¸²à¸¥":4444,"à¸¡à¹Ģà¸¥à¸¢":4445,"fl":4446,"ike":4447,"à¸Ļà¹ģà¸Ļà¸§":4448,"à¹Ģà¸Ĥà¸²à¹Ħà¸Ľ":4449,"à¸Ńà¸¡à¹ĥà¸«":4450,"à¸ģà¸²à¸£à¸Ń":4451,"à¸¥à¸ĭ":4452,"mail":4453,"Ġà¹ĥà¸Ļà¸Ĥà¸ĵà¸°à¸Ĺ":4454,"à¸ļà¸«à¸¡":4455,"à¹Ĥà¸Ĺà¸£à¸¡":4456,"à¹ģà¸Ĺà¸Ħ":4457,"à¸§à¸ĩà¸ģ":4458,"à¸²à¹ģà¸ŀà¸ĩ":4459,"à¹Ĥà¸Ĺà¸£à¸Ĺ":4460,"à¸²à¸Ļà¸²à¸¢":4461,"à¸£à¸²à¸Ł":4462,"à¸ĩà¸Īà¸°à¹Ģà¸Ľ":4463,"Ġall":4464,"à¸Ńà¸ĩà¹Ģà¸Ľà¸¥":4465,"à¹Ģà¸Ńà¸ģà¸Ĭ":4466,"à¸ªà¸£à¸£à¸ŀ":4467,"Ġ400":4468,"à¸¢à¸ŀ":4469,"à¸ĩà¸Ńà¸°à¹Ħà¸£":4470,"à¸Ħà¸§à¸²à¸¡à¸«à¸¡à¸²à¸¢":4471,"à¸§à¹Ģà¸ª":4472,"à¸²à¸Ńà¸Ńà¸ģà¸Īà¸²à¸ģ":4473,"Ġtop":4474,"à¸Ńà¸ĩà¸ģà¸²à¸£à¹ĥà¸«":4475,"à¸Ĭà¸²à¸¢à¸Ħà¸Ļà¸Ļ":4476,"size":4477,"à¸ŀà¸Ńà¸Īà¸°":4478,"à¹ĥà¸Ļà¸¢":4479,"à¸ĺà¸Ļà¸²à¸ĺà¸£":4480,"mark":4481,"Ġà¹ģà¸¥à¸°à¸Ĭ":4482,"àº":4483,"66":4484,"à¸ķà¸¥":4485,"Ġà¸ŀà¸¤à¸©à¸łà¸²à¸Ħà¸¡":4486,"à¸ģà¹Ģà¸£à¸²":4487,"ðŁį":4488,"à¸Ĥà¸Ļà¸²à¸Ķà¹ĥà¸«à¸į":4489,"ish":4490,"à¸Ńà¸¢à¸§":4491,"à¸Ńà¸¢à¸¥":4492,"à¸Ķà¹Ģà¸Ĺà¸Ńà¸¡":4493,"à¸ĺà¸¢à¸¡":4494,"ðŁĺįðŁĺį":4495,"à¸Ļà¸ģà¸²à¸£à¸Ĺ":4496,"à¸Ķà¹Ģà¸Ħà¸£":4497,"à¸ļà¸ŀà¸§à¸ģ":4498,"à¸ªà¸ļà¸²à¸¢à¹ĥà¸Ī":4499,"à¸ģà¸©à¸£":4500,"à¸²à¹ģà¸Ī":4501,"over":4502,"à¸Ńà¸ļà¸Ńà¸ģà¸§":4503,"à¸¥à¹Ģà¸ĭ":4504,"à¸Ļà¹Ħà¸Ľà¸ģ":4505,"à¸Ħà¸§à¸²à¸¡à¸Ī":4506,"à¹ģà¸Ħà¸¥":4507,"à¸²à¸§à¸¥":4508,"à¸įà¸«à¸²à¹Ģà¸£":4509,"à¸§à¸Ļà¹Ģà¸£":4510,"Ġà¹Ģà¸ŀà¸£à¸²à¸°à¹Ģà¸Ľ":4511,"Ġà¸Ķà¸£":4512,"Ġà¸£à¸£":4513,"à¸Ńà¸²à¸§":4514,"::":4515,"à¸²à¹Ģà¸«à¸¥":4516,"Ġweek":4517,"à¸¤à¸ģà¸©":4518,"à¸ķà¹Ģà¸ķà¸Ńà¸£":4519,"à¸Ĩà¸©":4520,"à¹Ħà¸Ľà¸Ī":4521,"à¸łà¸²à¸Ħà¹ĥà¸ķ":4522,"à¸Ńà¸Ļà¹Ģà¸ģ":4523,"à¸ļà¸²à¸ĩà¸ª":4524,"à¸ķà¹Ħà¸Ķ":4525,"Ġnet":4526,"Ġà¸ŀà¸¤à¸¨à¸Ī":4527,"à¹Ħà¸Ĥà¸¡":4528,"à¸¡à¸²à¸ŀ":4529,"à¸Ńà¸Ļà¸Ħà¸Ļ":4530,"à¸Ħà¸²à¸Ķà¸§":4531,"à¸ļà¸ģà¸§":4532,"à¸Ļà¹Ħà¸Ľà¹ģà¸¥":4533,"à¸Ķà¸Ļà¸ķà¸£":4534,"à¸²à¸ĩà¸²à¸Ļà¸Ńà¸¢":4535,"Ġà¸Ľà¸£à¸°à¸ģ":4536,"à¸Ńà¸ģà¸ª":4537,"Ġà¸£à¸²à¸¢à¸ģà¸²à¸£":4538,"Ġà¸Ĭà¸Ļà¸°":4539,"à¸Ļà¸ªà¸Ļ":4540,"à¸Ĥà¸Ńà¸ĩà¸¥":4541,"keyword":4542,"à¸Ħà¸§à¸²à¸¡à¹Ģà¸Ĭ":4543,"à¸ĩà¹Ħà¸ĩà¹ĥà¸«":4544,"à¹ģà¸Ńà¸ļà¸Ĭà¸Ńà¸ļ":4545,"à¸Īà¸Ń":4546,"à¸ļà¸£à¸¡à¸£à¸²à¸Ĭ":4547,"à¸ļà¹Ģà¸Ħà¸¥":4548,"à¸Ķà¸Īà¸£":4549,"à¸²à¸¡à¸²à¸Ń":4550,"à¸ģà¸¡à¸²":4551,"Ġsms":4552,"à¸Ķà¹ģà¸¢":4553,"à¸²à¸Īà¸°à¹ĥà¸«":4554,"à¸Ńà¸ĩà¹Ģà¸ĩ":4555,"Ġà¹ĥà¸Ħà¸£à¹Ģà¸Ħà¸¢":4556,"à¸Ńà¸Ļà¸«":4557,"à¸ĵà¸¡à¸²à¸ģà¸Ħ":4558,"Ġà¹ĥà¸Ļà¸Ĺ":4559,"à¸¢à¸Ļà¸ļ":4560,"à¸¢à¹Ģà¸Ľ":4561,"à¸¡à¸²à¸Ľà¸£à¸°":4562,"à¸¤à¸Ĺà¸ĺ":4563,"à¸¢à¹ĥà¸«":4564,"à¸¢à¸Ķà¸¡à¸²à¸ģ":4565,"à¸¡à¸Ńà¸ļ":4566,"à¸²à¸¢à¸¢":4567,"à¸¡à¸²à¸«":4568,"we":4569,"à¸²à¸ģà¸£à¸£à¸¡":4570,"ool":4571,"à¹ģà¸Ļà¸§à¸Ĺà¸²à¸ĩ":4572,"Ġà¸Ħà¸§à¸²à¸¡à¸ª":4573,"à¸Ĥà¸Ńà¸ĩà¸ģà¸²à¸£":4574,"Ġà¸Ļà¸Ħà¸£":4575,"à¸Ķà¸£à¸²à¸¡":4576,"à¹ģà¸¥à¸°à¸ľ":4577,"à¸ļà¸Ńà¸ģà¹Ģà¸¥":4578,"à¸Ĥà¸Ńà¸ĩà¸Ń":4579,"87":4580,"thailand":4581,"à¹ĥà¸Ķà¸Ĺ":4582,"à¸ªà¸²à¸ĺà¸²à¸£à¸ĵà¸°":4583,"à¸¡à¹ģà¸Ĥ":4584,"Ġà¹ģà¸¥à¸°à¸Ī":4585,"bb":4586,"à¸²à¸ĩà¹ģà¸ķ":4587,"Ġà¸ģà¸£à¸£à¸¡":4588,"à¸Ļà¸Ħà¸Ļà¸Ķ":4589,"à¸²à¸Ļà¹Ģà¸ģ":4590,"à¸Ńà¸ĩà¹Ģà¸Ń":4591,"à¸Ńà¸¢à¸Ĥ":4592,"à¸ķà¹Ħà¸¡":4593,"à¸¡à¹Ģà¸Ĺ":4594,"à¸Ļà¸¡à¸²à¸ģà¸ģà¸§":4595,"à¸Ļà¸²à¸ĩà¹Ģà¸Ńà¸ģ":4596,"Ġmin":4597,"à¸¢à¸Ļà¹Ħà¸¡":4598,"Ġà¸Ĥà¸Ńà¸Ńà¸Ļ":4599,"à¸²à¸¢à¸ľ":4600,"à¸ģà¹ģà¸¡":4601,"indow":4602,"à¸§à¹ģà¸¡":4603,"à¸Ńà¸¢à¸²à¸ģà¹Ģà¸Ľ":4604,"rat":4605,"à¸Ńà¸Ĺà¸²à¸ĩ":4606,"à¸«à¸¡à¸²à¸¢à¸Ħà¸§à¸²à¸¡à¸§":4607,"Ġà¸Ĥà¸Ńà¸Ħà¸§à¸²à¸¡":4608,"ãĢ":4609,"à¸Ľà¸£à¸°à¸ªà¸ļà¸Ħà¸§à¸²à¸¡à¸ª":4610,"à¸§à¸¢à¹Ģà¸£":4611,"à¸ļà¸¡à¸²à¸Ħ":4612,"à¸Ļà¸¡à¸²à¸Ĺ":4613,"à¸§à¹Ģà¸«à¸¡":4614,"Ġà¸Īà¸Ļà¸ģà¸£à¸°à¸Ĺ":4615,"à¸Ńà¹Ģà¸ķ":4616,"à¸§à¹Ħà¸«à¸Ļ":4617,"à¹Ĥà¸Īà¸Ĺà¸¢":4618,"à¸²à¸Ļà¸«":4619,"à¸®à¸°":4620,"Ġpass":4621,"Ġà¸Ħà¸£à¸Ńà¸ļà¸Ħà¸£":4622,"à¸Ħà¸§à¸²à¸¡à¸Ļ":4623,"à¸¡à¸²à¸ķà¸£à¸ģà¸²à¸£":4624,"à¸²à¸ĩà¹Ģà¸Ĥ":4625,"à¸ļà¸£à¸£à¸Ī":4626,"à¸²à¸Ļà¹Ģà¸£à¸²":4627,"ade":4628,"à¸²à¹Ħà¸Ł":4629,"à¹Ģà¸ĭà¸¥":4630,"à¹Ĥà¸¡à¸Ĺ":4631,"à¹ĥà¸Ļà¸¡":4632,"à¸§à¸ĩà¹Ģà¸Ķ":4633,"à¸ģà¸©à¸²à¸ķ":4634,"ction":4635,"Ġà¸£à¸°à¸Ķ":4636,"Ġà¸Īà¸ļ":4637,"à¸Ľà¸ģà¸Ħà¸£à¸Ńà¸ĩ":4638,"à¸²à¹Ģà¸łà¸Ń":4639,"Ġà¸Ķà¸²à¸§":4640,"à¸ķà¹Ĥà¸Ļà¸¡":4641,"Ġà¹Ģà¸ŀà¸£à¸²à¸°à¸Ħ":4642,"Ġpantip":4643,"Ġà¹Ħà¸«à¸Ļ":4644,"à¸¡à¹Ģà¸ģ":4645,"Ġà¸ľà¸į":4646,"à¸Ļà¸ªà¸²à¸¡à¸²à¸£à¸ĸ":4647,"à¸Ńà¸Ļà¸Ľ":4648,"à¸ĺà¸£à¸£à¸¡à¸ģà¸²à¸¢":4649,"Ġà¸Ńà¸ĺ":4650,"à¸ķà¸²à¸¡à¸Ľà¸ģà¸ķ":4651,"Ġà¸Ħà¸§à¸²à¸¡à¸Ħ":4652,"à¸ľà¸¥à¸ģà¸£à¸°à¸Ĺ":4653,"à¹Ģà¸Ķà¸Ńà¸£":4654,"à¸Ńà¸ĩà¸Ĭà¸²à¸¢":4655,"à¸Īà¸Ĥà¸ģà¸Ĺ":4656,"à¸²à¹Ģà¸£à¸²à¸¡":4657,"à¸Ħà¸Ńà¸¢":4658,"à¸ĩà¸ĩà¸ĩà¸ĩ":4659,"à¸Ļà¸Ľà¸£à¸°à¸ĺà¸²à¸Ļ":4660,"à¸£à¸«":4661,"mi":4662,"à¸Ķà¸Ńà¸Ńà¸ģ":4663,"à¸²à¸¢à¸Ńà¸¢":4664,"à¸Īà¸°à¸¥":4665,"à¸¥à¹Ģà¸ŀ":4666,"own":4667,"à¸¡à¸²à¸ģà¸ģ":4668,"eed":4669,"à¸Ńà¸ĩà¸Īà¸£":4670,"à¸ªà¸ļ":4671,"Ġtt":4672,"à¹ģà¸Łà¸Ĭ":4673,"à¹Ģà¸¥à¸¢à¸Ļà¸°à¸Ħà¸°":4674,"Ġà¹ģà¸¥à¸°à¸Ĥ":4675,"à¸Ħà¸ª":4676,"à¹Ħà¸Ľà¹ĥà¸«":4677,"à¹Ģà¸ĭà¸¥à¸¥":4678,"à¸Ļà¸Ľà¸¥":4679,"agram":4680,"ree":4681,"à¸§à¸Ļà¸°à¸Ħà¸°":4682,"''":4683,"Ġà¸Ļà¸²à¸¢à¸ģà¸£":4684,"à¸Ļà¸«à¸¥à¸²à¸¢":4685,"à¸Ļà¹Ģà¸¥à¸¢à¸Ħ":4686,"à¸Ĥà¸Ńà¸Ńà¸Ļ":4687,"à¸ªà¸Ĭà¸²à¸ķ":4688,"Ġplus":4689,"Ġ!":4690,"à¸Ńà¹ģà¸ģ":4691,"à¸ļà¸ªà¸²à¸¢":4692,"Ġà¹ģà¸ĭ":4693,"Ġà¸«à¸į":4694,"azada":4695,"Ġor":4696,"à¸Ńà¸Ħà¸Ļà¸Ĺ":4697,"à¹Ģà¸Ĥà¸²à¸ķ":4698,"à¸ļà¸ªà¸§à¸Ļ":4699,"à¸Ńà¸¢à¸¢":4700,"à¸²à¸ĩà¹Ħà¸£à¸Ķ":4701,"à¸²à¸ĩà¸Ļà¸Ńà¸ģ":4702,"âĻ":4703,"ðŁĵ":4704,"!!!!":4705,"à¸²à¹Ģà¸ĭà¸¥à¹Ģà¸ĭ":4706,"97":4707,"à¸£à¸¢":4708,"Ġcan":4709,"à¸ģà¸Īà¸²à¸ģ":4710,"à¹Ģà¸īà¸¢à¹Ĩ":4711,"à¸¡à¸²à¸ļà¸Ńà¸ģ":4712,"à¸²à¸Ļà¸°à¸Ħà¸£":4713,"à¸ļà¹Ģà¸Ĭ":4714,"à¸ģà¹Ħà¸§":4715,"à¸²à¹Ĥà¸Ķ":4716,"à¸²à¸ĩà¸ªà¸£à¸£à¸Ħ":4717,"Ġà¸Ńà¸ĩà¸Ħ":4718,"Ġà¹Ģà¸¥à¸¢à¸Ħ":4719,"à¸§à¸Ħà¸£à¸²à¸§":4720,"à¸ĩà¸ļà¸£":4721,"Ġdis":4722,"à¸¢à¸§à¸Ĭà¸²à¸į":4723,"à¸²à¸Ļà¹Ģà¸ŀ":4724,"à¹Ģà¸Ĥà¸²à¸£":4725,"à¸¢à¸§à¸¡":4726,"ode":4727,"à¸Ļà¸ļà¸Ļ":4728,"à¸ĩà¸Īà¸°à¹Ħà¸Ķ":4729,"à¸Ńà¸²à¸į":4730,"à¸Ńà¸ªà¹Ģà¸ķà¸£à¹Ģà¸¥":4731,"à¸ķà¸ģà¸£à¸£à¸¡":4732,"à¸Ńà¹Ħà¸§":4733,"à¸Ńà¸Ļà¸Ħà¸Ļà¸Ļ":4734,"ress":4735,"Ġà¹Ħà¸Ľà¸Ĺ":4736,"à¹Ģà¸«à¸£à¸Ńà¸Ħà¸£":4737,"à¹Ģà¸Ĥà¸²à¹Ģà¸Ľ":4738,"à¸ģà¸²à¸£à¸§":4739,"à¸²à¹Ħà¸«à¸¥":4740,"Ġà¸Ńà¸ĩà¸¨à¸²à¹Ģà¸ĭà¸¥à¹Ģà¸ĭ":4741,"~~":4742,"à¸ĩà¸¥à¸°":4743,"à¸Ĭà¸²à¸Ĭ":4744,"à¹Ģà¸¥à¸¢à¸ģ":4745,"à¸²à¸Ļà¹ĥà¸Ķ":4746,"à¸²à¸Ľà¸ģ":4747,"à¸Ļà¸Ľà¸£à¸°à¸¡à¸²à¸ĵ":4748,"à¸Ńà¸ĩà¹ģà¸ģ":4749,"Ġà¸£à¸ļà¸ģà¸§à¸Ļà¸ľ":4750,"à¸Ĥà¸Ńà¸£":4751,"à¹ģà¸£à¸ģà¸Ĥà¸Ńà¸ĩ":4752,"à¸²à¸ĺà¸£à¸£à¸¡à¹Ģà¸Ļ":4753,"à¸²à¸£à¸°à¸ļà¸ļ":4754,"46":4755,"Ġà¹Ģà¸£à¸²à¹Ħà¸Ķ":4756,"à¸Ńà¹Ģà¸ķà¸Ńà¸£":4757,"à¸Ĭà¸Ĺ":4758,"à¸Ħà¸§à¸²à¸¡à¸Ľà¸¥à¸Ńà¸Ķà¸ł":4759,"à¸²à¹Ģà¸ĺ":4760,"à¸ªà¸Ńà¸Ļ":4761,"à¸«à¸²à¸Ĺ":4762,"à¸Ħà¸¥à¸Ńà¸Ķ":4763,"à¸²à¹Ħà¸Ľà¹ģà¸¥":4764,"à¸²à¹Ģà¸£à¸²à¹Ģà¸Ľ":4765,"ideo":4766,"à¸²à¸Ńà¸°à¹Ħà¸£à¹Ħà¸¡":4767,"wwwfacebookcom":4768,"à¸ļà¸Ńà¸£":4769,"42":4770,"à¸²à¸Ľà¸£à¸°à¸ķ":4771,"à¹ģà¸¥à¸°à¸Ń":4772,"Ġ%":4773,"à¸¢à¸«à¸Ļ":4774,"à¸ĩà¸ļà¸Ńà¸ģ":4775,"à¸Ļà¸®":4776,"à¸²à¸ĩà¸Ħà¸Ļ":4777,"à¸ģà¸ģà¸£à¸°":4778,"à¸Ńà¸ĩà¹Ĩ":4779,"ame":4780,"à¸Ńà¸Ļà¹Ģà¸¥":4781,"Ġà¸ŀà¸Ńà¹Ģà¸£":4782,"à¸ģà¸İ":4783,"à¸Ńà¸Ńà¸²à¸Ī":4784,"à¸ļà¸ļà¸²à¸Ķà¹Ģà¸Ī":4785,"à¸«à¸¡à¸²à¸ģ":4786,"à¸Ļà¸Ħà¸Ļà¸Ļ":4787,"à¸Ńà¸¢à¹Ģà¸Ľ":4788,"ovid":4789,"à¸²à¹Ģà¸¢à¸Ńà¸°":4790,"à¹ģà¸Ĺà¸ļ":4791,"ase":4792,"à¹Ĥà¸¥à¸ģà¸£":4793,"Ġà¹ĥ":4794,"à¸ļà¸ľà¸¥à¸ģà¸£à¸°à¸Ĺ":4795,"ei":4796,"à¸²à¸ĵà¸²à¸Ī":4797,"à¸²à¹Ħà¸«à¸¡":4798,"à¸²à¹Ģà¸ŀà¸¥à¸ĩ":4799,"à¹Ģà¸Ħà¸¡":4800,"à¸Ńà¸ĩà¹Ħà¸§":4801,"à¸²à¸Ļà¸Ħà¸Ļ":4802,"Ġà¹Ģà¸Ńà¸Ł":4803,"Ġà¹Ģà¸Ĥà¸²à¹Ħà¸¡":4804,"à¹Ĥà¸Ħà¸ķà¸£":4805,"à¸Ļà¹Ģà¸ģà¸¡à¸ª":4806,"à¸įà¸«à¸²à¸Ńà¸°à¹Ħà¸£":4807,"Ġig":4808,"à¹Ģà¸£à¸²à¸ŀ":4809,"oon":4810,"à¸ķà¸Ńà¸Ļà¹ģà¸£à¸ģ":4811,"à¸Ńà¸ģà¸Ń":4812,"spoil":4813,"à¸¢à¹Ģà¸Ķ":4814,"à¸ļà¹Ģà¸ļ":4815,"à¸ĩà¹Ĥà¸ķ":4816,"à¸ĩà¸¨à¸£":4817,"Ġmb":4818,"à¸ªà¸²à¸¡à¸²à¸£à¸ĸà¹ĥà¸Ĭ":4819,"à¹Ģà¸£à¸²à¸Ń":4820,"à¹ĥà¸Ļà¸Ńà¸Ļà¸²à¸Ħà¸ķ":4821,"à¸²à¸¨à¸²à¸¥":4822,"à¸ģà¸©à¸²à¸Ħà¸§à¸²à¸¡":4823,"du":4824,"à¸ģà¸Ļà¸°":4825,"coth":4826,"Ġgb":4827,"à¸ĩà¸«à¸²à¸£":4828,"à¸«à¸²à¸Ħ":4829,"à¸ģà¸ģà¸²à¸£à¹Ģà¸¡":4830,"à¸ĭà¸²à¸ģ":4831,"Ġà¸ªà¸ĸà¸²à¸Ļà¸Ĺ":4832,"Ġà¹ģà¸ĸà¸¡à¸¢":4833,"à¸ģà¹Ħà¸«à¸¡":4834,"à¸ĸà¸Ńà¸Ķ":4835,"Ġà¹Ģà¸«à¸¡à¸²à¸°":4836,"à¸²à¸§à¸ªà¸Ķ":4837,"à¸ļà¸Ĺà¸ļà¸²à¸Ĺ":4838,"à¸Ķà¸«à¸ĩ":4839,"Ġ***":4840,"Ġà¸Ļà¸²à¸Ļ":4841,"255":4842,"Ġà¸ĸà¸²à¸¡à¸§":4843,"à¸Ńà¸Ļà¹Ģà¸ª":4844,"à¸ļà¹Ĥà¸¥à¸ģ":4845,"Ġà¹Ģà¸£à¸²à¸ª":4846,"à¸²à¹ĥà¸Īà¸ģ":4847,"à¸²à¹Ģà¸£à¸²à¸Ĺ":4848,"à¸ģà¸Ĺà¸²à¸ĩ":4849,"à¸ªà¸Ńà¸£":4850,"à¸Ļà¸ĺà¸£à¸£à¸¡":4851,"à¸²à¸£à¸Ńà¸ļ":4852,"à¸«à¸Ļà¸²à¸§":4853,"à¸¢à¸Ļà¹ĥà¸«":4854,"Ġà¸łà¸²à¸©":4855,"à¸ģà¹Ģà¸Ĭ":4856,"à¸Ľà¸£à¸°à¸Ĭà¸²à¸ª":4857,"Ġà¸¡à¸²à¸Ĺ":4858,"à¸Īà¸Īà¸£":4859,"Ġà¸«à¸¥à¸²à¸¢à¸Ħà¸Ļ":4860,"Ġà¸Ļà¸²à¸¢à¸ª":4861,"à¸Ķà¹ģà¸ļà¸ļ":4862,"à¸£à¸²à¸§":4863,"à¸¡à¸¡à¸²à¸ģ":4864,"à¹Ģà¸Ħà¸¢à¹Ħà¸Ľ":4865,"à¸ĺà¸²à¸ķ":4866,"Ġà¸ļà¸¥":4867,"à¸ģà¸Īà¸£":4868,"à¸Ĥà¸Ńà¸ĩà¸Ľà¸£à¸°à¹Ģà¸Ĺà¸¨":4869,"à¸ĵà¸¡à¸²à¸ģà¸Ħà¸£":4870,"à¸Ńà¹Ħà¸§à¸£":4871,"stagram":4872,"ðŁĳį":4873,"Ġà¸Ĥà¸§à¸ļ":4874,"à¹Ħà¸Ńà¸Ķ":4875,"ais":4876,"à¸Ļà¹Ĥà¸Ķà¸Ļ":4877,"59":4878,"à¹ĥà¸Ħà¸£à¸ģ":4879,"Ġà¹Ģà¸¥à¸¢à¸ķ":4880,"à¸ĵà¸°à¸ģà¸£à¸£à¸¡à¸ģà¸²à¸£":4881,"à¸ķà¸ĭ":4882,"Ġà¹Ģà¸ģà¸£":4883,"à¸Ķà¸Īà¸°":4884,"à¸Ħà¸§à¸²à¸¡à¸ŀà¸£":4885,"ara":4886,"à¸¢à¹ĥà¸Ļ":4887,"à¸ľà¸¡à¸¢":4888,"à¸Ļà¹Ģà¸Ļà¸Ńà¸£":4889,"à¸§à¹Ģà¸Ńà¸ĩà¸ģ":4890,"à¸Ļà¸Ħà¸§à¸²à¸¡à¸£":4891,"à¸Īà¸¡":4892,"à¸Ħà¸¡":4893,"à¸Ĥà¸Ļà¸¡":4894,"à¸ĩà¸Ľà¸£à¸°à¹Ģà¸Ĺà¸¨":4895,"à¸²à¸ļà¸²à¸Ĺ":4896,"à¸Ĳà¸Ńà¹Ģà¸¡à¸£":4897,"Ġtv":4898,"à¸Ńà¸ģà¸ļ":4899,"à¸ļà¸Ħà¸£à¸Ńà¸ļà¸Ħà¸£":4900,"à¸¨à¸¥":4901,"à¸Ńà¹Ģà¸ŀà¸¥à¸ĩ":4902,"à¸įà¸²à¸ķà¹ĥà¸«":4903,"à¹Ĥà¸Ħà¹Ĥà¸£":4904,"à¸§à¹Ģà¸Ńà¸ĩà¸§":4905,"à¹ģà¸¥à¸°à¸ŀ":4906,"wor":4907,"à¸łà¸²à¸Ħà¸£":4908,"icial":4909,"à¹ĥà¸ļà¸«à¸Ļ":4910,"à¸Ńà¸Ńà¸Ļ":4911,"Ġà¸Ħà¸§à¸£à¸Ĺ":4912,"à¸²à¹ģà¸ľ":4913,"à¸£à¸ĸà¹Ħà¸Łà¸Ł":4914,"à¸įà¸«à¸²à¸Ļ":4915,"à¸ģà¸Ħà¸Ļà¸Ļ":4916,"à¸£à¸°à¸ļà¸²à¸Ķà¸Ĥà¸Ńà¸ĩ":4917,"Ġà¸¢à¸Ńà¸¡à¸£":4918,"à¸§à¸¢à¸ĩà¸²à¸Ļà¸Ĺ":4919,"à¸ªà¹Ģà¸ķ":4920,"à¸ķà¸¥à¸Ńà¸Ķà¹Ģà¸§à¸¥à¸²":4921,"à¸ģà¹ĥà¸Ĭ":4922,"à¸ľà¸¡à¸Ķ":4923,"à¸ŀà¸£à¸°à¸£à¸²à¸¡":4924,"pptv":4925,"à¹Ĥà¸¢à¸ļà¸²à¸¢":4926,"à¸ĵà¹Ģà¸Ľ":4927,"à¸²à¸ģà¸İà¸§":4928,"Ġà¹Ħà¸Ľà¸Ķ":4929,"à¹Ģà¸¢à¸Ńà¸£à¸¡":4930,"ave":4931,"à¸²à¸¡à¸ģ":4932,"à¸ģà¸²à¸£à¸¢":4933,"Ġà¸ļà¸£à¸£à¸¢à¸²à¸ģà¸²à¸¨":4934,"ãĤ":4935,"à¸²à¹Ĥà¸ŀ":4936,"à¸Ĥà¸Ńà¸ĩà¸Ī":4937,"à¸£à¸Ńà¸ĩà¸£":4938,"à¸Ĭà¸Ńà¸ļà¸ģ":4939,"à¸Ħà¸ĭ":4940,"à¸łà¸£à¸£à¸¢":4941,"Ġ>":4942,"à¸²à¸§à¸Ĥ":4943,"per":4944,"à¹Ģà¸Ķà¸Ĭ":4945,"à¸ªà¸ĩà¸Ħà¸£à¸²à¸¡":4946,"à¹ģà¸Ĺà¸ļà¹Ħà¸¡":4947,"à¸Ńà¸¢à¸Ń":4948,"Ġà¸ŀà¸ļ":4949,"Ġà¸¡à¸²à¸ķà¸£":4950,"à¸²à¸Ħà¸Ļà¸Ļ":4951,"à¸Ńà¹Ģà¸Ńà¸ĩ":4952,"à¸ģà¸¢à¸łà¸²à¸ŀ":4953,"Ġà¸ģà¸£à¸ģ":4954,"à¸£à¸Ńà¸ĩà¹Ģà¸Ĺ":4955,"à¸£à¸²à¸ļà¸§":4956,"à¹ģà¸Ļà¸§à¹Ĥà¸Ļ":4957,"à¸įà¹Ģà¸ª":4958,"à¸Ļà¸ªà¸²à¸¢":4959,"à¸ĺà¸¢à¸²":4960,"à¸§à¸²à¸Ķ":4961,"à¸¡à¸«à¸²à¸Ĭà¸Ļ":4962,"à¸ĩà¸Ľà¸£":4963,"à¸Ĥà¸²à¸¢à¸Ĥà¸Ńà¸ĩ":4964,"à¸´à¹ĭ":4965,"à¹ģà¸¥à¸°à¸Ī":4966,"Ġà¸£à¸Ń":4967,"ãĥ":4968,"à¸Ńà¸ĩà¸ģà¸ĩ":4969,"à¸Ľà¸£à¸²à¸¡":4970,"à¹Ģà¹Ģà¸¥à¸°":4971,"à¸Ńà¸ĩà¸ķà¸²à¸¡":4972,"à¸ļà¸Ľà¸£à¸°à¸ģ":4973,"à¹Ģà¸Ħà¸Ĭ":4974,"Ġà¹ģà¸¢à¸ģ":4975,"à¸Ńà¸ªà¸ĩà¸ª":4976,"Ġà¸Ĥà¸Ńà¸ļ":4977,"67":4978,"à¸§à¸ĩà¹Ģà¸ĩ":4979,"à¸ģà¸ªà¸Ļ":4980,"à¸²à¸«à¸¡à¸Ķ":4981,"à¹Ĥà¸«à¸§à¸ķ":4982,"à¸ļà¹ģà¸ģ":4983,"à¸¢à¸ĩà¹Ħà¸¡":4984,"à¸«à¸²à¸£à¸Ī":4985,"à¸²à¸ĩà¸ĭ":4986,"à¸¥à¸ĩà¸ķ":4987,"Ġ33":4988,"à¸Ķà¹Ģà¸«à¸¡":4989,"à¸Ļà¹Ģà¸Ľà¸¥":4990,"à¸īà¸°à¸Ļ":4991,"à¸ģà¸²à¸£à¸Ĥ":4992,"à¸ĩà¸ĩà¸²à¸Ļà¸ģ":4993,"à¸²à¸¡à¸²à¸Ħ":4994,"à¸ģà¸Ĺà¸¡":4995,"ear":4996,"à¸Ľà¹Ģà¸Ķ":4997,"Ġà¸īà¸ļ":4998,"à¸§à¸ĩà¹Ģà¸§à¸¥":4999,"à¸Ńà¸Ļà¹ģà¸ķ":5000,"à¸¢à¸ĩà¸Ļ":5001,"à¸Ľà¸£à¸°à¸ģà¸²à¸£":5002,"à¹Ĥà¸Ķà¸Ķà¹Ģà¸Ķ":5003,"ream":5004,"ian":5005,"à¸įà¸Ĭà¸²à¸ģà¸²à¸£":5006,"sel":5007,"à¸Ńà¸¨":5008,"à¸Ĭà¸į":5009,"5555555555555555":5010,"Ġà¹ģà¸¥à¸°à¹Ģà¸¡":5011,"Ġà¹Ģà¸ģà¸²à¸°":5012,"à¸Ļà¸Ńà¸Ļà¸§":5013,"ection":5014,"à¹Ĥà¸ģà¸«":5015,"à¸Ļà¸¡à¸²à¹Ħà¸Ķ":5016,"à¸Ńà¸²à¸Ħà¸²à¸£":5017,"Ġplay":5018,"à¹Ħà¸«à¸Ļà¹Ħà¸Ķ":5019,"à¸£à¸ĸà¸Ĺ":5020,"à¸ģà¸²à¸£à¸Ľ":5021,"à¸¡à¹Ģà¸ª":5022,"oto":5023,"à¸®à¸Ńà¸¥":5024,"à¸ĩà¸¢à¸²à¸ģ":5025,"à¸Ńà¸Ļà¹Ģà¸ŀ":5026,"400":5027,"Ġà¸ľà¸Ĭ":5028,"à¸łà¸²":5029,"à¸ģà¸²à¸£à¸ľ":5030,"Ġà¸Ĥà¸Ńà¸£":5031,"à¸Ļà¹Ģà¸¢":5032,"à¸«à¸Ńà¸¡":5033,"à¹Ģà¸Ĺà¸£":5034,"à¸Īà¸°à¹Ģà¸«":5035,"à¸ĩà¹ģà¸£à¸ģà¸Ĺ":5036,"à¸²à¸§à¹Ħà¸Ķ":5037,"à¸²à¸ĩà¸«à¸²à¸ģ":5038,"à¸²à¸«à¸į":5039,"à¸Ńà¸ĩà¸«à¸£":5040,"à¸ģà¸©à¸²à¸ª":5041,"Ġà¸ªà¸²à¸£":5042,"à¹ģà¸ļà¸ĩà¸Ħ":5043,"à¸Īà¸ķ":5044,"Ġà¹Ĥà¸Ķà¸¢à¸Ļ":5045,"à¹Ģà¸¥à¸Ļà¸ª":5046,"Ġà¹ĥà¸Ļà¹Ģà¸¡":5047,"Ġà¸¡à¸²à¸ķ":5048,"à¸ģà¸²à¸£à¹ĥà¸«":5049,"Ġà¹Ĥà¸Ķà¸Ļ":5050,"à¸²à¸Īà¸°à¹Ģà¸ģ":5051,"à¸¡à¸²à¹Ģà¸ģ":5052,"à¸§à¸ĩà¹Ģà¸Ĭ":5053,"à¸Ļà¸ŀà¸¥":5054,"à¹ĥà¸Ļà¸¥":5055,"Ġgal":5056,"sumer":5057,"pt":5058,"Ġà¹ģà¸¥à¸°à¹ĥà¸«":5059,"à¸Ħà¸Ħà¸¥à¸Ĺ":5060,"à¸Ħà¸Ļà¸ª":5061,"à¸ģà¸²à¸£à¸Ľà¸£à¸°à¸Ĭ":5062,"à¸Ķà¸Ĺà¸²à¸ĩ":5063,"Ġwindow":5064,"à¸Ńà¹Ģà¸£à¸²à¸ģ":5065,"à¹Ģà¸Ĥà¸²à¸§":5066,"à¸ĵà¸§":5067,"à¸Ħà¸Ńà¸Ļà¹Ĥà¸Ķ":5068,"ens":5069,"Ġlive":5070,"lo":5071,"à¸Ķà¸ģà¸£":5072,"à¹ģà¸¥à¸ķ":5073,"à¸¢à¸ģà¹Ħà¸Ķ":5074,"à¸ģà¸¥à¸ĩ":5075,"Ġ2020":5076,"à¸§à¹Ģà¸Ńà¸ĩà¹Ħà¸¡":5077,"Ġà¸ĩà¸²à¸Ļà¸Ļ":5078,"à¹Ģà¸ģà¸£à¸Ķ":5079,"Ġà¸Ľà¸£à¸²à¸ģà¸ıà¸§":5080,"à¸Ļà¸¥à¸°à¸Ħà¸£":5081,"à¸Ĺà¸°à¹Ģà¸¥à¸²à¸°à¸ģ":5082,"à¸Ľà¸£à¸°à¸«à¸²à¸£":5083,"âĢ¢":5084,"à¹ģà¸Ĺà¸£":5085,"à¸²à¸¡à¸²à¸ģà¸ģà¸§":5086,"à¸¹à¹ĭ":5087,"à¸²à¸ĩà¹Ģà¸ŀ":5088,"à¸Ļà¸Ńà¸Ńà¸Ļà¹Ħà¸¥à¸Ļ":5089,"air":5090,"à¸Ńà¸ĩà¸Ńà¸Ńà¸ģ":5091,"à¸Ĥà¸ĵà¸°à¸Ļ":5092,"nation":5093,"te":5094,"à¸²à¸ĩà¸ĩà¸²à¸Ļ":5095,"à¸§à¸Ļà¸ļ":5096,"05":5097,"Ġconsumer":5098,"à¸Ľà¸£à¸°à¸ģà¸§":5099,"à¸Ĥà¸²à¸¢à¸Ĺ":5100,"Ġà¸Ľà¸²à¸ģ":5101,"à¸¡à¸ŀà¸£":5102,"Ġà¸Ħà¸Ķ":5103,"Ġà¹Ĥà¸Ķà¸¢à¸ª":5104,"à¸Ńà¸Ļà¹Ģà¸ĩ":5105,"à¸ļà¸£à¸Ńà¸ĩ":5106,"////":5107,"Ġtrans":5108,"à¸Ľà¸¡":5109,"à¹Ħà¸Ľà¸Ĭ":5110,"Ġà¸ªà¸ģ":5111,"Ġà¸ģà¸²à¸£à¸Ī":5112,"à¸Ļà¸ģà¸¥à¸²à¸ĩ":5113,"à¸Ļà¹ĥà¸Ļà¸ģà¸²à¸£":5114,"à¸ªà¸¢":5115,"à¹Ħà¸Ľà¹Ģà¸Ľ":5116,"à¸²à¸Īà¸°à¹ĥà¸Ĭ":5117,"à¸įà¸«à¸²à¸Ħ":5118,"à¸ļà¹Ģà¸Ľà¸¥":5119,"à¹ĥà¸Ħà¸£à¸¡":5120,"à¸Ķà¸ľà¸¡":5121,"à¹Ģà¸Ĥà¸²à¹Ħà¸Ķ":5122,"Ġà¸Īà¸°à¸£":5123,"à¸Ĵà¸Ļà¸²à¸ģà¸²à¸£":5124,"à¹ĥà¸Īà¸¡à¸²à¸ģ":5125,"à¸²à¹Ģà¸ģà¸¥":5126,"à¸Ħà¸ļ":5127,"Ġblack":5128,"Ġà¸£à¸²à¸Ĭ":5129,"à¸Ńà¸ĩà¹ģà¸ļà¸ļà¸Ļ":5130,"à¸ģà¸²à¸£à¹Ģà¸Ľà¸¥":5131,"à¸¡à¸«à¸£":5132,"Ġà¸£à¸ļà¸ģà¸§à¸Ļà¸Ĭ":5133,"Ġà¹Ĥà¸Ĺ":5134,"à¹Ģà¸£à¸²à¹Ģà¸Ĥ":5135,"à¹Ģà¸§à¸¢":5136,"à¸Ļà¸Ńà¸Ńà¸ģà¹Ģà¸ī":5137,"800":5138,"height":5139,"à¸ģà¸ľà¸¡":5140,"à¸ķà¸Ī":5141,"Ġworld":5142,"Ġà¹Ĥà¸£à¸ĩ":5143,"à¸¢à¸ĸ":5144,"à¸Ńà¸ĩà¹ĥà¸ª":5145,"à¸Ķà¸ģà¸İà¸«à¸¡à¸²à¸¢":5146,"à¸Ńà¸Ľà¸£":5147,"Ġout":5148,"à¸°à¸Ĥ":5149,"Ġbts":5150,"à¸Ńà¸¡à¸ļ":5151,"à¸²à¸Ĥà¸Ńà¸ĩà¸£":5152,"à¸Ķà¸ŀà¸£à¸°":5153,"Ġà¸Ħà¸ĩà¹Ħà¸¡":5154,"à¸Ħà¸¥à¸²à¸¢":5155,"à¸²à¸Ĥà¸Ńà¸ĩà¸ª":5156,"à¹Ĥà¸Ńà¸Ĭà¸²":5157,"angk":5158,"à¸ŀà¸¢à¸²à¸ģà¸£":5159,"à¸Ħà¸§à¸²à¸¡à¸ªà¸°à¸Ķà¸§à¸ģ":5160,"à¸Ļà¸Ńà¸²à¸¢":5161,"Ġà¸ŀà¸¢":5162,"à¸²à¸ªà¸²à¸¡":5163,"à¸²à¸Īà¸°à¹Ģà¸¥":5164,"à¸ķà¸²à¸¡à¸£":5165,"à¸ĩà¸§à¸Ķ":5166,"à¹Ĥà¸Ħà¸£à¸ĩà¸ªà¸£":5167,"na":5168,"à¹Ģà¸Ħà¸¢à¹Ģà¸Īà¸Ń":5169,"à¹Ĥà¸Ńà¸ģà¸²à¸ªà¸Ĺ":5170,"à¹ĥà¸Ļà¸Ħà¸£à¸Ńà¸ļà¸Ħà¸£":5171,"Ġà¸Ńà¸²à¸Īà¸Īà¸°":5172,"à¸ªà¸ĩà¸ªà¸²à¸£":5173,"à¸¢à¸ĩà¸Ĥ":5174,"à¸ĩà¸Ĭà¸Ńà¸ļ":5175,"à¸µâĢĿ":5176,"à¸«à¸¡à¸Ń":5177,"à¸Ńà¸Ļà¸«à¸£":5178,"à¸Ļà¸°à¹Ģà¸¥":5179,"à¸¢à¸Ĥ":5180,"à¸Ńà¸ĩà¸¡à¸²à¸ģ":5181,"à¹Ħà¸ĭà¸Ķ":5182,"Ġà¹Ħà¸Ľà¸ģ":5183,"Ġnote":5184,"à¸ĸà¸²à¸¡à¹Ģà¸ŀ":5185,"aa":5186,"à¸¡à¸ĵà¸ĳ":5187,"riend":5188,"à¹Ĩà¸Ļ":5189,"à¸¡à¹Ģà¸¨à¸£":5190,"à¸¥à¸ĩà¸ŀ":5191,"à¸ĩà¹ģà¸ģà¸£":5192,"à¸²à¸ĩà¸«à¸£":5193,"à¸Ļà¸£à¸°à¸«à¸§":5194,"à¸Ħà¸ĩà¸Īà¸°":5195,"à¸Ļà¹Ħà¸ŀà¸£":5196,"à¸§à¸¢à¸Ĥ":5197,"à¸Ńà¸Ļà¸¡à¸²à¸ģ":5198,"Ġà¸Ħà¸Ļà¸£":5199,"à¸Ļà¸ķà¸ģ":5200,"à¹ģà¸¥à¸°à¹Ģà¸Ľ":5201,"à¸ĩà¸ªà¸²à¸¡":5202,"à¸Ľà¸²à¸£":5203,"à¸ŀà¸£à¸°à¹Ģà¸Ī":5204,"à¸°à¹Ģà¸ŀ":5205,"à¸ŀà¸²à¸¢":5206,"à¸¡à¸Ħà¸§à¸²à¸¡":5207,"à¹Ĥà¸ŀà¸¥":5208,"à¸Ńà¸ĩà¸ģà¸²à¸£à¸Ĺ":5209,"à¸ģà¹Ģà¸Ī":5210,"),":5211,"à¹Ģà¸Ķà¸¥":5212,"à¸²à¸ģà¸²à¸£à¸ģà¸£à¸°à¸Ĺà¸£à¸§à¸ĩ":5213,"Ġwith":5214,"à¸°à¸Ī":5215,"à¸Ńà¸ĩà¹Ģà¸ķ":5216,"à¸ļà¸Ńà¸Ļ":5217,"Ġà¹ģà¸¥à¸°à¸¥":5218,"à¹ģà¸¥à¸°à¸§":5219,"Ġ600":5220,"à¸¥à¸°à¸Ĺ":5221,"à¸Ńà¸ĩà¹Ģà¸«":5222,"à¹ĥà¸Ļà¸«à¸Ļ":5223,"à¸¢à¸¡à¸Ĺ":5224,"ony":5225,"à¸¢à¹Ģà¸ģ":5226,"à¸¡à¸²à¸ľ":5227,"Ġà¸Ĭà¸§à¸Ļ":5228,"Ġà¸¢à¸ģà¹Ģà¸§":5229,"à¸Ħà¸Ļà¸Ī":5230,"à¸ĩà¹Ģà¸ŀà¸£à¸²à¸°":5231,"à¸Ńà¸ĩà¸ªà¸²à¸¡":5232,"à¸§à¸²à¸ª":5233,"à¸Ľà¸£à¸°à¹Ģà¸Ĺà¸¨à¸Ĺ":5234,"à¸²à¸ĩà¸²à¸Ļà¸Ķ":5235,"à¸īà¸¥à¸²à¸Ķ":5236,"ðŁĺĤ":5237,"à¸¡à¹Ģà¸«à¸¥":5238,"à¸²à¸§à¹Ħà¸Ĺà¸¢":5239,"à¸§à¹Ģà¸Ĺ":5240,"Ġà¹Ģà¸¢à¸Ńà¸°":5241,"à¸Ĥà¸Ńà¸ĩà¸ģ":5242,"ser":5243,"à¸Ķà¸Ľà¸£à¸°à¸ķ":5244,"à¸ģà¸Ķà¸Ķ":5245,"à¸Ńà¸Ļà¹Ģà¸Ĺ":5246,"à¸Ķà¹ģà¸Ħ":5247,"++++++++++++++++":5248,"à¹Ĥà¸¡à¸ĩ":5249,"Ġà¸Īà¸Ļà¸¡":5250,"à¸Ńà¹Ģà¸§à¸¥":5251,"'re":5252,"à¸ĩà¸ªà¸¡":5253,"à¸§à¸¢à¹Ħà¸¡":5254,"à¸«à¸ģà¸£à¸ĵ":5255,"à¸º":5256,"Ġà¸Ľà¸£à¸°à¹Ģà¸Ĺà¸¨à¹Ħà¸Ĺà¸¢":5257,"Ġà¸Īà¸°à¸Ķ":5258,"Ġ63":5259,"à¹ĥà¸Ħà¸£à¹Ģà¸Ľ":5260,"à¸Į":5261,"à¹Ĥà¸Īà¸£":5262,"Ġco":5263,"oll":5264,"Ġà¸Ľà¸£à¸°à¸ģà¸Ńà¸ļà¸Ķ":5265,"hz":5266,"à¸Ħà¸Ļà¹ĥà¸«à¸¡":5267,"à¸²à¸ķà¸²":5268,"à¸łà¸²à¸£à¸°":5269,"à¸ļà¸ģà¸²à¸£à¸£":5270,"à¸ªà¸²à¸¢à¸ģà¸²à¸£à¸ļ":5271,"à¸Ħà¸²à¸£":5272,"à¸«à¸¥à¸Ńà¸ģ":5273,"à¸Ľà¸ģà¸Ľ":5274,"à¸ĩà¸ķà¸Ńà¸ļ":5275,"à¸Ļà¸ªà¸Ķ":5276,"à¹ģà¸ĸà¸¡":5277,"à¸¥à¸§":5278,"à¸Īà¸²à¸ģà¸ª":5279,"à¸Ĭà¸Ķ":5280,"à¸Ļà¸Ĥà¸Ńà¸ĩà¸ķ":5281,"à¸Ĺà¸£à¸ĩà¸Ī":5282,"à¸²à¸ŀà¸¥":5283,"à¸ĵà¸Ļ":5284,"aily":5285,"à¸²à¸¥à¸°":5286,"à¸Ķà¸Ńà¸ģ":5287,"à¸ļà¸Ľà¸£à¸°à¸Ĺà¸²à¸Ļ":5288,"à¹Ģà¸Ńà¸ĩà¸Ĺ":5289,"à¸ļà¸łà¸²à¸ŀ":5290,"ocial":5291,"à¸Ļà¸Ľà¸£à¸°à¹Ĥà¸¢à¸Ĭà¸Ļ":5292,"à¸ĩà¹Ģà¸«à¸ķ":5293,"à¹Ģà¸Īà¸ķà¸Ļ":5294,"à¹Ħà¸«à¸Ļà¸¡":5295,"à¸²à¸ĸà¸²à¸¡à¸§":5296,"à¸Ńà¸¢à¸Ļà¸°":5297,"à¹Ģà¸Ĥà¸²à¸¢":5298,"ĠâĿ¤":5299,"à¸²à¸Īà¸°à¹Ģà¸£":5300,"Ġhot":5301,"à¸Ĥà¸Ńà¸ĩà¸Ĭ":5302,"à¹Ħà¸Ľà¸Ĥ":5303,"à¸²à¸«à¸Ńà¸¡":5304,"Ġems":5305,"Ġà¸ªà¸²à¸ĺ":5306,"à¸ģà¸²à¸£à¸¥":5307,"à¸µ\"":5308,"à¸Ļà¸Ĺà¸²à¸ĩà¸Ĺ":5309,"à¸ŀà¸ĩà¸¨":5310,"Ġà¸§à¸£":5311,"Ġche":5312,"à¸²à¹ĥà¸Īà¸ľ":5313,"à¸ģà¸²à¸£à¸ĸ":5314,"iver":5315,"à¸²à¹Ħà¸Ľà¸Ń":5316,"à¸Ĭà¸§":5317,"à¸ļà¸Ľà¸¥":5318,"à¸²à¸¡à¸²à¸ķ":5319,"à¹Ħà¸Ľà¹Ģà¸¥":5320,"à¸ļà¹Ĩ":5321,"à¸Ľà¸£à¸²à¸ļ":5322,"Ġà¹Ģà¸§à¸¥à¸²à¸Ĺ":5323,"à¸²à¸§à¸£à¸²à¸¢à¸ĩà¸²à¸Ļà¸§":5324,"à¸Ļà¹Ģà¸Ĺà¸Ńà¸£":5325,"Ġà¹Ĥà¸Ķà¸¢à¹ĥà¸Ĭ":5326,"Ġà¸ģà¸Ķ":5327,"à¹ģà¸ªà¸ĩ":5328,"à¸°à¸ªà¸¡":5329,"Ġà¸Ĥà¸Ńà¹Ĥà¸Ĺà¸©":5330,"Ġà¸£à¸²à¸Ħà¸²à¸Ľà¸ģ":5331,"à¸£à¸²à¸Ħà¸²à¸ª":5332,"à¸ĩà¸²à¸Ļà¸Ļ":5333,"à¸ªà¸ĸà¸²à¸Ļà¸°":5334,"à¸ļà¸£à¸Ńà¸ļ":5335,"erm":5336,"2562":5337,"à¸įà¸¥":5338,"à¸ĩà¸Ļà¸°à¸Ħà¸°":5339,"à¹Ĥà¸Īà¸¡à¸ķ":5340,"à¸Ľà¸£à¸°à¸¡à¸²à¸ĵà¸§":5341,"Ġà¸Ĭà¸Ļ":5342,"81":5343,"à¸Ńà¸°à¹Ħà¸£à¸Ħà¸£":5344,"à¸Ľà¸£à¸²à¸ģà¸²à¸£":5345,"à¹Ħà¸Ľà¸¡":5346,"oh":5347,"à¸ªà¸ĩà¸ļ":5348,"à¸£à¸ĸà¸Ī":5349,"à¸Ńà¸ģà¸£à¸°":5350,"axy":5351,"900":5352,"à¸ļà¹Ģà¸ŀà¸£à¸²à¸°":5353,"à¸²à¸ªà¸²à¸§":5354,"à¸Ńà¸Ńà¸¢à¸²à¸ģ":5355,"à¸²à¸¡à¸ģà¸¥à¸²à¸ĩ":5356,"à¸Ńà¸¢à¸Ħà¸°":5357,"à¸ĵà¸¡à¸²à¸ģ":5358,"à¸°à¸°":5359,"ign":5360,"à¹Ĥà¸Ńà¸¥":5361,"ĠðŁĵ":5362,"à¸¡à¸²à¸ļà¸Ńà¸ģà¸§":5363,"à¹Ģà¸Ĥà¸²à¸Ķ":5364,"à¸²à¸ĩà¸ľ":5365,"à¸«à¸£à¸Ńà¸ģà¸Ħà¸£":5366,"à¸§à¸¥à¸°":5367,"à¹ģà¸Ļà¸§à¸Ħ":5368,"à¹Ĥà¸Ľà¸£à¸Ķ":5369,"à¸ķà¸²à¸¡à¸Ļ":5370,"à¸Ļà¹Ħà¸«à¸Ļà¸Ķ":5371,"Ġà¸Īà¸°à¹ĥà¸«":5372,"à¸Ļà¹Ģà¸Ħà¸¢":5373,"à¸ªà¸²à¸¡à¸²à¸£à¸ĸà¸ķ":5374,"à¹Ģà¸§à¸£":5375,"à¸¢à¸§à¹Ħà¸¡":5376,"à¸Ļà¹Ģ":5377,"à¸ģà¸²à¸£à¹Ģà¸ĩ":5378,"à¸Ļà¸ģà¸£":5379,"à¸Ńà¸Īà¸£":5380,"Ġà¸ģà¸£à¸ģà¸İ":5381,"Ġapple":5382,"à¸ģà¸²à¸ĩà¹Ģà¸ģ":5383,"à¸ģà¸²à¸£à¸ĭ":5384,"à¸²à¹Ģà¸Ľà¸£":5385,"à¸²à¸£à¸°à¸«à¸§":5386,"âĺ":5387,"à¸«à¸ĩ":5388,"à¸ŀà¸¡":5389,"à¸¢à¹Ģà¸§à¸¥":5390,"à¸Ĺà¸²à¸ĩà¸ģà¸²à¸£à¹Ģà¸¡":5391,"Ġà¹ģà¸¥à¸°à¹Ģà¸£":5392,"à¸Ńà¸Ļà¸ģà¸§":5393,"à¸²à¸ĩà¹Ħà¸«à¸¡":5394,"à¹Ģà¸Īà¸£à¸Ī":5395,"à¹Ģà¸Łà¸Ńà¸£":5396,"à¹Ģà¸Ĺà¸¨à¸ļà¸²à¸¥":5397,"Ġà¸Ĥà¸²à¸Ķ":5398,"à¸²à¸ªà¸§à¸¢":5399,"Ġà¹Ĥà¸Ī":5400,"à¸ķà¸£à¸Ĺ":5401,"à¸ģà¸²à¸¥à¸Ĺ":5402,"à¸§à¸¢à¹Ģà¸«à¸ķ":5403,"Ġà¸Ĥà¸Ńà¸Ĥ":5404,"à¸²à¸¡à¹Ģà¸Ļ":5405,"à¸Ńà¹Ħà¸Ľà¸Ļ":5406,"à¸ļà¸§à¸Ĭ":5407,"ull":5408,"à¹Ĥà¸¢à¸ĺ":5409,"Ġà¸Ĺà¸§":5410,"Ġà¸Ĭà¸²à¸§à¸ļ":5411,"à¸²à¸Īà¸°à¸ĭ":5412,"Ġà¹Ĥà¸£à¸ĩà¹ģà¸£à¸¡":5413,"Ġvi":5414,"à¸²à¸Īà¸°à¸ª":5415,"Ġà¹Ģà¹Ģà¸¥à¸°":5416,"ðŁĴĹ":5417,"à¸Ħà¸Ńà¸¡à¹Ģà¸¡":5418,"ere":5419,"à¸ĩà¸Ĺà¸£":5420,"à¸Ńà¹Ģà¸ªà¸Ļà¸Ń":5421,"à¸Ļà¸Īà¸°à¹Ħà¸¡":5422,"à¸²à¸Īà¸Ń":5423,"à¸ĩà¸ŀà¸£":5424,"à¸ĩà¹ĥà¸Īà¸Ĺ":5425,"à¹Ģà¸¥à¸¢à¸Ħà¸°":5426,"Ġ56":5427,"----------------------------------------------------------------":5428,"à¸ªà¹Ĥà¸Ħà¹Ĥà¸£":5429,"Ġcc":5430,"à¸²à¸Ńà¸²à¸ģà¸²à¸¨":5431,"à¸£à¸°à¸¢à¸°à¹Ģà¸§à¸¥":5432,"à¸Ħà¸ĩà¸ķ":5433,"à¸Ĥà¸Ńà¸ĩà¸ļà¸£":5434,"à¸Ļà¹ģà¸Łà¸Ļà¸ģ":5435,"Ġred":5436,"red":5437,"à¸Ļà¸¢à¸²à¸ģ":5438,"à¸ļà¸¡à¸²à¹Ģà¸Ľ":5439,"à¸Ķà¹ģà¸Ĺ":5440,"à¸§à¸ĩà¸ļ":5441,"à¸Ńà¹Ģà¸ĩ":5442,"roid":5443,"à¸Ķà¹ĥà¸«à¸į":5444,"à¸²à¸Ļà¹ģà¸¥à¸°":5445,"à¸ģà¹Ģà¸ļ":5446,"à¹ģà¸Ŀ":5447,"56":5448,"Ġso":5449,"à¸Ļà¸Ķà¸²à¸¥":5450,"à¸¥à¸Īà¸²à¸ģ":5451,"à¹Ģà¸ģà¸Ńà¸£":5452,"à¸Ļà¸ªà¸²à¸¡":5453,"Ġà¸Ħà¸Ļà¸Ń":5454,"Ġà¸Ļà¸²à¸¢à¸§":5455,"à¸Ńà¸ĩà¹ĥà¸«à¸į":5456,"à¸Ļà¸ªà¸£":5457,"Ġà¸Ħà¸§à¸²à¸¡à¹Ģà¸£":5458,"à¸§à¸¥à¸ĩ":5459,"à¸ļà¹Ģà¸Ń":5460,"à¹Ģà¸Ħà¸¢à¸Ķ":5461,"à¸ĩà¸ªà¸²à¸§":5462,"à¸²à¹Ģà¸§à¸¥":5463,"Ġà¹Ħà¸¥":5464,"à¹Ģà¸¢à¸²à¸§à¸Ĭà¸Ļ":5465,"à¸Ľà¸Ńà¸£":5466,"Ġ38":5467,"âŀ":5468,"à¸«à¸¡à¸Ńà¸ģ":5469,"à¸ĩà¸£à¸²à¸Ħ":5470,"à¸Ńà¸ļà¸Ħà¸¥":5471,"à¸ļà¸ķà¸²à¸¡":5472,"à¸²à¸Īà¸°à¸ĸ":5473,"à¸§à¸Ļà¸ľà¸ªà¸¡":5474,"à¸ĩà¹Ĥà¸Ķ":5475,"ĠðŁĮ":5476,"à¸¢à¸Ńà¸Ķà¹Ģà¸¢":5477,"à¸Ńà¸Ļà¹Ģà¸Ħ":5478,"à¸ĩà¸ģà¸£à¸ĵ":5479,"à¸Ļà¸ī":5480,"Ġà¸¡à¸«":5481,"à¹ģà¸ľà¸Ļà¸Ĺ":5482,"à¸ľà¸¥à¸ķ":5483,"Ġss":5484,"à¸ĩà¸²à¸Ļà¸Ķ":5485,"à¸²à¸¢à¸¡à¸²à¸ģ":5486,"à¹Ģà¸¥à¸¢à¸¡":5487,"à¸Ńà¹Ģà¸¥à¸¢à¸Ħà¸£":5488,"à¸Ļà¸Ļà¸²à¸Ļ":5489,"à¸ļà¹Ħà¸Ľà¸Ĺ":5490,"Ġà¸Ĥà¸Ńà¸ĸà¸²à¸¡":5491,"57":5492,"à¸²à¸ĩà¸²à¸Ļà¹Ħà¸Ķ":5493,"à¸¡à¸Ļà¸²à¸Ħà¸¡":5494,"à¸Ńà¸¢à¸²à¸ģà¸Ħ":5495,"à¸ªà¸§à¸£à¸£à¸Ħ":5496,"à¸ĩà¹Ģà¸§":5497,"à¹Ħà¸«à¸Ļà¸Ħà¸°":5498,"à¸¢à¹Ģà¸ŀ":5499,"Ġà¸ªà¸Ńà¸ļ":5500,"pro":5501,"à¸Ńà¹Ģà¸«":5502,"à¸¤à¸©à¸İ":5503,"à¸²à¹ģà¸ªà¸Ķ":5504,"à¸Ńà¸¢à¸Ńà¸Ķ":5505,"Ġgl":5506,"pe":5507,"à¸²à¸ĩà¹ģà¸Ļ":5508,"ĠâĻ":5509,"à¸²à¸įà¸Ī":5510,"à¸²à¸ķà¸¥à¸²à¸Ķ":5511,"Ġà¸Ļà¸²à¸¢à¸ģ":5512,"à¹Ĥà¸Ńà¸ģ":5513,"à¸Ńà¸Ļà¸Ļà¸°à¸Ħà¸°":5514,"à¸ľà¸¥à¹Ħà¸¡":5515,"à¸Ļà¸Ĺà¸²à¸ĩà¸ģà¸¥":5516,"à¸¢à¸ĩà¸ŀà¸Ń":5517,"à¹Ģà¸Ńà¸²à¹ģà¸ķ":5518,"à¸Ļà¸Īà¸°à¸ķ":5519,"à¸ģà¸Ħà¸Ļà¸ģ":5520,"igh":5521,"à¸«à¸¥à¸²à¸¢à¸Ľ":5522,"à¸§à¸¢à¸¥":5523,"à¸Ļà¸ļà¸Ńà¸ģ":5524,"à¸²à¸¢à¸Ĺà¸Ńà¸Ķà¸ªà¸Ķ":5525,"ðŁĴĸ":5526,"Ġà¹ģà¸¥à¸°à¹Ģà¸ŀ":5527,"à¸ģà¸²à¸£à¸Ľà¸£":5528,"à¸§à¹ĥà¸«à¸¡":5529,"à¸²à¸Ļà¸§à¸ĵ":5530,"à¸¢à¸Ļà¸«à¸Ļ":5531,"à¸¥à¸°à¸§":5532,"à¸£à¸Ńà¸ļà¸Ĥ":5533,"à¸Ļà¹ģà¸«à¸¥":5534,"Ġà¹Ģà¸£à¸²à¸Ļ":5535,"à¸įà¸Ĭà¸²à¸ķ":5536,"à¸Ħà¸§à¸²à¸¡à¸Ķ":5537,"à¸²à¸ĩà¹Ħà¸§":5538,"Ġstar":5539,"à¸ķà¸Ńà¸ļà¸ģà¸¥":5540,"à¸ŀà¸¢à¸²à¸¢à¸²à¸¡à¸Ĺ":5541,"à¸ģà¸£à¸°à¸ļà¸°":5542,"Ġà¸¥à¸ĩà¸Ĺ":5543,"Ġà¹Ģà¸£à¸²à¸Ħà¸§à¸£à¸Ĺ":5544,"à¸ĩà¸Ĥà¸Ļà¸²à¸Ķ":5545,"à¸ģà¸©à¸²à¸ģ":5546,"âĢĶ":5547,"Ġac":5548,"à¸Ļà¸¡à¸²à¸£":5549,"à¸²à¸¡à¸²à¸Ĭ":5550,"à¸ļà¹Ģà¸Ĺ":5551,"à¸Ļà¹ģà¸¥à¸°à¸ģ":5552,"à¸Ļà¹Ħà¸«à¸§":5553,"à¸ĩà¸Ńà¸²à¸«à¸²à¸£":5554,"Ġà¸Ńà¸°":5555,"à¸Ńà¸ĩà¹ģà¸¡":5556,"à¹Ģà¸§à¸¥à¸²à¹Ģà¸Ķ":5557,"à¸²à¹ĥ":5558,"Ġà¹Ģà¸£à¸²à¸Ĭà¸Ńà¸ļ":5559,"Ġed":5560,"à¸Ķà¸Ńà¸°à¹Ħà¸£à¸Ĥ":5561,"Ġà¸¡à¸²à¸ª":5562,"à¸Ńà¸Ńà¸Łà¸Ł":5563,"à¸ģà¹Ģà¸Ħà¸£":5564,"à¸Ĥà¸ĵà¸°":5565,"à¸Ĺà¸ķ":5566,"Ġà¸Ńà¸¢à¸²à¸ģà¸¡":5567,"su":5568,"review":5569,"only":5570,"à¸Ńà¸¢à¸²à¸ģà¹Ģà¸¥":5571,"sm":5572,"à¸¢à¸ĩà¸§":5573,"à¹ģà¸ĸà¸§à¸Ļ":5574,"à¸Ĺà¸²à¸ĩà¸£":5575,"Ġà¸£à¸ļà¸ģà¸§à¸Ļà¸Ķ":5576,"à¸ĩà¸Ĥà¸¥à¸²":5577,"Ġà¸Īà¸Ļà¸§":5578,"à¸Ļà¹ĥà¸Ļà¸Ĭ":5579,"à¸²à¸Ħà¸¡à¸Ļ":5580,"play":5581,"à¸ģà¸ĩ":5582,"à¸Ļà¹Ģà¸ªà¸£":5583,"à¸ķà¸Ńà¸Ļà¹Ģà¸Ĭ":5584,"à¹ĥà¸Ļà¸ģà¸²à¸£à¹Ģà¸Ĥ":5585,"à¸Ńà¸ķà¸Ńà¸Ļ":5586,"à¸Ļà¹ģà¸ľ":5587,"Ġ::":5588,"Ġwe":5589,"Ġà¸Ńà¸²à¸£à¸¡à¸ĵ":5590,"à¸§à¸¢à¹Ģà¸ķ":5591,"à¸ªà¹Ĥà¸¡à¸ªà¸£":5592,"à¸²à¸Ľà¸²à¸ģ":5593,"à¸ģà¸ĩà¸²à¸Ļà¸Ĺ":5594,"Ġà¸Ńà¸²à¸ģà¸²à¸¨":5595,"à¸²à¸¡à¸²à¹ĥà¸Ĭ":5596,"ina":5597,"à¸ļà¸ģà¸²à¸£à¸ķ":5598,"Ġà¹Ģà¸Ķà¸Ńà¸°":5599,"à¸²à¸£à¸°à¸Ķ":5600,"row":5601,"rating":5602,"à¸ģà¸£à¸°à¸Ķà¸²à¸©":5603,"à¸§à¹Ģà¸Ńà¸ĩà¸Ĺ":5604,"à¸°à¹ģà¸¥":5605,"à¸Ħà¸Ļà¹Ħà¸¡":5606,"à¸§à¸Īà¸²à¸ģ":5607,"à¸Ļà¸¡à¸²à¸ķ":5608,"à¸²à¸§à¸Ĭ":5609,"pop":5610,"****************":5611,"Ġà¸ªà¸²à¹Ģà¸«à¸ķ":5612,"Ġgalaxy":5613,"à¹ĥà¸Ļà¸Ħ":5614,"à¹Ħà¸Ľà¹Ħà¸¡":5615,"aut":5616,"Ġà¹Ģà¸Ńà¸ĩ":5617,"à¸Ńà¸ĩà¹Ħà¸Ľà¸Ĺ":5618,"à¸ģà¸£à¸°à¸ļà¸§à¸Ļà¸ģà¸²à¸£":5619,"Ġ37":5620,"Ġà¸£à¸°à¸§":5621,"à¸²à¸Ļà¹Ģà¸¥à¸¢":5622,"à¸Ļà¸Ħà¸Ļà¸Ń":5623,"à¸Ĥà¸ģ":5624,"à¸Ńà¸Ľà¸£à¸°à¸¡à¸²à¸ĵ":5625,"à¸Ļà¹ĥà¸ª":5626,"à¸²à¹Ģà¸£à¸²à¸ķ":5627,"angkok":5628,"à¸²à¸¡à¸Ļ":5629,"08":5630,");":5631,"à¸²à¸£à¸§à¸¡":5632,"à¸¥à¸²à¸Ļ":5633,"à¹ģà¸ļà¸ļà¹Ģà¸Ķ":5634,"Ġback":5635,"à¹Ħà¸Ľà¸ļ":5636,"Ġà¸«à¸¡à¸²à¸¢à¹Ģà¸¥à¸Ĥ":5637,"à¸²à¸¡à¸²à¸ª":5638,"Ġà¸£à¸ļà¸ģà¸§à¸Ļà¸ªà¸Ńà¸ļà¸ĸà¸²à¸¡":5639,"à¸²à¸ĩà¸£à¸§à¸Ķà¹Ģà¸£":5640,"à¸µ,":5641,"à¸Ķà¸ªà¸£à¸£":5642,"à¸Ĥà¸Ńà¸ĩà¸ļ":5643,"Ġà¹Ģà¸«à¸£":5644,"à¸²à¹Ĥà¸Ĺ":5645,"à¸Īà¸°à¸Ńà¸Ńà¸ģ":5646,"Ġà¹ģà¸ª":5647,"à¸ŀà¸Ńà¸Īà¸°à¸¡":5648,"à¸Ĥà¸Ńà¸ĩà¹Ģà¸Ĥà¸²":5649,"à¸ļà¸ªà¸²à¸¡":5650,"à¸§à¹Ģà¸Ńà¸ĩà¸Ķ":5651,"à¸ĩà¸Ħà¸§à¸²à¸¡à¸£":5652,"Ġà¸ŀà¸£à¸°à¹Ģà¸Ńà¸ģ":5653,"à¸Ħà¸§à¸²à¸¡à¸ªà¸Ļà¹ĥà¸Ī":5654,"à¸Ĭà¸Ńà¸ļà¸Ķ":5655,"à¸²à¸Īà¸°à¸¢":5656,"à¸Ĺà¸ĺà¹Ģà¸Ī":5657,"Ġadd":5658,"Ġsmart":5659,"à¸Ļà¹Ģà¸ŀà¸¥à¸ĩ":5660,"à¸ģà¹ģà¸«":5661,"Ġà¹Ģà¸£à¸²à¹Ģà¸£":5662,"à¸¡à¸«à¸¥":5663,"à¸ķà¹ģà¸¥":5664,"à¸ļà¸Ŀ":5665,"à¸²à¸Ĥà¸Ńà¸ĩà¸Ĺ":5666,"à¸Ļà¸ªà¸²à¸§":5667,"Ġfc":5668,"à¹Ħà¸ķà¸£à¸¡à¸²à¸ª":5669,"à¸§à¸¢à¸«à¸£":5670,"ĠðŁĶ":5671,"à¸Ĺà¸£à¸²à¸¢":5672,"69":5673,"à¸ªà¸łà¸²":5674,"à¸¡à¹ĥà¸«à¸¡":5675,"sl":5676,"à¸²à¸¢à¸ģà¸¯":5677,"à¸£à¸°à¸¡":5678,"à¸ļà¸£à¸²à¸ĩà¸§":5679,"à¸ĩà¹Ĥà¸Ķà¸¢":5680,"à¸§à¸Ļà¸¥":5681,"à¹Ĥà¸¡à¹Ĥà¸«":5682,"à¸£à¸¨":5683,"à¸¨à¸Ĺà¸²à¸ĩ":5684,"à¸§à¹Ģà¸Ń":5685,"Ġà¹ĥà¸Ļà¸Ĳà¸²à¸Ļà¸°":5686,"Ġà¸ªà¸Ńà¸ļà¸ĸà¸²à¸¡à¹Ģà¸£":5687,"à¸§à¸ĩà¸Īà¸£à¸Ľ":5688,"Ġcard":5689,"à¸Ńà¸ģà¸«":5690,"Ġà¹Ħà¸Ĥ":5691,"Ġro":5692,"à¹ģà¸«à¸¥à¸°à¸Ħà¸£":5693,"à¸ĩà¸®":5694,"à¸Ĥà¸Ńà¸ĩà¹Ģà¸£":5695,"ring":5696,"à¹Ģà¸£à¸²à¹Ģà¸«":5697,"Ġà¸ģà¸²à¸£à¹ĥà¸Ĭ":5698,"à¸ªà¸²à¸£à¸°":5699,"à¸¨à¸²à¸Ī":5700,"à¸²à¸Ńà¸Ļ":5701,"Ġwal":5702,"à¸Ľà¸Ĳà¸¡":5703,"à¸Ńà¸ģà¸Ķ":5704,"à¸Ńà¸²à¸Īà¸Īà¸°à¹Ħà¸¡":5705,"à¸Ļà¸ģà¸²à¸£à¸ķ":5706,"Ġà¸ļà¸²à¸Ĺà¸ķ":5707,"à¸ĩà¹Ģà¸§à¸¥à¸²":5708,"à¸Ĥà¸Ńà¸ĩà¸«à¸Ļ":5709,"à¸²à¸Īà¸°à¹Ģà¸Ĥ":5710,"card":5711,"à¸²à¸Īà¸°à¸Ħ":5712,"vice":5713,"à¸¡à¸ĩà¸Ħà¸¥":5714,"à¸§à¹Ģà¸Ī":5715,"à¸Ńà¸ĩà¹Ģà¸ķà¸£":5716,"à¸§à¸Ļà¸°à¸Ħà¸£":5717,"à¸²à¸ĩà¹Ģà¸¥à¸¢":5718,"watch":5719,"à¸§à¸ķà¸²à¸¢":5720,"à¸ļà¹ģà¸Łà¸Ļà¹Ģà¸ģ":5721,"Ġà¹Ģà¸Ĥà¸²à¸ļà¸Ńà¸ģà¸§":5722,"600":5723,"Ġà¸ľà¸¡à¹ĥà¸Ĭ":5724,"à¸ĩà¹ģà¸Ļ":5725,"à¸Ńà¸ĩà¹Ģà¸Ī":5726,"à¸¿":5727,"à¸£à¸°à¸¥":5728,"Ġ120":5729,"adonly":5730,"à¸§à¸ĩà¸«à¸¥":5731,"Ġà¸Ńà¸¢à¸²à¸ģà¸ªà¸Ńà¸ļà¸ĸà¸²à¸¡":5732,"à¸²à¹Ĥà¸£":5733,"html":5734,"à¸§à¸ĩà¸Ħ":5735,"à¸ĩà¹ģà¸Ĭà¸¡à¸Ľ":5736,"à¸Īà¸°à¹Ģà¸Ľà¸¥":5737,"à¸ļà¸Ĭà¸¡":5738,"à¸Ħà¸¥à¸²à¸ģà¸£":5739,"2018":5740,"ited":5741,"à¸ģà¹Ģà¸¢à¸Ńà¸°":5742,"à¸§à¹Ģà¸Ńà¸ĩà¹Ħà¸Ķ":5743,"à¸Ĭà¸Ļà¸ģ":5744,"à¸²à¸¢à¹Ģà¸Ĥ":5745,"à¸įà¹ģà¸Ī":5746,"à¸Ķà¸ģà¸²à¸£à¸Ĺ":5747,"land":5748,"à¸ļà¸Ĺà¸£à¸²à¸ļ":5749,"Ġà¸ªà¸ĩà¸ªà¸²à¸£":5750,"à¸Ńà¸¢à¹ģà¸ķ":5751,"à¸Ķà¸Ńà¸ģà¹Ħà¸¡":5752,"à¸ļà¹Ħà¸Ĺà¸¢":5753,"à¸Ĥà¸Ńà¸ĩà¹Ħà¸Ĺà¸¢":5754,"à¹ģà¸Ķà¸Ķ":5755,"Ġà¸Ħà¸ªà¸Ĭ":5756,"à¹ģà¸Łà¸Ļà¹ģà¸¥":5757,"à¹ĥà¸Ļà¹Ģà¸§":5758,"Ġà¸«à¸²à¸ģà¸¡":5759,"à¸ĵà¹Ħà¸Ķ":5760,"à¸Ļà¸Ħà¸Ļà¹Ħà¸¡":5761,"!!ï¸ı":5762,"à¸²à¹ģà¸Ĭà¸¡à¸Ľ":5763,"siam":5764,"à¹Ģà¹Ģà¸Ļà¸°à¸Ļ":5765,"à¹ģà¸¥à¸°à¸¢":5766,"à¸ªà¸Ńà¸Ķ":5767,"box":5768,"Ġà¸łà¸²à¸¢à¹ĥà¸ķ":5769,"à¸²à¹Ģà¸ªà¸£":5770,"Ġà¹Ģà¸£à¸²à¸ªà¸²à¸¡à¸²à¸£à¸ĸ":5771,"à¹Ģà¹Ģà¸ļà¸ļà¸Ļ":5772,"à¸ģà¸£à¸ĸ":5773,"à¸§à¸²à¸¢":5774,"Ġà¸ģà¸Ńà¸ĩà¸Ĺ":5775,"Ġ1000":5776,"Ġà¹Ģà¸Ħà¸¥":5777,"à¸§à¸§à¸§":5778,"à¸«à¸¡à¸Ķà¹Ģà¸¥à¸¢":5779,"à¸Īà¸Ńà¸¡":5780,"à¸¡à¸²à¹Ħà¸¡":5781,"à¸ģà¸²à¸£à¹Ģà¸Ĥ":5782,"Ġà¸¡à¸²à¸ĸ":5783,"Ġà¸īà¸²à¸ģ":5784,"à¹Ħà¸ª":5785,"à¸Ļà¸ªà¸ķ":5786,"à¸£à¸§à¸¡à¸ģ":5787,"à¸Ļà¸Ĭà¸¡":5788,"à¸Ńà¹Ĩ":5789,"à¸²à¸ĩà¸Ħà¸Ļà¸ķ":5790,"à¸Īà¸°à¸Ń":5791,"à¸²à¸Ħà¸ĵà¸°":5792,"à¸²à¸§à¸«":5793,"à¸Ĺà¸²à¸ĩà¸Ļ":5794,"à¸Ńà¸²à¸ĵà¸²à¸Ī":5795,"à¸łà¸²à¸Ħà¹Ģà¸«à¸Ļ":5796,"2017":5797,"à¸Ļà¹ģà¸Ķ":5798,"à¸Ļà¸¡à¸²à¸ģà¸Ĥ":5799,"à¹Ģà¹Ģà¸ģ":5800,"Ġà¸Ľà¸ı":5801,"à¸Ļà¸£à¸²à¸¢":5802,"Ġà¸ľà¸¡à¸Ĺ":5803,"à¸§à¸ľà¸¡à¸ģ":5804,"à¸ŀà¸²à¹Ħà¸Ľ":5805,"Ġà¹ģà¸®":5806,"à¸ģà¸£à¸°à¸Ĭ":5807,"à¸Ĥà¸Ńà¸ĩà¸§":5808,"à¸ļà¸ªà¸ĸ":5809,"Ġà¸ľà¸¡à¸¢":5810,"Ġmon":5811,"à¸¥à¸Ľà¸°":5812,"ji":5813,"à¸¢à¹Ħà¸Ľ":5814,"à¸²à¹Ħà¸¡à¸¡":5815,"à¸Ļà¸°à¸Ĺ":5816,"Ġà¸Īà¸°à¹Ħà¸Ľ":5817,"à¸²à¸¢à¹Ģà¸ŀ":5818,"à¸¡à¸Ļà¸ķ":5819,"à¹Ĩà¹Ĩà¹Ĩ":5820,"à¸Ļà¸¢à¸²à¸§":5821,"à¸Ĺà¸ª":5822,"à¸ģà¸ĩà¸²à¸Ļà¸ªà¸Ńà¸ļà¸ªà¸§à¸Ļ":5823,"à¸²à¸¢à¸Īà¸²à¸ģ":5824,"à¹Ħà¸Ńà¹Ģà¸Ķ":5825,"à¸¢à¸Ļà¸Ń":5826,"à¸Ļà¹ĥà¸Ļà¸§":5827,"à¸²à¹ģà¸Ĭà¸£":5828,"mat":5829,"à¹ģà¸Łà¸Ļà¸ģ":5830,"à¸²à¸£à¸°à¹Ģà¸ĩ":5831,"à¹Ģà¸£à¸²à¹ĥà¸Ĭ":5832,"à¸¢à¸²à¸ĩ":5833,"à¸Ħà¸Ńà¸¡à¸ŀ":5834,"à¹Ģà¸Ńà¸²à¹ĥà¸Ī":5835,"à¹ĥà¸Ļà¹Ħà¸Ĺà¸¢":5836,"à¸¥à¸°à¹Ģà¸¡":5837,"ao":5838,"Ġpe":5839,"à¸§à¹Ģà¸Ńà¸ĩà¹Ģà¸Ľ":5840,"Ġà¸£à¸²à¸ĩà¸§":5841,"à¸Ļà¸²à¸¢à¸ģ":5842,"à¸ģà¸Ħà¸Ļà¸¡":5843,"à¸Ľà¸ĸ":5844,"................................":5845,"à¸²à¹Ģà¸«à¸Ļ":5846,"à¸²à¸Ħà¸Ļ":5847,"à¸įà¸§":5848,"ary":5849,"df":5850,"à¸Ļà¸Īà¸°à¸Ĺ":5851,"à¸Īà¸Ķà¸Ĺà¸°à¹Ģà¸ļ":5852,"à¸Ļà¸¡à¸²à¸Ļà¸²à¸Ļ":5853,"à¸§à¹ĥà¸«à¸į":5854,"à¹Ħà¸¥à¸Ħ":5855,"à¸ģà¸£à¸Ńà¸ģ":5856,"à¹Ĥà¸ģà¸ĩ":5857,"à¸Ļà¸²à¸¢à¸ģà¸¯":5858,"09":5859,"Ġà¸Ĥà¸Ļà¸¡":5860,"à¸ģà¸²à¸£à¸ľà¸¥":5861,"Ġaf":5862,"à¸²à¸Ļà¸ļà¸Ļ":5863,"anc":5864,"à¹ģà¸«à¸¥à¸°à¸Ħ":5865,"Ġà¸Ĭà¸²à¸¢":5866,"Ġà¸Ńà¸¢à¸²à¸ģà¸ĸà¸²à¸¡":5867,"à¹Ģà¸£à¸²à¸ĸ":5868,"à¸Īà¸°à¸¡à¸²":5869,"be":5870,"à¸²à¸¥à¸ĩà¸Ĺ":5871,"à¸Ńà¸¡à¹Ĥ":5872,"à¸§à¸ķà¸Ńà¸Ļà¸Ļ":5873,"à¹Ģà¸Ńà¸²à¸ķ":5874,"à¸¡à¹Ħà¸Ľà¸Ķ":5875,"Ġà¸ŀà¸Ńà¸ĸ":5876,"à¸§à¸¢à¹Ģà¸Ľ":5877,"à¸§à¹Ģà¸Ĥà¸²à¸ģ":5878,"à¸²à¸¡à¸Ħ":5879,"à¹Ĥà¸ª":5880,"à¸¥à¸²à¸Ńà¸Ńà¸ģ":5881,"à¸¡à¸²à¸Ļà¸²à¸Ļ":5882,"Ġà¸ķà¸£à¸§à¸Īà¸ªà¸Ńà¸ļ":5883,"Ġcont":5884,"2561":5885,"à¸²à¹Ģà¸£à¸²à¸Ħ":5886,"à¹ģà¸¥à¸°à¸Ĥ":5887,"à¹Ģà¸ľà¸Ĭ":5888,"à¸ģà¸©à¸²à¸ŀ":5889,"Ġmac":5890,"âĢĵ":5891,"à¹Ģà¸©":5892,"à¸ľà¸¡à¸Ńà¸¢":5893,"à¸Ľà¸£à¸°à¸Ĭà¸²à¸ģà¸£":5894,"à¸įà¸ª":5895,"à¸Ļà¸¡à¸²à¹ģà¸¥":5896,"à¸Ńà¸ĩà¸¢à¸Ļà¸ķ":5897,"à¸²à¸Ħà¸°à¸Ļ":5898,"à¸¢à¸ģà¸ķ":5899,"Ġweeks":5900,"à¸Ľà¸£à¸°à¹Ģà¸Ĺà¸¨à¸Ń":5901,"à¸Ļà¸Ĺà¸²à¸ĩà¸Īà¸²à¸ģ":5902,"à¸ķà¸Ńà¸ļà¸§":5903,"à¸ĩà¸Ľà¸£à¸°à¸¡à¸²à¸ĵ":5904,"Ġà¸ģà¸°":5905,"à¸¡à¹Ĥ":5906,"à¸¨à¸²à¸ªà¸Ļà¸²":5907,"à¹ĥà¸Ļà¸ģà¸²à¸£à¸Ķ":5908,"à¹Ģà¸¥à¸¢à¸ª":5909,"tc":5910,"à¸Ļà¸ŀà¸¤à¸«":5911,"à¸ķà¸ģà¹ĥà¸Ī":5912,"à¸¡à¸¡à¸¡à¸¡":5913,"Ġà¸Ľà¸£à¸°à¹Ģà¸łà¸Ĺ":5914,"à¹ģà¸¡à¸Ļ":5915,"à¹Ģà¸Ħà¸²à¸£à¸ŀ":5916,"Ġcity":5917,"à¸Ńà¸ļà¸ª":5918,"Ġsk":5919,"Ġyour":5920,"à¸²à¸ĩà¹Ħà¸£à¸Ħà¸£":5921,"à¸¡à¸²à¸ķà¸£à¸²":5922,"ļ«":5923,"à¹Ĥà¸¥à¸ģà¸Ĺ":5924,"à¹Ĥà¸Ĭà¸Ħ":5925,"Ġà¹Ģà¸Ĥà¸²à¸¡":5926,"à¸Ľà¸£à¸°à¸ªà¸²à¸Ĺ":5927,"à¸£à¸²à¸Ħà¸²à¸Ĺ":5928,"Ġà¹Ĥà¸£à¸Ħ":5929,"ma":5930,"à¸ģà¸£à¸£":5931,"à¸ĩà¸ľà¸¥à¸ģà¸£à¸°à¸Ĺ":5932,"Ġint":5933,"à¸²à¸§à¹Ģà¸Ľ":5934,"à¸Ķà¹Ģà¸Ńà¸ĩ":5935,"ðŁ¤£":5936,"à¸¥à¸Ĭ":5937,"à¸Ħà¸§à¸²à¸¡à¸«à¸§":5938,"Ġà¸Ĥà¸Ńà¸ĩà¸Ĺ":5939,"à¸Ļà¸ŀà¸Ļ":5940,"Ġà¸¡à¸²à¹ģà¸¥":5941,"ence":5942,"à¸§à¹Ģà¸Ļ":5943,"à¸¥à¸ĩà¸¡":5944,"à¸įà¸²à¸ĵ":5945,"à¸§à¸ŀà¸Ń":5946,"à¸¢à¸«à¸¥":5947,"à¸Ńà¸ģà¸Ħ":5948,"43":5949,"à¸Ļà¸Ĺà¸²à¸ĩà¸Ķ":5950,"Ġsim":5951,"à¸£à¸£à¸¢à¸²":5952,"à¸¢à¸§à¹Ħà¸Ķ":5953,"à¹ĥà¸Ļà¹Ĥà¸¥à¸ģ":5954,"à¸£à¸°à¸¢à¸Ńà¸ĩ":5955,"à¸¡à¹Ģà¸ļ":5956,"Ġpower":5957,"à¸Ļà¸ªà¸¡à¸²à¸Ĭ":5958,"à¸Ńà¸ĩà¸Ħà¸Ļà¸Ļ":5959,"à¸Ľà¸£à¸°à¸¡à¸²à¸Ļ":5960,"à¸ķà¸²à¸¡à¸ģà¸İà¸«à¸¡à¸²à¸¢":5961,"à¸Ńà¸¡à¸¢":5962,"Ġcar":5963,"à¸Ńà¸ĩà¹ģà¸ļà¸ļ":5964,"à¸ĵà¸ľ":5965,"à¸Ļà¸Ħà¸§à¸£":5966,"Ġà¸ģà¸²à¸£à¸ķ":5967,"à¸ķà¹ģà¸¥à¸°":5968,"à¸Ľà¸°":5969,"à¸Ńà¸¢à¸²à¸ģà¹Ģà¸£":5970,"Ġbnk":5971,"tnn":5972,"à¸Ńà¸ģà¹ĥà¸«":5973,"à¸ļà¸²à¸¢à¹ĥà¸Ī":5974,"und":5975,"ert":5976,"à¸²à¸ĸà¸²à¸¡à¸Ĺ":5977,"inal":5978,"Ġà¸£à¸²à¸Ħà¸²à¸ĸ":5979,"à¸ŀà¸Ńà¸ģ":5980,"à¸Ńà¸°à¹Ħà¸£à¹Ħà¸¡":5981,"Ġinternet":5982,"à¸ªà¸ĩà¸Ĩ":5983,"âĿ":5984,"à¸Ńà¸°à¸Ħà¸°":5985,"à¸ģà¸©à¸²à¸Ķ":5986,"à¸Ķà¸Ŀ":5987,"à¸ģà¸ŀà¸£à¸£à¸Ħ":5988,"Ġmr":5989,"Ġbest":5990,"à¸Ķà¸Ļà¸Ħà¸£":5991,"Ġà¸¡à¸²à¸Īà¸²à¸ģ":5992,"à¸ĩà¹Ħà¸«à¸Ļ":5993,"à¸¢à¸Ļà¸¡à¸²":5994,"à¸Ĺà¸Ĭ":5995,"à¸ļà¸²à¸Ĺà¸ªà¸¡à¹Ģà¸Ķ":5996,"Ġà¸ĩà¸ļ":5997,"à¸Ĥà¸Ńà¸Ńà¸ł":5998,"à¸Ļà¸ļà¸Ńà¸ģà¸§":5999,"Ġà¸Ńà¸²à¸Īà¸²à¸£à¸¢":6000,"à¸Ĭà¸¥à¸ļ":6001,"ason":6002,"à¸Ľà¸Ĥ":6003,"à¸Ńà¸¡à¹Ģà¸Ľ":6004,"2019":6005,"Ġà¹ģà¸¥à¸°à¸Ľ":6006,"à¸Ĥà¸Ńà¸ĩà¸Ħà¸Ļ":6007,"à¸£à¸²à¸Ħà¸²à¹Ħà¸¡":6008,"à¸Ńà¸Ķà¸ģ":6009,"à¸Ħà¸§à¸²à¸¡à¸Ĺ":6010,"à¹Ģà¸Ħà¸¢à¸ķ":6011,"à¸¢à¸«à¸£":6012,"à¸Ħà¸§à¸²à¸¡à¹Ģà¸Ĥ":6013,"à¸Ļà¸²à¸¢à¸ģà¸£":6014,"à¸ĩà¹Ģà¸Ľà¸¥":6015,"order":6016,"à¸Ħà¸¥à¸Ńà¸ĩ":6017,"à¸ĺà¸£à¸£à¸¡à¸£à¸²à¸Ĭ":6018,"à¸Ĺà¸£à¸Ľà¸£à¸²à¸ģà¸²à¸£":6019,"à¸²à¸Ļà¹Ħà¸«à¸Ļ":6020,"à¸¡à¸²à¹Ģà¸¥à¹Ģà¸ĭ":6021,"à¸įà¸ķ":6022,"à¹Ģà¸Ķà¸Ńà¸°":6023,"à¸Ĳà¸§":6024,"à¹ģà¸¥à¸°à¸Ķ":6025,"Ġà¹Ģà¸ģà¸²à¸«à¸¥":6026,"à¸Ńà¸¢à¸²à¸ģà¸Ķ":6027,"video":6028,"à¸²à¸¢à¸ģà¸§":6029,"youtubecom":6030,"Ġmus":6031,"à¸²à¸¢à¸«":6032,"à¸Ļà¸¡à¸²à¸Īà¸²à¸ģ":6033,"à¸ļà¸£à¸£à¸Ķ":6034,"à¹Ģà¸ŀà¸ĵ":6035,"à¸¢à¸Ļà¹ģà¸¥":6036,"à¸ĩà¸²à¸Ļà¸ķ":6037,"à¹Ģà¸£à¸²à¸Ĥ":6038,"Ġà¸Ľà¸£à¸°à¸Ĭà¸²à¸Ĭ":6039,"68":6040,"à¸Īà¸°à¸§":6041,"à¸Ķà¸£à¸°à¸§":6042,"à¸¥à¸²à¸§":6043,"Ġ48":6044,"à¸Ķà¹Ģà¸ļ":6045,"à¸ķà¹ĥà¸«":6046,"Ġà¹ģà¸«à¸¥":6047,"Ġà¹ģà¸¢":6048,"à¸²à¸ģà¸£à¸ĵ":6049,"à¸¥à¸°à¸¡":6050,"à¹Ħà¸Ľà¸ŀ":6051,"à¸¡à¸Ńà¸ĩà¸§":6052,"à¸ĩà¸ªà¸Ļà¸²à¸¡":6053,"Ġà¹Ģà¸£à¸²à¹Ħà¸Ľ":6054,"78":6055,"à¸«à¸²à¸ĭ":6056,"ata":6057,"¹ĳ":6058,"à¹ĳ":6059,"Ġà¹Ģà¸¡à¸Ļ":6060,"à¹Ģà¸Ļà¸Ńà¸£":6061,"Ġà¸Ħà¸£à¸²à¸§à¸Ļ":6062,"Ġà¸ģà¸ģ":6063,"Ġhu":6064,"à¸²à¸Ľà¸£à¸°à¸ª":6065,"à¸Ĭà¸¡à¹Ģà¸Ľ":6066,"ĠðŁİ":6067,"Ġà¸£à¸²à¸Ħà¸²à¹Ħà¸¡":6068,"à¹Ģà¸ĭà¸Ł":6069,"à¸Ńà¸¡à¸Ħ":6070,"Ġà¸¡à¸²à¹Ģà¸Ľ":6071,"à¸ĩà¸Īà¸°à¸Ĺ":6072,"ult":6073,"à¹Ģà¸§à¸ĵà¸Ĺ":6074,"à¸¡à¸²à¸Ŀ":6075,"à¸Ĭà¸¥":6076,"à¸ģà¹Ħà¸Ĺà¸¢":6077,"iy":6078,"à¸łà¸ŀ":6079,"à¹Ĥà¸Ħà¸¥":6080,"Ġà¸ģà¸£à¸ģà¸İà¸²à¸Ħà¸¡":6081,"à¸Ńà¸¡à¸¥":6082,"à¸¡à¸Ĺà¸£":6083,"à¸§à¸¢à¸ļ":6084,"à¸ĩà¸Ħà¸£à¸£à¸ł":6085,"à¸«à¸¡à¸²à¸¢à¸Ī":6086,"à¸Ĺà¸ĺà¸¨à¸²à¸ªà¸ķà¸£":6087,"à¸£à¸²à¸Ĭà¸ļ":6088,"à¹Ħà¸ĭà¸Ļ":6089,"à¸īà¸¥à¸Ńà¸ĩ":6090,"à¹Ģà¸ĺà¸Ńà¸£":6091,"Ġà¸ªà¸¥":6092,"à¸ģà¸łà¸²à¸ŀ":6093,"à¸Ļà¹Ģà¸¥à¸¢à¸Ĺ":6094,"à¸ļà¸Ľà¸§à¸Ķ":6095,"à¸§à¸ĩà¸ŀ":6096,"à¸Ļà¸Ńà¸Ńà¸ģà¸¡à¸²":6097,"à¸§à¸¢à¸ľ":6098,"à¸Ńà¸¢à¸Ńà¸¢":6099,"à¸²à¸Ĥà¸Ńà¸ĩà¸ļ":6100,"à¹ĥà¸Ļà¸Ľà¸£à¸°à¹Ģà¸Ĺà¸¨à¹Ħà¸Ĺà¸¢":6101,"à¸ªà¸°à¸ŀà¸²à¸Ļ":6102,"à¸²à¸£à¸°à¸Ħ":6103,"ĠðŁĺį":6104,"Ġà¹Ģà¸Īà¸Ń":6105,"Ġfriend":6106,"à¸Ļà¸Īà¸°à¹Ħà¸Ķ":6107,"à¸Ŀà¸Ļà¸Ł":6108,"à¸²à¸£à¸²à¸Ĭà¸ģà¸²à¸£à¸Ī":6109,"à¸°à¸ĩ":6110,"à¸ľà¸¡à¹ĥà¸Ĭ":6111,"à¸ļà¹Ģà¸«":6112,"Ġipad":6113,"à¸°à¸ļ":6114,"à¸¡à¹ģà¸ķ":6115,"à¸²à¸ģà¸²à¸ģà¸Ńà¸Ļà¸²à¸¡":6116,"à¸Ļà¸ģà¸²à¸£à¸ª":6117,"à¸ĩà¸Ħà¸§à¸²à¸¡à¸Ħ":6118,"à¸įà¸įà¸²à¸ģ":6119,"gin":6120,"Ġà¹ģà¸ļà¸ļà¹Ħà¸¡":6121,"ðŁĳĸ":6122,"à¸ªà¸¢à¸²à¸¡":6123,"à¹ī)":6124,"à¸Ļà¹Ħà¸Ľà¹Ģà¸£":6125,"à¹Ģà¸ŀà¸£à¸²à¸°à¸ķ":6126,"à¹Ģà¸ľà¸¥":6127,"ana":6128,"à¸Ĥà¸Ńà¸ĩà¹Ģà¸Ī":6129,"ics":6130,"à¸²à¸£à¸°à¸§":6131,"à¸¡à¸ĵà¸ĳà¸¥":6132,"aya":6133,"Ġbu":6134,"à¸Ľà¸¥à¸²à¸¢à¸Ľ":6135,"à¸¡à¸ģà¸§":6136,"à¸ªà¸ĸà¸²à¸ļ":6137,"à¸ģà¸Ħà¸¥":6138,"à¸Ńà¸®":6139,"à¸ĩà¸Ĩ":6140,"à¸²à¸¢à¸Ħà¸£":6141,"à¸²à¸ĩà¸ģà¸¥":6142,"da":6143,"à¸ļà¸£à¸²à¸Ħ":6144,"Ġà¸Ńà¸¢à¸²à¸ģà¸Ĺ":6145,"à¸Ļà¹Ħà¸Ľà¹Ħà¸¡":6146,"à¸¡à¸Ł":6147,"Ġà¸Ĺà¸«à¸²à¸£":6148,"way":6149,"à¸Ļà¹Ħà¸Ľà¸Ń":6150,"à¸£à¸²à¸ĭ":6151,"à¸ªà¸ķà¸£":6152,"à¸ģà¸²à¸£à¸ķà¸¥à¸²à¸Ķ":6153,"à¸Ħà¸¡à¸Ļà¸²à¸Ħà¸¡":6154,"à¸§à¸²à¸¥":6155,"à¹Ģà¸Łà¸£":6156,"Ġwindows":6157,"à¸ªà¸²à¸«":6158,"à¸²à¹ģà¸Ļà¸§":6159,"Ġsport":6160,"à¸Ķà¹ĥà¸ª":6161,"......":6162,"à¸Ļà¸ľà¸¡à¸ģ":6163,"Ġà¸ŀà¸¨":6164,"à¸Ńà¸Ńà¸ģà¸Īà¸²à¸ģà¸ļ":6165,"à¸Ńà¸ĩà¸Ľà¸ģà¸ķ":6166,"à¸²à¸Ĭà¸²à¸¢":6167,"à¸Īà¸°à¸ļà¸Ńà¸ģ":6168,"à¸Ļà¸«à¸Ńà¸¡":6169,"à¸²à¸¡à¸²à¸Īà¸²à¸ģ":6170,"à¸Ļà¹Ģà¸Ķà¸Ńà¸£":6171,"à¹ĥà¸Ļà¹ģà¸ķ":6172,"Ġà¹Ĥà¸Ķà¸¢à¹Ħà¸Ķ":6173,"à¸²à¸Ļà¸«à¸£":6174,"à¹Ģà¸£à¸²à¸ļ":6175,"à¸§à¸Ļà¹Ģà¸ģ":6176,"arad":6177,"à¸²à¸ģà¸ģ":6178,"âŀĸ":6179,"à¸ªà¸Ķà¹ĥà¸ª":6180,"à¸°à¸ĸ":6181,"à¸ªà¸ļà¸Ķ":6182,"à¸Ļà¹ģà¸Ĥ":6183,"à¸Īà¸°à¹Ģà¸ª":6184,"set":6185,"à¸Ńà¸Ľà¸£à¸°à¸ģ":6186,"à¸²à¸¡à¸²à¹Ģà¸Ľ":6187,"à¸Ĳà¸Ĺ":6188,"Ġpart":6189,"à¸§à¹Ģà¸Ńà¸ĩà¹ĥà¸«":6190,"Ġà¸ģà¸²à¸£à¹Ģà¸Ķ":6191,"à¸ģà¸©à¸°":6192,"my":6193,"à¸Ńà¸¢à¸Ĭ":6194,"à¹ģà¸Ńà¸Ļ":6195,"à¸ĩà¸ŀà¸Ń":6196,"à¹Ĥà¸¥à¸«":6197,"Ġà¸«à¸¡à¸²à¸¢à¸ĸ":6198,"à¸§à¸£à¸£à¸ĵà¸ł":6199,"à¸ķà¸Ńà¸¥":6200,"Ġmark":6201,"tb":6202,"à¸ģà¹ģà¸ļà¸ļà¸Ļ":6203,"01":6204,"à¹Ģà¸ŀà¸²à¸°":6205,"Ġà¸£à¸²à¸¢à¸¥à¸°à¹Ģà¸Ń":6206,"à¸¡à¹ĥà¸Ī":6207,"à¸ĩà¸ķà¸Ńà¸Ļ":6208,"à¸ģà¸£à¸²à¸¢":6209,"Ġonline":6210,"à¸Ļà¸¢à¸Ńà¸Ķ":6211,"Ġà¹Ĥà¸£à¸ĩà¸ŀà¸¢à¸²à¸ļà¸²à¸¥":6212,"à¸Ľà¸ªà¸£à¸£à¸Ħ":6213,"à¸Ļà¸Ħà¸Ļà¸£":6214,"à¸Ļà¹Ĥà¸¢à¸ļ":6215,"Ġ02":6216,"à¸ģà¹ģà¸ªà¸Ķà¸ĩ":6217,"à¸§à¸Ĭà¸Ńà¸ļ":6218,"à¹Ģà¸§à¸¥à¸²à¸ģ":6219,"Ġà¸ŀà¸Ńà¸Īà¸°à¸¡":6220,"Ġà¸Ĥà¸ĵà¸°à¹Ģà¸Ķ":6221,"41":6222,"Ġà¸£à¸Ńà¸ĩà¹Ģà¸Ĺ":6223,"à¸ŀà¸¥à¸²à¸ªà¸ķ":6224,"à¸§à¸¢à¹ģà¸¥":6225,"à¸§à¸¢à¸ŀ":6226,"Ġà¹Ĥà¸«à¸¥":6227,"555555":6228,"à¸Ķà¸ļà¸£":6229,"à¸§à¸ĩà¹ģà¸£à¸ģ":6230,"Ġsu":6231,"à¸°à¸¢":6232,"wwwyoutubecom":6233,"58":6234,"à¸²à¹Ħà¸Ľà¹ĥà¸Ĭ":6235,"à¸ªà¸°à¸ŀ":6236,"à¸ŀà¸§à¸ģà¸¡":6237,"à¸Ļà¹Ĥà¸ķ":6238,"à¸Ļà¹ĥà¸Ķ":6239,"Ġà¸ªà¹Ģà¸Ľ":6240,"à¸ķà¸Ńà¸ļà¹ģà¸Ĺ":6241,"à¸§à¸Ĥà¸²à¸§":6242,"à¹Ģà¸¥à¸¢à¸Ķ":6243,"à¸ĸà¸¥":6244,"à¸Ļà¹Ħà¸Ł":6245,"à¸Ķà¸Ħà¸¥":6246,"à¸ĩà¹ģà¸«":6247,"à¹Ĥà¸¢à¸Ļ":6248,"Ġ2016":6249,"à¸Īà¸Ńà¸ĩ":6250,"à¸ĩà¹ģà¸Ĺ":6251,"à¸Ńà¸§à¸²à¸Ļà¸Ļ":6252,"Ġ2559":6253,"à¸Ńà¸ªà¸²à¸¢":6254,"Ġà¸Ńà¸Ńà¸ģà¸Īà¸²à¸ģ":6255,"à¸ļà¸Ľà¸£à¸°à¹Ģà¸Ĺà¸¨":6256,"à¸Ĺà¸¥":6257,"à¸¡à¹ĥà¸«à¸į":6258,"Ġ39":6259,"à¸ģà¹ģà¸ģ":6260,"à¸§à¹Ģà¸«":6261,"à¸įà¸«à¸²à¸ģà¸²à¸£":6262,"Ġ---":6263,"à¸ģà¸£à¸°à¸Īà¸²à¸¢":6264,"à¹Ħà¸ĭà¸ª":6265,"Ġscb":6266,"à¹Ģà¸«à¸ĩà¸²":6267,"à¸Ľà¸£à¸²à¸ģà¸ıà¸§":6268,"à¸§à¸ĩà¹Ģà¸§à¸¥à¸²à¸Ĺ":6269,"pptvhd":6270,"à¸²à¸Ńà¸°à¹Ħà¸£à¸Ĺ":6271,"Ġà¸£à¸Ńà¸Ķ":6272,"Ġà¸Ļà¸²à¸¢à¸Ń":6273,"à¹ĥà¸ļà¸Ńà¸Ļ":6274,"à¸°à¸Ĥà¸Ńà¸ļà¸Ħ":6275,"à¸²à¹Ģ":6276,"à¸£à¸²à¸ł":6277,"Ġà¹Ģà¸£à¸²à¸Ńà¸¢":6278,"à¸²à¸Ĩ":6279,"à¸§à¸¢à¸¢":6280,"à¸²à¸Ļà¸²à¸į":6281,"à¸§à¸¡à¸£":6282,"à¸ģà¸Ńà¸®à¸Ńà¸¥":6283,"à¸§à¸¢à¸«":6284,"à¹Ģà¸¥à¸¢à¸Ńà¸¢à¸²à¸ģ":6285,"à¸Ńà¸ĩà¸§à¸ĩà¸Īà¸£à¸Ľ":6286,"Ġà¸ģà¸²à¸ĩà¹Ģà¸ģ":6287,"à¸§à¸¢à¹ģà¸ķ":6288,"à¸Ļà¸¡à¸²à¸§":6289,"à¸°à¹Ģà¸Ĺ":6290,"Ġà¸ªà¸¡à¹Ģà¸Ķ":6291,"à¸Ńà¸ĩà¸Īà¸²à¸ģà¸¡":6292,"Ġà¹Ģà¸ŀà¸£à¸²à¸°à¸£":6293,"%;":6294,"<<":6295,"à¸Ļà¸Ľà¸£":6296,"à¹ģà¸¥à¸°à¸Ĭ":6297,"à¸§à¹ģà¸ļà¸ļ":6298,"Ġ350":6299,"à¸Ļà¹ģà¸ļ":6300,"à¸Ľà¸Ĭà¸£":6301,"à¸Ļà¸Ħà¸Ļà¸Ĥ":6302,"à¸Ńà¸¡à¸Ī":6303,"à¸²à¸Ļà¸Ļà¸Ĺ":6304,"à¸Ńà¸«à¸²":6305,"à¸§à¸¡à¸²":6306,"à¸Ńà¸ĩà¸Ŀ":6307,"à¸ģà¸Ľà¸¥":6308,"à¸¢à¸Ļà¸ŀ":6309,"à¸ģà¸£à¸°à¹Ĥà¸Ķ":6310,"à¸Ļà¸°à¸Ī":6311,"Ġà¹Ģà¸Ĥà¸²à¸ļà¸Ńà¸ģ":6312,"à¸ĩà¸²à¸Ļà¸§":6313,"ae":6314,"à¸£à¸©à¸²":6315,"à¸ģà¸Ľà¸£à¸°à¸¡à¸²à¸ĵ":6316,"Ġà¸ĭà¸¡":6317,"à¹ģà¸ªà¸Ķà¸ĩà¸Ńà¸Ńà¸ģ":6318,"ount":6319,"à¸Ĭà¸Ļà¸Ńà¸Ńà¸Ļà¹Ħà¸¥à¸Ļ":6320,"à¸²à¸įà¸Īà¸Ļà¸ļ":6321,"Ġà¸Īà¸Ļà¸ķà¸Ńà¸Ļà¸Ļ":6322,"Ġà¹Ģà¸£à¸²à¸ģà¸¥":6323,"Ġà¸ªà¸Ļà¹ĥà¸Īà¸ķ":6324,"Ġà¹ģà¸¥à¸°à¸«":6325,"à¸Ĥà¸Ńà¸ĩà¹Ģà¸Ķ":6326,"Ġà¹ģà¸Ńà¸£":6327,"à¸¢à¸§à¸ª":6328,"à¹Ħà¸Ľà¸£à¸©à¸ĵ":6329,"à¸£à¸ĩà¸Ħ":6330,"à¸¡à¸¨":6331,"à¸²à¸Ħà¸£à¸Ńà¸ļà¸Ħà¸£":6332,"à¸Ļà¸£à¸°à¸ļà¸ļ":6333,"les":6334,"79":6335,"à¸²à¸Īà¸°à¹Ģà¸Ń":6336,"form":6337,"à¹ĥà¸Ļà¸ģà¸£":6338,"à¸Ńà¸¡à¸§à¸¥":6339,"à¹ĥà¸Ļà¸ģà¸²à¸£à¸£":6340,"à¸ģà¹ĥà¸Ħà¸£":6341,"à¹ģà¸¥à¸°à¸¥":6342,"à¸Ļà¹Ģà¸Ĥà¸²":6343,"Ġare":6344,"à¸²à¸¡à¸²à¹ĥà¸«":6345,"ðŁĳı":6346,"à¸²à¸ĩà¸²à¸Ļà¸ķ":6347,"à¹Ģà¸¢à¸Ńà¸°à¹ģà¸¢à¸°":6348,"à¸²à¸§à¹Ħà¸¡":6349,"Ġà¸¡à¸ķ":6350,"à¸łà¸²à¸Ħà¸ķà¸°à¸§":6351,"Ġà¸ľà¸ģà¸ģ":6352,"Ġgo":6353,"Ġà¸Ļà¸²à¸ĩà¹Ģà¸Ńà¸ģ":6354,"à¸Ļà¹ĥà¸Ļà¸Ĺ":6355,"à¹Ĥà¸ľà¸¥":6356,"à¹Ģà¸«à¸£à¸Ńà¸Ħà¸°":6357,"à¸Ńà¸ĩà¹Ģà¸¡":6358,"à¸µâĢĭ":6359,"à¹Ĥà¸Ķà¸¢à¸ķà¸£à¸ĩ":6360,"à¸Ńà¸²à¸Īà¸Īà¸°à¸¡":6361,"Ġbig":6362,"à¸²à¸ĩà¸ļà¸Ļ":6363,"twitter":6364,"Ġà¸Ľà¸§à¸Ķ":6365,"views":6366,"à¸ģà¸²à¸£à¸ģà¸£à¸°à¸Ĺ":6367,"à¸Ńà¸¢à¹Ħà¸¡":6368,"à¹Ģà¸£à¸²à¸¥":6369,"à¸§à¸¢à¸ĩà¸²à¸¡":6370,"à¹Ħà¸¥à¸Ĺ":6371,"à¸ĵà¸Ľ":6372,"à¸Ńà¸Ńà¸ģà¸¡à¸²à¹Ģà¸Ľ":6373,"à¸ģà¹ĥà¸«à¸¡":6374,"pg":6375,"à¸²à¹Ģà¸Ł":6376,"à¸Ľà¸£à¸°à¸ªà¸²à¸Ļà¸ĩà¸²à¸Ļ":6377,"à¸Ľà¸£à¸°à¸¡à¸²à¸Ĺ":6378,"à¸Ļà¹ģà¸ŀ":6379,"Ġà¹Ĥà¸Ķà¸¢à¹ĥà¸«":6380,"âĿ¤ï¸ıâĿ¤ï¸ı":6381,"à¸ģà¹ĥà¸«à¸į":6382,"Ġà¹ĥà¸Ļà¸£":6383,"à¹Ĥà¸¥à¸ģà¸Ļ":6384,"à¸Ĺà¸¢à¸²à¸Ļà¹ģà¸«":6385,"à¸ģà¸ĺ":6386,"Ġà¸Ħà¸ļà¸ģ":6387,"à¸ļà¸¨":6388,"à¸²à¸ĩà¹Ħà¸«à¸¡à¸Ħà¸£":6389,"Ġà¸¡à¸²à¹Ģà¸¥":6390,"à¸ģà¸²à¸£à¹ģà¸ģ":6391,"Ġ64":6392,"à¸ŀà¸ª":6393,"Ġà¸Ĥà¸Ńà¸ªà¸Ńà¸ļà¸ĸà¸²à¸¡":6394,"¹Ĵ":6395,"à¹Ĵ":6396,"à¸ĭà¸ĭ":6397,"ipbs":6398,"à¸ļà¸Ńà¸°à¹Ħà¸£":6399,"à¸§à¸¢à¹Ģà¸¥":6400,"à¸Ńà¸Ŀ":6401,"à¸Īà¸°à¸ªà¸²à¸¡à¸²à¸£à¸ĸ":6402,"à¸ģà¸Ħà¸Ļà¸Ħ":6403,"à¸Ńà¸Ĥà¸Ń":6404,"à¹Ģà¸¢à¸Ńà¸°à¸ģà¸§":6405,"ii":6406,"Ġà¸ľà¸¡à¸Ńà¸¢à¸²à¸ģ":6407,"à¸Ļà¸Ńà¸°à¹Ħà¸£à¸Ĺ":6408,"à¸ļà¸ŀà¸£à¸£à¸Ħ":6409,"à¸ģà¹Ģà¸Ļ":6410,"à¸Īà¸²à¸ģà¸£":6411,"à¸ĺà¸Ľ":6412,"à¸Ńà¸ĩà¸ļà¸Ńà¸ģ":6413,"à¸Ńà¹Ģà¸£à¸²à¹Ħà¸¡":6414,"à¸ļà¹Ģà¸«à¸ķ":6415,"à¸ļà¸łà¸²à¸©":6416,"à¸²à¹Ĥà¸«à¸¡":6417,"Ġwar":6418,"Ġà¹Ģà¸ģà¸¥":6419,"à¸¡à¸Ŀ":6420,"à¸Ńà¸ĩà¸¥à¸ĩ":6421,"à¸Łà¸Ĺ":6422,"à¸²à¹Ĥà¸Ħà¸£à¸ĩà¸ģà¸²à¸£":6423,"à¸ĩà¹Ħà¸ĩà¸ķ":6424,"Ġinstagram":6425,"à¸įà¸Ĥà¸Ńà¸ĩ":6426,"à¸ĩà¸Ħà¸ĩà¸¡":6427,"à¹Ģà¸ĭà¸Ļ":6428,"à¸ĩà¸Īà¸°à¹Ħà¸¡":6429,"shop":6430,"Ġà¹Ĥà¸Ķà¸¢à¸ķ":6431,"à¹Ģà¸ļà¸¥":6432,"à¸Īà¸ŀà¸£à¸°à¹Ģà¸Ī":6433,"à¸Ńà¸Ńà¸Ńà¸ģ":6434,"64":6435,"Ġtime":6436,"Ġà¹ĥà¸Ļà¸ŀ":6437,"à¸ķà¸£à¸²à¸Ķ":6438,"à¸ģà¸¡à¸²à¸ģà¸¡à¸²à¸¢":6439,"à¸¢à¸ģà¹Ģà¸§":6440,"à¸«à¸¥à¸§à¸ĩà¸ŀ":6441,"à¹Ĥà¸Ĺà¸£à¸«":6442,"à¸²à¸ĩà¸Īà¸£":6443,"à¸¨à¸§à¸°":6444,"à¸ľà¸¡à¸Ļ":6445,"à¸Ńà¸Ħà¸¥":6446,"gee":6447,"à¸Ĥà¸²à¸Ķà¸Ĺ":6448,"à¹Ħà¸Ľà¸«à¸¡à¸Ķ":6449,"Ġà¹Ģà¸ģà¸¡":6450,"Ġ199":6451,"à¸¢à¸ĩà¹Ģà¸«à¸Ļ":6452,"à¸Ńà¸¢à¹Ģà¸Ĥ":6453,"à¸Ļà¹Ģà¸¥à¸¢à¸Ħà¸£":6454,"à¸Ńà¸Ńà¸²à¸Ĭ":6455,"bank":6456,"Ġà¹Ģà¸ŀà¸£à¸²à¸°à¸ª":6457,"à¸£à¸°à¸¢à¸°à¸¢à¸²à¸§":6458,"à¸ģà¹ģà¸¢":6459,"à¸¡à¹Ģà¸ļà¸Ńà¸£":6460,"à¸Ļà¸¡à¸²à¸Ķ":6461,"à¸Ħà¸§à¸²à¸¡à¹Ħà¸¡":6462,"Ġà¹Ĥà¸Ĭà¸§":6463,"à¹Ī...":6464,"Ġremark":6465,"à¹ĥà¸Ļà¸ģà¸²à¸£à¸Ī":6466,"Ġper":6467,"à¸²à¸ĩà¹Ħà¸«à¸¡à¸Ħà¸°":6468,"à¸ªà¸§à¸¡":6469,"à¸²à¸Ļà¸§à¸¢à¸Ħà¸§à¸²à¸¡à¸ªà¸°à¸Ķà¸§à¸ģ":6470,"à¸Ļà¸ĺà¸¡":6471,"à¹ĥà¸Ļà¸Ĳà¸²à¸Ļà¸°":6472,";}":6473,"Ġram":6474,"à¸£à¸°à¸ĩ":6475,"à¸Ĩà¸²à¸ķ":6476,"bit":6477,"à¸Ļà¸§à¸²à¸¢":6478,"à¸Ļà¸ŀà¸Ń":6479,"à¸µ-":6480,"Ġccc":6481,"à¸ļà¸²à¸£":6482,"Ġandroid":6483,"à¸Īà¸²à¸ģà¸ķ":6484,"Ġ2557":6485,"à¸Ħà¹Ģà¸ģà¸Ī":6486,"à¸Ľà¹Ħà¸¡":6487,"à¸Ńà¸Ļà¹ģà¸¥à¸°":6488,"à¸²à¸Ĥà¸²à¸Ķ":6489,"Ġacc":6490,"à¸«à¸¥à¸²à¸¢à¸Ĺ":6491,"à¸Ľà¹ģà¸¥":6492,"Ġà¸Ķà¸§à¸ĩ":6493,"à¸ĩà¸ļà¸Ļ":6494,"à¸Ĺà¸²à¸ĩà¹Ģà¸Ķ":6495,"à¸§à¸Ħà¸°":6496,"Ġ2556":6497,"ĠâĢĿ":6498,"à¸²à¸ĩà¹Ģà¸Ħ":6499,"à¸²à¸Ļà¹Ģà¸¥":6500,"à¸¢à¸Ļà¸Ĥ":6501,"à¸Ľà¹Ģà¸Ľà¸Ńà¸£":6502,"à¸ĩà¸ªà¸ĸà¸²à¸Ļ":6503,"à¹Ĥà¸ķà¹Ģà¸ģ":6504,"à¸²à¹Ģà¸ĺà¸Ń":6505,"Ġà¹Ħà¸¥à¸Ļ":6506,"Ġreviews":6507,"à¸ģà¸²à¸£à¹Ħà¸Ķ":6508,"à¸ĩà¸Īà¸°à¸ķ":6509,"Ġà¹Ģà¸ŀà¸£à¸²à¸°à¸īà¸°à¸Ļ":6510,"ĨĶ":6511,"à¸Ļà¹Ģà¸ĸà¸Ńà¸°":6512,"à¸ģà¸ģà¸ķ":6513,"à¸Ĭà¸Ńà¸ļà¸ľ":6514,"Ġà¹Ĥà¸Ńà¸ģà¸²à¸ª":6515,"à¹Ģà¸ªà¸²à¸£":6516,"à¹Ģà¸¥à¸¢à¸Ļà¸°à¸Ħà¸£":6517,"à¸ĵà¸Ń":6518,"Ġfib":6519,"à¸¢à¸§à¸Ń":6520,"à¸Ļà¸Ĺà¸«à¸²à¸£":6521,"Ġà¸Ĥà¸Ńà¸ĩà¹Ĥà¸¥à¸ģ":6522,"Ġfontsize":6523,"à¸Ļà¸Ħà¸£à¸¨à¸£":6524,"Ġà¹Ĥà¸Ĺà¸£à¸¨":6525,"à¸Īà¸Ļà¸ģà¸§":6526,"à¸Ļà¸Ńà¸°à¹Ħà¸£à¸ģ":6527,"à¸Ńà¸ķà¸²à¸¡":6528,"à¹Ģà¸Ħà¸¢à¸ŀ":6529,"ðŁĳł":6530,"ne":6531,"Ġà¸Ħà¸Ļà¸Ĥ":6532,"apan":6533,"Ġà¹Ģà¸Ħà¸¢à¸¡":6534,"Ġ1563":6535,"itt":6536,"à¸£à¸°à¸Ķà¸²à¸©":6537,"à¸Ĺà¸¯":6538,"à¸¥à¸ŀ":6539,"ouch":6540,"Ġlineheight":6541,"à¸¢à¸Ļà¸ľ":6542,"Ġà¹Ģà¸¥à¸¢à¸Ĺ":6543,"à¸²à¸Ļà¹Ģà¸Ħ":6544,"Ġremarkreview":6545,"Ġreviewsection":6546,"à¸¢à¸Ńà¸¡à¹ĥà¸«":6547,"à¸¢à¸ĩà¸£":6548,"Ġà¹Ģà¸Ĥà¸²à¹Ģà¸Ľ":6549,"à¸Ħà¸Ńà¸Ļà¹Ģà¸ª":6550,"à¸Ħà¸§à¸²à¸¡à¸Ŀ":6551,"Ġ555555":6552,"à¸¢à¸§à¸Ī":6553,"à¹īâĢĿ":6554,"à¸Ļà¸¡à¸²à¹Ģà¸Ľ":6555,"à¸ªà¸°à¸Ĺ":6556,"Ġbus":6557,"à¸²à¸Ļà¹Ģà¸Ĭ":6558,"à¸«à¸¥à¸²à¸Ķ":6559,"à¸ķà¸ľ":6560,"à¸ģà¸²à¸£à¸¥à¸ĩà¸Ĺ":6561,"à¸£à¸°à¸«à¸Ļ":6562,"à¹Ģà¸£à¸²à¸Ħà¸§à¸£":6563,"à¸Ķà¹Ģà¸Ļ":6564,"Ġpc":6565,"à¸ģà¸Ńà¸Ńà¸ģ":6566,"à¸²à¸Ńà¸²à¸§":6567,"à¸«à¸²à¹Ģà¸ĩ":6568,"à¹Ģà¸ļà¸²":6569,"à¸Ĭà¸²à¸¢à¹ģà¸Ķà¸Ļ":6570,"à¸ĩà¸ľà¸¡à¸ģ":6571,"à¸Ĥà¸Ńà¸ĩà¹ģà¸ķ":6572,"à¸ķà¸£à¸²":6573,"à¸Ńà¸²à¹Ģà¸ĭ":6574,"à¹Ģà¸ĭà¹Ģà¸§":6575,"à¸Ńà¸¥à¹Ģà¸¥à¸¢":6576,"à¸ģà¸Ńà¸°à¹Ħà¸£":6577,"à¸§à¸Ļà¸ľ":6578,"à¸Ļà¹Ģà¸«à¸Ļ":6579,"à¸ªà¸¡à¸ģ":6580,"Ġpm":6581,"à¸Ķà¸Ĺà¸£":6582,"à¹Ĥà¸Ľà¸£à¸ķ":6583,"à¸²à¸ĩà¹Ģà¸Ħà¸£":6584,"à¸ŀà¸£à¸°à¸£à¸²à¸Ĭà¸Ĺà¸²à¸Ļ":6585,"à¹Ĥà¸Ńà¸Ĺ":6586,"à¸²à¸ŀà¸Ļ":6587,"à¸ļà¸ļà¸ļà¸ļ":6588,"à¸įà¸«à¸²à¸ª":6589,"à¸ĩà¹ĥà¸Ļà¸Ĭ":6590,"à¸²à¸Ļà¹Ĩ":6591,"à¹ģà¸¡à¸§":6592,"à¸«à¸ĩà¸ª":6593,"Ġà¸ľà¸¡à¸Ļ":6594,"à¸£à¸§à¸¡à¸ĸ":6595,"à¸ĩà¸Ħà¸§à¸²à¸¡à¸ª":6596,"Ġ2558":6597,"Ġà¹Ģà¸ŀà¸£à¸²à¸°à¸Ļ":6598,"à¸ŀà¸§à¸ģà¸Ĺ":6599,"à¸§à¸Ļà¸Ķ":6600,"Ġà¸£à¸¡à¸§":6601,"700":6602,"à¸Ļà¸ķà¸Ļ":6603,"à¹ģà¸ģà¸°":6604,"à¹Ī)":6605,"ater":6606,"à¸Ńà¸ĩà¸Ļà¸Ńà¸Ļ":6607,"Ġà¹ģà¸ªà¸Ķà¸ĩà¸§":6608,"à¹ģà¸Ļà¸Ļà¸ĭ":6609,"à¸¢à¸²à¸Ĺ":6610,"Ġà¸Īà¸°à¸ª":6611,"à¹Ģà¸§à¸¥à¸²à¸¡":6612,"à¸¢à¸Ľ":6613,"à¸²à¸ªà¸ĩà¸ªà¸²à¸£":6614,"à¹ĥà¸Īà¹ĥà¸«":6615,"à¸ĩà¸Ļà¸°à¸Ħà¸£":6616,"âĢĶâĢĶ":6617,"à¸¢à¸ļà¹Ģà¸£":6618,"à¸§à¸¢à¸Ļà¸°à¸Ħ":6619,"à¸ĩà¸Ħà¸Ļà¸Ĺ":6620,"à¸²à¸Īà¸°à¸ŀ":6621,"à¹Ħà¸Ľà¸ķà¸²à¸¡":6622,"off":6623,"à¹Ħà¸Ľà¹ĥà¸Ĭ":6624,"à¸¡à¸²à¸¡":6625,"à¸Ńà¸ĩà¸ªà¸¡":6626,"à¸Ńà¸²à¸Īà¸¡":6627,"à¸£à¸§à¸¡à¸Ĺ":6628,"Ġqu":6629,"à¸ģà¸Ħà¸Ļà¸ķ":6630,"à¸²à¸£à¸ĩà¸ķ":6631,"à¹ĥà¸Ļà¸ĩà¸²à¸Ļ":6632,"irl":6633,"à¸Ķà¸£à¸ĺà¸²à¸Ļ":6634,"à¹Ģà¸ŀà¸£à¸²à¸°à¸Ħ":6635,"aka":6636,"Ġà¸Ķà¸²à¸£":6637,"à¹Ģà¸§à¸Ĭ":6638,"Ġà¸ªà¸«à¸£":6639,"à¸Ńà¸Īà¸°à¹Ħà¸Ķ":6640,"à¸²à¹Ģà¸Ĥà¸²à¹Ħà¸¡":6641,"à¹Ħà¸Ńà¹Ĥà¸Łà¸Ļ":6642,"Ġà¸ģà¸ªà¸Ĺ":6643,"à¸Ńà¸ģà¹ĥà¸Ĭ":6644,"à¸²à¹Ħà¸Ľà¸ķ":6645,"à¸²à¸¡à¸Ĺ":6646,"à¹Ĥà¸Ĥ":6647,"à¹ģà¸Ĺà¸Ļà¸£à¸²à¸©à¸İà¸£":6648,"à¸Ĭà¸²à¸§à¸ŀ":6649,"à¸ªà¸²à¸¡à¸²à¸£à¸ĸà¹Ģà¸Ĥ":6650,"à¸Ĺà¸²à¸ĩà¸ļ":6651,"à¹ĥà¸Ļà¹Ģà¸Ħà¸£":6652,"à¸ģà¸²à¸ģ":6653,"Ġ****":6654,"à¸Ńà¸Ķà¸ª":6655,"Ġvis":6656,"Ġà¸£à¸Ńà¸ĩà¸ľ":6657,"Ġà¸Ĥà¸§":6658,"Ġsy":6659,"à¹ĥà¸Ļà¸ģà¸²à¸£à¹ĥà¸Ĭ":6660,"à¸²à¸Ħà¸Ķ":6661,"à¸²à¸ķà¸£à¸§à¸Īà¸ªà¸Ńà¸ļ":6662,"à¸£à¸²à¸ªà¸²à¸Ĺ":6663,"à¸ļà¹Ģà¸ĺà¸Ń":6664,"âĿ¤âĿ¤":6665,"à¸¡à¸²à¹Ģà¸¥à¸¢":6666,"à¸ĩà¸ªà¸Ļ":6667,"à¸ĩà¸ļà¸Ńà¸ģà¸§":6668,"à¸¢à¸Ħà¸§à¸²à¸¡à¸£":6669,"à¸Ńà¸ľà¸¥":6670,"ems":6671,"à¸²à¸Īà¸°à¸ģà¸¥":6672,"à¸Ńà¸ĩà¸Ĺà¸Ńà¸ĩ":6673,"à¸Ĭà¸¡à¸§":6674,"à¸£à¸ªà¸Ĭà¸²à¸ķ":6675,"à¸łà¸²à¸£à¸ģ":6676,"à¸ļà¸ģà¸²à¸£à¹ĥà¸Ĭ":6677,"Ġà¹ģà¸¥à¸°à¸ļ":6678,"à¸§à¹Ģà¸Ĭ":6679,"à¸Ńà¸Ńà¸Ń":6680,"à¸ļà¹ģà¸Ħ":6681,"à¹Ĥà¸¢à¸ļ":6682,"à¸Ńà¸¢à¹Ģà¸ģ":6683,"Ġà¹Ģà¸£à¸²à¹Ģà¸¥":6684,"à¸²à¸Īà¸°à¸Ī":6685,"à¸Ļà¸£à¸Ńà¸ļ":6686,"live":6687,"à¸Ľà¹Ħà¸Ķ":6688,"à¹Ĥà¸Ķà¸Ļà¸Ķ":6689,"à¸ķà¸Īà¸²à¸ģ":6690,"org":6691,"à¸ļà¸¡à¸²à¸Ń":6692,"à¸ģà¸£à¸Ĺ":6693,"à¸Ĥà¸Ńà¸ĩà¹Ģà¸Ħ":6694,"à¸Ļà¸«à¸²à¸¢":6695,"à¸²à¸ķà¸Ńà¸ļà¸Ĺ":6696,"ital":6697,"à¸Ńà¹ģà¸Łà¸Ļ":6698,"à¸²à¹ĥà¸ļ":6699,"Ġwork":6700,"âŀĸâŀĸ":6701,"Ġà¹Ģà¸Ńà¸ģ":6702,"day":6703,"à¸²à¸ķà¸²à¸Ķ":6704,"à¸Ħà¸ĵ":6705,"Ġì":6706,"à¹Ģà¹Ģà¸Ļ":6707,"à¸Ńà¸¡à¹Ģà¸ŀ":6708,"à¸¡à¸²à¹Ģà¸Ĺ":6709,"à¸Ńà¸ĩà¸ĩà¸²à¸Ļ":6710,"à¸Ńà¸¢à¸²à¸ģà¹Ħà¸Ľ":6711,"à¸Ļà¹Ħà¸Ľà¸ª":6712,"à¸ģà¹ģà¸Ļ":6713,"Ġà¸įà¸²à¸ķ":6714,"à¸Ńà¹Ħà¸Ľà¸Ĺ":6715,"à¸¡à¹ĥà¸Ĭ":6716,"à¸Ļà¸Ħà¸Ļà¸ķ":6717,"sam":6718,"Ġà¸Ħà¸²à¸£":6719,"à¸Ŀà¸²à¸ģà¸£":6720,"à¸£à¸ģà¸£à¸£à¸¡":6721,"à¸ªà¸¡à¸Ħà¸§à¸£":6722,"à¸£à¸²à¸Ĭà¸Ńà¸²à¸ĵà¸²à¸Ī":6723,"à¸ģà¸Ľà¸£":6724,"à¸Īà¸°à¸Ľ":6725,"Ġ57":6726,"à¸ļà¸¡à¸²à¸Ķ":6727,"à¸ĩà¹Ħà¸Ľà¸Ĺ":6728,"à¸Ńà¸Ńà¸ģà¸¡à¸²à¸Īà¸²à¸ģ":6729,"à¹Ģà¸Ńà¸ĩà¸Ħ":6730,"Ġthis":6731,"à¸¢à¸ģà¸ģ":6732,"ext":6733,"Ġà¹ĥà¸Ļà¸ģà¸£à¸ĵ":6734,"à¹Ģà¸Ĥà¸²à¸Ńà¸¢":6735,"à¸²à¸ªà¸§":6736,"à¸Ļà¸Ĺà¸²à¸ĩà¹Ģà¸Ĥ":6737,"à¸Īà¸°à¸ľ":6738,"à¸ģà¹ģà¸Ħ":6739,"à¸ĵà¸ªà¸¡à¸²à¸Ĭ":6740,"à¸ķà¸£à¸ģ":6741,"à¸¢à¸Ļà¹Ģà¸£":6742,"à¸¡à¸²à¹Ģà¸ŀ":6743,"Ġmc":6744,"siamsport":6745,"à¸Ńà¸£à¸²à¸Ħ":6746,"à¸Łà¹Ģà¸Ł":6747,"à¸ľà¸¡à¸Ī":6748,"à¸²à¸ĩà¸²à¸Ļà¸£":6749,"à¸Ļà¸Ľà¸£à¸°à¸ģ":6750,"Ġà¸Ļà¸²à¸¢à¸ģà¸¯":6751,"eth":6752,"à¸Ļà¹Ĥà¸Ħà¸£à¸ĩà¸ģà¸²à¸£":6753,"Ġfb":6754,"à¸Ńà¸°à¹Ħà¸£à¹Ħà¸Ķ":6755,"Ġà¸Īà¸²à¸ģà¸ģà¸£à¸ĵ":6756,"à¸¢à¸įà¸Ĺ":6757,"Ġà¸£à¸§à¸¡à¹Ħà¸Ľà¸ĸ":6758,"ern":6759,"à¸Ľà¸²à¸ģà¸Ħ":6760,"./":6761,"à¹Ĥà¸Ľà¸£à¹ģà¸ģà¸£":6762,"à¸¥à¸°à¸Ħ":6763,"ðŁĲ":6764,"à¸Ħà¸Ļà¹Ģà¸ģ":6765,"à¹ĥà¸Īà¸£":6766,"à¸²à¸Ķà¸§":6767,"à¸ģà¸²à¸¡":6768,"à¸Ħà¸Ļà¸ŀ":6769,"Ġ2000":6770,"à¸Ńà¸ķà¸Ńà¸ļ":6771,"à¸Ĭà¸Ńà¸ļà¸ŀ":6772,"Ġà¹Ħà¸Ľà¹Ģà¸Ĺ":6773,"à¹ĥà¸Ļà¸Ķ":6774,"à¸Ńà¸¥à¹Ģà¸¥":6775,"à¸§à¸Īà¸°à¸¡":6776,"à¸Ķà¸ģà¸§":6777,"à¸ģà¸ŀà¸£":6778,"à¸«à¸£à¸Ńà¸ģà¸Ħ":6779,"à¸¡à¸²à¸ģà¹Ģà¸¥à¸¢à¸Ħ":6780,"à¸¢à¸Ļà¹Ģà¸ģ":6781,"Ġà¹ģà¸£à¸ģ":6782,"Ġ''":6783,"Ġ800":6784,"à¸Ļà¹ģà¸Ľà¸¥":6785,"à¸Īà¸Ļà¸Ĺ":6786,"press":6787,"à¸£à¸°à¹ģ":6788,"à¸²à¹Ħà¸Ľà¸¢":6789,"Ġà¸ªà¸Ľ":6790,"à¸¡à¸²à¸ģà¹ģà¸¥":6791,"à¸²à¸Ńà¸²à¸ģà¸²à¸£":6792,"à¸Ļà¸ķà¸²à¸¢":6793,"Ġà¸Ļà¸ŀ":6794,"à¸¥à¸ĩà¹Ĥà¸Ĺà¸©":6795,"à¸Ńà¸ĩà¸Ĥà¸Ńà¸Ńà¸ł":6796,"fc":6797,"à¸°à¸ŀà¸£":6798,"à¸Ľà¸£à¸°à¹Ģà¸ŀà¸ĵ":6799,"à¸Ĥà¸Ńà¸Ļà¹ģà¸ģ":6800,"thaipbs":6801,"Ġà¸Ľà¸£à¸°à¸¡à¸²à¸ĵà¸Ļ":6802,"à¸²à¸Ļà¸ĸ":6803,"à¸ķà¹Ģà¸Ļ":6804,"à¸¥à¸Ķà¸Ļ":6805,"à¸łà¸²à¸©à¸²à¹Ħà¸Ĺà¸¢":6806,"à¸Ľà¸¥à¸²à¸¢à¸Ĺà¸²à¸ĩ":6807,"Ġà¹Ĥà¸Ħà¸£":6808,"vel":6809,"Ġà¸Īà¸°à¹Ģà¸£":6810,"à¸ŀà¸Ļà¸¡":6811,"à¸²à¹Ĥà¸¥":6812,"ĠâĿ":6813,"Ġà¸Ħà¸Ļà¹Ħà¸Ĺà¸¢":6814,"Ġà¹ģà¸¥à¸°à¸ģà¸¥":6815,"à¸ķà¸ģà¹ģà¸ķ":6816,"à¸²à¹ģà¸¢":6817,"Ġà¸Īà¸°à¸¢":6818,"à¸²à¸ĩà¹Ģà¸¥":6819,"à¸¢à¸§à¸Ħà¸£":6820,"à¸§à¸¢à¸¥à¸Ķ":6821,"à¸ģà¹Ģà¸Ń":6822,"Ġà¹Ģà¸¥à¸¢à¸Ńà¸¢à¸²à¸ģà¸£":6823,"02":6824,"à¸Ļà¸¡à¸²à¸Ń":6825,"Ġà¸¡à¸²à¸Ħ":6826,"à¸©à¸Ĳà¸²à¸Ļ":6827,"à¸ģà¸²à¸£à¸Ľà¸ı":6828,"à¸²à¹ģà¸Ľà¸¥":6829,"à¹Ĥà¸Ķà¸¢à¹ĥà¸Ĭ":6830,"à¸ķà¸£à¸ĩà¹Ĩ":6831,"à¸Ļà¸¡à¸²à¸ª":6832,"à¸Ńà¸¢à¸Ļà¸°à¸Ħ":6833,"ral":6834,"à¸Ľà¹Ģà¸Ľ":6835,"à¸²à¸Ļà¹ģà¸ķ":6836,"Ġà¸Īà¸Ļà¹Ģà¸£":6837,"à¸Ķà¸Ńà¸²à¸ģà¸²à¸£":6838,"à¸Ķà¸¨":6839,"à¸¥à¸Ńà¸ĩà¸Ķ":6840,"à¸Ļà¸ļà¸Ĺ":6841,"à¸¢à¸ģà¸£à¸°à¸Ķ":6842,"à¸Ńà¹Ģà¸«à¸¡":6843,"à¸Ļà¸£à¸§à¸¡":6844,"Ġà¸Ļà¸Ńà¸Ļ":6845,"Ġag":6846,"à¸°à¹Ģà¸¢":6847,"Ġà¸«à¸²à¹Ģà¸ŀ":6848,"à¸²à¸¢à¸ĸ":6849,"ra":6850,"à¹Ģà¸¥à¸¢à¸Ń":6851,"à¸²à¹Ħà¸Ľà¸Ħ":6852,"Ġweb":6853,"à¹Ģà¸©à¸ģ":6854,"à¸ĸà¸ĸ":6855,"à¸ķà¸Ľà¸£à¸°à¸Ī":6856,"à¸¢à¹Ģà¸¥":6857,"à¸¡à¹Ģà¸¡à¸Ńà¸£":6858,"à¸Ńà¸Ńà¸²à¸¢":6859,"Ġav":6860,"âľ¨":6861,"à¸ģà¸Ĭà¸Ļ":6862,"à¸Ńà¹Ģà¸¢":6863,"à¸ļà¸£à¸²à¸¢":6864,"à¸«à¸²à¹Ģà¸ª":6865,"Ġà¹Ģà¸Ńà¸Łà¸ĭ":6866,"Ġà¸Īà¸°à¹ĥà¸Ĭ":6867,"à¸Ħà¸§à¸²à¸¡à¸ģ":6868,"à¸²à¹ĥà¸ģà¸¥":6869,"Ġà¹Ģà¸Ńà¸²à¸Īà¸£":6870,"à¸ķà¹Ģà¸Ľ":6871,"03":6872,"à¸ģà¸²à¸£à¸¡":6873,"Ġla":6874,"à¸Ķà¹ĥà¸Ļà¹Ĥà¸¥à¸ģ":6875,"à¸ķà¸Ĥ":6876,"à¸Ķà¹Ħà¸Ľà¹Ģà¸Ńà¸ĩ":6877,"à¸ķà¸²à¸¡à¸¥":6878,"à¹Ģà¸ŀà¸£à¸²à¸°à¸Ĺ":6879,"à¸¢à¸łà¸²à¸©":6880,"à¸Ĺà¸ļ":6881,"à¸²à¸Ħà¸§à¸²à¸¡à¸ľ":6882,"à¸¢à¸§à¸§":6883,"Ġà¸ķà¸£à¸ĩà¸Ļ":6884,"à¸Ľà¸£à¸°à¸ģà¸Ńà¸ļà¸Ķ":6885,"à¸Ļà¸¥à¸°à¸Ń":6886,"Ġmv":6887,"Ġà¹ģà¸§à¸°":6888,"Ġ$'":6889,"Ġà¹Ģà¸Ľà¸£":6890,"à¹ģà¸ļà¸ļà¸§":6891,"xxx":6892,"à¸²à¸ªà¸²à¸£":6893,"à¹Ģà¸Īà¸Ńà¸Ľ":6894,"Ġà¹Ģà¸Ľà¸Ńà¸£":6895,"Ġà¸Ħà¸«":6896,"Ġà¹Ģà¸ŀà¸Ĭà¸£":6897,"à¸Ľà¸ĭ":6898,"à¸ªà¸°à¸Ķ":6899,"à¸£à¸°à¸¢à¸°à¹Ģà¸§à¸¥à¸²":6900,"ily":6901,"Ġ42":6902,"à¸²à¸Ńà¸²à¸Ĭ":6903,"à¸§à¸¢à¹Ģà¸ŀ":6904,"à¸Ľà¸Ń":6905,"à¸Ńà¸¢à¸²à¸ģà¹Ģà¸«":6906,"so":6907,"ush":6908,"à¸¢à¸ĩà¸Ĭ":6909,"à¸¡à¸²à¸«à¸¥à¸²à¸¢":6910,"à¸£à¸°à¸Ļ":6911,"à¸ĩà¸©":6912,"à¸Ĥà¸²à¸¢à¸ª":6913,"Ġmax":6914,"ife":6915,"à¸¢à¸Ķà¹Ģà¸ŀ":6916,"à¸¡à¹ģà¸¡":6917,"à¸§à¸¢à¹Ģà¸Ĭ":6918,"à¸ķà¸Ńà¸ļà¸£":6919,"à¸Ļà¸Ħà¸Ļà¹Ģà¸Ķ":6920,"à¸¥à¸Ńà¸ĩà¸Ĺ":6921,"à¸Ħà¸§à¸²à¸¡à¸Ń":6922,"Ġà¸Ńà¸¢à¸²à¸ģà¸Ķ":6923,"che":6924,"150":6925,"à¸łà¸²à¸©à¸²":6926,"à¸²à¸Ħà¸ĩà¹Ħà¸¡":6927,"à¸ĩà¸«à¸¡à¸Ķà¸Ĺ":6928,"à¹Ĥà¸¡à¸¢":6929,"\"\"":6930,"à¸ŀà¸Ńà¸Ĺà¸£à¸²à¸ļ":6931,"arch":6932,"aradaily":6933,"Ġind":6934,"Ġà¸Ľà¸£à¸°à¸ģà¸Ńà¸ļà¸ģ":6935,"à¸²à¸ĩà¸²à¸Ļà¹Ģà¸Ľ":6936,"à¸ļà¸ªà¸²à¸£":6937,"Ġâĺ":6938,"à¸Ĥà¸§à¸Ķ":6939,"ðŁĳĹðŁĳĹ":6940,"Ġà¹Ģà¸«à¸ĩ":6941,"à¸¢à¸Ļà¸Īà¸²à¸ģ":6942,"à¸²à¸Ļà¸Ńà¸Ļ":6943,"à¸²à¸§à¸¢":6944,"à¸Ńà¸ĩà¹Ħà¸«à¸Ļ":6945,"à¸ĺà¸Ĺ":6946,"Ġà¹Ģà¸£à¸²à¸ŀ":6947,"à¸²à¹Ĥà¸Ĺà¸£":6948,"à¹ĥà¸Ļà¹Ģà¸Ķ":6949,"Ġà¸Īà¸°à¸ĭ":6950,"à¸§à¸ĩà¸¥":6951,"à¸Ļà¸Ħà¸§à¸²à¸¡à¸ª":6952,"à¸²à¸ļà¸£à¸£":6953,"à¸Ńà¸Ļà¸°":6954,"à¸§à¹Ģà¸ķ":6955,"à¹Ģà¹Ģà¸Ĺ":6956,"à¸²à¹ģà¸ĸ":6957,"à¸§à¸ļà¸Ńà¸ģà¸§":6958,"à¹Ģà¸Ħà¸¢à¹Ģà¸¥":6959,"Ġà¹Ĥà¸¡à¸ĩ":6960,"à¸Ļà¸²à¸Ļà¹ģà¸¥":6961,"04":6962,"à¸Ĭà¸ģà¸²à¸¥à¸Ĺ":6963,"à¸ĩà¸£à¸°à¸Ķ":6964,"à¸ĩà¸ķà¸¥à¸Ńà¸Ķ":6965,"à¸Ļà¹ģà¸ĸ":6966,"à¹ĥà¸Īà¸ķ":6967,"à¸²à¸ĩà¸¨":6968,"à¸ªà¸§à¸¢à¹Ĩ":6969,"à¸Ļà¸£à¸²à¸ĩà¸§":6970,"à¸Ńà¹ģà¸Ī":6971,"ðŁĺĬ":6972,"à¸²à¸£à¸²à¸ĩ":6973,"à¸¢à¸¡à¸ģ":6974,"à¸²à¸¢à¸²à¸ģ":6975,"hot":6976,"à¸²à¸Ľà¸²à¸ĩ":6977,"Ġhy":6978,"Ġà¸Ńà¸°à¹Ħà¸£à¸Ĺ":6979,"à¸Ļà¸Ħà¸§":6980,"à¸²à¸ķà¸²à¸¢":6981,"à¸¢à¸ģà¹ĥà¸«":6982,"à¸Ńà¸Ķà¸¡":6983,"à¸Ļà¸§à¸¥":6984,"à¸Ľà¸ł":6985,"à¸ŀà¸Ńà¸ķ":6986,"à¸²à¸ĺà¸²à¸£à¸ĵ":6987,"à¹ĥà¸Ļà¸ģà¸²à¸£à¹Ģà¸¥":6988,"à¸¢à¸ģà¹Ģà¸ģ":6989,"à¸£à¸§":6990,"à¸Ńà¸¡à¹ģà¸¥":6991,"à¹ģà¸ģà¸Ļ":6992,"à¸²à¸Īà¸°à¸Ńà¸¢":6993,"à¸²à¸§à¸Ī":6994,"à¸Ĺà¸²à¸ĩà¸Ń":6995,"à¸²à¸ĩà¹Ģà¸¡":6996,"Ġà¹Ĥà¸Ńà¹Ģà¸Ħ":6997,"à¸¢à¸Ļà¸ªà¸²à¸¢":6998,"à¸Ŀà¸Ļà¸ķà¸ģà¸«à¸Ļ":6999,"à¸Ħà¸Ļà¹Ħà¸«à¸Ļ":7000,"à¹ģà¸ŀà¸ĩà¸¡à¸²à¸ģ":7001,"à¸Ķà¹Ģà¸¢":7002,"à¸«à¸¥à¸ļà¸«à¸Ļ":7003,"Ġios":7004,"à¸Ļà¸Īà¸ļ":7005,"à¹ģà¸ªà¸Ķà¸ĩà¸Ħà¸§à¸²à¸¡à¸Ħ":7006,"Ġà¹ģà¸ļà¸ļà¸§":7007,"Ġcpu":7008,"à¹Ģà¸Ńà¸²à¸Ĺ":7009,"à¹ģà¸Łà¸Ļà¹Ĩ":7010,"à¹Ģà¸ªà¸Ķ":7011,"Ġ65":7012,"à¸²à¸Ľà¸£à¸°à¸Ĭ":7013,"à¸²à¸Ħà¸§à¸£à¸Ĺ":7014,"Ġ59":7015,"à¸ĩà¹Ħà¸ĩà¸Ħ":7016,"à¸ķà¸²à¸¡à¸Ĥ":7017,"Ġà¸¡à¸Ļ":7018,"ose":7019,"otion":7020,"à¸ģà¸£à¸°à¸ª":7021,"à¸Ļà¸Ĥà¸Ļà¸²à¸Ķ":7022,"à¸ŀà¸£à¸£à¸Ħà¹Ģà¸ŀ":7023,"awei":7024,"ve":7025,"à¸Ńà¸Ļà¸Ļà¸°":7026,"à¸ªà¸¡à¸Ńà¸ĩ":7027,"à¸Īà¸£à¸£à¸¢":7028,"à¸Ķà¸Ļà¸°":7029,"à¸Ĭà¸ķ":7030,"à¸Ńà¸ģà¸²à¸£à¸Ĺ":7031,"Ġà¸Ŀà¸£":7032,"à¸Ļà¸Īà¸°à¸Ķ":7033,"obile":7034,"à¸Ĥà¸Ļà¸²à¸Ķà¹Ħà¸«à¸Ļ":7035,"à¸ļà¸£à¸£à¸¢à¸²à¸¢":7036,"Ġà¹Ģà¸ŀà¸¥":7037,"à¸²à¸«à¸§à¸²à¸Ļ":7038,"à¸Ńà¸ĩà¸ĩ":7039,"07":7040,"à¸Ńà¸ĩà¸Ħà¸§à¸²à¸¡à¸£":7041,"onda":7042,"Ġà¸¡à¸²à¸ķà¸£à¸²":7043,"à¸§à¹Ģà¸ªà¸£":7044,"à¸Ĭà¸Ńà¸ļà¸Ħ":7045,"à¹Ģà¸Ńà¸²à¸Ĭà¸Ļà¸°":7046,"à¸²à¹ĥà¸Ļà¸ª":7047,"à¸Ńà¸ģà¹Ħà¸Ķ":7048,"à¸Ħà¸§à¸²à¸¡à¸¢":7049,"à¸²à¸¡à¸²à¸Ī":7050,"à¸¡à¸²à¸ģà¸ģà¸ģ":7051,"à¹Ĥà¸Ķà¸Ļà¸ķ":7052,"à¸Ńà¸Ĺà¸£à¸²à¸ļ":7053,"à¹Ģà¸ŀà¸£à¸²à¸°à¹Ģà¸Ľ":7054,"à¸¡à¸Ńà¸ĩà¹Ģà¸«":7055,"à¹Ĥà¸Łà¸ģ":7056,"Ġ700":7057,"à¸²à¸ģà¸²à¸£à¸ļ":7058,"à¸«à¸¡à¸Ķà¸Ĺ":7059,"à¸¡à¸¥à¸°":7060,"à¸ļà¸ŀà¸Ļ":7061,"à¹Ģà¸¥à¸¢à¸Ļ":7062,"à¸Ļà¸²à¸¢à¸ª":7063,"à¸«à¸¥à¸²à¸Ļ":7064,"Ġà¸ľà¸ļ":7065,"Ġà¸£à¸Ńà¸ĩà¸Ļ":7066,"Ġà¹Ĥà¸Ķà¸¢à¸ľ":7067,"à¸²à¸ĩà¹Ħà¸Ľ":7068,"à¸§à¸¢à¸Ľ":7069,"à¸²à¸ļà¸Ĺ":7070,"à¸²à¹Ģà¸łà¸Ńà¹Ģà¸¡":7071,"à¸Ļà¸Ĥà¸Ń":7072,"à¸¥à¸ĩà¹Ģà¸¥":7073,"à¹ģà¸ļà¸ļà¸¡":7074,"Ġ44":7075,"à¸ľà¸¡à¸ª":7076,"work":7077,"Ġà¹Ģà¸¥à¸Ĥà¸²à¸ĺ":7078,"à¸ģà¸¥à¸²à¹Ĥà¸«à¸¡":7079,"Ġ++":7080,"Ġsn":7081,"à¹Ģà¸ŀà¸¥à¸ĩà¸Ļ":7082,"à¸°à¹Ģà¸Ľ":7083,"à¸²à¹Ħà¸Ľà¹ĥà¸Ļ":7084,"à¸¢à¸Ķà¸ģ":7085,"à¹ģà¸Ľà¸¥à¸ģà¹ĥà¸Ī":7086,"à¸ģà¸²à¸£à¸Ħà¸¥":7087,"à¸Ĺà¸²à¸ĩà¸ģà¸²à¸£à¹ģà¸ŀà¸Ĺà¸¢":7088,"à¸Ńà¹Ħà¸Ľà¸Ķ":7089,"Ġà¹Ģà¸¨à¸£à¸©à¸Ĳ":7090,"à¸Ńà¸¢à¸«à¸¥":7091,"à¸Ļà¹Ħà¸«à¸¡à¸Ħà¸£":7092,"Ġà¹ģà¸ĸà¸¥à¸ĩ":7093,"à¸Ļà¸Ħà¸Ļà¸¥à¸°":7094,"à¸Ńà¸¢à¸ŀ":7095,"à¹Ģà¸Ńà¸ģà¸¥":7096,"à¸Ļà¸¡à¸²à¸Ļ":7097,"Ġnews":7098,"à¸Ĺà¸²à¸ĩà¹Ģà¸¥":7099,"Ġgen":7100,"à¸Ĥà¸Ļà¸²à¸Ķà¹Ģà¸¥":7101,"à¹ģà¸£à¸ĩà¸ļ":7102,"à¸§à¸ģà¸£":7103,"Ġge":7104,"con":7105,"Ġà¹Ģà¸ĺà¸Ń":7106,"lection":7107,"ðŁĴĭ":7108,"à¸ªà¸²à¸¡à¸²à¸£à¸ĸà¸Ļ":7109,"à¸ĩà¸ī":7110,"Ġà¸ģà¸²à¸£à¸£":7111,"à¸Ľà¸«à¸Ļ":7112,"à¸ķà¸£à¸Ļ":7113,"true":7114,"à¹Ħà¸Ľà¸ĸà¸²à¸¡":7115,"à¸²à¹Ģà¸£à¸²à¸£":7116,"à¸Ļà¸Ĥà¸Ńà¸ĩà¸Ĺ":7117,"à¸Ńà¸ĩà¸ªà¸ĩà¸ª":7118,"de":7119,"à¸Ńà¸°à¹Ħà¸£à¹ĥà¸«":7120,"Ġà¸ģà¸²à¸£à¸ª":7121,"à¹ģà¸ļà¸Ļ":7122,"à¸ģà¸£à¹Ħà¸Ĺà¸¢":7123,"Ġtot":7124,"à¸Ļà¸Ĭà¸²à¸ķ":7125,"Ġà¸£à¸ªà¸Ĭà¸²à¸ķ":7126,"à¸°à¸ŀà¸²à¸Ļ":7127,"à¸²à¸ĩà¸łà¸²à¸ŀ":7128,"à¹ģà¸Łà¸Ļà¸ļà¸Ńà¸¥":7129,"à¹Ħà¸Ńà¸ĭ":7130,"à¸Ńà¹ģà¸Ĺ":7131,"à¸ľà¸¡à¹Ģà¸£":7132,"à¸²à¸§à¸Ħà¸°":7133,"Ġà¸Ĥà¸Ńà¸ĩà¸ŀ":7134,"à¸¥à¸°à¸Ħà¸£à¹Ģà¸£":7135,"à¸Ļà¹ĥ":7136,"à¸²à¹Ģà¸¥à¸¢à¸Ĺ":7137,"à¹Ħà¸Ĺà¸¡":7138,"Ġà¹ģà¸¥à¸°à¹ĥà¸Ĭ":7139,"à¸¥à¸ĩà¸£":7140,"¹ĸ":7141,"à¹Ĥà¸Ķà¸¢à¸¡":7142,"à¸²à¹Ģà¸Ńà¸²":7143,"Ġlink":7144,"à¸²à¸Ħà¸°à¸Ļà¸Ńà¸ĩ":7145,"à¸ģà¸ĩà¸²à¸Ļà¸ķ":7146,"à¸²à¸£à¸Ńà¸ĩ":7147,"Ġ75":7148,"à¸Ńà¸²à¸Īà¹Ħà¸¡":7149,"à¸²à¸ģà¸£à¸°à¸Ĺ":7150,"à¸ĺà¸ł":7151,"à¸ļà¸¡à¸²à¸§":7152,"à¸ģà¸²à¸£à¹Ģà¸ģ":7153,"à¸Ńà¸¢à¸ĸ":7154,"à¸®à¸²":7155,"Ġà¸Ľà¸£à¸²à¸ģà¸İà¸§":7156,"à¸ļà¸ŀà¸¥":7157,"à¸ģà¸ªà¸£":7158,"à¹Ģà¸£à¸²à¸«":7159,"à¸§à¸£à¸£à¸©":7160,"à¸Ĥà¸Ńà¸ĩà¸Ľ":7161,"à¸ªà¹Ĥà¸Ħà¸§":7162,"---":7163,"à¸¢à¹Ģà¸§à¸¥à¸²":7164,"à¸²à¸Ńà¸¢à¸²à¸ģà¹Ħà¸Ķ":7165,"à¸įà¸£":7166,"à¸²à¹Ģà¸Ĺà¸Ńà¸¡":7167,"à¹Ĥà¸Ħà¸£à¸²à¸Ĭ":7168,"ren":7169,"à¹ĸ":7170,"à¹Ģà¸ľà¸Ķ":7171,"Ġsing":7172,"Ġà¸Ĥà¸Ńà¸Ńà¸ł":7173,"à¸Ĥà¸¢à¸°":7174,"à¸Ķà¸¥à¸¡":7175,"à¸Ĥà¸Ńà¹Ĥà¸Ĺà¸©à¸Ķ":7176,"à¹Ģà¸Ĥà¸²à¸ª":7177,"Ġà¸£à¸ļà¸ģà¸§à¸Ļà¹ģà¸Ļà¸°à¸Ļ":7178,"ero":7179,"Ġà¸¡à¸²à¸¥":7180,"à¸²à¸Ľà¸£à¸°à¸Ī":7181,"cm":7182,"less":7183,"Ġgt":7184,"à¸ļà¸Ĺà¸£":7185,"Ġà¸ªà¸ª":7186,"img":7187,"à¸ķà¸²à¸¡à¸ª":7188,"à¹ģà¸ĸà¸§à¸ļ":7189,"Ġà¸ªà¸²à¸Ĥà¸²":7190,"à¸´)":7191,"à¸ªà¸²à¸¡à¸²à¸£à¸ĸà¸Ķ":7192,"Ġsony":7193,"âĢĺ":7194,"à¸²à¸¡à¸²à¹ģà¸¥":7195,"Ġcm":7196,"à¸ĺà¸¢":7197,"à¸«à¸¡à¸Ķà¸ª":7198,"mer":7199,"à¸¨à¸ģ":7200,"Ġ_":7201,"à¸Ńà¸¢à¸«à¸Ļ":7202,"daradaily":7203,"à¸¢à¸¡à¸²à¸ģ":7204,"à¸ĩà¸Ķà¸ĩà¸²à¸¡":7205,"à¹Ĥà¸ŀà¸ĺ":7206,"à¸¡à¸¡à¸²":7207,"à¸Ńà¸Ļà¹ĥà¸Ī":7208,"à¸Ńà¸Ħà¸§à¸£":7209,"à¸Ļà¸łà¸²à¸¢à¹ĥà¸Ļ":7210,"à¸ģà¸ĩà¸²à¸Ļà¸ģ":7211,"à¹Ģà¸¡à¸°":7212,"Ġà¸Ĥà¸Ńà¸Ĥà¸Ńà¸ļà¸Ħ":7213,"à¸§à¸¢à¸ŀà¸£":7214,"à¸Ľà¸£à¸²à¸ļà¸Ľà¸£à¸²à¸¡":7215,"à¸²à¸Ńà¸¢à¸²à¸ģà¹ĥà¸«":7216,"à¹Ģà¸«à¸Ńà¸°":7217,"à¸²à¸¢à¸Ĭà¸²à¸¢":7218,"à¸Ļà¸ģà¸²à¸£à¸Ī":7219,"Ġà¸Ħà¸£à¸¡":7220,"à¸Ļà¸Ĭà¸²à¸¢":7221,"à¸ľà¸¥à¸§":7222,"à¸Ļà¸ĸà¸Ļà¸Ļ":7223,"à¸¡à¸²à¸Ľà¸£à¸°à¸¡à¸²à¸ĵ":7224,"Ġà¸ļà¸²à¸£":7225,"Ġ!!!":7226,"à¹ģà¸Ļà¸§à¸Ļ":7227,"à¸¢à¸Ķà¸Ĺ":7228,"à¸ĩà¸¡à¸Ńà¸ļ":7229,"à¹Ĥà¸ĭà¸¥":7230,"à¸²à¹Ģà¸Ħà¸¢":7231,"à¸£à¸°à¸ļà¸²à¸¢à¸Ļ":7232,"à¸¡à¸ŀà¸¥":7233,"à¸²à¸£à¸²à¸¡":7234,"à¸²à¸ĩà¹ģà¸¥à¸°à¸ľà¸¥à¸Ľà¸£à¸°à¹Ĥà¸¢à¸Ĭà¸Ļ":7235,"à¹Ħà¸«à¸§à¹ģà¸¥":7236,"à¸Ļà¹ģà¸Ĭà¸¡à¸Ľ":7237,"à¸Ħà¸§à¸£à¸¡":7238,"à¸¢à¸§à¹ģà¸¥":7239,"à¹ĥà¸Ħà¸£à¹Ģà¸Ħà¸¢":7240,"à¸Ĺà¸°à¹Ģà¸ļ":7241,"Ġà¸ķà¸ģà¸¥":7242,"à¹ģà¸Ńà¸¥à¸ģà¸Ńà¸®à¸Ńà¸¥":7243,"à¹Ģà¸§à¸¥à¸²à¸ķ":7244,"à¸¢à¸§à¸£":7245,"à¸¡à¸ŀà¸£à¸°":7246,"à¸Ĥà¸Ńà¸ĩà¸Ķ":7247,"à¸ŀà¸Ńà¹Ħà¸Ķ":7248,"à¸Ńà¸°à¹Ħà¸£à¸¡à¸²à¸ģ":7249,"reen":7250,"à¹ģà¸ģà¸£à¸¡":7251,"à¸§à¸ķà¸Ļ":7252,"à¸Ķà¹ģà¸Ĥ":7253,"à¸°à¸Ńà¸²à¸Ķ":7254,"à¸ĩà¹Ģà¸¢à¸Ńà¸°":7255,"à¸Ľà¸£à¸°à¸ĸ":7256,"Ġà¸ªà¸ļà¸²à¸¢":7257,"ute":7258,"à¸Ńà¸ĩà¸¢à¸Ńà¸¡à¸£":7259,"à¸£à¸²à¸Ĭà¸ĺà¸²à¸Ļ":7260,"Ġ58":7261,"à¸ģà¸£à¸§à¸²à¸¥":7262,"Ġà¹Ĥà¸«":7263,"à¸Ĥà¸Ńà¸ĩà¸ŀà¸§à¸ģ":7264,"enc":7265,"à¸¡à¸«à¸²à¸Ķ":7266,"à¸Ķà¹ģà¸¡":7267,"à¸Ńà¹Ģà¸£à¸²à¹Ģà¸Ľ":7268,"ium":7269,"à¸§à¸ģà¸²à¸¨":7270,"Ġà¸łà¸²à¸ŀà¸Īà¸²à¸ģ":7271,"à¸Ńà¸ĩà¸ģà¸²à¸£à¹ĥà¸Ĭ":7272,"à¹Ģà¸ģà¸£à¸ĩà¹ĥà¸Ī":7273,"à¹Ħà¸ĸ":7274,"à¸Ļà¹ĥà¸Īà¸Ĺ":7275,"à¸²à¸«à¸¥à¸§à¸ĩ":7276,"à¸Ńà¸Ļà¸Ł":7277,"2560":7278,"à¸¢à¸ģà¸²à¸£":7279,"à¸¡à¹ĥà¸ª":7280,"à¸Ķà¹Ĥ":7281,"à¸ªà¸²à¸¡à¸²à¸£à¸ĸà¸£":7282,"Ġà¹ģà¸¥à¸°à¸«à¸Ļ":7283,"Ġ2014":7284,"à¸Ļà¹ĥà¸Ļà¸ļ":7285,"Ġstore":7286,"à¹Ģà¸Ħà¸ª":7287,"à¸Ĭà¸¡à¸ģ":7288,"à¹Ĥà¸Ńà¸ģà¸²à¸¨":7289,"à¸ģà¸©à¸²à¸Ħ":7290,"à¸Ńà¸ĩà¸ļà¸Ńà¸ģà¸§":7291,"à¹ĥà¸Ļà¸ģ":7292,"vo":7293,"à¸ļà¸ī":7294,"à¸Ńà¹Ĥà¸£à¸Ħ":7295,"Ġà¹Ģà¸ŀà¸£à¸²à¸°à¸¢":7296,"à¸ķà¸£à¸²à¸ģà¸²à¸£":7297,"Ġà¸Ħà¸Ļà¸Ķ":7298,"à¸§à¹Ħà¸«à¸Ļà¸Ķ":7299,"Ġà¸Ńà¸²à¸Ħà¸²à¸£":7300,"à¸£à¸ĸà¹Ģà¸¡à¸¥":7301,"à¹Ģà¸§à¸¥à¸²à¹Ħà¸Ľ":7302,"à¸§à¹ģà¸Ĺà¸Ļà¸Ī":7303,"à¸Ļà¸ªà¸ķà¸²à¹ģ":7304,"Ġcovid":7305,"ise":7306,"à¸²à¸²à¸²à¸²à¸²à¸²à¸²à¸²":7307,"à¸ļà¸Ħà¸Ļà¸Ļ":7308,"à¸Ńà¸ŀà¸§à¸ģ":7309,"à¸²à¹Ģà¸Īà¸Ń":7310,"Ġà¸Ńà¸²à¸Ĭ":7311,"Ġà¸Īà¸°à¹Ģà¸¥":7312,"à¹ĥà¸Ļà¸«à¸¡":7313,"à¸¢à¸ĩà¹ĥà¸ķ":7314,"ba":7315,"à¸¢à¸ģà¸¢":7316,"à¹ĥà¸Ļà¸£à¸°à¸ļà¸ļ":7317,"aph":7318,"à¸²à¸Īà¸°à¸Ĭ":7319,"à¸ĩà¸łà¸²à¸ŀ":7320,"date":7321,"à¹ī\"":7322,"able":7323,"à¸Ĺà¸²à¸ĩà¸§":7324,"à¸°à¸Ĭ":7325,"à¸ļà¸£à¸£à¹Ģà¸Ĺ":7326,"à¸¢à¸²à¹Ģà¸ªà¸ŀà¸ķ":7327,"à¸ļà¸Ńà¸ģà¸Ĺ":7328,"à¸¡à¹Ģà¸Ľà¸į":7329,"Ġà¸ªà¹Ģà¸ķ":7330,"à¸ŀà¸ĺ":7331,"à¹ĥà¸Ļà¸ģà¸²à¸£à¸ŀ":7332,"ðŁĳļ":7333,"ama":7334,"à¸§à¸ĩà¹Ģà¸§à¸¥à¸²":7335,"ask":7336,"à¸ģà¸²à¸£à¸ªà¸£":7337,"à¸²à¸Ĥà¸²":7338,"à¸ģà¸¥à¸°":7339,"Ġà¸ģà¸ªà¸Ĺà¸Ĭ":7340,"à¸Ľà¹ĥà¸«":7341,"à¸Ńà¸ĩà¸Īà¸°":7342,"ouse":7343,"à¸²à¸Ńà¸°à¹Ħà¸£à¹Ħà¸Ķ":7344,"06":7345,"à¸²à¸¢à¹Ģà¸£":7346,"à¹Ĥà¸¥à¸ģà¸ª":7347,"à¸Ńà¸Ħà¸§à¸²à¸¡à¸£":7348,"à¸Ńà¹Ħà¸Ľà¸ģ":7349,"à¹ģà¸ĸà¸¥à¸ĩà¸Ĥ":7350,"à¸Ķà¸ģà¸²à¸£à¸ģ":7351,"Ġofficial":7352,"à¸ĩà¹ģà¸Ī":7353,"à¸Ļà¸£à¸°à¸Ķ":7354,"à¸Ļà¸Ńà¸Ļà¸Ħ":7355,"Ġà¹Ĥà¸®":7356,"à¹ģà¸Ļà¸ļ":7357,"Ġ00":7358,"à¹Ģà¸Ĥà¸²à¸Ļ":7359,"à¸Ĭà¸²à¸§à¸ķ":7360,"à¸Ńà¸ķà¸ģà¸¥":7361,"redit":7362,"Ġà¹Ĥà¸Ĭà¸Ħà¸Ķ":7363,"à¸Ķà¹ģà¸«":7364,"à¸Īà¸²à¸ģà¸Ń":7365,"à¸²à¸¡à¸²à¹Ħà¸Ķ":7366,"à¸ĩà¹Ģà¹Ģà¸ķ":7367,"à¸Ńà¸Ńà¸ģà¸¡à¸²à¹Ħà¸Ķ":7368,"Ġà¹ĥà¸Ļà¹Ģà¸£":7369,"à¸²à¸ªà¸²à¸¢":7370,"à¸²à¸ľà¸¡à¹Ħà¸¡":7371,"à¸¢à¸ĩà¸Ńà¸¢":7372,"à¸łà¸²à¸Ħà¸Ń":7373,"Ġà¸Ĳà¸²à¸Ļ":7374,"à¸²à¸«à¸Ļà¸Ķà¹ĥà¸«":7375,"à¹Ĥà¸§":7376,"à¸Ńà¸ī":7377,"à¸¢à¸ĩà¸Ĥà¸Ńà¸ĩ":7378,"à¸ģà¸Īà¸°à¸¡":7379,"à¹ĥà¸Ļà¸ķà¸Ńà¸Ļà¸Ļ":7380,"à¸ŀà¸£à¸£":7381,"à¸ģà¸Ĺà¸²à¸¢":7382,"à¹Ģà¸Ĥà¸²à¸ģà¸¥":7383,"lic":7384,"à¹Ĥà¸Ķà¸¢à¸ķà¸¥à¸Ńà¸Ķ":7385,"Ġic":7386,"Ġ2015":7387,"à¸Īà¸²à¸ģà¸ľ":7388,"à¹Ģà¸ĺà¸Ńà¹Ħà¸¡":7389,"à¹Ģà¸ļà¸²à¹Ĩ":7390,"Ġà¸Ħà¸ĩà¸ķ":7391,"uck":7392,"à¹Ģà¸ķà¸°":7393,"à¸Ľà¸£à¸°à¸«à¸¥à¸²à¸Ķ":7394,"à¸Ľà¸£à¸°à¸ĺà¸²à¸Ļà¸²à¸ĺ":7395,"à¸²à¸Ļà¸²à¸ĩ":7396,"add":7397,"à¸Ķà¹Ģà¸Ń":7398,"à¸²à¸ĸà¸²à¸¡à¸Ħ":7399,"à¸Īà¸ļà¹ģà¸¥":7400,"edia":7401,"à¸§à¸²à¸£":7402,"à¸Ĺà¸£à¸ĩ":7403,"à¸Ĥà¸Ńà¸ĩà¹ģà¸Ĺ":7404,"ĠâĢĭ":7405,"à¹Ĥà¸ķà¸£":7406,"à¸ģà¸Ńà¸²à¸¢":7407,"Ġà¹Ģà¸£à¸²à¸Ĥ":7408,"82":7409,"rem":7410,"à¸¡à¸ĸà¸Ļà¸Ļ":7411,"à¸Ľà¸İ":7412,"à¸ķà¸«":7413,"à¸Ķà¹Ħà¸£":7414,"à¸Ĺà¸Ķ":7415,"à¸Ńà¸Ļà¹Ģà¸£à¸²à¸ģ":7416,"ĠðŁĻ":7417,"à¸ļà¸¡à¸²à¸£":7418,"à¹Ħà¸Ĭ":7419,"à¸Ńà¸Ķà¸Ń":7420,"ual":7421,"Ġà¹Ģà¸¥à¸¢à¸Ńà¸¢à¸²à¸ģà¸Īà¸°":7422,"à¹ĥà¸ļà¸ª":7423,"Ġps":7424,"à¸¢à¹ģà¸ķ":7425,"250":7426,"à¹Ģà¸¡à¸Ļà¸ķ":7427,"à¹Ĥà¸¢à¸ķ":7428,"à¹ģà¸ļà¸ļà¸ª":7429,"Ġlazada":7430,"%,":7431,"à¸¡à¸ĺà¸²à¸Ļ":7432,"à¹Ģà¸Ńà¸ĩà¹Ħà¸Ķ":7433,"à¸Ļà¸°à¹ģà¸ķ":7434,"Ġà¸Ļà¸²à¸ĩà¸ªà¸²à¸§":7435,"Ġà¸Īà¸°à¹Ģà¸«":7436,"à¸ģà¸£à¸°à¸Ľ":7437,"Ġbank":7438,"ota":7439,"Ġtwitter":7440,"à¸Ńà¸Ļà¸Ħà¸Ļà¸Ń":7441,"à¸ķà¸Īà¸£":7442,"book":7443,"à¸Ńà¸Ńà¸°à¹Ħà¸£à¸ģ":7444,"à¸ļà¸¥à¸ĩ":7445,"à¸Ńà¸¡à¸Ń":7446,"board":7447,"à¹ĥà¸Ļà¸£à¸Ńà¸ļ":7448,"à¸įà¸²à¸į":7449,"à¹Ĥà¸Ĺà¸£à¸¡à¸²":7450,"à¸¢à¸ģà¸Ħ":7451,"Ġà¸Ńà¸¢à¸²à¸ģà¸ĸà¸²à¸¡à¸§":7452,"à¹Ģà¸Ĥà¸²à¹Ģà¸¥":7453,"Ġà¹Ģà¸Ĥà¸²à¸Ħ":7454,"Ġà¸¡à¸²à¹ĥà¸«":7455,"à¸ĵà¸Īà¸°":7456,"à¸¢à¹ĥà¸«à¸¡":7457,"Ġgu":7458,"Ġà¸ģà¸²à¸£à¹Ģà¸¥":7459,"à¸ĵà¸Ńà¸¢":7460,"à¸Ńà¸Ļà¸Ļà¸°à¸Ħà¸£":7461,"à¸²à¹ĥà¸Ļà¸Ĭ":7462,"à¸«à¸¥à¸²à¸¢à¸§":7463,"à¸Ļà¸Ĺà¸²à¸ĩà¸ģ":7464,"à¸£à¸²à¸Ħà¸²à¸Ļ":7465,"à¹Ģà¸£à¸²à¹ĥà¸«":7466,"à¸§à¸£à¸ĸ":7467,"à¸²à¸§à¸Ĥà¸Ńà¸ĩ":7468,"à¸Ļà¹Ģà¹Ģà¸¥":7469,"à¹Ģà¸¥à¸¢à¸£":7470,"à¹Ħà¸Ńà¸Ķà¸Ńà¸¥":7471,"à¸£à¸²à¸ĺ":7472,"Ġà¹Ĥà¸Ĩà¸©":7473,"à¸²à¸Ļà¸ģà¸¥à¸²à¸ĩ":7474,"Ġà¸ķà¸²à¸¡à¸Ļ":7475,"à¸¥à¹Ħà¸Ķ":7476,"à¹Ģà¸Ĥà¸²à¸ļà¸Ńà¸ģà¸§":7477,"à¸ķà¸£à¸Ľà¸£à¸°à¸Ĭà¸²à¸Ĭà¸Ļ":7478,"Ġfrom":7479,"à¸ļà¹Ģà¸«à¸¡":7480,"à¸Ńà¸Īà¸²à¸ģà¸Ļ":7481,"à¸Ļà¹Ħà¸Ľà¸Ńà¸¢":7482,"Ġeng":7483,"à¸²à¸Ļà¸ľà¸¡":7484,"à¸²à¸Ĥà¸Ļà¸¡":7485,"à¹Ħà¸Ĺà¸¢à¸ģ":7486,"à¹Ģà¸Ĥà¸²à¸ŀ":7487,"à¸§à¸ĩà¸Ī":7488,"à¸¢à¸¢à¸¢à¸¢à¸¢à¸¢à¸¢à¸¢":7489,"Ġcle":7490,"Ġsl":7491,"Ġà¹ĥà¸Ļà¸«":7492,"à¸²à¸Ŀà¸²à¸ģ":7493,"Ġà¸ľà¸Ń":7494,"à¸Ńà¸ģà¸¢":7495,"à¸²à¸ĩà¸²à¸Ļà¸Ĥà¸Ńà¸ĩ":7496,"Ġ07":7497,"à¸Ķà¸£à¸ĸ":7498,"à¹Ģà¸ĺà¸Ńà¸¡":7499,"à¸Ńà¸²à¸«à¸²à¸£à¸Ĺ":7500,"à¸Ńà¸°à¹Ħà¸£à¹ģà¸ļà¸ļà¸Ļ":7501,"à¸Ħà¸Ļà¹Ģà¸¥":7502,"aj":7503,"à¹Ģà¸Ķà¸ļ":7504,"Ġà¸ľà¸¡à¸Ħà¸§à¸£":7505,"à¸ĩà¸²à¸Ļà¹Ħà¸¡":7506,"Ġos":7507,"à¸Ńà¹Ģà¸£à¸²à¸¡":7508,"à¸²à¸§à¹Ģà¸Ķ":7509,"à¸§à¸Ļà¸¡":7510,"à¸Īà¸²à¸£à¸ĵà¸²":7511,"Ġà¹Ģà¸Ńà¸²à¹Ħà¸§":7512,"oup":7513,"Ġ49":7514,"Ġà¹ĵ":7515,"à¸£à¸§à¸¢":7516,"Ġà¸¥à¸Ķà¸¥à¸ĩ":7517,"à¸§à¹Ħà¸§":7518,"à¹ģà¸ªà¸Ķà¸ĩà¸§":7519,"ery":7520,"à¸Īà¸°à¸ļ":7521,"à¸²à¸¥à¸Ńà¸ĩ":7522,"à¸§à¸Ļà¸ŀ":7523,"à¹ĥà¸Īà¸Ħ":7524,"à¹ģà¸¥à¸°à¹Ģà¸ŀ":7525,"à¸§à¸¢à¸Ħà¸°":7526,"à¸¢à¸ĩà¹Ģà¸Ķ":7527,"à¸°à¹Ģà¸¥à¸¢":7528,"Ġà¸«à¸²à¸ģà¹Ħà¸¡":7529,"Ġà¹ĥà¸Ļà¸£à¸²à¸Ħà¸²":7530,"à¹Ģà¸ĺà¸Ńà¸Ĺ":7531,"social":7532,"à¸¡à¸²à¹ģà¸Ĭà¸£":7533,"à¸Ńà¸Łà¸Ł":7534,"Ġà¹Ģà¸Ńà¸§":7535,"à¸ŀà¸£à¸£à¸Ħà¸ŀà¸¥":7536,"osh":7537,"à¸¢à¸¡à¸ª":7538,"à¸²à¸ĩà¸ģà¸²à¸£":7539,"Ġchar":7540,"à¹Ģà¸§à¸¥à¸²à¹ĥà¸«":7541,"Ġking":7542,"âľħ":7543,"ous":7544,"uc":7545,"ðŁı¼":7546,"à¸Ĺà¸²à¸ĩà¸ª":7547,"à¹ĮâĢĻ":7548,"Ġà¹ĥà¸Ħà¸£à¹Ģà¸Ľ":7549,"à¸°à¹Ģà¸Ĥ":7550,"à¸«à¸¥à¸Ńà¸Ķ":7551,"à¸Ńà¸Īà¸°à¸¡":7552,"à¸²à¹Ģà¸ģà¸©à¸ķà¸£":7553,"sr":7554,"à¸ĩà¸£à¸°à¸ļà¸ļ":7555,"Ġhome":7556,"à¸¡à¸²à¸ģà¸ģà¸ģà¸ģà¸ģ":7557,"à¸ģà¸ıà¸«à¸¡à¸²à¸¢":7558,"à¸²à¸Ļà¸ģà¸£à¸°à¸Ĺ":7559,"à¸¥à¹ĥà¸«":7560,"à¸ģà¹Ģà¸ģà¸Ī":7561,"Ġà¸Ĥà¸Ńà¸ĩà¸Ħ":7562,"à¸ĵà¸£à¸ĩà¸Ħ":7563,"à¸Īà¸īà¸£":7564,"à¸²à¹Ģà¸Ĥà¸²":7565,"à¹Ĥà¸Ńà¸ģà¸²à¸ªà¹ĥà¸«":7566,"à¸ĵà¸²":7567,"à¸²à¸Ļà¹Ģà¸Ī":7568,"Ġà¸£à¸ĸà¸ķ":7569,"à¸ģà¸Ĭà¸Ńà¸ļ":7570,"à¹Ħà¸Ĺà¸¢à¸Ļ":7571,"Ġ??":7572,"Ġà¸Ĩ":7573,"Ġà¹Ģà¸ĺà¸Ńà¸ģ":7574,"à¸²à¸ĩà¹ĥà¸ģà¸¥":7575,"Ġà¸Īà¸°à¸ĸ":7576,"Ġà¹Ģà¸ŀà¸£à¸²à¸°à¸ķà¸Ńà¸Ļà¸Ļ":7577,"pink":7578,"ux":7579,"kk":7580,"Ġover":7581,"à¸ľà¸¡à¹Ģà¸¥":7582,"ðŁĺĺðŁĺĺ":7583,"à¸ľà¸Ńà¸¡":7584,"à¸ģà¹ģà¸Ĺ":7585,"à¸²à¸Ĥà¸²à¸§":7586,"à¹Ģà¸ŀà¸Ĭà¸£à¸ļ":7587,"Ġà¸Ĥà¸¢":7588,"oney":7589,"Ġdes":7590,"Ġ06":7591,"Ġà¸Īà¸°à¹Ģà¸Ĥ":7592,"à¸ĩà¸ķà¸£":7593,"à¸§à¸Ńà¸Ńà¸ģ":7594,"à¸Ķà¸«à¸¢":7595,"Ġà¹Ģà¸Īà¸Ńà¸ģ":7596,"à¸²à¸¥à¸°à¸Ħà¸£":7597,"Ġà¸Īà¸Ļà¸ķ":7598,"à¸§à¸¢à¸ļà¸Ńà¸ģà¸«à¸Ļ":7599,"oss":7600,"à¸¨à¸§à¸ģà¸£à¸£à¸¡":7601,"à¸°à¹Ģà¸ģ":7602,"Ġà¸¡à¸²à¸Ĭ":7603,"à¹Ģà¸§à¸¥à¸²à¸Ľà¸£à¸°à¸¡à¸²à¸ĵ":7604,"à¸Ńà¸Ķà¸Ńà¸Ńà¸ģ":7605,"à¸ļà¸¥à¸£à¸²à¸Ĭà¸ĺà¸²à¸Ļ":7606,"à¹Į'":7607,"Ġhuawei":7608,"Ġthai":7609,"Ġà¸¥à¸ļ":7610,"Ġà¸Ļà¸Ńà¸ģ":7611,"à¹Ī\"":7612,"à¸Īà¸Ĥà¸Ńà¸ĩ":7613,"à¸Īà¸²à¸ģà¸ļ":7614,"Ġmic":7615,"à¸Ļà¸²à¸Ħà¸²à¸£":7616,"à¸Ĥà¸²à¸¢à¹Ħà¸Ķ":7617,"à¸²à¸Ľà¸ı":7618,"Ġ900":7619,"à¹ĪâĢĿ":7620,"à¸Ħà¸§à¸²à¸¡à¸¥":7621,"à¸ªà¸²à¸§à¸£":7622,"à¹Ģà¸£à¸²à¸ªà¸²à¸¡à¸²à¸£à¸ĸ":7623,"à¸įà¸«à¸²à¸Ĥà¸Ńà¸ĩ":7624,"Ġà¸Ĥà¸Ńà¸ļà¸ŀà¸£à¸°à¸Ħ":7625,"à¸Ĥà¸Ńà¸¢":7626,"à¸ļà¸Ńà¸ģà¸ķ":7627,"spring":7628,"à¸ĩà¸«à¸²à¸ģ":7629,"ga":7630,"annel":7631,"à¸²à¹Ĥà¸ķ":7632,"à¸įà¸¡":7633,"Ġâĸ":7634,"ical":7635,"à¸Ļà¸«à¸§":7636,"Ġfan":7637,"à¹Ħà¸ľ":7638,"à¸²à¸Ħà¸ļà¸ģ":7639,"à¸ªà¸¡à¸£":7640,"à¸§à¸Ļà¸Ĥ":7641,"à¸Ļà¹Ģà¸ģà¸¢":7642,"à¸Ĺà¸Ń":7643,"à¹ģà¸Ľà¸¥à¸§":7644,"à¸Ĥà¸²à¸¢à¸ķ":7645,"à¸¢à¸ģà¸¥":7646,"à¸Ħà¸²à¸Ķà¸«à¸§":7647,"à¸Ĺà¸²à¸ĩà¸Ĭ":7648,"à¹Ģà¸¥à¸Ĥà¸²à¸ĺ":7649,"à¸Ļà¹Ģà¸Ĥà¸²à¸ģ":7650,"à¸Ļà¹Ģà¸ģà¸¥":7651,"à¸Ķà¸ķà¸¥à¸Ńà¸Ķ":7652,"à¸ĩà¹ĥà¸Ħà¸£":7653,"à¹Ħà¸«à¸Ļà¸¡à¸²":7654,"ivers":7655,"Ġà¸ŀà¸Ńà¸£":7656,"watchv":7657,"à¹Ģà¸Īà¸Ńà¸«à¸Ļ":7658,"à¸Ļà¹Ĥà¸į":7659,"à¹Ģà¸Ńà¸¡":7660,"à¸¢à¸¡à¸§":7661,"à¸¢à¸Ļà¸Ľ":7662,"à¸ĩà¸ªà¸ķ":7663,"à¸ģà¸©à¸²à¹Ģà¸£":7664,"à¸²à¸įà¸Īà¸Ļ":7665,"Ġà¸Ńà¸¥":7666,"à¸²à¹Ģà¸ªà¸¡à¸Ń":7667,"à¸Ĥà¸§à¸²":7668,"à¸ľà¸¡à¹Ģà¸Ĥ":7669,"Ġà¹Ħà¸Ľà¸¢":7670,"Ġthat":7671,"à¹ĥà¸Ļà¸ķà¸¥à¸²à¸Ķ":7672,"Ġà¸īà¸°à¸Ļ":7673,"amily":7674,"à¸Ļà¸ĺà¸£à¸£à¸¡à¸Ĭà¸²à¸ķ":7675,"à¸Ķà¹ģà¸£à¸ģ":7676,"à¸²à¸¡à¸²à¸«":7677,"à¸ªà¸¡à¸²à¸£":7678,"à¸ģà¸ļà¸£":7679,"à¹Ģà¸§à¸¥à¸²à¸§":7680,"Ġhigh":7681,"à¸Ħà¸ĩ":7682,"à¸¨à¸²à¸¥à¸£":7683,"à¸Ļà¸¡à¸²à¹ĥà¸«":7684,"cont":7685,"à¸Ķà¸²à¸§à¸Ļ":7686,"à¹Ħà¸Ľà¸Ħà¸£":7687,"à¸°à¸«à¸Ļ":7688,"Ġà¹ģà¸Ľà¸¥à¸§":7689,"à¸²à¸ŀà¹Ģà¸Ī":7690,"à¸¢à¸ĩà¸Ń":7691,"Ġà¹ģà¸ļà¸ļà¸Ĺ":7692,"Ġà¹ģà¸ļà¸ķ":7693,"Ġtoy":7694,"à¸Ļà¸Ħà¸ķ":7695,"à¸ĩà¸¡à¸²à¸Ĺ":7696,"à¹Ĥà¸Ľà¸£à¹Ģà¸Ī":7697,"à¹ģà¸ļà¸Ħ":7698,"à¸Ķà¸¢à¸²à¸§":7699,"à¸ľà¸¡à¸Īà¸°":7700,"à¸ģà¸²à¸£à¸ķà¸£à¸§à¸Ī":7701,"ict":7702,"à¹ģà¸Łà¸£":7703,"à¸§à¸¢à¸ķà¸Ńà¸ļà¸«à¸Ļ":7704,"Ġà¹Ģà¸£à¸²à¹ĥà¸Ĭ":7705,"à¸ªà¸²à¸«à¸ģ":7706,"à¸Ńà¸¢à¹ģà¸Ħ":7707,"ward":7708,"à¹Ĥà¸Ĩà¸©":7709,"à¸Ļà¹Ħà¸Ĥ":7710,"à¸²à¸Ļà¸§à¸Ļà¸Ļ":7711,"ror":7712,"à¹Ģà¸ļà¸²à¸°":7713,"à¸§à¸Ħà¸Ļ":7714,"à¸Ļà¸¡à¸Ļ":7715,"à¸²à¸łà¸²à¸©":7716,"à¸Ļà¸ªà¸§à¸¢":7717,"Ġà¸Īà¸°à¸Ĭ":7718,"à¸²à¸ĩà¸²à¸Ļà¹Ħà¸¡":7719,"à¸ĩà¸Ĥà¸Ļà¸²à¸Ķà¸Ļ":7720,"Ġà¸ļà¸Ńà¸¥":7721,"à¸²à¸¢à¸Ńà¸Ķ":7722,"à¸²à¸§à¹ĥà¸«":7723,"à¸Ļà¸¯":7724,"Ġcent":7725,"à¸Ńà¸ĩà¸«à¸¢":7726,"avel":7727,"Ġspeed":7728,"à¸¢à¸Ļà¹ģà¸ļà¸ļ":7729,"à¸²à¸ķà¸Ńà¸ļà¸§":7730,"à¸¡à¸ī":7731,"à¸²à¸ĩà¹ģà¸Ĺ":7732,"Ġne":7733,"à¹Ĩà¸Ħ":7734,"Ġà¹ĥà¸Ħà¸£à¸ģ":7735,"à¹Ģà¸Ńà¸²à¸Ħ":7736,"kap":7737,"à¸£à¸²à¸¢à¸§":7738,"Ġà¹ģà¸¥à¸°à¸«à¸¥":7739,"à¸§à¹Ģà¸ĩ":7740,"à¸ĸà¸²à¸¡à¸Ħ":7741,"***":7742,"à¹Ĥà¸Ľà¸£à¹Ĥà¸¡à¸Ĺ":7743,"à¸ĩà¹ģà¸Ĥ":7744,"à¹Ģà¸Ĥà¸²à¸ļà¸Ńà¸ģ":7745,"à¸Ĭà¸Ľ":7746,"à¸ģà¹ĥà¸ª":7747,"à¸²à¹ģà¸Ńà¸ļ":7748,"à¸¡à¸²à¸Ľà¸£":7749,"à¸²à¸Ļà¸ģà¸²à¹ģà¸Ł":7750,"Ġà¸ªà¸ĸà¸²à¸ļ":7751,"à¸Ńà¹Ģà¸ŀà¸£à¸²à¸°":7752,"à¸Ķà¹Ħà¸«à¸¡":7753,"Ġà¹ģà¸¥à¸°à¹Ģà¸Ī":7754,"à¹Ģà¸ĭà¸Ļà¸ķ":7755,"Ġà¹Ģà¸¥à¸¢à¸¡":7756,"Ġbeaut":7757,"Ġwin":7758,"ild":7759,"à¹ģà¸§à¸£":7760,"à¹Ħà¸«à¸Ļà¸Ħ":7761,"Ġà¸¢à¸ģà¹Ģà¸¥":7762,"à¸²à¹ģà¸ļ":7763,"à¸§à¸²à¸Ĺ":7764,"à¸Ļà¹ģà¸Ī":7765,"à¸²à¹Ħà¸Ľà¸«":7766,"Ġà¸£à¸²à¸¨":7767,"à¸ģà¸²à¸£à¹Ģà¸Ńà¸ĩ":7768,"Ġà¸ŀà¸Ńà¸ķ":7769,"à¸Łà¸ģ":7770,"à¸ķà¸£à¸Ķ":7771,"Ġà¹Ĥà¸Ķà¸¢à¹Ģà¸Ľ":7772,"à¸ľà¸¥à¸ģ":7773,"ody":7774,"à¸Ļà¸Ŀà¸²à¸ģ":7775,"à¸²à¸Ħà¸¡à¸Ĺ":7776,"à¸Ńà¹Ģà¸«à¸¥":7777,"à¸įà¸ŀ":7778,"Ġhonda":7779,"à¸ļà¸Ħà¸§à¸²à¸¡à¹Ģà¸ª":7780,"Ġà¹Ħà¸®":7781,"wh":7782,"83":7783,"à¹Ģà¸£à¸²à¸Ĭ":7784,"à¸ķà¸£à¸Ľà¸£à¸°à¸Ĭà¸²à¸Ĭ":7785,"Ġà¹Ģà¸£à¸²à¹Ģà¸Ħà¸¢":7786,"Ġà¸ķà¸Ńà¸Ļà¹ģà¸£à¸ģà¸ģ":7787,"à¸£à¸²à¸ģ":7788,"à¸²à¸Ļà¹ĥà¸«à¸¡":7789,"à¸ŀà¹Ģà¸ŀ":7790,"à¸Ļà¸Ķà¸²à¸¥à¹ĥà¸Ī":7791,"à¸Ĥà¸¢à¸²à¸¢à¸ķ":7792,"à¸ĩà¸«à¸¡à¸Ķà¸Ļ":7793,"à¹ģà¸Ľà¸¥à¸ģà¹Ĩ":7794,"à¸ļà¸Ħà¸¥":7795,"à¸ģà¹Ģà¸ŀà¸£à¸²à¸°":7796,"à¸²à¸Īà¸°à¸Ļ":7797,"aid":7798,"sen":7799,"à¸ªà¹Ħà¸Ķ":7800,"à¸²à¸£à¸§à¸Īà¸ł":7801,"à¹Ĥà¸£à¸Ħà¸ķ":7802,"Ġà¸ªà¸ĸà¸²à¸Ļà¸ģà¸²à¸£à¸ĵ":7803,"à¸Łà¸¥":7804,"à¸²à¸Ļà¹Ģà¸ª":7805,"à¸¢à¸Ļà¸«":7806,"Ġà¸Ĺà¸°à¹Ģà¸¥":7807,"à¸¥à¸°à¸ķ":7808,"à¸Ńà¸Ħà¸Ńà¸¢":7809,"à¸Ńà¸Ńà¸¡à¸ª":7810,"Ġlog":7811,"à¹ģà¸Īà¸ģ":7812,"94":7813,"à¹Ģà¸Ńà¸°":7814,"Ġ41":7815,"à¸¡à¸ªà¸£":7816,"Ġdo":7817,"à¸ģà¸£à¸£à¸¡à¸Ĺ":7818,"à¸ģà¸²à¸£à¹ģà¸ªà¸Ķ":7819,"à¸Ķà¸Ńà¸ģà¹Ģà¸ļ":7820,"à¸Ńà¸°à¹Ħà¸£à¸Ļ":7821,"à¸¢à¸ĩà¸¡":7822,"à¸§à¸ģà¸£à¸°":7823,"ny":7824,"91":7825,"à¸Ńà¸¢à¸²à¸ģà¸ģ":7826,"à¸°à¹Ģà¸Ĭ":7827,"à¸ıà¸Ĳ":7828,"à¸²à¹Ħà¸Ľà¸ĭ":7829,"à¹īâĢĭ":7830,"ðŁĻı":7831,"Ġà¸Ĥà¸Ńà¸§":7832,"à¸ªà¸«":7833,"Ġfir":7834,"à¸²à¸Ĺà¸°à¹Ģà¸¥":7835,"mp":7836,"Ġà¹Ħà¸Ľà¹ģà¸¥":7837,"Ġtw":7838,"à¸ŀà¸§à¸ģà¸Ħ":7839,"à¸ļà¹ģà¸£à¸ģ":7840,"à¸¢à¸Ķà¸ª":7841,"à¸Ńà¸°à¹Ħà¸£à¸ķ":7842,"Ġà¸ŀà¸Ńà¹Ħà¸Ķ":7843,"Ġab":7844,"à¸£à¸Ńà¸ļà¸ķ":7845,"à¹Ħà¸Ľà¸«à¸Ļ":7846,"à¹ģà¸ľà¸Ļà¸ģ":7847,"à¸§à¸¡à¸Ķ":7848,"à¸«à¸²à¸¢à¸²à¸ģ":7849,"go":7850,"à¸¨à¸Ĺ":7851,"à¸§à¹Ħà¸Ĺà¸¢":7852,"à¸Ļà¸Ńà¸£":7853,"à¸²à¸Ļà¹Ģà¸¥à¸Ĥà¸Ĺ":7854,"Ġ180":7855,"à¸Ńà¸Ħà¸°":7856,"Ġpay":7857,"à¸²à¸§à¹ģà¸¥":7858,"Ġà¸ģà¸£à¸°à¸ļ":7859,"à¸²à¸£à¸§à¸Īà¸Ĺ":7860,"Ġfull":7861,"appy":7862,"à¸ģà¸ł":7863,"à¸Ńà¸Ļà¸ĺ":7864,"à¹ĥà¸Ļà¸Ńà¸Ķ":7865,"à¹Ĥà¸£à¸Īà¸Ļ":7866,"à¸Ńà¸ĩà¸ģà¸£":7867,"à¸²à¹Ĥà¸Ħ":7868,"à¸²à¸£à¸°à¸«à¸Ļ":7869,"à¸ģà¸«à¸į":7870,"à¸¡à¸ļà¸Ńà¸ģ":7871,"à¸ĩà¸ªà¸Ńà¸ĩà¸Ŀ":7872,"à¸¨à¸Ļà¸Ħà¸ķ":7873,"à¸Ħà¸£à¸ĩà¸²à¸Ļ":7874,"à¸²à¸Ĥà¸Ļà¸²à¸Ķ":7875,"à¸ŀà¸£à¸°à¸£à¸²à¸Ĭà¸ļ":7876,"à¹Ģà¸¡à¸Ńà¸£":7877,"ster":7878,"Ġà¸Ńà¸ł":7879,"Ġà¸ļà¸¥à¸²":7880,"à¸ĩà¸Ĥà¸Ńà¸ĩà¸Ĺ":7881,"à¹Ħà¸ŀà¸£à¸ª":7882,"à¸ķà¹Ģà¸ŀ":7883,"','":7884,"à¹Ħà¸£à¸ģ":7885,"à¹ģà¸Ħà¸Ļ":7886,"à¸²à¸Ńà¸²à¸ģà¸²à¸¨à¸¢à¸²à¸Ļ":7887,"lazada":7888,"à¸Ńà¸ģà¸¡":7889,"à¸Ńà¸¢à¸²à¸ģà¸Ńà¸¢":7890,"ll":7891,"à¸¡à¹Ģà¸Ń":7892,"à¸²à¸¢à¸ģà¸¥":7893,"à¸ļà¹ģà¸ļà¸ļ":7894,"à¹ģà¸¥à¸°à¹ĥà¸«":7895,"à¸²à¸Ļà¸²à¸Ļà¹ģà¸¥":7896,"à¹Ģà¸ŀà¸¨à¸ª":7897,"Ġemail":7898,"à¹ģà¸£à¸ĩà¸¡à¸²à¸ģ":7899,"à¹ģà¸¥à¸°à¹Ħà¸Ķ":7900,"à¸²à¸ĩà¸Ŀ":7901,"ĠðŁĨĶ":7902,"à¸Ľà¸£à¸°à¹Ĥà¸¢à¸Ħ":7903,"ĠðŁ¤":7904,"à¸Īà¸°à¸ļà¸Ńà¸ģà¸§":7905,"Ġà¸Ħà¸§à¸²à¸¡à¸Īà¸£":7906,"Ġà¹ģà¸ļà¸£à¸Ļà¸Ķ":7907,"à¸Ńà¸Ļà¹ģà¸£à¸ģ":7908,"Ġà¹Ģà¸ŀà¸£à¸²à¸°à¸ŀ":7909,"à¸²à¹Ħà¸Ľà¸£":7910,"Ġev":7911,"à¸²à¸¢à¸²à¸Ĺ":7912,"iam":7913,"Ġà¸ŀà¸§à¸ģà¸Ļ":7914,"à¸ªà¸¡à¸¡":7915,"Ġà¹ģà¸ŀà¸Ĺà¸¢":7916,"à¸ĸà¸²à¸Ľ":7917,"à¹ģà¸§à¸Ķà¸¥":7918,"à¸§à¸ĩà¹Ģà¸¢":7919,"à¸¡à¸²à¹Ģà¸¢":7920,"Ġpo":7921,"à¸§à¸ĩà¸«":7922,"à¹Ĥà¸ģà¸Ļ":7923,"à¸ļà¸¡à¸²à¸Īà¸²à¸ģ":7924,"Ġà¸ģà¸ŀ":7925,"à¸Ļà¸ģà¸¥à¸²à¸¢à¹Ģà¸Ľ":7926,"à¸ķà¸²à¸¡à¸ķ":7927,"à¸Ńà¸°à¹Ħà¸£à¹Ģà¸ģ":7928,"à¸Ķà¸Ľà¸²à¸ģ":7929,"à¸¡à¸¥à¸ĩ":7930,"Ġres":7931,"Ġà¸Ļà¸²à¸ĩà¸ģ":7932,"86":7933,"à¸Ńà¸°à¹Ħà¸£à¸Ħ":7934,"Ġà¹ģà¸¥à¸°à¸Ļà¸²à¸¢":7935,"à¸ķà¸£à¸²à¸Ķà¸Ńà¸ģà¹Ģà¸ļ":7936,"à¸£à¸Ļ":7937,"à¸Īà¸°à¸ªà¸£":7938,"iel":7939,"à¸ĩà¸¡à¸²à¸Īà¸²à¸ģ":7940,"Ġà¸ľà¸¡à¹Ģà¸«":7941,"à¹ģà¸Łà¸Ļà¸Ĺ":7942,"à¸£à¸¡à¸²à¸Ļ":7943,"à¹Ģà¸Ļà¸Ĭ":7944,"à¸¡à¸ķà¸°à¸§":7945,"à¸Ńà¸Ĭà¸²à¸ķ":7946,"à¸²à¸ĩà¹Ħà¸ģà¸¥":7947,"à¸¢à¸§à¸ĭ":7948,"à¸Ļà¹ģà¸¢":7949,"à¸Ļà¸ķà¸¥à¸²à¸Ķ":7950,"à¸¢à¸Ĭà¸Ļà¸°":7951,"à¸§à¹Ħà¸Ľà¸Ĺ":7952,"à¸įà¸Ī":7953,"à¹Ħà¸«à¸Ļà¹Ħà¸¡":7954,"à¸²à¹Ħà¸£à¸ģ":7955,"à¸Ķà¹Ħà¸Ĺà¸¢":7956,"Ġà¸łà¸²à¸¢à¸«à¸¥":7957,"à¸Ńà¹Ĥ":7958,"à¸²à¸¢à¸«à¸į":7959,"54":7960,"à¸ģà¹Ħ":7961,"à¹Ģà¸«à¸¡à¸²à¸°à¸ªà¸¡à¸ģ":7962,"à¸ķà¸£à¸łà¸²à¸ŀ":7963,"à¸²à¸§à¸Īà¸£":7964,"à¸ļà¹ĥà¸«à¸¡":7965,"Ġ47":7966,"iq":7967,"min":7968,"Ġà¸ªà¹Ĥà¸¡à¸ªà¸£":7969,"à¸ŀà¸ģ":7970,"Ġà¸Ľà¸£à¸°à¸ªà¸ļà¸ģà¸²à¸£à¸ĵ":7971,"Ġpark":7972,"à¹Ģà¸£à¸²à¹Ģà¸Ńà¸ĩ":7973,"à¹Ģà¸Ńà¸²à¸ľ":7974,"Ġà¸ļà¸§à¸ģà¸ģ":7975,"à¸¥à¸²à¸¡":7976,"à¸²à¹ĥà¸Īà¹Ħà¸Ķ":7977,"à¸Ķà¸Ĥà¸§à¸²à¸ĩ":7978,"Ġcap":7979,"à¹Ģà¸Ĭà¸ªà¹Ģà¸ķà¸Ńà¸£":7980,"à¸²à¹ĥà¸Īà¸Ķ":7981,"à¸²à¸ķà¸²à¸¡à¸Ĺ":7982,"à¸²à¸ĩà¹Ģà¸«":7983,"à¹ĥà¸Īà¹Ħà¸¡":7984,"à¸«à¸¡à¸§à¸ģ":7985,"à¸ĩà¹Ħà¸ĩà¸ĸ":7986,"à¸ķà¸²à¸¡à¸Ħ":7987,"à¸Ńà¸²à¸ļà¸Ļ":7988,"Ġà¸Īà¸°à¸Ļ":7989,"à¸Ńà¸²à¸įà¸²":7990,"Ġsec":7991,"à¸²à¸¡à¸«à¸²à¸¥":7992,"Ġmini":7993,"Ġsol":7994,"à¸Ńà¸ªà¸Ļ":7995,"ages":7996,"Ġà¹Ħà¸Ľà¸ķ":7997,"à¸Ļà¸Ħà¸Ļà¸Ĭà¸Ńà¸ļ":7998,"uch":7999,"à¸Ńà¸Ńà¸ģà¸ķ":8000,"à¸²à¹Ģà¸£à¸²à¸Ĭà¸Ńà¸ļ":8001,"à¸²à¸ªà¸²à¹Ģà¸«à¸ķ":8002,"à¸ļà¸£à¸£à¸¥":8003,"à¸ĵà¸Ķ":8004,"Ġcomp":8005,"à¸ĩà¹Ģà¸Ńà¸ĩ":8006,"à¸Ļà¹Ħà¸Ľà¸ĸ":8007,"à¸ĩà¸ģà¸²à¸£à¸Ĺ":8008,"5555555":8009,"à¸¡à¸°à¹Ģà¸£":8010,"Ġclass":8011,"à¸ĩà¸£à¸ĸà¹Ħà¸Ł":8012,"à¸¢à¹Ģà¸¥à¸¢":8013,"à¸ľà¸¡à¸ģà¸¥":8014,"à¸Ńà¸ģà¸²à¸£à¸£":8015,"à¸Ńà¸²à¸Īà¹Ģà¸Ľ":8016,"à¸Īà¸ģà¸£à¸£à¸¡à¸Ĺ":8017,"à¸Ķà¸Ńà¸°à¹Ħà¸£à¸ģ":8018,"à¹Ģà¸£à¸¢":8019,"Ġsun":8020,"à¹Ħà¸Ľà¹Ģà¸Ķ":8021,"online":8022,"ons":8023,"Ġà¹ģà¸ĸà¸§":8024,"à¸¢à¸ľ":8025,"Ġà¹Ģà¸ªà¸²à¸£":8026,"Ġbangkok":8027,"à¸¢à¸§à¹Ģà¸¥à¸¢":8028,"à¸Ĺà¸Ńà¸Ķ":8029,"à¸ĩà¹Ĩà¹ģà¸¥":8030,"à¸§à¸¢à¹Ģà¸¥à¸¢":8031,"era":8032,"ðŁĴĽ":8033,"à¹ģà¸§à¸§":8034,"à¸ªà¸Ńà¸ļà¹Ģà¸Ĥ":8035,"à¸ĩà¹Ĩà¸Ħ":8036,"à¸²à¸Ħà¸§à¸²à¸¡à¸ª":8037,"à¸²à¸Īà¸²à¸£à¸¢":8038,"à¸²à¸ı":8039,"à¸Ļà¹Ĥà¸ĭ":8040,"Ġà¸ģà¸²à¸£à¸ŀ":8041,"à¸²à¹Ģà¸Ĥà¸²à¸¡":8042,"à¸ģà¸²à¸£à¹ģà¸ŀà¸£":8043,"à¸Ļà¹ĥà¸Ļà¸Ľ":8044,"à¸²à¸§à¸ľ":8045,"kapook":8046,"springnews":8047,"sk":8048,"Ġgold":8049,"à¸²à¸Ļà¸§à¸Ļà¹Ģà¸ĩ":8050,"à¸Ńà¸ĩà¸£à¸²à¸§à¸Ĺ":8051,"ðŁĴķðŁĴķ":8052,"à¹Ĥà¸Ķà¸¢à¸£à¸§à¸¡":8053,"à¸²à¹Ħà¸Ľà¹Ģà¸£":8054,"à¹ĥà¸ļà¸Ļ":8055,"pm":8056,"Ġà¸Ĺà¸Ńà¸ĩ":8057,"à¹ĥà¸Ļà¹Ģà¸Ĥà¸ķ":8058,"0000":8059,"à¸Ńà¸Ńà¸²à¸«à¸²à¸£":8060,"à¸ĩà¸łà¸²à¸¢à¹ĥà¸Ļ":8061,"à¸¢à¸Ļà¸¢":8062,"à¸Ļà¸Ľà¸£à¸°à¹Ģà¸Ķ":8063,"à¸ĩà¸ģà¸²à¸£à¹ĥà¸«":8064,"Ġà¸Īà¸°à¸ŀ":8065,"à¸ªà¸Ħ":8066,"================":8067,"à¸ģà¹Ģà¸ªà¸ļ":8068,"Ġcode":8069,"arin":8070,"tain":8071,"à¸Ļà¸¥à¸ĩà¸Ĺ":8072,"à¸²à¹Ĥà¸¡":8073,"à¸Ļà¹Ģà¸¢à¸Ńà¸°à¸¡à¸²à¸ģ":8074,"à¸ģà¸łà¸²à¸Ħ":8075,"à¸ļà¹Ĥ":8076,"new":8077,"à¸Ļà¹Ģà¸§à¸Ĺ":8078,"à¸ªà¸Ń":8079,"à¸Ļà¸Ķà¸²":8080,"Ġ2013":8081,"à¸§à¹ĥà¸ª":8082,"à¸Ńà¸Ļà¸¡à¸²":8083,"Ġà¸ģà¸²à¸£à¸Ķ":8084,"à¸«à¸¥à¸²à¸¢à¸£à¸Ńà¸ļ":8085,"à¸Ļà¹ĥà¸Ļà¸ª":8086,"à¸ĩà¸¡à¸²à¸ģà¸ģà¸§":8087,"à¸²à¸ģà¸²à¸£à¸ª":8088,"à¸²à¸łà¸²à¸¢à¹ĥà¸Ļ":8089,"à¸£à¸ĸà¸Ħ":8090,"à¸Ńà¸¢à¸Ľ":8091,"à¸²à¸«à¸£à¸Ńà¸ģ":8092,"à¹Ģà¸Ĥà¸²à¸Ń":8093,"à¸²à¸Ļà¸Ļà¸Ńà¸ģ":8094,"à¸Ńà¹Ħà¸Ľà¸ĸ":8095,"à¸ĩà¸¡à¸²à¸£":8096,"fin":8097,"à¸²à¹Ħà¸Ľà¸Ńà¸¢":8098,"Ġà¸Īà¸Ńà¸Ķ":8099,"à¸Ńà¸¡à¸Ĭ":8100,"à¸Ħà¸¥à¸²à¸ª":8101,"Ġà¹Ĥà¸Ļ":8102,"aster":8103,"Ġà¹Ħà¸Ľà¸£":8104,"à¸Ńà¸°à¹Ħà¸£à¸Ħà¸°":8105,"à¸ģà¸²à¸£à¸Łà¸£":8106,"à¸²à¸Ħà¸§à¸²à¸¡à¹Ģà¸Ĥ":8107,"Ġà¸Ńà¸¢à¸²à¸ģà¹Ģà¸£":8108,"à¸¡à¸²à¸Ħà¸£":8109,"Ġà¸Īà¸°à¸Ī":8110,"à¸Ńà¸¢à¸ģà¸¥":8111,"à¸«à¸¥à¸²à¸¢à¸£":8112,"à¸ļà¸¡à¸²à¸ļ":8113,"à¸¥à¹Ģà¸ģ":8114,"ner":8115,"à¹Ģà¸£à¸²à¸ĭ":8116,"Ġà¹Ģà¸īà¸ŀà¸²à¸°":8117,"à¸ģà¹Ģà¸ķà¸°à¸Ĺ":8118,"Ġà¸ļà¸²à¸Ĺà¸Ħ":8119,"à¸Ńà¸¡à¹Ħà¸¡":8120,"Ġà¹Ģà¸Īà¸£":8121,"à¸²à¹ģà¸£à¸ģ":8122,"à¹ģà¸ŀà¸Ĺ":8123,"à¸łà¸²à¸ŀà¸Ļ":8124,"à¸²à¸ĩà¹Ģà¸Ĺ":8125,"à¸ļà¸Īà¸²à¸ģà¸Ħà¸Ļà¸£":8126,"do":8127,"à¹Ĥà¸Ĥà¸Ĺ":8128,"à¸Ńà¹ģà¸Ļà¸°à¸Ļ":8129,"ift":8130,"Ġfree":8131,"à¸¡à¸«à¸²à¸ģ":8132,"Ġ()":8133,"Ġ46":8134,"à¸¢à¸ĩà¸ľ":8135,"à¹ģà¸ī":8136,"ĠâĿ¤ï¸ı":8137,"à¸Ĥà¸Ńà¹Ģà¸Ľ":8138,"à¸ģà¸²à¸£à¹ģà¸ŀà¸Ĺà¸¢":8139,"à¸§à¸Ļà¹Ĩ":8140,"à¸ªà¸¡à¸£à¸ª":8141,"à¸Ħà¸Ļà¹Ģà¸Ľ":8142,"à¸Ĭà¸²à¸¢à¸ģ":8143,"à¹Ģà¸Ļà¸ķ":8144,"Ġsr":8145,"Ġ43":8146,"à¸¢à¸ĭ":8147,"Ġ99":8148,"à¸²à¸ľà¸¡à¸ģ":8149,"à¸²à¸ĩà¸²à¸Ļà¸«à¸Ļ":8150,"thair":8151,"à¸ľà¸¡à¹Ħà¸Ľ":8152,"à¸²à¸Ļà¸Ķà¸Ńà¸¥à¸¥à¸²à¸£":8153,"Ġà¸¢à¸²à¸ģ":8154,"à¸Ńà¸¥à¸ĩ":8155,"Ġà¸Ĺà¸²à¸ĩà¸Ĭ":8156,"à¸ľà¸¡à¸«à¸Ļ":8157,"à¸Ķà¹ģà¸ģ":8158,"à¸¢à¸ĩà¹Ħà¸Ķ":8159,"à¸Ńà¸Ńà¸ģà¸Ĺ":8160,"à¸¡à¸²à¸Ļà¸²à¸Ļà¹ģà¸¥":8161,"à¸ĩà¹ĥà¸Ļà¸ģà¸²à¸£":8162,"à¸²à¸Ĥà¸Ńà¸ĩà¸ķ":8163,"à¸Ńà¸Ńà¸£":8164,"à¸Ķà¸Ľà¸¥":8165,"Ġà¹Ģà¸Ńà¸²à¸¡":8166,"à¸§à¹Ģà¸«à¸¥":8167,"Ġmarket":8168,"à¸§à¸ĩà¸Ķ":8169,"à¸ģà¸Ħà¸Ļà¸£":8170,"Ġà¸Ļà¸²à¸¢à¸ªà¸¡":8171,"Ġà¹Ģà¸Ĥà¸²à¸Ĺ":8172,"à¸«à¸¡à¸Ķà¸Ńà¸²à¸¢":8173,"Ġà¸Ńà¸¢à¸²à¸ģà¹Ģà¸Ľ":8174,"Ġjapan":8175,"à¸ŀà¹Ģà¸£":8176,"à¸²à¹Ħà¸Ľà¸Ĭ":8177,"Ġà¸ªà¸¡à¸¡":8178,"à¹Ģà¸£à¸²à¹Ģà¸Ķ":8179,"Ġà¹Ģà¸ŀà¸£à¸²à¸°à¸ģ":8180,"à¸¥à¸²à¸Ķà¸ŀà¸£":8181,"Ġà¹ģà¸Ĺà¸Ļà¸Ĺ":8182,"à¸Ńà¹Ģà¸ķà¸£":8183,"à¸«à¸¥à¸²à¸¢à¸ª":8184,"à¸²à¸¡à¸¡":8185,"à¸²à¸Ľà¸£à¸°à¹Ģà¸Ĺà¸¨à¹Ħà¸Ĺà¸¢":8186,"à¸Ķà¸ŀà¸£":8187,"à¹Ĥà¸¢à¸Ĭà¸Ļ":8188,"Ġà¹ģà¸Ĭà¸¡à¸Ľ":8189,"à¸ŀà¸£à¸£à¸ĵà¸ļ":8190,"Ġà¹ģà¸¡à¸Ļà¸¯":8191,"Ġà¸ªà¸¢à¸²à¸¡":8192,"à¸¢à¸Ńà¸Ķà¸Ĥà¸²à¸¢":8193,"à¸ľà¸¡à¹Ģà¸¥à¸¢":8194,"à¸ĩà¹Ģà¸¥à¸¢à¸Ħ":8195,"Ġbook":8196,"à¸Ħà¸£à¸ļà¸Ĺ":8197,"à¸µà¹ī...":8198,"à¸²à¸¢à¸Ħà¸¥":8199,"à¸²à¸ĺà¸²à¸£à¸ĵà¸°":8200,"à¸Īà¸°à¹ģà¸ģ":8201,"à¸Ļà¸²à¸Ļà¸²à¸Ĭà¸²à¸ķ":8202,"à¹Ģà¸Ħà¸¢à¸ª":8203,"à¹Ģà¸§à¸¥à¸²à¸Ħ":8204,"à¸Ńà¸Ļà¸Īà¸°à¸¡":8205,"à¸Ńà¹Ģà¸ļ":8206,"à¸ļà¹Ģà¸ķ":8207,"Ġwhite":8208,"à¸Ħà¸£à¸Ńà¸ļà¸Ħà¸¥":8209,"Ġà¹Ģà¸¡à¸¢":8210,"¹ĵ":8211,"à¹ĵ":8212,"à¸Ļà¹Ĥà¸Ħ":8213,"à¸łà¸²à¸§":8214,"à¸§à¹Ģà¸Ńà¸ĩà¸Ńà¸¢":8215,"comment":8216,"à¹ĥà¸ļà¸Ĥ":8217,"à¸Ĥà¸Ńà¸ĩà¹Ģà¸ŀ":8218,"Ġà¸ŀà¸£à¸°à¸£à¸²à¸Ĭ":8219,"à¸¡à¸«à¸¡":8220,"à¸²à¸¢à¹Ģà¸ģ":8221,"à¸ĩà¹ģà¸ļà¸ļà¸Ļ":8222,"Ġà¸Ħà¸Ļà¸ģ":8223,"à¹Ħà¸«à¸¡à¸§":8224,"à¸²à¸¢à¸²à¸§":8225,"à¸²à¹Ħà¸Ľà¹Ģà¸Ĺ":8226,"à¸µ...":8227,"à¸Ļà¸¡à¸²à¸¡":8228,"à¹ģà¸¥à¸°à¸ļ":8229,"à¸Ńà¸¡à¹Ħà¸Ķ":8230,"à¸²à¸ĩà¸£à¸²à¸¢à¹Ħà¸Ķ":8231,"Ġà¸ªà¸¡à¸²à¸Ħà¸¡":8232,"ague":8233,"Ġà¸ľà¸¡à¸Ħà¸§à¸£à¸Ĺ":8234,"Ġà¸Ĭà¸²à¸ķ":8235,"à¸ļà¹Ħà¸Ľà¹ģà¸¥":8236,"à¸ªà¸²à¸§à¹Ĩ":8237,"Ġà¹Ģà¸ŀà¸Ī":8238,"à¸Ńà¸Ļà¸Īà¸²à¸ģ":8239,"à¸Ļà¹ĥà¸Ļà¸ŀ":8240,"à¸ľà¸¡à¸Ĭà¸Ńà¸ļ":8241,"à¸²à¸£à¸²à¸¢à¹Ħà¸Ķ":8242,"à¹Ĥà¸Ĺà¸£à¹Ģà¸Ĥ":8243,"Ġà¸ªà¸²à¸¡à¸²à¸£à¸ĸà¸Ĺ":8244,"à¸Ńà¸¢à¹Ģà¸Ń":8245,"à¸Ľà¸£à¸°à¸¡à¸§à¸¥":8246,"à¸Ńà¸°à¹Ħà¸«à¸¥":8247,"Ġà¹Ħà¸ģ":8248,"1000":8249,"Ġà¹Ģà¸ŀà¸£à¸²à¸°à¹Ģà¸Ħ":8250,"à¸ľà¸¥à¸Ķ":8251,"à¸Ńà¸ĩà¸Ľà¸¥":8252,"à¸¢à¸ĩà¸Ī":8253,"à¸ĩà¹Ĥà¸£à¸ĩà¸ŀà¸¢à¸²à¸ļà¸²à¸¥":8254,"à¸Ļà¹Ģà¸Ł":8255,"ðŁĴĹðŁĴĹ":8256,"à¸Ħà¸Ńà¸£":8257,"à¸Ľà¸¥à¸ĩ":8258,"à¹Ģà¸Ńà¸Ń":8259,"Ġà¸Ħà¸Ńà¸£":8260,"à¹Ħà¸£à¸ĩ":8261,"Ġà¸Ħà¸Ļà¸¥à¸°":8262,"à¸ģà¸§à¸²à¸Ķ":8263,"à¹ĥà¸ļà¹Ģà¸ªà¸£":8264,"à¸«à¸²à¸£à¸²à¸Ĭ":8265,"à¹ģà¸¥à¸ģ":8266,"à¸«à¸¥à¸²à¸ļ":8267,"Ġen":8268,"à¸ĩà¸£à¸§à¸¡":8269,"à¸ļà¸ģà¸²à¸£à¸Ī":8270,"ier":8271,"à¸«à¸²à¹Ħà¸¡":8272,"à¸²à¸§à¹Ģà¸Ĺ":8273,"à¸ªà¸²à¸£à¸ŀ":8274,"à¹ģà¸ľà¸Ļà¸ģà¸²à¸£":8275,"à¸Ĵà¸Ļà¸²à¸ķ":8276,"à¸įà¹ĥà¸«":8277,"à¸Ķà¸®":8278,"à¸§à¸Ļà¸Ī":8279,"à¹Ģà¸¢à¸²à¸§à¸Ĭ":8280,"à¸ĩà¸Īà¸°à¸Ķ":8281,"à¸ģà¹Ģà¸Ĥà¸²":8282,"à¹ģà¸¡à¸Ļà¸ķ":8283,"à¹Ģà¸¡à¸Ĩ":8284,"à¸Ľà¸£à¸°à¸Ĭà¸²à¸Ĭà¸²à¸ķ":8285,"à¸įà¸²à¸ģà¸£à¸£à¸¡":8286,"Ġà¸Ķà¸Ńà¸¥à¸¥à¸²à¸£":8287,"à¸ĩà¸Ħà¸¡à¸Ĺ":8288,"à¸Ħà¸²à¸¢":8289,"à¸ļà¹ģ":8290,"Ġà¸ļà¸²à¸ĩà¸Ħà¸Ļà¸ģ":8291,"à¸ŀà¸į":8292,"à¹Ĥà¸Ķà¸¢à¹Ģà¸£":8293,"à¸§à¹Ģà¸ŀà¸£à¸²à¸°":8294,"à¸²à¸§à¸Ńà¸¢":8295,"53":8296,"à¸§à¸Ļà¸ģà¸¥":8297,"à¸§à¸¢à¸Ńà¸£":8298,"à¸ģà¸©à¸²à¸ģà¸²à¸£":8299,"à¸ģà¸©à¸²à¸¡":8300,"à¸ŀà¸Ńà¹ģà¸¥":8301,"à¸²à¹Ģà¸ķà¸Ńà¸£":8302,"à¸ģà¸Ĺà¸£à¸Ńà¸Ļ":8303,"à¹ĥà¸Ħà¸£à¸ª":8304,"Ġbar":8305,"à¹Ģà¸¡à¸ķà¸ķ":8306,"à¹Ģà¸§à¸¥à¸²à¸Ńà¸¢":8307,"Ġà¹Ģà¸Ńà¸²à¹Ģà¸Ľ":8308,"à¹ī...":8309,"à¸Ńà¸ŀà¸£":8310,"à¸Ķà¸Ħà¸§à¸²à¸¡à¸£":8311,"Ġvia":8312,"à¸ĵà¸«à¸į":8313,"Ġà¸ľà¸¡à¹Ģà¸£":8314,"à¹Ģà¸Ķà¸Ĭà¸Ļ":8315,"Ġà¸ŀà¸ļà¸ģ":8316,"à¸Ńà¸ªà¸ķ":8317,"à¸£à¸§à¸ļà¸£à¸§à¸¡":8318,"Ġà¹Ģà¸£à¸²à¹Ģà¸Ĥ":8319,"Ġà¸¡à¸Ńà¸ĩ":8320,"à¸ĩà¸ªà¸§à¸¢":8321,"à¸¡à¸Ħà¸£à¸Ńà¸ĩ":8322,"à¸Ļà¹ĥà¸ģà¸¥":8323,"à¸ģà¸Ļà¸²à¸Ļ":8324,"à¸Ĺà¸²à¸ĩà¹Ģà¸ŀà¸¨":8325,"à¸§à¹Ĥà¸Ķ":8326,"à¸²à¸¡à¸ķ":8327,"à¸£à¸°à¸¢à¸°à¸Ĺà¸²à¸ĩ":8328,"à¸¢à¹ĥà¸Īà¸¡à¸²à¸ģ":8329,"à¸Ļà¸¨à¸²à¸¥":8330,"Ġà¹Ģà¸Ńà¸²":8331,"Ġà¹Ħà¸Ľà¸ĸ":8332,"à¸Ļà¸Ńà¸¥":8333,"à¸Ńà¸ŀà¸£à¸°":8334,"à¸Ńà¸¡à¸Ľ":8335,"Ġ52":8336,"Ġà¸ľà¸¡à¸Īà¸°":8337,"à¸Ńà¸Ļà¹ĥà¸Ĭ":8338,"à¸ĺà¸Ļà¸ļ":8339,"Ġà¹ģà¸¡à¸Ļà¹Ģà¸Ĭà¸ªà¹Ģà¸ķà¸Ńà¸£":8340,"à¹ĥà¸Ķà¸ģ":8341,"Ġhotel":8342,"Ġà¹Ģà¸§à¸Ńà¸£":8343,"à¸Ļà¸Ħà¸£à¸Ńà¸ļà¸Ħà¸£":8344,"ichon":8345,"à¹Ģà¸§à¸¥à¸²à¸ª":8346,"à¸ŀà¸£à¸°à¸£à¸²à¸Ĭà¸ŀ":8347,"à¸ļà¸ŀà¸£":8348,"à¸Ļà¸Ĥà¸²à¸Ķ":8349,"à¸įà¸«à¸²à¸¡":8350,"Ġrout":8351,"à¸²à¹Ģà¸Ĥà¸²à¸ģ":8352,"Ġà¸ŀà¸Ħ":8353,"à¸¢à¸ļà¸ª":8354,"à¹ģà¸Ĺà¸ļà¸Ĺ":8355,"Ġà¸ľà¸¥à¸ĩà¸²à¸Ļ":8356,"Ġpost":8357,"à¸¢à¸¡à¸Ħà¸§à¸²à¸¡à¸ŀà¸£":8358,"à¸ķà¸¢à¸ªà¸²à¸£":8359,"ship":8360,"à¸§à¸²à¸Ļ":8361,"Ġà¸¡à¸²à¸Ļ":8362,"Ġbo":8363,"à¸ķà¸Ńà¸²à¸ª":8364,"à¹Ģà¹Ģà¸ļà¸ļ":8365,"google":8366,"à¸Ħà¸§à¸²à¸¡à¸Ĺà¸£à¸ĩà¸Ī":8367,"à¹ģà¸Łà¸Ļà¹ĥà¸«à¸¡":8368,"Ġà¸£à¸Ńà¸ĩà¸£":8369,"à¸ªà¸£à¸£à¸ŀà¸ª":8370,"à¸ĵà¸¡à¸²à¸ģà¹Ĩ":8371,"à¸²à¸ĩà¸¥à¸°à¹Ģà¸Ń":8372,"à¸Ķà¸²à¸£à¸²":8373,"à¸§à¸¡à¸ª":8374,"à¸ĸà¸²à¸¡à¸Ĺ":8375,"à¹Ģà¸§à¸¥à¸²à¸ľ":8376,"à¸ĵà¸¢à¸²à¸¢":8377,"à¸²à¸Ļà¸§à¸Ļà¸ľ":8378,"ðŁĺĤðŁĺĤ":8379,"à¸§à¸Ł":8380,"à¸§à¸ĩà¸Ĭ":8381,"à¸Ĭà¸£à¸²à¸ł":8382,"à¸Ļà¸ªà¸ĸà¸²à¸Ļà¸Ĺ":8383,"à¸ªà¸Ńà¸ĩà¸Ħà¸Ļ":8384,"Ġà¹Ģà¸īà¸¥":8385,"à¸ªà¸Ľà¸Ńà¸£":8386,"fb":8387,"à¸ļà¸£à¸°à¸ļà¸ļ":8388,"à¸§à¸Ķà¸Ĺ":8389,"à¸ģà¸²à¸£à¹Ģà¸ŀ":8390,"Ġà¸Ļà¸²à¸¢à¸Ī":8391,"à¸¥à¸Ńà¸Ķà¸ł":8392,"à¸§à¸Ľà¸¥":8393,"à¸Ļà¸Ļà¸Ļ":8394,"à¸§à¸¢à¹Ħà¸Ĺà¸¢":8395,"à¹Ģà¸Ĥà¸²à¹Ģà¸£":8396,"osition":8397,"à¸§à¹ģà¸ļà¸ļà¸Ļ":8398,"Ġà¸Ļà¸²à¸¡":8399,"à¸¢à¸¡à¸ŀà¸£":8400,"à¸Ķà¹Ģà¸ŀà¸£à¸²à¸°":8401,"Ġà¹Ģà¸¥à¸¢à¸Ńà¸¢à¸²à¸ģà¸Ĺà¸£à¸²à¸ļà¸§":8402,"Ġcollection":8403,"à¸ļà¸Ńà¸ģà¹Ħà¸Ķ":8404,"Ġusb":8405,"ote":8406,"à¸Ńà¸Ļà¸ł":8407,"à¸Ńà¸Ńà¸Ł":8408,"à¹ģà¸Ļà¸§à¸£":8409,"à¸ļà¹Ħà¸Ľà¸Ķ":8410,"Ġfe":8411,"Ġgood":8412,"Ġtour":8413,"Ġà¸Ĥà¸§à¸Ķ":8414,"Ġà¸¢à¸ģà¸ķ":8415,"à¸Ĳà¸ļà¸²à¸¥à¸Ĺ":8416,"à¸§à¸Ķà¸¡à¸Ļà¸ķ":8417,"Ġà¹Ģà¸£à¸²à¸ŀà¸¢à¸²à¸¢à¸²à¸¡":8418,"à¸²à¸¡à¸²à¸Ńà¸¢":8419,"à¸Ķà¸£à¸°à¹Ģà¸ļ":8420,"à¸Ħà¸£à¸¡":8421,"à¸ĩà¹ĥà¸Ļà¸Ļ":8422,"à¸Ńà¸ļà¸Ļ":8423,"à¸ļà¸Ħà¸Ķ":8424,"à¹Ģà¸Ħà¸¢à¸ģ":8425,"Ġpack":8426,"à¸¡à¸²à¹ģà¸ķ":8427,"Ġok":8428,"Ġà¹ģà¸Ĭà¸¡à¹Ģà¸Ľ":8429,"Ġà¹ģà¸¥à¸°à¹Ģà¸Ĥ":8430,"à¸¡à¸¡à¸²à¸ģà¸Ĥ":8431,"à¸²à¸ķà¸Ńà¸ļà¸Ħ":8432,"Ġà¹Ģà¸£à¸²à¹Ģà¸«":8433,"other":8434,"à¸ķà¹ĥà¸Ļ":8435,"à¸Ńà¸Ļà¸ķà¸Ńà¸Ļ":8436,"Ġà¹Ģà¸Ńà¸ģà¸ªà¸²à¸£":8437,"76":8438,"à¸Ńà¸Ļà¹Ģà¸¡à¸©":8439,"à¸ĵà¸Ī":8440,"Ġà¸¤à¸Ķ":8441,"ðŁİī":8442,"à¸¥à¹Ģà¸¥à¸Ńà¸£":8443,"à¸§à¸Ļà¹ĥà¸«":8444,"à¸Ĥà¸Ńà¸ĩà¹Ģà¸ĺà¸Ń":8445,"ðŁĳĻ":8446,"à¸ŀà¸²à¸Ĺ":8447,"à¸ļà¸Ħà¸§à¸²à¸¡à¸Ļ":8448,"à¸²à¸ģà¸£à¸°à¹Ģà¸Ľ":8449,"à¸įà¸«à¸²à¸Ķ":8450,"load":8451,"à¸²à¹Ĥà¸£à¸ĩà¹Ģà¸£":8452,"à¸Ļà¸ķà¸Ļà¸²à¸ģà¸²à¸£":8453,"à¸ķà¸ķà¸²à¸Ļ":8454,"à¸ļà¸ŀà¸£à¸°":8455,"cd":8456,"à¸Ĥà¸Ńà¸ĩà¸Ļà¸²à¸¢":8457,"à¹Ĥà¸ŀà¸ģ":8458,"à¸¢à¸ĩà¹ĥà¸«":8459,"Ġà¸ĺà¸Ļ":8460,"à¸Ńà¸Ħà¸ķ":8461,"à¸įà¸įà¸²à¸ķà¸£":8462,"¹Ķ":8463,"à¸Ļà¸Łà¸£":8464,"à¹Ĥà¸Ķà¸¢à¸ª":8465,"####":8466,"à¸Ķà¸ķà¸£":8467,"à¹Ģà¸§à¸¥à¸²à¹Ħà¸¡":8468,"72":8469,"à¸Ļà¸«à¸į":8470,"Ġà¸Ħà¸Ńà¸Ļ":8471,"à¹ĥà¸Ħà¸£à¹Ħà¸¡":8472,"any":8473,"à¸²à¸Ńà¸²à¸ĩ":8474,"Ġà¸Ľà¸£à¸°à¸¡à¸²à¸ĵà¸§":8475,"à¸Ńà¸¢à¸«":8476,"à¸ĩà¹ĥà¸Ļà¸§":8477,"Ġste":8478,"à¹ģà¸¥à¸ģà¹Ģà¸Ľà¸¥":8479,"à¸ģà¸²à¸£à¹ģà¸Ī":8480,"à¸²à¹Ħà¸Łà¸Ł":8481,"à¸¡à¸²à¸ģà¹Ģà¸ģ":8482,"à¸²à¸¢à¹Ģà¸¥à¸¢":8483,"à¸įà¸Īà¸£":8484,"à¹ĥà¸Ļà¸ļà¸£":8485,"Ġà¹Ģà¸§à¸¥à¸²à¸Ļ":8486,"à¸¢à¸§à¹Ģà¸Ĺ":8487,"à¸¢à¸²à¸§à¸Ļà¸²à¸Ļ":8488,"oot":8489,"à¸Ļà¸ķà¸Ńà¸Ļà¸Ĺ":8490,"à¸Ńà¸Ńà¸¡":8491,"Ġif":8492,"à¸Ńà¸¢à¸ĭ":8493,"à¸²à¸ķà¸²à¸ģ":8494,"à¹Ħà¸Łà¸Ĺ":8495,"à¸ģà¸²à¸£à¸ķà¸£à¸§à¸Īà¸ªà¸Ńà¸ļ":8496,"Ġà¸Łà¸Ńà¸£":8497,"à¹Ķ":8498,"à¸Ľà¸£à¸°à¸Ħ":8499,"à¸Ķà¸¥à¸°":8500,"à¸Īà¸°à¸Ľà¸£":8501,"à¸Ńà¸ĩà¸£à¸°à¸§":8502,"à¹Ĥà¸Ħà¸Ļ":8503,"à¸Ńà¸²à¸Īà¸Īà¸°à¹Ģà¸Ľ":8504,"mon":8505,"ley":8506,"à¹Ģà¸ķà¸¢":8507,"à¹Ģà¸§à¸¥à¸²à¸Ń":8508,"à¸Ńà¸Ļà¹ģà¸¡":8509,"à¸ªà¸¥à¸²à¸¡":8510,"ney":8511,"à¸Ĥà¸Ńà¸ĩà¸ģà¸¥":8512,"Ġgirl":8513,"à¸ģà¹Ģà¸ģà¸ĵà¸ĳ":8514,"à¸ĩà¸Ĭà¸Ļà¸°à¹Ģà¸¥":8515,"à¸Īà¸²à¸ģà¸ģ":8516,"à¸łà¸²à¸ľ":8517,"pn":8518,"Ġà¹ģà¸¥à¸°à¹Ģà¸£à¸²à¸ģ":8519,"Ġface":8520,"à¸Ńà¸Ńà¸ģà¸Ńà¸²à¸ģà¸²à¸¨":8521,"à¸ļà¸ģà¸£":8522,"à¹ģà¸Ĺà¸Ļà¸Ĺ":8523,"à¸ĩà¹Ħà¸ĩà¹Ħà¸¡":8524,"à¸²à¸¢à¹ģà¸¥à¸°":8525,"ange":8526,"à¸ģà¸©à¸²à¸§":8527,"à¸²à¹ĥà¸Īà¸Ħ":8528,"à¹Ģà¸Īà¸Ńà¸Ħ":8529,"à¸Ľà¸£à¸°à¹Ģà¸Ĺà¸¨à¸Ī":8530,"der":8531,"à¸Ħà¸§à¸²à¸¡à¸Ĥ":8532,"à¸¢à¸§à¸°":8533,"à¸²à¹ģà¸ĭ":8534,"à¸Ńà¸Ńà¸ªà¹Ģà¸ķà¸£à¹Ģà¸¥":8535,"à¸ĩà¸Ńà¸Ļ":8536,"à¹Ģà¸¢à¸Ńà¸°à¹Ĩ":8537,"Ġà¹Ĥà¸Ķà¸¢à¸ģ":8538,"Ġà¸¥à¸Ńà¸ĩà¸Ķ":8539,"Ġà¸ĺà¸£à¸£à¸¡":8540,"98":8541,"Ġà¸ļà¸²à¸ĩà¸§":8542,"à¸Ķà¹Ģà¸Īà¸Ļà¸§":8543,"Ġà¸Īà¸²à¸ģà¹Ģà¸Ķ":8544,"à¸Ńà¸ĩà¸Īà¸²à¸ģà¹Ģà¸Ľ":8545,"à¸²à¸Ļà¸Ľà¸Ńà¸Ļà¸Ķ":8546,"à¸ļà¸²à¸Ķ":8547,"à¸²à¸Ļà¸ģà¸¥":8548,"à¸ŀà¸²à¸ª":8549,"à¸Ńà¸ĩà¸£à¸Ń":8550,"Ġà¸¨à¸ŀ":8551,"à¸ªà¸²à¸¡à¸²à¸£à¸ĸà¸Ī":8552,"à¸§à¸Ļà¸Ĭ":8553,"à¸ĩà¸Ħà¸ĩà¹Ģà¸Ľ":8554,"à¸Ļà¸Ĥà¸Ļà¸²à¸Ķà¸Ļ":8555,"à¸£à¸Ńà¸ĩ":8556,"^^":8557,"ement":8558,"à¹ĥà¸Ļà¸ģà¸²à¸£à¸ª":8559,"à¸ļà¹Ĥà¸Ĺà¸£à¸¨":8560,"Ġpremi":8561,"à¹Ģà¸¥à¸¢à¸¢":8562,"à¸²à¹Ĥà¸ģ":8563,"Ġbag":8564,"à¸ĵà¸łà¸²à¸ŀà¸Ķ":8565,"kyo":8566,"Ġà¸ªà¸°à¸Ķà¸§à¸ģ":8567,"à¹Ĥà¸«à¸¥à¸Ķà¹Ģà¸ŀ":8568,"à¸Ļà¸¥à¸¡":8569,"à¸¢à¸Ļà¸Ħà¸£":8570,"à¸Ļà¸Ķà¸²à¸£":8571,"à¸ªà¸²à¸Ĥà¸²":8572,"à¹ģà¸Īà¸ĩ":8573,"à¸Īà¸²à¸ģà¸Ħ":8574,"Ġà¸ľà¸¡à¸ª":8575,"Ġblock":8576,"à¸¢à¸Īà¸£":8577,"à¹Ģà¸¡à¸¢":8578,"à¹ĥà¸Ļà¸ªà¸¡":8579,"à¸§à¸¢à¸ļà¸Ńà¸ģà¸Ĺ":8580,"à¸ģà¹Ģà¸«":8581,"à¸²à¸¡à¸²à¸¢":8582,"à¸Ļà¹Ħà¸ª":8583,"à¸ĩà¹ģà¸Ļà¸§":8584,"Ġà¸Īà¸°à¸Ħ":8585,"à¹ģà¸Łà¸Ļà¹Ģà¸Ľ":8586,"à¹Ģà¸£à¸²à¸¡à¸²à¸ģ":8587,"à¸²à¹Ģà¸Ķà¸¥":8588,"à¹Ģà¸¥à¸¢à¸¥":8589,"à¹ģà¸Łà¸Ļà¸Ńà¸¢":8590,"à¸²à¸Ńà¸°à¹Ħà¸£à¸ļ":8591,"à¸ķà¸²à¸¡à¹ĥà¸Ī":8592,"ðŁĳĪ":8593,"à¸įà¸įà¸²à¸Ĺ":8594,"à¸ģà¸²à¸£à¹ģà¸ķ":8595,"à¸¢à¸Ļà¸łà¸²à¸©":8596,"Ġà¸£à¸Ńà¸ĩà¸Ļà¸²à¸¢à¸ģà¸£":8597,"à¸Ļà¸Ħà¸§à¸²à¸¡à¸ľ":8598,"Ġer":8599,"à¸Ļà¹ģà¸£à¸ģà¸Ĺ":8600,"Ġà¸ľà¸¡à¸Ĭà¸Ńà¸ļ":8601,"Ġà¸Ńà¸Ńà¸ģà¸ģ":8602,"Ġà¸ªà¸²à¸¡à¸²à¸£à¸ĸà¹ĥà¸Ĭ":8603,"à¸²à¸«à¸²à¸¢":8604,"à¹Ĥà¸ģà¸¥":8605,"à¹Ħà¸ģà¸£":8606,"ari":8607,"à¹Ģà¸£à¸ķà¸ķ":8608,"à¸²à¸£à¸§à¸Īà¹ģà¸«":8609,"nationtv":8610,"aby":8611,"à¸²à¸Ļà¸Ńà¸ĩà¸Ļ":8612,"à¸«à¸²à¸Ķà¹ĥà¸«à¸į":8613,"à¸Ĺà¹Ĥà¸Łà¸Ļ":8614,"à¸£à¸©à¸°":8615,"à¸Ĵà¸Ļà¸°":8616,"à¹Ģà¹Ģà¸«":8617,"à¸ļà¸ķà¸Ńà¸Ļà¸Ļ":8618,"à¹Ĥà¸ĭà¸Ļ":8619,"à¸®à¸²à¸£":8620,"à¸Ĭà¸ģ":8621,"à¸Ńà¸ĸà¸²à¸¡":8622,"à¸Ńà¹Ĥà¸Ħà¸§":8623,"à¸¢à¸Ļà¸°":8624,"à¸¥à¸Ńà¸ĩà¹ĥà¸Ĭ":8625,"à¸ĩà¸Īà¸°à¸£":8626,"reet":8627,"à¸Īà¸²à¸ģà¸Ĭ":8628,"à¸Ńà¸Ńà¹Ģà¸Ķà¸Ńà¸£":8629,"à¸§à¸«à¸¡":8630,"à¹Ģà¸¨à¸©à¸Ĺ":8631,"à¸Ńà¸ĩà¸Ĺà¸²à¸ĩà¹ĥà¸Ļà¸ģà¸²à¸£à¸ķ":8632,"à¸ªà¸ªà¸²à¸§":8633,"à¸ļà¸¥à¸Ķ":8634,"à¸Ľà¸£à¸²à¸¢":8635,"Ġà¹Ģà¸ŀà¸£à¸²à¸°à¸ģà¸¥":8636,"à¸Ķà¸ªà¸¡":8637,"à¸²à¸¬à¸ª":8638,"à¸Ńà¸ĩà¸¡à¸²à¸Īà¸²à¸ģ":8639,"à¸ŀà¸£à¸¡":8640,"ative":8641,"à¹ģà¸Łà¸Ļà¹Ģà¸£à¸²":8642,"Ġsub":8643,"à¹Ģà¸Ńà¸²à¹Ģà¸£":8644,"à¸łà¸²à¸ŀà¸£à¸§à¸¡":8645,"à¹ģà¸ļà¸ļà¸ķ":8646,"à¸Ńà¸Ńà¸ģà¹Ģà¸Ķ":8647,"à¸¡à¸²à¸ģà¸ª":8648,"à¸ľà¸¡à¸ŀ":8649,"à¸Ĺà¸Ħ":8650,"à¹ģà¸ªà¸Ķà¸ĩà¹ĥà¸«":8651,"à¸ľà¸¡à¹Ģà¸«":8652,"Ġlike":8653,"à¸Ńà¸ĩà¹ģà¸Ī":8654,"à¸§à¸ķà¸Ńà¸Ļ":8655,"covid":8656,"à¸§à¸£à¸²à¸Ħ":8657,"à¸Ńà¸ļà¸ģ":8658,"à¹Ħà¸Ľà¸Ĺà¸²à¸ĩ":8659,"Ġ95":8660,"à¹Ħà¸Łà¹ģà¸Ļà¸Ļà¸ĭ":8661,"à¸Ļà¸¢à¸Ļà¸ķ":8662,"à¸§à¹Ģà¸£à¸²à¹Ģà¸Ńà¸ĩ":8663,"Ġà¹Ģà¸£à¸²à¸Ń":8664,"à¸§à¸¡à¸ĩà¸²à¸Ļà¸ģ":8665,"à¸´âĢĿ":8666,"Ķï¸ı":8667,"à¸Ļà¹Ģà¸Ńà¸ģà¸ªà¸²à¸£":8668,"à¸Ļà¸ªà¸ĸà¸²à¸Ļ":8669,"Ġà¸£à¸ĸà¸¢à¸Ļà¸ķ":8670,"à¹ģà¸¥à¸°à¸«":8671,"à¸ĩà¹ĥà¸Īà¸ģ":8672,"à¸²à¸łà¸£à¸ĵ":8673,"à¸ķà¸Łà¸Ńà¸£":8674,"Ġstr":8675,"à¹Ģà¸§à¸¥à¸²à¸Ļà¸²à¸Ļ":8676,"à¹Ģà¸Ħà¸¢à¸Ń":8677,"à¹Ĥà¸«à¸Ķ":8678,"à¸Ļà¸Ħà¸£à¸£à¸²à¸Ĭà¸ª":8679,"Ġpar":8680,"à¸Ĭà¸²à¸§à¹Ħà¸Ĺà¸¢":8681,"à¹Ģà¸¥à¸¢à¸«à¸£":8682,"Ġà¸Ħà¸§à¸ļà¸Ħ":8683,"à¸§à¸ļà¸Ńà¸ģ":8684,"thai":8685,"à¸²à¸Ħà¸Ļà¹Ģà¸Ķ":8686,"Ġà¹Ģà¸¨à¸£à¸©à¸Ĳà¸ģ":8687,"à¸§à¸¡à¸ŀ":8688,"à¸§à¹Ģà¸Ĥà¸²":8689,"à¸Ńà¸²à¸¥":8690,"à¹Ģà¸§à¸ĵà¸«à¸Ļ":8691,"à¸Ľà¸£à¸°à¸¡à¸²à¸ĵà¹Ģà¸Ĺ":8692,"à¸²à¸²à¸²à¸²à¸²":8693,"à¸Ķà¸Ľà¸£":8694,"à¸ĩà¸ķà¸Ńà¸ļà¹ģà¸Ĺà¸Ļ":8695,"à¸²à¸ļà¸²à¸ĩ":8696,"à¸²à¹ģà¸ļà¸£à¸Ļà¸Ķ":8697,"à¸Ļà¸Ńà¸²à¸Ĭ":8698,"à¸¢à¸ł":8699,"Ġà¸Ńà¸²à¸Īà¸Īà¸°à¸¡":8700,"Ġà¸Ħà¸Ļà¸ª":8701,"Ġà¹Ģà¸¨à¸£":8702,"à¸Ńà¸¢à¹Ģà¸Ĭ":8703,"Ġà¸¡à¸²à¹ĥà¸Ĭ":8704,"à¸«à¸¥à¸²à¸¢à¹Ģà¸£":8705,"à¸Ħà¸ĩà¹Ģà¸Ľ":8706,"à¸Ĳà¸Ľà¸£à¸°à¸«à¸²à¸£":8707,"sup":8708,"à¸ŀà¸¢à¸ŀ":8709,"page":8710,"à¸Ļà¸Ĭà¸²à¸§":8711,"à¸ĩà¹ģà¸¢à¸ģ":8712,"à¸Ĥà¸łà¸²à¸ŀà¸Ķ":8713,"à¸Ľà¸¥à¸²":8714,"Ġà¸Ĺà¸£à¸²à¸ļ":8715,"à¹Ģà¸Ńà¸²à¸Ļ":8716,"Ġà¹Ģà¸Ńà¸Ń":8717,"à¸£à¸ĸà¹Ģà¸ģ":8718,"Ġkn":8719,"Ġà¹Ģà¸ŀà¸£à¸²à¸°à¸Ķ":8720,"à¹Ģà¸Ńà¸²à¹Ģà¸Ńà¸ĩ":8721,"à¸²à¸Ķà¸«à¸§":8722,"à¸²à¸Ľà¸£à¸°à¸ªà¸ļà¸ģà¸²à¸£à¸ĵ":8723,"à¸¢à¸§à¸ŀ":8724,"Ġ----------------------------------------------------------------":8725,"à¸Ńà¸Ħà¸§à¸²à¸¡à¸ª":8726,"à¸¢à¸ĩà¸ŀ":8727,"à¸Ĺà¸£à¸£à¸¨":8728,"à¸Īà¸°à¸Ĭà¸Ńà¸ļ":8729,"Ġà¸Ĥà¸Ńà¹Ģà¸Ľ":8730,"ica":8731,"à¸ģà¸©à¸²à¹ģà¸¥à¸°":8732,"Ġnation":8733,"à¹ĥà¸ļà¹Ħà¸¡":8734,"à¸Ńà¸Ļà¸ģà¸£":8735,"à¸ļà¸§à¸ģ":8736,"Ġ~":8737,"à¸Ńà¸ĩà¸¡à¸²à¸Ĺ":8738,"à¸ªà¸°à¹Ģà¸ģà¸©":8739,"à¸Ńà¸ĩà¸ī":8740,"Ġà¹Ĥà¸ģ":8741,"à¸Ľà¸¥à¸²à¸¢à¹Ģà¸Ķ":8742,"à¸¢à¸Ļà¸ļà¸Ĺ":8743,"à¸ķà¸¥à¸²à¸Ķà¸Ļ":8744,"à¸Ńà¸¢à¸²à¸ģà¸Ĺà¸£à¸²à¸ļ":8745,"à¸¢à¸ĺà¸£à¸£à¸¡":8746,"à¸ķà¸²à¸ģ":8747,"Ġnight":8748,"Ġà¸¡à¸Ńà¸ļ":8749,"Ġmargin":8750,"Ġà¸ŀà¸£à¸°à¸Ńà¸ĩà¸Ħ":8751,"à¸¡à¸²à¸Ŀà¸²à¸ģ":8752,"à¸Ńà¸ĩà¹ĥà¸Ī":8753,"à¸²à¸¡à¸ŀà¸¥à¸²à¸Ķ":8754,"à¸Ńà¸Ħà¸§à¸²à¸¡à¸§":8755,"à¸²à¸ľà¸¡à¹Ģà¸Ľ":8756,"à¸¥à¸ĩà¸Ļà¸²à¸¡":8757,"à¸ŀà¸£à¸£à¸Ħà¸Ľà¸£à¸°à¸Ĭà¸²à¸ĺ":8758,"Ġà¸ķà¸²à¸¢":8759,"Ġà¹ĥà¸Ļà¸ķ":8760,"Ġà¹Ħà¸Ľà¸«":8761,"à¸Ńà¸ĩà¹ģà¸Ħ":8762,"à¸Ńà¸ĩà¸«à¸²":8763,"à¸ĩà¸ĩà¸ĩ":8764,"à¹ģà¸ļà¸£":8765,"ĠðŁį":8766,"à¸§à¸¢à¸Ńà¸¢":8767,"à¸ļà¹ģà¸Ĥ":8768,"à¹Į...":8769,"à¸²à¸Ĭà¸¡":8770,"Ġà¹Ģà¸Ĥà¸²à¸¢":8771,"Ġà¸¡à¸²à¹ģà¸Ĭà¸£":8772,"à¸Ļà¸ģà¸²à¸£à¸Ķ":8773,"à¸²à¹Ģà¸¥à¸¢à¸Ħ":8774,"à¸ĩà¸¡à¸²à¹ĥà¸«":8775,"à¸²à¹Ħà¸Ľà¹Ħà¸Ķ":8776,"Ġà¹Ģà¸§à¸¥à¸²à¸¡":8777,"à¸Ħà¸²à¸¡":8778,"post":8779,"Ġsw":8780,"à¸Ńà¸ĩà¸Ľà¸£à¸°à¸Ķ":8781,"Ġà¹ĥà¸Ļà¸Ī":8782,"Ġà¸«à¸Ńà¸¡":8783,"ware":8784,"Ġà¹Ģà¸¥à¸Ĥà¸Ĺ":8785,"Ġpop":8786,"à¸Ħà¸Ńà¸¥":8787,"à¹Ħà¸Ľà¹Ģà¸Īà¸Ń":8788,"à¸²à¸ĩà¹Ģà¸£à¸²":8789,"à¸įà¸«à¸²à¸ķ":8790,"à¸ªà¸Ļà¸ĺ":8791,"à¸Ĥà¸²à¸¢à¸Ķ":8792,"à¹Ĥà¸¡à¸Ļ":8793,"à¸ģà¸ªà¸Ļà¸²à¸Ļ":8794,"Ġey":8795,"à¸Ķà¸ł":8796,"Ġot":8797,"à¹ĥà¸Ļà¸§à¸ĩ":8798,"à¸ģà¸£à¸ŀà¸£":8799,"à¸ĩà¸ģà¸°":8800,"à¸²à¸ģà¸²à¸£à¸£":8801,"à¸²à¹Ģà¸£à¸²à¸¢":8802,"à¸Ķà¸ªà¸£":8803,"à¸Ļà¹Ħà¸ģ":8804,"à¸Ńà¸¡à¸«à¸Ļ":8805,"à¸ªà¸ĩà¸ģà¸£à¸²à¸Ļà¸ķ":8806,"à¸¢à¸²à¸ģà¸¡à¸²à¸ģ":8807,"à¸²à¸«à¸¥à¸²à¸¢à¸Ľ":8808,"à¸ļà¸Ľà¸²à¸ģ":8809,"à¸¥à¸Ĥà¸Ńà¸ĩ":8810,"à¸ļà¸ģà¸²à¸£à¹Ģà¸¥":8811,"Ġà¹Ħà¸«à¸¡":8812,"Ġà¸Ńà¸°à¹Ħà¸£à¸ģ":8813,"Ġà¹Ĥà¸Ľ":8814,"Ġà¸Ńà¸¢à¸²à¸ģà¹Ģà¸«":8815,"Ġcho":8816,"ms":8817,"à¸Ķà¸ķà¸¥à¸²à¸Ķ":8818,"à¸ĩà¹ĥà¸Ļà¸ª":8819,"à¸Ķà¸ģà¸£à¸°à¸Ĺà¸£à¸§à¸ĩ":8820,"Ġà¹ģà¸¥à¸°à¸Ńà¸¢":8821,"à¸ĸà¸²à¸¡à¹Ģà¸£":8822,"à¸²à¸ķà¸²à¹Ħà¸«à¸¥":8823,"idth":8824,"à¸ļà¸ľà¸¥à¸ģà¸£à¸°à¸Ĺà¸ļà¸Īà¸²à¸ģ":8825,"Ġmod":8826,"à¸²à¸§à¸Īà¸²à¸ģ":8827,"à¸Ńà¸Ļà¸Ħà¸¥à¸²à¸¢":8828,"Ġà¸ģà¸²à¸£à¸ģ":8829,"à¸£à¸ĵà¸£à¸ĩà¸Ħ":8830,"haos":8831,"à¸Ńà¸¡à¸Ĥ":8832,"Ġà¹Ĥà¸¥à¸ģ":8833,"à¸ĩà¸ģà¸¥à¸²à¸ĩ":8834,"agon":8835,"ä¸":8836,"à¸Ĺà¸²à¸ĩà¸ģà¸²à¸£à¹Ģà¸ĩ":8837,"à¸²à¸Ĥà¸Ńà¸ĩà¸ģ":8838,"à¸§à¸¡à¹Ģà¸Ľ":8839,"Ġchr":8840,"à¸²à¹Ĥà¸Ļ":8841,"tty":8842,"à¸ļà¸Īà¸£":8843,"à¸Ńà¸°à¹Ħà¸£à¸Ń":8844,"igital":8845,"à¹įà¹ī":8846,"à¸¢à¸Īà¸²à¸ģ":8847,"Ġà¹ĥà¸Ļà¹Ģà¸Ķ":8848,"à¸£à¸§à¸¡à¸ķ":8849,"à¸Ńà¸ĩà¹Ģà¸£à¸²":8850,"Ġà¹Ģà¸£à¸²à¸ļà¸Ńà¸ģ":8851,"à¸ªà¸²à¸Ħà¸£":8852,"à¸Ķà¸Ľà¸£à¸°à¸Ĭ":8853,"Ġà¸ŀà¸Ńà¸ģ":8854,"à¸²à¸Īà¸°à¸Ĥ":8855,"à¸²à¸Ķà¸²":8856,"à¸²à¸£à¸°à¹Ģà¸ļ":8857,"Ġà¸«à¸²à¸¢à¹Ħà¸§":8858,"à¸¥à¸¢à¸ģà¸£à¸£à¸¡":8859,"à¸²à¸Łà¸£":8860,"à¸Ķà¸«à¸¡":8861,"Ġcup":8862,"Ġà¹ģà¸Łà¸Ļà¹Ģà¸ģ":8863,"Ġà¸«à¸²à¸¢à¹Ħà¸Ľ":8864,"à¸¡à¸²à¹Ģà¸Ĥ":8865,"à¸ŀà¸ŀ":8866,"à¸£à¸Ńà¸ļà¸Ļ":8867,"à¸ŀà¸Ńà¹ĥà¸Ĭ":8868,"oly":8869,"à¹ĥà¸Ļà¸Ħà¸¥":8870,"Ġtokyo":8871,"à¸Ļà¹Ģà¸ļà¸Ńà¸£":8872,"Ġseason":8873,"à¹ģà¸ģà¸ģ":8874,"tter":8875,"à¹Ģà¸ļà¸£à¸Ħ":8876,"à¸£à¸°à¸¢":8877,"à¸¢à¸Ļà¹Ģà¸ŀ":8878,"à¸«à¸¡à¸²à¸¢à¹Ģà¸«à¸ķ":8879,"à¸Ļà¸«à¸£à¸Ńà¸ģ":8880,"Ġà¸¡à¸²à¸Ķà¸£":8881,"à¸¢à¸Ļà¹Ģà¸Ħà¸£":8882,"à¸ķà¸²à¸¡à¸«à¸¥":8883,"à¸Ńà¸ĩà¹Ģà¸Ħà¸£":8884,"à¹ĥà¸Ļà¸ģà¸£à¸ĵ":8885,"à¸Ļà¸¢à¸²à¸Ħ":8886,"lex":8887,"ŃĲ":8888,"à¸Ńà¸°à¹Ħà¸£à¸ª":8889,"Ġwallet":8890,"Ġà¹ģà¸¥à¸°à¹Ģà¸ª":8891,"à¹Ģà¸Ĥà¸²à¸ĸ":8892,"à¸°à¹Ģà¸ŀà¸£à¸²à¸°":8893,"à¸ģà¸²à¸¥à¸Ļ":8894,"à¸Ńà¸ĩà¸Ļà¸Ńà¸ģ":8895,"à¸ľà¸Ļ":8896,"à¸Ļà¸Ļà¸²à¸ĩ":8897,"à¹ģà¸¥à¸°à¸ĸ":8898,"Ġ05":8899,"Ġà¹ģà¸«à¸¡":8900,"Ġmusic":8901,"à¸ĩà¹Ħà¸Ľà¹ģà¸¥":8902,"à¸ªà¸Ľà¸£":8903,"à¹Ģà¸Ļà¸¢":8904,"à¸¡à¸²à¸Ł":8905,"à¸²à¸ªà¸Ńà¸ļ":8906,"Ġaut":8907,"à¸²à¸Īà¸Ńà¸Ķ":8908,"à¸Īà¸°à¹Ģà¸Ĭ":8909,"à¸²à¸ĩà¸²à¸Ļà¹ĥà¸«":8910,"Ġà¸«à¸²à¸ĭ":8911,"Ġ01":8912,"à¸ĩà¸Ľà¸£à¸°à¸ķ":8913,"à¸¢à¸ģà¸Ĭ":8914,"Ġ54":8915,"à¸¡à¸²à¸ĵà¸Ļ":8916,"à¸¢à¸ģà¸¡":8917,"à¸ªà¹Ĥà¸Ħà¹Ĥà¸£à¸Ļ":8918,"à¸ļà¸ģà¸§à¸Ļà¸Ĺ":8919,"à¸ģà¸²à¸£à¹Ģà¸ª":8920,"à¸Ķà¸²à¸Ļ":8921,"à¹ĥà¸Ļà¸ģà¸£à¸°à¸Ĺ":8922,"à¸ģà¸©à¸²à¸«à¸Ļ":8923,"Ġà¸Ĥà¸Ńà¸ĩà¸§":8924,"à¸¡à¸«à¸²à¸Ķà¹Ħà¸Ĺà¸¢":8925,"à¸Ńà¸Ńà¸ģà¸Ħ":8926,"à¸ľà¸į":8927,"à¸Ļà¹Ĥà¸Ńà¸ģà¸²à¸ª":8928,"à¸Ļà¸¡à¸²à¸ĸ":8929,"à¸ªà¸²à¸¡à¸²à¸£à¸ĸà¸ª":8930,"à¸Ħà¸£à¸£à¸ł":8931,"inter":8932,"etail":8933,"à¸²à¸¡à¸²à¸Ļ":8934,"ï¸ıâļ«":8935,"à¹Ħà¸Ĺà¸£":8936,"Ġhow":8937,"Ġà¸Ńà¸²à¸Īà¸Īà¸°à¹Ģà¸Ľ":8938,"Ġà¸Ńà¸²à¸Īà¹Ģà¸Ľ":8939,"âĸ":8940,"à¸²à¸ķà¸ģ":8941,"à¸Ļà¸Ńà¸°":8942,"à¸ķà¸«à¸£":8943,"à¸§à¸¢à¸ĸ":8944,"à¸Īà¸Ļà¹Ģà¸ģ":8945,"à¸ķà¸ŀ":8946,"à¸Ļà¸Ľà¸ı":8947,"à¸²à¸Ńà¸ĺ":8948,"à¸ķà¸²à¸¡à¸ģ":8949,"à¸ļà¸ķà¸²":8950,"Ġà¸§à¸ĩà¸¨":8951,"à¸²à¸¢à¸²":8952,"à¸¢à¸ĩà¹Ģà¸Ľ":8953,"ðŁĳľ":8954,"à¸²à¹Ħà¸¡à¸Ħ":8955,"à¸Ļà¹Ħà¸«à¸¡à¸Ħà¸°":8956,"à¸ģà¸£à¸ŀà¸£à¸£à¸Ķ":8957,"à¸Ńà¸ĩà¸ŀà¸§à¸ģà¸Ļ":8958,"à¸²à¸ĩà¹ĥà¸ª":8959,"Ġmobile":8960,"à¸°à¸Ńà¸¢":8961,"à¸Ńà¸ĩà¸Ńà¸²à¸«à¸²à¸£":8962,"à¸«à¸²à¹Ģà¸ŀ":8963,"à¸²à¹ĥà¸Ļà¸§":8964,"Ġà¸Ľà¸§à¸ª":8965,"Ġà¹Ģà¸ŀà¸£à¸²à¸°à¹Ģà¸«":8966,"ble":8967,"à¸ģà¸²à¸£à¸Ĥà¸Ńà¸ĩ":8968,"à¸«à¸Ń":8969,"à¸Ļà¸ģà¸²à¸£à¸£":8970,"Ġà¸Ńà¸Ļà¸²à¸Ħà¸ķ":8971,"Ġà¸Ľà¸²à¸£":8972,"à¸²à¸ģà¸²à¸£à¸Ī":8973,"à¸ŀà¸Ńà¸Īà¸°à¸£":8974,"à¸²à¸ĩà¸²à¸Ļà¹ģà¸¥":8975,"à¸²à¸¡à¸²à¸«à¸²à¸ģ":8976,"à¸įà¸¡à¸²à¸ģ":8977,"erry":8978,"à¸£à¸²à¸Ĭà¸Ĺ":8979,"Ġà¸ľà¸¡à¸Ĥà¸Ń":8980,"à¸įà¸Ĭà¸²":8981,"à¹ģà¸Łà¸Ļà¸Ħ":8982,"73":8983,"à¹ģà¸Łà¸Ļà¸ķ":8984,"à¸Ķà¸ī":8985,"à¸Ĺà¸²à¸ĩà¹Ģà¸Ĥ":8986,"Ġà¸ģà¸²à¸£à¸ļ":8987,"Ġà¹Ģà¸ĭà¸Ńà¸£":8988,"lin":8989,"à¹Ģà¹Ģà¸ŀ":8990,"nam":8991,"Ġà¸ŀà¸£à¸°à¹Ģà¸Ī":8992,"à¸Ńà¸Ńà¸ģà¸§":8993,"à¹Ģà¸§à¸Ľ":8994,"à¹Į(":8995,"à¸¥à¸Ĥ":8996,"à¸ŀà¸£à¸«à¸¡":8997,"ret":8998,"à¸Ļà¹ģà¸Ļà¸°à¸Ļ":8999,"à¸Ħà¸Ļà¸£à¸Ńà¸ļà¸Ĥ":9000,"à¹ģà¸¢à¸ģà¸ģ":9001,"Ġ51":9002,"à¸²à¹Ĥà¸Ńà¹Ģà¸Ħ":9003,"à¹Ģà¸Īà¸Ńà¸¡":9004,"à¹Ģà¸Ńà¸²à¸Īà¸£":9005,"à¸Ńà¸ģà¹Ģà¸£":9006,"à¹Ģà¸§à¸ĵà¸Ķ":9007,"à¸Ļà¸¡à¸²à¸ļ":9008,"à¸Ļà¹Ĥà¸£":9009,"à¸¢à¸ļà¸Ĺ":9010,"à¸įà¸«à¸²à¸¢":9011,"Ġà¸¢à¸Ńà¸¡":9012,"afe":9013,"à¹ĥà¸Ļà¸Ĺà¸²à¸ĩ":9014,"à¸²à¸£à¸°à¸¢à¸°":9015,"à¹ĥà¸Ħà¸£à¸ķ":9016,"à¸ģà¸ķà¸¥à¸Ńà¸Ķ":9017,"à¸ªà¸Ķà¸Ĭ":9018,"à¸Ńà¸¢à¹Ģà¸¥à¸¢":9019,"à¸Ļà¸Ħà¸Ļà¹Ħà¸Ĺà¸¢":9020,"à¹ģà¸£à¸ģà¸Ħ":9021,"Ġà¹Ģà¸Ĥà¸²à¸Īà¸°":9022,"à¸ķà¸Ńà¸ļà¹Ĥà¸Īà¸Ĺà¸¢":9023,"à¸Ĥà¸Ńà¸ĩà¹ģà¸¡":9024,"sd":9025,"à¸¡à¸²à¸ŀà¸£":9026,"à¸Ńà¹Ģà¸£à¸²à¸Ńà¸¢à¸²à¸ģ":9027,"à¹ĥà¸Ļà¸ĭ":9028,"Ġà¹ĥà¸Ļà¸Ń":9029,"à¸Ľà¸£à¸°à¹Ģà¸ªà¸£":9030,"à¸Ĥà¸Ńà¸ĩà¸ķà¸Ļà¹Ģà¸Ńà¸ĩ":9031,"Ġà¹ģà¸¥à¸°à¸«à¸²à¸ģ":9032,"à¸Ļà¸Ńà¸Ļà¹Ħà¸¡":9033,"Ġatm":9034,"à¹Ħà¸Ńà¹Ģà¸Ńà¸ª":9035,"à¸¡à¹ģà¸ļà¸ļ":9036,"à¸ĭà¸°à¸ĩ":9037,"à¸Ļà¸¡à¸²à¸ķà¸¥à¸Ńà¸Ķ":9038,"à¸ĩà¸ķà¸Ńà¸ļà¹ģà¸Ĺà¸Ļà¹ĥà¸Ļà¸ģà¸²à¸£à¹Ģà¸Ĥ":9039,"Ġà¸Ĺà¸°à¹Ģà¸ļ":9040,"à¸Ńà¸Ńà¸ģà¸¡à¸²à¹ģà¸¥":9041,"à¸Īà¸Ńà¸¢":9042,"haosod":9043,"à¸§à¸ī":9044,"à¸ģà¸£à¸°à¸¢à¸°":9045,"à¸§br":9046,"à¸Ńà¸¢à¸²à¸ģà¹Ģà¸Ĥ":9047,"Ġjr":9048,"à¹ģà¸¥à¸°à¹Ģà¸£":9049,"à¸§à¸Ļà¸§":9050,"Ġfu":9051,"Ġà¹ģà¸Ķ":9052,"Ġà¸ľà¸¡à¹Ģà¸Ĥ":9053,"à¸ļà¸Ńà¸Ķ":9054,"à¸¨à¸§à¸ģà¸£":9055,"à¸£à¸²à¸¢à¸ģà¸²à¸£à¸Ļ":9056,"Ġà¸«à¸²à¸Ħ":9057,"à¸Ńà¸¢à¸ľ":9058,"à¸ĩà¹ģà¸ĸ":9059,"à¸¥à¸Ńà¸ĩà¸Ħ":9060,"Ġà¹Ķ":9061,"à¸ķà¸¥à¸²à¸Ķà¸«":9062,"national":9063,"matichon":9064,"à¸Ļà¸ģà¸²à¸£à¹ĥà¸Ĭ":9065,"imited":9066,"à¹ĥà¸Ļà¸ģà¸²à¸£à¹Ģà¸Ķ":9067,"à¸Ļà¸īà¸ļ":9068,"à¸Ļà¸Ħà¸Ļà¸«à¸Ļ":9069,"à¹Ģà¸Īà¸Ńà¸Ĺ":9070,"à¸ĩà¸Ħà¸¡à¹Ħà¸Ĺà¸¢":9071,"Ġasus":9072,"74":9073,"à¸²à¸Ĥà¸Ńà¸ĩà¸Ļ":9074,"à¸ķà¸£à¸°à¸ģ":9075,"à¸ĩà¸Ľà¸ģà¸ķ":9076,"à¸Ĭà¸°à¸¥":9077,"à¸ĩà¸ľà¸¥à¸ģà¸£à¸°à¸Ĺà¸ļà¸ķ":9078,"à¸ķà¸£à¸²à¸ª":9079,"à¸ģà¸²à¸£à¹Ģà¸ķ":9080,"à¸²à¸Ńà¸°à¹Ħà¸£à¹ĥà¸«":9081,"Ġà¸Ĥà¸Ńà¸ĩà¹ģà¸Ĺ":9082,"à¸Ńà¸«à¸§":9083,"à¸¢à¸«":9084,"à¹Ģà¸Ńà¸²à¸ģ":9085,"à¸ĩà¸¨à¸²à¸¥":9086,"à¸Ķà¹Ĥà¸Ĺà¸©":9087,"à¸Ļà¸Ħà¸Ļà¸Ħ":9088,"à¸ĩà¸Ĥà¸²à¸¢":9089,"à¸²à¹Ħà¸Ń":9090,"à¸Ńà¸ģà¹Ģà¸Ľ":9091,"à¸ģà¸Ńà¸ĩ":9092,"à¸ĩà¹Ħà¸Ł":9093,"à¸Ĭà¸²à¸¢à¸«à¸²à¸Ķ":9094,"à¹ĥà¸Ļà¹Ģà¸Ļ":9095,"à¹ĥà¸ļà¸£":9096,"Ġà¹ķ":9097,"à¸Ĥà¸ļà¸§à¸Ļ":9098,"à¸²à¹Ĥà¸ŀà¸ĩ":9099,"Ġpan":9100,"à¹Ģà¸Ńà¸²à¸£à¸ĸ":9101,"à¹ģà¸¥à¸°à¸Ľà¸£":9102,"à¸¡à¹Ģà¸Ļ":9103,"Ġ53":9104,"Ġart":9105,"à¸Ĵà¸Ļà¸²à¸ª":9106,"à¹Ģà¸¢à¸Ńà¸°à¹ģà¸¥":9107,"Ġport":9108,"à¸ªà¸ľ":9109,"à¸Ńà¸ĩà¸£à¸²à¸Ħ":9110,"à¸Ńà¸ļà¸£à¸£":9111,"à¹Ĥà¸ģà¸°":9112,"à¹Ħà¸Ľà¹Ģà¸Ĭ":9113,"à¸Ńà¸ĩà¸ģà¸²à¸£à¸Ħ":9114,"à¸ķà¸Ħà¸£":9115,"à¸¡à¹Ģà¸¢":9116,"à¸²à¹Ĥà¸Ĭ":9117,"à¹Ħà¸Ľà¹Ģà¸Ńà¸ĩ":9118,"à¸Ļà¸¡à¸²à¸Ħ":9119,"Ġà¸Ńà¸Ńà¸ģà¸¡à¸²":9120,"à¹ĥà¸Īà¹Ħà¸Ĺà¸¢":9121,"à¸ªà¸ŀ":9122,"Ġà¸«à¸²à¸Ķ":9123,"ĠðŁĩ":9124,"à¸ģà¸Ħà¸°":9125,"à¹ģà¸¥à¸£":9126,"à¸²à¸ĭà¸²à¸ģ":9127,"Ġà¸£à¸²à¸Ħà¸²à¸Ļ":9128,"à¸Ńà¸Ķà¸Ńà¸¥":9129,"à¸§à¸ģà¸£à¸°à¸Ĺ":9130,"à¸²à¸¡à¸²à¸ģà¹Ĩ":9131,"à¸Ħà¸Ļà¸Ĭ":9132,"Ġend":9133,"à¸¢à¸Ļà¸ĸ":9134,"à¹ĥà¸Īà¹Ħà¸Ķ":9135,"à¸Ńà¸Ļà¸°à¸Ħà¸°":9136,"à¸¢à¸²à¸ļà¸²à¸¥":9137,"à¹Ģà¸Ħà¸¢à¸ļà¸Ńà¸ģ":9138,"à¹Ģà¸ģà¸¡à¸Ļ":9139,"à¹Ģà¸Īà¸Ńà¸ª":9140,"à¸§à¹Ģà¸Ńà¸ĩà¸¡":9141,"à¸²à¹ĥà¸Īà¹Ħà¸¡":9142,"Ġvol":9143,"Ġà¸ªà¸§à¸Ļ":9144,"à¸ĩà¹ĥà¸Īà¹Ģà¸£":9145,"à¹ĪâĢĭ":9146,"Ġà¹Ģà¸£à¸²à¸Ķ":9147,"à¸Ńà¸ĩà¹Ģà¸«à¸¡":9148,"ru":9149,"à¸Ńà¸ģà¸¥à¸§à¸ĩ":9150,"Ġnotebook":9151,"à¹ģà¸«à¸¥à¸¡":9152,"à¸§à¸¡à¸ķ":9153,"Ġà¸ķà¸¥à¸Ńà¸Ķà¸Ī":9154,"à¸²à¸ĩà¹Ģà¸ª":9155,"à¸Ńà¸Ľà¸£à¸°à¹Ĥà¸¢à¸Ĭà¸Ļ":9156,"Ġdel":9157,"à¸ĩà¹Ģà¸£à¸²à¹Ħà¸¡":9158,"à¸²à¸Īà¸°à¸ľ":9159,"à¸²à¸¡à¸²à¸ŀ":9160,"Ġà¸Ĭà¸²à¸£":9161,"gl":9162,"à¸ŀà¸£à¸£à¸Ħà¸Ńà¸Ļà¸²à¸Ħà¸ķà¹ĥà¸«à¸¡":9163,"Ġà¹ģà¸§":9164,"à¸ļà¸ĺà¸Ļà¸²à¸Ħà¸²à¸£":9165,"à¸Ńà¸¢à¸Ĭà¸Ńà¸ļ":9166,"à¸ļà¸Ļà¸²à¸¢":9167,"à¸²à¸Ļà¸Ļà¸²à¸¢":9168,"à¸Ńà¹Ħà¸Ľà¸¢":9169,"Ġà¹ģà¸ªà¸Ļà¸¥":9170,"à¸Ķà¸Ľà¸£à¸°à¸ªà¸ĩà¸Ħ":9171,"âľĮ":9172,"à¸Ńà¸ĩà¸«à¸¥à¸§à¸ĩ":9173,"à¹Ģà¸Ĥà¸²à¹ĥà¸«":9174,"à¸Ļà¸Ńà¸Ļà¸Ħà¸£":9175,"à¹Ģà¸¥à¸¢à¹Ħà¸Ķ":9176,"à¸¢à¸Ļà¹Ħà¸§":9177,"à¸ķà¸¥à¸Ńà¸Ķà¸Ĺ":9178,"à¹Ģà¸Ńà¸Ĺ":9179,"Ġà¸Ńà¸ĩà¸¨à¸²":9180,"à¸Ļà¸Ħà¸Ļà¸Ī":9181,"à¸§à¸ĩà¹ĥ":9182,"à¸Ĥà¸²à¸¢à¸ģ":9183,"Ġà¹ģà¸¥à¸°à¸ļà¸£":9184,"à¸Ļà¸ģà¸²à¸£à¸¨":9185,"Ġà¹Ģà¸ľà¸¢à¸§":9186,"à¹ĥà¸Ħà¸£à¹Ħà¸Ķ":9187,"Ġcam":9188,"à¸ªà¹Ĥà¸Ħà¹Ĥà¸£à¸Ļà¸²":9189,"à¹ģà¸£à¸¡":9190,"à¸ļà¹Ģà¸ŀà¸¥":9191,"à¸ģà¸ĩà¸²à¸Ļà¸Ħà¸ĵà¸°à¸ģà¸£à¸£à¸¡à¸ģà¸²à¸£":9192,"à¸Ńà¸ĸà¸²à¸¡à¸§":9193,"à¸§à¹Ģà¸Ħà¸¥":9194,"à¸Ńà¸¢à¸ļ":9195,"Ġbox":9196,"Ġà¸¡à¸²à¹Ģà¸£":9197,"ita":9198,"à¸ªà¸§à¸¢à¸¡à¸²à¸ģ":9199,"ðŁĴļ":9200,"à¸²à¸Īà¸°à¸ģ":9201,"à¸Ńà¸ªà¸ĭ":9202,"Ġmiss":9203,"à¸Ńà¸Ńà¸ģà¸¡à¸²à¸Ķ":9204,"Ġul":9205,"Ġà¸Ľà¸£à¸°à¸§":9206,"à¸¨à¸Īà¸£à¸£à¸¢":9207,"Ġà¸ŀà¸Ńà¹Ģà¸Ĥ":9208,"à¸¡à¸Ľà¸£":9209,"à¹Ģà¸ĸà¸Ńà¸°à¸Ħà¸£":9210,"à¸ŀà¸Ńà¹Ģà¸Ĥ":9211,"à¹Ģà¸Ļà¸²à¸°":9212,"à¸Ĭà¸£à¸²à¸łà¸²":9213,"Ġà¸Ńà¸²à¸Īà¸¡":9214,"à¸¡à¹Ħà¸§":9215,"à¹Ĥà¸ļà¸ªà¸ĸ":9216,"reak":9217,"à¸ļà¸ªà¸łà¸²à¸ŀ":9218,"Ġà¸Ĥà¸²à¸§":9219,"à¸²à¸Ļà¹ģà¸¡":9220,"2563":9221,"Ġà¸ģà¸²à¸£à¸Ħ":9222,"à¸Ńà¸ĩà¸«à¸²à¸Ĺ":9223,"à¸²à¸ĩà¸ªà¸£à¸£à¸ŀà¸ª":9224,"Ġà¹ģà¸Ļà¸°":9225,"alk":9226,"à¸Ļà¹ģà¸ªà¸Ļ":9227,"Ġlife":9228,"à¸ļà¸ªà¸²à¸§":9229,"Ġoppo":9230,"Ġà¸ģà¸²à¸£à¹ģà¸Ĥ":9231,"à¸²à¸¡à¸«":9232,"à¸ªà¸²à¸¡à¸²à¸£à¸ĸà¹Ģà¸¥":9233,"à¸ŀà¸²à¸¥":9234,"à¸Ļà¸ªà¸ķà¸²à¹ģà¸ģà¸£à¸¡":9235,"à¸§à¸¢à¹ģà¸ģ":9236,"à¸ĩà¸¢à¸Ńà¸Ķ":9237,"ĠâĢĶ":9238,"Ġà¹ĥà¸Ļà¸ĩà¸²à¸Ļ":9239,"à¸Ĺà¸°à¸¥":9240,"Ġà¹Ĥà¸Ķà¸¢à¸Ħ":9241,"à¸Ńà¸¢à¸²à¸ģà¸ķ":9242,"à¹Ģà¸Ńà¸²à¸£":9243,"à¸ļà¸ªà¸²à¸£à¸łà¸²à¸ŀ":9244,"à¸Īà¸²à¸ģà¸Ī":9245,"à¸¢à¸Ļà¸ĭ":9246,"à¹ģà¸£à¸ĩà¸Ĺ":9247,"à¸ªà¸Ńà¸ļà¸ĸà¸²à¸¡à¸§":9248,"à¸ļà¸£à¸ĸà¸¢à¸Ļà¸ķ":9249,"à¸Ĺà¸ĺà¸£à¸ĵ":9250,"à¸ģà¸£à¸²à¸Ĭ":9251,"à¹Ĥà¸Ķà¸Ļà¸Ĺ":9252,"à¹Ģà¸Ńà¸ĩà¹Ħà¸¡":9253,"à¸Īà¸°à¸Ľà¸¥":9254,"Ġà¸ªà¸Ļà¸²à¸¡à¸ļ":9255,"à¸¢à¸§à¸Ńà¸¢":9256,"à¹Ĥà¸Ńà¸ĭà¸²à¸ģ":9257,"à¸§à¸¢à¸ķà¸Ļà¹Ģà¸Ńà¸ĩ":9258,"à¸Łà¸²à¸£":9259,"à¸ĩà¸ªà¸Ńà¸ĩà¸Ħà¸Ļ":9260,"à¹Ģà¸ļà¸Ļà¸ĭ":9261,"Ġfirst":9262,"à¸Ńà¹Ħà¸Ľà¸Ń":9263,"à¸Ńà¸¢à¸²à¸ģà¸ģà¸¥":9264,"à¸ĩà¸ķà¸£à¸ĩà¸Ļ":9265,"Ġstud":9266,"Ġwill":9267,"à¸Ķà¸ŀà¸¥":9268,"à¸Ĥà¸ļ":9269,"à¸ĩà¸§à¸Ļ":9270,"à¸¢à¸ĩà¸«":9271,"à¸²à¸ĩà¹Ģà¸«à¸¡":9272,"à¸²à¹Ĥà¸Ĥ":9273,"à¸ĩà¹Ģà¸Ĥà¸²":9274,"à¸£à¸²à¸Ħà¸²à¸ķ":9275,"Ġà¸Ħà¸Ļà¸ķ":9276,"à¹ĥà¸Ļà¸Ĥà¸ĵà¸°à¸Ļ":9277,"à¸Ħà¹ĥà¸«à¸¡":9278,"à¸°à¸Ļà¸²à¸§":9279,"à¸Ļà¸Ĺà¸Ńà¸ĩ":9280,"rame":9281,"à¹Ģà¸ŀà¸£à¸²à¸°à¸£":9282,"à¸Ļà¹Ħà¸Ľà¸Ħ":9283,"Ġà¸Ĭà¸¥à¸ļ":9284,"à¸Īà¸°à¹Ģà¸ŀ":9285,"Ġà¹Ģà¸ģà¸¡à¸ª":9286,"Ġ1500":9287,"Ġben":9288,"à¸«à¸²à¸ĩà¸²à¸Ļ":9289,"à¸§à¸Ļà¸ģà¸¥à¸²à¸ĩ":9290,"Ġsch":9291,"à¸£à¸ĸà¸ļ":9292,"à¸Ļà¸²à¸Ļà¸ģ":9293,"ðŁĺŃ":9294,"read":9295,"à¸£à¸²à¸¢à¸Ļ":9296,"à¸Ńà¸ļà¸ļ":9297,"arn":9298,"à¸ģà¸Ļà¸°à¸Ħà¸°":9299,"à¸Ĭà¸²à¸Ĺ":9300,"à¸ĸà¸Ńà¸Ļ":9301,"à¸ĩà¸Īà¸°à¹Ģà¸Ĥ":9302,"à¹ģà¸Ńà¸Ķà¸¡":9303,"à¸£à¸°à¸¢à¸°à¸ª":9304,"à¸«à¸¥à¸²à¸¢à¸ķ":9305,"à¸¢à¸§à¸«à¸£":9306,"à¸§à¸²à¸ĩà¹Ħà¸§":9307,"ĠâĿ¥":9308,"à¸«à¸²à¸£à¸²à¸¢à¹Ħà¸Ķ":9309,"à¸ĩà¸į":9310,"Ġà¹Ģà¸£à¸ķà¸ķ":9311,"à¹Ĥà¸Ĩà¸©à¸ĵà¸²":9312,"Ġà¹Ģà¸£à¸²à¸¥":9313,"à¸ģà¸²à¸£à¹Ģà¸Ĭ":9314,"à¸ĩà¸«à¸¢":9315,"à¸ķà¸²à¸¡à¸Ī":9316,"@@":9317,"à¹Ģà¸ĺà¸Ńà¸ķ":9318,"à¸¡à¸Ħà¸Ļ":9319,"à¹Ģà¸§à¸¥à¸²à¸ŀ":9320,"à¸Ļà¸ªà¸ļà¸²à¸¢":9321,"à¸°à¹Ģà¸¢à¸²":9322,"à¸¢à¸Ńà¸Ļ":9323,"à¹Ĥà¸¡à¸ĩà¸Ħ":9324,"à¹ģà¸¥à¸ª":9325,"Ġbb":9326,"à¹Ģà¸Īà¸Ńà¹ģà¸ķ":9327,"urn":9328,"à¸²à¸¡à¸²à¸ģà¸¡à¸²à¸¢":9329,"à¸Ķà¸ģà¸£à¸°":9330,"Ġ.....":9331,"son":9332,"à¸°à¸Ļà¸°":9333,"à¸Ńà¸ģà¸Ĥ":9334,"Ġà¹Ģà¸Ĺà¸¨":9335,"Ġà¸Īà¸°à¸§":9336,"à¸ģà¸©à¸²à¸Ńà¸¢":9337,"à¹Ģà¸£à¸²à¹ģà¸¥":9338,"Ġà¸£à¸°à¸¢à¸°à¸Ĺà¸²à¸ĩ":9339,"Ġà¸Ĺà¸²à¸ĩà¸Ķ":9340,"à¸Ļà¹ĥà¸Īà¹Ħà¸¡":9341,"à¸Ļà¸¡à¸²à¸ģà¸¡à¸²à¸¢":9342,"Ġà¹Ģà¸¥à¸¢à¸Ħà¸£":9343,"à¸²à¸¢à¹ģà¸ļà¸ļ":9344,"Ġà¸ķà¸²à¸¡à¸¥":9345,"à¸Ńà¸ĩà¹Ģà¸Ļ":9346,"à¸Ńà¸Ļà¹ĥà¸Ħà¸£":9347,"Ġà¸Ļà¸²à¸¢à¸ŀ":9348,"à¸²à¹ģà¸«à¸ĩ":9349,"à¸¡à¹Ģà¸Ħà¸£":9350,"à¸ķà¸¨à¸²à¸ªà¸ķà¸£":9351,"Ġà¸ŀà¸Ńà¸§":9352,"à¸ľà¸¥à¸ª":9353,"à¸Ńà¸²à¸ª":9354,"Ġà¸Īà¸°à¹Ģà¸ģ":9355,"à¸ĩà¸Īà¸°à¹Ģà¸£":9356,"php":9357,"à¸Ńà¹Ĥà¸ķ":9358,"à¸Ķà¹ģà¸Ļ":9359,"fa":9360,"à¸ģà¸Ľà¸£à¸°à¸Ī":9361,"à¹Ģà¸£à¸²à¸ļà¸Ńà¸ģ":9362,"à¸Ļà¹Ħà¸Ľà¹Ģà¸¥à¸¢":9363,"à¸Ļà¸²à¸¡à¸ªà¸ģ":9364,"à¸Ńà¸Ļà¹ĥà¸«à¸¡":9365,"à¸²à¸ĩà¸Ļà¸°":9366,"à¸²à¸¢à¹Ģà¸Ĺ":9367,"à¸Ļà¹Ħà¸ĩà¸ļ":9368,"à¹Ģà¸¥à¸ª":9369,"à¸§à¹Ģà¸Ńà¸ĩà¸Ħ":9370,"Ġ???":9371,"à¸ģà¸²à¸£à¸Ľà¸¥":9372,"à¹ģà¸ŀà¸ĩà¸ģà¸§":9373,"à¸Ļà¸¡à¸²à¸Ī":9374,"Ġmem":9375,"Ġel":9376,"à¸Ļà¸ģà¸²à¸£à¸Ĭ":9377,"à¸Ļà¸ģà¸²à¸£à¹ĥà¸«":9378,"à¸Ĺà¸²à¸ĩà¸Ī":9379,"à¸µà¹ī(":9380,"à¸§à¹ģà¸ģ":9381,"à¸Ńà¸Īà¸°à¹Ģà¸Ľ":9382,"à¸Īà¹Ģà¸£":9383,"à¸Ļà¸łà¸²à¸©à¸²à¸Ń":9384,"à¸ĩà¹ģà¸ľ":9385,"à¸¡à¸²à¸ģà¹ģà¸ķ":9386,"à¸Ļà¸£à¸°à¹Ģà¸ļ":9387,"Ġdown":9388,"à¸ģà¸©à¸ĵà¸°à¸Ļ":9389,"ĠâĻ¥":9390,"à¸Ńà¸ļà¸Ľ":9391,"à¸¡à¹Ħà¸Ľà¸«à¸¡à¸Ķ":9392,"à¸ģà¸ī":9393,"Ġà¸ģà¸£à¸°à¸Ī":9394,"à¸ģà¸ªà¸¡":9395,"à¸ļà¸¡à¸²à¸Ńà¸¢":9396,"à¸Ľà¸Ħà¸£":9397,"à¸°à¸«à¸¡":9398,"à¹ģà¸Łà¸Ļà¸ľà¸¡":9399,"à¹ģà¸ªà¸ķ":9400,"à¸¥à¸°à¸ª":9401,"Ġà¸§à¸ĩà¸©":9402,"à¸Ķà¸ģà¸²à¸£à¹ģà¸Ĥ":9403,"à¸²à¸¢à¹ģà¸ķ":9404,"à¸Ļà¸Ħà¸ĩà¹Ħà¸¡":9405,"à¸²à¸ªà¸ĩà¸ª":9406,"à¸Ħà¸Ļà¹Ħà¸Ĺà¸¢à¸Ĺ":9407,"à¸Ķà¹Ģà¸ļà¸Ńà¸£":9408,"à¸Ķà¸Ħà¸°":9409,"à¸ļà¸Ħà¸°à¹ģà¸Ļà¸Ļ":9410,"à¸Ļà¸Ľà¸£à¸°à¹Ģà¸Ĺà¸¨":9411,"à¹ģà¸ļà¸ģ":9412,".......":9413,"à¸Ķà¸²à¸£à¸²à¹Ģà¸Ķà¸¥":9414,"à¸ĩà¸Ĭà¸Ļ":9415,"Ġà¸ŀà¸Ńà¸Ĺ":9416,"Ġà¸Īà¸°à¸Ĥ":9417,"Ġval":9418,"________________________________":9419,"à¸Ĵà¸Ļà¸²à¸Ĺ":9420,"à¸¡à¹ģà¸£à¸ģ":9421,"à¸Ķà¹ĥà¸Ļà¸Ĭ":9422,"à¹ģà¸®à¸Ľà¸Ľ":9423,"à¸Ńà¸ĩà¸¡à¸²à¸Ļ":9424,"à¸Ńà¸Ńà¸ģà¸¡à¸²à¹ĥà¸«":9425,"âĹ":9426,"à¸ĩà¸Ĥà¸ĵà¸°à¸Ļ":9427,"Ġservice":9428,"à¸ļà¸¡à¸²à¹ģà¸¥":9429,"à¹Į/":9430,"à¸ŀà¸Ńà¸Īà¸°à¸Ĺà¸£à¸²à¸ļ":9431,"à¸¬à¸²à¸Ĺ":9432,"Ġact":9433,"à¸Ńà¸Ńà¸ģà¸¡à¸²à¸ģ":9434,"à¹Ģà¸£à¸²à¹Ģà¸ª":9435,"à¹Ģà¸¥à¸Ńà¸£":9436,"à¸Ļà¸Ħà¸§à¸²à¸¡à¸Īà¸£":9437,"Ġ/*":9438,"à¹Ħà¸Ĺà¸¢à¹ģà¸¥à¸Ļà¸Ķ":9439,"à¸¡à¹Ģà¸Ĭ":9440,"Ġap":9441,"Ġà¸Ĺà¸°à¹Ģà¸¥à¸²à¸°à¸ģ":9442,"à¸Ńà¸ĩà¸ļà¸Ńà¸ģà¸ģ":9443,"Ġà¸ľà¸¡à¸Ńà¸¢":9444,"à¸Ńà¸¢à¸²à¸ģà¹Ģà¸ª":9445,"à¸¢à¸ĵ":9446,"à¸ģà¹Ĥ":9447,"à¹Ģà¸Ĺà¸¥":9448,"Ġà¸Ľà¸£à¸°à¸ª":9449,"à¸Ħà¸Ļà¸Ńà¸¢":9450,"à¸²à¸¢à¸¡à¸²":9451,"Ġà¹Ģà¸Ĥà¸²":9452,"à¸ĩà¸ł":9453,"à¸Ľà¸§à¸Ķà¸«":9454,"à¸Ńà¸Ļà¹Ĩà¸Ĺ":9455,"à¸Ŀà¸Ļ":9456,"Ġà¹Ĥà¸Ħà¸§":9457,"à¸Ńà¹Ħà¸Ľà¸Ħ":9458,"à¹ģà¸ģà¸Ļà¸Ļ":9459,"Ġclub":9460,"à¸ģà¸©à¸²à¸Ľ":9461,"à¸ļà¸¡à¸²à¸«":9462,"à¸Ļà¹ĥà¸Ļà¸«":9463,"à¸Ńà¸¡à¹ģà¸ĭ":9464,"à¸ģà¹Ĥà¸Ĺà¸©":9465,"à¸Ńà¹Ģà¸£à¸²à¸ķ":9466,"à¸ģà¹Ģà¸«à¸¥":9467,"à¸ĩà¸ŀà¸§à¸ģ":9468,"à¸²à¸ķà¸£à¸ģà¸²à¸£":9469,"à¹Ģà¸ĺà¸Ńà¹Ħà¸Ķ":9470,"93":9471,"Ġà¸ķà¸²à¸¡à¸£":9472,"à¸ķà¸Ńà¸Ļà¹Ģà¸Ķ":9473,"à¸²à¸¡à¸²à¸ģà¸Ĥ":9474,"à¸Ļà¸§à¸ĩ":9475,"à¹Ģà¸Ĥà¸²à¸Ī":9476,"Ġà¹Ħà¸«à¸¡à¸Ħà¸£":9477,"à¸¢à¸ĩà¹Ģà¸Ĺ":9478,"ðŁĺģ":9479,"no":9480,"Ġà¹Ĥà¸Ľà¸£à¹ģà¸ģà¸£à¸¡":9481,"à¸ªà¸Ļà¹ĥà¸Īà¸Ĺ":9482,"à¸¡à¸²à¸ģà¸§":9483,"à¸ĩà¸²à¸Ļà¹ĥà¸«":9484,"à¸°à¸Ĺà¸°":9485,"à¸ģà¸ķà¸²à¸¡":9486,"à¸²à¸§à¹Ģà¸«à¸Ļ":9487,"à¸Ľà¸¢":9488,"hotmail":9489,"à¸ĸà¸²à¸§à¸£":9490,"à¸Ļà¹ģà¸«à¸¥à¸°à¸Ħà¸£":9491,"à¸§à¸¢à¸Ħà¸§à¸²à¸¡à¸£":9492,"à¸Ńà¸£à¸²à¸¢":9493,"à¸ĵà¸łà¸²à¸ŀà¸Ĭ":9494,"à¹ģà¸¥à¸°à¸ģà¸¥":9495,"à¸ģà¸Ńà¸²à¸¨":9496,"Ġà¹Ĥà¸Ķà¸¢à¸Ī":9497,"à¸ªà¸²à¸ļ":9498,"à¸¡à¸²à¸¨":9499,"Ġnik":9500,"à¹Ģà¸Ħà¸¢à¹Ģà¸Ĥ":9501,"à¸ķà¸Ńà¸Ļà¸ķ":9502,"à¸¢à¸ĩà¹Ģà¸¥":9503,"Ġà¸Ľà¸ķà¸Ĺ":9504,"à¸łà¸²à¸ŀà¸Ķ":9505,"à¸Ńà¸Ļà¹Ģà¸Ĭ":9506,"à¸ĩà¸ªà¸²à¸¢":9507,"à¸ĩà¸Ħà¸Ļà¸Ń":9508,"à¸Ńà¸Ļà¸Īà¸£":9509,"à¸£à¸ĸà¸ģ":9510,"Ġà¹Ħà¸Ľà¸ª":9511,"Ġ67":9512,"Ġà¸ŀà¸²à¸£":9513,"à¸Ńà¸ĩà¸Ĭà¸Ļà¸°à¹Ģà¸¥":9514,"Ġà¸Ĥà¸¢à¸²à¸¢":9515,"au":9516,"à¸Ļà¸¢à¸²":9517,"à¸Ńà¸¡à¸²à¸Ĺ":9518,"à¸ļà¸ģà¸²à¸£à¸Ķ":9519,"Ġà¸Ńà¹Ģà¸¡à¸£":9520,"à¸¡à¸²à¸ģà¸ĸ":9521,"à¸Ńà¸¡à¸²à¸Īà¸²à¸ģ":9522,"Ġà¸ģà¸²à¸£à¹Ģà¸£":9523,"à¸£à¸£à¸ŀ":9524,"à¸²à¹Ģà¸Ĥà¸²à¸Ħ":9525,"à¹Ģà¸Ħà¸¢à¸Ļ":9526,"à¸ļà¸Ħà¸Ļà¸£":9527,"Ġà¸Ħà¸Ļà¹Ģà¸ģ":9528,"Ġcat":9529,"à¹Ħà¸Ľà¸¥":9530,"à¸²à¸ģà¸²à¸£à¸ķ":9531,"official":9532,"Ġseries":9533,"à¸įà¸«à¸²à¸Ńà¸¢":9534,"à¸īà¸²à¸ģà¸Ĺ":9535,"Ġà¸Īà¸Ļà¸ģà¸§":9536,"à¸§à¸ĩà¹Ģà¸Ĺà¸¨à¸ģà¸²à¸¥":9537,"à¸«à¸Ńà¸ŀ":9538,"fr":9539,"à¹Ģà¸§à¸ĵà¸Ī":9540,"à¸Ļà¸Ļà¸Ĺ":9541,"à¸Ħà¸ĵà¸°à¸£":9542,"Ġrouter":9543,"à¸ģà¸ģà¸£à¸°à¸Ĺ":9544,"à¸¥à¸£":9545,"à¹Ĥà¸Ķà¸Ļà¸Ī":9546,"Ġà¹Ģà¸£à¸²à¸Ńà¸¢à¸²à¸ģà¸£":9547,"à¸¥à¸ĩà¸¡à¸²":9548,"à¸ĩà¹Ģà¸ģà¸ķà¸§":9549,"à¸ŀà¸¥à¸²à¸Ķà¸Ĥ":9550,"à¸ļà¸Ļà¸ĸà¸Ļà¸Ļ":9551,"à¸²à¹ģà¸«à¸¥":9552,"à¸¥à¹Ħà¸¡":9553,"à¹ĥà¸Ļà¸£à¸°à¸«à¸§":9554,"à¸²à¹Ģà¸£à¸²à¹Ħà¸Ķ":9555,"à¸Ħà¸Ļà¹ģà¸£à¸ģ":9556,"à¸²à¹Ħà¸£à¸ª":9557,"à¸²à¸¡à¸§":9558,"à¸Ľà¸£à¸°à¸ģà¸Ńà¸ļà¸ģ":9559,"à¸Ļà¹Ģà¸£à¸²à¹Ħà¸¡":9560,"Ġà¸ľà¸¡à¹Ģà¸¥":9561,"à¸ªà¸£à¸£":9562,"à¸ķà¸£à¸§à¸Īà¸ªà¸Ńà¸ļà¸Ĥ":9563,"à¸ģà¸Ħà¸Ļà¸Ń":9564,"à¸Ńà¸ĩà¸Ľà¸£à¸°à¸Ĭ":9565,"à¸Ļà¸²à¸¢à¸«à¸Ļ":9566,"à¸Īà¸Ļà¸ķ":9567,"à¸¢à¹Ĩ":9568,"à¹Ģà¸Ńà¸ĩà¸Ħà¸£":9569,"à¸¢à¸§à¹Ģà¸Ĭ":9570,"ton":9571,"à¸¡à¸Ńà¸²à¸«à¸²à¸£":9572,"à¹Ģà¸§à¸¥à¸²à¹Ģà¸£":9573,"à¸Ļà¹ģà¸ªà¸Ķ":9574,"Ġà¸Ļà¸²à¸¢à¸Ĭ":9575,"Ġhar":9576,"à¸Ļà¸°à¸Ħà¸°à¸§":9577,"à¸Ńà¸ĩà¸Ħà¸§à¸²à¸¡":9578,"à¹Ģà¸Īà¸Ńà¸Ħà¸Ļà¸Ĺ":9579,"à¹Ĥà¸¥à¸Ļ":9580,"à¸²à¸§à¹Ģà¸ģ":9581,"Ġà¹Ģà¸ģà¸©à¸ķà¸£":9582,"à¸²à¸¡à¸²à¸¡":9583,"ane":9584,"à¸įà¸įà¸²à¸Ļ":9585,"Ġfiber":9586,"Ġà¸ªà¸²à¸¡à¸²à¸£à¸ĸà¸ķ":9587,"Ġmbps":9588,"à¸Ķà¹Ģà¸Ħ":9589,"Ġtrip":9590,"51":9591,"à¸Ļà¹Ħà¸Ľà¹Ģà¸Ĺ":9592,"Ġà¸Ľà¸Ĭà¸Ĭ":9593,"à¸Ńà¸¡à¸§à¸¥à¸Ĭà¸Ļ":9594,"à¸Ħà¸§à¸²à¸¢":9595,"à¸²à¸Ķà¸Ĺ":9596,"à¸Ļà¸Ńà¸Ķ":9597,"à¸Ķà¹Ĥà¸Ńà¸ģà¸²à¸ªà¹ĥà¸«":9598,"à¸¡à¸²à¸ģà¸¡":9599,"à¸²à¸ªà¸ĸà¸²à¸Ļ":9600,"à¸ļà¹Ħà¸Ľà¸Ħ":9601,"à¸Ļà¸ªà¸²à¹Ģà¸«à¸ķ":9602,"à¸ĩà¹ĥà¸Ļà¸Ľ":9603,"52":9604,"ðŁĴľ":9605,"Ġà¸Ľà¸Ĭà¸Ľ":9606,"à¸¡à¹Ħà¸Ĺà¸¢":9607,"ator":9608,"à¸¡à¹Ģà¸Ī":9609,"à¹ģà¸¥à¸°à¸Ľ":9610,"à¸ĩà¸ªà¸§":9611,"à¸Ķà¸ĺ":9612,"ðŁ¤£ðŁ¤£":9613,"à¸įà¸¢":9614,"à¸Ļà¸¡à¸²à¹Ģà¸£":9615,"à¸¡à¹Ģà¸«":9616,"à¸Ļà¸¡à¸²à¸Ńà¸¢":9617,"à¸ĩà¸ķà¸£à¸ĩà¸Ĥ":9618,"à¹Ģà¸¢à¸Ńà¸£à¸¡à¸Ļ":9619,"à¸²à¸¡à¸ª":9620,"à¸²à¸§à¹Ģà¸Ĥ":9621,"Ġà¹Ĵà¹ķ":9622,"à¹Ħà¸Ľà¹Ģà¸¡":9623,"à¸ĩà¸ŀà¸¢à¸²à¸¢à¸²à¸¡":9624,"à¸Ńà¸ĩà¸ģà¸²à¸£à¸ª":9625,"to":9626,"à¸Ńà¸ĩà¸Ħà¸²à¸¢":9627,"à¸ŀà¸£à¸°à¸ļà¸²à¸Ĺà¸ªà¸¡à¹Ģà¸Ķ":9628,"à¹Ģà¸Ħà¸¢à¸ľ":9629,"à¸²à¸Ļà¸§à¸Ļà¸Ĺ":9630,"à¸Ńà¸ĩà¸ľà¸¡":9631,"site":9632,"à¸ĩà¸Ħà¸²à¸£à¸Ĺ":9633,"à¸ªà¸Ńà¸Ķà¸Ħà¸¥":9634,"à¸²à¹Ģà¸ģà¸²à¸«à¸¥":9635,"à¸Ļà¸ķà¸£à¸ĩ":9636,"Ġà¹Ģà¸£à¸²à¸Ħà¸ļà¸ģ":9637,"à¸ģà¸£à¸°à¹Ģà¸Ĺ":9638,"à¸ļà¸ģà¸²à¸£à¸¨":9639,"Ġà¸¡à¸²à¸¢":9640,"à¸ĵà¸Ħà¸°":9641,"Ġà¹Ģà¸Ĭà¸¥à¸ĭ":9642,"à¸²à¸Ńà¸°à¹Ħà¸£à¸Ķ":9643,"à¸Ńà¸¢à¸²à¸ģà¸ŀ":9644,"à¸ĩà¸Ńà¸²à¸Ĺ":9645,"à¸Ńà¸Ļà¸Ŀ":9646,"ta":9647,"Ġà¸Īà¸Ļà¸ª":9648,"Ġà¹Ģà¸ĭà¸Ļà¸ķ":9649,"à¸Ļà¸²à¸¨":9650,"à¸Ķà¹Ģà¸ªà¸£":9651,"à¸ĩà¸ľà¸¥à¸ķ":9652,"à¹Ĥà¸Ķà¸Ļà¸¥":9653,"à¸ĸà¸§à¸²à¸¢":9654,"à¸ĩà¹Ħà¸Ľà¸ģ":9655,"à¸Ńà¸ļà¸¥":9656,"à¸Ĺà¸£à¸ªà¸²à¸Ħà¸£":9657,"Ġà¹ģà¸¥à¸°à¹Ģà¸Ķ":9658,"à¸Ħà¹Ģà¸ģà¸Ńà¸£":9659,"à¸µà¹īâĢĿ":9660,"Ġà¸Ľà¸ķà¸£":9661,"à¹ģà¸Ńà¸ļà¸Ħ":9662,"Ġà¹ģà¸Ńà¸Ķ":9663,"Ġà¸ļà¸Ńà¸ģà¹Ģà¸¥à¸¢à¸§":9664,"fer":9665,"à¸©à¸İ":9666,"à¸ļà¹Ħà¸Ł":9667,"Ġfa":9668,"omotion":9669,"à¸Ńà¸¢à¹Ģà¸£":9670,"Ġà¹ģà¸¥à¸°à¹ģà¸¥":9671,"à¸§à¸¡à¸Ĭ":9672,"à¸ģà¸²à¸£à¸Ńà¸¢":9673,"point":9674,"âĻ¥":9675,"à¸Ńà¹Ģà¸ĭ":9676,"à¸§à¸ŀà¸£":9677,"Ġà¹ģà¸ªà¸Ļà¸ļà¸²à¸Ĺ":9678,"à¹ģà¸¥à¸°à¹Ģà¸ª":9679,"à¹ģà¸ļà¸ĩà¸ģ":9680,"à¸ģà¸ļà¸²à¸ĩ":9681,"à¸£à¸²à¸¢à¸Ī":9682,"à¸Ńà¸Ħà¸Ń":9683,"à¹ĥà¸Īà¸Ń":9684,"à¸²à¸ªà¸ģ":9685,"Ġ>>>":9686,"à¸Ĺà¸²à¸ĩà¸«à¸¥à¸§à¸ĩ":9687,"à¸¢à¸ģà¸°":9688,"its":9689,"Ġà¹Ģà¸ªà¸Ļà¸Ń":9690,"à¸²à¹Ħà¸Ľà¸Ī":9691,"à¸Ļà¸Ħà¸Ļà¸¡":9692,"à¸´\"":9693,"Ġà¹ģà¸ŀà¸£":9694,"à¸ĩà¸ªà¸£à¸£à¸Ħ":9695,"à¸Ńà¸ĩà¸¥à¸°":9696,"à¸ªà¸Ī":9697,"à¸²à¸Ńà¸°à¹Ħà¸£à¹Ģà¸¥à¸¢":9698,"à¸Ĺà¸²à¸ĩà¸ģ":9699,"à¸Ļà¹Ħà¸Ľà¸Ļ":9700,"à¸²à¹ĥà¸Īà¸Ĺ":9701,"iw":9702,"à¸Ļà¹Ħà¸Ľà¸ķ":9703,"////////":9704,"à¸Ńà¸ĩà¹ģà¸£à¸ģ":9705,"à¸ĩà¸ŀà¸Ļ":9706,"à¸²à¸ĩà¸Ļà¸²":9707,"à¹Ģà¸Īà¸Ļ":9708,"à¸Ĺà¸ĺà¸¨à¸²à¸ªà¸Ļ":9709,"à¸²à¹Ħà¸¡à¸Ĺ":9710,"à¸Ļà¸Ńà¸²à¸ģà¸²à¸£":9711,"à¸²à¹Ħà¸ª":9712,"à¸ļà¸Ĺà¸§à¸Ļ":9713,"Ġà¸¡à¸²à¸§":9714,"à¸¡à¸²à¸ģà¸Īà¸£":9715,"à¸Ńà¸ĩà¸ķà¸Ńà¸ļ":9716,"à¸Ļà¸«à¸²à¸ģ":9717,"Ġà¸Ĭà¸Ńà¸ļà¸Ĺ":9718,"Ġà¸£à¸ĸà¹Ħà¸Ł":9719,"à¸²à¸Īà¸°à¸«":9720,"à¸ģà¸ķà¸£":9721,"cess":9722,"Ġà¸Ħà¸Ļà¸Ħ":9723,"à¸ĩà¸²à¸Ļà¹ģà¸ķ":9724,"à¸Ńà¸Ļà¹Ĥà¸ķ":9725,"à¸²à¸Ńà¸Ńà¸ģà¸ģ":9726,"Ġà¸Ħà¸Ļà¸¡":9727,"à¸Ľà¸£à¸°à¸ŀ":9728,"à¸ŀà¸ļà¸Ľ":9729,"à¹Ģà¸Ĺà¸Ħ":9730,"à¸Ńà¸°à¹Ħà¸£à¸¡":9731,"à¸Ńà¸Ńà¸ģà¸Ļà¸Ńà¸ģ":9732,"à¸¢à¸¡à¸²":9733,"à¸¡à¹Ħà¸¥à¸Ļ":9734,"à¸ģà¹Ģà¸ĺà¸Ń":9735,"à¸²à¸¢à¸ĭ":9736,"Ġmay":9737,"à¸įà¸Ńà¸¢":9738,"à¸§à¸ĩà¸¡à¸²à¸¥":9739,"à¸²à¹Ħà¸Ľà¸ĸ":9740,"à¸ĩà¹ĥà¸Ķ":9741,"à¸ŀà¸Ńà¸ĸ":9742,"à¸ļà¸Ńà¸ģà¸ŀ":9743,"ðŁĶ´":9744,"Ġsky":9745,"à¸²à¸§à¹Ģà¸ŀ":9746,"à¸ŀà¸¢à¸²à¸Ļ":9747,"à¸ķà¸¥à¸Ńà¸Ķà¸Ĭ":9748,"Ġà¸ĭà¸Ńà¸¢":9749,"à¸Ĺà¹Ħà¸Ķ":9750,"à¹ģà¸¥à¸°à¸ģà¸²à¸£":9751,"à¸«à¸¡à¸²à¸¢à¹ĥà¸«":9752,"à¸²à¸¢à¹Ģà¸ª":9753,"Ġà¸ĸà¸²à¸¡à¹Ģà¸£":9754,"à¸¥à¸ĩà¸ļ":9755,"à¸ģà¸¡à¸²à¸ģà¹Ĩ":9756,"Ġ;":9757,"Ġpp":9758,"à¹ģà¸Ľà¸°":9759,"Ġà¹ģà¸Ńà¸ļà¸Ĭà¸Ńà¸ļ":9760,"à¸²à¸Ļà¸¡à¸²à¹ģà¸¥":9761,"à¸Ĥà¸¡":9762,"71":9763,"à¸ĩà¸²à¸Ļà¸Ń":9764,"move":9765,"Ġà¸ªà¸¡à¸¡à¸ķ":9766,"à¸²à¸ĩà¸ģà¸§":9767,"à¸Ļà¸²à¸Ħ":9768,"Ġà¹Ĥà¸Ķà¸¢à¸Ń":9769,"à¸ĸà¸²à¸¡à¸ģ":9770,"à¸ľà¸Ĭ":9771,"Ġak":9772,"à¸ļà¸ģà¸²à¸£à¸ŀ":9773,"led":9774,"à¹Ģà¸£à¸²à¸Īà¸°à¹Ħà¸Ķ":9775,"à¸²à¹Ħà¸Ľà¸Ļ":9776,"à¸Ńà¹Ĥà¸Ĺà¸£à¸¨":9777,"à¸ĩà¸Ĥà¸¢à¸°":9778,"à¸¢à¸¡à¸£":9779,"à¸²à¸ĩà¹Ģà¸¢à¸Ńà¸°":9780,"à¹Ħà¸Ĥà¸¢":9781,"à¸Ļà¸¡à¸²à¸ģà¹Ĩ":9782,"à¸ļà¸¡à¸²à¸¡":9783,"à¸Ļà¸Ńà¸Ńà¸ģà¹Ħà¸Ľ":9784,"à¸¡à¹ģà¸ŀ":9785,"à¸Ħà¸²à¸Ķà¸ģà¸²à¸£à¸ĵ":9786,"à¸ģà¸ļà¸Ńà¸¥":9787,"à¸Ńà¸¡à¸Ĥà¸Ńà¸ĩ":9788,"à¸Ķà¹Ģà¸¢à¸Ńà¸°":9789,"Ġà¹ģà¸Łà¸Ļà¸Ħà¸¥":9790,"à¸Ļà¸«à¸²à¸¢à¹Ħà¸Ľ":9791,"Ġsale":9792,"à¸Ńà¸¢à¹Ģà¸Ķ":9793,"à¸²à¹Ħà¸«":9794,"à¸²à¸ªà¸ĸà¸²à¸Ļà¸Ĺ":9795,"à¸ĩà¹ĥà¸Īà¸§":9796,"Ġposition":9797,"Ġyear":9798,"à¸ļà¸¡à¸²à¹ĥà¸Ĭ":9799,"à¸Ńà¸Ńà¸ģà¸ª":9800,"Ġshow":9801,"à¸ªà¸ĩà¸Ĥà¸¥à¸²":9802,"Ġà¸Ľà¸£à¸°à¸Ĺ":9803,"à¸ĩà¸ķà¸°à¸§":9804,"à¸§à¸ªà¸§à¸¢":9805,"à¸ģà¸£à¸£à¸¡à¸²à¸ĺ":9806,"à¸ļà¸ģà¸²à¸£à¸ª":9807,"à¸²à¸Ĥà¸Ńà¹Ĥà¸Ĺà¸©":9808,"Ġmicro":9809,"Ġà¸ķà¸¡":9810,"à¸²à¸Ľà¸£à¸°à¸Ĭà¸²à¸Ĭ":9811,"Ġà¹ģà¸¥à¸°à¹Ģà¸¥":9812,"à¸Ļà¸²à¸¢à¸Ī":9813,"à¹Ħà¸«à¸Ļà¸ĸ":9814,"Ġà¸Īà¸Ļà¹Ħà¸Ķ":9815,"à¸²à¸«à¸Ļà¸Ķà¸§":9816,"à¸Ľà¹Ĥà¸łà¸Ħ":9817,"Ġà¸ĺà¸Ħ":9818,"à¸ļà¸ĩ":9819,"à¸Ľà¸£à¸°à¸ŀà¸¤à¸ķ":9820,"Ġà¸ļà¸Ńà¸£":9821,"à¸²à¹Ĥà¸Ĺà¸£à¸¨":9822,"à¸ĺà¸Ļà¸²à¸Ħà¸²à¸£à¸ģà¸£":9823,"Ġà¸ļà¸Ļ":9824,"à¸ĩà¸Ħà¸§à¸£":9825,"à¸ģà¹Ģà¸¥à¸¢à¸Ħ":9826,"à¸²à¸ĩà¸²à¸Ļà¹Ģà¸ģ":9827,"à¸Ńà¸Ļà¸²à¸Ħ":9828,"Ġà¹Ģà¸ŀà¸£à¸²à¸°à¸Ĭ":9829,"à¸²à¹Ģà¸§à¸Ńà¸£":9830,"à¸¡à¸ĺ":9831,"à¸²à¹Ħà¸«à¸¡à¸Ħà¸£":9832,"iness":9833,"à¸ĩà¸Ľà¸ı":9834,"Ġ85":9835,"à¸²à¸«à¸Ļà¸Ķà¹Ħà¸§":9836,"à¸Ļà¹ģà¸ģà¸¥":9837,"à¸²à¸¢à¸«à¸£":9838,"à¸ĸà¸²à¸¡à¸ľ":9839,"à¸¢à¸įà¸Ĺà¸Ńà¸ĩ":9840,"list":9841,"à¹Ģà¹Ģà¸Ĥ":9842,"à¸Ļà¸²à¸¬":9843,"fm":9844,"à¸ļà¸²à¸¢à¹ĥà¸«":9845,"à¸Ļà¸Ńà¸¢à¸²à¸ģ":9846,"à¸Īà¸²à¸Ļ":9847,"Ġà¸Ĥà¸Ńà¹ģà¸Ħ":9848,"ecial":9849,"Ġ*/":9850,"à¸Ļà¸Īà¸°à¸£":9851,"à¸ģà¸²à¸£à¸ĩà¸²à¸Ļ":9852,"à¸£à¸²à¸Ĭà¸ģ":9853,"zz":9854,"à¸Ńà¸ĩà¸ŀà¸£":9855,"à¸§à¸¢à¸Ħà¸§à¸²à¸¡à¹Ģà¸£":9856,"à¸¢à¸Ļà¸ģà¸²à¸£à¸ª":9857,"à¸ĩà¹Ģà¸ĭ":9858,"à¹Ĥà¸§à¸¢à¸§":9859,"à¸Ķà¹Ģà¸«à¸¥":9860,"à¸łà¸²à¸ŀà¸¥":9861,"à¹Ģà¸«à¸§":9862,"à¸ĩà¹ģà¸Łà¸Ļ":9863,"à¸²à¸ĩà¸ªà¸¡":9864,"à¸Ĭà¸²à¸§à¸Ī":9865,"à¸ĩà¸§à¸¥à¸§":9866,"à¸¡à¸ļà¸£":9867,"Ġà¸¡à¸Ħ":9868,"à¸Ļà¹Ĥà¸£à¸Ħà¸ĭ":9869,"à¸Ļà¸ģà¸²à¸£à¸ªà¸£":9870,"à¸«à¸²à¸£à¸ª":9871,"ano":9872,"Ġà¹Ģà¸Ĺà¸Ħà¹Ĥà¸Ļà¹Ĥà¸¥à¸¢":9873,"Ġà¸¡à¸Ńà¹Ģà¸ķà¸Ńà¸£":9874,"ĠÂ":9875,"à¸Ķà¹ĥà¸Ļà¹ĥà¸Ī":9876,"à¸¢à¸ļà¹Ĩ":9877,"à¹Ħà¸Ľà¹Ģà¸ģ":9878,"Ġ72":9879,"vd":9880,"tra":9881,"à¹Ī?":9882,"à¸²à¸£à¸§à¸Īà¸ģ":9883,"Ġ5555555":9884,"à¸Īà¹Ħà¸Ķ":9885,"Ġà¹Ħà¸Ľà¹Ģà¸£":9886,"ng":9887,"Ġblue":9888,"à¹ģà¸«à¸§à¸Ļ":9889,"à¸Ļà¸Ĥà¸Ńà¸ĩà¸Ħ":9890,"Ġcanon":9891,"bnk":9892,"à¹Ģà¸ĵ":9893,"à¸Ĭà¹Ģà¸Ĭ":9894,"Ġà¸«à¸²à¸Ĺ":9895,"à¸£à¸²à¸Ĭà¸§à¸ĩà¸¨":9896,"à¸ĩà¸Ħà¸Ļà¸«à¸Ļ":9897,"Ġà¸ªà¹Ħà¸ķà¸¥":9898,"à¸įà¸Ń":9899,"à¸¢à¸§à¹ĥà¸Ļ":9900,"à¸¡à¸«à¸²à¸¨à¸²à¸¥":9901,"à¸ģà¸Ħà¸Ļà¸«à¸Ļ":9902,"vis":9903,"à¸¢à¸ģà¸Ļ":9904,"à¸¢à¸§à¹Ģà¸Ĥ":9905,"à¸Ķà¹ģà¸Ńà¸£":9906,"à¸¡à¸¡à¸Ļ":9907,"Ġml":9908,"Ġà¹Ĥà¸Ħà¸ķà¸£":9909,"à¸ģà¸²à¸£à¸Ĥà¸Ļà¸ª":9910,"à¹Ģà¸Ļà¸¡":9911,"Ġmrt":9912,"à¸Īà¸²à¸ģà¸ģà¸²à¸£à¸Ĺ":9913,"à¸§à¸¢à¹ģà¸Ĭà¸£":9914,"à¸¡à¸ŀà¸£à¸°à¹Ģà¸ģ":9915,"à¸Ļà¸ŀà¸Ńà¸Ķ":9916,"à¸Ĭà¸²à¸§à¸Ń":9917,"Ġà¹Ģà¸Ńà¹Ģà¸Ĭ":9918,"à¸ĩà¹Ģà¸§à¸¥à¸²à¸Ĺ":9919,"ðŁįĥ":9920,"à¸Ħà¸£à¸²à¸§à¸Ļ":9921,"Ġrgb":9922,"Ġà¹ģà¸Ńà¸ŀ":9923,"à¸Ļà¹Ħà¸Ľà¸¡":9924,"à¸Ĥà¸Ńà¸ĩà¹Ģà¸¡":9925,"à¸²à¹ģà¸Ľ":9926,"Ġà¸ģà¸²à¸£à¹Ģà¸ĩ":9927,"Ġà¹Ģà¸ŀà¸£à¸²à¸°à¹Ģà¸£":9928,"Ġà¹Ĥà¸Ķà¸¢à¹Ģà¸£":9929,"à¸ģà¸£à¸°à¸«à¸Ļ":9930,"Ġà¸ļà¸ģ":9931,"à¸²à¸Ńà¸ģ":9932,"à¸¡à¸ķà¸²à¸¡":9933,"à¸¢à¸Ķà¸Ń":9934,"ura":9935,"asy":9936,"à¸Ļà¸ģà¸£à¸ĵ":9937,"à¸ŀà¸£à¸°à¸£à¸²à¸Ĭà¸Ķ":9938,"à¸Ļà¸ģà¸²à¸£à¸ģ":9939,"à¸²à¸§à¹Ģà¸Ĭ":9940,"Ġkpop":9941,"à¸Ħà¸ŀ":9942,"à¸Ļà¸Ĥà¸Ńà¸ĩà¸ľ":9943,"Ġà¸Ħà¸ĵà¸°à¸ģà¸£à¸£à¸¡à¸ģà¸²à¸£":9944,"à¸Ńà¸ģà¸²à¸£à¸Ħ":9945,"Ġà¹Ģà¸«à¸¢":9946,"Ġà¹ĥà¸Ħà¸£à¸ŀà¸Ńà¸¡":9947,"à¸Ńà¸¢à¹Ģà¸ŀ":9948,"à¸Ńà¸ĩà¸«à¸¡à¸²à¸¢":9949,"ti":9950,"à¸Īà¸²à¸ģà¸ģà¸¥":9951,"Ġlight":9952,"à¸Ńà¸²à¸Īà¸Ĺ":9953,"à¸ŀà¸¢à¸²à¸Ļà¸«à¸¥":9954,"à¸Īà¸²à¸ģà¸ŀ":9955,"à¸¥à¸°à¸Ĭ":9956,"à¸ĩà¹ģà¸ªà¸Ķ":9957,"à¸§à¸²à¸ĩà¹ĥà¸Ī":9958,"Ġà¸§à¸²à¸ĩà¹ģà¸ľ":9959,"à¸Ļà¸į":9960,"à¸Ķà¸Ħà¸§à¸²à¸¡à¸ª":9961,"Ġà¸ŀà¸Ńà¸¥":9962,"ping":9963,"Ġupdate":9964,"Ġdisplay":9965,"Ġà¸ľà¸¡à¸Ķ":9966,"detail":9967,"à¸ģà¸©à¸²à¸Ħà¸§à¸²à¸¡à¸Ľà¸¥à¸Ńà¸Ķà¸ł":9968,"à¹Ģà¹Ģà¸Ĭ":9969,"gh":9970,"Ġcore":9971,"à¸¢à¸§à¹ĥà¸«":9972,"Ġà¸Ľà¸¥à¸Ńà¸Ķà¸ł":9973,"à¸¢à¸Ļà¸¥":9974,"à¸Ļà¹Ħà¸Ľà¸¢":9975,"à¹Ģà¸ģà¸©à¸¡":9976,"à¸ģà¸£à¸°à¸ļà¸§à¸Ļ":9977,"à¸ĩà¹Ģà¸Ńà¸ģà¸ªà¸²à¸£":9978,"à¸Ļà¹Ħà¸«à¸¥":9979,"à¸Ńà¹Ħà¸Ľà¹Ħà¸Ķ":9980,"à¸Ķà¹Ģà¸ŀà¸¥à¸ĩ":9981,"ject":9982,"à¸ĩà¹ĥ":9983,"à¸ģà¸©à¸²à¹Ħà¸Ķ":9984,"à¸²à¸Ľà¸£à¸°à¸Ĺ":9985,"à¸Ķà¸Ĳà¸²à¸Ļ":9986,"Ġ110":9987,"à¹Ĥà¸£à¸ĩà¹Ħà¸Łà¸Ł":9988,"Ġà¸Ľà¸§à¸Ĭ":9989,"à¸Ļà¸Ħà¸Ļà¸ª":9990,"à¸Ļà¸¥à¸°à¸Ńà¸Ńà¸ĩ":9991,"à¸¨à¸ķ":9992,"à¸Ńà¸Ķà¸Ĺà¸Ļ":9993,"à¸ĩà¹Ħà¸¥":9994,"à¸Ļà¹Ģà¸«à¸¢":9995,"à¸Ķà¸Ħà¸§à¸²à¸¡à¹Ģà¸ª":9996,"Ġà¸Ħà¸Ļà¹Ģà¸Ķ":9997,"à¹Ĥà¸«à¸¡à¸Ķ":9998,"à¸ŀà¸«à¸¥":9999,"à¸²à¸Ļà¸§à¸Ļà¸«à¸Ļ":10000,"à¸Ĥà¸Ńà¸Ĥà¸Ńà¸ļà¸Ħ":10001,"à¹Ģà¸§à¸¥à¸²à¸Ķ":10002,"à¸²à¹Ħà¸Ľà¸§":10003,"Ġà¹ģà¸¥à¸°à¸ķà¸Ńà¸Ļà¸Ļ":10004,"à¸ªà¸Ļà¹ĥà¸Īà¸ķ":10005,"à¹Ģà¸ŀà¸¥à¸ĩà¸Ĺ":10006,"à¹ģà¸¥à¸°à¸Ħà¸§à¸²à¸¡":10007,"à¸¢à¸Ļà¹ĥà¸«à¸¡":10008,"Ġwhat":10009,"Ġhr":10010,"Ġà¸ŀà¸£à¸°à¸ŀ":10011,"ĠðŁĺĺ":10012,"Ġà¸ªà¸°à¹Ĥà¸ŀà¸ģ":10013,"à¹ģà¸¡à¸Ļà¸¢":10014,"à¸ªà¸²à¸¡à¸²à¸£à¸ĸà¹Ģà¸Ľ":10015,"à¸ŀà¸Īà¸Ļ":10016,"à¸²à¸Ħà¸Ļà¸£":10017,"à¸ĵà¸°à¸£":10018,"à¸ĸà¸²à¸¡à¸ķ":10019,"Ġà¹Ģà¸Ĥà¸²à¸£":10020,"à¸Ĥà¸Ńà¸ĩà¸Ĥà¸§":10021,"à¸ļà¸Ħà¸§à¸²à¸¡à¸Ħ":10022,"Ġà¸Īà¸°à¸Ńà¸¢":10023,"ient":10024,"Ġvisa":10025,"à¸ļà¹Ģà¸Ńà¸ĩ":10026,"à¸Ńà¸ģà¸ľ":10027,"à¸Ĺà¸ĺà¸£":10028,"à¸£à¸°à¹ģà¸§à¸ĩ":10029,"à¹Ħà¸Ľà¸ģà¸§":10030,"à¸Ńà¹Ģà¸ŀà¸¥":10031,"à¸¥à¸°à¸¥à¸²à¸¢":10032,"à¸§à¸ģà¸²à¸£":10033,"à¹Ħà¸«à¸Ļà¹ģà¸Ļà¸°à¸Ļ":10034,"à¸ŀà¸Ńà¸Ħ":10035,"à¸ģà¸Ľà¸£à¸°à¸ģ":10036,"à¸§à¹ģà¸Łà¸Ļ":10037,"Ġ]":10038,"à¸Ĥà¸§à¸ļ":10039,"Ġà¸Īà¸°à¹Ģà¸Ķ":10040,"à¸Ħà¸£à¸Ńà¸ĩ":10041,"Ġà¸Ħà¸Ńà¸¥":10042,"à¹Ĥà¸ķà¸°":10043,"Ġhave":10044,"ings":10045,"à¸Ļà¸¢à¸²à¸¢":10046,"à¸Ļà¸Ļà¸²à¸¢":10047,"à¸ĩà¸Ħà¸ļà¸ģ":10048,"à¸²à¸ģà¸²à¸£à¸ĭ":10049,"Ġai":10050,"à¸įà¸Ļ":10051,"à¹ģà¸ļà¸ķà¹Ģà¸ķà¸Ńà¸£":10052,"à¹Ģà¸Īà¸Ńà¹ģà¸ļà¸ļà¸Ļ":10053,"à¸Ńà¸ķà¹Ģà¸ķà¸Ńà¸£":10054,"à¸ĩà¸Ħà¸§à¸²à¸¡à¹Ģà¸Ľ":10055,"à¸¢à¸¢à¸¢à¸¢à¸¢":10056,"à¹ģà¸ļà¸ļà¸Ħ":10057,"à¸²à¸Ĺà¸²à¸ĩà¸Ńà¸Ńà¸ģ":10058,"Ġreal":10059,"à¸Ļà¹ĥà¸ķ":10060,"à¸Ńà¸ĩà¸²à¸Ļ":10061,"à¸Ķà¹ģà¸Ľà¸¥à¸ĩ":10062,"à¸Ľà¸£à¸°à¸ªà¸ļà¸ł":10063,"à¸¨à¸¡":10064,"à¸ļà¹ĥà¸ª":10065,"à¸ĩà¸Īà¸²à¸ģà¸§":10066,"à¸²à¸Ĥà¸Ńà¸ĩà¸Ħ":10067,"Ġ450":10068,"à¸ķà¸Ńà¸ļà¸ªà¸Ļ":10069,"à¸ģà¸Ńà¸¥":10070,"à¸ŀà¸¥à¸Ńà¸¢":10071,"Ġà¸¥à¸°à¸ģ":10072,"à¸¡à¸²à¸Ĥà¸Ń":10073,"Ġà¹ģà¸ģà¸£":10074,"à¹Ĥà¸¥à¸ģà¸Ħà¸£":10075,"aser":10076,"à¸¡à¹Ģà¸«à¸¡":10077,"à¸²à¸«à¸¢à¸²à¸ļ":10078,"à¸ĩà¹Ģà¸¥à¸¢à¸Ħà¸£":10079,"à¸¡à¸§à¸¥":10080,"à¸ķà¸²à¸¡à¸Ķ":10081,"Ġà¹Ģà¸Ħà¸£à¸Ķ":10082,"à¸§à¹Ģà¸£à¸²à¹Ħà¸¡":10083,"à¸Ńà¸Ķà¸Ħ":10084,"à¸²à¸ĩà¸²à¸Ļà¸ļ":10085,"Ġà¹ģà¸Ĺà¸Ļ":10086,"à¸Ķà¸ŀà¸¥à¸²à¸Ķà¸Ľà¸£à¸°à¸ģà¸²à¸£":10087,"Ġshe":10088,"à¸¢à¸Ļà¸«à¸£":10089,"Ġà¹Ģà¸ŀà¸£à¸²à¸°à¹Ģà¸£à¸²à¹Ħà¸¡":10090,"à¸Ķà¹Ģà¸ģà¸¥":10091,"à¸£à¸°à¸ļà¸Ńà¸ļ":10092,"à¸Ńà¸ªà¸²à¸¡à¸²à¸£à¸ĸ":10093,"à¸Ħà¸Ļà¹Ħà¸Ĥ":10094,"dh":10095,"Ġà¸łà¸£à¸£à¸¢":10096,"Ġà¹Ģà¸£à¸²à¹ģà¸Ħ":10097,"à¸¥à¸ĩà¸ªà¸Ļà¸²à¸¡":10098,"à¸²à¸Ļà¹Ģà¸«à¸£":10099,"Ġsal":10100,"à¹Ĥà¸ķà¸Ĥ":10101,"à¹Ģà¸ªà¸ĸ":10102,"Ġà¸ķà¸Ļà¹Ģà¸Ńà¸ĩ":10103,"à¹ĥà¸Īà¹Ģà¸¢":10104,"Ġà¸ŀà¸Ļà¸ĩ":10105,"à¸¡à¸Ńà¸Ńà¸Ļà¹Ħà¸¥à¸Ļ":10106,"à¸Ķà¹Ģà¸Ľà¸¥":10107,"à¸¡à¸²à¹Ģà¸¡":10108,"à¸Ĥà¸Ńà¸§":10109,"à¸Ńà¸ĩà¸ģà¸²à¸£à¸£":10110,"à¸Ńà¹ĥà¸ª":10111,"à¸²à¸¡à¸²à¸Ĥ":10112,"à¸ķà¹Ģà¸Ļà¸ª":10113,"Ġà¸Ľà¸£à¸°à¸Ĭ":10114,"à¸§à¹Ģà¸§":10115,"à¸®à¸Ńà¸£":10116,"à¸²à¸ĩà¹Ģà¸ªà¸£":10117,"à¸Ńà¸²à¸ģà¸²à¸¨à¸Ĺ":10118,"à¸Ńà¸ģà¹Ģà¸ĩ":10119,"à¸Ļà¸Ĺà¸°à¹Ģà¸ļ":10120,"Ġà¹Ĥà¸ªà¸Ķ":10121,"à¸ªà¸¡à¸¡à¸ķ":10122,"à¸£à¸°à¹Ģà¸§":10123,"à¸ģà¸²à¸£à¹Ħà¸¡":10124,"à¹Ĥà¸ļà¸§":10125,"à¸²à¸ªà¸¥":10126,"Ġà¸Ńà¸²à¸¨":10127,"Ġà¹ģà¸¥à¸°à¹Ģà¸Ĭ":10128,"à¸ĵà¸Ĭ":10129,"à¸§à¸Ńà¸¢à¸²à¸ģ":10130,"à¸ļà¹Ģà¸§":10131,"à¸Ļà¸ĺà¸£à¸£à¸¡à¸Ķ":10132,"à¸²à¹Ĥà¸Ħà¸£":10133,"à¹Ģà¸Ńà¸¢":10134,"à¹Ĥà¸Ĺà¸£à¸ģà¸¥":10135,"à¸ķà¸£à¸ª":10136,"à¸ĩà¸Ħà¸£à¸Ńà¸ļà¸Ħà¸£":10137,"à¸¡à¸«à¸²à¸ģà¸©":10138,"à¸Ļà¸Ĺà¸²à¸ĩà¸ķ":10139,"à¸¡à¹ģà¸ģ":10140,"à¸ĩà¹Ĥà¸¡":10141,"à¸²à¸Ķà¸£":10142,"à¹Ĥà¸£à¸¡":10143,"à¸łà¸²à¸ŀà¸ĸ":10144,"à¸£à¸ļ":10145,"à¸°à¹Ģà¸Ķ":10146,"à¸ģà¸Ħà¸Ļà¹Ħà¸Ķ":10147,"à¸Ńà¹Ģà¸Ĥà¸²":10148,"à¸ĩà¸Ļà¸²à¸Ļ":10149,"thairath":10150,"Ġà¸Ķà¸Ńà¸ģ":10151,"à¹Ĥà¸£à¹ģà¸¡à¸Ļà¸ķ":10152,"à¸²à¸Ļà¸§à¸¢à¸ģà¸²à¸£à¸ª":10153,"Ġà¸«à¸§à¸²à¸Ļ":10154,"à¸ĩà¸ĩà¸²à¸Ļà¸Ĺ":10155,"à¸ļà¹Ģà¸£à¸²à¸§":10156,"'t":10157,"à¸ªà¹Ĥà¸ģ":10158,"à¸Ńà¸Ĭà¸Ńà¸ļ":10159,"Ġ5000":10160,"à¸§à¸Ŀ":10161,"flix":10162,"oud":10163,"à¸Ńà¸²à¸Īà¸Īà¸°à¸ķ":10164,"à¸²à¸ĩà¹Ħà¸ĩ":10165,"ival":10166,"à¸ľà¸¡à¸Ń":10167,"à¸²à¸ĩà¹Ĩà¸Ĺ":10168,"à¸ģà¸İà¸«à¸¡à¸²à¸¢à¸Ĺ":10169,"à¸ĩà¹Ħà¸Ľà¸Ķ":10170,"Ġprodu":10171,"à¸ģà¸©à¸²à¸ŀà¸¢à¸²à¸ļà¸²à¸¥":10172,"à¸²à¸«à¸²à¸¢à¹Ħà¸Ľ":10173,"Ġà¹ģà¸ļà¸ĩà¸Ħ":10174,"Ġà¸ķà¸Īà¸§":10175,"à¸£à¸²à¸Ħà¸²à¸ŀ":10176,"à¸£à¸Ķà¸ģ":10177,"à¹Ħà¸Ĺà¸¢à¸¥":10178,"à¸«à¸²à¸ģà¸¡":10179,"Ġhappy":10180,"à¸Ļà¸ģà¸²à¸£à¹Ģà¸ĩ":10181,"à¸ļà¹ĥà¸Ħà¸£à¸Ĺ":10182,"à¸¢à¸Ļà¸¡à¸«à¸²à¸¥":10183,"à¸Ķà¸īà¸²à¸ģ":10184,"à¹ģà¸Łà¸Ļà¸¡":10185,"à¸ŀà¸§à¸ģà¹Ģà¸Ĥà¸²":10186,"à¹Ģà¹Ģà¸¢":10187,"à¸¥à¸Ł":10188,"à¸²à¹ģà¸Ķ":10189,"à¸Ĥà¸Ńà¸Ĥ":10190,"Ġà¸ŀà¸£à¸ļ":10191,"à¹Ģà¸Ńà¸²à¸Ĭ":10192,"à¸Ľà¸£à¸°à¸ģà¸§à¸Ķ":10193,"à¸²à¹ĥà¸Ļà¸ģà¸²à¸£":10194,"à¸Ńà¸Ĥà¸Ńà¸ĩà¸Ĺ":10195,"Ġchamp":10196,"Ġcheck":10197,"à¸Īà¸Ļà¹Ħà¸¡":10198,"à¸²à¹Ħà¸Ĺ":10199,"à¸Ļà¹Ģà¸ĭà¸Ńà¸£":10200,"entertain":10201,"à¹Ħà¸«à¸¡à¸Ĺ":10202,"cel":10203,"à¸Ĥà¸Ńà¸ª":10204,"à¸Ķà¸Īà¸²à¸ģà¸Ńà¸°à¹Ħà¸£":10205,"Ġgrand":10206,"à¸§à¸§à¸§à¸§à¸§à¸§à¸§à¸§":10207,"à¹Ħà¸Łà¹Ħà¸«à¸¡":10208,"Ġà¸ĩà¸Ķ":10209,"à¹ĥà¸Ħà¸£à¸Ħ":10210,"à¸ļà¸Ńà¸ģà¸«à¸Ļ":10211,"à¸¢à¸Ļà¸²à¸Ĺ":10212,"à¸Ĭà¸²à¸¢à¸Ŀ":10213,"à¸ķà¸Ńà¸Ļà¸ģà¸¥à¸²à¸ĩà¸Ħ":10214,"à¸ķà¹ģà¸ŀà¸Ĺà¸¢":10215,"Ġà¸Īà¸°à¸ģà¸¥":10216,"à¸Īà¹Ħà¸¡":10217,"à¹ĥà¸Ħà¸£à¸Ķ":10218,"à¸ļà¸ļà¸£à¸£":10219,"à¸ĩà¹Ģà¸Ħà¸£à¸²à¸°à¸«":10220,"à¸Ľà¸Ī":10221,"à¸§à¸Ļà¹Ħà¸Ľ":10222,"à¹ģà¸¢à¸ģà¸¢":10223,"à¹Ģà¸Īà¸£à¸Īà¸²à¸ģ":10224,"à¸ĩà¸ĩà¸²":10225,"à¹Ĥà¸ļà¸Ļ":10226,"à¸ĩà¹Ĩà¸ģ":10227,"à¸²à¸ľà¸¡à¸Ĺ":10228,"à¹ĥà¸Ļà¹ģà¸ĩ":10229,"ins":10230,"à¹Ģà¸Ńà¸²à¸¥":10231,"à¸Ĳà¸²à¸Ļà¹Ģà¸¨à¸£à¸©à¸Ĳà¸ģ":10232,"à¸²à¸Ńà¸²à¸Īà¸Īà¸°":10233,"à¸ļà¸¡à¸²à¸ª":10234,"à¸§à¸Ļà¹Ģà¸Ľ":10235,"Ġà¹Ģà¸«à¸¡à¸²à¸°à¸ģ":10236,"à¸ĩà¸²à¸Ļà¸ª":10237,"hi":10238,"Ġà¸«à¸²à¸ģà¸Ħ":10239,"à¸¡à¸Ĺà¸°à¹Ģà¸¥":10240,"à¸¥à¸ľ":10241,"Ġà¸§à¸ĩà¹Ģà¸ĩ":10242,"à¹ģà¸ªà¸Ķà¸ĩà¸Ħà¸§à¸²à¸¡à¸¢":10243,"Ġ(@":10244,"à¹ģà¸Ńà¸Ħ":10245,"à¸įà¸įà¸²à¸§":10246,"à¸ĩà¸Ńà¸¢à¸²à¸ģà¹ĥà¸«":10247,"Ġvo":10248,"Ġà¸ľà¸¡à¸ģà¸¥":10249,"à¸ĩà¸«à¸§à¸°à¸Ĺ":10250,"à¸Īà¸²à¸ģà¸«à¸Ļ":10251,"à¸łà¸£à¸£à¸¢à¸²":10252,"Ġà¹ĥà¸Ļà¸¢":10253,"à¸Ķà¸Ľà¸£à¸°à¹Ĥà¸¢à¸Ĭà¸Ļ":10254,"à¸²à¸łà¸²à¸Ħ":10255,"Ġsur":10256,"Ġ3000":10257,"à¸Ĺà¹Ħà¸¡":10258,"à¸²à¸¡à¸²à¸§":10259,"Ġà¸ŀà¸¢à¸²à¸ļà¸²à¸¥":10260,"Ġà¹Ħà¸ķ":10261,"à¸łà¸²à¸Ħà¸Ĺ":10262,"à¸ŀà¸ļà¹Ģà¸«":10263,"à¸Ļà¹ģà¸«à¸¥à¸°à¸Ħ":10264,"à¸ģà¹Ĩà¸Ĺ":10265,"à¸ļà¸ĺ":10266,"à¸Ńà¹ģà¸Ĥ":10267,"Ġà¹Ģà¸ĸ":10268,"à¸²à¸ĩà¹Ħà¸£à¹ĥà¸«":10269,"à¸ķà¸£à¸§à¸Īà¸Ħ":10270,"à¸²à¸ĩà¹ĥà¸«à¸į":10271,"à¹Ĥà¸Ļà¸°":10272,"à¸ļà¸¡à¸²à¹Ģà¸¥":10273,"à¹Ģà¸Ĺà¸Ńà¸¡":10274,"stock":10275,"à¸Ļà¹Ģà¸¨à¸£à¸©à¸Ĳà¸ģ":10276,"à¸¡à¸²à¸ģà¸ģà¸ģà¸ģ":10277,"à¸Ĥà¸Ńà¸ĩà¹Ĥà¸¥à¸ģ":10278,"Ġsan":10279,"à¸Ļà¸Ļà¸Ńà¸ģ":10280,"Ġà¹ĥà¸«à¸į":10281,"à¸įà¸ļ":10282,"à¸Īà¸°à¹Ħà¸Ľà¹Ģà¸Ĺ":10283,"à¹Ģà¸Ħà¸¢à¸ĸ":10284,"à¸Ńà¸²à¸«à¸²à¸£à¹Ģà¸Ĭ":10285,"Ġà¹Ģà¸¢à¸Ńà¸£":10286,"à¸Ľà¸£à¸°à¸ªà¸ļà¸Ľ":10287,"à¹Ħà¸ģà¸¥à¸ģ":10288,"à¸Ļà¹Ħà¸Ľà¸£":10289,"Ġborder":10290,"à¸ģà¹Ģà¸£à¸²à¸ģ":10291,"à¸Ĭà¸¡à¸£à¸¡":10292,"à¹Ģà¸Ĭà¸©à¸Ĳ":10293,"à¸²à¸¡à¸²à¹Ģà¸¥":10294,"à¸Ļà¸Ĺà¸²à¸ĩà¹Ħà¸Ľà¸Ĺ":10295,"120":10296,"à¸ļà¸¡à¸²à¹Ħà¸Ķ":10297,"à¸įà¸«à¸²à¹ĥà¸«":10298,"Ġà¸ľà¸¡à¸Ńà¸¢à¸²à¸ģà¸£":10299,"à¸ģà¹ģà¸£":10300,"à¸Ńà¸ĩà¸ģà¸¥à¸²à¸ĩ":10301,"à¹ģà¸«à¸¡":10302,"ty":10303,"Ġà¹ģà¸Ĭ":10304,"Ġever":10305,"Ġà¸Ħà¸ĵ":10306,"à¸²à¸¡à¸Ľ":10307,"à¸ªà¸¡à¸²à¸ĺ":10308,"à¸Ļà¹ĥà¸Ļà¸£":10309,"à¹Ģà¸Ħà¸¢à¸ĭ":10310,"à¸£à¸²à¸Ĭà¸ł":10311,"à¸¡à¸²à¸£à¸¢à¸²à¸Ĺ":10312,"Ġdigital":10313,"à¸¢à¸°à¸¥à¸²":10314,"Ġrun":10315,"à¸Ľà¸¥à¸Ńà¸ļ":10316,"à¸Īà¸°à¸«à¸¢":10317,"Ġà¸ģà¸İà¸«à¸¡à¸²à¸¢":10318,"Ġà¹Ģà¸Ħà¸¢à¸Ħ":10319,"à¹ĥà¸ł":10320,"à¹Ģà¸§à¸ĵà¸Ļ":10321,"Ġà¸ľà¸¡à¸ŀ":10322,"à¸²à¸¢à¸£à¸ĸ":10323,"à¸²à¸Ħà¸°à¹ģà¸Ļà¸Ļ":10324,"à¸Ļà¸£à¸²à¸¢à¸ģà¸²à¸£":10325,"à¸Ļà¹Ģà¸īà¸ŀà¸²à¸°":10326,"à¹Ĥà¸ļà¸£":10327,"à¸ģà¸¡à¸²à¸ģà¸Ħ":10328,"Ġà¹ģà¸¥à¸°à¹Ģà¸ģ":10329,"à¸¢à¸ªà¸¥à¸°":10330,"à¸§à¸ĩà¸¡":10331,"à¸Īà¸ŀ":10332,"à¸Ńà¸ĩà¸ģà¸²à¸£à¸ķ":10333,"à¸ģà¹ģà¸Ĥ":10334,"Ġà¸Ĥà¸²à¸¢à¹ģà¸¥":10335,"à¸Ķà¸Īà¸°à¸Ĺ":10336,"Ġà¸ľà¸¡à¹Ģà¸Ĭ":10337,"Ġsen":10338,"à¸¢à¸¡à¸Ń":10339,"à¸¢à¸¥à¸¡":10340,"à¸ļà¸ªà¸ĸà¸²à¸Ļà¸ģà¸²à¸£à¸ĵ":10341,"à¹Ģà¸£à¸²à¸ľ":10342,"à¸Ļà¸£à¸²à¸¢à¹Ħà¸Ķ":10343,"Ġà¸Ħà¸Ńà¸¡":10344,"à¸ĩà¸ĺà¸£à¸£à¸¡":10345,"????????":10346,"à¸²à¸Ĥà¸Ļà¸²à¸Ķà¸Ļ":10347,"à¹Ģà¸ĸà¸Ńà¸°à¸Ħ":10348,"Ġtravel":10349,"à¹ģà¸Ńà¸Łà¸£":10350,"à¹Ģà¸łà¸ª":10351,"à¹Ģà¸Īà¸¥":10352,"à¸§à¹Ħà¸ĩ":10353,"Ġà¹ģà¸Ń":10354,"à¸Ńà¸ģà¸«à¸Ļ":10355,"à¸Ĳà¸²à¸Ļà¸°à¸Ĺ":10356,"à¸Ļà¹Ħà¸Ĺà¸Ļ":10357,"à¸Ĳà¸ģ":10358,"à¹Ħà¸«à¸Ļà¸Ļ":10359,"Ġdec":10360,"à¸Ńà¸ľà¸¡à¸ģ":10361,"à¹Ģà¸Īà¸Ńà¸ķ":10362,"à¸ķà¸²à¸¡à¸¡à¸²":10363,"Ġopen":10364,"à¹Ħà¸Ľà¹ģà¸Ī":10365,"à¸Ļà¸«à¸²":10366,"Ġmap":10367,"ðŁĴĵ":10368,"à¸Ńà¹ĥà¸«à¸į":10369,"à¸łà¸²à¸ŀà¸ª":10370,"à¹Ģà¸£à¸²à¹Ģà¸ģ":10371,"Ġstreet":10372,"à¸²à¹Ģà¸Ĥà¸²à¹Ģà¸Ľ":10373,"à¸Ĥà¸²à¸¢à¸ļ":10374,"à¸²à¸ĩà¸ľà¸¡":10375,"à¹Ģà¸§à¸Ļà¸ķ":10376,"à¹ĥà¸Īà¸ª":10377,"à¹ģà¸¥à¸°à¸ªà¸«à¸ģà¸£à¸ĵ":10378,"à¸Ńà¸ĩà¸ªà¸Ńà¸ļ":10379,"à¸°à¸ģà¸£":10380,"à¸²à¸¢à¸Īà¸£":10381,"à¸ĩà¹Ħà¸Ľà¸¢":10382,"à¸¢à¸Ķà¸ķ":10383,"à¹ģà¸ļà¸ļà¸Ń":10384,"à¸²à¸ľà¸¡à¸ķ":10385,"à¸Ķà¸ĸà¸Ļà¸Ļ":10386,"à¸Ķà¹Ģà¸ĭ":10387,"Ġtoyota":10388,"à¸²à¹ģà¸Ķà¸ĩ":10389,"à¸įà¸Ķ":10390,"Ġ2012":10391,"ĠðŁĴķ":10392,"à¸Ľà¸²à¸¥":10393,"à¸ĩà¸ķà¸¥à¸²à¸Ķ":10394,"à¸£à¸Ļà¸Ķ":10395,"à¸£à¸²à¸Ĭà¸²":10396,"à¸ļà¹Ģà¸£à¸²à¸ģ":10397,"à¹Ģà¸Ħà¸²à¸°":10398,"à¸ľà¸¥à¸ľà¸¥":10399,"soft":10400,"à¸²à¸§à¹Ĥà¸ŀ":10401,"à¸Ľà¹Ģà¸¥":10402,"à¸Ļà¸ģà¸£à¸°à¹ģà¸ª":10403,"Ġstation":10404,"Ġ1800":10405,"à¸Ļà¹Ģà¸ģà¸²à¸«à¸¥":10406,"à¸Ńà¸Ķà¸Ħà¸¥":10407,"à¸ªà¸²à¸¡à¸²à¸£à¸ĸà¸ŀ":10408,"à¸²à¸£à¸²à¸ĩà¸§":10409,"Ġà¸¥à¸²à¸ģ":10410,"Ġnor":10411,"col":10412,"à¸²à¸¢à¸«à¸¥":10413,"à¸ĩà¸Ńà¸²à¸ģà¸²à¸£":10414,"à¸«à¸¥à¸²à¸¢à¸ŀ":10415,"gmail":10416,"à¸ĩà¸Ħà¸§":10417,"à¹Ģà¸ĺà¸Ńà¹Ģà¸Ľ":10418,"à¸Īà¸Ħ":10419,"Ġuk":10420,"à¸²à¸Ĥà¸§":10421,"à¸Īà¸į":10422,"à¸ĩà¸¡à¸²à¸ģà¸Ĺ":10423,"Ġà¹Ģà¸ŀà¸£à¸²à¸°à¸ľà¸¡":10424,"à¹ģà¸¥à¸°à¸«à¸Ļ":10425,"à¸Ńà¹Ģà¸£à¸²à¸Ħ":10426,"à¸ķà¸Ńà¸Ļà¹Ģà¸¢":10427,"Ġà¸Ĥà¸Ńà¸ª":10428,"à¸Ļà¹ĥà¸ļ":10429,"Ġunivers":10430,"à¸Ńà¸¡à¹Ģà¸ª":10431,"content":10432,"Ġà¹Ģà¸Ĥà¸²à¸ķ":10433,"Ġà¸«à¸²à¸£":10434,"à¸ļà¸Ńà¸ģà¸Ħ":10435,"à¸Ńà¸¢à¸¡à¸²":10436,"à¸ĩà¸£à¸Ńà¸ļ":10437,"à¸²à¸£à¸§à¸Īà¸Ī":10438,"à¸°à¹Ģà¸Ļ":10439,"à¸Īà¸°à¹ģà¸Ī":10440,"à¸§à¸¢à¸ķà¸Ńà¸ļà¸Ĺ":10441,"à¸ĩà¹Ģà¸Ħà¸¥":10442,"ðŁĳĽ":10443,"à¸¢à¸ļà¸ĩ":10444,"pre":10445,"à¸£à¸ĵà¸°":10446,"à¸Ļà¹Ĥà¸Ĺà¸£à¸¨":10447,"à¸²à¸ĩà¸ĸà¸Ļà¸Ļ":10448,"à¸ģà¸Ħà¸§à¸²à¸¡":10449,"à¸ģà¸²à¸£à¸Ŀ":10450,"adding":10451,"à¸¢à¸¡à¸Ļ":10452,"à¸Ļà¹Ģà¸ŀà¸£à¸²à¸°à¸Ńà¸°à¹Ħà¸£":10453,"à¸ķà¸«à¸Ļ":10454,"à¸Ĥà¸Ńà¸ĩà¸Ĥ":10455,"à¸§à¸Ħà¸¥":10456,"à¸ļà¸Ľà¸£à¸°à¸Ĭà¸²à¸Ĭ":10457,"à¹Ħà¸Ħà¸£":10458,"Ġà¹Ģà¸Łà¸ĭà¸ļ":10459,"Ġsum":10460,"Ġà¸Ńà¹Ģà¸¥":10461,",,":10462,"Ġlong":10463,"à¸Ļà¸ªà¸°à¸ŀ":10464,"Ġà¸¥à¸ĩà¸ŀ":10465,"Ġshopee":10466,"web":10467,"à¸Ĥà¸Ńà¹Ģà¸¥":10468,"à¸²à¸¢à¹ģà¸£à¸ĩ":10469,"à¸Ĥà¸Ńà¸ĩà¸ŀà¸£à¸£à¸Ħ":10470,"à¸Ļà¸Ńà¸Ļà¸ģ":10471,"Ġgame":10472,"à¸ļà¸Ńà¸ģà¹Ģà¸Ħ":10473,"ior":10474,"à¸¢à¸ĩà¸«à¸Ļ":10475,"à¸Ļà¸£à¸²à¸Ħà¸²à¸ĸ":10476,"Ġà¹Ģà¸Ńà¸²à¹ĥà¸Ī":10477,"à¸Ĥà¸Ńà¸ĩà¹ĥà¸«à¸¡":10478,"Ġwidth":10479,"à¸ģà¸ģà¸ģà¸ģà¸ģ":10480,"à¸Ļà¸ªà¸ģ":10481,"Ġà¸ĸà¸Ńà¸Ķ":10482,"à¸²à¸¡à¸²à¹Ģà¸£":10483,"Ġà¸ªà¸ĸ":10484,"lect":10485,"à¸²à¸Ļà¸¡à¸²à¹Ħà¸Ķ":10486,".(":10487,"à¸¢à¸§à¹ģà¸ķ":10488,"à¸łà¸²à¸¢à¹ĥà¸Ļà¸§":10489,"Ġà¸Ħà¸§à¸²à¸¡à¹Ģà¸Ľ":10490,"Ġcare":10491,"à¸Ļà¸«à¸¥à¸Ńà¸ģ":10492,"à¸§à¹Ģà¸Ńà¸ĩà¸ķ":10493,"à¸Ķà¸Ļà¸°à¸Ħà¸°":10494,"à¸°à¸ĭ":10495,"à¹ĥà¸Ļà¸£à¸ĸ":10496,"à¸ļà¸Ńà¸ģà¸£":10497,"à¸Ħà¸Ļà¸ĭ":10498,"Ġà¸ľà¸ļà¸ģ":10499,"à¸ļà¸Ńà¸²à¸¢":10500,"à¹ģà¸«à¸¥à¸°à¸Ĺ":10501,"Ġà¹Ĥà¸Ķà¸¢à¸§":10502,"Ġcor":10503,"à¸Ńà¸¥à¸Ķ":10504,"Ġà¸Ħà¸Ļà¹Ħà¸¡":10505,"à¸²à¸ĩà¹Ħà¸£à¸Ħà¸°":10506,"à¸Ķà¹ģà¸ľ":10507,"à¸²à¹ĥà¸Ļà¸Ľ":10508,"Ġà¸ŀà¸¤à¸ķ":10509,"à¸²à¸Īà¸°à¹Ģà¸Ķ":10510,"à¸ģà¸Ĥà¸²à¸Ķ":10511,"à¸²à¸£à¸§à¸Īà¹Ħà¸Ķ":10512,"Ġir":10513,"à¸Ńà¸¢à¹Ģà¸¥":10514,"à¸Ļà¸«à¸¥à¸²à¸¢à¸Ħà¸Ļ":10515,"Ġå":10516,"à¸Ļà¹ģà¸Ķà¸Ļ":10517,"à¸Ħà¸Ļà¸ļà¸Ńà¸ģà¸§":10518,"à¸²à¸ŀà¸£à¸°à¸¢à¸²":10519,"Ġà¸ģà¸£à¸²à¸ļ":10520,"à¸ģà¸Ńà¸Ķ":10521,"à¸Ńà¸¡à¹Ĥà¸¢à¸ĩ":10522,"Ġà¹ĥà¸Ļà¸Ļ":10523,"à¸ĩà¹ĥà¸ģà¸¥":10524,"à¸ģà¸©à¸²à¸Ĥ":10525,"à¸Ļà¸Ńà¸Ļà¸Ķ":10526,"Ġà¹Ģà¸Ħà¸¢à¹Ģà¸Ľ":10527,"Ġphoto":10528,"à¸ŀà¸£à¸°à¸Ĺ":10529,"à¹Ģà¸¥à¸¢à¸Īà¸£":10530,"à¸Ĭà¸Ļà¸¡":10531,"à¸Ļà¸¡à¸²à¸Ĥ":10532,"à¸°à¹Ĩ":10533,"à¸ģà¸¥à¸²à¸ĩà¹Ģà¸¡":10534,"à¹Ģà¸Ńà¸²à¸ª":10535,"à¸Ħà¸£à¸ļà¸ĸ":10536,"Ġà¸ŀà¸Ńà¸ģà¸¥":10537,"à¸²à¸ĩà¸²à¸Ļà¹ĥà¸Ļ":10538,"à¸Ľà¸£à¸²à¸¨":10539,"Ġà¸ĩà¸§à¸Ķ":10540,"Ġà¸«à¸²à¸ģà¸ķ":10541,"à¸¡à¸Ħà¸¥":10542,"Ġà¸łà¸²à¸Ħà¸ķà¸°à¸§":10543,"à¸²à¸¡à¸²à¸ĸ":10544,"à¸ģà¸©à¸²à¸ĺ":10545,"à¸²à¸ĩà¸Ļà¸°à¸Ħà¸°":10546,"à¹Ħà¸ļ":10547,"à¸ļà¹Ħà¸¥":10548,"à¸ķà¸£à¸Ħ":10549,"Ġà¸Ńà¸²à¸Īà¸Īà¸°à¹Ħà¸¡":10550,"Ġà¸Ĺà¸²à¸ĩà¸£":10551,"à¸Ĥà¸Ńà¸ŀ":10552,"à¸²à¸ĩà¹Ģà¸Ľà¸¥":10553,"à¹Ģà¸Īà¸Ńà¸Ļ":10554,"à¹Ģà¸Ńà¸²à¹Ģà¸Ĥ":10555,"à¸łà¸²à¸ŀà¸ļ":10556,"à¸°à¸«à¸¥":10557,"à¸Ĭà¸Ńà¸ļà¸¡":10558,"à¸¢à¸ģà¸Ĺ":10559,"à¸²à¸Īà¸Ļà¸ĸ":10560,"à¸Ńà¸ĩà¸£à¸²à¸§à¸Ĥà¸Ńà¸ĩ":10561,"à¸Ľà¸Ńà¸¢":10562,"awa":10563,"à¸Ĥà¸Ļ":10564,"à¸²à¸Ĥà¸Ńà¸ĩà¸ľ":10565,"ðŁĴĽðŁĴĽ":10566,"à¸²à¸¥à¸ĩà¸ģà¸£à¸ĵ":10567,"à¸ķà¸£à¸ĩà¸«à¸Ļ":10568,"à¸Ńà¹Ħà¸«à¸¡":10569,"à¸Ĥà¸Ķ":10570,"à¸Ļà¸Ħà¸Ļà¸ŀ":10571,"à¸²à¸Ļà¹Ģà¸«à¸¥":10572,"à¸§à¸¢à¸Ńà¸°à¹Ħà¸£":10573,"à¸§à¸Ĺà¸²à¸ĩ":10574,"à¸¡à¸ĩ":10575,"à¸Ńà¸ĩà¹ģà¸Ĥ":10576,"à¹Ģà¸ŀà¸£à¸²à¸°à¸ģà¸¥":10577,"à¸Ĭà¸²à¸§à¹Ģà¸Ļ":10578,"à¸Ļà¸Ĺà¸£à¸²":10579,"à¸ģà¹Ģà¸¢":10580,"Ġnon":10581,"à¸ĩà¹ĥà¸Ļà¸Ĺ":10582,"Ġà¹ĥà¸ķ":10583,"Ġà¹Ģà¸¥à¸¢à¸ªà¸ĩà¸ª":10584,"Ġà¸ģà¸£à¸°à¸ķ":10585,"Ġà¸Ńà¸¢à¸²à¸ģà¹Ģà¸¥":10586,"à¸²à¸¡à¸²à¸ĭ":10587,"Ġà¸ķà¸²à¸¡à¸Ķ":10588,"ðŁĴ¯":10589,"à¸Ńà¸ĩà¸Ľà¸ı":10590,"Ġhi":10591,"à¸ªà¸¡à¸«à¸§":10592,"à¸ĩà¹Ģà¸«à¸Ļ":10593,"à¸²à¸ĩà¸Īà¸°":10594,"à¸«à¸¢à¸²à¸ļ":10595,"à¸£à¸ĸà¸ª":10596,"à¸Ļà¹ĥà¸Ļà¹Ģà¸£":10597,"ron":10598,"Ġà¹ģà¸Ĺà¸ļ":10599,"à¸ģà¹ģà¸Łà¸Ļ":10600,"à¹ĥà¸Īà¸Ļ":10601,"à¹ģà¸¥à¸ľ":10602,"à¸ģà¸Ļà¸²à¸¢à¸ģà¸£":10603,"Ġms":10604,"à¸Ńà¸«à¸²à¸ģ":10605,"à¸Ļà¹Ģà¸ľ":10606,"à¸²à¸¡à¸Ī":10607,"ĠðŁĴĸ":10608,"à¸ģà¸²à¸£à¸ªà¸Ļ":10609,"à¸Ĭà¸ª":10610,"à¸ķà¸ģà¹Ģà¸Ľ":10611,"à¸²à¸Ńà¸²à¸ĩà¸Ħ":10612,"Ġà¹Ģà¸£à¸²à¹Ģà¸Ńà¸ĩà¸ģ":10613,"Ġbrow":10614,"à¸§à¸Ĥà¸Ńà¸ĩà¸ķ":10615,"à¸ģà¸©à¸²à¸Ħà¸§à¸²à¸¡à¸ªà¸ĩà¸ļ":10616,"Ġà¹Ģà¸Īà¸²à¸°":10617,"Ġà¸¥à¸ĩà¸Ĺà¸°à¹Ģà¸ļ":10618,"à¸ĵà¸«à¸Ļ":10619,"ino":10620,"à¸Ĳà¸ªà¸ł":10621,"à¸§à¸«à¸²à¸¢":10622,"Ġkey":10623,"Ġ130":10624,"à¸ľà¸¡à¸ĸ":10625,"ope":10626,"Ġhouse":10627,"ðŁĴĻ":10628,"à¸įà¸Ĭà¸²à¸ģà¸²à¸£à¸ķ":10629,"ield":10630,"à¸²à¸Ļà¸¨":10631,"à¸§à¹Ģà¸Ľà¸¥":10632,"à¸Ļà¸ģà¸²à¸£à¸ŀ":10633,"Ġë":10634,"à¸ĩà¹ģà¸¢":10635,"à¸ªà¸²à¸ģà¸¥":10636,"à¸ĩà¸Īà¸²à¸ģà¹Ħà¸Ķ":10637,"Ġà¹Ģà¸Īà¸¡à¸ª":10638,"Ġà¸Ħà¸Ńà¸Ļà¹Ĥà¸Ķ":10639,"à¸Ńà¸¡à¸²à¹Ħà¸Ķ":10640,"à¸²à¸ľà¸¡à¸¡":10641,"à¸²à¸Ļà¹Ģà¸§":10642,"à¸Ļà¸Ĥà¸Ļà¸¡":10643,"à¸Ļà¹Ĥà¸ģ":10644,"à¸ļà¸ŀà¸Ńà¸Ķ":10645,"à¸Ļà¸Ńà¸ĩà¸Ħ":10646,"à¸ķà¸£à¸§à¸Īà¸ª":10647,"à¸ŀà¸£à¸°à¸Ńà¸²à¸Ĺ":10648,"à¸ģà¸Ķà¹Ģà¸Ľ":10649,"à¸ªà¸ģà¸Ńà¸£":10650,"Ġà¸Ķà¸Ńà¸ģà¹Ģà¸ļ":10651,"à¸¢à¸Ļà¹ĥà¸Ļ":10652,"à¸Ļà¹ĥà¸Ļà¸ķ":10653,"of":10654,"à¸ģà¹ĥà¸Īà¸ģ":10655,"à¸ģà¸Ħà¸²à¸¡":10656,"à¸Ńà¸ĩà¸¢à¸Ńà¸¡":10657,"à¸Ńà¸¢à¹Ģà¸Ĺ":10658,"Ġ<":10659,"à¸µà¹ĪâĢĿ":10660,"à¸²à¹Ħà¸Ľà¹Ģà¸¥":10661,"à¹Ģà¸Ńà¸²à¸Ĥ":10662,"à¸²à¸ŀà¸¥à¸²à¸Ķ":10663,"à¸¬à¸²à¸¥à¸ĩà¸ģà¸£à¸ĵ":10664,"à¸ļà¸²à¸Ļ":10665,"à¹Ģà¸Ńà¸²à¹Ģà¸Ľà¸£":10666,"à¸ģà¸Ķà¹Ģà¸ĩ":10667,"pal":10668,"à¸Ļà¹ĥà¸Īà¹Ħà¸Ķ":10669,"à¹Ģà¸£à¸²à¸«à¸Ļ":10670,"uy":10671,"Ġà¸ŀà¸Ľà¸Ĭà¸£":10672,"à¹Ģà¸ģà¸©à¸ķà¸£à¹ģà¸¥à¸°à¸ªà¸«à¸ģà¸£à¸ĵ":10673,"à¸ļà¸Ńà¸²à¸ģà¸²à¸¨":10674,"à¸Ĭà¸Ńà¸ļà¹ĥà¸«":10675,"Ġled":10676,"à¸²à¸§à¸ŀ":10677,"à¹Ģà¸Īà¸Ńà¸ľ":10678,"à¸£à¸°à¹Ģà¸Ĥ":10679,"à¸¢à¸Ńà¸°à¹Ħà¸£":10680,"à¸Ńà¸ĩà¸Īà¸²à¸ģà¸ķ":10681,"à¸²à¸¢à¹ģà¸ŀ":10682,"à¸²à¹Ĥà¸Ķà¸¢à¸ªà¸²à¸£":10683,"à¸Īà¸°à¸¡à¸²à¸£":10684,"à¸Ļà¹Ħà¸Ľà¸ĭ":10685,"Ġmi":10686,"à¹Ģà¸ĺà¸Ńà¹Ħà¸Ľ":10687,"à¹Ģà¸ļà¸£":10688,"à¸ģà¸£à¸°à¹Ģà¸ļ":10689,"áĦ":10690,"à¸Ļà¸Ĥà¸Ńà¸ĩà¸Ĥà¸§":10691,"à¸ļà¸Ļà¸ŀ":10692,"à¸¢à¸ģà¸ª":10693,"samgee":10694,"à¸ĩà¸«à¸į":10695,"à¸Ħà¸Ĥà¸Ńà¸ĩ":10696,"reat":10697,"à¸Ńà¸¢à¸²à¸ģà¸¥à¸Ńà¸ĩ":10698,"à¸¢à¹Ģà¸Ĺ":10699,"Ġgroup":10700,"à¸«à¸¡à¸²":10701,"Ġsocial":10702,"Ġà¸£à¸Ńà¸ļà¸Ļ":10703,"à¸ģà¸²à¸£à¹Ģà¸ģà¸©à¸ķà¸£":10704,"à¹Ĥà¸ĸ":10705,"à¸ķà¸ļà¸Ńà¸¥à¹Ĥà¸¥à¸ģ":10706,"à¸Ķà¸Ķà¸Ķ":10707,"à¸Ľà¸Ľà¸ª":10708,"à¸°à¸ķà¸Ńà¸Ļà¸Ļ":10709,"link":10710,"à¸Ķà¸Ķà¸Ķà¸Ķà¸Ķà¸Ķà¸Ķà¸Ķ":10711,"à¹ĥà¸Ļà¸£à¸²à¸¢à¸ģà¸²à¸£":10712,"à¸ģà¸ķà¸²":10713,"à¸¡à¸²à¹Ģà¸ķ":10714,"tf":10715,"à¸ªà¸¡à¸Ķ":10716,"à¸²à¸ĩà¸²à¸Ļà¸Ļ":10717,"à¹Ģà¸Ńà¸²à¹Ħà¸Ľà¸Ĺ":10718,"à¸ŀà¸¢à¸²à¸ģà¸£à¸ĵ":10719,"à¸¡à¸Īà¸°":10720,"à¹Ĥà¸Ķà¸Ļà¸¢":10721,"à¸Ļà¸ŀà¸£à¸°à¹Ģà¸Ńà¸ģ":10722,"à¸Ļà¸ķà¸Ńà¸ļ":10723,"à¸Ħà¸£à¸Ĺ":10724,"Ġà¸ģà¸£à¸£à¸¡à¸ģà¸²à¸£à¸ľ":10725,"à¸²à¸ģà¸¥à¸²à¸ĩ":10726,"à¸©à¸Ī":10727,"Ġsamgee":10728,"à¹Ħà¸Ĺà¸¢à¸¡":10729,"à¸ķà¸ģà¸¥à¸ĩà¸ģ":10730,"à¸²à¸¡à¸Ń":10731,"Ġà¹ģà¸¥à¸°à¸Ľà¸£":10732,"à¹ģà¸£à¸ĩà¸Ķ":10733,"à¸²à¸¡à¹Ħà¸¡":10734,"à¸²à¹ģà¸£à¸ĩ":10735,"Ġcop":10736,"à¸§à¸ĩà¹Ģà¸£":10737,"à¸Ńà¸Ļà¸ªà¸¡à¸²à¸Ĭ":10738,"à¸µ?":10739,"à¸Ńà¸ĩà¹Ħà¸Ľà¸ķ":10740,"à¸ĵà¸Īà¸°à¸Ĺ":10741,"à¸¥à¸Ńà¸ģ":10742,"à¸ªà¸Ńà¸¢":10743,"à¸ĩà¸²à¸Ļà¸Ħ":10744,"ko":10745,"à¸Ńà¸¡à¸Ńà¸¢":10746,"à¸ķà¸Ľ":10747,"à¸ģà¹ģà¸ĭ":10748,"à¸²à¹Ģà¸¥à¸Ļà¹Ħà¸Ĺà¸Ļ":10749,"à¸ķà¸£à¸§à¸Īà¸ªà¸Ńà¸ļà¹ĥà¸«":10750,"dtac":10751,"à¸Ńà¸Ĺà¸£":10752,"Ġà¸¥à¸¡à¸ķà¸°à¸§":10753,"à¸Ļà¸ļà¸Ńà¸¥":10754,"à¹Ģà¸Ħà¸¢à¸Ĭ":10755,"à¸Ńà¸Ńà¸°à¹Ħà¸£à¸Ħà¸£":10756,"à¸²à¸Īà¸°à¹Ģà¸Ľà¸¥":10757,"à¸ĩà¸Ĥà¸²à¸Ķ":10758,"à¹Ĥà¸¥à¹Ĥà¸ģ":10759,"aki":10760,"à¸ªà¸²":10761,"à¸¢à¹Ģà¸Ļ":10762,"Ġmag":10763,"Ġasia":10764,"ĠðŁĺĤ":10765,"à¸ļà¸ģà¸£à¸°à¸Ĺ":10766,"à¸Ķà¹Ħà¸Ľà¹ģà¸¥":10767,"uz":10768,"à¸Ĥà¸Ńà¸ĩà¸«":10769,"à¹Ģà¸¥à¸§":10770,"à¸Ļà¸ĩà¸²à¸Ļà¸Ĺ":10771,"à¸ļà¸Ĺà¸ª":10772,"Ġhdd":10773,"à¸§à¸¢à¹Ĥà¸£à¸Ħ":10774,"à¹Ģà¸Īà¸Ńà¸ŀ":10775,"à¸Ńà¸¡à¹Ģà¸¡à¸Ļà¸ķ":10776,"à¸ģà¸©à¸²à¸Ļ":10777,"à¸ļà¸ģà¸£à¸°à¹Ģà¸Ľ":10778,"à¸²à¸£à¸²à¸¢à¸ģà¸²à¸£":10779,"à¹Ĥà¸ģà¸«à¸ģ":10780,"Ġà¸ľà¸¡à¸Ĥ":10781,"Ġmanag":10782,"à¸ģà¸©à¸²à¹Ĥà¸£à¸Ħ":10783,"à¸ķà¸£à¸§à¸Īà¸£":10784,"Ġà¸¡à¸²à¸Ń":10785,"à¸§à¸ĩà¸Ħà¸£":10786,"à¸ĩà¸Ħà¸¥à¸Ńà¸Ķ":10787,"à¸Ľà¸£à¸°à¹Ģà¸łà¸Ĺà¸Ļ":10788,"à¸Ļà¸²à¸£":10789,"990":10790,"world":10791,"à¸Ńà¸ĩà¸ªà¸Ńà¸Ļ":10792,"à¸¢à¸ĩà¸¢":10793,"Ġant":10794,"à¸Ĥà¸²à¸¢à¹ĥà¸«":10795,"à¸Ļà¹ĥà¸Īà¸ģ":10796,"à¸Ńà¸Ļà¸Īà¸°à¹Ģà¸Ľ":10797,"âĢĭâĢĭ":10798,"à¸§à¸ĩà¸ģà¸¥à¸²à¸ĩ":10799,"à¹ģà¸¥à¸°à¹Ģà¸Ĥ":10800,"à¸Ļà¸²à¸Ļà¹Ĩ":10801,"Ġ160":10802,"à¹ģà¸£à¸ĩà¸ģ":10803,"à¹Ģà¸£à¸²à¹Ģà¸Ĭ":10804,"à¸Ĺà¸²à¸ĩà¸Ńà¸Ńà¸ģ":10805,"à¸ģà¸ģà¸ģà¸ģà¸ģà¸ģà¸ģà¸ģà¸ģà¸ģà¸ģà¸ģà¸ģà¸ģà¸ģà¸ģ":10806,"à¸¡à¸²à¸ł":10807,"à¸ģà¸©à¸²à¹Ģà¸ŀ":10808,"à¹Ģà¸Ħà¸¢à¹Ģà¸ģ":10809,"à¸Ńà¸Ļà¹Ģà¸Ī":10810,"à¸ĵà¸ĵ":10811,"à¸ģà¸ģà¸İà¸«à¸¡à¸²à¸¢":10812,"à¸§à¸ļà¸Ħ":10813,"à¸Ļà¸ķà¸²":10814,"à¸°à¸«à¸£":10815,"à¹ĥà¸Ļà¸ĸ":10816,"à¸µà¹ī\"":10817,"à¸Ļà¸ģà¸²à¸£à¹Ģà¸Ķ":10818,"à¸ĩà¹Ĥà¸¥à¸ģ":10819,"à¸²à¸§à¹Ģà¸§à¸Ńà¸£":10820,"à¸²à¹Ģà¸Ńà¸ģà¸ªà¸²à¸£":10821,"à¸ĩà¸¡à¸²à¸Ļ":10822,"à¸Ľà¸£à¸°à¹Ģà¸Ĺà¸¨à¸į":10823,"Ã©":10824,"blog":10825,"à¸¢à¸ĩà¸Ħà¸£":10826,"à¸¢à¹ģà¸ļà¸ļ":10827,"à¹Ģà¸¢à¸Ńà¸°à¹Ģà¸¥à¸¢":10828,"à¸²à¸§à¸«à¸²":10829,"à¸ĩà¹Ģà¸Ĥà¸²à¸ģ":10830,"à¸²à¸Ńà¸ĩà¸Ħ":10831,"oul":10832,"Ġcredit":10833,"à¸Ĥà¸Ńà¸ĩà¸¢":10834,"Ġ78":10835,"à¸ļà¹Ħà¸Ľà¸ģ":10836,"à¸ŀà¸Ļà¸ĺ":10837,"à¹Ħà¸Ľà¹Ģà¸Ĥ":10838,"Ġà¸ģà¸°à¸§":10839,"à¸Ļà¸¡à¸°à¹Ģà¸£":10840,"à¹ģà¸ĸà¸¥à¸ĩà¸ģà¸²à¸£à¸ĵ":10841,"à¸ĩà¹Ħà¸£":10842,"à¸ģà¸£à¸°à¸Īà¸ģ":10843,"à¸Ńà¸Ļà¸¥à¸ĩ":10844,"à¸«à¸²à¸£à¸Ĺ":10845,"à¸ĸà¸Ńà¸¢":10846,"à¸²à¹Ħà¸Ľà¹ĥà¸«":10847,"à¸£à¸²à¸Ĭà¸Ķ":10848,"à¸ĸà¸²à¸¡à¸ŀ":10849,"à¸¡à¹Ĥà¸£à¸Ħ":10850,"Ġà¸£à¸²à¸¢à¸Ĭ":10851,"à¸Ħà¸§à¸²à¸¡à¸ŀà¸¢à¸²à¸¢à¸²à¸¡":10852,"à¸¢à¹Ģà¸ª":10853,"à¸§à¹ģà¸ŀ":10854,"à¸«à¸¥à¸²à¸¢à¸Ĭ":10855,"à¸²à¸Īà¸²à¸ģà¸Ĺ":10856,"à¸ŀà¸Ńà¹Ģà¸ŀ":10857,"à¸ªà¸²à¸¡à¸²à¸£à¸ĸà¸Ĭ":10858,"à¸Ľà¸£à¸²à¸ģà¸İà¸§":10859,"à¸²à¸ĩà¸²à¸Ļà¸Ľà¸£à¸°à¸Ī":10860,"à¸ļà¸²à¸ĩà¸Ļà¸²":10861,"à¸§à¸ĩà¸Ń":10862,"à¸ĩà¸ªà¸Ļà¸²à¸¡à¸ļ":10863,"Ġtag":10864,"ions":10865,"à¸Ńà¸¢à¸²à¸ģà¹ĥà¸Ĭ":10866,"à¸Ķà¸ķà¸²à¸¡à¸ģ":10867,"à¸Ńà¸Ļà¹ģ":10868,"à¸Ńà¸ĩà¸ªà¸£":10869,"à¸ĩà¸²à¸Ļà¸¡":10870,"Ġà¹Ģà¸¥à¸Ļà¸ª":10871,"à¸Ńà¸ĩà¸¡à¸²à¸£":10872,"à¸Ńà¸Ļà¹ĥà¸Ļà¸ģà¸¥":10873,"à¸ģà¹Ħà¸«à¸¡à¸Ħà¸£":10874,"à¸Ľà¸ļ":10875,"à¸²à¹Ģà¸Ĥà¸²à¸Ĺ":10876,"à¸ķà¸£à¸²à¸":10877,"ðŁĺĨ":10878,"iko":10879,"Ġ----":10880,"à¸Ħà¸£à¸£":10881,"à¸Īà¸°à¸¥à¸ĩ":10882,"à¸§à¸¢à¹Ģà¸ª":10883,"Ġà¹Ģà¸ŀà¸£à¸²à¸°à¸Ńà¸¢":10884,"à¹ĥà¸Ļà¸Ŀ":10885,"Ġà¹Ģà¸ŀà¸£à¸²à¸°à¸Ńà¸°à¹Ħà¸£":10886,"à¸Ńà¸ĩà¸Ħà¸¥":10887,"à¸ļà¸ļà¸ļ":10888,"à¸Ļà¸ĺà¸£à¸£à¸¡à¸Ķà¸²":10889,"à¸²à¸¢à¹Ħà¸Ľà¸Ńà¸¢":10890,"à¸¢à¸įà¸ªà¸«à¸£":10891,"Ġà¹ģà¸¥à¸°à¸ĭ":10892,"à¸Ľà¸Īà¸²à¸ģ":10893,"à¸Ĥà¸Ńà¸Ħà¸§à¸²à¸¡à¸Ĭ":10894,"à¸Ĥà¸Ī":10895,"à¸²à¸¢à¸Ńà¸Ńà¸ģ":10896,"à¸Ńà¸«à¸²à¸Ĺ":10897,"Ġjun":10898,"Ġà¸Ńà¸ļ":10899,"à¸Ļà¹ģà¸ľà¸¥":10900,"Ġà¹Ģà¸£à¸²à¸Ńà¸²à¸¢":10901,"ìĿ":10902,"à¸Ńà¸ģà¸²à¸£à¹ĥà¸Ĭ":10903,"à¹Ĥà¸ļà¸ģ":10904,"à¸Īà¸ļà¸¥à¸ĩ":10905,"Ġà¸Īà¸Ļà¸ļ":10906,"à¸Ĭà¸Ńà¸ļà¸ª":10907,"à¸²à¸ķà¸Ļà¹Ģà¸Ńà¸ĩ":10908,"à¸Ĥà¸²":10909,"à¸ªà¸ªà¸ªà¸ª":10910,"à¸¢à¹Ģà¸Ĥ":10911,"à¸ľà¸¥à¸ģà¸£à¸°à¸Ĺà¸ļà¸ķ":10912,"à¸§à¸Ļà¹Ģà¸ŀ":10913,"à¸Ķà¸¡à¸ģà¸²à¸£à¸ĵ":10914,"à¹Ģà¸¥à¸¢à¹ĥà¸Ĭ":10915,"Ġaward":10916,"ðŁĳįðŁĳį":10917,"à¸Ķà¸łà¸²à¸ŀ":10918,"à¸¢à¸¡à¹Ħà¸§":10919,"à¸Ńà¸ļà¹ĥà¸«":10920,"Ġà¸Ĥà¸Ńà¸ĩà¸ķ":10921,"à¸Ńà¹Ħà¸«à¸Ļ":10922,"Ġà¸ģà¸²à¸£à¹Ģà¸Ľ":10923,"Ġdon":10924,"à¸«à¸²à¹Ħà¸Ķ":10925,"à¸¢à¸§à¸¢à¸²":10926,"à¸ļà¸£à¸Ńà¸ĩà¸§":10927,"Ġà¸Ļà¸²à¸¬":10928,"à¸Īà¸°à¹Ħà¸Ľà¸Ĺ":10929,"à¸Ħà¸§à¸²à¸¡à¹Ģà¸Ħà¸¥":10930,"à¸ģà¸£à¸£à¸¡à¸ģà¸²à¸£à¸ļà¸£":10931,"à¸²à¸§à¹Ħà¸§":10932,"à¹Ģà¸¨à¸©à¸ª":10933,"à¸§à¸Īà¸°à¸ķ":10934,"à¹Ģà¸£à¸²à¸Ł":10935,"à¸¥à¹ģà¸¥":10936,
[...]
