#version: 0.2 - Trained by `huggingface/tokenizers`
à ¹
¸ ²
à ¸²
à¸² à
à¸²à ¸
¸ Ļ
à ¸Ļ
à¹ Ī
¸ Ń
à ¸Ń
à¹ Ģ
à¹ ī
à¹Ģ à
à¹Ģà ¸
¸ £
à ¸£
¸ ±
à ¸±
¸ ģ
à ¸ģ
¸ ¡
à ¸¡
¸ ĩ
à ¸ĩ
¸ µ
à ¸µ
¸ §
à ¸§
¸ ¢
à ¸¢
¸ Ħ
à ¸Ħ
¸ ļ
à ¸ļ
¸ Ķ
à ¸Ķ
à¹ Ħ
¸ °
à ¸°
¸ ¥
à ¸¥
¸ Ĺ
à ¸Ĺ
à¹ ģ
¸ ķ
à ¸ķ
¸ ´
à ¸´
¸ «
à ¸«
¸ ª
à ¸ª
¸ ·
à ¸·
¸ Ī
à ¸Ī
¸ Ľ
à ¸Ľ
à¹ ĥ
à¹ ĩ
à¸Ń à¸ĩ
à¸µ à¹Ī
¸ ¹
à ¸¹
¸ ¸
à ¸¸
¸ Ĥ
à ¸Ĥ
à¸²à¸ ģ
¸ Ĭ
à ¸Ĭ
¸ ŀ
à ¸ŀ
à¹ į
à¸²à¸ £
Ġ à¹Ģà¸
à¹ Į
à¸²à¸ Ļ
à¹Ħ à¸¡
à¸²à¸ ĩ
à¸²à¸ ¢
à¸²à¸ ¡
à¸Ń à¸¢
à¸Ń à¸Ļ
à¹ Ĥ
à¹ģ à¸¥
¸ ĸ
à ¸ĸ
à¸Ħ à¸£
à¹Ģà¸ £
à¸· à¹Ī
¸ ľ
à ¸ľ
à¹Ħ à¸Ķ
¸ ¶
à ¸¶
à¹Ģà¸ Ľ
à¸£ à¸°
à¹Ħ à¸Ľ
à¹Ģà¸ ¥
à¹ Ĩ
à¹ĥ à¸«
à¸± à¹ī
à¸Ń à¸ģ
à¸µ à¹ī
à¸Ī à¸°
à¸ģ à¸²à¸£
à¸« à¸Ļ
à¹ģ à¸ķ
. .
à¸¹ à¹ī
- -
à¹ĥ à¸Ļ
à¸Ń à¸ļ
¸ ĭ
à ¸ĭ
à¸²à¸ Ħ
¸ ĵ
à ¸ĵ
à¸Ħ à¸Ļ
à¸§ à¸¢
¸ į
à ¸į
à¸²à¸ Ĺ
¸ Ł
à ¸Ł
à¹ģà¸¥ à¸°
à¸²à¸ §
à¹Ģà¸ ŀ
à¹Ģà¸ Ķ
à¸Ĥ à¸Ńà¸ĩ
à¹Ģà¸ Ħ
à¹Ģà¸ Ĥ
ĉ ĉ
Ġ à¸ģ
à¹Ģà¸ «
à¹Ģà¸ ģ
à¸Ħ à¸§
à¸ľ à¸¡
à¸Ľ à¸£à¸°
Ġ à¸Ĺ
à¹Ģà¸¥ à¸¢
à¸¹ à¹Ī
à¸²à¸ Ī
à¸Ļ à¸Ĺ
Ġ Ġ
¸ ¨
à ¸¨
Ġ à¸¡
à¸Ļ à¸°
à¹Ģà¸ Ĺ
Ġ à¸ª
à¸²à¸ «
Ġ à¹ģà¸ķ
à¸« à¸¥
à¸« à¸£
¸ ł
à ¸ł
à¸Ń à¸¡
à¸Ħà¸§ à¸²à¸¡
à¸ģ à¸¥
à¸£ à¸²à¸
à¸« à¸¡
à¹ĥ à¸Ĭ
à¸¡ à¸²à¸ģ
Ġ "
à¸ļ à¸ļ
à¸¢ à¸Ļ
Ġ à¸ķ
à¸²à¸ ķ
Ġ 1
¸ ĺ
à ¸ĺ
à¹Ħ à¸£
à¸§ à¸Ļ
Ġ à¸Ħ
à¹ĥ à¸Ī
à¸Ī à¸²à¸ģ
Ġ 2
à¸Ń à¸°
Ġ (
à¸¢ à¸§
à¸´ à¹Ī
¸ ©
à ¸©
à¸Ń à¸£
Ġ à¸ŀ
Ġ à¸£
à¸²à¸ ª
à¸Ń à¸Ķ
à¹Ģà¸ ª
à¸ķ à¸£
-- --
à¸± à¹Ī
à¸²à¸ Ń
à¸²à¸ Ķ
" ,
Ġ à¹ģ
Ġà¹Ģà¸ £
à¸¡ à¸²
à¸Ńà¸¢ à¸²à¸ģ
à¸Ħ à¸°
Ġ à¹ģà¸¥à¸°
à¸· à¹ī
à¸²à¸ ¥
à¹Ģ à¸Ń
à¸ģ à¸£
à¸ģ à¸§
à¹Ģà¸ ¡
Ġ à¸Ļ
à¸Ļ à¸Ļ
à¸²à¸ ŀ
Ġ à¸ļ
à¸¸ à¹Ī
à¹ģ à¸ļà¸ļ
0 0
Ġ à¹Ħà¸¡
à¸£à¸²à¸ °
, "
Ġà¹Ģà¸ ŀ
à¹Ģà¸£ à¸²
à¹Ģà¸ Ī
Ġ à¸Ń
à¹Ģà¸ ķ
ĉĉ ĉĉ
à¹Ģà¸ §
à¹Ĥ à¸Ķ
Ġ à¸Ĥ
à¸¶ à¹Ī
à¸ĩ à¸Ĺ
à¸²à¸Ī à¸°
à¸Ļ à¸ģ
à¸ĩ à¸²à¸Ļ
à¹Ģ à¸Ļ
Ġ à¸Ī
à¸§ à¸ĩ
Ġ s
à¸¶ à¹ī
à¸Ńà¸° à¹Ħà¸£
à¸¡ à¸²à¸
à¸Ĺ à¸¢
Ġ à¹ģà¸¥
à¹Ģà¸ Ĭ
à¸ļ à¸£
à¸ĩ à¸ª
Ġ à¸§
à¸² à¹Ħà¸¡
à¸Ĺ à¸£
Ġ 3
à¸§ à¸ģ
5 5
à¸Ļ à¸ķ
Ġ à¸ĸ
Ġ à¸Ľ
.. ..
à¸¢ à¸ĩ
à¹ī à¹į
i n
à¸¥ à¸°
à¹Ħ à¸«à¸Ļ
à¸²à¸ ļ
à¸Ń à¸Ńà¸ģ
à¹Ģ à¸Ńà¸ĩ
Ġ à¸Ĭ
à¹Ģà¸ ĩ
à¹ Ĭ
à¸ĩ à¸ģ
à¸Ļ à¸ª
à¹ĥ à¸Ħà¸£
Ġ à¸«à¸£
à¹ģ à¸£
à¸ĩ à¸Ħ
à¸²à¸ Ĥ
Ġ à¸ľà¸¡
à¸Ļ à¸Ħ
e r
* *
Ġ t
o n
à¸¥ à¸ĩ
Ġ c
à¸ł à¸²à¸ŀ
à¹Ģà¸ ļ
à¸² à¹ģ
à¸ļ à¸Ńà¸ģ
à¸² à¹ĥà¸«
Ġ à¸ĭ
à¸Ī à¸£
à¸Ļ à¸¡
Ġà¹Ģà¸ Ľ
à¸Ļ à¸Ķ
à¸§ à¸¡
à¸¢ à¸ģ
à¸Ľ à¸£
à¸« à¸§
à¸´ à¹ī
Ġ -
à¸Ńà¸Ļ à¸Ļ
à¹Ħ à¸«à¸¡
a n
ĠĠ ĠĠ
---- ----
Ġ à¸Ķ
à¹Ĥà¸Ķ à¸¢
à¹ģ à¸¡
à¸ģ à¸ģ
à¸Ń à¸ª
¸ Ŀ
à ¸Ŀ
Ġà¹Ģà¸ŀ à¸£à¸²à¸°
à¹Ģà¸Ħ à¸£
à¹Ħ à¸Ĺà¸¢
à¸²à¸ Ĭ
à¸Ļ à¸§
à¸£ à¸¡
à¹Ģà¸Ħ à¸¢
à¹Ħ à¸§
â Ģ
à¸ķ à¸²à¸¡
à¸ĸ à¸²à¸¡
Ġ à¸Īà¸°
à¸ģ à¸Ĺ
à¸ļ à¸ģ
à¹Ģà¸§ à¸¥
à¹Ģà¸« à¸¡
à¹Ģà¸Ľ à¸¥
à¸£ à¸ĸ
à¹Ģà¸ ¢
à¸Ľ à¸¥
à¹ĥà¸« à¸¡
à¸ģ à¸ķ
à¸ĩ à¹Ħà¸¡
à¸ĩ à¹Ĩ
Ġ m
Ġà¹Ģà¸ ¥
à¸ģ à¸©
à¹Ħ à¸ĩ
à¸² à¹Ħà¸Ľ
Ġ Ċ
Ġ a
à¸ª à¸¡
¸ ī
à ¸ī
Ġ à¸¢
à¸Ĺ à¸²à¸ĩ
" "
à¸Ń à¸¥
Ġ à¹Ĥ
à¹ģ à¸Ł
à¸Ńà¸ļ à¸Ħ
à¸ĩ à¸Ļ
à¸² à¹Ģà¸£
à¸ģ à¸£à¸°
Ġ p
à¹Ģà¸Ĺ à¸¨
à¸²à¸ Ľ
à¸ľ à¸¥
¸ Ĳ
à ¸Ĳ
à¸ª à¸Ķ
à¸²à¸£ à¸ĸ
Ġ à¸¥
Ġ à¹ĥà¸Ļ
à¸² à¹Ģà¸Ľ
à¸į à¸«
à¸ª à¸Ļ
à¸Ĥ à¸Ń
o r
à¸Ļà¸° à¸Ļ
Ġ 4
.. .
à¹ģ à¸Ħ
à¸Ļ à¹Ħà¸Ľ
Ġ 5
a r
Ġà¸ļ à¸²à¸Ĺ
à¸Ļà¸° à¸Ħà¸°
à¸Ń à¸§
à¸¸ à¹ī
ĉĉĉĉ ĉĉĉĉ
à¸Ĭ à¸Ńà¸ļ
à¹Ĥ à¸£
à¸Ľà¸£à¸° à¹Ģà¸Ĺà¸¨
à¸²à¸Ń à¸¢
Ġ b
Ġ à¸«
¸ ®
à ¸®
à¹Ĥ à¸Ĺà¸£
à¹Ģà¸ŀ à¸£à¸²à¸°
à¹ ĭ
à¹ģ à¸ģ
à¸Ńà¸ĩ à¸Ĺ
à¸Ļ à¸Ń
à¸²à¸ĩ à¸²à¸Ļ
à¸Ļ à¸¢
l e
Ġ f
à¸²à¸¡ à¸²à¸£à¸ĸ
à¸Ķ à¸Ĺ
à¸ĩ à¸ķ
à¸ŀ à¸£
à¸Ķ à¸ª
à¸²à¸« à¸Ļ
à¸ĩ à¸¡
à¸«à¸¥ à¸²à¸¢
Ġ" "
Ġà¹Ģà¸ Ħ
à¸²à¸« à¸£
Ġ :
Ġà¹Ģà¸ Ĥ
à¸¡à¸²à¸ ĵ
à¸Ħà¸§à¸²à¸¡ à¸£
+ +
à¹Į ,
à¸Ķ à¸§
à¹ĥ à¸ª
e n
à¸Ķ à¸ķ
à¸ĩ à¹Ħà¸ĩ
à¸¢ à¸£
à¹ģ à¸Ĺ
à¹Ģà¸ ĭ
à¸²à¸ ĸ
à¸ļ à¸Ĺ
à¸Ń à¸ķ
à¸Ħ à¸¥
à¸ŀ à¸£à¸°
Ġ à¸Ńà¸¢à¸²à¸ģ
à¸Ń à¸Ĺ
Ġ à¹Ħà¸Ķ
à¸£à¸²à¸ ļ
à¸²à¸ģ à¸²à¸£
Ġà¹Ģà¸ «
à¹Ģà¸« à¸¥
à¸«à¸¡ à¸Ķ
Ġ à¸Ńà¸¢
à¸Ļ à¹Ħà¸¡
à¸Ħà¸Ļ à¸Ĺ
à¹ģà¸ļà¸ļ à¸Ļ
Ġ d
! !
à¸²à¸ ľ
a c
à¸Ļà¸° à¸Ħà¸£
Ġ à¸ľ
à¹ģà¸£ à¸ģ
à¸²à¸ ¨
à¹ĥà¸« à¸į
à¹Ħ à¸Ł
à¹Ģà¸£ à¸²à¸ģ
à¸§ à¸£
Ġà¹Ģà¸ Ķ
à¸¢ à¸¡
à¸² à¹Ħà¸Ķ
à¸¢à¸§ à¸ģ
Ġ l
a l
a t
r e
à¸Ń à¸Ħ
à¸Ļ à¸£
Ġà¹Ģà¸ ¡
à¸Ńà¸ĩ à¸Ļ
Ġ à¹Ĥà¸Ķà¸¢
à¹Ĥ à¸¥
à¸¢ à¸Ķ
à¹ģà¸Ł à¸Ļ
à¸ļ à¸ģà¸²à¸£
Ġ h
à¸²à¸ °
à¸Ĥ à¸²à¸¢
Ġ i
à¸Ľà¸£à¸° à¸¡à¸²à¸ĵ
Ġ à¸Ħà¸£
à¸ŀ à¸Ń
à¸Ļà¸Ĺ à¸²à¸ĩ
Ġà¹Ģà¸¥ à¸¢
à¸Ļ à¹ģ
à¸ĩ à¸§
à¸Ľà¸£à¸° à¸ģ
Ġ g
à¸ģ à¸Ķ
à¸ļ à¸Ļ
Ġ à¸ģà¸²à¸£
_ _
à¸§ à¹Ģà¸Ńà¸ĩ
à¸²à¸« à¸²à¸£
à¸ĩ à¸Ĥ
à¸Ļ à¹Ħà¸Ķ
à¹Ģà¸¢ à¸Ńà¸°
Ġ à¹Ħà¸Ľ
Ġ à¸Ĥà¸Ńà¸ĩ
à¸¥ à¸Ńà¸Ķ
à¸Ĭ à¸²à¸¢
à¸ª à¸Ńà¸ļ
i t
à¸Ĺ à¸ĺ
à¸Ńà¸Ļ à¸ģ
-------- --------
à¸ŀ à¸¢
r o
à¸Ń à¸Ń
à¸Ĺ à¸£à¸²à¸ļ
à¹Ģà¸ķ à¸Ńà¸£
Ġ à¸Ħà¸Ļ
i s
Ġ à¹Ĩ
Ġ w
Ġ n
à¸Ļ à¸ļ
Ġ 6
à¹ģ à¸Ļà¸°à¸Ļ
à¸ģ à¸ª
à¸£ à¸£à¸¡
à¸Ļ à¹Ģà¸Ķ
à¹Ģà¸ ĺ
à¹Ĥ à¸¡
à¸Ħà¸§ à¸£
à¸²à¸ ©
¸ ¤
à ¸¤
à¸Īà¸° à¸¡
à¸ģ à¸Ħ
à¸Ļ à¸Ńà¸¢
à¸ļ à¸ª
à¸ĩ à¹Ģà¸£
à¸¡ à¸Ļ
Ġ à¸Īà¸²à¸ģ
à¸£ à¸²à¸¢
à¸Ļ à¹Ģà¸Ľ
à¸Ļ à¸ŀ
à¸Ń à¹Ħà¸¡
à¸ª à¸²à¸¡à¸²à¸£à¸ĸ
à¸ģ à¹Ĩ
à¸Ńà¸Ļ à¸Ĺ
? ?
Ġà¸ģ à¸¥
Ġ âĢ
Ġ à¹Ģà¸Ń
à¸Ķ à¸Ļ
à¸Ļ à¹Ĩ
à¸Ļ à¸Ĥ
à¸ª à¸£
i c
à¸ļ à¸ķ
à¸Ļ à¹Ģà¸£
à¸ļ à¸¡
a m
à¸Ļ à¸Ħà¸Ļ
= =
à¸² à¹ĥà¸Ī
à¸²à¸Ĥ à¸Ńà¸ĩ
à¸Ļ à¹ĥà¸Ī
à¸ļà¸Ńà¸ģ à¸§
Ġà¸£ à¸²à¸Ħ
à¸²à¸ĩ à¸Ĺ
Ġ 7
à¹ģ à¸ŀ
à¸ĩ à¹ģà¸ķ
.... ....
à¸« à¸į
Ġ e
à¸«à¸¡ à¸²à¸¢
à¸¢ à¸ļ
00 0
à¸ĵ à¸°
à¸§ à¸Ķ
Ġ à¸«à¸¥
Ġà¸ķ à¸Ńà¸Ļà¸Ļ
à¸ĩ à¸Īà¸°
à¸Ļ à¸Ĭ
Ġ à¸«à¸Ļ
à¸ł à¸²à¸©
à¸Ńà¸ĩ à¸ģà¸²à¸£
à¸ļà¸ģ à¸§à¸Ļ
à¸§ à¸Ī
à¸ĺ à¸£à¸£à¸¡
à¸Ļ à¸Ī
à¸ĩ à¸Īà¸²à¸ģ
à¸« à¸²à¸¢
à¸Ńà¸ĩ à¸¡
à¹Ĥ à¸Ľà¸£
à¹Ģà¸« à¸ķ
à¸ĩ à¸£
a s
à¸Ń à¸ĸ
à¸²à¸Ħ à¸£
à¸Ļ à¸²à¸Ķ
Ġà¹Ģà¸£ à¸²à¸ģ
à¹Ģà¸ ī
Ġ à¹ĥà¸«
à¸²à¸ĩ à¸ģ
à¸ĩ à¸Ķ
à¸²à¸« à¸¥
ĠĠĠĠ ĠĠĠĠ
o t
** **
à¹Ĩ à¹Ĩ
à¸Ń à¸Ľ
à¸Ļ à¸Ħà¸£
à¹Ģà¸ ¨
à¹ģ à¸Ļ
à¹Ģ à¸Ńà¸ģ
Ġà¹Ģà¸ ª
à¸ĩ à¹Ģà¸Ľ
u n
à¹Ģà¸¥à¸¢ à¸Ħ
à¸Ń à¹Ħà¸Ľ
à¸¡ à¸Ĺ
u r
à¸Ľà¸£à¸° à¸ª
à¸ķ à¸Ńà¸Ļà¸Ļ
à¸Ĥ à¸Ńà¸ļà¸Ħ
à¸£ à¸²à¸Ħ
à¹Ģà¸Ĥ à¸²
à¸Ķ à¸ģ
à¸Ļ à¸Īà¸°
à¸ŀ à¸¥
à¹Ħ à¸¥
à¹ģ à¸Ī
à¸ĸ à¸²à¸Ļ
à¸§ à¸§
à¸į à¸į
à¸ģ à¸Ļ
Ġà¹Ģà¸ Ĭ
à¸ŀ à¸§à¸ģ
à¸ģà¸£ à¸£à¸¡
à¸ģ à¸Ħà¸Ļ
o m
à¸Ńà¸ĩ à¸ģ
à¸Ńà¸ĩ à¸ª
à¸ģ à¸Ńà¸¢
à¸Ńà¸ĩ à¸Ħ
à¸Ń à¸²à¸«à¸²à¸£
à¹Ģà¸ Ł
Ġà¹Ģà¸ ģ
à¸ļ à¸Ħ
à¸²à¸ ĭ
à¸Ļ à¹Ģà¸ģ
à¸¡ à¸ŀ
à¹Ģà¸Ī à¸Ń
à¸²à¸Ń à¸°
à¸Ńà¸Ļ à¹Ĩ
à¸« à¸²à¸£
à¸Ķ à¸Ķ
à¸ģ à¸Ħà¸£
Ġ o
à¸²à¸ĩ à¹Ħà¸£
à¸ķ à¸Ńà¸Ļ
à¸Ńà¸ĩ à¸£
Ġà¸Ĥ à¸Ńà¸ļà¸Ħ
à¸§ à¸Ħ
à¸ļ à¸Ńà¸¥
à¸Ļ à¸«à¸Ļ
à¸Ĭ à¸²à¸ķ
à¹Ģà¸ª à¸£
à¸²à¸Ī à¸²à¸ģ
u s
à¹ģ à¸ªà¸Ķ
à¸« à¸¢
i p
i l
e t
à¸Ļ à¸ģà¸²à¸£
Ġ2 0
¸ ı
à¸ļ à¸§
h e
à¸£à¸° à¸Ĺ
à¹Ģà¸ŀ à¸¥à¸ĩ
¸ ¯
à ¸¯
à¸Ļ à¹ĥà¸Ļ
à¸ĩ à¸ļ
à¹Ģà¸§à¸¥ à¸²
à¸² à¸²
à¸Ļ à¸ľ
à ¸ı
Ġà¹Ģà¸ §
à¸² à¹Ħ
à¸¡ à¸Ń
à¸²à¸Ńà¸° à¹Ħà¸£
à¸£à¸²à¸ Ĭ
à¹Ĥ à¸ķ
à¸Ļ à¸¥
à¸Ń à¹Ģà¸£
à¸¥à¸° à¸Ħà¸£
Ġ 8
¸ İ
à¸²à¸ĩ à¹Ĩ
à ¸İ
à¸¡ à¸«
à¸Ľ à¸ģà¸ķ
à¸² à¹Ģà¸Ĥ
Ġ à¹ĥà¸Ĭ
à¸ļ à¸²à¸Ĺ
on e
5 0
à¸¢à¸Ļ à¸ķ
à¸ŀ à¸Ĺ
à¸ģà¸£à¸° à¸Ĺ
à¸§ à¸Ĺ
à¸²à¸ĩ à¸Ļ
Ġ1 0
à¸Ł à¸£
à¸¡à¸²à¸ģ à¹Ĩ
Ġà¹ģ à¸ļà¸ļ
o o
Ġ ,
à¸²à¸ĩ à¸Ľà¸£à¸°à¹Ģà¸Ĺà¸¨
à¸ļ à¸²à¸¢
à¸ª à¸²à¸£
à¹Ħà¸«à¸¡ à¸Ħà¸£
âĢ Ŀ
à¸Ļ à¸¡à¸²
à¸Ļ à¸Ĥà¸Ńà¸ĩ
Ġ à¹ĥà¸Ħà¸£
à¸²à¸Ħ à¸§
Ġ k
à¹Ħ à¸Ĥ
à¸¡ à¸¡
à¹ĥà¸Ļ à¸ģà¸²à¸£
à¸Ńà¸¢ à¹Ĩ
à¸Ħà¸Ļ à¸Ļ
à¸¥ à¸ĩà¸Ĺ
55 55
à¹ģ à¸Ĥ
à¸Ń à¸²à¸Ī
à¸ķ à¸§
ĠâĢ ľ
à¸Ķ à¸Ĥ
à¸ķ à¸¢
e l
à¸Ħà¸§à¸²à¸¡ à¸ª
à¹ģ à¸«
Ġà¹Ģà¸£ à¸²
Ġ v
à¸¡ à¸ª
Ġà¹Ģà¸ Ī
à¸²à¸ĩ à¸Ħà¸£
i d
e s
à¸° à¸Ħ
à¸¢ à¸¢
à¸ķ à¸Ńà¸ļ
Ġà¹ģ à¸¡
à¸¨ à¸²à¸ª
à¹Ģà¸Ń à¸²
à¸Ĭ à¸Ļ
à¸²à¸Ħà¸§ à¸²à¸¡
à¸¥ à¸Ńà¸ĩ
à¸Ĺà¸£à¸²à¸ļ à¸§
à¸« à¸²
à¹Ĥà¸£ à¸ĩ
à¸ĩ à¸«à¸§
++ ++
à¸ª à¸²à¸¢
à¸¢ à¸°
à¹Ħà¸Ľ à¸Ĺ
à¸Ļ à¸ĺ
à¸ģ à¸ĩà¸²à¸Ļ
à¸Ļ à¸Ńà¸Ļ
à¸ĩ à¸Ī
in g
Ġ à¹Ģà¸Ļ
à¸¡ à¸ķ
à¹Ģà¸£à¸² à¹Ħà¸¡
Ġà¹Ģà¸ Ĺ
à¸²à¸Ľ à¸£à¸°
Ġà¸ŀ à¸Ń
à¸ª à¸§
à¸²à¸ģ à¸¥
à¸ªà¸Ńà¸ļ à¸ĸà¸²à¸¡
à¸Ľà¸£à¸° à¸Ĭ
à¸ĩ à¸«à¸Ļ
à¸Ļ à¸ĸ
à¸§à¸¢ à¸ģ
Ġ 9
à¸° à¸Ħà¸£
à¸Ńà¸ļ à¸Ħà¸£
o c
à¸Ń à¹ĥà¸«
à¸Ļ à¹Ģà¸¥à¸¢
e d
an d
à¸Ļ à¹ģà¸¥
à¸¥ à¸Ķ
à¸Ńà¸ģ à¸§
ĠĠ Ġ
à¸¥ à¸²à¸Ķ
à¸² à¹Ĩ
à¸Ķ à¹Ĩ
à¸²à¸ ĺ
à¹Ĥ à¸Ń
à¸ĩ à¸Ń
Ġà¸ŀ à¸£
à¸Ĳ à¸²à¸Ļ
à¸ľà¸¡ à¸ģ
à¸Ļ à¸«
à¸Īà¸° à¸Ĺ
à¸Ńà¸ĩ à¸ķ
à¸ĩ à¹Ħà¸Ķ
à¸ĩ à¸Ħà¸£
ĉĉĉĉĉĉĉĉ ĉĉĉĉĉĉĉĉ
i on
à¸²à¸Ħ à¸¡
à¹ĥ à¸ļ
à¹Ĥà¸Ĺà¸£ à¸¨
à¹Ħ à¸ĭ
à¸ģ à¸Ĥ
t er
à¸ª à¸°
à¸¢ à¸²à¸¢
i k
¸ Ĵ
à ¸Ĵ
à¸£à¸° à¸«à¸§
à¹Ĥ à¸Ĺ
Ġà¸ķ à¸Ńà¸Ļ
à¸ģà¸¥ à¸²à¸ĩ
à¸Ļ à¸Ľ
à¸ª à¸ķ
à¸Ļ à¹Ģà¸ŀ
à¸² à¹Ģà¸Ķ
à¹ģ à¸ĸ
Ġà¹Ģà¸§ à¸¥
à¹ģà¸ªà¸Ķ à¸ĩ
a d
à¸ļ à¸²à¸ĩ
", "
à¸²à¸¢ à¸Ļ
à¸ļ à¹Ħà¸Ľ
à¸Ń à¹Ģà¸Ľà¸¥
à¹ģ à¸ľ
à¹ĥ à¸ģà¸¥
à¸¤ à¸©
à¸²à¸¡ à¸²
2 0
à¸²à¸Ħ à¸²à¸£
à¸ģà¸£ à¸ĵ
à¸Īà¸° à¹Ģà¸Ľ
a y
à¸ĩ à¹ĥà¸Ī
à¹Ģ à¹Ģà¸¥
à¹Ħ à¸Ń
à¸Ķ à¸Ħ
à¸²à¸¡ à¸²à¸ģ
à¸° à¹Ģà¸ļ
à¸Ńà¸¢ à¸Ħà¸£
à¸ŀ à¸Ńà¸Ķ
u e
à¸£ à¸ģ
à¸ĩ à¹Ħà¸Ľ
à¸²à¸¢ à¸Ĺ
à¸Ļ à¸²à¸Ļ
à¹Ģà¸ĺ à¸Ń
Ġ 0
__ __
à¸ģà¸²à¸£ à¸Ĺ
à¸ĩ à¹ĥà¸Ļ
à¹Ģà¸« à¸Ļ
à¸Ļ à¸¡à¸²à¸ģ
à¸ĩ à¹Ģà¸ģ
à¸£à¸° à¸ļà¸ļ
à¸´ à¹Į
à¸ļ à¸ľ
à¹Ĥà¸¥ à¸ģ
à¸Ľà¸£à¸° à¸Ī
à¸² à¹Ģà¸Ļ
à¸Ń à¸²à¸¢
= "
à¸Ħ à¸Ńà¸¡
à¹Ģà¸Ĺ à¸ŀ
à¸§à¸Ļ à¸ķ
à¸ģ à¸ŀ
à¸¢ à¸Ńà¸¡
à¸Ī à¸Ī
à¸Ķ à¸£
à¸²à¸ľ à¸¡
à¹Ĥ à¸Ńà¸ģ
à¸¢ à¸²à¸ģ
à¸ĩ à¸ĩ
à¸ķ à¸ļà¸Ńà¸¥
à¸²à¸Ļ à¸Ĺ
à¸° à¹Ģà¸¥
1 0
Ġà¸Ĥ à¸Ń
a g
à¸§ à¸ķ
à¸ĩ à¸Ńà¸¢
à¸ĩ à¸ģà¸²à¸£
à¸ª à¸ĸà¸²à¸Ļ
in e
à¹ģ à¸«à¸¥
à¸²à¸¢ à¸ģ
Ġ /
Ġ2 5
à¸£ à¸£
à¸£à¸° à¸Ķ
à¸Ń à¸ŀ
à¸Ńà¸¢ à¸Ħ
à¸²à¸ ĵ
à¹Ģà¸¥à¸¢ à¸Ħà¸£
à¸Ńà¸ĩ à¸Īà¸²à¸ģ
à¸ĩ à¸Ĭ
Ġ in
à¸² à¹ĥà¸Ĭ
à¹ģ à¸Ĭ
Ġ à¸Ħà¸§à¸²à¸¡
à¸ĩ à¸²à¸¡
à¹Ī à¹į
h one
à¸² à¹Ĥ
i a
à¸ļà¸ģà¸²à¸£ à¸ĵ
à¸Ńà¸ĩ à¸Ķ
à¸ģ à¸¡
à¹Ħà¸¥ à¸Ļ
à¹Ģà¸ ľ
à¹Ħà¸Ľ à¸Ķ
à¸²à¹Ħ à¸«à¸£
à¸ĺ à¸Ļ
à¸£ à¸Ń
à¸¡à¸²à¸ Ĭ
à¸Ī à¸ļ
à¸§ à¸ª
u t
p p
à¸ł à¸²à¸Ħ
à¸ģà¸© à¸²
) ,
à¹Ģà¸ļ à¸Ńà¸£
o w
à¸Ļà¸Ĺ à¸£
à¸Ħà¸Ļ à¸Ń
Ġà¸£à¸²à¸Ħ à¸²
c h
à¸²à¸Ļ à¸Ļ
à¸Īà¸° à¹Ħà¸Ķ
à¸ķ à¸¥à¸Ńà¸Ķ
à¸ģ à¹Ģà¸£
à¸Ķ à¸ĸ
à¹ģ à¸Ķ
v e
à¸²à¸Ńà¸¢ à¸²à¸ģ
à¸¡ à¸²à¸ķ
à¸ªà¸Ļ à¹ĥà¸Ī
o s
à¸²à¸ĸ à¸²à¸¡
à¸Ľà¸£à¸°à¸ª à¸ļà¸ģà¸²à¸£à¸ĵ
à¸² à¹Ģà¸ģ
à¸° à¸§
Ġà¹Ģà¸« à¸¡
Ġà¸Ľ à¸¥
à¸¡ à¸ģ
à¸² à¹Ģà¸¥
à¸Ĭ à¸²à¸§
---------------- ----------------
à¸Ł à¸Ļ
à¸Ĥ à¸Ļà¸²à¸Ķ
à¸²à¹ģ à¸Ļà¸°à¸Ļ
Ġ r
à¸ĵ à¸Ħà¸£
à¸ĩ à¸«
i g
à¸²à¸¢ à¹ĥà¸Ļ
¸ Ĩ
à ¸Ĩ
à¹ģ à¸Ľ
à¸Ļ à¹Ģà¸Ĺ
à¹Į ",
à¸²à¸ĩ à¸Ħ
à¸Ļ à¹Ģà¸Ĥ
à¸¢à¸Ļ à¸ķà¸£
à¸ĩ à¸¢
à¸² à¹ĥà¸Ļ
== ==
Ġ ?
à¹Ĥà¸Ńà¸ģ à¸²à¸ª
à¸Ĵ à¸Ļ
à¸Ļ à¸ĭ
à¸Ńà¸ĩ à¹Ģà¸Ĺ
à¸ĩ à¸Ĥà¸Ńà¸ĩ
à¸²à¸£ à¸°
t r
à¸² à¹ģà¸¥
Ġà¸Ĥ à¸²à¸¢
à¹Ĥ à¸Ļ
à¸² à¹Ħà¸£
à¸Ķ à¸Ń
à¸§ à¸Ĥ
à¸² à¹Ģà¸ŀ
à¸£ à¸ĵ
i r
à¹Ĥ à¸¢
à¸¡ à¸²à¸Ļ
à¸Īà¸° à¹Ħà¸¡
à¸Ń à¸ľ
à¸§ à¹Ħà¸Ľ
à¸Īà¸° à¸ķ
à¸¡ à¸²à¸¢
Ġà¸ľà¸¡ à¸ģ
à¸£ à¸Ńà¸ļ
à¸łà¸²à¸ŀ à¸¢à¸Ļà¸ķà¸£
à¹Ĥ à¸ģ
à¸²à¸ĩ à¸§
Ġt he
à¸Ļ à¹Ģà¸Ńà¸ĩ
à¸Ń à¹Ģà¸Ľ
à¸§à¸ĩ à¸«à¸Ļ
à¸ĩ à¸ģà¸¥
à¸£ à¸ļà¸ģà¸§à¸Ļ
à¸ĩà¸Ħ à¸¡
à¹Ħà¸«à¸¡ à¸Ħà¸°
à¸ĵ à¸Ħ
à¸ŀ à¸²à¸°
o l
à¸ĩ à¸Ľ
à¸Ńà¸ĩ à¹Ħà¸Ľ
à¸ĩ à¸ĩà¸²à¸Ļ
à¸ĩà¸ģ à¸¤à¸©
à¸Ļ à¹ĥà¸«
t h
Ġ <
Ġt r
à¹ģ à¸Ńà¸ļ
à¸£ à¸Ħ
à¸ª à¸²à¸¡
à¸ĩ à¸«à¸¡à¸Ķ
à¸²à¸Ļ à¸§à¸Ļ
à¸² à¹Ģà¸ª
à¸¨à¸²à¸ª à¸ķà¸£
à¸§ à¸Ħà¸£
à¸Ķ à¸¡
à¹ĥ à¸ķ
à¸Ħà¸§à¸²à¸¡ à¸Ħ
à¸į à¸Ĭ
à¸ļ à¸¥
à¸¨ à¸Ļ
à¸¡à¸²à¸ģ à¸ģà¸§
à¸ķà¸£ à¸ĩ
à¸ª à¸§à¸¢
Ġ2 55
à¸ĺà¸Ļ à¸²à¸Ħà¸²à¸£
à¸Ĺà¸¢ à¸²à¸¥
à¸£ à¸§à¸¡
à¸ĩ à¹Ħ
à¹ģ à¸Ļà¸§
Ġ x
ac k
Ġà¸ķ à¸²à¸¡
à¸¢ à¸Ĺ
Ġà¹Ģà¸Ħ à¸£
à¸Ńà¸ģ à¸Īà¸²à¸ģ
à¸¸ à¹Ĭ
à¸²à¸¢ à¸£
à¸Īà¸° à¹Ħà¸Ľ
Ġs t
/ /
3 0
o p
à¹Ģà¸ī à¸ŀà¸²à¸°
à¸¢ à¸Ħà¸°
à¸ļ à¹Ģà¸ŀ
à¸§à¸¢ à¸Ħ
Ġà¸£ à¸ļà¸ģà¸§à¸Ļ
Ġ j
Ġ **
à¸Ńà¸Ļ à¸Ĥ
i m
à¸ģà¸²à¸£ à¸ĵ
à¸²à¸Ļ à¸ģ
à¸ķ à¸ģ
à¸Ķ à¸ģà¸²à¸£
Ġ1 5
à¸Ńà¸Ļ à¹Ģà¸Ķ
à¸Ńà¸°à¹Ħà¸£ à¸ģ
à¸ª à¸Ńà¸ĩ
à¹Ģà¸¨ à¸©
Ġ à¸Ł
à¸Ĥ à¸łà¸²à¸ŀ
¸ ĳ
à ¸ĳ
à¸µ à¹ĭ
à¹ģ à¸Ľà¸¥
Ġ ...
à¸ļ à¹Ģà¸£
à¸µ ,
à¸ļ à¸²à¸¥
à¸ļ à¸¡à¸²
à¹Ģà¸¨ à¸£
Ġ y
à¸ĩ à¸¥
à¸¢ à¸Ħà¸£
à¸ķà¸£ à¸§à¸Ī
à¸Ńà¸ģ à¸²à¸£
à¹ĥ à¸Ķ
à¸¡ à¸£
à¸° à¸Ĺ
à¹Ĥ à¸Ħà¸£
à¸Ļ à¹Ģà¸ª
à¸² à¹Ģà¸£à¸²
à¸ĩ à¸ĭ
à¸Ń à¸Ĥ
à¸ĩ à¸ŀ
m o
à¸© à¸¢
à¸ļ à¸Ĥ
à¸Ĥ à¸ģà¸Ĺ
à¸ĩ à¹ĥà¸«
Ġ3 0
à¹Ħà¸«à¸Ļ à¸Ķ
à¸Ī à¸Ļ
à¸²à¸Ħà¸§à¸²à¸¡ à¸£
à¸Ķ à¸«à¸Ļ
à¹Ħ à¸«à¸§
à¸Ńà¸¢à¸²à¸ģ à¸Īà¸°
à¹ģ à¸ª
à¸Ńà¸Ńà¸ģ à¸¡à¸²
à¸«à¸£ à¸Ń
Ġà¹ģ à¸ĸ
Ġ1 2
à¸¥à¸° à¹Ģà¸Ń
à¸Ńà¸ĩ à¹ĥà¸Ĭ
à¸² à¹Ģà¸Ħ
à¸Ń à¸Ħà¸§à¸²à¸¡
à¸¡ à¸²à¸£
Ġà¸£ à¸§à¸¡
à¸ĩ à¸¡à¸²à¸ģ
Ġ1 9
Ġà¸ŀ à¸Ńà¸Ķ
à¸§ à¹Ħà¸¡
m a
à¸Ļà¸° à¸Ħ
à¸ļ à¸ŀ
à¸²à¸¢ à¸²à¸¡
à¹Ĥà¸Ĺ à¸©
Ġ à¸«à¸¡
à¸§à¸¢ à¹ģà¸Ļà¸°à¸Ļ
Ġ )
à¸Ļ à¸ķà¸£
à¸ª à¸²à¸§
à¸§ à¸«à¸Ļ
à¹Ĥà¸£ à¸ĩà¹Ģà¸£
à¸²à¸¢ à¸Ħ
à¸ļ à¸ľà¸¡
à¸Ńà¸¢à¸²à¸ģ à¹ĥà¸«
à¸Ń à¸«
Ġ à¸®
à¸Ħà¸£ à¸Ńà¸ļà¸Ħà¸£
à¸¥ à¸¥
à¹Ģ à¹Ģà¸ķ
à¸ģ à¸ĭ
oo k
à¹Ĩ à¸ģ
Ġ à¸ī
à¹Ħà¸Ľ à¸ģ
à¸Ħà¸Ļ à¹Ģà¸Ķ
à¸Ŀ à¸²à¸ģ
à¸ļ à¸Ń
Ġ #
h t
à¸ŀà¸¢ à¸²à¸¢à¸²à¸¡
à¸²à¸ į
d oc
à¸¡ à¸Ńà¸ĩ
à¸± à¹Ĭ
à¸§à¸¢ à¸Ħà¸£
Ġ20 1
à¸ĩ à¹ģà¸¥
à¸² à¹Ħà¸ĩ
¸ ¬
à ¸¬
à¸²à¸¢ à¹Ģà¸Ľ
à¹Ģà¸Ĥ à¸²à¸ģ
à¸ĩ à¹Ģà¸Ĺà¸ŀ
à¹ģ à¸ļ
à¸¨ à¸£
à¸²à¸Ļ à¸¡
à¹Ĥà¸Ķ à¸Ļ
w ik
Ġ re
à¹Ģà¸ķ à¸£
à¹Ģà¸¥ à¸Ĥ
à¸Ńà¸¢à¸²à¸ģ à¸£
Ġà¸ģ à¸£à¸°
à¸§ à¹Ģà¸£
Ġà¸£ à¸ĸ
à¸Ľà¸£à¸°à¸ģ à¸Ńà¸ļ
à¸Ń à¸Ĥà¸Ńà¸ĩ
e b
à¸Ń à¹ģà¸¡
à¸²à¸ķ à¸Ńà¸ļ
55 5
à¸¡ à¸Ľ
à¸ĵ à¸ĳ
s t
à¸¢ à¸Ńà¸Ķ
à¹Ĥ à¸ŀ
à¸ļ à¹Ħà¸¡
à¸§ à¸²à¸ĩ
à¸£à¸° à¸¢à¸°
Ġà¹ģ à¸Ħ
à¸²à¸§ à¸Ļ
> >
à¸ĩ à¹ģà¸ļà¸ļ
à¸ª à¸ª
a k
Ġà¸Ĺ à¸²à¸ĩ
à¸§ à¸¥
à¸Ń à¹Ħà¸Ķ
à¸¥à¸ĩà¸Ĺ à¸°à¹Ģà¸ļ
u p
à¸Ļ à¹ģà¸¥à¸°
à¸ª à¸ĩà¸ª
à¸į à¸²à¸ķ
à¸¢ à¸²à¸§
Ġà¸« à¸²à¸ģ
........ ........
à¸Ļ à¹ģà¸ļà¸ļ
à¸£à¸ĸ à¸¢à¸Ļà¸ķ
Ġà¸Ń à¸²à¸Ī
Ġà¸ª à¸²à¸¡à¸²à¸£à¸ĸ
à¸²à¸Ļ à¸¡à¸²
à¹Ģà¸Ħ à¸¥
à¸¡ à¸Ĥ
Ġ à¸Ľà¸£à¸°
à¹Ģà¸ ł
à¹Ģà¸ ĸ
à¸Ļ à¸ģà¸¥
**** ****
à¹Ģà¸ģ à¸²à¸«à¸¥
à¸Ļ à¸²à¸¡
à¸²à¸Ī à¸£
à¹ģ à¸¢
à¸§à¸ĩ à¸Ļ
à¸ģà¸²à¸£ à¹Ģà¸¡
à¸²à¸Ń à¸Ńà¸ģ
Ġ1 8
à¹Ĥ à¸Ħ
à¸ļ à¸Ķ
Ġà¹Ģà¸ ļ
à¸Ńà¸Ļ à¸§
Ġà¸ŀ à¸£à¸°
à¸¡ à¸Ķ
à¸Ļ à¸«à¸¥
à¸Ńà¸ģ à¸¥
à¸¢ à¸Ħ
e c
à¸²à¸ĩ à¸¡
à¸§ à¸Ń
p s
âĢ ĭ
à¸ĩ à¸ĸ
à¸ļà¸£ à¸ĸ
à¸ģ à¸¡à¸²à¸ģ
à¸²à¸ĩ à¸Ħà¸°
à¸Ļ à¹Ģà¸¥
i z
à¸§ à¹Ģà¸ķà¸Ńà¸£
Ġ .
à¸Ķ à¸Ī
à¸²à¸¢ à¹Ĩ
à¸ĩ à¹Ģà¸¥
à¸§ à¸Ńà¸¢
à¸ģ à¸«à¸Ļ
à¹Ģà¸£ à¸²à¸Ħ
u b
à¸²à¸ģ à¸²à¸¨
à¸¡ à¸Ħ
à¹Ħà¸Ľ à¹ģà¸¥
à¹Ĥà¸Ĺà¸£ à¸Ĺ
à¹Ĥ à¸Ĭ
à¹Ħ à¸ģà¸¥
à¸¡à¸²à¸ °
à¸²à¸£ à¸¡
Ġ +
à¸§à¸Ļ à¹ĥà¸«à¸į
à¸ļ à¸Ľ
à¸ķ à¸ķ
à¸£à¸²à¸Ħ à¸²
à¹ĥà¸Ļ à¸Ĭ
à¸Ń à¸Ńà¸°à¹Ħà¸£
à¸ł à¸²à¸¢à¹ĥà¸Ļ
à¸Ń à¸ľà¸¡
à¸²à¸ļ à¸Ńà¸ģ
à¸Ńà¸ĩ à¸Ĥà¸Ńà¸ĩ
à¸Ń à¹Ģà¸¡
à¸²à¸Ĭ à¸Ńà¸ļ
à¸įà¸« à¸²à¸Ħà¸§à¸²à¸¡à¸£
à¸ķ à¸¥à¸²à¸Ķ
à¸ģ à¸Ń
en t
Ġà¸ļ à¸£
à¸Ńà¸ĩ à¸ŀ
c om
à¸§ à¸ļ
ar t
à¸ĩ à¹Ģà¸Ķ
à¹Ģà¸£ à¸²à¸¡
à¸Ńà¸¢à¸²à¸ģ à¹Ħà¸Ķ
6 0
Ġ1 00
à¹Ħà¸Ł à¸Ł
à¸¨ à¸²à¸¥
à¸Ħ à¸Ħà¸¥
à¹ģ à¸ģà¸£
Ġ --
à¸¡à¸²à¸ ĸ
à¹Ģà¸£ à¸²à¸Īà¸°
à¸ģà¸ģ à¸ģà¸ģ
à¸²à¸Ļ à¸ķ
à¸ģ à¸²
ĉĉ ĉ
ĉĉĉĉ ĉĉĉ
ĉĉĉĉĉĉĉĉ ĉĉĉĉĉĉĉ
ĉĉĉĉĉĉĉĉĉĉĉĉĉĉĉĉ ĉĉĉĉĉĉĉĉĉĉĉĉĉĉĉ
à¸«à¸¥à¸²à¸¢ à¹Ĩ
à¸ĸà¸²à¸¡ à¸§
à¸ĵ à¸Ĺ
à¸ĵ à¸¥
à¸Ń à¸Ĭ
u m
à¸Ńà¸ĩ à¸Ń
à¸ģ à¹ģà¸¥
à¸Ļ à¹Ģà¸Ĭ
à¸ģ à¹Ħà¸¡
à¸¡ à¸²à¸Ĺ
à¸ļà¸£ à¸£
à¸Īà¸° à¸£
à¸¥ à¸ļ
Ġà¸Ń à¸Ńà¸ģ
à¸ģ à¸ľ
Ġi d
à¸Ĳ à¸ļà¸²à¸¥
à¸Ńà¸Ļ à¸«à¸Ļ
à¸£à¸²à¸¢ à¸ģà¸²à¸£
à¸İ à¸«à¸¡à¸²à¸¢
à¸¡ à¹Ģà¸ķ
à¸²à¸Ļ à¹Ħà¸Ľ
à¸´ à¹Ĭ
++++ ++++
à¹Ģà¸ģ à¸¡
à¸Ļ à¸Īà¸²à¸ģ
à¸Ķ à¹Ħà¸Ľ
à¸²à¸Īà¸° à¹Ģà¸Ľ
à¸²à¸ļ à¸²à¸¥
à¸Ļ à¸Ńà¸°à¹Ħà¸£
à¸« à¸²à¸ģ
à¹Ĥ à¸ĭ
à¸Ļ à¸²à¸ĩ
à¸§ à¸°
à¹ģà¸£ à¸ĩ
Ġà¸Ľ à¸£
à¸Ļ à¹ģà¸ļà¸ļà¸Ļ
à¸²à¸ĩ à¹Ģà¸Ķ
à¹Ĥà¸£à¸ĩ à¹ģà¸£
un g
!! !
Ġ1 1
Ġà¸Ĭ à¸Ńà¸ļ
Ġà¸ª à¸£
à¹Ĥ à¸Łà¸Ļ
à¸ĩ à¹ģà¸£à¸ģ
à¸¢à¸§ à¸ķ
à¸ģ à¸Ľ
à¸¡à¸« à¸²à¸§
Ġs h
à¹Ĥà¸£ à¸Ħ
à¸Ńà¸ĩ à¸Ī
à¸Ń à¸²à¸ģà¸²à¸£
Ġà¹Ģà¸ ĺ
Ġ à¸ĺ
à¸² à¹ģà¸¥à¸°
à¸«à¸£ à¸Ńà¸ģ
Ġc h
a p
t ac
Ġ à¹
à¸¡à¸²à¸ ļ
i f
à¸Ļ à¹Ģà¸«à¸¡
à¹Ģà¸Ł à¸ª
à¸Ķ à¸ķà¸²à¸¡
Ġà¸ģ à¸§
à¸Ĭ à¸¡
à¸ĩ à¹Ģà¸Ĥ
à¸ģ à¸Ĥà¸Ńà¸ĩ
Ġ1 6
à¸± à¹ĭ
à¸Ķ à¸§à¸ģ
Ġ ro
s s
Ġt o
à¸²à¸Ĺ à¸²à¸ĩ
à¸² à¹Ģà¸¥à¸¢
à¸Ķ à¹ĥà¸Ļ
Ġ ^
Ġà¸ļ à¸Ńà¸ģ
à¸ŀ à¸Ļ
? ,"
à¸Ńà¸Ļ à¸ķ
à¸²à¸ ł
à¸Ńà¸Ļ à¸Ķ
à¸Ĺ à¸²à¸Ļ
à¸ĵ à¹ģà¸¡
Ġà¸ŀ à¸§à¸ģ
à¸Ńà¸Ļ à¸¡
à¸²à¸Ļ à¸°
à¸Ľà¸£à¸° à¹Ĥà¸¢
à¹Ħ à¸«
p hone
v er
à¸įà¸į à¸²à¸ĵ
à¸Ļ à¸²à¸¢
à¸Ľà¸£à¸°à¸Ĭ à¸²à¸Ĭ
à¹ģ à¸Ļà¸Ļ
Ġà¸ļ à¸²à¸ĩ
à¸Ń à¸«à¸Ļ
à¸Ļ à¹ģà¸ķ
u l
à¸Ķ à¸¥
à¸ĩ à¸ľ
à¸Ńà¸ª à¸Ńà¸ĩ
à¸²à¸£ à¸§à¸Ī
à¸ľà¸¡ à¹Ħà¸¡
à¸Ńà¸ĩ à¸ļ
à¸ªà¸Ļ à¸²à¸¡
à¸¢ à¸²à¸Ļ
à¸Ľ à¸ı
à¸²à¸£à¸¡ à¸ĵ
à¸ļ à¹ģà¸Łà¸Ļ
Ġà¹Ĥ à¸Ĺà¸£
ĠĠĠĠĠĠĠĠ ĠĠĠĠĠĠĠĠ
à¸Ńà¸¡ à¸ģ
à¸© à¸ĵ
à¹ģà¸Ĺ à¸Ļ
à¹Ħ à¸«à¸¥
à¸ģ à¸ļ
à¸įà¸« à¸²
à¹Ģà¸Ī à¸Ńà¸ģ
Ġ1 4
Ġ à¸ĵ
à¸Ľ à¸Ķ
Ġ1 3
à¸¡ à¸²à¸Īà¸²à¸ģ
Ġo f
à¸§ à¹Ĩ
à¸Ń à¹Ģà¸ª
à¹Ģà¸£à¸² à¹Ģà¸Ľ
Ġt h
à¸Ľ à¸ģà¸£à¸ĵ
à¸Ńà¸ĩ à¸§
à¸²à¸ģ à¸£
Ġ à¸Ħà¸§à¸£
à¸²à¸¢ à¸ķ
à¸ĩà¹Ħà¸ĩ à¸Ķ
Ġ2 4
à¸²à¸£ à¸ĵ
à¸ģ à¸Ī
à¸Ńà¸Ńà¸ģ à¹Ħà¸Ľ
1 5
à¸Ńà¸Ļ à¸£
à¸Ńà¸ĩ à¸ľ
à¸²à¸« à¸Ļà¸Ķ
à¸²à¸ļ à¸Ńà¸ģà¸§
à¸Ńà¸ģ à¸ķ
à¸² à¹Ģà¸¡
Ġ5 0
Ġà¸Ī à¸Ĥà¸ģà¸Ĺ
à¸Ĥà¸Ń à¸Ħ
à¸§à¸¢ à¸Ļà¸°à¸Ħà¸°
à¸² à¹Ģà¸Ĺ
Ġà¸Ī à¸£
à¸Ńà¸ĩ à¸Ĥ
à¹Ģà¸¥à¸¢ à¸§
i le
à¸²à¹ģ à¸«à¸Ļ
à¸ļ à¹Ħà¸Ķ
à¸ŀà¸¢ à¸²à¸ļà¸²à¸¥
à¸Ķ à¸ļ
Ġ2 00
Ġà¸ģ à¸£
à¸²à¸ĩ à¸Ķ
à¸ģà¸²à¸£ à¸ļ
à¸²à¸ķ à¸£
à¹Ģà¸ģ à¸£
à¸© à¸Ĳ
an t
à¹Ģà¸« à¸¡à¸²à¸°
à¸Ńà¸ĩ à¹Ģà¸£
Ġà¸¡ à¸²à¸ģ
à¸Ŀ à¸£
Ġà¸ķ à¸£
à¸Ħà¸§à¸²à¸¡ à¸ĩà¸²à¸¡
à¸Ń à¹Ģà¸ŀ
à¸ģ à¸Ĭ
à¸ģ à¸¢
à¸Ļ à¹Ģà¸ŀà¸£à¸²à¸°
à¸Ń à¸Ī
à¸§ à¹ģà¸ķ
à¹Ģà¸« à¸£à¸Ń
Ġ *
Ġà¹Ģà¸£ à¸²à¹Ħà¸¡
à¸ļ à¸«à¸Ļ
Ġà¹Ģà¸ ķ
Ġ 5555
à¸Ńà¸ĩ à¸ĸ
à¸¡à¸²à¸ģ à¸Ħ
à¸ĩà¹Ħ à¸ĩà¸ģ
à¹ģ à¸¢à¸ģ
à¸ª à¸ģ
at ion
Ġà¸ª à¸²à¸Ĥ
Ġ à¸Ľà¸£à¸°à¸¡à¸²à¸ĵ
c e
à¹Ģà¸£ à¸²à¸Ĺ
à¸ķ à¸Ļ
à¸ķà¸²à¸¡ à¸«
2 5
à¸ģ à¹ģà¸ªà¸Ķà¸ĩ
à¹Ĥ à¸Ńà¸Ļ
à¸Ń à¸ł
Ġà¸£ à¸²à¸¢
à¸²à¸ Ł
à¸²à¸Ħ à¸§à¸£
Ġ1 7
Ġs m
à¸£à¸° à¸ļ
à¸²à¸Īà¸° à¸¡
à¸ļ à¸Ī
à¸Īà¸° à¸Ķ
à¸ĩà¸Īà¸²à¸ģ à¸Ļ
à¸ļ à¸Ĭ
à¸§à¸¢ à¸Ħà¸§à¸²à¸¡
à¸Ń à¸Ł
à¸Ķ à¹Ħà¸¡
à¸Ķ à¸Ńà¸°à¹Ħà¸£
à¸ļ à¹Ģà¸£à¸²
à¸²à¸ĩ à¸«à¸Ļ
à¸Ħà¸Ńà¸¡ à¸ŀ
iz e
à¸ĩà¹Ĩ à¸Ĺ
à¸¥ à¸Ľ
à¹Ģà¸ī à¸¢
à¹Ģà¸ ®
à¹Ģà¸£ à¸²à¸ķ
à¸Ľ à¸Ĺ
à¸Ķ à¸Ĥà¸Ńà¸ĩ
à¸¢ à¸²
à¸Ńà¸ĩ à¹Ģà¸Ľ
Ġà¹Ģà¸ ĩ
9 0
à¹Ģà¸§à¸¥ à¸²à¸Ĺ
Ġ à¹Ħ
à¸Ķ à¸Ńà¸¢
à¹ĥà¸Ļ à¸ķ
à¸Ķ à¸Īà¸²à¸ģ
à¸§ à¸ĸ
à¸²à¸ĩ à¸Ī
Ġa pp
à¸ģ à¹ĥà¸Ī
____ ____
.... .
à¸Ĺ à¸°à¹Ģà¸¥
à¸ĺà¸£à¸£à¸¡ à¸Ķ
Ġà¸Ĥ à¸Ļà¸²à¸Ķ
à¸² à¹Ģà¸Ĭ
am s
à¹ģà¸Ķ à¸ĩ
à¹ģà¸«à¸¥ à¸°
à¸¢ à¸ļà¸£
à¹Ĥà¸¡ à¸ĩ
à¸ŀà¸¥ à¸²à¸Ķ
à¸²à¸ĩ à¸Ń
eb ook
à¹Ģà¸Ńà¸ģ à¸ªà¸²à¸£
à¸²à¸Ļ à¸Ħ
Ġ à¸ĩà¸²à¸Ļ
Ġà¸Īà¸° à¸¡
à¸Ńà¸Ńà¸ģ à¸Īà¸²à¸ģ
à¸ģ à¸²à¸¢
à¹ĥà¸Ļ à¸ª
à¸Ļ à¹Ģà¸¡
à¸¡ à¹Ĩ
à¸Ľ à¸²à¸ģ
à¸²à¸ĩ à¸ķ
1 1
à¸ģà¸²à¸£ à¸ķ
al l
à¸ļà¸²à¸Ĺ à¸Ħ
à¸¨à¸²à¸ª à¸Ļ
à¸Ļ à¸Īà¸£
à¸Ĭ à¸£
à¸Ļ à¸«à¸£
à¸Ķ à¹Ħà¸Ķ
à¸ĩà¹ģà¸ļà¸ļ à¸¥à¸ĩà¸Ĺà¸°à¹Ģà¸ļ
à¹Ħà¸Ľ à¹Ģà¸Ĺ
à¸Ľà¸£à¸°à¹Ģà¸Ĺà¸¨ à¹Ħà¸Ĺà¸¢
à¸Ńà¸¢à¸²à¸ģ à¸Ĺà¸£à¸²à¸ļà¸§
Ġà¸£ à¸«
à¸Ķ à¹Ģà¸«
Ġà¹Ģà¸ ĭ
à¸ª à¸ļà¸²à¸¢
Ġs ize
e w
à¸Ħ à¸Ķ
Ġà¸ª à¸¡
à¸¡ à¸Ħà¸£
à¸²à¸¢ à¹Ħà¸Ľ
à¸ģà¸²à¸£ à¸ª
à¹Ģà¸Ħà¸£ à¸Ķ
à¸įà¸« à¸²à¸Ĭ
à¸²à¸ķ à¸²à¸¡
à¸¡à¸²à¸ Ĥ
à¸¡à¸² à¹ģà¸¥
Ġ =
à¸¢ à¸ģà¸§
à¹Ĥà¸Ń à¹Ģà¸Ħ
ar d
à¸²à¹ģ à¸Ł
Ġà¹ģà¸¥à¸° à¸¡
à¸²à¸« à¸¡
à¸² à¹ģà¸ķ
à¹Ī ,
à¸Ļ à¹Ĥ
à¸ģ à¹Ģà¸ģ
à¸Ķ à¹Ģà¸Ķ
1 2
à¸Ľà¸¥ à¸²à¸¢
Ġ à¹ĥà¸ª
à¸§à¸¡ à¸ģ
à¸ĩ à¸Ħà¸§à¸²à¸¡
ams ung
à¸Ĥ à¸²à¸§
à¸Ń à¹ĥà¸«à¸¡
à¸Ń à¸Īà¸°
à¹ĥà¸Ļ à¸«
à¹ĥà¸Ļ à¸Ĺ
à¸²à¸Ļ à¹ģà¸¥
à¸Ļ à¹Ģà¸ķ
a b
à¸² à¹ĥà¸Ħà¸£
à¹Ģà¸£ à¸²à¸£
à¸Ń à¸Ħà¸£
# #
à¹Ģà¸Ń à¸²à¸¡
Ġà¹ģ à¸ģ
à¸Ĺ à¹Ĥà¸Łà¸Ļ
e m
Ġ à¸Ŀ
Ġ à¸Ńà¸°à¹Ħà¸£
à¸ļ à¸Ħà¸Ļ
à¸Ĥà¸Ńà¸ĩ à¸ķ
à¸° à¸ģ
à¸Ľà¸£à¸°à¸ģ à¸²à¸¨
à¸²à¸£ à¸¢
à¸ªà¸¡ à¸²à¸£
à¸Ļ à¸ľà¸¡
Ġl ine
à¸Ĥ à¸§
à¹ģà¸Ĭ à¸£
à¸ģ à¹Ģà¸Ķ
à¸£à¸ĸ à¹Ħà¸Ł
Ġà¸Ļ à¸²à¸¢
à¸Ńà¸ĩ à¹Ģà¸¥
à¸¢ à¸Ļà¸Ĺ
Ġà¸Īà¸° à¹Ħà¸Ķ
à¸¡ à¸²à¸Ķ
à¸ª à¸¥
à¸° à¸Ļ
Ġs p
à¹Ģà¸ģ à¸¥
à¸§à¸¢ à¹Ģà¸«à¸¥
à¹Ģà¸¡ à¸¥
Ġ à¸¨
à¸²à¸Ļ à¸«à¸Ļ
à¸«à¸²à¸¢ à¹Ħà¸Ľ
à¸ģà¸²à¸£ à¸¨
Ġ à¸ľà¸¥
à¸Ľà¸£à¸°à¹Ĥà¸¢ à¸Ĭà¸Ļ
à¸Ķ à¸¡à¸²à¸ģ
9 9
à¸Ńà¸Ļ à¸Ħ
à¸Ń à¹Ģà¸Ķ
à¸Ļ à¹Ħà¸«à¸Ļ
Ġà¹ģ à¸Ĺ
à¸¡ à¸¢
o u
à¸Ńà¸¡ à¸ª
à¸Ļ à¹Ħ
à¸ļ à¸Ħà¸§à¸²à¸¡
Ġà¹Ģà¸£à¸² à¹Ģà¸¥à¸¢
à¸Ńà¸ĩ à¹Ħà¸¡
à¹Ģà¸Ń à¸²à¹Ħà¸Ľ
as s
Ġ 555
à¸Ķ à¸¢
à¸¡ à¸²à¸ª
ma il
Ġ z
tr ue
an g
Ġa is
à¸Ńà¸ĩ à¹ĥà¸«
Ġà¸Ļ à¸Ńà¸ģà¸Īà¸²à¸ģ
à¸²à¸ĩ à¸ª
à¸Ńà¸° à¸Ħà¸£
Ġ [
à¹Ģà¸§ à¸Ńà¸£
à¹Ģà¸Ħà¸¢ à¸¡
à¸Ħ à¸Ńà¸Ļ
Ġ à¸ł
Ġà¹Ģà¸Ħ à¸¢
Ġà¸Ļ à¸²à¸Ĺ
Ġà¹Ĥ à¸£
Ġà¹ģ à¸Ł
à¹ģ à¸ĭ
Ġ ..
à¸ģ à¹Ħà¸Ľ
à¸ĵà¸° à¸Ĺ
o d
a x
à¹ĥà¸Ļ à¸§
à¸Ńà¸¢ à¸ģ
à¸Ķ à¹ĥà¸«
Ġ à¸Ħà¸Ļà¸Ĺ
à¸¡à¸² à¹ĥà¸«
à¸²à¸ Ŀ
ed ia
à¸Ĥà¸Ńà¸ĩ à¸Ĺ
à¸Ńà¸ĩ à¸«
à¸Ķ à¹Ģà¸Ī
à¸ģà¸£à¸° à¹Ģà¸Ľ
à¸²à¹Ħà¸ĩ à¸Ķ
à¹ģà¸ŀ à¸Ĺà¸¢
à¸ģ à¹Ħà¸Ķ
à¸Ĥ à¸²à¸Ķ
à¸Ļ à¹Ģà¸Ļ
à¸Ļ à¸ł
==== ====
à¸Ńà¸ĩ à¹Ģà¸ª
or g
à¸ķ à¸Ĺ
à¸ļ à¹Ģà¸Ĥ
à¸¡ à¸ļ
à¸¢ à¹ĥà¸Ī
Ġà¹Ģà¸£ à¸²à¸Īà¸°
à¸§ à¸Īà¸°
à¸Ļ à¸Ħà¸Ļà¸Ĺ
à¹Ģà¸£à¸² à¹Ħà¸Ľ
à¸ģ à¸ĸ
à¸¡ à¸Ĭ
à¸Ī à¸²à¸£à¸ĵ
à¹Ĥ à¸«à¸¥
à¸ļ à¸ĸ
à¸Ħà¸§à¸²à¸¡ à¹Ģà¸«
à¸²à¸° à¸ģ
à¸Ńà¹Ģà¸¡ à¸£
à¹Ħà¸«à¸Ļ à¸ģ
à¸Ń à¸Ńà¸¢
à¹Ħà¸ĭ à¸Ħ
à¸ļ à¸ªà¸Ļ
or t
à¸Ńà¸Ļ à¹Ħà¸¥à¸Ļ
Ġà¸¢ à¸²à¸§
à¸Ń à¹Ģà¸Ĥ
à¸¡ à¸§
à¸Ķ à¸«
à¸Ļ à¸¥à¸°
à¸¡à¸² à¹Ģà¸Ľ
à¸ĩ à¹Ģà¸ŀ
ar e
à¸ķ à¸ª
Ġtr ue
à¸Ļ à¹Ģà¸Ī
Ġc l
à¸Ļ à¸Ńà¸Ńà¸ģ
4 0
à¸Ľà¸Ķ à¸²à¸«
Ġ à¸ĩ
à¸łà¸²à¸© à¸²à¸Ń
à¸ĺ à¸²à¸Ļ
à¸Ń à¹Ģà¸ģ
ac ebook
à¸²à¸¢ à¸ª
à¸Ńà¸ª à¸Ńà¸ļ
à¸Ļà¸Ħ à¸¥
Ġà¸ĸ à¸²à¸¡
à¹Ģà¸£à¸² à¹Ħà¸Ķ
à¸²à¸Ļ à¸Ńà¸²à¸«à¸²à¸£
à¸²à¸§ à¹Ĩ
à¸¢à¸ĩ à¹ĥà¸«à¸¡
Ġà¸ļ à¸²à¸ĩà¸Ĺ
à¸¡à¸²à¸ Ľ
c r
Ġ à¸£à¸°à¸«à¸§
à¸ĩ à¸ģà¸§
à¸Ń à¸²à¸Ĺ
b ile
à¸Ńà¸¢ à¸Ķ
Ġà¸Ľ à¸ģà¸ķ
à¹Ħ à¸ķ
à¸° à¸¥
Ġ le
à¸Ńà¸¢ à¸Ļà¸°à¸Ħà¸°
à¸£à¸° à¹Ģà¸ļ
à¹Ĥ à¸Ī
à¸ģ à¸²à¸¥
à¸¡ à¹Ħà¸Ķ
à¸Ńà¸¢ à¸¡
à¸Ļ à¸Ħà¸§à¸²à¸¡
Ġà¹ģ à¸Ļà¸°à¸Ļ
? ,
à¸ĭ à¸°
à¸Ļà¸ģ à¸£à¸°à¸Ĺ
à¸²à¸Ħ à¸°
à¸Ĺ à¸¡
à¸£ à¸ª
à¹Ĥ à¸ł
à¸§ à¹Ģà¸Ľ
à¸Ķ à¸Ĭ
in d
à¸Ħà¸Ļ à¹Ħà¸Ĺà¸¢
Ġ ur
à¸Ķ à¹ģà¸¥
: //
à¸ļ à¸Ĥà¸Ńà¸ļà¸Ħ
1 8
Ġà¸Īà¸²à¸ģ à¸Ļ
à¸Ļ à¸£à¸ĸ
à¹ģ à¸§à¸£
à¸Ļ à¹Ģà¸ķà¸Ńà¸£
à¹Ĥà¸Ľà¸£ à¹ģà¸ģà¸£
Ġ^ ^
Ġ à¹Ģà¹Ģà¸ķ
à¸ģ à¸«
Ġà¹ģà¸¥à¸° à¸Ĺ
à¸§ à¹ĥà¸Ī
à¸ģà¸²à¸£ à¹Ģà¸£
à¸¡à¸²à¸ģ à¸Ħà¸£
à¸Ńà¸ĩ à¸Ĭ
ip hone
à¸ĩà¸ģ à¸£à¸°à¸Ĺ
à¸¢ à¹Ģà¸£
à¸ģà¸²à¸£ à¹ĥà¸Ĭ
à¸¢ à¸ª
Ġt it
à¸Ĺ à¸ģ
à¸Ńà¸ĩ à¹Ħà¸«
à¸²à¸Ļ à¸Ķ
à¸Ńà¸Ļ à¹Ħà¸¡
à¸ķ à¸Ħ
à¸² à¹Ģà¸ĩ
à¸Ńà¸Ļ à¸²à¸Ħ
à¸Ļà¹ģ à¸«à¸¥
à¸Ń à¹Ģà¸¥
à¹Ĩà¹Ĩ à¹Ĩà¹Ĩ
Ġà¸Ń à¸²à¸¢
à¸¢ à¸²à¸¡
à¹Ģà¸¨à¸£ à¸©à¸Ĳ
à¸§ à¸ľà¸¡
à¸Ńà¸ĩ à¸ĭ
ht t
à¸² à¹Ģà¸Ī
à¸Ļ à¹Ģà¸Ħà¸£
à¸ķ à¸²à¸¢
à¸Ļ à¹ģà¸Ħ
Ġ2 1
à¸²à¸ŀ à¸£
à¸²à¸ĩ à¸ļ
à¸ĩà¸²à¸Ļ à¸Ĺ
à¸²à¸ģ à¸ı
Ġ à¹Ģà¹Ģà¸¥
à¸Ľ à¸Ļ
à¸² à¹Ģà¸Ń
à¸²à¸Ľ à¸£
à¸²à¸Ļ à¸²à¸Ļ
à¹ģà¸£ à¸ģà¸Ĺ
à¸Ľà¸£à¸° à¸ķ
ip edia
à¸ģ à¹Ģà¸Ĥ
1 6
Ġ and
à¹Ħà¸Ľ à¸£
à¸ģà¸£ à¸¢à¸²à¸Ļ
à¸²à¸ĩ à¸£
à¸«à¸¥à¸²à¸¢ à¸Ħà¸Ļ
à¸Ńà¸Ļ à¸Īà¸°
à¸§ à¸ŀ
c ur
à¸Ńà¸ĩ à¸¢
à¸Ľà¸£à¸° à¸§
", [
à¸Ń à¸Īà¸²à¸ģ
à¸² à¹ģà¸ļà¸ļ
à¸Ĺ à¸Ļ
à¸Ńà¸ĩ à¹Ģà¸Ķ
Ġ ....
à¸ĵ à¸łà¸²à¸ŀ
à¹Ģà¸ĭ à¸Ńà¸£
à¸Ń à¸²à¸ģà¸²à¸¨
à¹Ħà¸Ł à¸¥
à¸²à¸² à¸²à¸²
à¹Ģà¸ŀ à¸¥
à¸²à¸ª à¸ķà¸£
à¸Ńà¸Ļ à¸ª
o k
à¹Į )
à¸Ĥà¸Ńà¸ĩ à¸ľà¸¡
Ġp ro
Ġur l
à¸Ķ à¹Ģà¸£
à¸Ĥà¸Ļà¸²à¸Ķ à¸Ļ
a is
à¸¥ à¸ģ
!! !!
htt ps
à¸Ķ à¸§à¸ĩ
Ġtit le
à¸ĩ à¸«à¸£
à¸«à¸¥ à¸§à¸ĩ
à¹Ĥà¸¡ à¸ªà¸£
wik ipedia
à¸Ļ à¹ĥà¸«à¸¡
à¸Ķ à¸Ľ
wik i
Ġà¹Ģà¸Ĥ à¸²à¸ģ
à¸Ńà¸Ļ à¹ģà¸¥
à¸Ńà¸ĩ à¸«à¸Ļ
Ġ< /
1 4
à¹ĥà¸Ī à¸§
at e
" >
à¸Ļ à¸ģà¸§
à¹ģà¸Ľ à¸¥à¸ĩ
à¸Ńà¸¡ à¸²
à¹Ģà¸Ńà¸ĩ à¸ģ
or e
cur id
Ġà¹Ģà¸« à¸¥
à¸ģà¸¥ à¸²à¸¢à¹Ģà¸Ľ
à¸ģ à¸İà¸«à¸¡à¸²à¸¢
Ġ ??
à¸² à¹Ģà¸«à¸ķ
Ġà¸ľà¸¡ à¹Ħà¸¡
à¸ģà¸£ à¸Ńà¸ļ
à¹Ħà¸Ľ à¹Ģà¸£
Ġp l
à¹Ĥà¸Ħà¸£ à¸ĩà¸ģà¸²à¸£
à¸«à¸§ à¸²à¸Ļ
8 0
à¹Ģà¸ģ à¸²à¸°
à¹Ĥà¸Ķà¸¢ à¸ªà¸²à¸£
à¹Ħà¸«à¸¡ à¸Ħ
Ġà¸Ĺ à¸£
à¹Ģà¸¢à¸Ńà¸° à¸¡à¸²à¸ģ
Ġ à¸Ħà¸§à¸²à¸¡à¸£
à¸²à¸¨ à¸²à¸ªà¸ķà¸£
à¸£à¸²à¸¢ à¸¥à¸°à¹Ģà¸Ń
à¸²à¸ģ à¸§
à¹Ģà¸§ à¸ĵ
à¸²à¸ª à¸Ļà¹ĥà¸Ī
à¸Ńà¸¢ à¹Ħà¸Ķ
à¸Ļ à¸Ł
Ġà¹Ģà¸ ¢
Ġà¹ģà¸¥à¸° à¸ģ
à¸¡ à¸ľ
à¹ĥà¸Ļ à¸Ľ
à¸Ńà¸ĩ à¹Ģà¸Ĥ
à¸ģà¸© à¸ĵà¸°
à¸ĩ à¹Ģà¸¥à¸¢
ic e
à¸Ķ à¹Ģà¸Ľ
à¸ĩ à¹ģà¸¥à¸°
x x
à¸§ à¸Ĭ
à¸§à¸¢ à¸Ķ
à¸Ī à¸Ńà¸Ķ
à¸Ńà¸ª à¸¡
Ġe x
à¸²à¸Ļ à¸²à¸Ī
1 3
Ġ à¹Ĥà¸Ķ
à¸²à¸Ħ à¸Ļ
à¸¡ à¹Ģà¸Ľ
à¸§ à¹Ģà¸¥
à¸« à¸²à¸§
à¸¢ à¸ķ
Ġn ot
à¸¢à¸Ńà¸¡ à¸£
à¸Ļ à¹Ģà¸Ħ
à¸Ńà¸¢ à¸¡à¸²à¸ģ
à¸§à¸¢ à¸Ĺ
à¸ĩ à¹Ģà¸ª
à¸Ļ à¹Ģà¸ĩ
Ġà¸Ńà¸¢à¸²à¸ģ à¹Ħà¸Ķ
à¸Ļ à¹Ħà¸£
à¸Ĥà¸Ńà¸ĩ à¸Ħ
à¸ĸ à¸Ļà¸Ļ
à¸ĩ à¸£à¸ĸ
à¸ŀà¸§à¸ģ à¸Ļ
à¸Ńà¸ĩà¸£ à¸²à¸§
à¸ķà¸£ à¹Ģà¸Ħà¸£à¸Ķ
à¸²à¸Ļ à¸§
Ġà¹Ģà¸ ľ
Ġà¸£ à¸Ńà¸ļ
à¸µ à¹Ĭ
à¸Ńà¸ĩ à¸¥
à¸Ńà¸²à¸Ī à¸Īà¸°
Ġ à¹Ħà¸§
à¸¢ à¸Ĭ
à¹ģà¸Ł à¸Ĭ
Ġi phone
à¸ªà¸° à¸Ķà¸§à¸ģ
à¸Ķ à¹ĥà¸Ī
à¸Ļ à¸Ńà¸ģ
à¸ĩ à¹Ħà¸§
à¸ļ à¹Ģà¸ĩ
à¸Ń à¸ĭ
mo ve
à¹ĥà¸Ħà¸£ à¹Ģà¸Ħà¸¢
à¸ļ à¹Ģà¸Ľ
à¸Ħ à¸ļà¸ģ
à¸ľà¸¡ à¸¡
à¸ļ à¸«
à¹ģ à¸Ńà¸£
à¸ģà¸²à¸£ à¹Ģà¸¥
à¸Ńà¸ĩ à¹Ħà¸Ķ
à¸ģ à¸°
à¸Ńà¸Ļ à¸Ń
a il
à¸ī à¸²à¸ģ
à¸Ī à¸ģ
à¸¡à¸²à¸ģ à¸Ĥ
Ġ à¸¯
à¸Ķ à¸ŀ
Ġs e
à¸²à¸«à¸¥ à¸²à¸¢
à¸ĩ à¸¡à¸²
à¹ĥà¸Ļ à¸£
à¸¥ à¸²à¸¢
à¸ļ à¹ĥà¸Ħà¸£
Ġà¹ģà¸ļà¸ļ à¸Ļ
à¹Ĥà¸£à¸ĩ à¸ŀà¸¢à¸²à¸ļà¸²à¸¥
à¸¢à¸¢ à¸¢à¸¢
à¹Ģà¸īà¸¢ à¹Ĩ
à¸ģ à¹Ģà¸¥à¸¢
1 7
Ġh d
à¸§ à¸ĩà¸Ĺ
à¸²à¸ª à¸²à¸¡à¸²à¸£à¸ĸ
à¸ģ à¹Ģà¸¥
à¸² à¹Ħà¸§
Ġà¸ŀ à¸Ļ
à¸Ļà¸ķ à¸²à¸¡
Ġà¸Ńà¸¢à¸²à¸ģ à¸Ĺà¸£à¸²à¸ļà¸§
à¸Ļ à¸ľà¸¥
à¸Ļà¸ķ à¸Ńà¸Ļ
à¸ĺà¸£à¸£à¸¡ à¸Ĭà¸²à¸ķ
Ġà¸£à¸²à¸Ħ à¸²à¸Ľ
i v
5 00
à¸§à¸¢ à¸ķ
à¸§à¸¢ à¸Ļà¸°à¸Ħà¸£
à¸²à¸ĩ à¹Ģà¸ģ
à¸¥à¸ĩ à¹Ħà¸Ľ
à¹Ĩ à¸Ĺ
à¸ģ à¸Ĺà¸£
Ġà¸ª à¸°
à¸²à¸Ļ à¸Ħà¸£
à¸²à¸Ľà¸£à¸° à¸ģ
Ġ à¸Ńà¸ģ
à¸ª à¸Ĺ
Ġà¸Ħ à¸¥
à¸Ħà¸Ļ à¸£
à¸ªà¸Ļà¸²à¸¡ à¸ļ
à¸ĩà¹Ģà¸ģ à¸ķ
à¸² à¹ģà¸ļà¸ļà¸Ļ
à¸²à¸Ļ à¸Ĥ
à¹ĥà¸Ļ à¸ļ
à¸Ľ à¸Ľ
Ġà¸Ńà¸¢à¸²à¸ģ à¸£
à¸²à¸Ļ à¸Ń
à¸¢à¸²à¸¢ à¸²à¸¡
à¸Ī à¸ģà¸£à¸£à¸¡
à¸¢à¸ģ à¹Ģà¸¥
mo bile
à¸ģà¸²à¸£ à¸Ī
à¸ģ à¹ģà¸¥à¸°
Ġà¹Ģà¸¥à¸¢ à¸Ńà¸¢à¸²à¸ģ
à¸²à¸ķ à¸¥à¸Ńà¸Ķ
à¸ģà¸© à¸ĵ
Ġ >>
à¸²à¸ĩ à¸Īà¸²à¸ģ
p er
à¸Ń à¸ĺ
à¸¢ à¸«à¸²à¸¢
à¸Ķ à¹Ģà¸¥
à¸§ à¹Ģà¸Ĥ
l ine
à¸ĩ à¸ľà¸¡
à¸¥ à¸Ĺ
à¸ĩà¸Īà¸²à¸ģ à¸Ĺ
à¸ĩ à¹ģà¸¡
à¸¬ à¸²
à¸²à¸¢ à¹Ħà¸Ķ
à¸¡à¸²à¸ģ à¸¡à¸²à¸¢
à¸Ńà¸¢ à¸Ĺ
à¸ļ à¹Ģà¸Ķ
à¸Ļ à¹ĥà¸Ĭ
à¸ļ à¸ĭ
Ġb l
à¸Ĺ à¸Ĺ
à¸Īà¸° à¸ŀ
à¹Ħà¸«à¸Ļ à¸ļ
à¸²à¸ļ à¸£
à¸ķà¸£à¸§à¸Ī à¸ªà¸Ńà¸ļ
à¸Ļ à¸²à¸Ĺ
à¸²à¸¢ à¸Ķ
à¸ªà¸¡ à¸ļ
à¸Ńà¸£ à¸ĸ
à¸£ à¸ł
à¸ĩ à¸Ńà¸Ńà¸ģ
à¸Ńà¸°à¹Ħà¸£ à¸ļ
à¸ªà¸ĸà¸²à¸Ļ à¸Ĺ
à¸Ńà¸¡ à¸²à¸ģ
Ġ0 8
à¸ŀà¸£ à¸£à¸Ħ
à¸ļ à¹Ģà¸Ħ
à¹Ģà¸ĸ à¸Ńà¸°
à¸Īà¸° à¸ĭ
Ġ** *
à¸¢à¸§ à¸Ĺ
à¸Ļà¹Ħà¸Ľ à¹Ħà¸Ķ
Ġ à¹Ħà¸Ń
à¸Ńà¸Ļà¸²à¸Ħ à¸ķ
on d
à¸£ à¸²à¸¡
à¸¥ à¸¡
Ġà¹Ģà¸£ à¸²à¸¡
. )
Ġ un
Ġà¸£à¸²à¸Ħà¸²à¸Ľ à¸ģ
Ġà¸Ńà¸¢à¸²à¸ģ à¹ĥà¸«
à¸ģà¸²à¸£ à¸Ħ
Ġ &
à¸²à¹ģ à¸¡
à¸ļ à¹Ģà¸¥
à¸Ħà¸£ à¸ļ
à¸ķà¸£ à¸ĩà¸Ļ
Ġ à¹Ģ
à¸Ĩ à¸©à¸ĵ
à¸²à¸§ à¸ģ
à¸Ńà¸ģ à¸Ĺ
Ġ >
à¸²à¸Īà¸° à¸Ĺ
a w
Ġ up
Ġ2 50
à¸ļ à¸Ĥà¸Ńà¸ĩ
à¸Ńà¸ģ à¹Ħà¸¡
es t
à¸Ķ à¹Ģà¸Ĺ
à¸²à¸ĩ à¹Ħà¸¡
à¹Ħà¸Ľ à¸ª
à¸¢ à¸§à¸Ļ
à¸¢ à¸ļà¸ģ
à¸¡ à¸łà¸²à¸©
à¸ĩ à¹Ģà¸Ń
à¹Ĥà¸ł à¸Ħ
à¸²à¸Ľà¸£à¸° à¸¡à¸²à¸ĵ
à¸Ħà¸§à¸²à¸¡ à¹Ģà¸Ľ
à¸Ń à¹Ģà¸Ļ
à¸¢à¸ĩ à¸Ķ
Ġà¸¡ à¸²
à¸§ à¹Ĥà¸¡à¸ĩ
à¸²à¸ĩ à¹Ģà¸Ľ
à¹Ĥà¸Ĭ à¸§
a v
à¹Ħà¸«à¸Ļ à¸Ĺ
or k
à¸Ļ à¸Ļà¸°
à¸ģ à¹Ģà¸Ľ
e x
à¸ļ à¹ģà¸¡
à¸Ļà¹ģ à¸Ļ
à¸Ħ à¸ĵà¸°
a i
à¸Īà¸° à¹Ģà¸¥
à¸¢à¸Ļ à¹Ħà¸Ľ
Ġ à¸łà¸²à¸ŀ
à¸Ńà¸ĩ à¸Ńà¸¢
à¹Ĥ à¸«
à¸¡à¸²à¸ģ à¸Ĺ
à¸¡ à¹Ħà¸¡
à¸¡à¸² à¹Ģà¸¥
-------------------------------- --------------------------------
à¸Ń à¹Ħ
à¸Ļ à¸«à¸¡
à¸²à¹ģ à¸ŀ
à¹Ģà¸ŀ à¸¨
à¸²à¸§ à¸§
à¸ª à¸§à¸Ļ
à¸Ĭ à¸Ĭ
à¸§ à¹Ħà¸Ķ
à¹Ģà¸Ńà¸² à¹Ħà¸§
t s
à¸Ļ à¸¨
à¸²à¸Ń à¸²à¸ĩ
à¹Ħà¸Ľ à¸ķ
à¸²à¸Ń à¸²à¸Ī
Ġ on
à¸¥ à¸¢
Ġ3 00
à¸ģ à¸ģà¸§
Ġd tac
à¸¥ à¸¯
à¸ĩ à¸«à¸¥à¸²à¸¢
à¸ģà¸²à¸£ à¸£
à¹Ģà¸£ à¸²à¸§
à¸ļ à¸Ľà¸£
à¸£à¸° à¸§
à¸Ħà¸Ļ à¸«à¸Ļ
à¸²à¸Īà¸° à¹Ħà¸Ķ
à¸Ķ à¸ŀà¸¥à¸²à¸Ķ
à¸§ à¸Ļà¸Ĺ
1 9
à¸¡ à¸²à¸Ħ
) ,"
à¸ª à¸Ńà¸£
ig ht
à¹Ģà¸§ à¸Ĺ
it y
à¸Ńà¸¡ à¸Ĺ
à¸²à¸Ļ à¹Ħà¸¡
Ġ â
à¸§à¸¢ à¸§
à¸Ńà¸Ńà¸ģ à¸ģ
s h
Ġà¹ģà¸¥à¸° à¸ķ
Ġà¹Ģà¸ŀà¸£à¸²à¸° à¸¡
à¸ŀà¸£à¸° à¹Ģà¸Ńà¸ģ
Ġà¹Ģà¸§à¸¥ à¸²
à¸ĩ à¹ĥà¸Ĭ
à¸²à¸ļ à¸²à¸ģ
l o
à¸¡ à¹Ģà¸ĩ
à¸§ à¸¥à¸°à¸Ħà¸£
à¸Ķ à¸Ħà¸£
à¸Ļ à¹Ħà¸§
à¸ģà¸Ķ à¸Ļà¸ķà¸£
à¸ĩ à¸«à¸¥
à¹Ĥà¸£à¸ĩà¹ģà¸£ à¸¡
à¸ģ à¸«à¸¥
Ġ à¸¥à¸ĩ
à¹Ĥà¸Ĺà¸£ à¹Ħà¸Ľ
à¸ģà¸£à¸° à¸ļ
à¸§ à¸«
à¸²à¸Ļ à¸ļà¸²à¸Ĺ
à¸Īà¸° à¹ĥà¸«
7 0
à¸²à¹ģ à¸Ħ
à¸Ļ à¹Ģà¸¢à¸Ńà¸°
à¸¡à¸łà¸²à¸© à¸ĵ
Ġà¹Ĥ à¸Ľà¸£
Ġà¸ķ à¸Ńà¸Ļà¸Ĺ
) "
à¸Ń à¸²à¸£à¸¡à¸ĵ
à¸Ń à¹Ģà¸Ħ
à¸ļ à¸Ħà¸Ļà¸Ĺ
à¸£à¸²à¸¢ à¹Ħà¸Ķ
à¸Ĥà¸łà¸²à¸ŀ à¸ģà¸²à¸¢
à¸įà¸į à¸²
à¸¢à¸²à¸ģ à¸²à¸¨
à¸¡ à¸¥
l y
à¸Ķà¸Ļ à¸ķà¸£
à¸Ļ à¹ģà¸¡
Ġà¹Ģà¸Ľ à¸¥
1 00
ro id
Ġà¸ģ à¸£à¸°à¸Ĺ
à¸ŀ à¸Ńà¸¡
Ġ2 3
à¸Ľà¸£à¸° à¹Ģà¸Ķ
à¸Īà¸° à¸Ħ
à¹Ģà¸¥à¸¢ à¸Ĺ
o f
Ġ '
à¸¡à¸Ń à¹Ģà¸ķà¸Ńà¸£
à¸£à¸²à¸° à¸«
à¸Ń à¸²à¸Ķ
à¸ĩ à¹ģ
à¸ģ à¹Ģà¸ª
à¸²à¸¢ à¸¡
à¸ļ à¹ģà¸¥
à¸¡ à¸Ī
à¹Ģà¸ł à¸Ĺ
à¸Ķ à¸Ĭà¸Ńà¸ļ
à¹Ģà¸¨à¸£à¸©à¸Ĳ à¸ģ
à¸§ à¹ĥà¸«
à¸¥ à¸Ħ
à¸Ńà¸ĩ à¸Ĥà¸Ń
à¸Ĥà¸Ńà¸ĩ à¹Ģà¸£à¸²
à¸¢à¸ĩ à¸ģ
à¸¤ à¸Ķ
à¸²à¸ĩà¸²à¸Ļ à¸Ĺ
on g
à¸ª à¸¡à¸²à¸Ĭ
à¸Ĭ à¸§à¸Ļ
à¸ŀà¸£à¸° à¸£à¸²à¸Ĭ
à¸²à¸Ľ à¸¥
ag e
Ġà¹ģ à¸Ī
à¸§ à¸Īà¸£
à¹Ģà¸ģ à¸©
à¹Ħà¸Ľ à¸§
à¸¡à¸² à¹Ħà¸Ķ
à¸ĸà¸²à¸Ļ à¸Ĺ
à¸Ńà¸¢ à¸Ļ
à¸²à¸ª à¸¡
à¹Ģà¸ģ à¸¡à¸ª
à¸ĩ à¸ģà¸£
Ġ4 0
à¸Ĺà¸¢ à¸²à¸¨à¸²à¸ªà¸ķà¸£
Ġ us
ĠâĢ ĵ
à¸ŀ à¸ļ
à¹Ģà¸Ħ à¸£à¸²à¸°à¸«
à¸ĩ à¸ľà¸¥
à¸ĩ à¹Ģà¸Ĺ
à¸ļ à¹ĥà¸Ī
à¹Ħà¸Ľ à¸ĸ
à¹Ĥà¸Ķà¸¢ à¹Ħà¸¡
Ġ2 2
Ġà¸Ń à¸²à¸Ĺ
à¸Ńà¸ĩ à¸ģà¸¥
t e
à¹Ģà¸¥à¸¢ à¹Ħà¸¡
à¸Ĭà¸²à¸§ à¸ļ
à¸° à¸ķ
à¸²à¸Ļ à¹Ħà¸Ķ
à¹Ģà¸« à¸ĩ
Ġ @
' s
à¸ĩà¹Ħà¸¡ à¸Ħ
à¸ľà¸¡ à¸Ĺ
à¹ĥà¸Ļ à¸Ń
à¸²à¹ģ à¸ģ
à¸Ľà¸¥ à¸Ńà¸Ķ
à¸Īà¸° à¹Ģà¸£
à¸ĩà¸Ħà¸£ à¸²à¸¡
à¸²à¸Ļ à¸¥
à¸¢à¸§ à¹Ħà¸Ĺà¸¢
à¹Ģà¸Ľ à¸£
i ve
******** ********
Ġà¹Ĥà¸Ķà¸¢ à¹Ģà¸īà¸ŀà¸²à¸°
à¸ª à¸²à¸Ĥ
à¸Ļ à¸Ŀ
k in
à¸Īà¸° à¹Ģà¸Ĥ
à¸² à¹Ģà¸«à¸¡
à¸Ńà¸ĩ à¸Ħà¸Ļ
Ġà¸Ħ à¸°
à¸²à¹ĥà¸Ī à¸§
Ġà¸¯ à¸¥à¸¯
à¸Ńà¸ļ à¸Ĺ
à¸ķ à¸ļ
à¸²à¸Ļ à¸«à¸¥
à¸¡ à¸²à¸§
Ġa l
à¸Ńà¸° à¸Ħ
à¸Ńà¸ĩ à¸Ľ
à¸ĩà¸ģ à¸²à¸¢
Ġà¸Ļ à¸²à¸ĩ
à¸ģ à¹Ģà¸ķ
à¸ļ à¸¢
à¸§ à¹Ģà¸Ķ
c t
à¸ķ à¸ł
i b
à¸¡ à¸°
à¸²à¸§ à¸Ĺ
à¸Ń à¹Ģà¸Ĺ
à¸ĩ à¹Ģà¸¡
à¸łà¸²à¸© à¸²
à¸Īà¸²à¸ģ à¸Ĺ
Ġà¸ģà¸£à¸° à¹Ģà¸Ľ
à¸Īà¸° à¸ª
o ut
à¸¢ à¸Ī
true move
à¸Ńà¸Ļ à¹Ģà¸£
à¸ģà¸£à¸° à¸Ī
à¸Ħà¸° à¹ģà¸Ļà¸Ļ
Ġ à¹ĥà¸ļ
à¸Ļ à¸²
u k
à¸Ļà¹Ģà¸Ĺ à¸Ńà¸£
à¸Ńà¸ª à¸£
à¸§ à¹Ģà¸¡
à¹Ģà¸Ń à¹Ģà¸Ĭ
à¸²à¸Ń à¸²à¸«à¸²à¸£
à¹Ĥà¸Ľà¸£ à¹Ĥà¸¡
à¸²à¸ĩà¸ģ à¸²à¸¢
à¸¤ à¸ķ
à¸§à¸ĩ à¸¨
Ġà¹ģà¸¥à¸° à¹Ħà¸¡
à¹Ģà¸« à¸£
Ġà¹Ģà¸£ à¸²à¸Ħ
à¸Ħ à¹Ĥà¸Ļ
à¸Ńà¸ĩ à¹Ĩ
à¸Ķ à¹Ģà¸Ĭ
à¸ª à¹Ĥà¸¡à¸ªà¸£
à¸§ à¸Ĥà¸Ńà¸ĩ
à¸Ĭ à¸²
Ġ à¸Ľà¸£à¸°à¹Ģà¸Ĺà¸¨
n et
à¸Ļ à¹ģà¸£à¸ģ
à¸Ńà¸ĩ à¹Ģà¸ģ
à¸ģà¸²à¸£ à¸Ķ
à¸ļ à¹ģà¸ķ
Ġà¸ª à¸Ļà¹ĥà¸Ī
à¸Ń à¹ģà¸¥
à¸¸ à¹Į
a z
or d
à¸¢ à¸Ńà¸¢
à¸µ )
Ġà¸ľà¸¡ à¹Ģà¸¥à¸¢
à¸Ń à¹Ģà¸£à¸²
Ġl o
à¸° à¸Ħà¸°
à¸Ļ à¸Ļà¸°à¸Ħà¸°
à¸Ńà¸¡ à¸£
à¸¢à¸Ļ à¸£
à¸²à¸Ļ à¸ª
à¹Ĥ à¸Ľ
à¸Ľ à¹ģà¸ļà¸ļ
à¸²à¸Īà¸° à¹Ħà¸¡
a in
à¸ķà¸²à¸¡ à¸Ĺ
++++++++ ++++++++
Ġà¹ģà¸¥à¸° à¸ª
re ss
Ġà¸ļ à¸Ńà¸ģà¸§
à¸Ľà¸£à¸° à¸Ĺ
ind ow
à¹Ĥà¸¥ à¸¢
à¸²à¸ŀ à¸£à¸°
à¸¥à¸° à¸ģ
à¸²à¸Īà¸° à¸ķ
ant ip
à¹ģà¸ĸ à¸§
à¹Ĥà¸Ľà¸£à¹ģà¸ģà¸£ à¸¡
à¸Ħà¸§ à¸ļà¸Ħ
à¸ĩà¹Ħà¸ĩ à¸ļ
à¸Ńà¸ªà¸¡ à¸Ħà¸§à¸£
Ġà¹Ģà¸£ à¸²à¸ķ
à¸²à¸ķ à¸²à¸¥
Ġà¹Ģà¸£ à¸²à¸£
à¸ģà¸²à¸£ à¸ģ
à¸ģà¸²à¸£ à¸ŀ
à¸Ń à¹Ĩ
à¸Ħà¹Ĥà¸Ļ à¹Ĥà¸¥à¸¢
à¸ļ à¹Ĩ
à¸Ħ à¹Ģà¸ģ
à¸«à¸² à¹Ģà¸ŀ
à¸Īà¸° à¸ĸ
à¸Ńà¸Ńà¸ģ à¹ģà¸ļà¸ļ
à¸Ńà¸°à¹Ħà¸£ à¸Ĺ
if i
Ġ6 0
à¸ļà¸£ à¸Ļà¸Ķ
s amsung
à¸Ĥà¸Ń à¹ĥà¸«
Ġ2 6
à¸Ľà¸¥à¸Ńà¸Ķ à¸ł
as h
d tac
à¸ģà¸²à¸£ à¹Ģà¸ĩ
à¸ĩ à¹ģà¸£
Ġsm art
à¸ľ à¸ªà¸¡
à¸Ļ à¸«à¸¡à¸Ķ
h ot
à¸ĩà¸§ à¸¥
s e
à¸ļ à¸ģà¸¥
à¹Ģà¸Ī à¸£
à¸²à¹Ħà¸Ľ à¸Ķ
à¹ĥ à¸Ķà¹Ĩ
à¸§à¸¢ à¹ĥà¸«
Ġà¸ª à¸²à¸¢
à¸ģ à¸¨
i e
à¹Ħà¸Ľ à¸«
) ",
à¸¨ à¸§
à¸ķ à¸ĸ
à¸²à¸Ĥ à¸²à¸¢
à¹ģà¸ķ à¸ģà¸ķ
à¸² à¹Ģà¸ł
à¹ģà¸¥ à¸Ļà¸Ķ
2 4
à¸Ńà¸¢ à¸ª
à¸¡ à¸Īà¸²à¸ģ
m s
Ġf acebook
Ġà¸ª à¸łà¸²à¸ŀ
Ġg al
à¹ģ à¸§
Ġà¸Īà¸° à¹Ģà¸Ľ
2 00
à¸²à¸Ļ à¹Ĩ
à¸Ńà¸Ļ à¹Ģà¸Ľ
à¸ĵ à¸ŀ
à¸ģ à¹ĥà¸Ļ
à¸Ķ à¸Ħà¸§à¸²à¸¡
à¸Ńà¸Ļ à¸ļ
à¸²à¹Ħà¸¡ à¹Ħà¸¡
Ġa d
à¸Ńà¸¢ à¸ģà¸§
à¹Ģà¸£ à¸²à¸¢
à¸Ńà¸Ļ à¸ŀ
Ġ à¸¢à¸ģ
à¸²à¸ĩ à¸Ĭ
à¸Ń à¹ĥà¸Ħà¸£
à¸²à¹ĥà¸« à¸¡
à¸Ńà¸¢ à¹ĥà¸«
à¸ģà¸£à¸° à¸Ķ
à¸Ń à¹ĥà¸Ļ
u d
à¹Ģà¸Ĥ à¸²à¹Ħà¸¡
à¹ģà¸Łà¸Ļ à¹Ģà¸ģ
à¸Īà¸° à¹ĥà¸Ĭ
i al
a pp
à¹Ĥ à¸Ł
à¸§ à¹Ģà¸Ħ
Ġa s
Ġà¸Īà¸° à¸Ĺ
à¸²à¸Ļà¸° à¸Ħà¸°
à¸§à¸¢ à¸Ļ
à¸Ħà¸§à¸£ à¸Ĺ
à¸§ à¹Ģà¸£à¸²à¸ģ
Ġà¹Ĥ à¸¡
b o
Ġà¹ģ à¸Łà¸Ļ
à¸«à¸¡à¸²à¸¢ à¹Ģà¸¥à¸Ĥ
à¸Ńà¸¡ à¸ķ
Ġà¸ķà¸Ńà¸Ļ à¹ģà¸£à¸ģ
Ġc on
à¸¢à¸§ à¸Ĥ
Ġb e
Ġà¸ª à¸ĩà¸ª
en ter
ax y
à¹Ĩ à¸Ļ
Ġi s
à¸²à¸¢ à¹Ģà¸ĩ
Ġc om
p ack
à¸²à¸Ļ à¸£
Ġs c
Ġa ir
à¹Ħà¸ĭ à¸ķ
Ġ à¹ĥà¸Ī
Ġà¹ģà¸ĸ à¸¡
Ġà¸ŀ à¸¥
à¸ľà¸¡ à¸ķ
à¸ģà¸£ à¸ĺ
à¸£à¸° à¸ļà¸²à¸¢
à¸ľà¸¡ à¹Ħà¸Ķ
à¹Ħà¸Ľ à¸Ń
Ġ5 00
ar k
Ġà¸Ĭ à¸¡
à¸§à¸¢ à¸ģà¸²à¸£
à¸Ħ à¸ĩà¹Ħà¸¡
à¸ĩ à¸¨
Ġà¹ģ à¸«
Ġà¸Ī à¸Ļ
à¹ģ à¸ļà¸ķ
à¹Ģà¸Ħà¸¢ à¸Ĺ
à¸¢à¸Ļ à¸ģ
à¸²à¸Ļ à¸ŀ
Ġ1 50
3 4
à¸Ńà¸ĩ à¸«à¸¥
Ġà¹Ģà¸ ®
à¹Ģà¸Ī à¸Ńà¸£
à¸Ĭ à¸¡à¸ŀ
Ġn o
à¸Ķ à¸²à¸§
à¸²à¸ĩ à¸¡à¸²à¸ģ
à¸ľà¸¡ à¹Ģà¸Ľ
Ġ2 7
à¸Ĭ à¸Ļà¸°
t he
à¸² à¹ĥà¸ª
à¸²à¸ĩ à¸Ĥ
à¸Ħà¸Ļ à¸ģ
à¸Ńà¸¢ à¸Ļà¸°à¸Ħà¸£
Ġà¹ģ à¸ŀ
à¸² à¹Ģà¸Ħà¸£
à¸Ħà¸Ļ à¸Ķ
à¸įà¸« à¸²à¸ª
à¸ļ à¹Ħà¸§
à¹Ĥ à¸Ĩà¸©à¸ĵ
Ġà¸Ĥ à¸Ńà¸Ħ
à¹Ħ à¸ģ
à¸ľà¸¡ à¸§
à¹Ģà¸£à¸² à¹Ģà¸¥à¸¢
à¸Ļ à¸«à¸¢
à¸¡à¸Ļ à¸ķà¸£
à¹ģ à¸Ķà¸Ļ
b ack
à¸¢à¸Ļ à¹Ģà¸Ľ
in k
Ġ2 8
à¸²à¸ŀ à¸§à¸ģ
à¹ģ à¸Ļà¸°
à¸Ńà¸¢à¸²à¸ģ à¸Ĺ
?? ??
Ġ-- -
es s
à¸Ľ à¸ķ
3 5
à¸Ľà¸£à¸°à¸¡à¸²à¸ĵ à¸Ļ
à¸Ńà¸ĩ à¸Ħà¸£
à¸Ħ à¸²à¸Ķ
il l
à¹Ģ à¹Ģà¸ļ
à¸Ńà¸Ļ à¸ľ
à¸²à¹Ħà¸Ľ à¸Ĺ
à¸² à¹Ģà¸ķ
à¸£ à¸Ķ
Ġà¹ģà¸¥à¸° à¸Ń
à¹ģà¸¡ à¸§
à¸¡à¸²à¸ķ à¸£
................ ................
à¸ŀ à¹Ģà¸Ķ
à¸Ĭ à¸¢
à¹Ģà¸¡ à¸ķà¸£
à¸Īà¸° à¸¢
Ġgal axy
à¸«à¸¡à¸²à¸¢ à¸ĸ
à¸ļ à¸Ńà¸¢
Ġà¹Ģà¸ŀà¸£à¸²à¸° à¸§
Ġà¸ª à¸Ńà¸ļ
à¸Ĥ à¸Ńà¸ļ
à¹ģà¸ļà¸ļ à¹Ħà¸¡
à¸¡ à¹ĥà¸«
c o
e e
Ġc o
à¸ŀà¸Ń à¹ĥà¸Ī
à¸Ĥà¸Ń à¹Ĥà¸Ĺà¸©
à¸ģ à¸Ŀ
à¹Ģà¸£ à¸²à¸ª
à¸²à¸Ħà¸£ à¸Ńà¸ļà¸Ħà¸£
à¸²à¸ķ à¸Ńà¸Ļà¸Ļ
Ġ à¸«à¸¥à¸²à¸¢
à¸¡ à¸ĭ
à¸Ĳà¸²à¸Ļ à¸°
Ġà¹Ĥà¸Ķà¸¢ à¸Ĺ
Ġ 55
2 8
. -
à¸² à¹Ģà¸ļ
à¸§à¸¢ à¸ļà¸Ńà¸ģ
à¹Ģà¸ª à¸¡à¸Ń
à¸²à¸ĩ à¸¥
à¹ģ à¸Ńà¸Ķ
à¸²à¸ĩà¹Ħà¸£ à¸ģ
à¸ī à¸ļ
à¸ļ à¹ĥà¸«
g le
à¸Ĺ à¸«à¸²à¸£
à¹Ģà¸¥ à¸Ļà¸ª
à¸ģ à¹Ģà¸Ĺ
à¸¢ à¸į
à¸Ńà¸ĩ à¸Ĺà¸²à¸ĩ
Ġà¹Ģà¸ŀ à¸¥à¸ĩ
à¸Ń à¹Ģà¸¥à¸¢
à¹Ĥà¸«à¸¥ à¸Ķ
à¸Ń à¹Ģà¸Ħà¸£
3 6
à¸ģ à¸Ĳà¸²à¸Ļ
à¸Ńà¸Ļ à¹Ħà¸Ķ
à¸§ à¸ľ
Ġd ay
à¸§à¸Ļ à¸¡à¸²à¸ģ
4 5
à¹Ħà¸Ľ à¹Ģà¸¥à¸¢
Ġà¸ŀ à¸Ńà¸¡
à¸¥ à¸²
Ġm o
à¸¡ à¸«à¸Ļ
à¸ľà¸¡ à¸Ħ
Ġà¹Ģà¸« à¸ķ
4 8
at or
q u
à¸ĩ à¸Ĭà¸²à¸ķ
à¸¡à¸« à¸²à¸¥
à¸ª à¸«à¸£
à¸Ń à¸Ńà¸Ļà¹Ħà¸¥à¸Ļ
à¸ģ à¸Īà¸°
à¹ģà¸Ł à¸Ļà¸ģ
à¸²à¸§ à¸Ķ
g b
à¸²à¸ĩà¹Ħà¸£ à¸ļ
Ġà¸Ń à¸²à¸«à¸²à¸£
à¸²à¸ ī
à¸ģà¸²à¸£ à¸¥à¸ĩà¸Ĺ
Ġà¸ģà¸²à¸£ à¹Ģà¸¡
à¸¡ à¸Ĭà¸²à¸ķ
à¸Ńà¸ĩ à¹ģà¸¥
à¸¢ à¸Ń
à¸² à¹Ģà¸ĭ
Ġà¸¡ à¸²à¸£
à¸Ńà¸¢à¸²à¸ģ à¸Ĺà¸£à¸²à¸ļ
à¸ĺà¸£à¸£à¸¡à¸Ķ à¸²
à¸ª à¸ĸ
à¸ķà¸£à¸ĩ à¹Ħà¸«à¸Ļ
à¸ļà¸Ńà¸ģ à¹ĥà¸«
à¸£à¸° à¹Ģà¸Ľ
à¸Ļ à¸Ĳà¸²à¸Ļ
à¹Ħà¸Ľ à¸ĭ
à¸Ķ à¸ĭ
oo gle
Ġà¸£à¸§à¸¡ à¸ĸ
à¸ģà¸²à¸£ à¹Ģà¸Ķ
à¸Ń à¹ĥà¸Ĭ
à¹ģ à¸ªà¸Ļ
à¸ģà¸¥à¸²à¸ĩ à¸Ħ
à¸Ľà¸£à¸°à¸Ĭ à¸²à¸ĺ
à¸ķà¸£ à¸ĩà¸ģ
à¸¥à¸°à¸Ħà¸£ à¹Ĥà¸Ĺà¸£à¸Ĺ
à¸Ń à¸²à¸¨
à¸° à¸¡
Ġnot e
Ġp ass
Ġà¹Ģà¸ļ à¸Ńà¸£
à¸ĩà¹Ħà¸ĩ à¸Ħà¸£
à¹ĥà¸Ļ à¸ŀ
à¸²à¸ĩ à¸Ĭà¸²à¸ķ
à¸°à¹Ģà¸¥ à¸²à¸°à¸ģ
à¸Ńà¸Ļ à¸Ńà¸¢
à¸²à¸ļ à¸Ļ
Ġà¸ģ à¸Ĺà¸¡
à¸ĩ à¹Ģà¸Ĭ
Ġ3 2
m e
à¸ĵ à¸«à¸¡
à¹ī ,
à¸Ļ à¸ĩ
à¸ªà¸²à¸¢ à¸ģà¸²à¸£à¸ļ
à¸ļ à¸Īà¸²à¸ģ
à¹ģ à¸§à¸°
à¸§à¸Ļ à¸Ļ
à¸Ļ à¸Ħà¸°
à¸Ħ à¸Ń
à¸ŀ à¸²à¸Ļ
à¸¢à¸Ļ à¹ģà¸Ľà¸¥à¸ĩ
à¸ĩ à¹Ĥ
à¸§ à¸Ļà¸°
u re
à¸ľà¸¡ à¸£
Ġà¸ľà¸¡ à¸§
à¹Ħà¸Ľ à¸Ħ
is t
à¹Ģà¸« à¸¢
à¹ģà¸Ł à¸Ļà¸Ħà¸¥
Ġà¹Ģà¸£ à¸²à¸Ńà¸¢à¸²à¸ģ
à¸Ħà¸§à¸²à¸¡ à¸Ĭ
à¸ŀà¸£à¸° à¸Ħ
à¸Ķ à¹Ģà¸¥à¸¢
à¸§à¸¢ à¸«à¸Ļ
à¸Ńà¹Ħ à¸«à¸£
Ġi p
Ġà¹Ĥà¸Ķà¸¢ à¸¡
à¸§à¸¢ à¸ĭ
indow s
à¸§ à¸ģà¸¥
Ġf or
2 2
à¹Ģà¸Ĥ à¸²à¸¡
a f
à¸ĵà¸° à¸Ļ
à¸ķà¸ļà¸Ńà¸¥ à¹Ħà¸Ĺà¸¢
à¸£ à¸ŀ
en d
à¹Ģà¸«à¸¡à¸²à¸° à¸ªà¸¡
à¸Ń à¹ģà¸ļà¸ļ
à¹ģà¸¥à¸° à¸Ĺ
à¸ķ à¸ģà¸¥
à¸Ńà¸ķ à¸Ńà¸Ļà¸Ļ
à¸ŀà¸Ń à¸Īà¸°
à¸Ľ à¸§à¸Ķ
à¸Ńà¸¥ à¸¥
Ġà¸ķ à¸¥à¸Ńà¸Ķ
à¸²à¸Ļ à¸Ńà¸¢
à¸Ľ à¸ģà¸Ħà¸£
Ġd e
an k
à¸²à¸¢ à¸§
à¸²à¸ĩ à¸¢
Ġà¸ģà¸²à¸£ à¸Ĺ
à¸Ľ à¸ģ
à¸ģ à¸«à¸£
à¸¡ à¹ģà¸¥
à¸Ľà¸£à¸° à¸¡
à¸ĩ à¹Ģà¸Ħ
à¸Ħà¸Ļ à¸ķ
à¸²à¸« à¸²à¸ģ
à¸Ĺà¸£ à¸§à¸ĩ
Ġà¹ģà¸¥à¸° à¸¢
à¸¡ à¸²à¸¥
à¸ľà¸¥ à¸ĩà¸²à¸Ļ
Ġc are
à¸Ļà¹ģà¸«à¸¥ à¸°
à¸¡ à¸Ĥà¸Ńà¸ĩ
Ġà¹ģà¸¥à¸° à¸Ļ
à¹Ģà¸ī à¸¥
à¹Ħà¸Ľ à¸¢
à¸Ńà¸ĩ à¹Ģà¸Ħ
à¸ķ à¸Ĥà¸Ńà¸ĩ
à¸¢à¸Ļ à¸Ńà¸¢
s p
Ġà¹ĥà¸Ħà¸£ à¸¡
à¸²à¸Ħ à¸¥
i o
à¸Ļ à¸ĩà¸²à¸Ļ
à¸²à¸ĩ à¹ĥà¸Ļ
Ġ à¹Ħà¸Ĺà¸¢
à¸Ńà¸Ļ à¸Ĥà¸Ńà¸ĩ
à¹Ģà¸£ à¸²à¸Ńà¸¢
à¸Ī à¸ī
à¹ī )
Ġà¸Īà¸° à¸ķ
à¸¢ à¸¥
à¸Ńà¸°à¹Ħà¸£ à¹Ģà¸¥à¸¢
à¸Ńà¸ĩ à¹Ħà¸Ĺà¸¢
Ġ ****
à¸²à¸¢ à¸«à¸Ļ
à¸§à¸§ à¸§à¸§
à¸Ľ à¸§
à¹ģà¸¥à¸° à¸¡
à¹Ģà¸ª à¸ĺ
Ġp antip
à¸Ļ à¹Ĥà¸Ķ
à¸Ĭ à¸²à¸£
Ġà¸Ļà¸Ńà¸ģà¸Īà¸²à¸ģ à¸Ļ
à¹Ħà¸ķ à¸¥
a le
à¸¢à¸¡ à¸ķ
à¸Ļ à¹Ģà¸«à¸¥
b b
Ġ u
à¸Ķ à¸ľ
Ġà¸ª à¸²à¸¡
à¸® à¸²à¸£
à¸ļà¸Ńà¸ģ à¸ģ
à¸Ń à¹Ģà¸Ĭ
à¸ķ à¸Ńà¸¥
à¸Ńà¸¢ à¹ģà¸¥
Ġ an
Ġà¹Ģà¸ŀà¸£à¸²à¸° à¹Ħà¸¡
Ġ à¸Ļà¸°à¸Ħà¸£
à¸Ńà¸Ļ à¸Ħà¸£
à¸§ à¹Ģà¸Ħà¸£
à¸£ à¸Ńà¸¢
à¹Ģà¸Ń à¸ª
Ġp r
back pack
à¸ļ à¹ĥà¸Ļ
à¸Ń à¸«à¸¥
à¸µ ",
à¹Ģà¸¢ à¸Ńà¸£
à¸§à¸¢ à¸ķà¸Ńà¸ļ
à¸²à¸¢ à¸Ń
à¹ģ à¸Ń
à¸Ńà¸Ļ à¹Ģà¸¡
s l
Ġf c
à¸Ļ à¹Ģà¸£à¸²à¸ģ
à¸²à¸¢ à¸Ĥà¸Ńà¸ĩ
à¸ĺà¸£à¸£à¸¡ à¸Ļ
à¸Ńà¸ĩ à¹Ģà¸¥à¸¢
à¸Ķ à¹Ģà¸ŀ
à¸ķ à¸Ńà¸Ļà¸Ĺ
à¸ĩ à¸«à¸¡
un d
Ġ à¸£à¸°à¸ļà¸ļ
à¹ģà¸Ńà¸ļ à¸£
w ork
à¸²à¸£ à¸²à¸Ĭ
à¸Ļ à¹ģà¸£
à¸Ķ à¸Ł
à¹ĥà¸Ħà¸£ à¸£
i os
à¸¡ à¸²à¸Ń
à¸²à¸ª à¸ķ
Ġn ew
à¹Ģà¸Ľ à¸Ńà¸£
w w
à¸Īà¸° à¸Ī
à¸Ħà¸Ļ à¸¥à¸°
à¸ģ à¹ģà¸ķ
à¸²à¸Īà¸° à¸£
à¸§à¸¢ à¸ª
à¹Ĩà¹Ĩ à¹Ĩ
2 6
à¸²à¸Ļ à¸ļ
: :
as t
à¸²à¸Ħ à¸Ļà¸Ĺ
à¸ģ à¸Ńà¸ĩà¸Ĺ
Ġà¹ģ à¸ľ
à¸²à¸ģà¸ı à¸§
à¸ĩ à¸Ħà¸Ļà¸Ļ
à¸²à¹ģ à¸«
à¹Ģà¸£ à¸²à¸Ķ
** *
à¸Ħà¸Ńà¸¡ à¸¡
ĠĠĠĠ Ġ
à¸²à¹Ħà¸¡ à¸ĸ
à¸ªà¸° à¸Ńà¸²à¸Ķ
à¹Ģà¸Ħà¸¢ à¸Ħ
Ġà¹ģà¸¥à¸° à¹Ģà¸Ľ
à¸Ńà¸§ à¸²à¸Ļ
à¹ĥà¸Ļ à¹ĥà¸Ī
p l
à¸Ķ à¸¡à¸²
à¹ĥà¸Ļ à¹Ģà¸£
à¸Ĳ à¸¡à¸Ļà¸ķà¸£
el l
Ġà¹Ģà¸£ à¸²à¹Ģà¸Ľ
à¸Ļ à¹ģà¸ģ
à¸£à¸²à¸Ĭ à¸ģà¸²à¸£
à¸Ļà¸ķ à¸¥à¸Ńà¸Ķ
à¸Ī à¸ģà¸²à¸£
Ġà¹ĥà¸Ļ à¸Ľ
à¸Ļ à¸Ļà¸°à¸Ħà¸£
à¹ģà¸¥à¸° à¸ª
à¸Ńà¸ĩ à¹ĥà¸«à¸¡
Ġs amsung
à¸ĩ à¹Ģà¸ŀà¸¥à¸ĩ
à¸²à¸ģ à¸İ
à¸Ńà¸Ļ à¸¥à¸°
à¸Ľà¸£à¸° à¹Ģà¸łà¸Ĺ
à¸²à¸² à¸²
Ġ255 6
à¸° à¸ª
à¹ģ à¸®
à¸Ļà¸ŀ à¸§à¸ģ
Ġà¸Ħà¸Ļ à¸Ļ
r am
à¸ŀ à¸Ńà¸Ĺ
à¸§ à¸ĭ
à¸Ńà¸Ļ à¸ľà¸¡
à¸ģ à¹ĥà¸«
à¸ģ à¸Ĭà¸²à¸¢
à¹ģà¸ļà¸ļ à¸Ĺ
à¸Ńà¸Ł à¸ķ
à¸Ļ à¸Īà¸°à¸¡
à¹Ģà¸Ħà¸¢ à¹Ģà¸Ľ
Ġà¹ģà¸¥à¸° à¸Ħ
à¸ģ à¸Ħà¸Ļà¸Ĺ
à¸²à¹ģ à¸Ĥ
________ ________
à¸Ńà¸°à¹Ħà¸£ à¸Ķ
r y
à¸ģ à¹Ģà¸«à¸¡
Ġà¹ģ à¸£
it e
on y
à¸Ľ à¸Ħ
à¸«à¸¡à¸Ķ à¹ģà¸¥
à¸ŀ à¸Ńà¸£
à¹Ģà¸ģà¸© à¸ķà¸£
à¹Ĥ à¸ļ
à¸§ à¹Ģà¸£à¸²
à¸ģà¸£à¸£à¸¡ à¸ģà¸²à¸£
à¸ļ à¸²à¸ĩà¸Ĺ
à¸¢à¸ĩ à¸Ħ
à¸²à¸Ļ à¸Ĥà¸²à¸¢
Ġà¸ŀ à¸¢à¸²à¸¢à¸²à¸¡
à¸¢ à¸ģà¸£
à¹ĥà¸Ħà¸£ à¸¡
à¸ĩ à¸Łà¸£
à¸§ à¹ģà¸¥
à¸Ńà¸¢à¸²à¸ģ à¸¡
à¸Ħ à¸Ĺ
à¹Ħ à¸Ĺ
à¹Ĥà¸ŀ à¸ª
à¸Ńà¸Ļ à¸¥
à¸Ļà¸Ń à¸²à¸Ĺ
à¸µ ,"
à¸Ńà¸ģ à¸ģ
à¸¡ à¹Ģà¸ŀ
à¸¡ à¸ł
à¸ĩ à¹Ģà¸¨
à¸ķ à¹ĥà¸Ī
à¸ģ à¹Ģà¸ŀ
à¸ªà¹Ĥà¸¡à¸ªà¸£ à¸Ł
à¸Ĥ à¸Ļà¸ª
à¸¡ à¸ĩà¸²à¸Ļ
à¸ķ à¸°
c k
Ġw ifi
à¸²à¸§ à¸Ħà¸£
à¹ĥà¸Ļ à¸Ļ
Ġsmart phone
Ġà¸ª à¸§
3 8
à¸²à¸Īà¸° à¹Ħà¸Ľ
à¸Ń à¹ģà¸¥à¸°
à¸ĩà¸Ĺ à¸²à¸ĩ
m an
à¹Ĥà¸Ľà¸£à¹Ĥà¸¡ à¸Ĭ
à¸ª à¸ł
à¹Ģà¸£ à¸²à¸Ńà¸¢à¸²à¸ģ
à¹Ģà¸¡ à¸°
à¸²à¸¥ à¸²à¸¢
à¸Ļà¸Ń à¸²à¸Ī
à¸Ļ à¹ĥà¸«à¸į
à¸Ī à¸Ĥà¸ģà¸Ĺ
à¸ļ à¸Ĺà¸²à¸ĩ
à¸Ńà¸Ļ à¹Ħà¸Ľ
à¹Ģà¸Ĥ à¸²à¸Ĺ
à¸¢à¸Ļ à¸§
à¹Ĥà¸£ à¸Ľ
à¹Ģà¸Ħà¸¢ à¹ĥà¸Ĭ
ac h
à¸² à¹Ģà¸§
Ġa c
à¸ªà¸²à¸¡à¸²à¸£à¸ĸ à¸Ĺ
à¸Ł à¸Ńà¸£
à¸Ĺà¸¢ à¸²
à¸¡ à¹Ħà¸Ľ
à¸Ńà¸Ļ à¹Ģà¸¥à¸¢
à¸Ĥà¸Ńà¸ĩ à¸Ļ
à¹Ģà¸Ĥ à¸ķ
à¸Īà¸° à¸Ļ
Ġ2 9
ã ģ
à¸Ī à¸Ķ
à¸§ à¸¡à¸²à¸ģ
à¸£à¸° à¸ģ
à¸Ħà¸§à¸²à¸¡ à¸§
à¸ŀà¸£à¸° à¹Ģà¸Ī
à¹Ĥ à¸®
à¸Ĥà¸Ńà¸ĩ à¸ľ
ac e
à¸ĩà¸ķ à¸Ńà¸Ļà¸Ļ
à¸Ĥà¸Ń à¸Ńà¸ł
à¸Ńà¸¥ à¹Ģà¸¥à¸¢
à¸Ļ à¹Ħà¸«à¸¡
à¸ĵ à¸ª
à¸£ à¸Ńà¸Ķ
à¸«à¸£à¸Ń à¸Ħà¸£
à¹ģ à¸Ńà¸ŀ
.... ..
à¹Ħà¸«à¸Ļ à¸Ħà¸£
à¹Ģà¸ĺ à¸Ńà¸ģ
à¸Ļ à¸Ĭà¸Ńà¸ļ
a h
à¹Ģà¸£ à¸²à¸Ļ
m ent
à¸²à¹ģ à¸Ĺ
Ġ à¸¥à¸°
Ġs et
Ġc an
à¸ĩ à¹Ģà¸ķ
à¸Ĳ à¸ĺà¸£à¸£à¸¡à¸Ļ
à¸ĵ à¸ģ
à¸Ń à¹ģà¸ķ
Ġà¹ģ à¸Ļ
ail and
7 5
Ġà¹ģà¸¥à¸° à¹Ħà¸Ķ
à¹Ģà¸Ĺ à¸Ħà¹Ĥà¸Ļà¹Ĥà¸¥à¸¢
à¸ģà¸²à¸£ à¸Ń
à¸² à¹Ģà¸£à¸²à¹Ħà¸¡
à¸« à¸²à¸Ĥ
-- -
à¸ģà¸²à¸£ à¸Ļ
à¹Ģà¸ľ à¸¢
à¸²à¸ ¬
Ġà¸ľà¸¡ à¸Ī
Ġà¸Ĥ à¸Ńà¹ĥà¸«
Ġà¹Ģà¸£ à¸²à¸Ħà¸§à¸£
ond a
à¸Ńà¸Ļ à¸«à¸¥
à¸²à¸Ļ à¹ĥà¸Ļ
à¸Ńà¸ģ à¹Ģà¸ļ
Ġs er
à¸¡ à¸²à¸«
à¸° à¸Ĥà¸Ńà¸ļà¸Ħ
à¹ģ à¸ŀà¸£
à¸Ķ à¹Ħà¸§
à¹Ī )
à¸ļà¸ļ à¸Ĺ
e y
à¹Ģà¸£à¸² à¹Ģà¸£
Ġ8 0
à¸Ńà¸²à¸Ī à¸²à¸£à¸¢
à¸Ī à¸Ļà¸ĸ
à¹Ģà¸§à¸¥ à¸²à¸Ļ
à¸Ńà¸¢ à¸ķ
à¸ĩ à¸«à¸²à¸£
à¸ĸà¸²à¸¡ à¹Ģà¸ŀ
Ġà¹Ģà¸ Ł
à¸ĵ à¸ķ
Ġb r
à¸Ńà¸Ķ à¸£
Ġin ter
à¸Ĺà¸²à¸ĩ à¸Ĺ
à¸¡à¸Ħà¸£ à¸Ńà¸ĩà¸ľ
à¸Ń à¸Ľà¸£à¸°à¸ģ
Ġa r
à¸¢à¸ĩ à¸¥
o ur
à¸Ļ à¹Ģà¸Ń
Ġo per
à¸Ńà¸Ń à¸Ńà¸Ń
à¸Ļà¸Ĺà¸²à¸ĩ à¹Ħà¸Ľ
à¸¡à¸²à¸ģ à¹Ģà¸¥à¸¢
à¸£à¸²à¸ ĵ
à¸Ķ à¸²
ow er
Ġà¸ļ à¸²à¸ĩà¸Ħà¸£
ec t
à¸Ļà¸ģ à¸£à¸°
à¸ĩ à¹Ħà¸Ĺà¸¢
2 3
à¸Ľà¸£à¸°à¸Ĭà¸²à¸Ĭ à¸Ļ
Ġà¹ģà¸¥à¸° à¸ĸ
à¸¢à¸ļ à¹Ģà¸Ĺ
à¸¡à¸² à¹Ģà¸£
à¸¢à¸Ļ à¸ª
à¸Ļà¹Ģà¸ª à¸²à¸£
à¸¢à¸Ļ à¸Ĭ
Ġà¹ĥà¸Ļ à¸§
à¹ĥà¸Ļ à¹Ģà¸¡
Ġà¸ª à¸§à¸¢
Ġà¸¥ à¸Ķ
à¸²à¸ģ à¸«à¸¥à¸²à¸¢
à¸ĩà¸Ħà¸£ à¸£à¸ł
à¹Ĥ à¸ģà¸£à¸ĺ
à¸Ķ à¸ĩ
Ġà¸¥ à¸Ńà¸ĩ
à¸ķà¸£ à¸ĩà¹Ĩ
ub e
à¸Ķ à¹Ģà¸Ĥ
Ġ !!
Ġà¸Ńà¸¢à¸²à¸ģ à¸Īà¸°
à¹ģà¸Ĭ à¸¡à¸Ľ
Ġà¹ģ à¸Ļà¸§
à¸« à¸²à¸Ķ
à¸ģà¸ª à¸²à¸§
à¹Į -
à¸Ĥ à¸ĵà¸°à¸Ĺ
à¸Ī à¹ģà¸¥
à¹Ģà¸ŀà¸£à¸²à¸° à¸¡
à¸²à¸Ļ à¸Ī
ic k
à¸²à¸Ļ à¸ľ
à¸§à¸Ļ à¸«à¸Ļ
à¸§à¸£ à¸£à¸ĵ
à¸²à¸£ à¸²à¸¢
à¸Ļà¸ķ à¸Ńà¸Ļà¸Ļ
à¸²à¸Ńà¸°à¹Ħà¸£ à¸ģ
Ġw h
à¹ģà¸ŀ à¸ĩ
à¸§à¸¡ à¸ĩà¸²à¸Ļ
and roid
à¸Ķ à¹Ģà¸ª
à¸Ńà¸¡ à¸¡
g e
à¸ķ à¸°à¸§
à¸« à¸²à¸¥
à¸Ńà¸Ļ à¹ĥà¸«
Ġ à¹Ħà¸£
à¸²à¸ĩ à¸Ńà¸¢
Ġ à¸Ļà¸°à¸Ħà¸°
à¸§ à¹ĥà¸Ĭ
2 7
à¸įà¸« à¸²à¸Ħà¸£à¸Ńà¸ļà¸Ħà¸£
à¸§ à¹Ģà¸ŀ
à¸²à¸Ļ à¸Ĭ
à¹ģà¸Ĺ à¸Ħ
Ġ3 1
Ġy ou
à¸¥ à¸Ļ
à¹ģ à¸Ħà¸£
à¸§ à¹Ģà¸ģ
à¸²à¸§ à¸°
Ġà¹ģ à¸Ńà¸ļ
Ġm in
à¸Ļ à¹Ħà¸Ĺà¸¢
Ġà¹Ģà¸¡ à¸ķà¸£
à¸Ĭà¸²à¸¢ à¸Ĺ
à¸¢à¸§ à¸Ħ
à¸²à¸¡ à¸²à¸Ĺ
Ġc all
à¸Ń à¸Ħà¸Ļ
à¸²à¸« à¸¡à¸²à¸¢
à¸¡ à¸Ńà¸¢
à¸²à¹Ħà¸¡ à¸ķ
à¸¢à¸Ļ à¸Ħ
à¸£à¸²à¸¢ à¸ĩà¸²à¸Ļ
à¹Ģà¸Ħà¸¢ à¹Ħà¸Ķ
à¸ģ à¹Ģà¸Ħ
à¸Ńà¸Ļ à¹Ħà¸Ĥ
à¹ģà¸ľ à¸Ļà¸Ĺ
Ġà¹Ĥ à¸Ń
à¸Ķà¸Ķ à¸Ķà¸Ķ
à¸Ķ à¸«à¸£
Ġà¹Ģà¸¥à¸¢ à¹Ħà¸¡
à¸Ńà¸Ļ à¸ªà¸Ļ
i ver
à¸Ńà¸¡ à¸ŀ
à¸ĩ à¹Ģà¸«à¸¥
2 9
à¸ķ à¸²
à¸¡à¸²à¸ĸ à¸²à¸¡
à¸Ńà¸Ļ à¸ģà¸¥
à¸Ķ à¸¢à¸Ńà¸Ķ
à¸Ńà¸Ļ à¸¢
Ġà¹ĥà¸Ļ à¸Ĭ
Ġà¸Ī à¸Ļà¸Ĺ
à¸ĩà¸ª à¸£
id e
à¸ĩ à¸Ħà¸Ļ
à¸²à¸Ļ à¸ĭ
à¸²à¸ĩ à¹ģà¸¥
à¸² à¹Ģà¸Ľà¸¥
à¹Ģà¸ŀ à¸Ī
à¸į à¸Ĺ
Ġcl ub
à¹Ģà¸£ à¸²à¸Ń
à¸ģ à¹Ģà¸Ľà¸¥
Ġà¸ļ à¸£à¸£
oc k
à¸ª à¸łà¸²à¸ŀ
à¸° à¸ŀ
à¹Į ),
à¸ĵ à¸¡à¸²à¸ģà¸Ħ
à¸Ļà¸²à¸Ķ à¸Ļ
m m
s kin
à¸ĩà¸Ħ à¸¥
Ġà¸ª à¸Ļ
Ġ( )
à¸ĩà¸²à¸Ļ à¹Ħà¸Ķ
à¹Ģà¸£à¸² à¹Ģà¸¥
à¸²à¸¢ à¸łà¸²à¸ŀ
à¸Īà¸²à¸ģ à¸ģà¸²à¸£
à¸¹à¹Ī ,
à¹ģà¸Ńà¸ļ à¸Ĭà¸Ńà¸ļ
Ġb o
ĠâĢ ¢
à¸Ĥà¸Ńà¸ĩ à¸£
à¸¢ à¸ĩà¸Ĺ
à¸²à¸Ħà¸Ļ à¹Ģà¸¨à¸£
à¸¨à¸²à¸¥ à¸²à¸Ħà¸Ļà¹Ģà¸¨à¸£
of t
à¸ļ à¸Ľà¸¥
Ġi t
6 1
à¹ĥà¸Ħà¸£ à¸Ĺ
à¸ĩ à¸Ł
à¸Ħà¸§à¸²à¸¡ à¹Ģà¸£
Ġà¹ģ à¸ªà¸Ķ
à¸¡ à¸²à¸Ī
======== ========
à¸Ń à¸²à¸Ĭ
i x
à¸Ńà¸Ļ à¹Ĥà¸Ķ
à¸Īà¸° à¸Ĭ
à¹ģà¸¥à¸° à¹Ħà¸¡
à¸§ à¹Ħà¸«à¸Ļ
à¸¢ à¸ĩà¸ª
à¸¢ à¹Ģà¸ĩ
à¸ļ à¹Ģà¸Ħà¸£
à¸ŀ à¸²à¸ģ
à¸Ń à¸«à¸¡
Ġ à¹ĥà¸«à¸¡
à¸Ńà¸Ļ à¸Ī
à¸Ķ à¹Ģà¸Ħà¸£
à¹Ģà¸Łà¸ª à¸ļ
à¸¢à¸£ à¸ķ
Ġ à¸Ńà¸Ķ
à¸²à¸Ļ à¸¡à¸²à¸ģ
âĢ Ļ
à¸²à¸Ħ à¸²à¸į
à¹ģà¸ķ à¸ģ
à¹ģà¸¥à¸° à¸ķ
à¸ļà¸²à¸ĩ à¸Ħà¸Ļ
Ġ à¸ĩà¸ĩ
à¸Ļ à¸Ľà¸ģà¸ķ
à¸ĩ à¸ķà¸²à¸¡
à¸ĸà¸²à¸¡ à¹Ģà¸£
à¸§ à¹Ĥà¸¡
Ġro om
à¸ľà¸¥ à¸Ĺ
à¸ĩà¹Ģà¸¨ à¸ª
< <
p u
à¸²à¸£ à¸²à¸Ħ
à¸ĩ à¸Ńà¸¢à¸²à¸ģ
à¹ Ĳ
Ġa t
Ġà¸£à¸§à¸¡ à¸Ĺ
à¸ķ à¸²à¸£
à¸ª à¹Ģà¸ĭ
à¸² à¹Ģà¸Ńà¸ĩ
à¸§à¸²à¸ĩ à¹ģà¸ľ
Ġà¹Ģà¸£ à¸²à¸Ĺ
à¸Ĺ à¸Ńà¸ĩ
à¸Ķ à¸«à¸§
8 8
à¸Īà¸° à¸Ĥ
à¸ª à¸£à¸°
Ġc enter
à¸¥ à¸ķ
à¸£ à¸©
à¸§à¸¢à¸Ħà¸§à¸²à¸¡ à¸Ĺ
à¸ģ à¸ģà¸¥
à¸Ńà¸¡ à¸ļ
à¸Ĭ à¸²à¸ģà¸²à¸£
à¸Īà¸£ à¸²à¸Īà¸£
Ġm e
à¸ª à¸²à¸ĺ
à¸Ńà¸Ļ à¹ĥà¸Ļ
k y
à¹ģà¸£ à¸ģà¸ģ
2 1
à¸Ńà¸ĩ à¹Ģà¸ŀà¸¥à¸ĩ
à¸ĩ à¹Ģà¸Ħà¸£
er s
Ġà¹Ģà¸Ń à¸§
à¹Ģà¸¡ à¸Ļ
à¸Ľà¸£à¸° à¸«à¸¢
Ġ3 5
Ġg oogle
à¸¢à¸Ķ à¸²à¸¢
à¸ª à¸Ľ
Ġoper ator
is s
à¸Ĥà¸Ńà¸ĩ à¹ĥà¸Ĭ
Ġ? ,"
im e
à¸¥ à¸ª
à¸Ļ à¸ŀà¸£
à¸² à¹Ģà¸ŀà¸£à¸²à¸°
à¸Ń à¹Ģà¸ķà¸Ńà¸£
Ġn et
à¸Īà¸° à¹Ģà¸ģ
à¸²à¸§ à¸£
o g
Ġ à¸į
Ġà¸ľà¸¡ à¸ķ
à¸ĵ à¸¡à¸²à¸ģà¸Ħà¸£
à¸²à¸¢ à¹ģà¸¥
à¹Ħà¸Ľ à¹Ħà¸Ķ
à¹Ĥà¸Ķà¸¢ à¸Ĺ
à¸ĩ à¹ĥà¸«à¸į
à¹Ģà¸¥à¸¢ à¸ķ
à¸§à¸¢ à¸Ļà¸°
Ġà¸Ń à¸²à¸ģà¸²à¸£
Ġà¸ļà¸²à¸ĩ à¸Ħà¸Ļ
à¸ļ à¹ģà¸Ł
à¸Ħà¸Ńà¸Ļ à¹Ĥà¸Ķ
à¸Ļ à¸ŀà¸£à¸°
Ġe ms
à¸Ľ à¹Ħ
à¸¡à¸²à¸ķ à¸¥à¸Ńà¸Ķ
en g
ik e
à¸Ľà¸£à¸°à¸ª à¸ĩà¸Ħ
à¸ĩ à¹Ģà¸Ī
à¸²à¸ĺ à¸£à¸£à¸¡
## ##
à¸² à¹Ģà¸«
out ube
à¹Ģà¸ª à¸Ļà¸Ń
à¸²à¸§ à¸ķ
à¸¡ à¹Ģà¸Ĥ
à¸¡à¸² à¹ĥà¸Ĭ
à¸Ķà¸ª à¸Ńà¸ļ
à¸Ń à¸²à¸£
?? ?
à¸²à¸¢ à¹Ģà¸Ķ
à¹Ģà¸Ĺ à¸Ħà¸Ļ
Ġ à¸Ļà¸°
à¸¢à¸Ļ à¸Ļ
à¸ļà¸ļ à¸£
à¸ªà¸Ńà¸ļà¸ĸà¸²à¸¡ à¹Ģà¸£
à¸Ħà¸§à¸²à¸¡ à¸Ń
à¹ģà¸Ľà¸¥ à¸ģà¹Ĩ
à¸ķà¸ģ à¹ģà¸ķ
à¸§à¸Ļ à¸Ĥà¸Ńà¸ĩ
à¸§à¸£ à¸£à¸Ħ
à¸ķ à¹Ģà¸Ļ
à¸§à¸Ļ à¸¥à¸Ķ
à¸²à¸¥ à¸ĩ
à¸ļ à¸Ħà¸£
Ġ !
à¸° à¸Ķà¸§à¸ģ
à¸ģ à¸ģà¸²à¸£à¹Ģà¸¡
Ġà¸ģ à¸£à¸ĵ
ur t
Ġà¸Ī à¸Ļà¸ĸ
à¸Ĥ à¸Ĺ
Ġà¹ģà¸¥à¸° à¸£
à¸Īà¸° à¸ģà¸¥
à¹Ģà¸Ħà¸¢ à¹Ģà¸«
à¸Ļà¸Ń à¸²à¸«à¸²à¸£
à¹ĥà¸Ī à¸ģ
à¸²à¸ĩ à¸ĩ
à¸ļ à¸Ħà¸§à¸²à¸¡à¸ª
à¸§ à¸«à¸¥
à¸Ńà¸ļ à¸Ńà¸ģà¸§
Ġ255 7
Ġ à¸«à¸§
à¸Ħ à¸Ħ
à¹Ģà¸ª à¸Ļ
Ġo s
à¸Ķ à¹ģà¸ķ
à¸ªà¸¡ à¹Ģà¸Ķ
b er
à¸Ńà¸ĩ à¹Ģà¸ŀ
à¸ľà¸¡ à¹ĥà¸Ĭ
à¸Ń à¸Ĥà¸²à¸¢
à¹Ĥà¸Ńà¸Ļ à¹Ģà¸ĩ
à¹Ģ à¹Ģà¸£
à¹ģà¸¥à¸° à¸ģ
à¸Ńà¸¢ à¸¥à¸ĩ
à¸ģà¸£ à¸²à¸Ħà¸¡
à¸Ļ à¸¥à¸ĩ
à¸ĩ à¹Ģà¸«à¸¡
à¹Ĥà¸ŀ à¸ªà¸ķ
à¸ª à¹Ģà¸Ľ
Ġà¸ľà¸¡ à¸¡
re e
à¸łà¸²à¸ŀ à¸ĸ
à¸ĩà¹Ĩ à¸Ħ
à¹ģ à¸ĩ
à¹Ģà¸¥à¸¢ à¸Ļà¸°
à¸Ļ à¹ģà¸Łà¸Ļ
à¸ĩà¸ª à¸Ńà¸ĩ
Ġà¸ª à¸ĸà¸²à¸Ļ
à¸£à¸²à¸ Ł
Ġ à¸Łà¸£
Ġ à¹ĥ
à¸²à¸£ à¸ŀ
à¸Ļ à¹Ģà¸ļ
Ġ à¸Ńà¸£
à¸Ńà¸ļ à¸Ńà¸ģ
à¹Ģà¸Ħà¸¢ à¹Ħà¸Ľ
à¸ĩà¸Ħà¸¡ à¸Ħ
à¸²à¸Ļ à¹Ģà¸£
à¹ģ à¸ļà¸£à¸Ļà¸Ķ
à¸ķà¸Ńà¸Ļ à¹ģà¸£à¸ģ
à¹Ģà¸ģ à¸Ńà¸£
Ġà¹Ĥà¸Ķà¸¢ à¹Ħà¸¡
à¸ļà¸£à¸£ à¸¢à¸²à¸ģà¸²à¸¨
à¹Ģà¸£à¸²à¸ģ à¸¥
à¸Ń à¹Ģà¸Ī
Ġg r
à¸¡ à¹Ģà¸Ķ
à¸²à¸ķ à¸Ńà¸Ļ
à¸²à¸ĩ à¸Ĺà¸²à¸ĩ
à¹Ģ à¹Ģ
à¸Ľà¹Ħ à¸ķà¸¢
Ġv s
à¸ĩ à¹ģà¸ģ
à¹ģà¸¥à¸° à¸£
à¸Ħà¸§à¸²à¸¡ à¸ķ
à¸Ńà¸Ķ à¸Ĺ
à¸Ńà¸ĩ à¸«à¸¡
in t
à¸²à¸Ļ à¹Ģà¸Ľ
à¸Ī à¸Ń
à¸£à¸²à¸ ª
à¸Ķà¹Ģà¸Ī à¸Ļ
Ġà¸ĭ à¸¡
à¸Ĥà¸łà¸²à¸ŀ à¸Ī
Ġm y
à¸Ńà¸ĩ à¸Ľà¸£
à¹ ķ
à¸Ńà¸ļ à¸£à¸¡
Ġà¹ģ à¸Ĥ
à¸ļ à¹Ģà¸Ī
à¸ļ à¸Ł
à¹Ģà¸ª à¸¡
2 55
à¸« à¸²à¸Ĺ
à¹Ĥà¸£à¸ĩà¹ģà¸£ à¸¡à¸£
à¸²à¸ĩ à¸Ĥà¸Ńà¸ĩ
à¸¥ à¸²à¸Ħà¸¡
à¸ĵ à¸¡à¸²à¸ģà¹Ĩ
à¸Ī à¸Ńà¸ĩ
à¸¡à¸²à¸ ĭ
à¹Ģà¸Ĥ à¸²à¸Ħ
à¸¡ à¸Ĺà¸£
à¸ĩà¹Ħà¸ĩ à¸Ħà¸°
Ġà¹ģ à¸Ľ
Ġà¸¡ à¸²à¸Ķ
à¸ĩ à¸Īà¸°à¸¡
à¸ģà¸²à¸£ à¸ļà¸£
à¸ļ à¹Ĥà¸ķ
à¸ĩ à¹Ģà¸ĩ
à¸Ńà¸ĩ à¸¨
à¸²à¸ĩà¹Ħà¸£ à¸Ķ
à¸Ńà¸° à¹Ħà¸«à¸¥
Ġà¹ģ à¸ļ
à¸²à¸ ®
Ġà¸ķ à¸Ńà¸ļ
Ġw indows
à¸ŀà¸¢ à¸²à¸ģà¸£
à¸Ļ à¸²à¸Ħà¸¡
Ġ à¸Ŀà¸²à¸ģ
à¸Ķ à¹ĥà¸Ĭ
à¹Ħ à¸®
m er
à¸Ļà¸§ à¸²à¸Ħà¸¡
Ġ ----------------------------------------------------------------
à¸ļ à¹Ģà¸ª
à¹Ģà¸ŀà¸£à¸²à¸° à¸§
Ġà¸Īà¸²à¸ģ à¸Ĺ
Ġà¹Ģà¸£ à¸²à¸Ī
à¸Ķ à¹ģà¸§à¸£
an s
à¸° à¸Ķ
à¸łà¸²à¸ŀ à¸Ĺ
l ic
à¸Ļà¸£ à¸²à¸Ħ
à¸²à¸ľ à¸¥
à¸ŀ à¸Ńà¸ªà¸¡à¸Ħà¸§à¸£
à¸¢à¸Ķ à¸Ļà¸²à¸¡
à¸ļ à¸Ľà¸£à¸°à¸ģ
à¹ģà¸Ĺ à¸ļ
Ġc c
"" "
ac t
à¹Ģ à¹Ģà¸Ł
i re
à¹ģà¸¥à¸° à¸Ħ
à¸Ĥ à¸Ńà¸£
à¸ĩà¸Ħ à¹Ĥà¸Ľà¸£
à¸įà¸« à¸²à¸ģ
à¸Ļ à¹Ĥà¸£à¸Ħ
à¸ļ à¹Ģà¸Ĥà¸²
à¸²à¹Ģà¸£ à¸²à¸ģ
Ġsm s
ol d
Ġ à¸łà¸²à¸Ħ
3 3
à¸Ħà¸Ļ à¸Ħ
à¸Ħà¸§à¸²à¸¡ à¸Īà¸£
à¸ļà¸ª à¸²à¸¢
à¸ĩà¹Ĩ à¹ģà¸¥
à¹Ģà¸£ à¸²à¸Ĭà¸Ńà¸ļ
Ġs u
à¸Ńà¸¢ à¸£
à¸Ļà¸Ĺ à¸Ļ
4 9
Ġ à¹ĥà¸ģà¸¥
Ġb y
Ġà¹Ģà¸¥à¸¢ à¸Ħ
à¸Ĭà¸²à¸¢ à¸Ħà¸Ļà¸Ļ
Ġ à¸Ľà¸£à¸°à¸ģ
Ġà¸ľà¸¡ à¸£
à¸²à¸¢ à¸«à¸¥
Ġà¹Ģà¸ŀà¸£à¸²à¸° à¸Ĺ
5 9
à¸ģà¸²à¸£ à¹ģà¸Ĥ
à¸Ĥà¸Ńà¸ĩ à¸ª
le t
à¸§à¸¢ à¸ĩà¸²à¸Ļ
à¸£à¸£ à¸¢
à¸Ńà¸ĩ à¸Ł
à¸²à¸Īà¸° à¸Ķ
à¸Ńà¸Ļ à¹Ģà¸Ĥ
Ġà¸ľà¸¡ à¸Ħ
à¸Ńà¸ĩ à¹ĥà¸Ļ
à¸Ļ à¹Ħà¸ĩ
à¸Ħà¸§à¸²à¸¡ à¸¡
Ġà¹ Ĵ
à¸²à¸ĩ à¹Ģà¸Ĭ
is h
à¸²à¸ª à¸Ļ
Ġà¹Ĥ à¸¥
à¹ģà¸Ĭ à¸Ĺ
à¸ģà¸ģà¸ģà¸ģ à¸ģà¸ģà¸ģà¸ģ
à¹Ģà¸¢à¸Ńà¸° à¹Ĩ
Ġ7 0
// //
à¸£à¸²à¸ Ķ
à¸ģà¸£à¸° à¸ķ
à¸²à¸« à¸§
à¹Ģà¸¥à¸¢ à¸Ī
à¹Ģà¸Ħà¸¢ à¸£
à¸²à¸Ĥà¸Ńà¸ĩ à¸ĺ
à¸ļ à¸ģà¸§
à¸ļ à¸Ħà¸Ļà¸Ń
c l
à¸§ à¸Ľ
à¸«à¸£à¸Ń à¸Ħà¸°
à¸ŀà¸£à¸° à¸Ńà¸ĩà¸Ħ
à¸¢à¸ĩ à¹ģà¸Ħ
à¸Ńà¸ĩ à¸¡à¸²
6 6
Ġà¹Ģà¸¡ à¸©
f acebook
à¸łà¸²à¸©à¸² à¹Ħà¸Ĺà¸¢
it h
à¸ļ à¹Ħà¸ĭà¸ķ
Ġà¹Ģà¸ ī
à¸ķà¸£ à¸ĩà¸Ĺ
à¸µ "
à¸Ĥ à¸ª
à¸¢ à¹ģà¸¥
Ġà¹Ģà¸ª à¸£
à¸ļà¸Ńà¸ģ à¹Ħà¸¡
Ġ9 0
à¸Ł à¸Ł
oo d
à¸²à¸ĩ à¹ĥà¸«
à¸ģ à¹ģà¸ļà¸ļ
à¸ŀà¸£à¸° à¸ŀ
Ġà¸ļ à¸Ĺ
j i
à¸²à¸ĩ à¹Ģà¸Ńà¸ģ
Ġà¸Ĥ à¸ĵà¸°à¸Ĺ
Ġà¹ ĳ
i es
5555 5555
à¹Ģà¸Ķ à¸Ńà¸£
à¸¥ à¸Ń
m p
à¸ģà¸²à¸£ à¸ĸ
Ġst ar
à¸£à¸ĸ à¸ķ
à¹Ģà¸ĭ à¸¥à¸¥
Ġà¹ģ à¸Ľà¸¥
à¹ģ à¸ģà¸¥
à¸Īà¸° à¸Ńà¸¢
3 00
à¸ĩ à¹Ģà¸«
à¸²à¸ĩ à¹Ģà¸£
Ġp re
Ġà¸ľà¸¡ à¹Ħà¸Ķ
à¸«à¸¥à¸²à¸¢ à¸Ħà¸£
Ġf l
à¸²à¸Ĥ à¸Ń
à¹Ħà¸Ľ à¸Ļ
Ġt t
à¸ģà¸£à¸° à¹ģà¸ª
à¸Ķ à¸¥à¸Ńà¸ĩ
Ġà¸Ĭ à¸²à¸§
à¸° à¸Ń
3 2
à¸Ķà¸Ĺ à¸°à¹Ģà¸ļ
à¸Ļ à¹Ģà¸£à¸²
à¹Ģà¸¥à¸¢ à¸Ļà¸°à¸Ħà¸°
à¸Ķ à¸Ľà¸ģà¸ķ
m b
à¸Ńà¸ªà¸Ńà¸ļ à¸ĸà¸²à¸¡
à¸Īà¸° à¹Ģà¸Ń
à¸¢ à¹Ħà¸¡
à¸ķà¸£ à¸ĩà¸Ĥ
à¸Ļ à¸į
à¸ª à¸ĩ
à¸Ńà¸Ļ à¸ĸ
à¸ģ à¸Ł
Ġà¹Ģà¸ŀà¸£à¸²à¸° à¸ķ
à¸Ļà¸Īà¸° à¹Ģà¸Ľ
Ġc m
à¸ļ à¹ĥà¸Ĭ
à¸ģà¸ģ à¸ģ
à¸¢ à¸Ĥà¸Ńà¸ĩ
à¸ĩ à¸Ħà¸°
à¸²à¹Ħà¸Ľ à¸ģ
à¸Ķ à¹Ģà¸ģ
à¹ģà¸ĸ à¸¡
à¸¥ à¸²à¸ģ
à¸Ķ à¹ģà¸¥à¸°
à¸§ à¸«à¸£
à¸«à¸¥ à¸²à¸ģà¸«à¸¥à¸²à¸¢
à¸ľà¸¡ à¸Ķ
y ot
à¸²à¸Ļ à¸²à¸¢
à¸Ńà¸ĩ à¹Ģà¸Ľà¸¥
à¹Ĥ à¸«à¸§
à¸ļ à¸¡à¸²à¸ģ
à¸įà¸« à¸²à¸Ĺ
à¸Ļ à¹Ģà¸§à¸¥
ĠĠĠĠ ĠĠ
à¸Ńà¸ĩ à¹Ģà¸Ĭ
à¸ĩà¸ģ à¸£à¸°
à¸ĭ à¸Ńà¸Łà¸ķ
à¸Ń à¸Ĺà¸²à¸ĩ
à¹Ĥà¸£à¸ĩ à¸ĩà¸²à¸Ļ
4 4
à¹Ģà¸«à¸¡à¸²à¸° à¸ģ
à¸ŀà¹Ģà¸Ķ à¸Ĺ
à¸²à¸ģà¸İ à¸§
3 9
à¸Ľà¸£à¸° à¸Ķ
à¸ĭ à¸²à¸ģ
@ @
Ġà¹ĥà¸Ļ à¸£à¸²à¸Ħà¸²
à¸¢à¸Ļ à¸Īà¸ļ
à¹Ĥ à¸ªà¸Ķ
à¸Ļà¸ķà¸£ à¸²à¸¢
à¸° à¸Ľ
à¹ģ à¸Ľà¸£
Ġà¹Ģà¸¥à¸¢ à¸ķ
à¸Ī à¸Ĺ
à¸²à¸Ĺ à¸£
à¹Ĥà¸ķ à¹Ģà¸ģ
à¸¡ à¸²à¸Ńà¸¢
à¸²à¸§ à¸Ħ
à¸²à¸Ļ à¸¢
à¹Ģà¸£ à¸²à¸ŀ
Ġ255 8
à¸Ľ à¸ª
à¸²à¹Ģà¸£ à¸²à¸Īà¸°
à¸Ķà¹Ģà¸Ĺ à¸Ńà¸¡
à¸Ļà¸° à¸§
à¸Ķ à¸²à¸£
à¸Ĺà¸°à¹Ģà¸¥ à¸²à¸°à¸ģ
à¸§ à¹ģà¸Ĺ
à¹Ģà¸£ à¸²à¸Ī
à¸Ļà¹Ģà¸ģ à¸¡à¸ª
à¸ĩà¹Ģà¸Ĺà¸ŀ à¸¯
up er
oo l
Ġ/ /
Ġd r
Ġà¹Ĥ à¸Ħ
à¸ļ à¸«à¸¥
à¸Ļà¹Ħà¸Ľ à¸Ĺ
à¸ŀ à¸²à¸ĵ
à¸Ń à¹ģà¸Ħ
à¹Ģà¸¢à¸Ńà¸£ à¸¡
à¸²à¹Ĥ à¸ŀ
à¸ļ à¸ĩà¸²à¸Ļ
Ġà¸« à¸¢
à¸¨à¸²à¸ªà¸Ļ à¸²
Ġà¹Ĥ à¸Ĭ
Ġà¸Ħà¸° à¹ģà¸Ļà¸Ļ
à¸Ńà¸ª à¹Ģà¸ķà¸£
à¸ģà¸²à¸£ à¹Ģà¸Ľ
Ġg b
à¸Īà¸° à¸«
à¸²à¸¢ à¸Ī
à¹ĥà¸Ī à¸Ķ
à¸Īà¸Ńà¸Ķ à¸£à¸ĸ
Ġ à¸£à¸°à¸¢à¸°
à¸²à¸¢ à¸ļ
Ġt e
an ce
à¸Ļ à¹Ģà¸§
à¸Ńà¸ª à¸²à¸£
à¸Ń à¸Ľà¸¥
à¸¡ à¹Ģà¸¡
à¸£ à¸Ńà¸ĩà¹Ģà¸Ĺ
Ġ3 6
à¹ģà¸¥à¸° à¸Ļ
à¸Ĭà¸²à¸§ à¸ŀ
à¸ģà¸£à¸° à¸Ĺà¸£à¸§à¸ĩ
à¹Ĥ à¸ĩ
à¸Ķ à¸ģà¸¥
à¸ģà¸£ à¸¡
à¸¥à¸° à¸Ħà¸Ļ
le ss
Ġ à¸¨à¸£
à¸Ħà¸§à¸²à¸¡ à¸ªà¸²à¸¡à¸²à¸£à¸ĸ
à¸²à¸« à¸¢
c m
à¸Ńà¸ļ à¸Ń
à¸¡ à¸łà¸²à¸ŀ
Ġ one
Ġà¹Ģà¸£ à¸²à¸¢
à¸²à¸Ļ à¹ĥà¸«
Ġà¹Ģà¸ŀà¸£à¸²à¸° à¸ĸ
à¸²à¸Ľ à¸ģà¸ķ
Ġ4 00
à¸£à¸²à¸¢ à¹Ģà¸Ķ
à¸£ à¸²à¸ĩà¸§
à¹Ģà¸ŀà¸£à¸²à¸° à¹Ħà¸¡
à¹Ĥà¸ŀ à¸ģ
à¹Ħà¸Ľ à¸Ńà¸¢
à¹Ĥ à¸Ļà¸¡
à¸Ļà¹Ģà¸ģ à¸¡
à¸£à¸²à¸ ©
à¸ªà¸° à¸ªà¸¡
à¸²à¸¢ à¹Ħà¸¡
à¸¢ à¹Ħà¸Ķ
b r
à¸Ńà¸Ļ à¸Ĭ
à¸ļ à¹Ģà¸¥à¸¢
à¸Ħ à¸Ĭ
à¸ķà¸²à¸¡ à¸Ļ
Ġ %
à¸²à¸¡ à¸²à¸Ń
à¸§ à¹ĥà¸Ļ
os t
à¸įà¸« à¸²à¸Ńà¸°à¹Ħà¸£
à¹ģà¸ļà¸ļ à¹Ħà¸«à¸Ļ
à¸Ń à¹Ħà¸§
^ ^
à¹Ħ à¸ŀ
Ġà¸ªà¸Ńà¸ļ à¸ĸà¸²à¸¡
à¸Ńà¸Ļ à¹Ģà¸£à¸²
à¹ĥà¸Ī à¸Ĺ
à¸²à¸¡à¸²à¸ģ à¹Ĩ
à¸²à¸Ļ à¸°à¸Ħà¸£
à¸ķà¸ļà¸Ńà¸¥ à¸ķ
t t
à¸Ħà¸§à¸²à¸¡ à¸«à¸¡à¸²à¸¢
à¸¥à¸Ķ à¸¥à¸ĩ
à¸ķ à¸Ń
à¸¢à¸§ à¸Ĺà¸°à¹Ģà¸¥
Ġà¸£à¸ļà¸ģà¸§à¸Ļ à¸ľ
à¸Ńà¸ĩà¸ª à¸²à¸§
Ġ à¸Ńà¸Ļ
à¸ļ à¹Ģà¸Ļ
à¸ĵ à¸¡
à¸Ĥà¸Ńà¸ĩ à¸¡
à¸Ħ à¸ģ
à¸²à¸« à¸Ńà¸¡
à¸ªà¸²à¸¢ à¸ķ
à¸Ńà¸Ļ à¸ĭ
à¸«à¸¥ à¸Ńà¸ģ
à¸ĩ à¹ĥà¸«à¸¡
à¸¢à¸Ļ à¸¡
à¸ģ à¸ģà¸²à¸£
à¹ģ à¸ľà¸¥
à¸ģà¸İà¸«à¸¡à¸²à¸¢ à¸Ĭà¸²à¸§à¸ļ
à¸¨à¸²à¸ªà¸Ļ à¸²à¸ŀ
à¸²à¸« à¸¡à¸Ń
à¸ģà¸Ĺà¸£ à¸Ńà¸Ļ
ic ro
à¸ģà¸© à¸£
à¸ĩ à¹Ģà¸§à¸¥
à¸Ńà¸ĩ à¸Ńà¸°à¹Ħà¸£
à¸Ń à¸«à¸£
à¸Ł à¹Ģà¸Ł
ak e
à¸ĩ à¸Ŀ
à¸ļ à¸«à¸£
Ġà¹ĥà¸Ħà¸£ à¸£
à¸§à¸¢ à¸Ī
à¸Ī à¸²à¸Ħ
à¸§ à¸ļà¸£
5 8
t o
à¸Ļ à¹ĥà¸Ħà¸£
à¸Ńà¸ģ à¸£à¸°à¸Ĺ
à¸¡ à¹Ģà¸£
à¸¡ à¸²à¸ŀ
7 7
à¸²à¸Īà¸° à¸ĭ
à¸Ļà¸²à¸ĩ à¹Ģà¸Ńà¸ģ
à¸¡à¸²à¸ģ à¸Ļ
à¸ª à¸²à¸Ļ
Ġ à¸Ľà¸£à¸°à¸ģà¸Ńà¸ļ
Ġc re
à¸ī à¸²à¸¢
à¸¤à¸© à¸ł
à¸£à¸ĸ à¹Ĥà¸Ķà¸¢à¸ªà¸²à¸£
à¹Į ,"
à¸Ļà¹ĥà¸Ī à¸§
à¸ļà¸¡ à¸²à¸Ĺ
Ġà¸¢ à¸Ńà¸Ķ
à¸Ķ à¸ĩà¸²à¸Ļ
Ġ à¸łà¸²à¸¢à¹ĥà¸Ļ
à¸²à¸ĩ à¸ĸ
Ġ à¸ĺà¸Ļà¸²à¸Ħà¸²à¸£
as e
à¸Ħà¸§à¸²à¸¡ à¸ľ
à¹Ī ...
à¸Ĥà¸Ńà¸ĩ à¸ŀ
r or
à¸Ļ à¹Ħà¸«à¸Ļà¸Ķ
à¸²à¸Ļ à¹Ģà¸¡
à¸Ļà¸ª à¸¡
Ġà¹ģà¸ļà¸ļ à¹Ħà¸¡
à¸Ľà¸£à¸°à¸¡à¸²à¸ĵ à¸§
à¸Ľà¸£à¸° à¸ĺà¸²à¸Ļ
à¸Ļ à¹ģà¸£à¸ĩ
hot mail
à¸§ à¹Ģà¸¥à¸¢
à¹Ģà¸Ļ à¸Ńà¸°
Ġà¹Ĥ à¸Ħà¸£
à¸Ļ à¸łà¸²à¸ŀ
Ġh e
à¸Ńà¸¢à¸²à¸ģ à¹Ģà¸Ľ
à¹Ģà¸¡ à¸£
à¸Ķ à¹ĥà¸«à¸¡
à¸ĺ à¸¢à¸¡
à¸Ķ à¹Ħà¸Ł
à¸¨ à¸Ī
à¸ĩ à¸Ńà¸°à¹Ħà¸£
? "
à¸ĩ à¸Īà¸£
à¸§ à¹Ģà¸¥à¸Ĥ
à¸¡ à¸ģà¸¥
à¸§à¸¢ à¸Ń
à¸ģà¹Ģà¸ģ à¸Ńà¸£
à¹Ģà¸«à¸£à¸Ń à¸Ħà¸£
Ġ à¸«à¸¡à¸Ķ
à¸ľà¸¡ à¸¢
à¸Ļ à¹ģà¸Ĺ
à¸¡ à¹Ģà¸¥à¸¢
Ġà¹Ģà¸£ à¸²à¸§
à¸¢à¸Ļ à¹Ħà¸Ķ
à¸Ńà¸Ļà¹Ĩ à¸Ĺ
à¹Ħà¸Ľ à¹Ħà¸«à¸Ļ
à¸Ĭà¸Ńà¸ļ à¸Ĺ
Ġà¸ľà¸¡ à¹Ģà¸Ľ
à¸Ļ à¸Ľà¸£à¸°à¸Ī
à¸Ī à¸ŀà¸£à¸°
à¸²à¸ĩ à¸ŀ
à¸²à¸ĩà¸Ļ à¸Ńà¸ģ
Ġip ad
Ġth ailand
Ġc ard
Ġm an
à¸²à¸¢ à¹ĥà¸«
Ġà¸Īà¸° à¹Ħà¸¡
à¸Ļà¸ķ à¸ģ
à¸¢à¸§ à¸Ķ
â Ļ
à¸ĵ à¹Ħà¸¡
à¸Ĺà¸²à¸ĩ à¸Ķ
à¸²à¸ĩ à¹ģà¸Ķà¸Ļ
à¸ķà¹Ģà¸Ļ à¸ª
à¸ģ à¸«à¸¥à¸²à¸¢
5 6
Ġ201 4
à¸ĩ à¹Ģà¸ªà¸£
à¸ģ à¹ģà¸ªà¸Ķ
v i
à¸§à¸Ķ à¹Ģà¸£
à¸ļà¸²à¸ĩ à¸Ńà¸¢
à¸¡à¸²à¸ļ à¸Ńà¸ģ
à¸Ńà¸¢ à¸Ī
à¸Ļ à¹Ģà¸«à¸ķ
à¸ģà¹Ģà¸ķ à¸°
Ġ !!!
à¸§à¸ĩ à¸§
Ġe d
à¹Ģà¸ Ŀ
à¸²à¸Īà¸° à¹ĥà¸«
à¹Ĥà¸Ķà¸¢ à¹Ģà¸īà¸ŀà¸²à¸°
à¸Ńà¸ª à¸ĩà¸ª
à¸²à¸ĩà¸²à¸Ļ à¸ģ
à¹Ĥà¸Ĭ à¸Ħà¸Ķ
à¸Ļ à¹Ģà¸«
Ġ à¹Ħà¸Ł
5 7
à¸Ń à¹Ħà¸£
l d
à¹Ħ à¸ķà¸£
à¸ķ à¸Ńà¸¢
ĠĠĠĠ ĠĠĠ
à¸¨à¸§ à¸ģà¸£à¸£à¸¡
à¸Ńà¸Ļ à¹ģà¸ģ
Ġt v
à¸¡à¸²à¸ ĺ
à¸® à¸°
Ġà¸ª à¸¡à¸²à¸Ĭ
Ġà¹Ģà¸ķ à¸£
à¸ĩ à¹Ģà¸£à¸²
Ġt w
à¹ĥà¸Ļ à¹Ģà¸§
Ġà¸Ī à¸Ļà¸ģà¸£à¸°à¸Ĺ
à¸ĩà¸ļ à¸Ľà¸£à¸°à¸¡à¸²à¸ĵ
à¸ļ à¸§à¸Ļ
Ġ à¹Ħà¸«à¸Ļ
à¸§à¸ģ à¸ģ
à¸§à¸Ļ à¹Ĩ
à¸²à¸Ļà¸§à¸Ļ à¸¡à¸²à¸ģ
à¹Ģà¸Ńà¸² à¹Ģà¸ĩ
à¸ļà¸Ńà¸ģ à¹Ģà¸¥
à¸¢à¸Ļ à¸Ķ
à¸ģ à¸ľà¸¡
à¸§à¸Ļ à¸ļ
à¸Ļ à¹Ģà¸§à¸¥à¸²
à¸Ńà¸¢ à¸Ħà¸°
à¹Ħà¸ĭ à¸ª
ad e
a ir
à¸¢à¸¢ à¸¢
à¸Ńà¸Ļ à¸Ħà¸Ļà¸Ļ
à¸Ľà¸£ à¸²à¸ģà¸ı
à¹ĥà¸Ļà¸ģà¸²à¸£ à¸Ĺ
à¸²à¸ļ à¸²à¸Ĺ
à¸ĩà¸« à¸²à¸Ħà¸¡
à¸Īà¸° à¹Ģà¸Ķ
Ġà¸£ à¸ŀ
à¸¢à¸§ à¸į
à¸ª à¸²à¹Ģà¸«à¸ķ
à¸Ńà¸° à¸Ħà¸°
3 7
Ġà¹Ģà¸« à¸¡à¸²à¸°
à¸§ à¸²à¸Ķ
ic h
à¸§à¸ĩ à¸ģ
à¸§ à¹Ģà¸ª
à¸²à¸Ļ à¹Ħà¸«à¸Ļ
à¸£à¸²à¸¢à¸ģà¸²à¸£ à¹Ĥà¸Ĺà¸£à¸Ĺ
à¸ķ à¸¡
à¸¤ à¸¨à¸Ī
à¸Ľ à¸Ĭ
à¸²à¸ł à¸²à¸ŀ
à¸ĩ à¸Ļà¸°
p t
à¸Ļà¸¢ à¸²à¸¢à¸Ļ
à¹ĥà¸Ļ à¸¡
à¸ķà¸²à¸¡ à¸£
à¸ĩà¸ª à¸²à¸¡à¸²à¸£à¸ĸ
à¹Į ""
à¹Ģà¸¥à¸¢ à¸Ħà¸°
à¸§à¹Ģà¸£ à¸²à¸°
à¸Ķ à¹Ģà¸¡
à¹ģ à¸¢à¸°
à¸į à¸ģ
à¸ĩ à¹Ģà¸£à¸²à¸ģ
à¸ģ à¹Ģà¸£à¸²
à¸Ńà¸¢ à¹Ħà¸Ľ
à¸ŀà¸Ń à¸Īà¸°à¸¡
ar a
à¸ªà¸ķ à¸²à¸£
à¸Ħà¸¥ à¸Ńà¸Ķ
à¸Ļ à¸Ľà¸¥
Ġà¹Ģà¸ŀà¸£à¸²à¸° à¸Ħ
h er
à¹ģà¸ŀ à¸¥
à¹Ĥà¸Ńà¸ģà¸²à¸ª à¹Ħà¸Ķ
à¹Ī ",
à¸²à¸Ļ à¹ĥà¸Ķ
à¸µ .
à¸Ķ à¸«à¸¡à¸²à¸¢
à¸Ĥ à¸¢
à¸²à¸¢à¸Ĺ à¸Ńà¸Ķ
à¸²à¸Ļ à¹Ģà¸£à¸²
à¸ŀ à¸ļà¸§
à¸ĵ à¸£
à¸Ĥ à¸¢à¸²à¸¢
à¸Ļ à¸ļà¸£
Ġà¸ģà¸¥ à¸²à¸¢à¹Ģà¸Ľ
Ġc ol
s u
à¸Ńà¸ģ à¸ĭ
à¸Ķ à¹Ģà¸«à¸ķ
à¸Ī à¸§
à¸Ķ à¸Ńà¸Ńà¸ģ
h urt
à¸¡à¸²à¸Ľ à¸£à¸°
à¸Ľà¸£à¸° à¸ģà¸²à¸£
à¸¡ à¹Ģà¸¥
à¸Ĥà¸²à¸¢ à¸Ĥà¸Ńà¸ĩ
à¸§à¸ĩ à¸Ľ
à¸¹ à¹Ĭ
à¸Ļà¸Ļ à¸Ļà¸Ļ
Ġà¹Ĥ à¸ķ
à¸Ń à¹ĥà¸Ī
¸ º
n o
4 6
à¸ı à¸«à¸¡à¸²à¸¢
à¸²à¸Ĭ à¸Ļ
à¸Ķ à¹Ģà¸ĩ
à¸Ħà¸§à¸²à¸¡ à¹Ģà¸Ĭ
à¸§ à¹ģà¸¥à¸°
Ġà¸ŀ à¸Ńà¹Ģà¸£
à¹ĥà¸Ħà¸£ à¹Ģà¸Ľ
à¹Ģà¸Ī à¸²à¸°
à¸§ à¹ģà¸Ĺà¸Ļ
à¸įà¸« à¸²à¹Ģà¸£
à¸ĩà¸Īà¸° à¹Ģà¸Ľ
p ort
¸ ¿
Ġà¸Ľà¸£ à¸²à¸ģà¸ıà¸§
à¸Ħ à¸Ńà¸¢
à ¸¿
à¸£à¸²à¸ ¨
à¸ļ à¸ªà¸¡
Ġb ag
à¸ģ à¸«à¸¡
à¸§à¸Ļ à¸Ń
à¸Ĥà¸Ń à¸Ńà¸Ļ
ro w
us e
à¸²à¸¢ à¸Ĥ
à ¸º
à¸§à¸Ķ à¸¥
à¸Ńà¸ĩ à¹ģà¸ķ
à¸²à¸Ī à¸Ń
Ġà¸¡à¸²à¸ģ à¸ģà¸§
à¸ļ à¹Ģà¸ģ
Ġà¸ľ à¸į
à¸Īà¸° à¸ģ
à¸¢à¸ĩ à¹ģà¸ķ
à¸Ńà¸¢à¸²à¸ģ à¸ĸà¸²à¸¡
4 2
Ġy outube
d ress
à¸¢à¸ĩ à¸£à¸²à¸¢
à¸²à¸Ļ à¹Ģà¸Ĥ
à¸Ĵà¸Ļ à¸²à¸ģà¸²à¸£
à¸²à¸ĩ à¸«à¸¥
Ġlo ve
à¸ĩà¸«à¸§ à¸°
à¸Ńà¸ģ à¸Ļ
à¸ļà¸¡ à¸²à¸Ħ
à¸£ à¸«
à¸Ļà¹ģ à¸Ļà¸§
à¸Ńà¸¢ à¹ĥà¸Ī
à¸²à¸¡ à¸²à¸Ķ
à¸«à¸¡à¸²à¸¢ à¸Ħà¸§à¸²à¸¡à¸§
à¸ĩ à¹Ģà¸Ļ
h z
à¸¥ à¸ĩà¸ª
à¸Ħà¸Ļ à¸Ĥ
à¸ĸ à¸Ńà¸Ķ
à¸²à¸Ļ à¸Ĥà¸Ńà¸ĩ
Ġm c
Ġw ww
à¸¢à¸Ļ à¸ļ
à¸§à¸ĩ à¸ķ
Ġ25 60
Ġ255 9
à¹ĥà¸Ļ à¸ģà¸¥
à¹Ģ à¹Ģà¸Ħ
Ġà¸Ħ à¸ĵà¸°
à¸ªà¸£ à¸£à¸Ħ
à¸²à¸ª à¸ĩà¸ª
à¸Ļ à¹Ģà¸ĭ
e ed
Ġà¹Ģà¸« à¸Ļ
Ġm b
à¸ĩà¸Ń à¸²à¸¢
à¸²à¹Ħà¸Ľ à¹ģà¸¥
Ġof f
à¸ĸ à¸Ļ
à¸Ńà¸¢ à¸§
à¸Ńà¸ļ à¸£
à¸§à¸¢ à¸Ĭ
à¸Ń à¹Ģà¸Ń
à¸«à¸²à¸¢ à¹ĥà¸Ī
Ġà¸ģ à¸°
Ġà¸¡ à¸«à¸²à¸§
à¸Ńà¸Ļ à¹Ħà¸«à¸§
à¸²à¸¢ à¹ĥà¸ķ
à¸²à¸¡ à¸²à¸£
Ġà¹Ĥà¸£ à¸ĩà¹Ģà¸£
Ġà¸£ à¸£
à¸Ĥ à¸Ļà¸¡
à¸ķ à¹Ĥà¸Ļà¸¡
à¸ķ à¸²à¸¥
à¸²à¸ĩ à¸Ľ
à¹ĥà¸Ļ à¸Ľà¸£à¸°à¹Ģà¸Ĺà¸¨
à¸ŀà¸¢à¸²à¸ģà¸£ à¸ļ
à¸²à¹ĥà¸« à¸į
à¹ģà¸Ľà¸¥ à¸ģ
Ġà¸ªà¸° à¹Ĥà¸ŀà¸ģ
à¸¥à¸Ķ à¸Ħà¸§à¸²à¸¡à¸Ń
lic ation
Ġ3 50
à¸²à¸ ¯
à¸ĩ à¹Ģà¸ļ
à¸įà¸« à¸²à¸Ħ
à¸ĵ à¸«
à¸Ļà¹Ħà¸Ľ à¸ģ
à¸§ à¹Ģà¸«à¸¡
à¸Ńà¸ĩà¸ģ à¸ĩ
à¸ļ à¸Ħà¸§à¸²à¸¡à¸£
à¹Ħà¸ĭ à¸Ķ
à¸¡à¸« à¸²à¸Ļà¸Ħà¸£
à¸Ļ à¹Ģà¸¥à¸¢à¸Ħ
Ġ5555 5
Ġà¹ģà¸¥à¸° à¸Ķ
d r
à¸ĩ à¹Ĥà¸ķ
Ġà¸Ĥà¸²à¸¢ à¹ģà¸¥
ow n
à¸Ļà¹Ħà¸Ľ à¹ģà¸¥
à¸ĵ à¸ªà¸¡à¸ļ
Ġà¸¡ à¸ģà¸£à¸²à¸Ħà¸¡
à¸¢à¸§ à¸Ĭ
à¸§ à¸ģà¸§
à¸Ļ à¸²à¸¢à¸Ļ
à¸Ļ à¸Ńà¸ģà¸Īà¸²à¸ģ
à¸²à¸Ħ à¸Ļà¸Ń
à¸ķà¸ª à¸²à¸«
à¸ĩà¸Ħ à¸²à¸£
o b
à¹Ģ à¹Ģà¸¡
Ġc ity
Ġs ony
à¸ªà¸²à¸¡à¸²à¸£à¸ĸ à¹ĥà¸Ĭ
à¸ļ à¸ŀà¸§à¸ģ
à¸£à¸²à¸© à¸İ
à¸²à¸ĩ à¸«
à¸ķ à¸Ķ
f i
à¸Ļà¸Ħà¸Ļ à¸Ļ
à¸Ķ à¹ģà¸ļà¸ļà¸Ļ
à¸²à¸ĩà¹Ħà¸£ à¸Ħà¸£
à¸²à¸ģ à¸£à¸°
à¹Ħà¸Ľ à¸Ī
à¸²à¸Ń à¸²à¸¢
Ġ à¸Ľà¸£à¸°à¸Ī
à¹ģà¸ģ à¸°
à¸Ļ à¸Ľà¸£à¸°à¸¡à¸²à¸ĵ
à¸ģà¸¥à¸²à¸ĩ à¸§
à¹Ĥ à¸ī
à¸Ħà¸Ļà¹Ħà¸Ĺà¸¢ à¹ĥà¸Ļ
à¹ģà¸¥à¸° à¸Ń
à¸²à¸Ļ à¸ģà¸²à¸£
Ġd is
à¸¡ à¸ĸ
à¸² à¹Ĥà¸Ĺà¸£
Ġapp lication
us h
à¸Īà¸° à¸¥
à¸²à¸¢ à¸Īà¸²à¸ģ
à¹Ħà¸Ľ à¹ĥà¸«
Ġà¹Ħà¸Ľ à¸Ĺ
à¸ĩ à¹ģà¸Ħ
Ġ .....
à¸²à¸£ à¸ĵà¸°
à¸Ħà¸Ļ à¹Ħà¸«à¸Ļ
Ġà¸ļ à¸¥
à¸ľà¸¡ à¸Ńà¸¢
Ġh ot
9 00
à¸ļ à¹Ģà¸¡
à¸« à¸²à¸ĭ
à¸²à¸Ħà¸§à¸²à¸¡ à¸ªà¸°à¸Ńà¸²à¸Ķ
Ġ q
à¸§à¸¢ à¸¡
à¸° à¹ģà¸ķ
à¸²à¸Ļ à¹Ģà¸Ķ
yot a
Ġà¸Ĥ à¸Ńà¸ļ
à¹Ģà¸¥à¸¢ à¸ģ
à¸Ńà¸ģ à¸Ń
Ġm ac
à¹ĥà¸Ļ à¸Ĥ
à¸° à¹Ģà¸£
Ġs uper
à¸Ļà¸¡ à¸²à¸Ĺ
Ġà¹ģ à¸ªà¸Ļ
à¸Ń à¹Ģà¸ŀà¸¥à¸ĩ
à¸§à¸¢ à¹Ħà¸Ķ
à¸Ńà¸ĩà¸ģà¸²à¸£ à¹ĥà¸«
e p
à¸²à¸ĩà¸²à¸Ļ à¸Ńà¸¢
à¸Ĺ à¸§
Ġ or
à¸´ )
à¸Ńà¸ĩ à¹Ģà¸Ń
à¸Ńà¸¢ à¸¥
à¸į à¹ģà¸Ī
à¸ļ à¸Ńà¸£
à¸¢à¸§ à¸ļ
à¸Ļ à¹Ĥà¸Ķà¸¢
à¸§à¸Ļ à¸ª
à¸ģà¸²à¸£ à¸Ĭ
à¸ĩà¹Ĩ à¸ģ
à¸° à¹Ħà¸¡
à¸Ń à¸²à¸§
à¸Ńà¸¢ à¸Ĥ
Ġf r
à¸ļ à¸«à¸¡
à¸§à¸¢ à¸£
à¸¢à¸Ļ à¹Ħà¸¡
Ġ1 20
à¸¡à¸² à¹Ģà¸ģ
Ġà¹ĥà¸Ļ à¸Ĥà¸ĵà¸°à¸Ĺ
à¸²à¸§ à¸«à¸Ļ
Ġà¹Ģà¸£ à¸²à¸ŀ
à¸Ľà¸£à¸° à¸¡à¸²à¸Ļ
à¸Ńà¸ĩ à¸Ĭà¸²à¸¢
à¹ĥà¸Ļ à¸¢
i y
à¸²à¸ļ à¸¥
âĢ ĵ
à¸²à¸Ńà¸°à¹Ħà¸£ à¹Ħà¸¡
à¸Ń à¹Ģà¸ķ
à¸§à¸¢ à¹Ģà¸£
à¸²à¹Ģà¸£à¸² à¹Ģà¸Ľ
à¸² à¹Ģà¸ĺ
à¸²à¸Ļ à¸Ľ
à¹Ħà¸«à¸Ļ à¹Ħà¸Ķ
à¸¤ à¸«
à¸ª à¸Ńà¸Ļ
Ġm ar
à¸ķà¸²à¸¡ à¸Ľà¸ģà¸ķ
e ar
à¹Į "
à¸ĩ à¸¥à¸°
à¸Ľ à¸łà¸²à¸ŀ
à¸ĺ à¸¢
à¸²à¸¢ à¸Ĭ
am e
à¹Ģà¸Ĥ à¸²à¹Ħà¸Ľ
Ġà¹Ĥ à¸ĭ
à¸²à¸ĩà¸²à¸Ļ à¸ķ
à¸Ĥà¸Ń à¸ĸà¸²à¸¡
à¸¢à¸Ķ à¸¡à¸²à¸ģ
à¸Ńà¸¢ à¹Ģà¸Ľ
à¸Ńà¸¢à¸²à¸ģ à¹Ģà¸£
à¸¤à¸©à¸ł à¸²à¸Ħà¸¡
à¸²à¸Īà¸° à¹ĥà¸Ĭ
à¸Ńà¸ĩ à¹ĥà¸ª
à¸ĩà¹Ħà¸ĩ à¹ĥà¸«
Ġà¸Ħà¸£ à¸²à¸§à¸Ļ
à¸Īà¸° à¹Ģà¸Ľà¸¥
à¸¢ à¸¨
4 7
à¸ģà¸Ĺ à¸²à¸¢
Ġà¸ļà¸²à¸Ĺ à¸Ħ
à¸¢à¸ĩ à¸ķ
à¸£à¸ļà¸ģà¸§à¸Ļ à¸ªà¸Ńà¸ļà¸ĸà¸²à¸¡
.... ...
à¸Ħ à¸ª
à¸²à¹Ģà¸£ à¸²à¸¡
à¸¢ à¹Ĩ
à¸Ĥà¸²à¸¢ à¸Ĺ
y s
à¸ļ à¸Ħà¸£à¸Ńà¸ļà¸Ħà¸£
Ġe p
Ġà¹ĥà¸Ħà¸£ à¸Ĺ
à¸£à¸²à¸©à¸İ à¸£
à¸² à¹Ģà¸«à¸¥
à¸ªà¸§à¸¢ à¹Ĩ
3 1
Ġà¹Ģà¸£ à¸²à¹Ħà¸Ķ
Ġc r
Ġc he
à¸§à¸¡ à¸¡
à¸§à¸¡ à¸Ĺ
à¸ĩà¸Īà¸° à¹Ħà¸Ķ
à¹Ģà¸¢ à¸²à¸§
Ġà¸£à¸ļà¸ģà¸§à¸Ļ à¸Ķ
à¸ŀ à¸ļà¸ģ
à¸£à¸ĸ à¸Ĺ
à¸Ħ à¸ķ
à¸Ķà¸« à¸ĩ
Ġon line
à¸¸ à¹ĭ
à¹ģà¸Ĺ à¸ļà¹Ħà¸¡
Ġà¹ĥà¸Ļ à¸Ĺ
à¸Ĵà¸Ļ à¸ĺà¸£à¸£à¸¡
à¹Ģà¸ļ à¸²à¹Ĩ
à¸ļ à¸²à¸ĩà¸Ħà¸£
Ġà¸Ħ à¸²à¸Ķ
à¸Ńà¸Ļ à¸ģà¸§
à¸ģ à¸²à¸¢à¸Ļ
à¸Ľà¸£à¸°à¹Ģà¸Ĺà¸¨ à¸Ń
à¸²à¸ĵ à¸²à¸Ī
à¹ĥà¸Ļ à¸«à¸Ļ
à¸ĩà¸²à¸Ļ à¸ģ
à¹ģà¸£à¸ģ à¸Ĥà¸Ńà¸ĩ
à¸Ńà¸¢ à¸Ļà¸°à¸Ħ
à¸Ńà¸ĩ à¸Ńà¸Ńà¸ģ
Ġa f
à¸Ńà¸ģ à¸ª
b l
à¸Ńà¸ķ à¸Ńà¸Ļ
à¸²à¸£ à¸ģ
à¸Ńà¸¢à¸²à¸ģ à¹Ħà¸Ľ
à¸Ńà¸°à¹Ħà¸£ à¸Ħà¸£
à¸ģ à¹Ģà¸ĩ
à¹Ĥà¸ģ à¸«
à¸Ń à¹Ģà¸£à¸²à¸ģ
à¹Ģà¸Ħà¸¢ à¸Ķ
à¸ª à¸Ĭà¸²à¸ķ
à¸§à¸ĩ à¸ª
à¸Ļ à¸£à¸°à¸¢à¸°
Ġà¹Ħà¸Ľ à¸ģ
à¸ģ à¹Ģà¸¡
i an
Ġpl us
à¸§à¸Ļ à¸Ħ
à¸§ à¸Ļà¸°à¸Ħà¸°
à¸²à¸ĩ à¹Ħà¸Ķ
à¸Ļà¹Ħà¸Ľ à¸Ķ
à¸²à¸Ļ à¸Ĺà¸²à¸ĩ
à¸ĵ à¸¡à¸²à¸ģ
à¸ªà¸ļà¸²à¸¢ à¹ĥà¸Ī
à¹ģà¸ļ à¸ĩà¸Ħ
à¸²à¹ģ à¸Ļ
Ġpl ay
à¹Ĥà¸¥ à¹Ģà¸¡à¸ķà¸£
à¹ģà¸¥à¸° à¸ĭ
à¸ª à¹Ģà¸ķà¸Ńà¸£
à¸¹ à¹ĭ
Ġà¸ģ à¸¡
à¸¡à¸Ńà¸ĩ à¸§
Ġ201 3
à¸§ à¹Ĥà¸¥à¸ģ
à¹Ĥà¸ļ à¸£à¸²à¸ĵ
à¸« à¸²à¸Ħ
à¸Ńà¸¡ à¹ģà¸ĭ
à¸²à¸ĩ à¸«à¸£
Ġà¸Ī à¸Ļà¸§
à¹Ģà¸ĭ à¸¥
à¸¡ à¸¡à¸²à¸ģ
à¸ĩà¹Ģà¸Ĺà¸ŀ à¸¡à¸«à¸²à¸Ļà¸Ħà¸£
à¸Ń à¸Ħà¸Ļà¸Ĺ
à¸ģà¸²à¸£ à¸¢
à¹Ģà¸£à¸² à¹Ģà¸Ĥ
Ġà¸£à¸ļà¸ģà¸§à¸Ļ à¸Ĭ
à¹ĥà¸Ļ à¸£à¸°à¸Ķ
à¸Ńà¸Ń à¸²à¸Ī
à¹Ģà¸Ł à¸Ńà¸£
à¸Ĭà¸Ńà¸ļ à¸ģ
à¸Ķ à¹Ģà¸ķ
à¸²à¸Īà¸° à¹Ģà¸¥
à¸ļà¸ģà¸²à¸£ à¸Ĺ
à¸Ļà¸¡à¸² à¹Ħà¸Ķ
à¸²à¸ª à¸£
à¸ªà¸£ à¸£à¸ŀ
à¸Ħ à¸²à¸£
Ġ à¹Ģà¸Ńà¸ĩ
Ġà¸ĸ à¸Ļà¸Ļ
Ġsh op
à¸Ķ à¹ģà¸ļà¸ļ
à¸° à¹Ĩ
Ġà¸ĸà¸²à¸¡ à¸§
à¸Ļ à¹ģà¸Łà¸Ļà¸ģ
à¸Ļà¸²à¸¡ à¸ļ
Ġ à¸§à¸ĩ
ĠĠĠĠĠĠĠĠĠĠĠĠĠĠĠĠ ĠĠĠĠĠĠĠĠĠĠĠĠĠĠĠĠ
à¸¢à¸ĩ à¹Ħà¸¡
à¸Ħà¸§à¸²à¸¡ à¸Ī
à¹Ĥà¸Ľà¸£ à¸Ķ
Ġà¹ĥà¸Ļ à¸ª
à¸Ńà¸ĩà¸ª à¸²à¸¡
Ġà¸ģ à¸²à¸ĩà¹Ģà¸ģ
à¸ĩà¸ĩà¸²à¸Ļ à¸ģ
à¸Ļà¸¡ à¸²à¸§
à¹ģ à¸Ńà¸Ľ
à¸ķ à¸¥
à¸Ĥà¸Ńà¸ĩ à¸¥
Ġà¹Ģà¸£ à¸²à¸Ļ
à¸§à¸¢ à¸Ļà¸°à¸Ħ
Ġ3 4
à¸Ĥà¸Ńà¸ĩ à¸Ń
à¸ķ à¹Ģà¸ķà¸Ńà¸£
à¸ĩ à¹ĥà¸ª
à¸Ńà¸ĩ à¹ģà¸¥à¸°
à¸Ńà¸ĩ à¸Īà¸£
od e
à¸£à¸£ à¸Ħ
v ice
à¸²à¹Ħà¸Ľ à¸ª
Ġà¹Ģà¸ŀà¸£à¸²à¸° à¹Ģà¸Ľ
à¸Ńà¸¡ à¸Ķ
8 9
à¸ģ à¸¡à¸²
à¸²à¹Ģà¸£ à¸²à¸Ĺ
à¸ģ à¹Ħà¸§
à¸Ĥà¸Ń à¸§
à¸ķà¸ļà¸Ńà¸¥ à¸Ń
à¸«à¸²à¸£ à¸Ī
c he
à¸¢à¸Ļ à¹ģà¸¥
à¸²à¸« à¸¡à¸Ķ
à¸ģà¸Ħà¸Ļ à¸Ļ
à¸²à¸¢ à¸ģà¸²à¸£
à¸Ń à¹Ģà¸¥à¸¢à¸Ħ
à¸§à¹Ģà¸Ńà¸ĩ à¸§
à¸¢à¸ļ à¹Ĩ
à¸Ļà¹ģ à¸«
à¸Ļ à¹Ģà¸Ľà¸¥
à¸Ńà¸¢ à¸Ń
à¹Ģà¸ģ à¸ĵà¸ĳ
à¸Ļà¹ģ à¸Ķà¸Ķ
Ġ ----
à¸§à¸Ļ à¸ģ
av el
à¸¢ à¹Ģà¸Ķ
Ġ201 6
à¸£à¸ĸ à¹Ħà¸Łà¸Ł
Ġ4 5
Ġà¹Ģà¸¢ à¸Ńà¸°
à¸Ļà¸Ĥà¸Ńà¸ĩ à¸ķ
à¸¢à¸Ļ à¹ĥà¸«
Ġà¸ľ à¸Ĭ
à¸²à¸¡à¸² à¹ĥà¸Ĭ
Ġà¸¡ à¸²à¸ķ
Ġapp le
à¸Ļà¸¡à¸²à¸ģ à¸ģà¸§
à¸ļ à¹Ģà¸ļ
à¸¡à¸²à¸ģ à¸ģ
à¸²à¸« à¸į
à¸² à¹Ģà¸Ĥà¸²
Ġà¹Ģà¸ ¨
à¹Ģà¸Ĥ à¸²à¹Ģà¸Ľ
à¸ŀ à¸¤à¸ķ
à¸²à¸ĩ à¸Ħà¸§à¸²à¸¡
à¸²à¸ĩ à¸Ħà¸Ļ
Ġc ar
or ld
à¸Ļà¸Ħà¸Ļ à¸Ķ
à¸²à¹Ģà¸ª à¸Ļà¸Ń
à¸¥à¸Ľ à¸°
à¹Ĥ à¸Ńà¸¥
à¸¥ à¹Ģà¸¥
or y
à¸§ à¸ľà¸¡à¸ģ
Ġs y
Ġs o
à¸²à¸Ħ à¸Ļà¸Ļ
Ġ à¸¥à¸°à¸Ħà¸£
à¸²à¸Ķ à¹Ģà¸Ī
à¸²à¸§ à¸Ń
à¸¢à¸ĩ à¸Ļ
à¸Ķ à¸«à¸¥
Ġre s
à¸Ńà¸ĩ à¹Ħà¸§
à¸ĩà¸ĩ à¸ĩà¸ĩ
à¸Ļ à¸Ħà¸§à¸²à¸¡à¸£
à¸Ńà¸Ļ à¹Ģà¸Ħ
à¸¡ à¸«à¸£
à¸ķ à¹Ħà¸¡
à¹ģà¸ª à¸ĩ
à¸¡à¸²à¸ļ à¸Ńà¸ģà¸§
à¸Ļà¸ª à¸²à¸¢
à¸¢à¸Ļ à¸Ī
à¸² à¹ģà¸£
à¸²à¸§ à¸ĸ
à¸ª à¸ļ
-------------------------------- ----------------
Ġà¹Ĥà¸Ĺà¸£ à¸¨
à¸ģà¹Ĩ à¸Ĺ
à¸ķ à¹Ħà¸Ķ
à¸²à¸ģà¸²à¸£ à¸Ĺ
à¹ģà¸ĸ à¸§à¸Ļ
à¹Ħà¸Ĥ à¸¡
à¸ĸ à¸²à¸ļ
à¸ªà¸§à¸¢ à¸ĩà¸²à¸¡
à¹Ħà¸Ľà¸£ à¸©à¸ĵ
à¸ĵ à¸¢
à¸Ńà¸ªà¹Ģà¸ķà¸£ à¹Ģà¸¥
à¸²à¸ĩ à¸«à¸²à¸ģ
Ġt op
Ġcan on
i er
à¸²à¸Ĭ à¸Ļà¸°
à¹Ħà¸Ľ à¸Ĭ
Ġà¸£à¸²à¸Ħ à¸²à¹Ħà¸¡
à¸£à¸Ńà¸ļ à¸Ĥ
à¸²à¸ĩ à¸ĭ
à¸ĩ à¹ģà¸£à¸ģà¸Ĺ
v o
à¹Ģà¸Ĥ à¸²à¸Īà¸°
à¸Ļ à¸ļà¸Ļ
à¹Ģà¸Ĥ à¸²à¸£
à¸²à¸ĩ à¹Ħà¸«à¸¡
8 00
à¸Ķ à¸Īà¸°
Ġà¹ģà¸¥à¸° à¸§
p h
à¸ķà¸ªà¸²à¸« à¸ģà¸£à¸£à¸¡
Ġà¹Ģà¸¡à¸© à¸²à¸¢à¸Ļ
++ +
à¸²à¸ĩ à¹ģà¸ķ
à¸Ńà¸Ļ à¸«
b ec
à¸Īà¸²à¸ģ à¸Ļ
à¸¤ à¸ģà¸©
à¸įà¸« à¸²à¸Ļ
à¸° à¹Ģà¸ŀ
Ġ>> >
à¸²à¸ĺà¸£à¸£à¸¡ à¹Ģà¸Ļ
Ġ à¸łà¸²à¸©
à¸ĩ à¸Ľà¸¥
Ġp ower
à¸Ńà¸¢ à¸¢
à¸Ļ à¸«à¸¥à¸²à¸¢
à¸§ à¹ģà¸¡
Ġà¸¡ à¸²à¸Ĺ
l l
à¸Ńà¸ĩ à¹Ģà¸ĩ
à¸ģ à¹ĥà¸Ĭ
à¹Ģà¸Ħà¸¢ à¹Ģà¸Īà¸Ń
à¸§ à¹ĥà¸«à¸¡
à¸ķà¸¥à¸Ńà¸Ķ à¹Ģà¸§à¸¥à¸²
Ġinter net
à¹ĥà¸Ī à¸¡à¸²à¸ģ
à¸² à¹Ģà¸¢
l and
à¸Ļ à¸¥à¸°à¸Ħà¸£
à¹Ĥà¸Ħ à¸ķà¸£
Ġm ir
à¸¢à¸§ à¸ª
à¸¢à¸Ļ à¸«à¸Ļ
à¹Ħà¸«à¸Ļ à¸Ħà¸°
à¹ī "
Ġà¹Ħà¸Ľ à¸Ķ
ad a
Ġa m
ã Ĥ
à¸§ à¹Ģà¸Ĺ
à¹Ģà¸£à¸² à¹ĥà¸Ĭ
4 00
à¸Ī à¸ª
Ġà¸Ľà¸£à¸° à¹Ģà¸Ķ
à¸²à¸£à¸²à¸Ĭ à¸ģà¸²à¸£
à¸¥à¸° à¸Ĺ
à¸Ħà¸§à¸²à¸¡ à¸Ļ
à¸Ńà¸ĩ à¹ģà¸ģ
à¹ģà¸ļà¸ļ à¸§
à¸ķ à¸ĭ
à¸ªà¸²à¸§ à¹Ĩ
à¸² à¹Ģà¸ĺà¸Ń
Ġà¹ģà¸¥à¸° à¸ŀ
Ġmin i
à¸ķ à¸Ĭ
oc ial
à¸ĩ à¸ļà¸Ńà¸ģ
à¸Ńà¸£ à¸²à¸Ħ
à¹ī ,"
Ġand roid
. "
à¸ļ à¹ģà¸¥à¸°
à¸Ķà¸Ĥ à¸²à¸Ķ
à¸ģà¸£à¸°à¸ļ à¸°
p op
à¹Ħà¸Ĺà¸¢ à¸Ĺ
à¸Ĭ à¸¡à¸Ľ
à¸ķà¸Ńà¸ļ à¸ģà¸¥
à¸Ķ à¸ľà¸¡
à¸Ńà¸¢à¸²à¸ģ à¹Ģà¸¥
à¹ģ à¸Ńà¸Ļ
à¸Ńà¹Ħà¸Ľ à¸Ļ
m l
à¸ģà¸²à¸£ à¸Īà¸£à¸²à¸Īà¸£
à¸ģ à¹Ģà¸Ĭ
Ġà¹ĥà¸Ļ à¹Ģà¸¡
h onda
à¸²à¸ĩ à¹ģà¸ľ
à¸²à¸ĩ à¹Ģà¸ķ
à¸Ļ à¸łà¸²à¸©
Ġà¹ģà¸¥à¸° à¸Ĭ
à¸Ńà¸ĩ à¸«à¸£
à¸Ńà¸¢à¸²à¸ģ à¸Ķ
à¸Ķà¸£ à¸²à¸¡
à¸Ńà¸Ļ à¹Ģà¸ŀ
Ġà¸ŀ à¸Ńà¸ĸ
à¸§ à¸²
à¸Ńà¸¢ à¸Ļà¸°
à¸²à¸ĩ à¸łà¸²à¸ŀ
à¸Ļ à¸¡à¸²à¸ģà¹Ĩ
à¸Ķ à¸¥à¸ĩ
Ġà¸Ľà¸£à¸° à¸ķ
à¸Ńà¸¡ à¸Ļ
à¸²à¸¢à¸Ļ à¸Ńà¸ģ
at t
à¸£à¸²à¸Ħ à¸²à¹Ħà¸¡
à¸«à¸¥à¸²à¸¢à¹Ĩ à¸Ħà¸Ļ
à¸Ĳ à¸Ńà¹Ģà¸¡à¸£
à¸²à¸¡ à¸ģ
Ġn ik
à¸¡ à¹Ģà¸Ĺ
à¸ķ à¹ĥà¸Ļà¸ķ
à¸Ńà¸¢à¸²à¸ģ à¸Ħ
Ġà¸Ńà¸¢à¸²à¸ģ à¸Ĺà¸£à¸²à¸ļ
Ġà¸ª à¸ĸà¸²à¸Ļà¸Ĺ
à¹Ģà¸Ĥ à¸²à¸§
Ġà¹Ĥà¸£ à¸ĩà¹ģà¸£
à¸Ń à¸Ńà¸Ļ
Ġ1 000
à¹Ģà¸Ħ à¸¡
à¸ŀà¸Ńà¸Ĺ à¸£à¸²à¸ļ
à¸§à¸¢ à¹Ĩ
an n
à¸Ĥà¸Ńà¸ĩ à¹ĥà¸«à¸¡
à¸²à¹Ģà¸ģ à¸¥
à¸¢ à¸Ńà¸ĩ
à¸ĭ à¸Ńà¸¢
à¸Ķ à¹Ģà¸«à¸¡
à¸²à¸Ľà¸£à¸° à¹Ģà¸Ĺà¸¨
à¸²à¹ģ à¸Łà¸Ļ
Ġà¸£à¸²à¸Ħà¸² à¹Ģà¸ķ
t c
à¸ģ à¹Ģà¸Ħà¸£
icro s
à¸ŀ à¸¡
à¹ ĳ
à¸£à¸²à¸Ħ à¸²à¸ĸ
bo x
Ġs w
à¸Ļà¸ª à¸Ļ
à¸Ļà¸²à¸¢ à¸«à¸Ļ
à¸Ńà¸Ľ à¸Ľ
à¸ļ à¹Ģà¸Ĭ
Ġà¸« à¸į
à¸²à¸ĩ à¹Ħà¸«à¸¡à¸Ħà¸£
à¸ĩ à¸©
b ook
à¸²à¸Ĭ à¸²à¸ķ
à¸Ķ à¸Īà¸£
Ġf a
à¸ģ à¸Īà¸£
à¸ĩà¸ģà¸£ à¸²à¸Ļà¸ķ
ã ĥ
Ġ ----------------
Ġ19 9
à¸Ļà¸Ĺà¸²à¸ĩ à¸Īà¸²à¸ģ
Ġ201 5
à¸Ħ à¸ĩà¸Īà¸°
à¸²à¸Ļ à¸«
Ġà¹Ģà¸ģ à¸£
à¸Ĺ à¸Ĭ
à¹Ģà¸§à¸¥ à¸²à¹Ħà¸Ľ
a ve
à¸Ĵà¸Ļ à¸²
à¸²à¸Ļ à¹Ģà¸ģ
à¸ĩ à¸¢à¸²à¸ģ
Ġo ut
à¸Ļ à¹Ģà¸ŀà¸¥à¸ĩ
ul l
Ġà¹Ģà¸¥à¸¢ à¸Ńà¸¢à¸²à¸ģà¸Īà¸°
à¸Ļ à¸ļà¸Ńà¸ģà¸§
à¹ģà¸£à¸ģ à¹Ĩ
à¸ł à¸²à¸§à¸°
Ġ à¸Ħà¸§à¸²à¸¡à¸ª
à¹Ħà¸Ľ à¸¡
i q
Ġà¸ª à¸ķ
à¸ģà¸© à¸²à¸Ĺ
à¸²à¸¡ à¸²à¸ķ
à¸ĩ à¸¥à¸ĩ
à¸Ħ à¸¡
Ġ ........
à¸Ķ à¸Ńà¸ģ
à¸¡à¸² à¹ģà¸Ĭà¸£
à¸«à¸Ļ à¸²à¸§
u ch
à¸ģà¸£ à¸Ńà¸ģ
Ġà¸Ħ à¸ĩà¹Ħà¸¡
Ġà¸ķ à¸¥à¸²à¸Ķ
à¸µà¹Ī ,
Ġà¹Ģà¸§à¸¥ à¸²à¸Ĺ
in a
à¹ĥ à¸Ķà¸Ĺ
Ġà¸Ńà¸²à¸Ī à¸Īà¸°
à¹Ħà¸Ľ à¹Ģà¸Ľ
Ġs s
à¹Ģà¸Ĥ à¸²à¸ķ
Ġb ts
à¸ĩ à¸Ļà¸°à¸Ħà¸°
Ġi os
à¸° à¸£
à¸ªà¸Ńà¸ļà¸ĸà¸²à¸¡ à¸§
at h
à¹Ģà¸Ńà¸ĩ à¸Ĺ
à¸£à¸ļà¸ģà¸§à¸Ļ à¸Ĭ
à¸²à¸£ à¸²
Ġ0 9
Ġâ Ļ
à¸Ļà¸²à¸Ļ à¹Ĩ
Ġs im
à¸Ħ à¸ļ
Ġà¹ģà¸ĸ à¸¡à¸¢
à¸ĵ à¸ľ
Ġl a
Ġà¹Ģà¸Ĥ à¸²à¹Ħà¸¡
à¸²à¸¢ à¸Ľ
am p
à¸ģà¸Ĺ à¸¡
à¸Ķ à¹Ģà¸ľ
à¸¢ à¹Ģà¸Ľ
à¸²à¸ĸà¸²à¸¡ à¸§
à¸įà¸« à¸²à¸§
t v
à¸§ à¸Ħà¸°
à¸§à¸ļà¸£ à¸§à¸¡
à¸Ľà¸£à¸°à¸ª à¸ļà¸Ħà¸§à¸²à¸¡à¸ª
Ġà¹ģà¸¥à¸° à¸ģà¸²à¸£
à¸¡à¸²à¸ ľ
à¸²à¸Ļ à¹Ģà¸ŀ
à¸ļà¸²à¸ĩ à¸ª
à¹ģà¸«à¸¥ à¸°à¸Ħà¸£
p r
à¸ģà¸Ħà¸Ļ à¸¡
à¸ĩ à¸Ĭà¸Ńà¸ļ
à¸¢à¸§ à¸¡
à¸²à¸Ń à¸Ńà¸ģà¸Īà¸²à¸ģ
à¸ģ à¸Ļà¸°
à¸²à¸Īà¸° à¹Ģà¸£
u g
à¸Ļ à¹Ģà¸ªà¸£
à¸Ńà¸Ļ à¸Ļà¸°à¸Ħà¸°
à¸Ĺà¸£ à¸ĩà¸Ī
à¸Ļ à¸ļà¸Ńà¸ģ
Ġà¸Īà¸° à¸Ķ
Ġp c
à¸²à¸ķ à¸²
à¸¥ à¸Ńà¸¢
à¸ļà¸£à¸£ à¸Ĺ
Ġà¸Īà¸° à¹ĥà¸«
à¸¢ à¸«à¸Ļ
à¸¢ à¹ĥà¸Ļ
à¸ĩ à¸ŀà¸£à¸°
à¸Ļà¸Ħ à¸ĩ
à¸Ļà¸ª à¸²à¸¡à¸²à¸£à¸ĸ
Ġà¸¢à¸ģ à¹Ģà¸§
à¸²à¸Ĥà¸Ńà¸ĩ à¸ģà¸£à¸°à¸Ĺ
à¸²à¸ĩ à¹ĥà¸Ķ
à¸¥à¸¢ à¸ģà¸£à¸£à¸¡
à¸Ļ à¸®
à¸ĺ à¸²à¸ķ
à¸§à¸ĩ à¸Īà¸£
it ed
à¸ģ à¹Ħà¸«à¸¡
à¹Ģà¸§à¸¥ à¸²à¸ģ
Ġà¸ģ à¸£à¸ģ
Ġi g
à¹ģà¸Łà¸Ļ à¹ģà¸¥
à¸ĩà¸ª à¸²à¸¡
à¸² à¹ĥà¸ļ
à¸ĩ à¸Ĥà¸²à¸¢
à¸§à¸ĩ à¸ģà¸²à¸£
à¸Ħà¸Ļ à¸ª
à¸Ń à¸Ľà¸£à¸°à¸¡à¸²à¸ĵ
à¸ģ à¸İ
à¸Ńà¸¢ à¸¥à¸°
à¸¢ à¹ĥà¸«
à¸²à¸ª à¸²à¸¡
Ġnet work
à¸ľà¸¡ à¸Ļ
à¸²à¸Īà¸° à¸ĸ
à¸Ķ à¸Ńà¸ģà¹Ħà¸¡
à¹Ģà¸§ à¸Ľ
g mail
à¸ĩ à¹Ħà¸«à¸¡
Ġà¹Ģà¸Ĥ à¸²à¸ļà¸Ńà¸ģà¸§
à¸ļ à¸ľà¸¥
à¸² à¹Ħà¸Ł
as on
e i
à¹ģà¸Ńà¸Ķ à¸¡
à¸§ à¸²à¸¢
à¸²à¸Ļ à¹Ģà¸¥à¸¢
à¸ľà¸¡ à¸Īà¸°
à¸ģà¸¥ à¸ĩà¸Ĺ
à¸²à¹ģ à¸Ĭà¸£
à¸Ī à¸¡
à¸ģ à¸Īà¸²à¸ģ
us t
ou ch
à¸ª à¸ĭ
à¸ĩà¸ª à¸¡
à¸ª à¹Ħà¸ķà¸¥
Ġa g
à¸² à¹Ħà¸«à¸¡
à¸į à¸Ħ
Ġà¹ģà¸ļà¸ļ à¸§
v el
Ġ^^ "
à¸Ļà¹ģ à¸ŀ
à¸Ļà¸£ à¸§à¸¡
à¸Ńà¸Ļ à¸Ľ
à¸²à¸Īà¸° à¹Ģà¸ģ
à¸ļ à¸Ľà¸£à¸°
à¸«à¸¡à¸Ķ à¹Ģà¸¥à¸¢
u ji
à¸Ĺà¸²à¸ĩ à¸£
à¸ķà¸Ńà¸ļ à¸§
à¸Ļà¸¢ à¸²à¸§
à¸ģà¸²à¸£ à¹Ģà¸Ľà¸¥
7 9
à¸ĵ à¹Ģà¸Ľ
à¸²à¹Ħà¸¡ à¸¡
à¸²à¹Ħà¸Ľ à¸Ń
à¸¡ à¹ĥà¸Ļ
à¸Ńà¸Ļ à¸«à¸£
Ġ? ,
à¹Ĥà¸Ńà¸ģ à¸²à¸¨
à¸Ĺà¸£ à¸²à¸¢
à¸Ļà¸ļ à¸²à¸Ĺ
à¸Ķ à¹ģà¸Ħ
Ġà¸Ĥ à¸Ńà¸Ń
à¸£ à¸ģà¸£à¸£à¸¡
à¸« à¸Ńà¸¡
ig n
à¸Īà¸° à¹Ģà¸«
à¸´ à¹ĭ
à¸Ħà¸§à¸²à¸¡ à¹Ģà¸ª
Ġà¸ķà¸£ à¸§à¸Ī
à¸§à¸¢ à¹Ģà¸«à¸ķ
à¸Ńà¸ĩ à¸¡à¸²à¸ģ
à¸² à¹Ħà¸Ĺà¸¢
à¸§ à¸Ļà¸°à¸Ħà¸£
à¸²à¸¡ à¹Ģà¸Ļ
à¹Ħ à¸Ńà¸Ķ
Ġw eb
à¸Ń à¸Īà¸£
à¹ģ à¸Ĺà¸£
6 8
à¸ļ à¹Ħà¸Ľà¸Ĺ
à¹Ģà¸Ħà¸¢ à¸ķ
à¸ģà¸²à¸£ à¸ĭ
à¸§à¸ĩ à¹Ģà¸Ķ
à¸Ńà¸Ļ à¹Ģà¸¥
à¸ļ à¹Ģà¸ĺà¸Ń
à¸Ńà¸Ļ à¹ģà¸ķ
à¸²à¸§ à¸¡
à¹Ħà¸Ľ à¹Ģà¸¥
à¸²à¸Īà¸° à¸ª
à¸¥ à¸Ĭ
à¹Ģà¹Ģ à¸Ļà¸°à¸Ļ
à¸Ľà¸£à¸° à¹Ģà¸¡
à¸Ńà¸ļ à¸ª
à¸ļà¹ģà¸Łà¸Ļ à¹Ģà¸ģ
à¸ģà¸²à¸£ à¸ķà¸¥à¸²à¸Ķ
à¹Ĥà¸Ĩà¸©à¸ĵ à¸²
à¸ŀ à¸²à¸£
Ġà¸Ń à¸²à¸£
à¸Īà¸° à¸Ńà¸Ńà¸ģ
Ġà¹Ģà¸ĺ à¸Ń
à¸²à¸¡à¸²à¸ģ à¸ģà¸§
à¹Ħà¸Ľ à¸ļ
**************** ****************
à¸Ļ à¸ľà¸¡à¸ģ
à¸ŀà¸£ à¸£à¸ĵ
à¹Ģà¸£à¸² à¹Ģà¸«
à¹Ģà¸Ĥ à¸²à¹Ħà¸Ķ
à¹ĥà¸Ħà¸£ à¸ģ
Ġm as
à¸ģ à¹Ģà¸ī
à¸²à¸Ľà¸£à¸° à¸Ĭ
à¸Ļà¸¡ à¸²à¸Ļ
à¸Ńà¸Ļ à¸¡à¸²à¸ģ
Ġà¸Ħà¸£ à¸Ńà¸ļà¸Ħà¸£
à¸Ńà¸ĩ à¸Ħà¸Ļà¸Ļ
à¸ł à¸£à¸£à¸¢
à¹Ģà¸§à¸¥à¸² à¹Ģà¸Ķ
à¸²à¹ģ à¸Ī
à¸§à¹Ģà¸Ńà¸ĩ à¸ģ
en s
++++++++++++++++ ++++++++++++++++
Ġà¸Īà¸° à¸£
Ġtr avel
à¸Ńà¸Ļ à¸Ħà¸Ļ
Ġà¸ī à¸²à¸ģ
à¹Ģà¸§à¸¥ à¸²à¸¡
à¸ľà¸¡ à¸Ī
Ġà¹Ģà¹Ģà¸¥ à¸°
à¸Ļà¸Īà¸° à¹Ħà¸¡
à¸Ľ à¸¡
à¸Ń à¸Ħà¸¥
à¸Ńà¸ģ à¸£
Ġà¸ģ à¸ªà¸Ĺ
à¸Ļà¹Ħ à¸ŀà¸£
à¹ģà¸ļà¸ļ à¸ķ
Ġà¸Ĥ à¸§à¸ļ
icros oft
Ġà¸¡ à¸Ńà¹Ģà¸ķà¸Ńà¸£
à¸ĺ à¸¢à¸²
à¸Ńà¸ĩà¸ģà¸²à¸£ à¸Ĺ
à¸ĩà¹ĥà¸Ī à¹ĥà¸«
à¸ĩ à¹ģà¸£à¸ĩ
à¸¡ à¹Ģà¸ģ
à¸²à¸§ à¸ªà¸²à¸£
vi ew
un t
om e
à¸¡ à¹ĥà¸«à¸¡
à¸ĩ à¹Ģà¸§
ul t
Ġt ot
à¸¢à¸§ à¸§
s c
à¸Ļà¸ª à¸¡à¸²à¸Ĭ
à¸ģà¸© à¸²à¸ķ
à¸¡à¸²à¸ķà¸£ à¸Ĳà¸²à¸Ļ
à¸Ī à¸Ńà¸¡
Ġf an
à¹Ħà¸Ľ à¹Ħà¸¡
à¹Ħ à¸ª
à¸¢ à¸§à¸¢
à¸£à¸²à¸¢ à¸Ĭ
à¹Ģà¸Ł à¸ĭ
à¸£ à¸²
Ġp h
à¸¨ à¸ŀ
_ ^
à¸Ļà¸ª à¸²à¸¡
à¸Ħà¸Ļ à¹Ģà¸Ĥ
ak a
à¸µà¹ī "
à¸ªà¸ĸà¸²à¸Ļ à¸ģà¸²à¸£à¸ĵ
à¸ļ à¹Ģà¸Ń
à¸ŀ à¸²à¹Ħà¸Ľ
Ġw al
Ġà¸ŀ à¸¤à¸¨à¸Ī
à¸ª à¸ĩà¸Ħà¸£à¸²à¸¡
à¸ĩà¸²à¸Ļ à¸Ĥà¸²à¸¢
à¸²à¸ĩ à¹Ģà¸¥à¸¢
à¸²à¸¡ à¸²à¸Ħ
7 8
à¸ī à¸°à¸Ļ
à¸Ļà¸Ħà¸Ļ à¹Ħà¸¡
à¸Ķà¸Ńà¸°à¹Ħà¸£ à¸Ĥ
à¸²à¹ĥà¸Ī à¸ģ
à¸Ń à¸Ħà¸§à¸²à¸¡à¸ª
à¸ªà¸ĩà¸ª à¸²à¸£
Ġà¸¡ à¸²à¸Īà¸²à¸ģ
à¹ĥà¸ļ à¸«à¸Ļ
Ġp er
à¸²à¸ĩà¸²à¸Ļ à¸Ķ
à¸ķà¸Ńà¸Ļ à¹Ģà¸Ĭ
ip ad
à¸²à¸¢ à¸¢
à¸Ĥà¸Ńà¸ĩ à¸ģ
à¸¡ à¹ģà¸¥à¸°
Ġal l
à¸ª à¹Ģà¸ķ
à¸° à¸°
à¸Ńà¸ļ à¸ķ
à¸²à¸Ļà¸§ à¸ĵ
Ġà¹ģà¸¥à¸° à¹Ģà¸¡
Ġà¹Ģà¸£ à¸²à¸ª
à¸Ĺà¸¢ à¸²à¸Ļ
à¹ģà¸ĸ à¸§à¹Ĩ
à¸² à¹Ģà¸¢à¸Ńà¸°
Ġw orld
à¹Ħ à¸ŀà¸£
à¸ĩ à¹Ĥà¸Ķà¸¢
i i
à¸Ń à¸«à¸²
à¸§ à¸ŀà¸Ń
Ġà¸ľà¸¡ à¸Ļ
à¸§ à¹Ħà¸«à¸Ļà¸Ķ
Ġà¸ªà¸Ļà¹ĥà¸Ī à¸ķ
p e
à¹ĥà¸Ļ à¸Ī
à¹Ģà¸£ à¸²à¸¥
à¸²à¸Ļ à¹ģà¸¥à¸°
à¸²à¸Īà¸° à¸Ħ
Ġ à¸ĩà¸ļ
Ġ201 7
à¸ģà¸ĩà¸²à¸Ļ à¸Ĺ
à¸¤à¸© à¸İ
Ġà¸Ľà¸£ à¸²à¸ģà¸İà¸§
à¸²à¸ĩ à¹Ħà¸§
à¸§ à¸ķà¸Ńà¸Ļà¸Ļ
à¹Ģà¸£ à¸²à¸ļ
à¸« à¸ĩ
à¸Ľ à¸ģà¸Ľ
à¸ĩ à¸£à¸ĸà¸¢à¸Ļà¸ķ
à¸²à¸¢ à¸Ńà¸¢
à¸Ńà¸²à¸Ī à¸Īà¸°à¹Ħà¸¡
à¸Ń à¹Ģà¸«
à¸£ à¸¢
à¸Ľ à¸ĸ
à¸ļ à¹Ħà¸Ĺà¸¢
à¸²à¹Ģà¸£ à¸²à¸ķ
à¹ģà¸Ļà¸§ à¸Ĺà¸²à¸ĩ
Ġ3 8
Ġ5 7
à¹Ħà¸Ń à¹Ĥà¸Łà¸Ļ
à¸§à¹Ģà¸Ńà¸ĩ à¹Ħà¸¡
à¸¡à¸² à¹Ħà¸¡
Ġv is
Ġr am
Ġà¸Ħà¸§à¸£ à¸Ĺ
à¸ļà¸¡à¸² à¹Ģà¸Ľ
' '
à¸Ńà¸Ń à¸Łà¸Ł
Ġà¸¡ à¸²à¸ĸ
à¸¤ à¸Ĺà¸ĺ
à¸ļ à¹Ģà¸Ĺ
à¸§à¸Ĥ à¸²à¸§
à¹Ħà¸¥ à¸Ħ
à¸´ ,
Ġà¹Ģà¸£ à¸²à¹Ģà¸£
à¸Ĥà¸Ńà¸ĩ à¸Ĭ
à¸ĩ à¹Ħà¸«à¸Ļ
Ġà¹ģà¸¥à¸° à¸ľ
à¸µà¹ī )
à¸ĩ à¸¨à¸£
à¸Ķ à¸Ľà¸£à¸°à¸ķ
à¸ģà¸£à¸° à¸Ĭ
Ġà¸ļà¸£à¸£ à¸¢à¸²à¸ģà¸²à¸¨
à¸ĩ à¹Ģà¸ŀà¸£à¸²à¸°
à¸Ńà¸ĩ à¹ģà¸ļà¸ļà¸Ļ
à¸ļ à¹Ģà¸ŀà¸£à¸²à¸°
à¸Ħà¹Ģà¸ģ à¸Ī
à¹Ģà¸¥à¸¢ à¸Ńà¸¢à¸²à¸ģ
Ġà¸ľà¸¡ à¸¢
Ġ5 8
à¹Ģà¸¥à¸¢ à¸Ļà¸°à¸Ħà¸£
i um
à¸ªà¸ĸ à¸²à¸ļ
à¸²à¸¡ à¸Ħ
Ġà¸Ń à¸²à¸£à¸¡à¸ĵ
à¸ĩ à¹Ģà¸Ľà¸¥
Ġà¸ŀà¸£à¸° à¹Ģà¸Ńà¸ģ
à¸Ļ à¹Ģà¸Ħà¸¢
à¸§à¸Ļ à¸ľà¸ªà¸¡
à¸²à¸ĩ à¹Ħà¸«à¸¡à¸Ħà¸°
à¸Ľ à¸Ńà¸£
à¸¢ à¹ģà¸¥à¸°
Ġ6 00
à¹ģà¸ļà¸ļ à¹Ģà¸Ķ
ct ion
à¸ĵ à¸Ļ
à¸ŀà¸²à¸ģ à¸©
Ġà¸Ķ à¸²à¸§
m y
à¸²à¹Ģà¸£ à¸²à¸Ħ
Ġà¸« à¸²à¸¢
à¹Ģà¹Ģà¸¥ à¸°
à¸Ńà¸ĩ à¹Ģà¸ķà¸£
Ġà¹ĥà¸Ļ à¸ģà¸²à¸£
à¸Ńà¸Ļ à¹Ģà¸Ĺ
à¸Īà¸° à¸Ń
à¸§à¸¢ à¸Ħà¸°
à¹Ģà¸Ĺà¸¨ à¸ģà¸²à¸¥
it ter
à¸Ľà¸¥ à¸Ńà¸¡
Ġà¸Ħà¸Ļ à¸Ń
à¸§à¸Ļ à¹Ģà¸£
5555 5
in al
à¸²à¸ĩ à¹Ģà¸ŀ
Ġà¹Ģà¸¨ à¸£
à¸Ńà¸¡ à¸£à¸ĸ
à¸Ļà¸¡ à¸²à¸ķ
à¸§ à¸¥à¸°
Ġà¸ŀà¸Ń à¸Īà¸°à¸¡
Ġ18 0
à¸¢à¸§ à¹Ħà¸¡
à¹ģà¸¥à¸° à¸ªà¸£
à¹Ģà¸£à¸²à¸Ħ à¸§à¸£
à¸Ħà¸Ńà¸Ļ à¹Ģà¸ª
à¸Ĥà¸Ńà¸ĩ à¹Ģà¸Ĥà¸²
à¸§à¸¢ à¸«à¸£
à¸ľà¸¡ à¹Ģà¸£
Ġà¸Ĥà¸Ń à¹Ĥà¸Ĺà¸©
g r
Ġd es
à¸ģ à¸¡à¸²à¸ģà¹Ĩ
à¸²à¸Ļ à¸ļà¸Ļ
à¸²à¸ģ à¸²à¸ģ
à¸Ļà¹ģ à¸Ķ
à¸ļà¸Ĺ à¸ļà¸²à¸Ĺ
à¸²à¹Ģà¸Ľ à¸£
à¸Ĥà¸²à¸Ķ à¸Ĺ
à¹Ĥà¸Ńà¸ģà¸²à¸ª à¸Ĺ
Ġà¹Ĥà¸¡ à¸ĩ
à¹Ħ à¸Ļà¹Ģà¸ķ
Ġ à¸£à¸°à¸Ķ
Ġà¸£à¸²à¸¢ à¸¥à¸°à¹Ģà¸Ń
Ġà¸Ľ à¸²à¸ģ
Ġp art
à¸Ļà¸Īà¸° à¸ķ
6 00
à¸² à¹Ĥà¸Ķ
à¸ªà¸²à¸£ à¸°
à¸¡à¸²à¸Ļ à¸²à¸Ļ
à¸ĵà¸« à¸ł
à¸Ńà¸Ļ à¹Ģà¸ª
Ġà¸ª à¸¡à¸¡
à¹ģà¸£ à¸ĩà¸ĩà¸²à¸Ļ
à¸Ń à¹Ħà¸Ĺà¸¢
à¸ľà¸¡ à¸ª
à¸Ńà¸ĩ à¸¥à¸ĩ
à¸ļ à¹Ģà¸Ľà¸¥
à¸Ńà¸ĩ à¹Ħà¸Ľà¸Ĺ
Ġà¸ī à¸ļ
à¸ļà¸£ à¸¡
Ġà¸Ľà¸£à¸°à¸¡à¸²à¸ĵ à¸Ļ
à¸§à¸ĩ à¸«à¸¥
à¸²à¹ģ à¸ĸ
à¸£à¸°à¸Ķ à¸²à¸©
Ġ à¹Ĥà¸Ķà¸Ļ
à¹ģà¸«à¸¥ à¸°à¸Ħ
Ġà¹Ĥ à¸Ńà¹Ģà¸Ħ
à¸²à¹ĥà¸Ī à¸ľ
à¸«à¸¥à¸²à¸¢ à¸Ńà¸¢
à¸²à¸¢ à¸¥
à¸¢ à¸²à¸ĩ
à¸£à¸²à¸Ĭ à¸ª
à¸Ļà¸¡ à¸²à¸£
à¸²à¹Ħ à¸«à¸¥
à¸¢à¸Ļ à¸Ń
à¹ģà¸ŀ à¸ĩà¸¡à¸²à¸ģ
à¸§ à¸Ĭà¸Ńà¸ļ
à¸²à¸Īà¸° à¹Ģà¸Ń
Ġà¹Ģà¸Ķ à¸£à¸ª
à¹Ģà¸ŀà¸¥à¸ĩ à¸Ļ
à¸Ļà¹Ĥ à¸¢à¸ļ
à¹Ģà¸Ńà¸ĩ à¸Ħ
à¸¢ à¹Ģà¸ģ
à¸¢à¸§ à¸ł
?? ,"
à¸Ńà¸ĩ à¹Ģà¸ķ
à¸ģ à¹Ģà¸ļ
ig h
à¹Ģà¸£ à¸²à¸ĸ
à¸ĩà¸£ à¸²à¸Ħ
en ce
à¹ģà¸¥ à¸ķ
Ġ5 9
à¸´ .
Ġà¸ŀ à¸¤à¸©à¸łà¸²à¸Ħà¸¡
Ġe y
à¹Ģà¸ŀ à¸Ĭà¸£
à¸Ĭ à¸Ĺ
Ġà¹Ģà¸ģ à¸²à¸°
à¸Ļ à¹Ģ
à¸Ńà¸¡ à¹Ģà¸¡
Ġm r
Ġex p
Ġà¸Īà¸° à¹Ħà¸Ľ
Ġà¸¡ à¸Ļ
à¸¢ à¸ĸ
Ġà¹Ģà¸£ à¸²à¹Ħà¸Ľ
6 2
à¹Ĥà¸Ī à¸Ĺà¸¢
à¸ªà¸¡ à¸²à¸Ħà¸¡
Ġmir ror
Ġà¸Ī à¸ļ
à¸ĩà¸Ĥ à¸Ļà¸²à¸Ķ
Ġc pu
Ġe mail
ic al
à¹Ģà¸ĺ à¸Ńà¸£
s er
à¸Ļ à¸ī
à¸²à¸ĩ à¹Ģà¸Ĥ
à¹Ģà¸Ńà¸² à¹ģà¸ķ
in ter
à¸§ à¹ĥà¸«à¸į
à¸ģ à¸ªà¸Ļ
à¹Ģà¸£ à¸²à¸Ĥ
à¸ķà¸²à¸¡ à¸¥
à¹Ģà¸¥à¸¢ à¸¡
à¸Ľà¸£à¸°à¸ª à¸²à¸Ĺ
en c
Ġà¸ľà¸¡ à¸Ĺ
Ġw ith
à¸§ à¹Ģà¸Ļ
à¸ģ à¹ģà¸¡
à¸¡ à¸ģà¸§
Ġà¸ģà¸£à¸ģ à¸İ
à¸µ ""
à¸Ļà¸Ħà¸Ļ à¸Ń
à¸²à¸Īà¸° à¹Ģà¸Ĥ
à¸į à¸¥
à¹Į (
à¹Ĥà¸Ī à¸¡à¸ķ
à¸§à¸¢ à¸ĩà¸²à¸¡
à¸Ļà¸ª à¸Ķ
Ġà¸£à¸²à¸¢ à¸ģà¸²à¸£
à¸° à¹ģà¸¥
à¹Ĩ à¸Ħ
or m
à¸ļà¸£ à¸²à¸Ħ
Ġà¹ģ à¸§à¸°
à¸Ńà¸Ļ à¹Ģà¸ģ
à¹Ĥà¸«à¸§ à¸ķ
à¸²à¸Ĥà¸Ńà¸ĩ à¸£
at ch
à¸Ļà¹ģ à¸ĸ
à¸Ļ à¹ĥà¸ª
à¸Ĭ à¸į
à¸Ļà¹Ĩ à¸Ĺ
à¸Ļà¹ģ à¸ľ
d a
à¸§à¸¢ à¹Ħà¸¡
à¸²à¸¥ à¸°
à¸Ļ à¸²à¸¨
à¸ĸà¸²à¸¡ à¸ľ
à¸²à¸Ļ à¹Ģà¸Ħ
Ġà¹ģà¸¥à¸° à¸Ī
an c
à¸¢à¸ĩ à¸Ĥ
à¸Ļà¸ģà¸²à¸£ à¸Ĺ
à¸§ à¹Ģà¸Ī
à¸ķà¸ģ à¹ĥà¸Ī
à¸Ńà¸°à¹Ħà¸£ à¹Ħà¸¡
à¸ł à¸²à¸£à¸°
à¸Ļà¸¡à¸² à¹ģà¸¥
à¸ĩ à¸Ľà¸£
Ġà¸Ĥà¸Ńà¸ĩ à¸Ĺ
à¸Ńà¸ĩ à¸¢à¸Ļà¸ķ
à¸Ńà¸ģ à¸«
c on
Ġà¹Ĥà¸Ķà¸¢ à¹ĥà¸Ĭ
à¸§à¸£ à¸£à¸©
à¸ĩ à¸ľà¸¡à¸ģ
à¸§ à¹Ģà¸Ń
à¸ļà¸£à¸£ à¸Ī
Ġà¸Ħà¸§à¸²à¸¡ à¸Ħ
à¸Ļà¸Īà¸° à¸Ĺ
à¸ļà¸ļ à¸ļà¸ļ
à¸Ļà¸¢ à¸²à¸ģ
Ġ à¸Ħà¸§
à¸Ļà¹Ħà¸Ľ à¹Ģà¸£
c c
à¸«à¸¡ à¸Ń
à¸Ļà¸Ĺ à¸ļ
à¸Ħ à¸ĩà¸ķ
at a
Ġà¹Ģà¸£ à¸²à¸Ĭà¸Ńà¸ļ
à¸Ľ à¹Ħà¸¡
à¸Ľà¸£à¸° à¸ģà¸§
Ġt ime
à¸ĵ à¹Ħà¸Ķ
Ġà¸£à¸ĸ à¸¢à¸Ļà¸ķ
à¸Ľà¸ģà¸Ħà¸£ à¸Ńà¸ĩ
à¹ĥà¸Ļ à¸Ħà¸£
à¸§à¸ĩ à¹Ģà¸ĩ
à¸Ħà¸Ńà¸¡ à¹Ģà¸¡
à¹Ĥà¸¡ à¹Ĥà¸«
à¸£ à¸Ńà¸ĩà¸£
à¸Ļà¸Ĺà¸²à¸ĩ à¸Ĺ
à¸ļà¸£ à¸Ńà¸ĩ
à¸Ĥà¸Ńà¸ĩ à¸ģà¸²à¸£
à¸Īà¸° à¸ļà¸Ńà¸ģ
à¸²à¸Īà¸° à¸¢
à¸Ĭà¸Ńà¸ļ à¸Ķ
ĠâĢ ĺ
à¸ľà¸¡ à¹Ħà¸Ľ
à¸ĩà¸§ à¸Ķ
à¹Ī ,"
à¸Ń à¹ģà¸ģ
à¹Ħà¸«à¸Ļ à¸¡
Ġbl ack
à¸²à¸§ à¸¥
à¸¥ à¸Īà¸²à¸ģ
à¸ĩ à¸Ľà¸£à¸°à¹Ģà¸Ĺà¸¨à¹Ħà¸Ĺà¸¢
à¸¢à¸§ à¸Ħà¸£
à¸Ļà¸¡ à¸²à¸Īà¸²à¸ģ
à¹ģ à¸Ķà¸Ķ
à¸Ĺà¸ĺ à¹Ģà¸Ī
Ġà¹Ĥà¸Ķà¸¢ à¸ª
Ġà¸£à¸²à¸¢ à¹Ħà¸Ķ
à¸° à¸Ĥ
à¸Ħà¸§à¸²à¸¡ à¸Ķ
à¸¢ à¹Ħà¸Ľ
à¸¡ à¸²à¸¡
à¹Ģà¸Ńà¸ģ à¸Ĭà¸Ļ
à¸Ļà¸Ńà¸Ļ à¸§
Ġm on
à¸Ľà¸£à¸°à¸ª à¸²à¸Ļ
Ġà¸£ à¸Ń
o pp
à¸¢ à¸«à¸£
à¹ģà¸Ĺ à¸Ļà¸Ĺ
Ġin t
Ġ à¹Ħà¸Ĥ
à¸Ĳ à¸¡
à¸¥ à¸Ńà¸ĩà¸Ĺ
à¹ģà¸¥à¸° à¸Ī
à¸Īà¸° à¸§
à¸Ļà¹Ģà¸Ļ à¸Ńà¸£
à¸²à¸ĩà¸²à¸Ļ à¹Ħà¸Ķ
à¸¢à¸ģ à¹Ħà¸Ķ
Ġà¸ģà¸²à¸£ à¹ĥà¸Ĭ
m ac
à¸Ńà¸¡à¹ģà¸ĭ à¸¡à¸ļ
à¸Ķ à¹Ģà¸Ńà¸ĩ
à¸Ļà¹Ģà¸¥à¸¢ à¸Ħà¸£
à¸²à¸£à¸° à¸ļà¸ļ
à¸Ļà¸ŀ à¸¥
Ġà¹ģà¸¥à¸° à¹Ģà¸£
à¸Ńà¸ĩ à¹ĥà¸«à¸į
à¸ģà¸¥ à¸ĩ
à¸²à¸ģ à¸£à¸£à¸¡
à¸²à¸Ĥ à¸Ńà¸ĩà¸Ĺ
d er
à¸² à¹Ģà¸ªà¸£
à¸ģ à¸Ľà¸£à¸°à¸¡à¸²à¸ĵ
Ġf b
à¸Ńà¸ĩà¸Ĥà¸Ń à¸Ńà¸ł
à¸²à¸£ à¸§à¸¡
à¸ľà¸¡ à¹Ģà¸Ĥ
à¹Ģà¸ľ à¸¥
Ġsc b
Ġb ack
à¸ŀà¸¢à¸²à¸¢à¸²à¸¡ à¸Ĺ
à¸Ĥà¸Ńà¸ĩ à¹Ģà¸Ħ
Ġà¹Ģà¸¥à¸¢ à¸Ńà¸¢à¸²à¸ģà¸£
à¸²à¸§ à¸Ħà¸°
sl r
à¸Ħ à¸ĭ
le s
à¸¥à¸ĩ à¸ķ
à¸¥ à¹Ģà¸ŀ
à¹Ģà¸«à¸£à¸Ń à¸Ħà¸°
à¸²à¸¢ à¸ľ
à¹Ĩ à¸«à¸Ļ
Ġà¹Ģà¸£ à¸²à¸ªà¸²à¸¡à¸²à¸£à¸ĸ
à¹Ħà¸¥ à¸Ĺ
à¸Ħà¸Ļ à¹ĥà¸«à¸¡
à¸¢ à¸Ħà¸§à¸²à¸¡à¸£
Ġà¸£ à¸Ńà¸ĩà¹Ģà¸Ĺ
à¸Ļ à¸Ńà¸Ńà¸ģà¸¡à¸²
Ġ à¸Ńà¸ĩà¸Ħ
à¸ŀ à¸ķ
os s
Ġ5 6
à¸ĩ à¹Ģà¸§à¸¥à¸²
à¹Ĩ à¸¡
à¹Į) ",
8 5
à¸¡ à¹Ģà¸«à¸¥
à¹Ģà¸¥à¸¢ à¸Ķ
à¸Ĥà¸Ļà¸²à¸Ķ à¹ĥà¸«à¸į
à¸ł à¸²à¸¢à¸Ļà¸Ńà¸ģ
à¸ģ à¹ĥà¸«à¸į
à¸Ķ à¹ģà¸¢
à¹Ħà¸Ń à¹Ģà¸Ķ
à¸§à¸¢ à¹Ģà¸ķ
Ġà¹ĥà¸Ļ à¸ģà¸£à¸ĵ
à¸ģà¸© à¸²à¸ª
à¸ªà¸ĸà¸²à¸Ļ à¸°
à¸ļà¸ª à¸²à¸¡
u ter
à¸Ľ à¹ģà¸¥
à¸ľà¸¡ à¹Ģà¸¥
~ ~
à¸ģà¸£ à¹Ħà¸Ĺà¸¢
à¸Ń à¹Ģà¸¥à¸¢à¸Ħà¸£
à¸ģà¸© à¸²à¸ģ
à¸Ļà¹Ĩ à¸ģ
an a
à¸Ħà¸£ à¸£à¸ł
à¹Ģà¸Ļ à¸ķ
à¸Ĥà¸Ńà¸ĩ à¸ļ
Ġ à¸£à¸°à¸ļ
à¸Ļ à¹Ħà¸«à¸¡à¸Ħà¸£
à¸Ĺ à¸ķ
à¸ŀà¸£à¸° à¸£à¸²à¸¡
à¹Ĥà¸Ĺà¸£ à¸¡à¸²
Ġp s
"" ""
à¸Ńà¸Ļà¹Ĩ à¸ŀ
Ġ: :
à¸² à¹Ĥà¸Ķà¸¢
Ġ255 5
Ġà¸Ĥ à¸²à¸Ķ
à¹Ģà¸Ĥ à¸²à¸¢
à¹Ĥà¸Ń à¸ĭà¸²à¸ģ
à¸§à¸§ à¸§
à¸Ľà¸£à¸° à¸«à¸²à¸£
à¸¢ à¹Ģà¸§à¸¥à¸²
à¸ģà¸£à¸°à¸Ķ à¸²à¸©
Ġà¹Ģà¸¥à¸¢ à¸Ĺ
à¸ģ à¹Ģà¸Ī
Ġ à¸«à¸¥à¸²à¸¢à¸Ħà¸Ļ
à¸ĩ à¸¥à¸ĩà¸Ĺà¸°à¹Ģà¸ļ
à¹Ģà¸Ńà¸ģ à¸Ĭ
f f
9 5
à¸«à¸² à¹Ģà¸ĩ
sh op
à¹Ĥà¸Ħà¸£ à¸ĩà¸ªà¸£
Ġ à¸¨à¸²à¸¥
à¸Ńà¸ĩ à¹Ģà¸«
à¹Ģà¸Ł à¸£
Ġnik on
à¸ĸà¸²à¸¡ à¸Ħ
Ġà¸ľà¸¡ à¹ĥà¸Ĭ
m en
à¸¡à¸²à¸ Ŀ
à¸¥ à¸§
à¸Ĥà¸Ńà¸ĩ à¸Ī
Ġst ore
Ġ2 000
à¸Ĥà¸Ńà¸ĩ à¸§
Ġà¹Ģà¸¥ à¸Ĥ
à¸Ńà¸ģ à¸Ħ
Ġà¹Ģà¸£à¸²à¸ģ à¸¥
à¹Ģà¸ŀà¸¨ à¸Ĺ
à¸¡ à¹Ģà¸ļ
Ġà¹Ĥ à¸ŀ
à¸¢ à¸ŀ
à¹Ĥ à¸ĺ
Ġh onda
Ġà¸ª à¸²à¸§
à¸²à¹ģ à¸ªà¸Ķ
g a
à¹Ħà¸Ľ à¸ŀ
à¸Ļà¸Ĺà¸²à¸ĩ à¸ģà¸²à¸£
à¹Ģà¸Ĥ à¸²à¸Ķ
à¸Ļà¹Ħà¸Ľ à¸ķà¸²à¸¡
Ġà¸¥ à¸ĩà¸Ĺ
à¹Ģà¸Ķ à¸Ńà¸°
à¹ģà¸¥ à¹ģà¸¥à¸°à¸ĭ
Ġin st
à¹Ģà¸Ĺ à¸£
à¸Ĺà¸£ à¸ĩ
à¹Ħà¸Ń à¸Ī
à¹ģà¸¥à¸° à¸ŀ
Ġw ar
Ġf ib
am a
à¸ĩà¸ķ à¸Ńà¸Ļ
à¸²à¸ĩ à¸Ħà¸Ļà¸ķ
à¸ªà¸²à¸ĺ à¸²à¸£à¸ĵà¸°
à¸Ń à¸¨
u x
Ġà¸ª à¸¥
à¸Ńà¸ĩà¸Ļ à¸Ńà¸Ļ
à¸ģà¸£à¸° à¸Ľ
Ġ à¸«à¸¡à¸²à¸¢à¸ĸ
Ġà¸ķà¸²à¸¡ à¸Ĺ
à¹Ģà¸¥à¸¢ à¸Ń
à¸£à¸²à¸Ħ à¸²à¸Ĺ
Ġb us
w ay
à¸Ńà¸ĩ à¹Ħà¸«à¸Ļ
à¸ķà¸£ à¸Ļà¸²à¸¢à¸«à¸Ļ
à¹Ħà¸Ľ à¸Ĥ
à¸° à¸ĩ
à¸ª à¸Ĭ
à¸² à¹Ģà¸ķà¸Ńà¸£
Ġà¸Ĥ à¸Ļà¸¡
à¸Ńà¸ĩ à¹Ģà¸Ī
à¸¥à¸° à¸§
à¸«à¸¥à¸²à¸¢ à¸Ľ
Ġà¹ģà¸¥à¸° à¸Ĥ
à¹ĥà¸Ļ à¸¥
Ġà¸Ńà¸²à¸Ī à¸²à¸£à¸¢
à¸ļà¸ģ à¸£à¸°
à¹Ĥ à¸¢à¸ļ
à¸ĩ à¸ļà¸£
Ġà¸Ļ à¸²à¸Ļ
à¸£à¸ļà¸ģà¸§à¸Ļ à¸ľ
Ġà¹Ģà¸ĺ à¸Ńà¸ģ
à¸ľà¸¥ à¸ķ
à¸Ķ à¹Ģà¸ľà¸¢
à¸«à¸£à¸Ńà¸ģ à¸Ħà¸£
w are
à¸ĩ à¸ŀà¸Ń
Ġà¸¢ à¸Ńà¸¡à¸£
à¸¥à¸Ńà¸ĩ à¸Ķ
à¸Ļà¹Ģà¸¥à¸¢ à¸Ĺ
Ġ à¸£à¸²à¸Ĭ
à¸«à¸¥à¸²à¸¢à¹Ĩ à¸Ńà¸¢
à¹Ģà¸¥à¸¢ à¸ª
Ġà¸ģ à¸Ķ
à¸Ļ à¸ģà¸£
à¸¢à¸ģ à¸ķ
à¸²à¸ĩ à¸ļà¸Ļ
à¸ķà¸£ à¸Ĺ
à¸²à¸Ľ à¸²à¸ģ
à¸£à¸§à¸¡ à¸ģ
à¸Ļà¸Īà¸° à¹Ħà¸Ķ
à¸ŀà¸§à¸ģ à¸Ħ
à¹ģà¸¥à¸° à¸§
Ġcom p
6 7
à¹Ĩà¹Ĩà¹Ĩà¹Ĩ à¹Ĩà¹Ĩà¹Ĩà¹Ĩ
à¸²à¸Ļ à¸«à¸£
à¸Ĺ à¸ª
Ġb ig
Ġc f
à¸ī à¸¥à¸²à¸Ķ
à¸Ĥà¸Ńà¸ĩ à¹Ģà¸£
à¸²à¸ĩà¹Ĩ à¸Ĺ
Ġa v
Ġà¸Ĺ à¸§
à¸Ĥà¸Ńà¸ļ à¸ŀà¸£à¸°à¸Ħ
à¸Ń à¹Ģà¸ĩ
à¸ģ à¸Ńà¸Ńà¸ģ
n e
à¸Ĥà¸Ńà¸ĩ à¹Ģà¸¥
à¸Ļ à¸Ľà¸£à¸°à¹Ĥà¸¢à¸Ĭà¸Ļ
xx x
à¸§à¸ĩ à¹Ģà¸§à¸¥
à¸ģà¸ĩà¸²à¸Ļ à¸ģ
à¹ģà¸ĸ à¸§à¸ļ
à¸Ńà¸Ļ à¸ł
à¸Ľ à¸ĭ
à¸Ļ à¸£à¸°à¸«à¸§
... "
à¸ĩ à¹ģà¸Ļ
à¸ģà¸Ħà¸Ļ à¸ģ
à¹Ħà¸ĭ à¸Ļ
6 5
à¸§ à¹Ģà¸Ĥà¸²à¸ģ
Ġà¸ªà¸²à¸Ĥ à¸²
à¸§ à¸Īà¸²à¸ģ
à¸²à¸Ľà¸£à¸° à¸ª
à¹Ĥ à¸Īà¸£
Ġà¹Ģà¸Ĥ à¸²à¸ļà¸Ńà¸ģ
à¸ļ à¸Ļà¸Ĺ
à¸Ńà¸Ļ à¹Ģà¸ĩ
à¸¡ à¹ĥà¸Ī
à¹Ģà¸ŀà¸£à¸²à¸° à¸ķ
Ġà¸Ī à¸Ļà¸ķà¸Ńà¸Ļà¸Ļ
à¸Ī à¸Ķà¸Ĺà¸°à¹Ģà¸ļ
à¸ģà¸²à¸£ à¹Ģà¸Ĥ
à¸¢ à¸Ĥ
à¹Ģ à¹Ģà¸ģ
Ġ9 00
à¸Ħ à¸ĵ
à¸²à¸Ĥ à¸Ļà¸¡
à¸į à¹Ģà¸ª
à¸ĩ à¸Ļà¸°à¸Ħà¸£
à¸²à¸§ à¸ª
à¸Ļà¸Ĺà¸²à¸ĩ à¸Ķ
à¸ĩà¹Ĩ à¸Ħà¸£
à¸§ à¸Ńà¸¥à¹Ģà¸¥à¸¢
"" ","
à¸¡ à¹ģà¸Ĥ
ap an
à¸²à¹ģ à¸ľ
à¸ŀà¸£à¸£à¸Ħ à¸ģà¸²à¸£à¹Ģà¸¡
à¸²à¸£à¸° à¹Ģà¸ĩ
à¸Ń à¹Ģà¸§à¸¥
à¹Ģà¸Ħ à¸ª
à¸²à¸ĸà¸²à¸¡ à¸Ħ
à¸Ħà¹Ģà¸ģ à¸Ńà¸£
à¸Ļà¸Ńà¸°à¹Ħà¸£ à¸Ĺ
Ġas us
Ġà¸¡ à¸²à¸ª
à¹Ģà¸ģà¸£ à¸Ķ
à¸£à¸²à¸ª à¸²à¸Ĺ
à¹ģ à¸Ŀ
à¸²à¸£ à¸Ńà¸ļ
Ġà¹Ģà¸£à¸²à¸Ħà¸§à¸£ à¸Ĺ
à¸§ à¸ļà¸Ńà¸ģà¸§
à¸Ļà¹ģà¸¥à¸° à¸ģ
Ġ à¸Ńà¸ĩà¸¨
Ġg t
à¸Ľ à¹Ģà¸Ķ
à¸ĩà¹Ħà¸ĩ à¸ķ
à¸Ļà¸Ļ à¸²à¸Ļ
à¸ģ à¸¤à¸ķ
à¸Ńà¸Ńà¸ģ à¸ķ
à¸Ĥà¸Ńà¸ĩ à¸«à¸Ļ
à¸ĩà¸²à¸Ļ à¸Ļ
Ġ> <
à¸Ńà¸ĩ à¸ķà¸²à¸¡
à¸¢à¸Ļ à¸ŀ
à¸Ļà¸° à¸Ĺ
à¹ģà¸¥à¸° à¹Ģà¸Ľ
ar y
à¸§à¸Ļ à¸£
Ġ0 2
à¸²à¸¢à¸ģ à¸¯
Ġ3 3
à¸Ļà¸¡à¸²à¸ģ à¸Ĥ
à¸Ļà¸Ń à¸²à¸¢
Ġà¹Ģà¸¥ à¸¢à¸¡
Ġd slr
à¸Ń à¸Ńà¸¢à¸²à¸ģ
Ġà¹Ĥ à¸Ĺ
Ġf ree
à¹Ģà¸Ī à¸Ńà¸Ľ
à¸§à¸¢ à¹Ģà¸¥
à¸ģ à¸²à¸ĩà¹Ģà¸ģ
Ġmirror less
0 8
à¸Ńà¸ģ à¸Ķ
Ġà¸Īà¸° à¹ĥà¸Ĭ
Ġà¹Ģà¸ŀà¸£à¸²à¸° à¸£
à¸¢à¸§ à¹Ħà¸Ķ
à¹Ģà¸§ à¸¢
à¸Ń à¹Ģà¸£à¸²à¹Ħà¸¡
à¹Ģà¸ŀà¸£à¸²à¸° à¸Ĺ
à¹Ĥà¸Ķ à¸Ķà¹Ģà¸Ķ
Ġà¸ŀ à¸ļà¸§
Ġà¸Ĥ à¸Ńà¸£
à¹ĥà¸Ļ à¹Ģà¸Ħà¸£
à¸§à¹Ģà¸Ńà¸ĩ à¹Ģà¸Ľ
à¹ĥà¸Ļ à¸ģà¸£
à¸Ńà¸²à¸«à¸²à¸£ à¹Ģà¸ªà¸£
à¸²à¸Ļ à¸ģà¸£à¸°à¸Ĺ
à¸Ļ à¸Ńà¸°à¹Ħà¸£à¸ģ
à¸ģ à¹ĥà¸Ħà¸£
Ġà¸¡ à¸²à¹Ģà¸Ľ
ok ia
à¸Ńà¸ļà¸Ħ à¸¥
à¸Ńà¸ĩ à¹ģà¸¡
à¸Ńà¸¡ à¹Ģà¸ĩ
o h
à¸ļà¸¡ à¸²à¸§
à¸§ à¹ģà¸ļà¸ļ
à¸ĩà¸ª à¸ĸà¸²à¸Ļ
à¸¢à¸Ńà¸¡ à¹ĥà¸«
à¸Ĥ à¸§à¸Ķ
à¸Ļ à¸ģà¸¥à¸²à¸ĩ
Ġ?? ?
Ġà¸Ń à¸Ńà¸ģà¸Īà¸²à¸ģ
à¸Ńà¸ª à¸²à¸¢
Ġm ark
à¸Ń à¸Ľà¸£
à¸ļ à¸łà¸²à¸ŀ
à¸Ī à¸ķ
à¸Ńà¸°à¹Ħà¸£ à¸¡à¸²à¸ģ
Ġl ink
à¹ģ à¸Ńà¸¥
à¹ Ĵ
à¹Ĥà¸ģ à¸°
à¸Ĥà¸Ńà¸ĩ à¸Ħà¸Ļ
à¸Ń à¸²à¸ĵà¸²à¸Ī
à¸¥ à¸²à¸§
Ġà¸ģà¸£à¸ģà¸İ à¸²à¸Ħà¸¡
à¸²à¸¡ à¸²à¸Īà¸²à¸ģ
à¸Ńà¸°à¹Ħà¸£ à¹Ħà¸Ķ
à¸ļà¸£ à¸Ńà¸ļ
à¹ĥà¸Ļ à¸Ńà¸Ļà¸²à¸Ħà¸ķ
à¸Ľà¸£à¸°à¹Ģà¸Ĺà¸¨ à¸Ĺ
à¸Ĥà¸Ńà¸ĩ à¸ļà¸£
à¸¨ à¸§à¸°
Ġt ab
à¸§ à¸¥à¸ĩ
Ġà¸ģà¸ªà¸Ĺ à¸Ĭ
à¸Ļ à¹Ģà¸Ĥà¸²
Ġà¸Ĭ à¸Ļ
à¸Īà¸° à¸¡à¸²
à¸¢à¸¡ à¸Ĺ
à¸ĩ à¹ģà¸Ĺ
à¸§à¹Ģà¸Ńà¸ĩ à¸Ĺ
à¸¡à¸²à¸Ľà¸£à¸° à¸¡à¸²à¸ĵ
à¸Ľà¸£à¸°à¸¡à¸²à¸ĵ à¹Ģà¸Ĺ
à¸²à¸¨ à¸²à¸¥
à¹ģà¸Ł à¸Ļà¸Ĺ
à¸ĵ à¸Ľ
Ġg l
Ġl um
Ġà¸ģ à¸£à¸¡
à¸« à¸Ńà¸ŀ
à¸¥ à¸ĭ
Ġg o
à¸Ķà¹Ħà¸Ľ à¹Ģà¸Ńà¸ĩ
Ġ à¸Ńà¸°
a ut
à¸Īà¸° à¹Ģà¸ª
à¸Ĥà¸Ń à¸Ħà¸§à¸²à¸¡à¸Ĭ
à¹ģà¸Ł à¸Ļà¸ķ
Ġà¸Ļ à¸Ńà¸Ļ
Ġà¸ģà¸²à¸£ à¹Ģà¸Ķ
à¸ģà¸²à¸£ à¹ĥà¸«
à¸¢à¸§à¸Ĭ à¸²à¸į
à¹Ģà¸Ń à¸²à¹ĥà¸Ī
à¸Ńà¸¡ à¹ĥà¸«
Ġb ook
à¸ģ à¹ģà¸¢
à¸ĩà¸Ĺ à¸£
à¹ĥà¸Ļ à¸Ħ
à¸Ńà¸Ķ à¸ģ
à¹Ĥà¸Ĺà¸£ à¹Ģà¸Ĥ
à¸ľà¸¡ à¸Ĭà¸Ńà¸ļ
Ġ6 4
à¸²à¸¢ à¸¡à¸²à¸ģ
à¸ĸà¸²à¸¡ à¸Ĺ
à¸²à¸¢ à¹Ĩà¸ģ
à¸Ľ à¹Ħà¸Ķ
à¸łà¸²à¸ŀ à¸ļ
à¸ģà¸²à¸£ à¸Ľ
à¸ĩà¹Ħ à¸ĩà¸Ħ
ã Ģ
à¸²à¸¡ à¸²à¸ª
it ion
Ġ qu
à¸ļà¸§ à¸Ĭ
ash ion
à¸²à¸ĩ à¹Ģà¸¥
à¸²à¸Ļ à¹Ģà¸¥
à¸Ńà¸ģ à¸ļ
à¸¡ à¸Ŀ
at er
à¸Ħà¸§à¸²à¸¡ à¸Ŀ
à¸Ĥ à¸ģ
âĢ ľ
Ġà¹ģ à¸ļà¸ķ
à¸ģà¸²à¸£ à¸¥
à¸ķ à¸¨à¸²à¸ªà¸ķà¸£
à¸Ħà¸§à¸²à¸¡ à¸«à¸§
à¸¥à¸°à¸Ħà¸£ à¹Ģà¸£
à¸²à¸¢ à¹Ģà¸Ĥ
à¸¢à¸§ à¸Ń
à¸Ľà¸£à¸°à¹Ģà¸Ĺà¸¨ à¸į
à¹Ģà¸¢à¸Ńà¸° à¹ģà¸¢à¸°
à¸²à¹Ĥ à¸Ħà¸£
ol l
à¸ģ à¹ģà¸ļà¸ļà¸Ļ
à¸Ńà¸ĩà¸ĸ à¸Ļà¸Ļ
à¸¨à¸§à¸ģà¸£à¸£à¸¡ à¸¨à¸²à¸ªà¸ķà¸£
à¸ª à¸¢
os h
à¸§ à¸Īà¸°à¸¡
à¸łà¸²à¸Ħ à¹ĥà¸ķ
à¸¡ à¸²à¸«à¸¥à¸²à¸¢
o x
à¹ĥà¸Ļ à¹Ħà¸Ĺà¸¢
à¸ªà¸° à¸ŀ
à¸ļà¸Ľ à¸§à¸Ķ
à¹Ĥà¸ģ à¸ĩ
Ġà¸Ĥà¸Ńà¸Ń à¸ł
à¸ģà¸Ķ à¸Ķ
à¹Ĥà¸Ľà¸£ à¸ķ
Ġà¹Ħà¸Ľ à¹Ģà¸Ĺ
Ġà¹Ģà¸Ĥ à¸²à¸¡
p ro
à¹Ģà¸¢à¸Ńà¸° à¸ģà¸§
à¹Ĥ à¸¢à¸Ļ
à¸ķà¸¢ à¸ªà¸²à¸£
à¸²à¸ĩ à¸ģà¸¥
Ġà¸Ķ à¸£
à¹Ģà¸Ħà¸¢ à¹Ģà¸¥
à¸ŀà¸§à¸ģ à¸Ĺ
à¸ĩ à¸¡à¸²à¸ģà¹Ĩ
à¸Ńà¹Ģà¸ª à¸Ļà¸Ń
à¹Ģà¸Ħà¸¢ à¸Ń
à¸¡ à¸ļà¸Ńà¸ģ
à¹Ģà¸ª à¸²à¸£
à¸Ńà¸¢ à¸Ĭ
à¸Ńà¸¢à¸²à¸ģ à¹Ģà¸«
Ġà¸ŀ à¸Ńà¹Ħà¸Ľ
Ġs ing
à¸²à¸Ń à¸²à¸ģà¸²à¸¨
Ġ8 00
à¸²à¸ķà¸Ńà¸ļ à¸Ĺ
à¹Ħ à¸Ńà¸Ĺ
Ġh y
Ġh o
à¸ª à¸§à¸£à¸£à¸Ħ
â ĺ
à¸Ħà¸Ļ à¹Ħà¸¡
à¸Ħà¸Ļ à¸¡
à¸Ľ à¸°
à¸£à¸ļà¸ģà¸§à¸Ļ à¸Ķ
à¸²à¸¢ à¸ŀ
à¸ªà¸¡ à¸¡
Ġà¹Ģà¸¥à¸¢ à¸Ńà¸¢à¸²à¸ģà¸Ĺà¸£à¸²à¸ļà¸§
à¸ĵ à¸§
à¸²à¸Ľà¸£à¸° à¸ķ
à¹ģà¸¥à¸° à¸ľ
Ġà¸Ħà¸²à¸Ķ à¸§
Ġ7 00
à¸Ļà¹ģ à¸Ľà¸¥
à¹Ĥà¸ĭ à¹Ģà¸Ĭ
à¸ķà¸¥à¸²à¸Ķ à¸«à¸¥
à¸Ĥà¸§ à¸²
à¹Ģà¸ĺ à¸Ńà¹Ħà¸¡
¸ Į
à¸ĩ à¸®
à¸²à¸¢ à¸¥à¸°à¹Ģà¸Ń
Ġp e
à¸ĩ à¸Ńà¸²à¸Ī
à¸ļà¸£à¸£ à¸¢à¸²à¸¢
à¸²à¹ģ à¸Ľà¸¥
à¸ĩà¸Īà¸° à¹Ħà¸¡
Ġà¸ª à¸ļà¸²à¸¢
à¸ļà¸ª à¸ĸ
à¸ģà¸²à¸£ à¸Ĥ
ag ram
à¹Ģà¸Ń à¸²à¸ķ
à¸§à¸¢à¸ķà¸Ńà¸ļ à¸«à¸Ļ
à¸§ à¹Ģà¸«
à¸Ļà¸¡ à¸²à¸Ń
à¸§ à¸¡à¸²
à¸¢à¸ĩ à¸§
à¸ĩà¸²à¸Ļ à¸§
Ġm l
à¸¡à¸¡ à¸¡à¸¡
à¸§à¸Ļ à¸¥
à¸²à¸§ à¸ļ
à¸Ńà¸¢ à¹Ģà¸Ĥ
à¸ģà¹ģà¸ªà¸Ķà¸ĩ à¸«à¸į
à¸¢ à¹Ģà¸ŀ
Ġà¸Ľ à¸§à¸Ķ
à¸§à¹Ģà¸Ńà¸ĩ à¹Ħà¸Ķ
à¸° à¹Ģà¸¥à¸¢
à¸²à¸ķ à¸ģ
à ¸Į
à¸Ķ à¸Ĺà¸£
à¸²à¸Īà¸° à¸Ī
à¸¥à¸° à¸Ħ
à¸Ĺà¸²à¸ĩ à¸ļ
à¹ģà¸Ħ à¸¥
u al
à¸ģ à¸Ħà¸§à¸²à¸¡à¸ĩà¸²à¸¡
à¸¢à¸Ļ à¹Ģà¸£
à¸Ľà¸¥à¸²à¸¢ à¸Ľ
Ġw e
à¸ĩà¸²à¸Ļ à¸Ķ
à¸Ļ à¹Ħà¸«à¸§
à¸«à¸¥ à¸²à¸Ķ
à¸²à¸Ŀ à¸²à¸ģ
à¸Ķ à¸ŀà¸£à¸°
à¹ĥà¸Ļ à¸Ħà¸£à¸Ńà¸ļà¸Ħà¸£
Ġà¹Ĥà¸Ħà¸£ à¸ĩà¸ģà¸²à¸£
à¸²à¸ķ à¸²à¸Ķ
à¸² à¹Ģà¸Ńà¸²
à¸§à¸Ļ à¹ģà¸£à¸ģ
Ġb row
à¸ľà¸¡ à¹Ģà¸«
u c
à¸²à¸ľà¸¡ à¹Ħà¸¡
à¹ĥà¸Ļ à¹Ģà¸Ļ
à¸§à¸¢ à¸Ĥ
à¸Ńà¸²à¸«à¸²à¸£ à¹Ħà¸Ĺà¸¢
à¸²à¸ĩ à¸ľ
à¸ļà¸Ńà¸ģ à¸Ĺ
Ġ |
Ġà¸Ī à¸Ļà¹Ģà¸£
à¸ªà¸¥ à¸²à¸¡
à¸Ń à¸Ńà¸Ńà¸ģ
à¸¡ à¸Ļà¸ķ
à¸ģà¸²à¸£ à¸§
à¸¡ à¹Ģà¸¨à¸£
à¸ģà¹Ĩ à¸Ļ
à¹Ĥà¸Ľà¸£ à¹Ģà¸Ī
c ess
or n
Ġà¸Ń à¸²à¸ģà¸²à¸¨
à¹Ģà¹Ģà¸ļ à¸ļà¸Ļ
Ġj r
à¸ľà¸¥ à¹Ħà¸¡
Ġs n
à¸²à¸ķà¸£ à¸Ĳà¸²à¸Ļ
à¸§à¸ģ à¸²à¸¨
Ġà¸¡ à¸²à¹ģà¸¥
à¸²à¸¢ à¸Ħà¸£
à¹Ĥ à¸ľà¸¥
Ġà¹ģ à¸ĭ
à¸²à¸ļ à¸£à¸£
à¹ģà¸Ļà¸§ à¸Ħ
à¸Īà¸²à¸ģ à¸£
à¸ģà¹Ĩ à¸ģ
Ġf ace
à¸²à¸ĩ à¹Ģà¸Ħ
à¸Ńà¸¢ à¹ģà¸ķ
à¸Ļà¹ģ à¸Ĥ
Ġch ar
à¸Ķ à¹ĥà¸ª
à¸ªà¸Ķ à¹ĥà¸ª
à¸²à¸Īà¸° à¸ŀ
Ġà¹Ģà¸ŀà¸£à¸²à¸° à¸ª
à¸Ļ à¸Ľà¸£
à¸ļ à¸Ŀ
à¹ģà¸Ľà¸¥ à¸ģà¹ĥà¸Ī
Ġà¹Ħà¸Ľ à¸£
Ġ3 7
à¸¡ à¸«à¸¥
à¸Ńà¸¢ à¹Ģà¸ģ
à¸ĩ à¸ļà¸Ńà¸ģà¸§
à¸²à¸ĸà¸²à¸¡ à¸Ĺ
à¸Ļ à¸«à¸²
6 9
re en
âĢ ¢
à¹Ģà¸Ń à¸Ł
à¸ĩà¹ģ à¸§à¸Ķà¸¥
à¹Ĥà¸¥ à¸ģà¸£
à¸ļà¸ģà¸§ à¸Ļà¸Ĺ
à¸¢à¸Ļ à¹Ģà¸ģ
Ġmo bile
Ġà¹ģà¸¥à¸° à¹ĥà¸«
à¸Ńà¸ĩ à¹ģà¸ļà¸ļ
à¸Ĭà¸Ńà¸ļ à¸ľ
à¸§à¸¢à¸ļà¸Ńà¸ģ à¸«à¸Ļ
à¸Ń à¹ģà¸Łà¸Ļ
à¸§ à¸Ľà¸£à¸°à¹Ģà¸Ĺà¸¨
à¸ĩà¸«à¸¡ à¸Ķà¸Ĺ
à¸Ńà¸ĩ à¹Ģà¸¡
) )
à¸Ľà¸Ľ à¸ª
Ġs ale
à¸¡à¸² à¹Ģà¸ŀ
Ġh er
à¸Ļà¹Ħà¸Ľ à¸Ń
à¸§à¸ĩ à¸ļ
à¸ªà¸²à¸¡à¸²à¸£à¸ĸ à¸ķ
Ġb u
à¸Īà¸° à¸Ľ
à¸£à¸²à¸ ķ
à¹Ĥà¸ł à¸Ĭà¸Ļ
f l
à¸«à¸¡ à¸²à¸ģ
à¸²à¸§ à¸Ĥ
à¸Ļà¹Ħà¸Ľ à¹Ħà¸¡
à¸²à¸ķà¸£ à¸§à¸Ī
à¸Ļà¸¡ à¸²à¸Ķ
Ġà¹Ĥ à¸Ī
à¸Īà¸°à¹Ħà¸Ľ à¹Ģà¸Ĺ
Ġà¹Ģà¸Ķ à¸Ńà¸°
à¸ģà¸Ĺà¸²à¸¢ à¹ģà¸Łà¸Ļà¸Ħà¸¥
. ,
à¹Į âĢĿ
Ġus b
à¹ĥà¸Ļà¸ģà¸²à¸£ à¸ķ
Ġ4 50
à¸²à¸Ħ à¸ĩà¹Ħà¸¡
à¸Ļ à¸ŀà¸Ń
Ġà¸ª à¸²à¹Ģà¸«à¸ķ
à¸²à¸¢ à¹Ģà¸ŀ
à¹Ģà¸Ħà¸¢ à¸ŀ
Ġà¹Ģà¸Ĥ à¸²à¹Ģà¸Ľ
Ġà¹ģà¸¥à¸° à¹Ģà¸ŀ
à¸Ľà¸£à¸°à¸ģà¸Ńà¸ļ à¸Ķ
à¹Ħà¸Ľ à¸«à¸¡à¸Ķ
à¸¢à¸§ à¹Ĩ
Ġv i
à¸Ń à¸²à¸Ħà¸²à¸£
à¸Ļà¸Ķ à¸²à¸¥
à¸Ļà¸ŀ à¸Ļ
Ġ---------------------------------------------------------------- ------------------------------------------------
à¸Ķà¸¥ à¸¡
à¹Ģà¸ĺ à¸Ńà¸¡
à¸Ń à¹Ģà¸«à¸¡
Ġlo g
à¸Ń à¸ķà¸²à¸¡
ang e
en tr
Ġà¹Ģà¸£ à¸²à¸Ńà¸¢
Ġà¹ģ à¸®
à¹Ĥà¸Ķà¸¢ à¹ĥà¸Ĭ
Ġà¸£à¸ļà¸ģà¸§à¸Ļ à¹ģà¸Ļà¸°à¸Ļ
à¸§ à¸²à¸¥
à¸Ń à¸Ŀ
Ġs ec
à¸ŀà¸£ à¸£à¸Ķ
à¸ļ à¹Ģà¸«
iver s
à¹Ģà¸ĺ à¸Ńà¸Ĺ
Ġ25 61
à¸ĩ à¸£à¸ĸà¹Ħà¸Ł
à¹Ĥà¸Ĺà¸£ à¸Ħ
Ġm s
à¸° à¸ļ
à¸²à¸¢ à¸ģà¸§
Ġà¸Ī à¸Ļà¸¡
à¸ļà¸¡ à¸²à¸Ń
à¹Ģà¸ŀà¸£à¸²à¸° à¸Ħ
t f
à¸§à¸¢ à¸ļ
à¸Ńà¸¡ à¸Ħ
à¸² à¹Ģà¸§à¸¥
à¸Ńà¸¢ à¸Ńà¸¢
à¸Ļ à¹Ĥà¸Ķà¸Ļ
Ġà¹Ģà¸ŀà¸£à¸²à¸° à¸Ļ
à¸²à¸Īà¸° à¸ģà¸¥
Ġa ut
à¸ĩà¸Īà¸° à¸Ĺ
à¸łà¸²à¸Ħ à¹Ģà¸«à¸Ļ
à¸Ńà¸ĩ à¸ªà¸¡
à¸Ļ à¹Ģà¸ĸà¸Ńà¸°
à¸Ļ à¸£à¸°à¸ļà¸ļ
à¸ģ à¸Ńà¸°à¹Ħà¸£
à¸Ńà¸Ļ à¸Ļà¸°à¸Ħà¸£
à¸įà¸į à¸²à¸ģ
à¸Ń à¸Īà¸°à¹Ħà¸Ķ
à¸Ĺà¸²à¸ĩ à¸Ļ
à¸ļà¸Ľà¸£à¸° à¸Ĺà¸²à¸Ļ
à¸ľà¸¡ à¸«à¸Ļ
Ġ à¸Ľà¸£à¸°à¸ģà¸²à¸¨
à¹Ģ à¸Ńà¸°
à¸ģ à¹ĥà¸«à¸¡
à¸Ħ à¸ĩ
à¸Ĭà¸Ńà¸ļ à¸ŀ
4 1
pl ay
Ġà¸Ļà¸²à¸ĩ à¹Ģà¸Ńà¸ģ
à¸¡ à¸²à¸Ħà¸£
à¸§à¹Ģà¸Ńà¸ĩ à¸Ķ
Ġà¸ľà¸¡ à¸Īà¸°
is e
à¸¢à¸«à¸²à¸¢ à¸ª
Ġp hone
4 3
à¸ŀà¸¥ à¸²à¸ªà¸ķ
à¹Ĥà¸Ķà¸¢ à¸ķà¸£à¸ĩ
Ġà¹Ģà¸¡ à¸Ļ
à¸¡ à¹ģà¸ķ
à¸« à¸²à¹Ħà¸¡
à¸° à¸Ľà¸¥
Ġà¸ľà¸¡ à¸Ħà¸§à¸£
à¹Ħà¸£ à¸ģ
d ate
à¹Ĥà¸¥ à¸«
à¸§à¸Ħà¸£ à¸²à¸§
à¸¢à¸ģ à¸ģ
à¹Ģà¸¥à¸Ĥ à¸Ĺ
à¸²à¸ª à¸²à¸¢
Ġà¹Ģà¸Ń à¸²à¹Ħà¸§
à¸Ļ à¹Ģà¸¢
à¸Ń à¸Ħà¸§à¸£
-------- -
à¸į à¸²à¸ĵ
à¸Ķ à¸Ŀ
à¸Ľà¸£à¸°à¸Ĭ à¸²à¸ģà¸£
à¸ģà¸£ à¸ŀà¸£à¸£à¸Ķ
Ġà¸Ĭ à¸Ļà¸°
Ġà¹ģà¸¥à¸° à¸¥
à¸ģà¸£ à¸ĸ
à¸Ń à¸Ńà¸°à¹Ħà¸£à¸ģ
à¸Ńà¸ĩà¸Ĥ à¸§
à¸²à¸¡ à¸Ļ
à¸Ķ à¹Ģà¸Ļ
à¸Ĳ à¸¨à¸²à¸ªà¸ķà¸£
à¸¢à¸Ļ à¸łà¸²à¸©
à¸° à¸Ī
à¸²à¸Ńà¸°à¹Ħà¸£ à¸Ĺ
à¸Ĥà¸Ńà¸ĩ à¸Ķ
à¸¢à¸ģ à¹Ģà¸§
à¸Ĥà¸²à¸¢ à¸ķ
à¹Ģà¸«à¸ĩ à¸²
à¹Ģà¸Ī à¸ķà¸Ļ
à¸ģ à¹ģà¸«
Ġtw itter
Ġf ashion
à¸Ħà¸Ħà¸¥ à¸Ĺ
à¸²à¸ķ à¸¥à¸²à¸Ķ
à¹Ħà¸Ľ à¸«à¸Ļ
à¸ģà¸²à¸£ à¹ģà¸ªà¸Ķà¸ĩ
Ġà¸ģ à¸Ńà¸ĩà¸Ĺ
Ġà¸ŀ à¸¢
à¸Ĥà¸²à¸¢ à¸ª
s ter
à¹Ģ à¹Ģà¸Ļ
à¸Ńà¸ĩ à¸Īà¸°
à¸Ń à¸Īà¸°à¸¡
à¸ļà¸ģà¸²à¸£ à¸ķ
à¸ģ à¹ģà¸ģ
à¹ģà¸Ļ à¸§à¸Ļ
à¸Ļà¸²à¸¨ à¸ł
Ġà¸ŀ à¸Ńà¸ķ
à¹ģà¸¥ à¸ľ
Ġà¹ĥà¸Ļ à¸£
à¸ļ à¸Ńà¸°à¹Ħà¸£
Ġà¹Ģà¸ģ à¸¥
à¸Ĥà¸Ńà¸ĩ à¸«à¸§à¸²à¸Ļ
à¸Ńà¸Ńà¸ģà¸¡à¸² à¹Ģà¸Ľ
à¹ī ""
à¸Ļà¸Ĭ à¸¡
ky o
à¸ĩ à¸ļà¸Ļ
à¸Ļ à¸Ħà¸§à¸£
s ocial
à¸ĩà¸Īà¸° à¸ķ
Ġà¸ª à¹Ģà¸Ľ
Ġà¸ģà¸²à¸£ à¸ķ
à¸§ à¹Ģà¸ķ
à¸²à¸£à¸° à¸«à¸§
à¸ļ à¸ķà¸²à¸¡
Ġà¸ŀà¸£à¸° à¸Ńà¸ĩà¸Ħ
à¸²à¸¡ à¸ķ
Ġà¹ģ à¸Ńà¸£
à¸¥ à¸²à¸Ńà¸Ńà¸ģ
t on
à¸ĩà¹ĥà¸Ī à¸Ĺ
à¸ĩ à¸Ĩ
à¸¢ à¸²à¸Ĺ
................................ ................................
à¹Ģà¸£ à¸²à¸ĭ
ir l
Ġc am
0 5
à¸ģà¸£à¸°à¸ļ à¸§à¸Ļ
à¸ļà¸£à¸£ à¸Ķ
ĠĠĠĠĠĠĠĠĠĠĠĠĠĠĠĠ ĠĠĠĠĠĠĠĠ
à¸¢à¸Ļ à¹Ģà¸Ħà¸£
à¸Ĥà¸Ńà¸ĩ à¹Ģà¸Ķ
à¸²à¸ģ à¸£à¸°à¸Ĺ
à¸¡à¸² à¹Ģà¸¥à¸¢
à¸Ńà¸Ļ à¹Ģà¸£à¸²à¸ģ
âĻ ¥
Ġd o
à¸Ħ à¸Ħà¸Ńà¸¡
à¸² à¹Ĥà¸¥
à¸ªà¸° à¸Ķ
ch n
à¸Ļà¸Ħà¸Ļ à¸ķ
à¸ģà¸ģ à¸£à¸°
Ġà¸ķà¸Ńà¸Ļ à¹ģà¸£à¸ģà¸ģ
à¸§à¸¢ à¹Ģà¸¥à¸¢
le x
à¸¡ à¹ĥà¸Ĭ
à¸¢à¸Ļ à¸ªà¸²à¸¢
à¸ļ à¸ī
à¹Ĥ à¸Ħà¸¥
à¸ĺà¸Ļà¸²à¸Ħà¸²à¸£ à¸ģà¸£
à¸Ļà¸Ħà¸Ļ à¹Ģà¸Ķ
à¸Ļà¸Ħà¸Ļ à¸Ĥ
à¸§à¸¢ à¹ģà¸¥
Ġà¹Ģà¸ŀà¸£à¸²à¸° à¸īà¸°à¸Ļ
à¸Ńà¸Ńà¸ģà¹ģà¸ļà¸ļ à¹ģà¸¥à¸°à¸ªà¸£
à¸²à¸Ħà¸§à¸£ à¸Ĺ
à¸ĩ à¸łà¸²à¸ŀ
à¹Ħà¸Ľ à¸ĸà¸²à¸¡
à¸Ļà¸Ī à¸ļ
à¸ķ à¸Ļà¹Ģà¸Ńà¸ĩ
à¸Ĥà¸Ń à¸Ĥà¸Ńà¸ļà¸Ħ
à¸²à¸¡ à¸²à¹ĥà¸«
à¸²à¸¥ à¸ĩà¸Ĺ
à¹Ģà¸Ļ à¸¢
à¸¢à¸ĩ à¸£
à¸ĩà¸²à¸Ļ à¸Ħ
à¹ģà¸ļà¸ļ à¸¡
à¸Ļà¸²à¸Ļ à¹ģà¸¥
à¸ģà¸© à¸²à¸Ķ
à¸ĩ à¸ŀà¸£
à¸Ħà¸²à¸Ķ à¸§
à¸¡ à¹Ħà¸Ľà¸Ķ
Ġà¸ķà¸£ à¸ĩà¸Ļ
à¸Ĺ à¹Ĥà¸ĺ
od y
à¸Ńà¸²à¸Ī à¸Īà¸°à¸¡
à¹Ģà¸£ à¸²à¸«
à¸Ńà¸²à¸«à¸²à¸£ à¹Ģà¸Ĭ
Ġn e
à¸ļà¸£ à¸²à¸ĩà¸§
ot h
à¸ľà¸¡ à¹Ģà¸¥à¸¢
Ġf uji
à¸²à¸Ńà¸¢à¸²à¸ģ à¹Ħà¸Ķ
à¸ł à¸ŀ
Ġg u
à¸Ĥà¸Ńà¸ĩ à¸Ľà¸£à¸°à¹Ģà¸Ĺà¸¨
-------- ----
à¸²à¸ł à¸²à¸©
à¸Ļà¸ķ à¸Ļ
à¸«à¸¥à¸²à¸¢ à¸Ĺ
à¸¨ à¸²à¸Ī
Ġà¸Ľà¸£à¸° à¹Ģà¸łà¸Ĺ
à¸ģà¸© à¸²à¸Ħà¸§à¸²à¸¡
Ġsp eed
à¸²à¸¡à¸² à¹Ģà¸¥
à¸£ à¸²à¸§
à¹ģà¸¥à¸° à¸¢
Ġà¸¡ à¸²à¸Ħ
à¸Ļ à¸ĺà¸£à¸£à¸¡à¸Ĭà¸²à¸ķ
à¸ľà¸¡ à¸ģà¸¥
à¹Ĥà¸łà¸Ĭà¸Ļ à¸²à¸ģà¸²à¸£
à¸ļà¸¡ à¸²à¸Ķ
Ġà¸ŀà¸Ļ à¸ĩ
à¸¡à¸Ļ à¸²à¸Ħà¸¡
à¸ļ à¹ģà¸ģ
à¸Ńà¸Ļà¹Ĩ à¸Ħ
s r
à¸Ńà¸ģ à¹ĥà¸«
o int
Ġà¸£ à¸ªà¸Ĭà¸²à¸ķ
à¸Ļà¹Ģà¸ģ à¸¢
0 1
à¹Ģà¸Ħ à¸²à¸£à¸ŀ
à¸£à¸°à¸¢à¸° à¹Ģà¸§à¸¥
à¸¢ à¹Ģà¸§à¸¥
Ġà¹Ģà¸Ī à¸Ń
à¸ģà¸¡à¸²à¸ģ à¸¡à¸²à¸¢
à¹Ģà¸ĭ à¸Ł
Ġà¸ķ à¸ģà¸¥
à¸µ (
ap h
à¸Ļ à¸²à¸Ħ
à¸Ļà¸° à¸Ī
Ġà¸ªà¸²à¸¡à¸²à¸£à¸ĸ à¹ĥà¸Ĭ
à¸į à¸§
n ot
à¸²à¸ŀ à¸¥
à¸ĩ à¸Ľà¸£à¸°à¸¡à¸²à¸ĵ
Ġb ank
Ġà¸£à¸²à¸Ħ à¸²à¸ĸ
à¸ģ à¹Ģà¸Ļ
à¸¡à¸Ńà¸ĩ à¹Ģà¸«
à¸Ļà¸¡à¸² à¹Ģà¸Ľ
ma z
à¸£à¸° à¹ģ
à¸²à¸¡à¸² à¹ģà¸¥
à¸Ńà¸ļ à¹Ĩ
à¸µà¹ī ,"
à¸Ńà¸Ļ à¸°
à¸²à¸ŀ à¹Ģà¸Ī
à¸Ľ à¹ĥà¸«
à¸Ńà¸ĩ à¸Ľà¸ģà¸ķ
Ġà¹Ģà¸ŀà¸£à¸²à¸° à¸ķà¸Ńà¸Ļà¸Ļ
Ġà¹Ĥ à¸Ńà¸ģ
Ġà¸ŀà¸£à¸° à¹Ģà¸Ī
à¸Ļ à¹Ģà¸«à¸Ļ
à¸Ļà¸¡ à¸²à¸ª
à¹Ħà¸Ľ à¹Ģà¸Ķ
à¹ĥà¸Ļ à¸ģà¸£à¸°à¸Ĺ
v d
à¸ĩ à¹Ħà¸Ľà¸Ĺ
à¸ĩà¸²à¸Ļ à¸ķ
à¸¡ à¹Ģà¸ª
Ġà¹Ģà¸£à¸² à¹Ģà¸¥
Ġp ack
à¸Ħà¸Ńà¸Ļà¹Ĥà¸Ķ à¸¡
à¸Ħà¸Ļ à¸Ī
à¸Ķà¸ª à¹Ģà¸Ľ
à¸Ńà¸Ńà¸ģà¸Īà¸²à¸ģ à¸ļ
Ġhot el
ouch er
?? ,
à¸Ħà¸§à¸²à¸¡ à¸Ĺ
Ġn ex
à¸²à¹Ģà¸£ à¸²à¸£
à¸²à¸¡ à¸²à¸Ĭ
à¸ĩ à¸Ħà¸§à¸²à¸¡à¸£
à¸Ļ à¹ĥ
Ġs kin
à¸Ľà¸£à¸° à¹Ģà¸ł
à¸Ķ à¸Ĺà¸²à¸ĩ
à¹ĥà¸Ļ à¹ģà¸ķ
o ice
à¹ĥà¸Ļ à¸ģ
________________ ________________
Ġà¹ģà¸ļà¸ļ à¸Ĺ
à¸¡à¸« à¸²à¸Ĭà¸Ļ
à¸ľà¸¡ à¸ŀ
à¹Ĥà¸Ķ à¸Ļà¸ķ
à¸Ńà¸¡ à¸Ń
à¸«à¸¥ à¸Ńà¸Ķ
à¸ĩ à¸Ńà¸Ļ
à¸Ĥà¸Ńà¸ĩ à¹Ģà¸ŀ
à¸¡ à¸ģà¸²à¸£
à¹ģà¸¥à¸° à¸Ķ
à¸²à¸£ à¸°à¸Ħ
#### ####
à¸Ħà¸§à¸²à¸¡ à¸ģà¸£
Ġ201 8
à¸Ĺ à¸Ķ
à¸Ļà¸Ħà¸Ļ à¸£
à¸ĩà¸ľà¸¥ à¹ĥà¸«
à¸ķ à¹ģà¸¥
Ġ201 2
à¸Ķà¸Ń à¸²à¸ģà¸²à¸£
à¸¢à¸Ļ à¸Īà¸²à¸ģ
Ġà¸ŀà¸£ à¸£à¸Ħ
à¸Ļà¸Īà¸° à¸Ķ
à¹Ģà¸¥à¸¢ à¸Ļ
à¸²à¸Ļ à¸Ńà¸Ļ
à¸ľà¸¡ à¸ĭ
à¸ĩ à¹ģà¸ģà¸£
Ġtrue move
ro m
à¸ŀà¸Ń à¹Ħà¸Ķ
Ġà¸Ĥ à¸ĵà¸°
à¹Ħà¸Ľ à¹ĥà¸Ĭ
Ġto kyo
Ġ15 00
à¸² à¹Ĥà¸£
à¸Ļà¸ª à¸£
Ġà¸Ńà¸¢à¸²à¸ģ à¸¡
à¸²à¸ĩà¸²à¸Ļ à¹Ģà¸Ľ
à¸ĵ à¸Ħà¸°
à¸ģ à¸Ĭà¸Ļ
Ġl ip
à¸ģ à¸£à¸²à¸Ł
à¸§à¸Ļ à¹Ģà¸ģ
à¸ĩ à¸Ĥà¸Ń
à¹ģà¸ĸ à¸¥à¸ĩ
à¸Ńà¸Ńà¸ģ à¸¡à¸²à¸Īà¸²à¸ģ
à¸Īà¸ļ à¹ģà¸¥
à¹Ģà¸ģà¸£ à¸ĩà¹ĥà¸Ī
à¸° à¸ŀà¸£
à¹Ģà¸Ļ à¸Ńà¸£
à¸²à¸¢ à¸«
à¸¢ à¸¡à¸²à¸ģ
Ġà¸ģ à¸£à¸£à¸¡
à¸Ļà¹Ħà¸Ľ à¸ª
Ġà¸Ľà¸£à¸°à¸¡à¸²à¸ĵ à¸§
à¹Ģà¸£ à¸²à¸ªà¸²à¸¡à¸²à¸£à¸ĸ
à¸²à¸Ļ à¸§à¸¢
à¹Ģà¸Ħà¸¥ à¸¡
à¸Ńà¹Ħà¸Ľ à¸Ĺ
à¸Ļà¸Ħ à¸Ķ
u ck
à¸¢à¸§ à¹Ģà¸Ĭ
à¸¢à¸¢à¸¢à¸¢ à¸¢à¸¢à¸¢à¸¢
à¸ķà¸²à¸¡ à¸«à¸²
à¸Ńà¹Ħà¸Ľ à¸Ķ
à¸Ńà¸Ļà¹Ĩ à¸§
b s
à¸Ļà¸Ńà¸Ļ à¸Ħ
à¸Ńà¸°à¹Ħà¸£ à¹ĥà¸«
Ġà¸Ħ à¸ļà¸ģ
à¸Ħà¸§à¸²à¸¡ à¸¢
à¸Ļà¹ĥà¸Ļ à¸Ĺ
? )
à¸«à¸¡à¸²à¸¢ à¹Ģà¸«à¸ķ
à¸ł à¸²à¸¢à¸«à¸¥
Ġ er
Ġà¹ģà¸ªà¸Ķ à¸ĩà¸§
à¸µ -
à¸Ń à¸Ħà¸°
tr a
à¹Ħà¸«à¸Ļ à¸¡à¸²
à¸²à¸Ħ à¸ļà¸ģ
Ġy our
à¸Ħà¸Ļ à¸£à¸Ńà¸ļà¸Ĥ
à¸ļà¸ģà¸²à¸£ à¹ĥà¸Ĭ
à¸Ľà¸£ à¸²à¸ģà¸ıà¸§
à¹Ĩ à¹ģà¸¥
à¸§à¸¢ à¸¢
à¹Ģà¸ľà¸¢ à¹ģà¸ŀà¸£
à¸ģ à¸ĩ
Ġà¹ ĵ
à¸ģà¸²à¸£ à¸Ľà¸£
à¸Ľ à¸«à¸Ļ
Ġà¸¡ à¸²à¹Ģà¸¥
à¸¡ à¸Ł
à¸ª à¸¢à¸²à¸¡
à¹Ģà¸ĭ à¹Ģà¸§
à¹Ģà¸¥à¸¢ à¸£
Ġà¸ģ à¸Ľà¸Ľà¸ª
à¸ĩ à¸ģà¸²à¸£à¸Ĺ
Ġ à¸«à¸¥à¸²à¸¢à¹Ĩ
à¹Ģà¸ļ à¹Ģà¸ģà¸Ńà¸£
à¸£à¸° à¸¥
Ġs l
à¸ģà¸¥ à¸°
à¸Ń à¹Ģà¸¢
f c
à¸ģ à¹Ģà¸¢à¸Ńà¸°
à¸ķ à¹ĥà¸«
à¸Ĥ à¸Ńà¸ªà¸Ńà¸ļà¸ĸà¸²à¸¡
one y
Ġ eng
Ġà¸ĩà¸²à¸Ļ à¸Ļ
Ġà¸Īà¸° à¹Ģà¸¥
t ain
à¸«à¸¡ à¸Ńà¸ģ
à¸Ļ à¹Ħà¸Ł
à¸²à¸Ļ à¸ľà¸¡
à¸£à¸ª à¸Ĭà¸²à¸ķ
à¹Ģà¸Ńà¸ĩ à¹Ħà¸Ķ
à¹Ģà¸ļ à¸£à¸Ħ
à¸¢ à¹Ģà¸¥
à¸²à¸ª à¸²à¸§
Ġà¸ªà¸° à¸Ķà¸§à¸ģ
à¸Ļ à¸Ńà¸Ńà¸ģà¹Ħà¸Ľ
à¸²à¸ķà¸Ńà¸ļ à¸§
à¸¥à¸ĩ à¸£
Ġà¸ª à¸²à¸£
à¸ŀà¸Ńà¸Īà¸° à¸Ĺà¸£à¸²à¸ļ
à¸Ļ à¸Ĥà¸Ń
re am
à¸Īà¸²à¸ģ à¸ķ
à¸Ĺà¸²à¸ĩ à¹Ģà¸Ķ
a e
à¸Ń à¹Ģà¸£à¸²à¹Ģà¸Ľ
à¸§à¸¢ à¹Ģà¸Ľ
à¸Ńà¸Ķ à¸ª
à¸ķà¸£ à¸Ļ
à¸Ńà¸Ń à¸Ń
à¹ģà¸Ļà¸Ļ à¸ĭ
g et
à¸ķà¸Ńà¸ļ à¸£
à¸¢ à¸łà¸²à¸©
à¸Ĥà¸Ńà¸ĩ à¹ģà¸ķ
à¹Ģà¸ļ à¸¥
Ġà¸Ńà¸¢à¸²à¸ģ à¸Ĺ
à¸Ķ à¸¢à¸²à¸§
à¸Ļà¸Ħà¸Ļ à¸Ĭà¸Ńà¸ļ
à¸²à¸¡ à¸²à¹Ģà¸Ľ
à¸Ńà¸Ńà¸ģ à¸Ńà¸²à¸ģà¸²à¸¨
Ġà¹Ģà¸ŀ à¸¥
Ġà¸Īà¸²à¸ģ à¸£à¸²à¸Ħà¸²
à¸² à¹ĥ
à¸Ľ à¸²à¸£
à¸²à¸¡ à¸Ĺ
a o
Ġà¹ģ à¸¢
à¸¡à¸² à¹Ģà¸Ĺ
à¹ĥà¸ļ à¹Ģà¸ªà¸£
à¹Ĥ à¸Ĥ
à¹Ģà¸¥à¸¢ à¸«à¸£
à¸²à¸¢à¸Ĺà¸Ńà¸Ķ à¸ªà¸Ķ
à¹Ģà¸ģà¸¡ à¸Ħà¸Ńà¸¡à¸ŀ
em s
Ġà¸Ļ à¸Ħà¸£
à¸«à¸¥à¸²à¸¢ à¸§
à¸Ľ à¸Ń
if t
à¹Ħà¸Ľ à¸Ħà¸£
à¹ĥà¸Ļ à¸ªà¸¡
à¸ģ à¹ģà¸Ħ
Ġs oft
Ġà¹Ģà¸ŀà¸£à¸²à¸° à¹Ģà¸Ħ
... ,"
à¸«à¸¡à¸Ķ à¸Ńà¸²à¸¢
Ġ à¸łà¸²à¸ŀà¸¢à¸Ļà¸ķà¸£
à¸²à¸ĩà¸£ à¸§à¸Ķà¹Ģà¸£
app y
à¹Ģà¸Ń à¸²à¸Ĺ
à¹ģà¸Łà¸Ļ à¹Ģà¸£à¸²
Ġà¸Ĭ à¸²à¸¢
Ġà¸¡ à¸²à¹ĥà¸«
à¹Ħà¸«à¸§ à¹ģà¸¥
à¸§à¸¢ à¸¥
à¸Ļà¹ĥà¸Ļ à¸Ĭ
à¸ķà¸£ à¸Ńà¸²à¸«à¸²à¸£
Ġà¹Ģà¸ģ à¸²à¸«à¸¥
à¹Ģà¸ŀ à¸²à¸°
à¸Ļà¸Ĺ à¸«à¸²à¸£
n k
Ġà¹Ģà¸£ à¸²à¸Ĥ
à¸ŀ à¸Ńà¸ģ
à¸¢à¸Ļ à¸Ĥ
à¸§ à¸£à¸ĸ
à¹Ģà¸Ĥ à¸²à¸ļà¸Ńà¸ģà¸§
à¸²à¸Īà¸° à¸Ńà¸¢
à¹Ģà¸ŀà¸£à¸²à¸° à¹Ģà¸Ľ
à¸ĩà¸²à¸Ļ à¹ĥà¸«
à¸²à¹Ħà¸Ľ à¸ķ
à¸²à¸£ à¸²à¸ĩ
à¸§à¸Ļ à¸Ķ
Ġ à¹Ħà¸¥
Ġà¹ģ à¸«à¸¥
Ġà¸ģà¸²à¸£ à¸Ī
Ġà¸ļ à¸¥à¸²
Ġà¸Ĥà¸Ń à¸Ńà¸Ļ
à¸Ĥà¸Ļà¸²à¸Ķ à¹Ħà¸«à¸Ļ
à¸²à¸ªà¸ĩà¸ª à¸²à¸£
Ġà¸Īà¸° à¹Ģà¸«
Ġà¸Ĥà¸Ńà¸ĩ à¸Ħ
à¹Ĥà¸Ķ à¸Ļà¸Ķ
à¹Ģà¸Īà¸Ń à¸«à¸Ļ
à¸¡à¸Ń à¸Ńà¸Ļà¹Ħà¸¥à¸Ļ
à¸²à¸£à¸° à¸Ķ
Ġà¸Ńà¸¢à¸²à¸ģ à¸ĸà¸²à¸¡à¸§
Ġà¸Īà¸° à¸ª
Ġà¹Ħà¸Ľ à¸ĸ
Ġà¸ŀ à¸Ńà¸£
à¸²à¹Ħà¸Ľ à¸Ħ
à¸²à¸Ń à¸²à¸ģà¸²à¸£
à¸ĭà¸° à¸ĩ
à¹Ģà¸ŀà¸¥ à¸ĩà¸ª
à¸Ńà¸ķ à¸Ńà¸ļ
à¹Ģà¸Ķ à¸Ĭ
à¸ĩ à¸ī
!!!! !!!!
Ġà¸¢à¸ģ à¸ķ
à¸¡à¸²à¸Ļ à¸²à¸Ļà¹ģà¸¥
à¸ģà¸© à¸²à¹Ģà¸£
Ġà¹ĥà¸Ļ à¸«
à¸²à¹Ħà¸Ľ à¹ĥà¸Ļ
0 9
à¹Ģà¸Ĥ à¸²à¸Ńà¸¢
à¸Ķ à¹ĥà¸«à¸į
à¹ģà¸¥à¸° à¸Ĥ
à¸Ļ à¸ļà¸Ĺ
à¸¡à¸²à¸ģ à¹ģà¸¥
m icrosoft
à¸§à¸¢ à¹ģà¸ķ
m in
à¸ĩ à¸ĩà¹Ĩ
à¸² à¹Ģà¸Ħà¸¢
à¸¢à¸§ à¹ģà¸¥
* -
à¸§à¸£à¸£à¸ĵ à¸ł
à¸ģ à¸«à¸¡à¸²à¸¢à¹Ģà¸¥à¸Ĥ
Ġo p
à¸§à¸¢ à¹ģà¸Ĭà¸£
h d
à¸ģà¸£à¸° à¸Īà¸ģ
à¸ĩà¸ķ à¸¥à¸Ńà¸Ķ
Ġ9 9
Ġl ot
Ġh igh
Ġà¸Īà¸° à¸ĭ
Ġ à¹Ģà¸Ńà¸ģ
à¸Ļà¸§ à¸²à¸¢
à¸Ń à¸ŀà¸§à¸ģ
à¹ģà¸¥à¸° à¸Ĭ
ag ue
Ġcl ass
à¸ªà¸Ńà¸ļà¸ĸà¸²à¸¡ à¸ľ
à¸²à¸Ĥà¸Ńà¸ĩ à¸ļ
à¸¡à¸²à¸ģà¹Ĩ à¸Ħ
Ġà¸Ĥà¸Ńà¸ĩ à¹ģà¸Ĺ
à¸ĵ à¸Ńà¸¢
à¸Ĺà¸²à¸ĩ à¸Ń
à¸Ń à¹ģà¸Ļà¸°à¸Ļ
à¸²à¸Ńà¸°à¹Ħà¸£ à¹Ħà¸Ķ
à¸Ńà¸ĩ à¸Ŀ
à¸¡à¸²à¹Ģà¸¥ à¹Ģà¸ĭ
à¹Ģà¸§à¸¥ à¸²à¸§
re t
6 4
Ġà¹Ģà¸« à¸£
Ġà¸ŀà¸Ń à¹Ħà¸Ķ
Ġà¸Ľ à¸ı
à¸²à¸ĩ à¹Ħà¸Ľ
Ġ2 20
à¸Ļ à¸ĺà¸£à¸£à¸¡
à¸ĩ à¸Ħà¸Ļà¸Ĺ
à¸ĩà¸ª à¸²à¸§
Ġg en
Ġà¹ģà¸¥à¸° à¸Ľ
n a
Ġà¸Ĥ à¸§à¸Ķ
à¸ģ à¸Ľà¸¥
à¹Ĥà¸Ł à¸ģ
à¸Ńà¸Ļ à¸Ļà¸°
to yota
à¹ģà¸ªà¸Ķà¸ĩ à¸Ńà¸Ńà¸ģ
à¸Ĭ à¸Ńà¸ļà¸Ħ
à¸® à¸²
à¹ĥà¸ļ à¸Ĥ
à¸Ļ à¸«à¸²à¸¢
Ġb en
Ġp ar
Ġà¹ģ à¸ª
à¸Ńà¸¢à¸²à¸ģ à¸ģ
Ġh ar
à¸²à¸Ļ à¹Ģà¸Ī
à¹Ģà¸ŀà¸¨ à¸ª
à¸Ļà¸ŀ à¸¤à¸«
à¸Ļà¸¢ à¸Ńà¸Ķ
Ġm us
Ġà¸ª à¸ģ
à¸§à¸ĩ à¹Ģà¸§à¸¥à¸²à¸Ĺ
à¹ģà¸ļà¸ļ à¸ª
à¸²à¸ķ à¸Ńà¸ļà¸Ħ
à¸¥à¸¢à¸ģà¸£à¸£à¸¡ à¸Ħà¸§à¸²à¸¡à¸ĩà¸²à¸¡
à¸²à¸Ļà¸Ļ à¸Ńà¸ģ
à¸²à¸¢ à¹Ģà¸ª
à¸¢à¸ĩ à¸ŀà¸Ń
à¹ģà¸Ľà¸¥ à¸§
s k
à¸Ĥà¸Ńà¸ĩ à¸ŀà¸§à¸ģ
à¸Ńà¸ĩ à¸ļà¸Ńà¸ģ
à¸²à¸ĩ à¸ªà¸£à¸£à¸Ħ
à¸Ĥà¸Ńà¸ĩ à¹Ģà¸ĺà¸Ń
à¹Ĥà¸Ķà¸¢ à¸ª
à¸ļà¸²à¸Ĺ à¸ªà¸¡à¹Ģà¸Ķ
à¸§à¸¢à¸ļà¸Ńà¸ģ à¸Ĺ
à¸Ħà¸§à¸²à¸¡ à¸ªà¸Ļà¹ĥà¸Ī
à¸° à¹Ģà¸Ĺ
Ġà¸«à¸²à¸ģ à¸¡
à¸° à¸ĸ
à¸Ħà¸¥ à¸²à¸ª
à¸Ħà¸§à¸²à¸¡ à¸ļ
Ġà¸Ń à¸ĺ
Ġ4 8
ord er
à¸§ à¹Ģà¸Ĭ
à¸² à¹Ģ
à¸ĩà¸²à¸Ļ à¹Ħà¸¡
à¸Ń à¹ģà¸Ķà¸ĩ
Ġà¸ªà¸ĩà¸ª à¸²à¸£
Ġk ing
à¸Ľà¸£à¸° à¸«à¸¥à¸²à¸Ķ
à¹Ģà¸Ķ à¸ļ
à¸Ľ à¹Ģà¸Ľà¸Ńà¸£
à¸ļà¸ģà¸²à¸£ à¸£
Ġà¹Ĥà¸Ľà¸£ à¹ģà¸ģà¸£
à¹Ĥ à¸Ńà¸Ĺ
à¸²à¸¢ à¸²à¸ģ
à¸Ļ à¹Ĥà¸ķ
à¸Ļà¸Ħà¸Ļ à¸¥à¸°
à¸§à¸ĩ à¸Ī
à¸Īà¸° à¸ľ
à¹Ģà¸Ń à¸²à¸ģ
à¸£à¸²à¸ ĭ
à¹Ģà¸ª à¸Ķ
à¹Ħà¸«à¸Ļ à¸Ħ
à¸«à¸¥ à¸²à¸ļ
à¸²à¸ľà¸¡ à¸ģ
à¸£à¸§à¸¡ à¸Ĺ
à¸²à¹Ģà¸Ĺ à¸Ńà¸¡
à¸Ńà¸¢ à¹Ħà¸¡
à¸ªà¸²à¸¡à¸²à¸£à¸ĸ à¹Ģà¸Ĥ
à¹ī ...
Ġà¸Ĥà¸Ńà¸ļ à¸ŀà¸£à¸°à¸Ħ
Ġà¹Ģà¸ģ à¸¡
à¸²à¸Ĭ à¸²à¸¢
à¸²à¸Ļà¸ģ à¸²à¹ģà¸Ł
à¸Ńà¸°à¹Ħà¸£ à¸Ħ
à¸ķà¸Ńà¸Ļ à¸ģà¸¥à¸²à¸ĩà¸Ħ
à¸ģ à¸łà¸²à¸ŀ
Ġà¸Ńà¸°à¹Ħà¸£ à¸Ĺ
à¹Ĥà¸¥ à¸ģà¸Ļ
à¸¡ à¹ĥà¸ª
Ġà¸Ĥ à¸§
à¸Ļà¸Ń à¸²à¸Ĭ
à¸Ļà¹Ģà¸ģ à¸¥
an o
à¸« à¸²à¸«à¸¡à¸Ń
à¸²à¸§ à¹Ģà¸Ĺ
à¹ĥà¸Ī à¹ĥà¸«
à¹ģà¸Ļà¸§ à¹Ĥà¸Ļ
à¹ģà¸Ł à¸£
à¸£à¸²à¸Ħ à¸²à¸ķ
à¸ªà¸ļà¸²à¸¢ à¹Ĩ
à¸§ à¸ģà¸£
à¸ķà¸¥à¸²à¸Ķ à¸Ļ
à¹ĥà¸Ī à¸ķ
Ġw ork
à¸²à¸Ĥ à¸²à¸Ķ
à¸Ĭà¸²à¸¢ à¸ģ
à¸Ľà¸£ à¸²à¸ģà¸²à¸£
à¸² à¹ĥà¸ģà¸¥
à¸² à¹Ĥà¸ķ
à¸§à¸¢ à¸¡à¸²à¸ģ
à¸Ńà¸¢à¸²à¸ģ à¸ĭ
à¹Ħà¸Ĥ à¸Ľ
à¸ŀ à¸Ńà¸ķ
à¸Ńà¸Ķ à¸¡
à¸Ħà¸§à¸²à¸¡ à¹Ģà¸Ĥ
à¸²à¹Ħà¸Ľ à¹ĥà¸Ĭ
az ada
Ġm ax
à¸ģà¸ª à¸²à¸¡
à¸²à¸Ľà¸£à¸° à¸Ī
à¸Ļà¸ģà¸²à¸£ à¸ķ
p g
à¸Ńà¸¡ à¸¢
Ġs k
Ġf ir
Ġà¸Ħ à¸²à¸£
à¸Ķ à¹ģà¸ģ
à¸ł à¸²à¸¢à¹ĥà¸ķ
à¸²à¹ģ à¸Ļà¸§
à¸²à¸ĩ à¸Īà¸£
à¸²à¸£ à¸Ńà¸ĩ
à¹ĥà¸Ī à¸Ħ
à¸Ļà¸¡ à¸²à¸Ļà¸²à¸Ļ
à¹ģà¸ľ à¸Ļà¸ģ
à¸Ĺà¹Ĥà¸ĺ à¸Ľà¸ģà¸£à¸ĵ
à¸Ń à¹Ģà¸ŀà¸£à¸²à¸°
c d
à¸Ńà¸ģ à¹Ħà¸Ķ
Ġà¹Ģà¸ŀà¸£à¸²à¸° à¸¢
Ġà¹Ĥ à¸®
Ġà¹Ģà¸ª à¸²à¸£
à¹Ģà¸Ħà¸¢ à¸ª
à¸ĩà¹Ĩ à¸¡
à¸Ķ à¸Ļà¸°
à¸Ļ à¸Ľà¸£à¸°à¸ģ
Ġco ach
à¸¢à¸§ à¹Ĥà¸ķ
à¹Ī "
Ġ3 9
Ġà¸ļà¸²à¸Ĺ à¸ķ
à¸Ļà¸Ĺà¸²à¸ĩ à¸ģ
Ġà¹ģà¸Ł à¸Ĭ
à¸²à¸¡ à¸²à¹Ħà¸Ķ
à¸§ à¸Ńà¸Ńà¸ģ
à¸§à¸ĩ à¸¥
à¹ģà¸¥à¸° à¸¥
à¹Ħà¸Ľ à¸ķà¸²à¸¡
à¸£à¸ļà¸ģà¸§à¸Ļ à¹ģà¸Ļà¸°à¸Ļ
à¸Ńà¸°à¹Ħà¸£ à¸Ļ
à¸«à¸£à¸Ńà¸ģ à¸Ħ
Ġ ;
à¸¥à¸Ńà¸ĩ à¹ĥà¸Ĭ
Ġp hot
Ġà¹Ģà¸Ħ à¸¥
à¹ Ķ
à¸Ńà¸¢à¸²à¸ģ à¸ķ
à¸ģà¸Ħà¸Ļ à¸Ħ
Ġà¹ģ à¸¢à¸ģ
à¸¢à¸ļ à¹Ģà¸£
à¸ļà¸£ à¸Ħà¹Ģà¸ģà¸Ńà¸£
Ġg old
à¸Īà¸Ļ à¸ģà¸§
Ġà¸Īà¸° à¹Ģà¸£
à¹Ģà¸ĭ à¸Ļà¸ķ
à¹ģà¸Łà¸Ļ à¸ľà¸¡
à¸¡ à¸ī
à¸Ľà¸£à¸°à¹Ĥà¸¢ à¸Ħ
à¸Ńà¸ĩ à¸Ħà¸§à¸²à¸¡à¸£
Ġà¹ģà¸¥à¸° à¹ĥà¸Ĭ
à¸£à¸ĸ à¹Ģà¸¡à¸¥
à¸¡ à¸ŀà¸£
à¸° à¹Ģà¸Ĥ
à¸¢à¸ģ à¹Ģà¸ģ
no vo
w indows
à¸ģà¸© à¸²à¸Ħ
à¹ĥà¸Ļ à¹Ĥà¸¥à¸ģ
1 50
Ġv ol
Ġl ike
à¹Ģà¸Łà¸ĭ à¸ļ
à¸Ńà¸°à¹Ħà¸£ à¹Ģà¸ģ
à¸Ńà¸¡ à¸Ī
à¸Ł à¸Ĺ
Ġ5555 55
à¸ŀà¸Ń à¸Īà¸°à¸£
//// ////
à¸Ń à¸Ĥà¸Ń
Ġ $
à¸Ń à¸ī
à¹Ģà¸ĭ à¸Ļ
à¹ģà¸Ļà¸° à¹ģà¸Ļà¸§
à¸ĵ à¸Ń
à¸¢à¸Ķ à¸ģ
n g
Ġà¹Ĥà¸£ à¸ĩ
Ġs un
o y
à¸Ķ à¹Ħà¸£
à¸²à¸Ļ à¹ĥà¸«à¸¡
à¸ĵ à¸Īà¸°
ur a
à¸ļ à¸Ńà¸Ļ
at s
à¹ĥà¸Ī à¸£
à¸Ĥ à¸ĵà¸°à¸Ļ
ic t
à¸Ľà¸£à¸°à¸ģà¸²à¸£ à¹ĥà¸Ķ
Ġv oucher
à¸Ķ à¸ģà¸§
à¸¡à¸²à¸Ŀ à¸²à¸ģ
Ġà¸ģà¸£à¸° à¹Ĥà¸Ľà¸£
à¸´ "
à¸ģ à¸Īà¸°à¸¡
à¸²à¸Ĥ à¸²à¸§
à¹Ĥà¸¢ à¸ĺ
à¸Ńà¹Ģà¸£ à¸²à¸¡
à¸Ńà¸Ļ à¸Ħà¸Ļà¸Ń
à¸²à¸ĩ à¹Ģà¸«
à¸²à¸ĩ à¹ģà¸Ļ
à¸£à¸§à¸¡ à¸ĸ
Ġà¹Ģà¸ŀà¸£à¸²à¸° à¹Ģà¸«
7 00
2 50
Ġm v
à¸¥à¸° à¸ķ
à¹ģ à¸Ļà¸ļ
à¸Ĺà¸²à¸ĩ à¸ģà¸²à¸£à¹Ģà¸¡
à¸²à¸Ļ à¸Ńà¸ĩà¸Ļ
à¸ģà¸£à¸° à¹Ĥà¸Ķ
Ġà¸ľà¸¡ à¹Ģà¸«
à¸Ńà¸ĩ à¸ĩà¸²à¸Ļ
à¸§ à¹ĥà¸ª
à¸²à¸Ļ à¹ģà¸ķ
à¹Ģà¸Ń à¸²à¸£
Ġà¸Ľà¸£à¸° à¸ĺà¸²à¸Ļ
w i
à¸Ļà¹ĥà¸Ī à¸Ĺ
ic a
à¸²à¸§ à¹Ħà¸¡
à¹Ĥà¸¥ à¸ģà¸Ĺ
Ġf ull
ic s
à¸«à¸¡ à¸Ķà¸Ĺ
à¹Ģà¸Ĥ à¸²à¸ŀ
à¸²à¸Ļ à¸Ļà¸Ĺ
à¸Ĥà¸²à¸¢ à¸Ķ
à¹Ģà¸§à¸¥ à¸²à¹ĥà¸«
à¹Ĥà¸Ĺà¸£ à¸«à¸²
à¸ķ à¸Ī
Ġà¹Ħà¸Ľ à¹ģà¸¥
ĠâĻ ¥
à¸Ńà¸Ļ à¹ģà¸¥à¸°
à¸Ńà¸ĩà¸Ļ à¸Ńà¸ģ
à¸Ľ à¸Ħà¸£
Ġà¸Ĺ à¸«à¸²à¸£
Ġp ark
à¸Ĥ à¸ĵà¸°
à¸²à¸¥ à¸°à¸Ħà¸£
Ġcre am
à¸ļ à¸²à¸£
Ġà¹ģà¸Ľà¸¥ à¸§
à¹ĥà¸Ļ à¸ģà¸£à¸ĵ
à¸Ńà¸¡ à¹ģà¸¥
à¸ļ à¸¨
Ġà¸Ħà¸§à¸²à¸¡ à¹Ģà¸£
à¸Ļà¸Ĺà¸²à¸ĩ à¸ģà¸¥
à¸Ĥà¸Ńà¸ĩ à¹Ģà¸Ī
à¸²à¸¢ à¸Ńà¸Ķ
if e
Ġl ive
à¸ļ à¸¥à¸ĩ
6 3
à¹Ģà¸£ à¸¢
Ġà¸ģ à¸°à¸§
Ġun iq
à¸Ń à¹ģà¸Ķ
à¸Ńà¸°à¹Ħà¸£ à¸Ħà¸°
à¹Ģà¸§à¸¥ à¸²à¸ķ
à¸Ĥà¸Ńà¸ĩ à¸Ľ
à¸Ńà¸¢ à¹ģà¸Ħ
à¸ĩ à¹ģà¸Ĭà¸¡à¸Ľ
à¸¢à¸ģ à¸°
ar ch
à¸į à¸Ĭà¸²à¸ķ
Ġin d
à¸¡ à¸¡à¸²
à¸Ńà¸Ń à¹Ģà¸Ķà¸Ńà¸£
à¸Ľà¸£à¸° à¸¢
Ġà¸Ħà¸Ļ à¹Ħà¸Ĺà¸¢
à¸¥ à¹Ģà¸ģ
à¹Į ","
à¸£à¸ĸ à¸Ħ
Ġà¹ģà¸¥à¸° à¹ģà¸¥
à¸Ńà¸ģ à¸£à¸°
à¸¢à¸Ļ à¸ļà¸Ĺ
à¸ªà¸° à¸ŀà¸²à¸Ļ
à¸£à¸²à¸Ħ à¸²à¸ª
à¸²à¸ģà¸²à¸£ à¸ļ
à¸²à¸¡ à¸²à¸Ī
à¸° à¸ªà¸¡
à¸¥à¸° à¸¥à¸²à¸¢
à¸ķà¸£ à¸Ľà¸£à¸°à¸Ĭà¸²à¸Ĭ
à¸ģà¸²à¸¥ à¸Ĺ
à¸§à¸ĩ à¹Ģà¸Ĭ
c el
à¸« à¸²à¸ª
à¸Ńà¸ģ à¹ĥà¸Ĭ
à¸Ńà¸ĩà¸Ĺ à¸Ńà¸ĩ
à¸§à¸¢ à¸ŀ
Ġà¸Īà¸° à¸ĸ
à¸²à¸¢ à¹Ģà¸£
à¸ģà¸²à¸£ à¸ľ
à¸ĩ à¸Ľà¸£à¸°à¹Ģà¸Ĺà¸¨
à¸Ļà¹Ħà¸ĩ à¸ļ
à¸Īà¸²à¸ģ à¸ª
d it
Ġà¹Ģà¸Ľ à¸£
à¸Ľ à¹Ģà¸Ľ
à¸łà¸²à¸© à¸²à¸ķ
à¸Ńà¸§ à¸²à¸Ļà¸Ļ
à¸²à¸Ńà¸¢à¸²à¸ģ à¹ĥà¸«
à¸¡ à¸ĩà¸Ħà¸¥
à¸§à¸ĩ à¸ŀ
à¹Ģà¸£à¸² à¹ĥà¸«
à¸Ħ à¸Ńà¸£
à¹Ģ à¹Ģà¸Ĺ
à¸ĵ à¸Ĭà¸²à¸¢
à¸²à¸ĩà¹Ĩ à¸ģ
b ank
à¸Ńà¸ĩà¸ģà¸²à¸£ à¹ĥà¸Ĭ
à¸¢à¸Ļ à¸ľ
Ġ à¸Ŀà¸£
à¸² à¹Ģà¸ŀà¸¥à¸ĩ
à¸ģà¸²à¸£ à¹Ħà¸Ķ
à¹Ĥ à¸£à¸¡
à¸²à¸ĩ à¹Ģà¸¡
Ġ---------------- ---
à¸µà¹ī ...
à¸Ļ à¸łà¸²à¸¢à¹ĥà¸Ļ
à¸ĩà¸ģ à¸°
Ġ^ _^
à¹ĥà¸Ļ à¸Ĳà¸²à¸Ļà¸°
Ġà¸ŀà¸§à¸ģ à¸Ļ
Ġw in
à¸ª à¹Ħà¸Ķ
a id
à¸²à¹Ħà¸Ľ à¸ĭ
à¸ĩ à¹Ĥà¸Ķ
à¹ĥà¸Ļ à¸ĩà¸²à¸Ļ
Ġà¹Ģà¸¥ à¸Ĥà¸Ĺ
à¹Ĥà¸¥ à¸ģà¸ª
Ġs tr
Ġà¹Ģà¸Ħ à¸¢à¸¡
à¹Ĩ à¸Ķ
à¸ļ à¹ģà¸Ħ
à¸ģ à¸Ĭà¸Ńà¸ļ
u aw
à¸Ļà¹ĥà¸Ļ à¸§
Ġà¸ģ à¸ģ
à¸Ķ à¸Ńà¸°à¹Ħà¸£à¸ģ
à¹Ħà¸£ à¸ĩ
Ġà¸Īà¸° à¸¢
à¸¢à¸§ à¹Ģà¸¥à¸¢
à¸Ń à¹Ħà¸«à¸Ļ
à¸ļ à¸¡à¸²à¸ļ
à¹Ĥà¸¡ à¸¢
à¸²à¸¥ à¸Ńà¸ĩ
à¸²à¸ģ à¸£à¸ĵ
Ġà¹Ģà¸ŀà¸£à¸²à¸° à¸Ķ
Ġt ag
à¸¢à¸ĩ à¹Ģà¸Ķ
à¸²à¹Ģà¸Ĥ à¸²à¹Ħà¸¡
Ġ.... ..
à¸¥ à¸Ķà¸Ļ
n ey
Ġà¹ģà¸ĸ à¸§
à¸Ħà¸Ļ à¸ŀ
i or
à¸ļ à¹Ĥà¸Ĺà¸£à¸¨
à¸²à¸Ļ à¸ĸ
Ġp ay
à¸Īà¸° à¸ļ
à¸Ńà¸¢ à¸«à¸Ļ
Ġp an
à¸Ļà¸Ĥà¸Ńà¸ĩ à¸Ĺ
à¸¡ à¸Ńà¸ļ
à¸§à¹Ģà¸Ńà¸ĩ à¹ĥà¸«
à¸Īà¸£ à¸£à¸¢
à¸¢à¸Ļ à¸«
à¸ĺ à¸ł
Ġà¸¡ à¸²à¸Ļ
Ġro uter
à¸ĩà¹ĥà¸Ļ à¸ļ
v en
Ġlum ia
à¸²à¸¡ à¸«à¸²à¸¥
ud io
à¹Ĥà¸Ĺà¸£ à¸«
Ġà¸Ħà¸Ļ à¸£
à¸Ĥà¸²à¸¢ à¹Ħà¸Ķ
à¸Ńà¸¢ à¸ĸ
à¹Ģà¸£ à¸²à¸Ĭ
à¸Ī à¸Ļà¸ļ
à¹ģà¸Ī à¸ģ
à¸Ļ à¹Ħà¸Ĥ
à¹Ģà¸Ĥ à¸²à¸ģà¸¥
à¸Ńà¸¢à¸²à¸ģ à¹ĥà¸Ĭ
à¸§à¸ĩ à¸Ħ
Ġ ~
it al
à¹Ģà¸Ĥ à¸²à¸ļà¸Ńà¸ģ
à¸¢à¸¡ à¸ģ
à¸ģ à¹Ħà¸Ĺà¸¢
Ġl g
à¸Ńà¸ĩà¸Īà¸²à¸ģ à¸¡
à¸Ĥ à¸Ńà¸¢
à¹Ģà¸® à¸ĩ
à¸ĩà¸ª à¸Ļ
p age
à¸Ļà¸¡à¸² à¹ĥà¸«
à¸Ķ à¸«à¸¢
à¹ĥà¸Ļ à¸Ķ
à¸Ľà¸£ à¸ģà¸ķ
à¸Ńà¸¢ à¸«à¸¥
à¸£à¸²à¸Ĭ à¸§à¸ĩà¸¨
à¸ģà¸ĩà¸²à¸Ļ à¸ļà¸£
à¸Ńà¸¢à¸²à¸ģ à¸ĸà¸²à¸¡à¸§
à¸ļ à¹Ĥà¸¥à¸ģ
à¸Ńà¸ļ à¸ģ
à¸¢à¸Ńà¸Ķ à¹Ģà¸¢
à¸ľà¸¡ à¸Ń
Ġre d
à¸Ńà¸Ńà¸ģà¸¡à¸² à¹Ħà¸Ķ
à¸Ńà¸Ń à¸²à¸¢
à¹ģà¸Łà¸Ļ à¸Ńà¸¢
à¸Ńà¸Ļà¹Ĩ à¸Ĭ
Ġbo x
à¸²à¸ļ à¸Ĺ
à¸ľà¸¥ à¸§
à¸ªà¸Ńà¸ļà¸ĸà¸²à¸¡ à¹Ģà¸ģ
à¸ĩà¹Ĥ à¸ļà¸£à¸Ħà¹Ģà¸ģà¸Ńà¸£
à¹Ĥ à¸Ńà¸£
Ġà¸Ľà¸£à¸°à¸ģà¸Ńà¸ļ à¸Ķ
à¸¥ à¹Ħà¸Ķ
Ġà¹Ģà¸ŀà¸£à¸²à¸° à¸ŀ
à¸Ķà¹ĥà¸Ļ à¹ĥà¸Ī
à¹ģà¸Łà¸Ļ à¹ĥà¸«à¸¡
à¸²à¹Ģà¸£ à¸²à¸Ĭà¸Ńà¸ļ
à¸ĩà¹Ħ à¸ĩà¹Ħà¸¡
9 8
à¹Ģà¸Ńà¸ĩ à¸Ħà¸£
à¸ªà¸²à¸ĺ à¸²à¸£à¸ĵ
m art
à¸Ńà¸Īà¸²à¸ģ à¸Ļ
à¸²à¹Ģà¸ł à¸Ń
à¹Ģà¸Ĥ à¸²à¸ª
Ġà¹ģ à¸Ĭà¸£
à¸§ à¹Ħà¸§
à¸²à¸Ļ à¹ĥ
Ġnot ebook
Ġo k
à¸įà¸« à¸²à¸Ĥà¸Ńà¸ĩ
uaw ei
à¹Ģà¸Ń à¸²à¸£à¸ĸ
à¸Ĳ à¸¯
à¸Ńà¸ĩ à¸ļà¸Ńà¸ģà¸§
à¸²à¸ª à¸Ľà¸Ńà¸£
à¸¢ à¸Ľ
à¸ªà¸Ńà¸ĩ à¸Ħà¸Ļ
à¸§à¸¥ à¸Ĭà¸Ļ
Ġgr and
Ġà¸Ļ à¸²à¸ĩà¸ģ
à¸²à¸²à¸²à¸² à¸²à¸²à¸²à¸²
à¸Ķ à¹Ģà¸¢
à¸ļ à¹ĥà¸ª
à¸ģà¸© à¸²à¸ŀ
à¸²à¹ģà¸« à¸ĩ
à¸ľà¸¥ à¸ģ
à¸¡à¸²à¸ģ à¸¡
à¹Ģà¸§à¸¥ à¸²à¸Ľà¸£à¸°à¸¡à¸²à¸ĵ
à¹ĥà¸Ļ à¸Ľà¸£à¸°à¹Ģà¸Ĺà¸¨à¹Ħà¸Ĺà¸¢
à¸łà¸²à¸ŀ à¸Ļ
à¹ ĵ
of f
à¸ģ à¹ģà¸Ļ
?? ?,"
à¹Ĥ à¸«à¸¡à¸Ķ
Ġuniq lo
à¸ĩà¹Ħà¸ĩ à¸ĸ
à¸Ĥ à¸¡
Ġà¹Ģà¸£à¸² à¹ĥà¸Ĭ
à¹ĥà¸Ļ à¸ķà¸Ńà¸Ļà¸Ļ
à¸ļ à¹ģà¸ļà¸ļ
à¸²à¹ģ à¸ļ
à¸ļà¸¡ à¸²à¸£
à¸Ĭà¸¡ à¸§
Ġà¸ŀ à¸Ńà¸§
n ew
à¹Ħà¸Ĺà¸¢ à¸ŀà¸²à¸ĵ
à¹ī (
Ġan al
à¸ļ à¹Ģà¸«à¸¡
à¸²à¸Īà¸° à¸Ļ
Ġc at
à¸ĩà¸ª à¸Ńà¸ĩà¸Ħà¸Ļ
Ġj apan
Ġà¹ģà¸¥à¸° à¸ģà¸¥
à¸¢à¸§ à¸ĭ
à¸µ ...
à¸Ńà¸ĩ à¸ĩ
à¸Īà¸Ķ à¸«à¸¡à¸²à¸¢
à¹ģ à¸ļà¸Ħ
à¸¢à¸ĩ à¸Ĭ
à¹Ĥà¸ĭ à¸Ļ
à¸¢à¸Ļ à¸ĭ
à¸Ī à¸Ļà¸Ĺ
à¸¢à¸Ļ à¹ģà¸ļà¸ļ
à¹Ģà¸§à¸¥ à¸²à¸Ħ
it t
e f
à¸Ļà¹ĥà¸Ī à¹Ħà¸¡
à¸Ľà¸¥à¸²à¸¢ à¸Ĺà¸²à¸ĩ
à¸ĩ à¹ģà¸«
à¹Ħà¸Ľ à¹Ģà¸Īà¸Ń
à¹ģà¸ªà¸Ķà¸ĩ à¸Ħà¸§à¸²à¸¡à¸Ħ
à¸¡à¸²à¸Ľ à¸£
à¸Ľà¸£à¸° à¸ĸ
à¹Ģà¸Ĥ à¸²à¸Ļ
à¸ģà¸²à¸£à¸Ń à¸Ńà¸¡à¹Ģà¸ĩ
7 6
à¸łà¸²à¸Ħ à¸Ń
à¸£à¸²à¸Ĭ à¸ļ
à¸Ńà¸Ļ à¸¡à¸²
à¸Ń à¸²à¸ļà¸Ļ
Ġsp ort
à¸Ńà¹Ħà¸Ľ à¸ģ
à¸²à¸Ļ à¸Ħà¸Ļ
à¸Ĥà¸Ń à¹Ģà¸Ľ
à¸Ńà¸²à¸Ī à¹Ħà¸¡
à¸° à¹Ģà¸Ľ
Ġà¹Ĥ à¸£à¸Ħ
à¸© à¸Ĳà¸²à¸Ļ
à¹Ĥ à¸Ħà¸Ļ
à¸Ń à¹ģà¸Ĺ
à¸Ĺà¸²à¸ĩ à¸Ĭ
à¹ģà¸Łà¸Ļ à¹Ģà¸Ľ
Ġà¹Ģà¸Ń à¸²
à¸Ńà¸Ńà¸ģ à¹Ģà¸Ķ
à¹ģà¸ªà¸Ķ à¸ĩà¸§
à¸Ńà¸¢à¸²à¸ģ à¹Ģà¸Ĥ
Ġà¹ģà¸¥à¸° à¸«
à¸Īà¸° à¸ļà¸Ńà¸ģà¸§
à¸Ńà¸°à¹Ħà¸£ à¸ķ
à¸ªà¸¡ à¸ģ
à¸Ļà¹ģ à¸Ļà¸°à¸Ļ
à¸²à¸Ĥ à¸Ńà¸ļà¸Ħ
à¹ĥ à¸ļà¸Ļ
Ġsu pp
à¹ģà¸¡ à¸Ļ
à¸²à¸¢ à¹Ģà¸ļà¸Ńà¸£
à¸ļ à¸ł
à¸²à¹Ħà¸Ľ à¹Ģà¸Ĺ
à¹ģà¸£à¸ģ à¸Ħ
à¸²à¸Ļ à¹Ģà¸Ĭ
Ġm ot
Ġc op
à¸¢ à¸Ķà¸Ĺ
à¸® à¸Ńà¸¥
à¸«à¸¥à¸²à¸¢ à¸£à¸Ńà¸ļ
à¸¨à¸§ à¸ģà¸£
à¹ģà¸¥à¸° à¹Ģà¸ŀ
à¸ĩà¸ª à¸²à¸£
0 2
st em
à¸Ľ à¸ł
à¸²à¸§ à¹Ħà¸Ķ
à¸¢ à¸Ķà¸ª
à¸¢à¸Ļ à¸Ľ
à¸Ļà¸ĺ à¸¡
à¸Ľ à¸ªà¸£à¸£à¸Ħ
à¸Ħà¸§à¸²à¸¡ à¹Ħà¸¡
à¸Ļà¹ĥà¸Ļ à¸ļ
à¸Ľà¸¥ à¸²
à¸²à¸¢ à¸ģà¸£
à¸Ķ à¸Ľà¸£à¸°à¸ªà¸ĩà¸Ħ
à¹Ģà¸§à¸¥ à¸²à¸ľ
à¸¡à¸²à¸ģ à¸ģà¸ģà¸ģà¸ģ
à¸¡à¸²à¸ģ à¹Ģà¸¥à¸¢à¸Ħ
à¹ĥà¸Ļà¸ģà¸²à¸£ à¹Ģà¸¥
à¸ªà¸Ńà¸ļ à¸ļ
à¹ĥà¸Ļ à¸«à¸¡
à¹ĥà¸Ħà¸£ à¸ª
ation al
Ġà¹Ģà¸Ń à¸²à¹Ģà¸Ľ
net work
à¹Ģà¸« à¸Ńà¸°
à¹Ħ à¸Ĭ
à¸Ńà¸£à¸ĸ à¸¢à¸Ļà¸ķ
Ġ4 2
à¸¢à¸Ļ à¸¢
à¸ªà¸ĩ à¸Ĩ
Ġà¸Ħà¸§à¸²à¸¡ à¸Īà¸£
à¹Ģà¸Ħà¸¢ à¸ĭ
à¸ķ à¸Ľà¸£à¸°à¸Ī
Ġl ight
à¸Ĥà¸Ńà¹Ĥà¸Ĺà¸© à¸Ķ
Ġvis a
à¸²à¸¡ à¸²à¸Ļ
à¹ ĸ
Ġà¸Ķ à¸²à¸£
Ġà¸Ĭ à¸§à¸Ļ
à¸¢ à¹Ģà¸¥à¸¢
à¸Ļà¸ķ à¸ģà¸£à¸£à¸¡
à¸²à¸Ń à¸ĺ
à¸Ĳ à¸§
Ġc ore
à¸£à¸ĸ à¸ģà¸£à¸°à¸ļà¸°
à¸²à¸¡ à¸²à¸«
à¸ģ à¸Ľà¸£
Ġà¸ķ à¸Īà¸§
à¸² à¹Ģà¸«à¸Ļ
à¹Ĥ à¸ģà¸Ļ
à¸¢à¸ĩ à¸¡
à¸¡à¸²à¸ģ à¸ģà¸ģ
à¹ģà¸Ľ à¸°
à¸Ńà¸°à¹Ħà¸£ à¹ģà¸ļà¸ļà¸Ļ
================ ================
à¸²à¹ģ à¸¢
à¸Ķà¸ķ à¸¥à¸Ńà¸Ķ
Ġ à¹Ģà¸Ńà¸ģà¸ªà¸²à¸£
Ġà¹Ģà¸Ī à¸Ńà¸ģ
à¸ķà¸Ńà¸Ļ à¹Ģà¸Ķ
à¸²à¸ĩà¸²à¸Ļ à¸Ľà¸£à¸°à¸Ī
à¸²à¸ľà¸¡ à¹Ģà¸Ľ
à¸Ħà¸§à¸²à¸¡ à¸Ľà¸¥à¸Ńà¸Ķà¸ł
à¹Ħà¸«à¸¡ à¸§
à¸ļà¸Ńà¸ģ à¸ķ
à¸Ļà¸° à¹Ģà¸¥
er a
Ġ à¹Ħà¸¥à¸Ļ
à¹ģ à¸ģà¸ģ
à¸ªà¸²à¸¡à¸²à¸£à¸ĸ à¸£
à¸Ľà¸£à¸° à¸ŀ
à¸ª à¸ķà¸£
Ġà¸ŀà¸Ń à¹Ģà¸Ĥ
à¹Ħà¸Ľ à¹Ģà¸Ĭ
Ġd el
Ġà¸ľà¸¡ à¹Ģà¸£
Ġà¸ļ à¸§à¸ģà¸ģ
à¹Ĥà¸Ĺà¸£ à¸ģà¸¥
à¸²à¹ģ à¸Ńà¸ļ
à¹Ģà¸Ń à¸²à¸Ħ
Ġà¹ģà¸¥à¸° à¸ļ
à¸Ķ à¸ģà¸²à¸£à¸Ĺ
à¸Ļà¸¡ à¸Ļ
à¹ĥà¸Ħà¸£ à¹ĥà¸Ĭ
à¸Ķà¸ģà¸²à¸£ à¸ģ
à¸ģà¸© à¸²à¸«à¸Ļ
Ġà¸ļ à¸²à¸ĩà¸§
à¸§à¸¢ à¸Ľ
Ġc le
à¸ĩ à¹Ģà¸¢à¸Ńà¸°
à¸ļà¸¡ à¸²à¸Īà¸²à¸ģ
Ġà¸ŀ à¸Ńà¸Ĺ
Ġà¹ĥà¸Ļ à¹Ģà¸£
Ġà¹Ģà¸Ń à¸Ł
g oogle
à¸ļà¸Ńà¸ģ à¹Ħà¸Ķ
Ġ3 000
à¸ªà¸¡ à¸Ħà¸§à¸£
u z
ab le
à¸¢à¸ĩ à¸Ń
Ġà¹ģà¸¥à¸° à¹Ģà¸£à¸²à¸ģ
à¸įà¸į à¸²à¸ķà¸£
o il
à¸Ļà¸¡ à¸²à¸¡
Ġm a
y c
f r
à¸ªà¸ĸ à¸²à¸Ľ
à¸¥ à¹ĥà¸«
à¸ģà¹Ĩ à¸§
à¸Ķ à¸Ħà¸°
à¹Ħ à¸ĸ
à¸¹ ,
Ġà¹ĥ à¸ļà¸Ĺ
à¸²à¸ª à¸Ńà¸ļ
ma x
à¸Ĭ à¸Ľ
à¸Ħà¸§à¸²à¸¡ à¸¥
Ġâ ľ
Ġe l
à¸² à¹Ģà¸Īà¸Ń
à¸Ķ à¹ģà¸Ĺ
Ġk e
à¸²à¸ķ à¸²à¸¢
k k
à¸Ļà¸£ à¸Ńà¸ļ
à¸ĵà¸łà¸²à¸ŀ à¸Ķ
Ġà¸ªà¸łà¸²à¸ŀ à¸Ķ
à¹Ħà¸Ĥ à¸¢
à¸Ļ à¸łà¸²à¸©à¸²à¸Ń
Ġà¸¡ à¸²à¹ĥà¸Ĭ
à¸Ń à¹Ģà¸§à¸¥à¸²
à¸Ħà¸§à¸²à¸¡ à¸Ĺà¸£à¸ĩà¸Ī
ag on
à¹Ī ?
Ġà¸Ĥ à¸ĵà¸°à¸Ļ
Ġto yota
à¸§à¹Ĩ à¸Ļ
à¹Ģà¸¥à¸¢ à¸¢
in et
Ġà¸ª à¸Ľ
à¸Ķà¸ª à¸£à¸£
à¹Ģà¸£à¸² à¹Ģà¸Ķ
à¸²à¹Ģà¸ª à¸¡à¸Ń
à¸Ńà¸Ħ à¸Ńà¸¢
a a
à¹Ĥ à¸ļà¸£
Ġà¹Ģà¸£à¸² à¹Ģà¸«
t op
à¸ģ à¸²à¹ģà¸Ł
à¸ĩ à¸ŀà¸¥
à¸Ĥà¸Ńà¸ĩ à¹Ħà¸Ĺà¸¢
à¸Ĺà¸£ à¸¡à¸²à¸Ļ
à¸²à¹ĥà¸Ī à¹Ħà¸Ķ
à¹Ħà¸«à¸Ļ à¹Ħà¸¡
à¸Ńà¸²à¸Ī à¸¡
à¸ªà¸²à¸Ĥ à¸²
à¸²à¸ĩ à¹Ģà¸Ħà¸£
à¹Ģà¸Ńà¸ĩ à¹Ħà¸¡
Ġk ey
Ġb b
it s
Ġà¸Ĥà¸Ń à¸Ĥà¸Ńà¸ļà¸Ħ
d ay
Ġà¸ļà¸²à¸ĩ à¸Ħà¸Ļà¸ģ
à¹Ī ..
à¸Ļ à¹ĥà¸Ķ
Ġ à¸Ĳà¸²à¸Ļ
à¸²à¹Ħà¸Ľ à¸¢
à¸Ńà¸¢ à¸ģà¸¥
à¸Ńà¸¡ à¸²à¸Īà¸²à¸ģ
à¸ľà¸¥ à¸ģà¸£à¸°à¸Ĺ
à¸Ńà¸Ļ à¹ĥà¸«à¸¡
à¸Ļ à¹Ģà¹Ģà¸¥
à¸Ī à¸Ńà¸ĩà¸ķ
à¸²à¸Ľ à¸ı
à¸Ńà¹Ģà¸ŀ à¸¥
à¸Ħà¸¥ à¸²à¸¢
Ġà¸Īà¸° à¹Ģà¸Ĥ
à¹Ģà¸ĺ à¸Ńà¸ķ
à¸£à¸°à¸¢à¸° à¸¢à¸²à¸§
à¸Ńà¸ĩ à¸ľà¸¡
à¸¥à¸° à¸¡
à¸ĩà¸¡ à¸²à¸Ĺ
ang k
à¸ķà¸²à¸¡ à¸ª
d u
Ġà¹Ģà¸£ à¸²à¸ļà¸Ńà¸ģ
à¸ªà¸° à¸Ĺ
Ġà¹Ĥ à¸«à¸¥
à¹Ģ à¸Ńà¸¡
à¸²à¸ł à¸²à¸¢à¹ĥà¸Ļ
à¸²à¸Īà¸° à¸Ĭ
à¸¡ à¸Ĭà¸Ļ
Ġà¸Ħ à¸ĩà¸ķ
à¸ª à¸ĩà¸ļ
à¸Ľà¸£à¸°à¸ģà¸Ńà¸ļ à¸ģà¸²à¸£
à¸Ńà¸¢à¸²à¸ģ à¸¥à¸Ńà¸ĩ
à¹ģà¸Ļà¸§ à¸Ĥ
à¸Īà¸° à¹ģà¸ģ
à¸Ķ à¹Ģà¸ļà¸Ńà¸£
Ġà¹Ģà¸¥ à¸Ļà¸ª
Ġà¸« à¸Ńà¸¡
8 6
à¸«à¸¡ à¸Ńà¸Ķ
Ġà¹Ģà¸£ à¸²à¹Ģà¸Ĥ
Ġ à¹Ħà¸«à¸¡à¸Ħà¸£
à¹ĥà¸Ļ à¸£à¸°à¸ļà¸ļ
n s
à¸¡ à¹Ģà¸ļà¸Ńà¸£
à¹Ģà¸Ĥà¸² à¹Ģà¸¥
à¸ķ à¸«à¸£
à¸ķ à¸§à¸£à¸£à¸©
à¸²à¹Ħà¸¡ à¸Ħ
à¸£à¸ĸ à¹Ģà¸ģ
à¸Ļà¸« à¸Ńà¸¡
Ġà¸ģà¸²à¸ĩà¹Ģà¸ģ à¸ĩ
à¹Ģà¸Ń à¸²à¸Ļ
à¸Ĥà¸Ń à¸ķ
à¸ļ à¸ģà¸£
à¸«à¸²à¸¢ à¸²à¸ģ
à¸ģà¸²à¸£ à¹ģà¸ģ
Ġà¹Ģà¸Ĥ à¸²à¸Ħ
Ġà¸ľà¸¡ à¹Ģà¸Ĥ
à¸Ń à¸²à¸į
à¸§ à¹Ģà¸«à¸¥
à¸Ĭ à¸²à¸Ĭ
à¸²à¸¢ à¸¡à¸²
à¸²à¸ĩ à¸Ļà¸°à¸Ħà¸°
à¸²à¸Ńà¸°à¹Ħà¸£ à¸ļ
à¸¢à¸ģ à¹ĥà¸«
à¹Ĥà¸ĭ à¸¥
à¸ķ à¸Īà¸£
à¸²à¹Ħà¸Ľ à¹Ģà¸£
à¸¨ à¸Ĺà¸²à¸ĩ
à¹ĥà¸Ļà¸ģà¸²à¸£ à¸£
à¹ĥà¸Ļ à¹Ģà¸Ķ
à¸ĩ à¸Ńà¸²à¸«à¸²à¸£
à¸Ńà¸ĩ à¹Ģà¸£à¸²
Ġtr ip
à¸ŀ à¸ĩà¸©
à¸ģà¹Ģà¸ª à¸ļ
à¸ĩà¸«à¸¡à¸Ķ à¸Ļ
à¸ķà¸Ńà¸Ļ à¹Ģà¸¢
à¸Ĥà¸Ń à¸Ħà¸§à¸²à¸¡à¹Ģà¸«
in s
à¸Ńà¸Ń à¸²à¸Ĭ
Ġ ot
Ġà¹Ģà¸§ à¸Ńà¸£
à¸ķà¸Ńà¸Ļ à¸ķ
à¸ªà¸Ńà¸ļà¸ĸà¸²à¸¡ à¹Ģà¸ŀ
à¸¡à¹Ģà¸¡ à¸Ńà¸£
ab y
à¹Ģà¸Ħ à¸¢à¸ģ
:: ::
à¸° à¸Ĭ
à¸²à¸£ à¸ĩà¸ķ
à¸Ļà¸Ĭ à¸²à¸§
à¹Ģà¸§à¸¥ à¸²à¸Ńà¸¢
Ġ7 5
à¸¥ à¸Ńà¸ģ
à¸łà¸²à¸ŀ à¸Ķ
à¸Ļ à¸Ńà¸£
à¹Ģà¸Ħ à¸Ĭ
à¹ģà¸Ļà¸°à¹ģà¸Ļà¸§ à¸ģà¸²à¸£à¸¨
à¸«à¸¥ à¸²à¸Ļ
Ġm od
à¸¥à¸ĩ à¸¡
à¸²à¸ĩ à¹Ģà¸£à¸²
à¸¹à¹Ī ",
Ġhd d
v is
à¹Ī ""
à¸ģà¸²à¸£ à¹Ģà¸ģ
à¸Ļà¹Ħà¸Ľ à¸ĸ
à¸Ńà¸ĩà¸£ à¸Ń
b e
à¸ªà¸Ńà¸ļ à¹Ģà¸Ĥ
Ġà¸Ĥà¸Ńà¸ĩ à¹ĥà¸«à¸¡
à¸Ļ à¸«à¸§
à¸ĵà¸ĳ à¸¥
à¹Ħà¸Ĺà¸¢ à¸ŀà¸£
à¸Ļà¸Ĭ à¸²à¸ķ
0 3
à¸²à¸Ļ à¸²à¸į
à¸Ĺ à¸Ńà¸Ķ
Ġà¸ģà¸²à¸£ à¸£
à¸Ľà¸£à¸°à¹Ģà¸Ĺà¸¨ à¸Ī
à¸Ħà¸£ à¸ĩà¸²à¸Ļ
à¸¡ à¹ĥà¸«à¸į
à¸§à¸ĩ à¹ģà¸£à¸ģ
à¸Ńà¸Ħ à¸Ń
à¸² à¹Ĩà¹Ĩ
à¸£à¸°à¸¢à¸° à¹Ģà¸§à¸¥à¸²
à¸§à¸¢ à¸«
à¸Ńà¸¢ à¸Ĭà¸Ńà¸ļ
à¸ļ à¸Ħà¸Ļà¸Ļ
à¸²à¸ĩà¸²à¸Ļ à¹Ħà¸¡
ro me
"," [
à¹Ģà¸Ī à¸Ńà¸Ħ
à¸ªà¸²à¸¡à¸²à¸£à¸ĸ à¸Ķ
Ġcon t
à¹ĥà¸Ļà¸ģà¸²à¸£ à¹ĥà¸Ĭ
à¸Ķ à¸Ħà¸¥
Ġà¸Ń à¸²à¸Ĭ
à¸Ħ à¸²à¸§
à¸Ľ à¸İ
à¸Ń à¸Ħà¸§à¸²à¸¡à¸£
à¹ģà¸¥à¸° à¹ĥà¸«
à¸ģ à¸²à¸ģ
à¸Ń à¸®
à¸Ħà¸Ļ à¹Ģà¸¥
à¸Ļ à¸īà¸ļ
entr al
Ġoff ice
à¸£à¸£ à¸¢à¸²
à¸Ńà¸¢ à¸ŀ
à¸Ļà¸ķà¸Ļ à¸²à¸ģà¸²à¸£
th ailand
à¹Ģà¸Ķ à¸Ĭà¸Ļ
à¸²à¸¢ à¸ĸ
à¸²à¹ģ à¸Ľ
à¹Ĩ à¸§
à¸Ńà¸°à¹Ħà¸£ à¸Ń
à¸ĩà¹ĥà¸Ī à¸§
à¸¢à¸ĩ à¸Ńà¸¢
à¸² à¹Ħà¸«à¸¡à¸Ħà¸£
Ġà¸ģà¸²à¸£ à¹Ģà¸¥
à¸¢à¸ĩ à¸Ī
à¹Ģà¸Ń à¸Ń
Ġ à¸Ľà¸£à¸°à¸ªà¸ļà¸ģà¸²à¸£à¸ĵ
à¸ļà¹Ħà¸Ľ à¹ģà¸¥
à¹ģà¸Ĺ à¸ļà¸Ĺ
Ġà¹Ģà¸ŀà¸£à¸²à¸° à¸ģà¸¥
à¸Ńà¸Ńà¸ģ à¸Ĺ
Ġà¹Ħà¸Ľ à¸¢
à¸° à¸Ńà¸²à¸Ķ
ee k
à¸²à¹Ĥ à¸Ĭ
à¸²à¸«à¸§ à¸²à¸Ļ
Ġà¹ģà¸Ĺ à¸Ļà¸Ĺ
à¹Ħà¸Ľ à¸Ĺà¸²à¸ĩ
à¸¢à¸§ à¸Ī
à¸²à¸Ń à¸²à¸Ĭ
Ġà¸ļ à¸Ļ
Ġ en
à¸¥à¸° à¹Ģà¸¡
à¹Ĥ à¸ª
one s
Ġinst agram
Ġà¸Ī à¸Ļà¸ķ
Ġà¸Ĭ à¸¡à¸ŀ
à¹Ģà¸¥à¸¢ à¹Ħà¸Ķ
à¸¢ à¹ģà¸ķ
à¸Ļà¹Ģà¸Ĥ à¸²à¸ģ
à¸²à¸ĩ à¹Ĥà¸¥à¸ģ
à¸Ħà¸£ à¸²à¸§à¸Ļ
à¹Ĥà¸¡ à¹Ģà¸Ķ
à¸Ļà¸ģà¸²à¸£ à¸ª
à¸Ńà¸¡ à¹Ħà¸¡
b a
à¸įà¸²à¸ķ à¹ĥà¸«
à¹ģà¸ŀ à¸ĩà¸ģà¸§
Ġà¹ ķ
à¸Ńà¸¥à¸¥ à¸²à¸£
à¸Ļ à¹Ģà¸¢à¸Ńà¸°à¸¡à¸²à¸ģ
à¸ģà¸£ à¸§à¸²à¸¥
à¸Ńà¸¢ à¸Ńà¸Ķ
à¸īà¸²à¸ģ à¸Ĺ
à¸Ħ à¸Ńà¸¥
Ġà¸¡ à¸²à¹ģà¸Ĭà¸£
à¸ķ à¹Ģà¸Ľ
à¸Ń à¹Ģà¸«à¸¥
à¸ŀà¸Ń à¹Ģà¸Ĥ
à¸Ķ à¸£à¸ĸ
à¸Ĥà¸Ļà¸²à¸Ķ à¹Ģà¸¥
à¸ĩà¸¡ à¸²à¸Īà¸²à¸ģ
à¸¡ à¹ģà¸¡
à¸ĩà¹ĥà¸Ļ à¸Ĭ
à¸ķà¸£ à¸ģ
à¸Ī à¸Īà¸£
à¹ģ à¸ļà¸£
Ġa re
à¸Ĺ à¸Ľà¸£à¸°à¸ģ
Ġà¸Īà¸° à¸Ħ
à¸ļà¸ķ à¸Ńà¸Ļà¸Ļ
Ġos aka
à¸¢à¸ģ à¸Ĭ
à¸°à¹Ģà¸¥ à¸²à¸°
à¸¢à¹ĥà¸Ī à¸¡à¸²à¸ģ
à¸Ļà¹ĥà¸Ļ à¸Ľ
à¸° à¸«à¸Ļ
à¸ĩ à¹Ģà¸«à¸ķ
à¹ĥà¸ļ à¹Ħà¸¡
à¹ģà¸¡ à¸Ļà¸ķ
à¸ģà¹ģà¸ªà¸Ķà¸ĩ à¸Ĭà¸²à¸¢
à¸Ļà¸Ĥ à¸Ļà¸²à¸Ķ
à¸ĵà¸¡à¸²à¸ģà¹Ĩ à¸Ħ
à¸ģ à¸Ńà¸²à¸¢
à¸ľ à¸į
à¸Ļ à¹ģà¸£à¸ģà¸Ĺ
à¸Īà¸²à¸ģ à¸Ń
à¸Ļà¸Ħà¸Ļ à¸«à¸Ļ
à¹Ģà¸ļ à¸²à¸°
à¸Ń à¹ģà¸Ī
Ġà¸ª à¸ļ
à¸ļ à¸Ĺà¸£
Ġà¸Ļ à¸Ńà¸ģ
Ġup date
Ġà¸Īà¸²à¸ģà¸£à¸²à¸Ħà¸² à¹Ģà¸ķ
à¸Ł à¸¥
à¸Ńà¸Ļà¹Ĩ à¸ģ
à¹Ģà¸ļ à¸²
Ġ21 00
à¸²à¸ĺ à¸²à¸£à¸ĵ
à¸ĸà¸²à¸Ļ à¸ģà¸²à¸£à¸ĵ
à¸Ĥà¸²à¸¢ à¸ģ
à¸ģà¸²à¸£ à¸ģà¸£à¸°à¸Ĺ
à¸ģà¸²à¸£ à¸ªà¸£
m i
n er
à¸²à¹ģ à¸«à¸¥
à¸£à¸²à¸Ħ à¸²à¸Ļ
Ġà¹Ģà¸Ń à¸Ń
à¸Ńà¸¢à¸²à¸ģ à¹Ģà¸Ľà¸¥
Ġà¸¡ à¸²à¸Ĭ
Ġ5 000
Ġà¹Ģà¸¥à¸¢ à¸ªà¸ĩà¸ª
Ġà¸« à¸²à¸¢à¹Ħà¸Ľ
à¸į à¸ª
à¸Ĺà¸²à¸ĩ à¹Ģà¸¥
à¸ļ à¹Ģà¸ķ
à¸Ńà¸ĩ à¹Ģà¸Ħà¸£
à¸Ĩ à¸²à¸ķ
à¸Ńà¸ĩà¸Ĥà¸Ń à¹Ĥà¸Ĺà¸©
à¸ªà¸²à¸¡à¸²à¸£à¸ĸ à¸Ļ
à¸įà¸« à¸²à¸¡
à¸Ħà¸§à¸²à¸¡à¸ª à¸°à¸Ķà¸§à¸ģ
à¸ĩà¹Ĩ à¸Ļà¸°
n y
Ġà¹Ģà¸ŀà¸£à¸²à¸° à¸ģ
à¸ģ à¹Ģà¸ŀà¸£à¸²à¸°
à¸²à¹Ħà¸Ľ à¸£
à¸²à¸¢ à¸ģà¸¥
à¸¢à¸Ķ à¹Ģà¸ŀ
à¸ĸà¸²à¸¡ à¸ŀ
à¸ª à¸«
à¹Ģà¸ŀ à¸¥à¸ĩà¸Ĺ
Ġsp ec
à¸§ à¸ī
à¸²à¸¡ à¸ģà¸¥à¸²à¸ĩ
Ġsy stem
à¸ĩ à¹Ģà¹Ģà¸ķ
Ġ9 5
à¸Ħ à¸ĩà¹Ģà¸Ľ
à¸Ĥ à¸Ńà¸ª
à¹Ħà¸«à¸Ļ à¹ģà¸Ļà¸°à¸Ļ
Ġà¸ªà¸²à¸¡à¸²à¸£à¸ĸ à¸Ĺ
à¸Ńà¸ļ à¸Ľ
à¸ŀà¸Ń à¹ĥà¸Ĭ
Ġà¹Ħà¸Ľ à¸ķ
à¸ģà¸© à¸°
à¸²à¸ģà¸²à¸£ à¸ķ
à¸ĩà¸Ķ à¸ĩà¸²à¸¡
à¸¡à¸² à¹ģà¸ķ
Ġo pp
à¸ķà¸²à¸¡ à¸ķ
Ġà¸£à¸§à¸¡ à¸ª
Ġs ky
Ġ enter
à¹ĥà¸Ī à¹Ħà¸Ķ
5555 55
à¸ªà¸¡ à¸£
à¸² à¹Ģà¸¥à¸¢à¸Ħ
à¸Ļà¸° à¹ģà¸ķ
à¹Ħà¸Ł à¸Ĺ
à¸²à¸Ļ à¸ģà¸¥à¸²à¸ĩ
Ġà¸ŀ à¸Ńà¸ģ
p antip
à¸«à¸¡ à¸Ķà¸ª
Ġ1 60
à¸£à¸° à¸ĩ
à¸ģà¸²à¸£ à¸ľà¸¥
à¸ªà¸²à¸§ à¸£
à¸²à¸«à¸¥ à¸²à¸¢à¹Ĩ
à¸ľà¸¥ à¸Ķ
à¸ªà¸ł à¸²
à¸° à¸¢
à¸Ļà¸ª à¸²à¸§
Ġà¸¡ à¸²à¸¥
à¹ĥà¸Ī à¹Ħà¸¡
à¸²à¸Ħ à¸ĵà¸°
Ġz en
Ġà¹Ĥà¸Ĭ à¸Ħà¸Ķ
à¸Ĺà¸£ à¸Ľà¸£à¸²à¸ģà¸²à¸£
à¹Ĥà¸Ļ à¹Ģà¸§à¸Ĺ
Ġ à¹Ħà¸Łà¸¥
à¸Ķ à¹Ħà¸«à¸¡
à¸ªà¸Ńà¸ļ à¸ªà¸§à¸Ļ
il d
à¸¢ à¹ĥà¸«à¸¡
Ġl an
à¸§à¸ĩ à¸Ķà¸Ļà¸ķà¸£
à¹Ģà¸Ī à¸Ńà¸¡
à¸į à¸ķ
à¸Ńà¸Ļ à¸Ł
Ġd own
s ony
à¸ł à¸²
Ġà¸ģà¸²à¸£ à¹Ģà¸£
à¸Ńà¸Ļ à¹ĥà¸Ĭ
à¸§à¸ģ à¸£à¸°à¸Ĺ
Ġo ly
à¸Ńà¸Ļ à¸ĺ
à¸Ńà¸Ļ à¸°à¸Ħà¸°
à¹ĥ à¸ļà¸£
à¸ģ à¸¤à¸Ķ
à¸Ľ à¸Ĳà¸¡
à¸²à¸Ļ à¸²à¸ĩ
à¸ĩ à¸¡à¸²à¹ĥà¸«
Ġv ios
à¸ĩ à¸«à¸²
à¸ģ à¹Ģà¸Ĥà¸²
Ġ ]
Ġà¸ľà¸¡ à¸Ħà¸§à¸£à¸Ĺ
à¸Ĺ à¸Ħ
à¸²à¸Ľà¸£à¸°à¸ª à¸ļà¸ģà¸²à¸£à¸ĵ
Ġà¹Ĥà¸Ńà¸ģ à¸²à¸ª
à¹Ģà¸¡ à¸Ńà¸£
à¸²à¸«à¸£ à¸Ńà¸ģ
à¸Ļ à¸Ħà¸§à¸²à¸¡à¸ª
à¸ĩà¸Īà¸° à¸Ķ
à¸Ĭ à¸²à¸Ĺ
à¹Ĩ à¸ļ
à¸¡à¸« à¸²à¸ģ
Ġà¹ģà¸Ļà¸§ à¸Ĥ
ys is
à¹Ĥà¸Ķà¸¢ à¸£à¸§à¸¡
à¸Ļ à¹Ģà¸ļà¸Ńà¸£
à¹Ģà¸£à¸²à¸Ħ à¸ļà¸ģ
à¸Īà¸²à¸ģ à¸ľ
à¹Ģà¸¢à¸Ńà¸£ à¸¡à¸Ļ
à¸§ à¸Ľà¸¥
à¸Ńà¸Ķ à¸Ńà¸Ńà¸ģ
à¸¢à¸ĩ à¸Ĥà¸Ńà¸ĩ
à¹Ģà¸¥à¸¢ à¸¥
à¸« à¸Ń
ik o
à¹ģà¸¥à¸° à¹Ħà¸Ķ
Ġà¸£ à¸²à¸ĩà¸§
à¸Ĺ à¸Ń
Ġà¸ªà¸¡ à¹Ģà¸Ķ
à¹Ģà¸Ħà¸¢ à¸ļà¸Ńà¸ģ
à¸²à¸ŀ à¸Ļ
Ġs ch
à¸ĩ à¹Ģà¸Ńà¸ĩ
à¸Ķ à¸ļà¸£
à¹ģ à¸ļà¸Ļ
Ġf o
à¸²à¸ĩà¹Ħà¸£ à¸Ħà¸°
à¸Ħà¸§à¸²à¸¡ à¸ŀà¸£
à¸Ńà¸ĩ à¹Ģà¸Ļ
à¹Ĩ à¸¡à¸²
à¸Ńà¸¡ à¹Ģà¸ŀ
Ġà¹ĥà¸Ļ à¸ķ
à¹Ģà¸§ à¸ĵà¸Ĺ
à¸Ńà¸¡ à¸²à¹Ħà¸Ķ
à¸Ńà¸°à¹Ħà¸£ à¸ª
à¸²à¸¡ à¹Ģà¸®à¸ĩ
Ġà¹ģà¸¥à¸° à¸«à¸¥
à¸§à¸¢ à¹Ģà¸Ĭ
Ġà¹Ģà¸Ń à¸²à¸¡
Ġ**** *
Ġ à¸Ľà¸£à¸°à¹Ģà¸Ĺà¸¨à¹Ħà¸Ĺà¸¢
Ġà¸Ĭ à¸²à¸£
w e
à¸Ļ à¹ĥà¸ģà¸¥
à¸ģà¸²à¸£ à¸¡
u ro
à¸²à¸Ń à¸²à¸ĩà¸Ħ
à¸§à¸ĩ à¹Ģà¸§à¸¥à¸²
à¸ľà¸¥ à¸ķà¸Ńà¸ļ
Ġà¹Ģà¸¥à¸¢ à¸Ħà¸£
Ġst e
", """
à¸§ à¸Ħà¸Ļ
Ġ à¸£à¸°à¸§
à¸²à¹ģà¸ŀ à¸ĩ
à¸§à¸Ļ à¸ľ
à¹Ģà¸¡ à¸¥à¸¥
Ġb ar
à¸²à¸ Ĩ
à¸µà¹ī ,
Ġà¹Ģà¸ŀà¸£à¸²à¸° à¸ľà¸¡
à¸ģà¸ª à¸£
à¸«à¸¡ à¸§à¸ģ
i am
à¸Ńà¸ĩ à¹Ĥ
Ġà¸Ĥà¸Ńà¸ĩ à¸§
à¸§à¸Ķ à¸¡à¸Ļà¸ķ
uk i
à¸Ńà¸²à¸Ī à¸Īà¸°à¹Ģà¸Ľ
à¸¢à¸§ à¹Ģà¸Ĺ
Ġre view
it a
à¸Ķ à¸²à¸§à¸Ļ
Ġà¸ģà¸²à¸£ à¸ª
Ġà¹Ģà¸£ à¸²à¸Ń
à¹Ģà¸§à¸¥ à¸²à¸ª
à¹Ĥà¸Ķà¸¢ à¸ķà¸¥à¸Ńà¸Ķ
Ġà¹Ģà¸Ĥ à¸²
à¸ĩà¸Ĥ à¸Ļà¸²à¸Ķà¸Ļ
à¸ª à¸Ħ
à¸¢à¸²à¸§ à¹Ĩ
aw a
Ġà¹Ģà¸¥à¸¢ à¸¥à¸Ńà¸ĩ
à¹Ģà¸ľ à¸Ĭ
Ġs ub
à¹Ģà¸§à¸¥ à¸²à¸Ń
à¸§ à¸ļà¸Ńà¸ģ
Ġà¹Ģà¸§à¸¥ à¸²à¸Ļ
à¹ģà¸¥ à¸ģ
à¸Ľà¸¥à¸²à¸¢ à¹Ģà¸Ķ
à¹ģà¸£ à¸ĩà¸¡à¸²à¸ģ
à¸²à¹Ħà¸£ à¸ģ
à¸Īà¸²à¸ģ à¸ģà¸£à¸°à¸Ĺ
à¸Ńà¸Ħ à¸ķ
t a
ion s
à¹Ģà¸¡ à¸Ļà¸ķ
Ġà¸ī à¸°à¸Ļ
à¸ģà¸Ļ à¸²à¸Ļ
à¸Ķ à¸ģà¸£
à¸²à¸ŀ à¸¢à¸²à¸¢à¸²à¸¡
à¸ļ à¸łà¸²à¸©
à¸ļà¹Ħà¸Ľ à¸Ķ
à¸ĩà¸Īà¸° à¸£
Ġser vice
à¸Ļà¸ķ à¸Ńà¸Ļà¸Ĺ
Ġà¹Ĥ à¸Ļ
à¸¢ à¸¡à¸²
Ġ à¹Ħà¸ĭà¸ª
à¸© à¸ķà¸£
à¸Ļ à¹Ħà¸«à¸¡à¸Ħà¸°
à¸ģ à¹Ģà¸ĺà¸Ń
à¸ģ à¹ĥà¸ª
app le
à¸¡ à¸¨
à¸Ńà¸ļ à¸ļ
, ,
Ġg irl
à¸ĩà¹Ĩ à¸Ļ
à¸Ĭ à¸Ķ
à¸¢à¸Ļ à¸Ħà¸£
à¸£à¸°à¸¢à¸° à¸Ĺà¸²à¸ĩ
Ġà¸ľà¸¡ à¸ª
à¸²à¸Ī à¸Ńà¸Ķ
à¸Ļà¹ģ à¸¢
à¸Ńà¸¢à¸²à¸ģ à¸Ńà¸¢
ĠâĢ Ŀ
ide o
à¸§à¸Ļ à¸Ĥ
à¸Ļà¹ģ à¸Ī
à¸¢ à¸Ľà¸£à¸°à¸ģ
l in
Ġse ason
à¸Īà¸²à¸ģ à¸Ħ
à¹Ģà¸§à¸¥ à¸²à¹Ħà¸¡
Ġà¹Ģà¸Ĥ à¸²à¸Ĺ
0 7
à¸Ļ à¸Łà¸£
Ġà¹Ģà¸£à¸²à¸ŀ à¸¢à¸²à¸¢à¸²à¸¡
à¸¡à¹Ģà¸Ľ à¸į
Ġà¸Ńà¸¢à¸²à¸ģ à¸Ķ
à¸£à¸° à¸¡
à¹Ģà¸§ à¸£
Ġc ap
à¹Ĥ à¸ķà¸£
à¸Ļà¸ķ à¸²à¸¢
à¸Ĥà¸Ń à¹Ģà¸¥
à¸Ńà¹Ģà¸£ à¸²à¸Ńà¸¢à¸²à¸ģ
à¸Ńà¸Ńà¸ģ à¸§
à¸ķà¸²à¸¡ à¸Ĥ
à¸² à¹Ĥà¸Ĺà¸£à¸¨
Ġser ies
à¹Ģà¸Ńà¸² à¹Ģà¸Ńà¸ĩ
à¸Īà¸° à¸Ĭà¸Ńà¸ļ
à¹ģà¸£ à¸ĩà¸ļ
à¸²à¸Ĥ à¸Ļà¸²à¸Ķ
à¹Ģà¸Ħà¸¢ à¹Ģà¸Ĥ
à¸§ à¹Ģà¸ĩ
à¸Ń à¹Ĥà¸Ĺà¸£à¸¨
à¸ĩ à¸Ľà¸ģà¸ķ
Ġanal ysis
le y
à¸ĸà¸²à¸¡ à¸ģ
bo ard
s ite
b ur
Ġà¸ŀà¸£ à¸ļ
Ġad v
8 1
à¸Ń à¹Ģà¸«à¸ķ
Ġ à¸«à¸¡à¸²à¸¢à¹Ģà¸¥à¸Ĥ
à¸¢ à¸Īà¸£
à¸Ńà¸ĩ à¹Ģà¸«à¸¡
à¸²à¹Ģà¸£ à¸²à¸¢
à¸ĵ à¸Ķ
à¸²à¸Ńà¸°à¹Ħà¸£ à¸Ķ
à¸ª à¸Ń
à¸²à¹ĥà¸Ī à¸Ħ
Ġche ck
à¸Īà¸° à¸ªà¸²à¸¡à¸²à¸£à¸ĸ
Ġà¸§ à¸Ńà¸¥à¹Ģà¸¥à¸¢
à¹Ħ à¸Ĺà¸¡
à¸Ħà¸§ à¸£à¸¡
à¹Ħà¸Ľ à¹Ģà¸Ńà¸ĩ
à¸Ĥà¸²à¸¢ à¸ļ
Ġ? "
à¸§à¸¢à¸ķà¸Ńà¸ļ à¸Ĺ
à¸ĩ à¹ģà¸ļà¸ļà¸Ļ
à¸²à¸¡ à¸§
à¸Ńà¸ĩ à¸«à¸¥à¸§à¸ĩ
à¸Ļà¸ļ à¸Ńà¸¥
Ġà¸Īà¸° à¸§
à¹ģà¸Ł à¸Ļà¸Ħ
à¸Ńà¸¡ à¹Ħà¸Ķ
à¸ªà¸Ńà¸ļà¸ĸà¸²à¸¡ à¸«à¸Ļ
à¹Ħà¸Ń à¹Ģà¸Ńà¸ª
à¹Ģà¸Īà¸£ à¸Ī
à¹Ħà¸Ľ à¸«à¸²
8 7
Ġ à¹Ħà¸«à¸¡
b y
à¸¡à¸Ńà¸ĩ à¸«à¸Ļ
Ġà¸ľà¸¡ à¸Ĭà¸Ńà¸ļ
à¸Ńà¸²à¸«à¸²à¸£ à¸Ĺ
Ġà¹ĥà¸Ħà¸£ à¹Ģà¸Ľ
à¹Ħà¸Ĺà¸¢ à¸ģ
à¸Ķ à¸Īà¸°à¸Ĺ
à¹ĥà¸Ħà¸£ à¸Ķ
Ġl azada
Ġ !!!!
à¹Ģà¸ŀà¸¥à¸ĩà¸ª à¸²à¸ģà¸¥
Ġ4 9
à¸¢à¸Ļ à¸ĸ
mp us
à¹ģ à¸§à¸§
à¸²à¸¡à¸²à¸ģ à¸¡à¸²à¸¢
à¸Ļ à¸«à¸²à¸¢à¹Ħà¸Ľ
à¸Ńà¸¢à¸²à¸ģ à¹Ģà¸ª
à¸Ńà¸ģà¸²à¸£ à¸Ĺ
Ġar t
à¹Ģà¸ĺ à¸Ńà¹Ħà¸Ľ
à¸¥à¸²à¸Ķ à¸ŀà¸£
à¸ľà¸¥ à¸Ľà¸£à¸°à¹Ĥà¸¢à¸Ĭà¸Ļ
à¸Ĥà¸Ńà¸ĩ à¸ªà¸°à¸ªà¸¡
à¸Ħà¸Ļ à¹Ģà¸ģ
à¸Ļà¸§ à¸¥
Ġ à¸ĩà¸§à¸Ķ
à¸ķà¸²à¸¡ à¹ĥà¸Ī
à¸Ńà¸¢à¸²à¸ģ à¸ģà¸¥
Ġà¸ŀ à¸Ńà¸ģà¸¥
à¸£ à¸²à¸ģ
à¸Ļ à¸²à¸¢à¸ģ
Ġat m
à¹Ĥà¸ķ à¸°
Ġth ai
Ġà¹Ģà¸«à¸¡à¸²à¸° à¸ª
à¸Īà¸° à¹Ģà¸Ĭ
à¸Ļà¸¢ à¸²à¸Ħ
à¸Ńà¸Ń à¸²à¸«à¸²à¸£
à¸Ńà¸ĩ à¸ŀà¸§à¸ģà¸Ļ
à¹ģà¸¢à¸ģ à¸ģ
à¸Ńà¸Ħà¸§à¸²à¸¡ à¸Ĺ
à¸§ à¹ģà¸ļà¸ļà¸Ļ
à¸¡à¸° à¹Ģà¸£
à¸¹à¹Ī )
s et
à¸Ķà¹Ģà¸ľ à¸¢à¸§
Ġ à¸Ńà¸°à¹Ħà¸£à¸ģ
Ġà¹Ģà¸Ń à¸²à¹ģà¸ļà¸ļ
à¸§ à¹Ģà¸ŀà¸£à¸²à¸°
angk ok
à¸² à¹Ģà¸Ł
Ġv oice
à¸Ļà¸ģà¸¥ à¸²à¸¢à¹Ģà¸Ľ
à¸ļà¸Ľ à¸²à¸ģ
à¸Ń à¸Īà¸°à¹Ģà¸Ľ
à¸ĭ à¸ĭ
à¹Ĳ à¹Ĳ
à¸²à¸¢ à¸²à¸Ĺ
Ġh r
à¸ļ à¸ŀà¸£à¸°
à¸Ļ à¸£à¸°à¹Ģà¸ļ
à¹Ģà¸£à¸² à¹Ģà¸Ńà¸ĩ
à¸Ķà¸ģ à¸İà¸«à¸¡à¸²à¸¢
à¹ĥà¸Ļ à¸ļà¸£
à¸¥ à¸²à¸Ļ
Ġà¸Ħà¸Ļ à¸Ķ
à¸Ļà¸Ĥ à¸²à¸Ķ
à¸§à¸Ļ à¸¡
p al
à¸Ħà¸Ļ à¸ĭ
à¸²à¸Ļ à¹Ģà¸Ńà¸ĩ
à¹Ģà¸£à¸² à¹Ģà¸ŀ
à¸Ń à¸ľà¸¡à¸ģ
à¸£à¸²à¸ļ à¸§
Ġ[ +
à¸ĩà¸¡ à¸²à¸£
à¸Ńà¸¢à¸²à¸ģ à¸ŀ
à¸ģà¸£ à¸¢
à¸ĩ à¸Ħà¸§à¸²à¸¡à¸Ħ
à¸²à¸¢ à¹Ģà¸ģ
à¸¢à¸§ à¸«à¸£
à¸Ńà¸ĩ à¸ģà¸£
à¸ģà¸²à¸£ à¹ģà¸ķ
à¸Ńà¸¡ à¸Ľ
à¸¢à¸Ńà¸Ķ à¸Ĥà¸²à¸¢
à¸¡ à¹Ģà¸Ń
à¸¨ à¸ģ
à¹ĥà¸Ħà¸£à¹Ģà¸Ħà¸¢ à¹ĥà¸Ĭ
à¸Ńà¸¢ à¸¡à¸²à¸ģà¹Ĩ
à¸²à¸²à¸²à¸² à¸²
à¸Ļ à¸²à¸Ħà¸²à¸£
à¸ĩà¸²à¸Ļ à¸ļ
Ġ6 5
à¸Ļà¹Ħ à¸ª
à¸£à¸° à¸¢à¸Ńà¸ĩ
à¸° à¹Ģà¸¢
à¸Ńà¸ĩ à¸¢à¸Ńà¸¡à¸£
à¸Ķà¸Ķà¸Ķà¸Ķ à¸Ķà¸Ķà¸Ķà¸Ķ
à¸Ļà¸¡ à¸²à¸Ħ
à¸§à¸Ļ à¸ŀ
à¸Ľ à¸¢
à¸Ļà¹Ĥ à¸ªà¸Ķ
à¸Ļà¸¡à¸² à¹Ģà¸£
à¸Ľà¸£à¸°à¸Ĭ à¸²à¸ª
Ġà¹ģà¸Ł à¸Ļà¹Ģà¸£
à¸²à¸Īà¸° à¸Ĥ
Ġà¹Ĥà¸Ķà¸¢ à¹ĥà¸«
à¸ģ à¸ıà¸«à¸¡à¸²à¸¢
à¸ľ à¸Ĭ
à¸§ à¹Ħà¸Ľà¸Ĺ
à¸Ńà¸ĩà¸ģà¸²à¸£ à¸Ħ
à¸ģ à¹Ģà¸Ń
à¹Ģà¸§à¸¥ à¸²à¸Ļà¸²à¸Ļ
à¸ģà¸Ħà¸Ļ à¸ķ
à¹Ģà¹Ģà¸ļ à¸ļ
à¸Ńà¸¡ à¹Ģà¸Ľ
à¸ĩ à¹ģà¸Ĥ
à¸Ńà¸Ń à¸Ł
à¸²à¹Ĩ à¸ģ
à¸Ķ à¹Ģà¸ļ
à¸ĩà¸ª à¸§
Ġà¸¡ à¸«
à¸Ļ à¸ķà¸£à¸ĩ
à¸Ļà¸ģà¸²à¸£ à¹Ģà¸Ķ
à¸¥ à¸Ńà¸ĩà¸Ħ
à¸Ľà¸£à¸°à¸ģ à¸Ńà¸ļà¸Ħ
à¸Ļà¸Ħà¸£ à¸Ńà¸ļà¸Ħà¸£
à¹ĥà¸Ħà¸£ à¹Ħà¸¡
à¹ģ à¸Ńà¸ļà¸Ħ
Ġà¹Ģà¸§à¸¥ à¸²à¸¡
à¸²à¸ĩà¸²à¸Ļ à¹ģà¸¥
à¸²à¸Ĥà¸Ńà¸ĩ à¸ķ
à¸Ļà¹Ģà¸ŀà¸£à¸²à¸° à¸Ńà¸°à¹Ħà¸£
à¸ŀà¸£ à¸«à¸¡
à¸Ńà¸Ļ à¹ĥà¸Ī
à¸Ńà¸ĩà¸¡ à¸²à¸Ļ
à¸²à¹Ħ à¸Ń
Ġà¸¡ à¸²à¸§
Ġà¸ª à¸¡à¸²à¸£
Ġà¸ģ à¸İà¸«à¸¡à¸²à¸¢
à¹Ģà¸Ħ à¸¢à¸Ļ
à¸²à¸Ĥà¸Ńà¸ĩ à¸ģ
à¸²à¸Ħ à¸¥à¸Ńà¸Ķ
h a
à¹ĥà¸Ļ à¸ĭ
à¸Ńà¸ĩà¸¡ à¸²à¸Ĺ
Ġs d
à¸¢à¸ģ à¸¢
à¸Ħà¸§à¸²à¸¡ à¸ģ
à¸ªà¸²à¸¡à¸²à¸£à¸ĸ à¹Ģà¸¥
à¸²à¸ĩ à¹Ħà¸ģà¸¥
à¸§ à¸Ł
Ġà¸Ńà¸²à¸Ī à¸Īà¸°à¸¡
à¸¥ à¸Ĥà¸Ńà¸ĩ
à¸Ļà¹Ħà¸Ľ à¹Ģà¸Ĺ
v a
à¸§ à¸ķà¸Ńà¸Ļ
Ġà¹Ĥ à¸«
à¸£à¸Ńà¸ļ à¸Ļ
à¸Ħ à¸²à¸¢
1 000
an i
ut ure
à¸§à¸¢ à¸¥à¸Ķ
à¸«à¸¥à¸²à¸¢ à¸£
à¸Īà¸²à¸ģ à¸ļ
à¸Ļ à¸Ŀà¸²à¸ģ
Ġin v
enc y
à¸¢ à¸ļà¸ª
à¸Ĥà¸Ń à¸ŀ
w ard
à¸Ńà¸Ļ à¸Īà¸°à¸¡
à¹ĥà¸Ħà¸£ à¸ķ
à¹Ģà¸ĸ à¸Ńà¸°à¸Ħà¸£
à¸ľà¸¡ à¸ĸ
l ight
à¸Ńà¸Ńà¸ģà¸¡à¸² à¹ģà¸¥
à¸Ļà¹ģ à¸ļ
à¸ģà¸²à¸£ à¸Ĥà¸Ńà¸ĩ
à¸²à¸Īà¸° à¹Ģà¸Ľà¸¥
à¹ģà¸ļà¸ķ à¹Ģà¸ķà¸Ńà¸£
Ġle d
à¸ĩà¹Ĩ à¸§
Ġà¹Ģà¸£ à¸²à¸Ķ
à¸ĺ à¸£
Ġ20 10
Ġà¹ Ķ
à¹Ĥà¸Ķà¸¢ à¸¡
à¸µà¹Ī "
à¸ĩà¸ĩ à¸°
à¸į à¸¡
Ġtr inet
à¸ªà¸¡ à¸¡à¸ķ
à¹Ģà¸Ńà¸ģ à¸¥
Ġà¸Ħ à¸«
à¸Ń à¸ŀà¸£à¸°
à¸Ńà¸Ļ à¸ķà¸Ńà¸Ļ
Ġà¹Ģà¸Ĥ à¸ķ
à¹ĥà¸ļ à¸Ńà¸Ļ
à¸²à¹ĥà¸Ļ à¸ª
à¹Ħà¸ķà¸£ à¸Ľ
m ot
à¸²à¸ª à¸§
Ġn ight
à¸Ķà¸ª à¸§à¸Ļ
Ġ ++
Ġà¹ģ à¸§
à¸Ļ à¸¡à¸²à¸ļ
Ġà¸Īà¸° à¸ŀ
à¸¡à¸² à¹Ģà¸Ĥ
à¸ļ à¸ŀà¸£
à¸²à¸Ĺ à¸°à¹Ģà¸¥
à¸£à¸Ńà¸ļ à¸ķ
à¸ĩ à¹Ģà¸¥à¸¢à¸Ħ
à¸²à¸ľ à¸¡à¸Ĺ
à¸²à¹Ĥ à¸Ļ
à¸Ķ à¸Ńà¸ģà¹Ģà¸ļ
com mer
à¸²à¸ģà¸²à¸£ à¸ª
à¸²à¸£ à¸²à¸¡
Ġà¸Ĥà¸Ń à¹Ģà¸Ľ
à¸²à¸«à¸¥à¸²à¸¢ à¸Ľ
à¸ĺ à¸Ĺ
à¸²à¹Ħà¸Ľ à¸Ńà¸¢
Ġv er
à¸²à¸Ļà¸§à¸Ļ à¹Ģà¸ĩ
d o
Ġà¹ģà¸£ à¸ģà¹Ĩ
à¸Ľ à¹Ģà¸¥
à¸Ķà¸Ļ à¸Ħà¸£
Ġà¹Ģà¸ģ à¸¡à¸ª
à¸²à¸Ī à¸²à¸£à¸¢
à¸Ĭ à¸¡à¸ģ
à¸²à¸ĩ à¹ģà¸¥à¸°
Ġm er
à¸²à¸¡ à¸²à¸Ńà¸¢
à¹Ģà¸Ĥ à¸²à¸Ń
Ġfc p
Ġà¹Ģà¸£ à¸²à¸¥
à¹Ģà¸Ń à¸²à¹Ģà¸£
Ġa b
à¸§à¸¢ à¹Ģà¸ŀ
à¸Ļà¸Ļ à¸Ļ
à¸¡à¸²à¸ģ à¹Ģà¸ģ
à¸Ńà¸Ńà¸ģ à¸¡
à¹ĥà¸Ļà¸ģà¸²à¸£ à¸Ķ
à¸Ĺ à¸ļ
Ġ à¸įà¸²à¸ķ
im ited
Ġà¸¢ à¸²à¸ģ
Ġ17 0
à¹Ĥ à¸ļà¸ªà¸ĸ
à¸²à¸Ńà¸°à¹Ħà¸£ à¹ĥà¸«
à¸Ľà¸£à¸°à¸Ĭà¸²à¸Ĭ à¸Ļà¸Ĺ
à¹ĥà¸Ļ à¸Ńà¸Ķ
Ġà¹Ģà¸ī à¸ŀà¸²à¸°
à¸¥à¹Ģà¸¥ à¸Ńà¸£
à¹Ģà¸Ĥ à¸²à¹Ģà¸£
Ġà¸Ľ à¸Ĭà¸Ľ
à¹Ģà¸ĺà¸Ń à¹Ħà¸Ķ
Ġà¸«à¸²à¸ģ à¹Ħà¸¡
à¸Ńà¸ĩ à¸«à¸²
à¸Īà¸° à¸ªà¸£
Ġà¸Ń à¹Ģà¸¡à¸£
à¹Ģà¸§à¸¥ à¸²à¹Ģà¸£
à¸Ńà¸ĩ à¹ģà¸£à¸ģ
w ifi
à¸ĺà¸£à¸£à¸¡ à¸¨à¸²à¸ªà¸ķà¸£
à¹Ģà¸ŀà¸£à¸²à¸° à¸£
à¸ªà¸¡ à¸£à¸ª
à¹ģà¸ģ à¸Ļ
à¸²à¸ĩ à¹ĥà¸ª
Ġmus ic
ĠĠĠĠĠĠĠĠ Ġ
à¸°à¸Ļ à¸²à¸§
à¸Ń à¸¥à¸ĩ
à¸«à¸²à¸£ à¸²à¸¢à¹Ħà¸Ķ
à¸²à¸ķ à¸²à¸ģ
o ul
à¸° à¹Ģà¸ģ
à¸Ļà¹Ħà¸Ľ à¸Ħ
à¸§à¹Ģà¸Ńà¸ĩ à¸Ńà¸¢
à¸Ńà¸ĩ à¸ļà¸Ńà¸ģà¸ģ
Ġà¸ľà¸¡ à¸ģà¸¥
Ġbl ue
à¸«à¸¥à¸§à¸ĩ à¸ŀ
!!! ,"
à¸£à¸ĸ à¸¡
Ġà¸Ĺà¸²à¸ĩ à¸£
Ġ à¸łà¸²à¸©à¸²à¸Ń
à¸²à¹Ħà¸Ľ à¹Ħà¸Ķ
à¸²à¸ľ à¸¡à¸ķ
ter n
à¸ļà¸£à¸¡ à¸£à¸²à¸Ĭ
à¸¢à¸ĩ à¹Ħà¸Ķ
à¸¢ à¸ĭ
à¸Ħà¸Ļ à¹Ģà¸Ľ
Ġà¹Ģà¸Ĥ à¸²à¸¢
à¸Ĳ à¸Ľà¸£à¸°à¸«à¸²à¸£
à¸Ķ à¸Ļà¸°à¸Ħà¸°
Ġà¸Ħà¸Ļ à¸Ĥ
à¸ķ à¸Īà¸²à¸ģ
à¹Ģà¸Ī à¸¡à¸ª
âĢ Ķ
à¸Ĺà¸²à¸ĩ à¸§
Ġà¸Ħà¸Ļ à¸¥à¸°
à¸ĸ à¸²à¸Ľ
à¸§à¸ķ à¸²à¸¢
m on
8 4
s me
à¸ļà¸¡ à¸²à¸«
à¸Ħà¸Ļà¹Ħà¸Ĺà¸¢à¹ĥà¸Ļ à¸Ńà¹Ģà¸¡à¸£
à¸ķà¸²à¸¡ à¸Ħ
à¹Ģà¸Īà¸Ń à¹ģà¸ļà¸ļà¸Ļ
t b
Ġsoft ware
Ġà¸Ĥà¸Ń à¹ģà¸Ħ
à¸£ à¸Ļ
0 4
>> >>
à¸ļà¸Ńà¸ģ à¹Ģà¸Ħ
à¸Ńà¸Ļà¹Ģà¸¡ à¸©
Ġmr t
à¸²à¸Ħ à¹Ģà¸Ļà¸¢
Ġà¸£à¸²à¸Ħ à¸²à¸Ľà¸£à¸°à¸¡à¸²à¸ĵ
à¹ī ",
d s
à¸ļ à¹ģà¸Ī
à¸« à¸²à¸ĩà¸²à¸Ļ
à¹Ģà¸£à¸² à¹Ģà¸ª
à¸į à¸Ĥà¸Ńà¸ĩ
à¹Ģà¸Īà¸Ń à¹ģà¸ķ
Ġà¹ģ à¸«à¸¡
à¸Ļ à¸²à¸¬
à¹Ĩ à¹Ģà¸ŀ
Ġ à¸¥à¸°à¸ģ
Ġas ia
à¸Ńà¸²à¸Ī à¹Ģà¸Ľ
à¸ļ à¸£à¸°à¸ļà¸ļ
à¸Ĭ à¸Ļà¸¡
Ġà¸ŀ à¸Ńà¸¥
à¸Ļà¸²à¸¡ à¸ªà¸ģ
à¸¢ à¸Ļà¸°
à¸ļà¸²à¸¢ à¹ĥà¸Ī
Ġle t
Ġà¸Ńà¸²à¸Ī à¸Īà¸°à¹Ģà¸Ľ
à¸łà¸²à¸© à¸²à¸Ī
à¸Ķ à¸¥à¸°
à¹Ģà¸Ī à¸Ńà¸Ĺ
Ġà¸Ħà¸Ļ à¸ģ
à¸Ńà¸ĩà¸¡ à¸²à¸Īà¸²à¸ģ
à¸¡à¹Ħà¸Ľ à¸«à¸¡à¸Ķ
à¸²à¹ĥà¸Ī à¹Ħà¸¡
Ġà¸ķà¸²à¸¡ à¸£
à¸²à¸ĩ à¸ĩà¸²à¸Ļ
à¹Ģà¸¨à¸£à¸©à¸Ĳ à¸¨à¸²à¸ªà¸ķà¸£
à¸Ńà¸Ļà¹Ĩ à¸¡
à¸´ ""
à¹Ħà¸¥ à¸Ł
à¸Ľà¸§à¸Ķ à¸«
+ )
Ġà¸ľà¸¡ à¸Ńà¸¢
à¹Ĥà¸ŀ à¸ĺ
à¹Ħà¸Ńà¸Ķ à¸Ńà¸¥
à¸ģà¸£à¸° à¹Ĥà¸Ľà¸£
à¸« à¸²à¹Ħà¸Ķ
à¹Ģà¸ł à¸ª
à¸§ à¸²à¸ª
à¸Ĭà¸²à¸§ à¸ķ
Ġmas k
à¸« à¸²à¸Ĺà¸²à¸ĩ
à¸§ à¸Ķà¸Ĺ
Ġ 00
il y
Ġdes ign
Ġfor m
à¸° à¸Ļà¸°
Ġà¹Ĥà¸Ķà¸¢ à¸ķ
à¸¢à¸§ à¹ĥà¸Ļ
à¸ª à¸²à¸ļ
Ġre f
Ġà¹Ĥà¸£à¸ĩà¹ģà¸£ à¸¡
Ġà¸Īà¸° à¸Ļ
Ġa p
à¸¢à¸Ļ à¹Ħà¸§
à¸ģ à¸Ħà¸¥
à¸ĩà¸Ħ à¸ļà¸ģ
à¸²à¸ĩà¸²à¸Ļ à¸Ĥà¸Ńà¸ĩ
à¸ģà¸© à¸²à¸§
à¸¡à¸² à¹Ģà¸¡
à¸ķà¸£ à¸Ľà¸£à¸°à¸Ĭà¸²à¸Ĭà¸Ļ
à¸²à¸Īà¸° à¸ģ
à¹Ģà¸Ĺà¸¨ à¸ļà¸²à¸¥
à¸Ķà¸Īà¸²à¸ģ à¸Ńà¸°à¹Ħà¸£
Ġà¸ªà¸²à¸¢ à¸ģà¸²à¸£à¸ļ
Ġà¸Ńà¸ĩà¸¨ à¸²
Ġ4 4
à¸²à¸¢ à¸²
à¸Ł à¸ģ
ĠĠĠĠĠĠĠĠ ĠĠĠ
st ar
à¸Ĥà¸²à¸¢ à¹ĥà¸«
à¸£ à¸¨
à¸Ńà¸Ļà¸ª à¸¡à¸²à¸Ĭ
Ġà¹ģà¸Ĺ à¸Ļ
à¸Ħà¸Ļ à¸ļà¸Ńà¸ģà¸§
à¸Ĺ à¸¯
à¸£à¸Ńà¸ļ à¹Ĩ
à¸¡ à¹ģà¸£à¸ģ
à¸į à¹ĥà¸«
Ġà¹ģ à¸ļà¸£à¸Ļà¸Ķ
à¹Ģà¸Ń à¸²à¸Ĭà¸Ļà¸°
à¸ĩ à¸ķà¸£
à¹ ĺ
à¸¨ à¸¥
à¸ĩà¹Ħà¸Ľ à¹ģà¸¥
à¸ĩà¹Ĩ à¹Ħà¸¡
à¸Ļà¹Ģà¸Ķ à¸Ńà¸£
à¹ģ à¸Ħà¸Ļ
à¸Īà¸° à¸Ľà¸£
à¹Ģà¸¡ à¸Ĭ
à¸ļ à¸²à¸Ķà¹Ģà¸Ī
os e
à¸Ĺà¸²à¸ĩ à¸ª
à¸įà¸« à¸²à¸ģà¸²à¸£
Ġà¸¥ à¸Ńà¸ĩà¸Ķ
Ġb ody
Ġà¸Ń à¸¥
à¸ĩà¸²à¸Ļ à¸ª
Ġà¹Ģà¸£à¸² à¹Ģà¸Ħà¸¢
à¸§à¸ĩ à¸ģà¸¥
à¸Ńà¸¡ à¸«
à¸«à¸¥à¸²à¸¢ à¸ķ
Ġun ivers
à¸²à¸Ħ à¸Ļà¹Ģà¸Ķ
à¹ĥà¸Ļà¸ģà¸²à¸£ à¸Ī
Ġà¹Ĵ à¹ķ
à¸Ķ à¹ģà¸Ĥ
à¸²à¸ķ à¸²à¹Ħà¸«à¸¥
à¸¢à¸§ à¸£
à¹Ģà¸£ à¸²à¸ļà¸Ńà¸ģ
à¸²à¸ª à¸ĸà¸²à¸Ļà¸Ĺ
7 2
à¸Ļà¸Ĥ à¸Ļà¸²à¸Ķà¸Ļ
à¸Ļ à¹Ģà¸Ńà¸ģà¸ªà¸²à¸£
à¸ª à¸ļà¸Ķ
Ġn okia
à¸ĩà¸Īà¸²à¸ģ à¸§
Ġfan page
à¸ķ à¹ģà¸¥à¸°
5 4
Ġun ited
à¸Ńà¸ĩ à¸«à¸¢
à¹ģ à¸ļà¸ģ
à¸ļ à¹Ģà¸«à¸ķ
à¸ŀà¸Ń à¹ģà¸¥
à¹Ĩ à¸Ńà¸¢
Ġà¸¡ à¸²à¹Ģà¸£
à¸ļ à¸Ħà¸¥
à¸§ à¸²à¸£
à¹Ĥà¸Ķ à¸Ļà¸Ĺ
0 6
à¹Ħà¸Ł à¹ģà¸Ļà¸Ļà¸ĭ
à¸²à¸§ à¸Ĥà¸Ńà¸ĩ
à¸Ńà¸ļ à¸Ļ
à¸Ļ à¸Ŀà¸£
Ġper f
commer ce
à¸²à¸ĩ à¸ľà¸¡
à¹Ģà¸¡ à¸ķà¸ķ
Ġà¸Ĥ à¸²à¸§
à¸²à¸Ļ à¸¥à¸°
à¸Ķà¸£ à¸ĺà¸²à¸Ļ
à¸ŀà¸£à¸°à¸£à¸²à¸Ĭ à¸Ĺà¸²à¸Ļ
à¸ĸà¸²à¸¡ à¸ķ
à¸² à¹Ħà¸«à¸Ļ
Ġà¹Ģà¸« à¸ĩ
à¸Ļà¸£ à¸Ńà¸¢
k o
à¸Ńà¸ª à¸ķ
Ġà¸« à¸²à¸ĭ
à¸Ńà¸¡ à¹Ĥ
à¸ģ à¹Ħà¸«à¸¡à¸Ħà¸£
à¸ļà¹Ħà¸Ľ à¸Ħ
à¸¡ à¹ģà¸ļà¸ļ
à¸¡à¸² à¹ĥà¸«à¸¡
à¹Ģà¸£à¸² à¹ģà¸¥
à¸Ńà¸ģà¸²à¸£ à¸£
à¸Īà¸²à¸ģ à¸Ĭ
à¸§ à¹Ģà¸Ĥà¸²
à¸ŀ à¹Ģà¸ªà¸£
à¸Ļà¹ĥà¸Ļ à¸«
Ġà¹ģà¸¥à¸° à¹Ģà¸Ĥ
à¸Ķ à¹Ģà¸Ħ
à¸Ļ à¸¡à¸²à¸ĸ
Ġf re
à¸Ļà¸ª à¸ĸà¸²à¸Ļ
Ġà¸ª à¸Ļà¸²à¸¡
à¸ģà¸Ĥ à¸§
à¹Ģà¸¥à¸¢ à¹ĥà¸Ĭ
à¸ĩà¸ª à¸ķ
à¸²à¸ĩ à¹Ħà¸ĩ
à¸ģà¸²à¸£ à¹Ģà¸ķ
à¸²à¸ķà¸²à¸¡ à¸Ĺ
à¸Ķ à¸«à¸¡
à¸Ńà¸ģà¸²à¸£ à¹ĥà¸Ĭ
à¸ļ à¹Ģà¸Ńà¸ĩ
à¸Ńà¸ģ à¸¢
à¸ª à¸²à¸ģà¸¥
à¸²à¸§ à¹Ģà¸Ľ
à¸Ļà¸Ńà¸Ļ à¹Ħà¸¡
à¸Ķ à¸£à¸°à¹Ģà¸ļ
à¸ļ à¹ģà¸Ĥ
à¸Ńà¸ģ à¹Ģà¸£
à¸Ļà¸Ķà¸²à¸¥ à¹ĥà¸Ī
à¸Ļà¸Ħ à¸ķ
........ .
à¸Ļ à¸Ħà¸§
à¸²à¸¢ à¹ģà¸¥à¸°
à¹Ĥà¸Ļà¹Ģà¸§à¸Ĺ à¸ļ
à¸Ńà¸ĩ à¸«à¸¡à¸²à¸¢
Ġà¹Ħ à¸®
à¸²à¹Ħà¸Ľ à¸Ĭ
Ġho use
à¸Ļ à¸Ńà¸Ńà¸ģà¸Īà¸²à¸ģ
( (
à¸Ķ à¸ŀà¸£
à¹Ħà¸Ń à¹Ĥà¸Ł
à¸Ķ à¹Ģà¸ŀà¸£à¸²à¸°
à¸ļà¸£à¸ĸ à¹Ħà¸¡
à¸ļ à¸¢à¸Ńà¸Ķ
à¸Ńà¸Ħ à¸Ńà¸¡
Ġà¸Īà¸° à¸Ī
Ġà¹Ĥà¸Ķ à¸¢à¸Ļ
20 14
à¸Ľ à¸Ĥ
er m
à¹Ģà¸Ń à¸²à¹Ģà¸Ĥ
à¸ŀ à¸ĺ
à¸Ķ à¹ģà¸¡
à¸²à¸¢ à¸Ĭà¸²à¸¢
???? ????
à¹Ĥ à¸ŀà¸¥
à¸Ĺà¸²à¸ĩ à¸ģà¸²à¸£à¹Ģà¸ĩ
à¸Ħà¸²à¸Ķ à¸«à¸§
à¸Ńà¸¢ à¸ĭ
à¸ĩà¸Ń à¸²à¸Ĺ
à¸Ļà¸Ńà¸Ļ à¸Ħà¸£
Ġ7 50
à¸ĵ à¸¢à¸²à¸¢
Ġo pt
Ġ6 1
à¸ļà¸ģ à¸£à¸°à¸Ĺ
Ġà¸ķà¸²à¸¡ à¸«
à¸ľ à¸Ļ
à¸²à¸¢ à¹Ģà¸Ĺ
à¸Ļà¸ŀ à¸Ńà¸Ķ
à¸ŀ à¸Ńà¸Ħ
à¸Ļà¹ĥà¸Ī à¸ĭ
à¸Ńà¸¢ à¹Ģà¸Ĭ
à¹ģà¸Ł à¸Ļà¹Ħà¸¡
à¸§ à¸«à¸¡
Ġg ro
Ġm at
Ġh ard
à¸²à¸§ à¹ģà¸¥
à¹Ģà¸« à¸§
à¸Ńà¸ĩ à¸Ľà¸¥
Ġ---- -
à¸¢à¸ģ à¸Ħ
) ","
à¹Ģà¸ŀ à¸ĵ
à¸ª à¸²à¸«
Ġà¹Ģà¸Ľ à¸Ńà¸£
Ġà¸£ à¸Ńà¸ĩà¸£
à¸ª à¸Ńà¸Ķ
Ġ08 1
à¸§à¸ģ à¸£à¸°
aut y
à¹Ĩ à¸Ħà¸£
à¸Ľà¸£à¸° à¸¡à¸²à¸Ĺ
à¸¢à¸Ļ à¹ĥà¸«à¸¡
à¸²à¸§ à¸«
à¸Ńà¸ĩ à¸¥à¸°
Ġà¸£à¸ĸ à¹Ħà¸Ł
Ġ1 30
Ġà¸ķà¸Ńà¸Ļ à¹Ģà¸Ĭ
d e
à¸ĩà¸Īà¸° à¹Ģà¸£
à¸²à¸Ń à¸Ļ
à¸Ħ à¸ģà¸²à¸£à¸ĸ
à¹Ģà¸Ħà¸¢ à¸ľ
à¸ķà¸ļà¸Ńà¸¥ à¹Ĥà¸¥à¸ģ
à¸Ń à¹Ģà¸ļà¸Ńà¸£
ar i
à¹ĥà¸Ħà¸£ à¹Ħà¸Ķ
Ġà¹ĥà¸Ļ à¹Ģà¸Ķ
à¸ģà¸© à¸²à¸Ńà¸¢
à¸ļà¸²à¸¢ à¹ĥà¸«
à¸¥ à¹Ħà¸¡
à¸ļà¸Ĺ à¸ª
à¸ĵ à¸Ī
Ġ08 9
à¹Ĥà¸¡ à¸Ĭ
à¸²à¸ĩ à¸Ŀ
à¸²à¸į à¸Īà¸Ļà¸ļ
à¸Ńà¹Ģà¸£ à¸²à¸ķ
à¸Ĥà¸Ńà¸ĩ à¹ģà¸¡
Ġà¸Ī à¸Ńà¸Ķ
à¹Ģà¸¥ à¸Ńà¸£
à¸Ļà¸ĸ à¸Ļà¸Ļ
à¸ķ à¸Ħà¸£
Ġf uture
à¹Ģà¸Ī à¸Ńà¸ª
Ġb al
à¸ļà¸Ħà¸§à¸²à¸¡ à¸Ļ
Ġg et
à¹Ħà¸Ľ à¹Ģà¸¡
Ġto ur
à¸Ļà¸¡ à¸²à¸ķà¸¥à¸Ńà¸Ķ
à¸Ī à¹Ħà¸¡
à¸ļ à¸Ĭà¸¡
à¸Ľ à¸Īà¸²à¸ģ
à¸ģ à¸Ļà¸°à¸Ħà¸°
à¹ĥà¸Ī à¸Ń
à¸Ľà¸£ à¸²à¸ģà¸İà¸§
Ġà¸£à¸§à¸¡ à¹Ħà¸Ľà¸ĸ
à¸Ńà¸Ļ à¹ģà¸£à¸ģ
à¹ĥ à¸Ķà¸ģ
à¸Ńà¸Ńà¸ģ à¸Ħ
ay a
à¹Ģà¸Ĺ à¸Ńà¸¡
à¸Ńà¸ĩ à¹ģà¸Ī
à¸²à¹Ħà¸Ľ à¸ĸ
Ġp a
à¸¢à¸ĩ à¸ľ
à¸Ļ à¸Ļà¸°à¸Ħ
Ġopp o
à¸Ī à¸Ļà¹Ģà¸ģ
à¸ģà¸£à¸° à¸¢à¸°
à¸Ĵ à¸Ļà¸°
Ġ ,"
à¸Ĥà¸Ń à¸Ĺ
à¸Ķ à¸Ľà¸¥
à¸²à¸§ à¸Īà¸²à¸ģ
à¸ªà¸Ńà¸ļà¸ĸà¸²à¸¡ à¸Ħ
à¸²à¸ĩà¸Ļ à¸²
à¸²à¸Ļ à¸ģà¸¥
à¹Ģà¸Ńà¸²à¹Ħà¸Ľ à¸Ĺ
à¹ĥà¸Ħà¸£ à¸Ħ
à¸Ħà¸£ à¸ļà¸Ĺ
Ġa ct
à¸ĩà¸Īà¸° à¹Ģà¸Ĥ
à¸ļà¸ļ à¸ļ
Ġà¸Ħ à¸Ńà¸¡à¸ŀ
à¸²à¹ĥà¸Ī à¸Ķ
à¸Ń à¸Ńà¸£
à¸ģà¹Ĩ à¸Ńà¸¢
à¹Ģà¸Ń à¸²à¸ª
à¸Ń à¹Ģà¸ļ
à¸¢ à¹ģà¸Ħ
à¸Ńà¸¢ à¹Ģà¸¥à¸¢
Ġm ag
Ġà¸ķà¸£ à¸ĩ
f one
Ġc ode
Ġà¹Ģà¸Ĥ à¸²à¸Īà¸°
Ġm em
Ġà¸¥à¸Ķ à¹Ģà¸«à¸¥
à¸Ńà¸ģ à¸¡
à¸¥à¸° à¸ª
à¸²à¸ĩà¸²à¸Ļ à¸£
à¹Ģà¸¢à¸Ńà¸° à¹ģà¸¥
à¸įà¸į à¸²à¸Ļ
à¸Ķ à¸Ħà¸§à¸²à¸¡à¸£
à¸Ķà¹ĥà¸Ļ à¹Ĥà¸¥à¸ģ
à¸Ńà¸ĩà¸£à¸²à¸§ à¸Ĺ
à¸ĩ à¸Ħà¸Ļà¸«à¸Ļ
à¸Ļà¹ģ à¸ªà¸Ļ
Ġth is
w h
à¹Ģà¸£ à¸²à¸¡à¸²à¸ģ
à¸ªà¸¡ à¸Ńà¸ĩ
à¸²à¸ĩ à¹Ģà¸«à¸¡
à¹Ĥ à¸§à¸¢à¸§
9 7
à¹ Ļ
à¸¢ à¸ģà¸¥
à¸ģà¹Ĩ à¸Ħ
à¸²à¸« à¸²à¸¢
à¹Ĥà¸¥ à¸ģà¸Ħà¸£
à¹ĥà¸Ļà¸ģà¸²à¸£ à¹Ģà¸Ķ
Ġm et
à¸²à¸¢ à¸«à¸į
à¸ļà¸Ĺ à¸Ħà¸§à¸²à¸¡
Ġi i
à¸Ļà¸Ħà¸Ļ à¸Ħ
à¸ļ à¸Ľà¸£à¸°à¹Ģà¸Ĺà¸¨
à¸Ļà¹Ħà¸Ľ à¸Ļ
à¸¢à¸§ à¸ŀ
à¸¡ à¹Ģà¸«
à¸ĩ à¹Ħà¸Ł
à¸ŀ à¸£à¸¡
à¸ļ à¸§à¸ģ
Ġà¸« à¸²à¸Ķ
Ġh ome
à¸§à¸¢ à¸ľ
à¸Ķ à¸Ľà¸²à¸ģ
à¸įà¸« à¸²à¸Ńà¸¢
à¸²à¸ĩà¹Ĩ à¸Ļ
Ġà¹Ħ à¸ģ
à¹ģà¸ªà¸Ķà¸ĩ à¹ĥà¸«
à¸ļà¸¡à¸² à¹ģà¸¥
à¸ĩ à¸Ħà¸§à¸²à¸¡à¸ª
à¸ĩà¸ª à¸Ļà¸²à¸¡à¸ļ
à¸ļà¸Ńà¸ģ à¸ŀ
à¸ĩà¸Īà¸° à¸ĭ
à¸Ń à¸§à¸ģà¸²à¸¨
à¹Ħà¸Ľ à¸¥
à¸²à¹Ħà¸Ľ à¸§
à¸ķà¸¥à¸²à¸Ķ à¸«
Ġà¸ľà¸¡ à¸Ķ
à¹Ħà¸Ĺ à¸¢à¸Ļ
Ġà¸£à¸²à¸Ħ à¸²à¸Ļ
à¸Ĥà¸Ń à¸Ĥ
g mm
à¸¢à¸Ļ à¸«à¸£
à¸¢à¸²à¸ģ à¸¡à¸²à¸ģ
à¸ŀ à¸ĩà¸¨
à¸ĺ à¸Ļà¸ļ
er t
p re
à¸Ļà¸²à¸Ļ à¸ģ
à¹ĥ à¸ļà¸ª
à¸Ńà¸¢ à¸«
à¸²à¹Ģà¸Ĥ à¸²à¸¡
à¹ģà¸¥à¸° à¸ĸ
à¸²à¸ľ à¸¡à¸¡
Ġsec ret
à¸ĩ à¸ķà¸£à¸ĩà¸Ļ
Ġà¸Īà¸° à¸Ĭ
à¸§à¸ĩà¸Īà¸£ à¸Ľ
à¸ķ à¸ľ
Ġà¸Īà¸²à¸ģ à¸ģà¸²à¸£
à¸²à¸Ħ à¸¡à¸Ļ
le n
à¸Ķ à¹Ĥà¸Ħ
à¸Ńà¸¢à¸²à¸ģà¸Īà¸° à¸£
à¸²à¹Ĥà¸ŀ à¸ĩ
à¸ģ à¸ķà¸²à¸¡
Ġ55 0
à¹ģà¸Łà¸Ļ à¸ļà¸Ńà¸¥
à¸ķà¸£ à¸ĩà¸«à¸Ļ
Ġà¸Ńà¸²à¸Ī à¹Ģà¸Ľ
Ġd vd
in o
Ġà¸Ķ à¸§à¸ĩ
à¸²à¹Ħà¸Ľ à¸Ļ
à¸²à¹Ħà¸£ à¸Ħà¸£
Ġr un
à¸Ļà¹Ħà¸Ľ à¹Ģà¸¥à¸¢
à¸Ķ à¹ģà¸Ńà¸£
à¸¡à¸²à¸ķà¸£ à¸²
à¸Ļà¸£ à¸²à¸¢
à¸£à¸ĸ à¸ļ
Ġà¸ľà¸¡ à¹Ģà¸¥
à¸¨ à¸Ļà¸Ħà¸ķ
à¸ļà¸ŀ à¸Ļ
à¸²à¸ĩ à¹Ģà¸Ĺ
Ġl ong
à¸²à¸§ à¹ĥà¸«
Ġf e
à¹Ĥà¸Ķ à¸Ļà¸¥
5 3
Ġà¸ŀà¸£à¸° à¸£à¸²à¸Ĭ
à¸²à¸ĩ à¸¥à¸°
à¸Ĺ à¹Ħà¸¡
Ġp ort
à¹ģà¸Łà¸Ļ à¹Ĩ
Ġà¹ģà¸¥à¸° à¸ķà¸Ńà¸Ļà¸Ļ
à¸ļ à¸ŀà¸Ńà¸Ķ
à¸ĩ à¸łà¸²à¸¢à¹ĥà¸Ļ
à¸ĩ à¹Ģà¸Ĥà¸²
Ġà¸ª à¹Ĥà¸¡à¸ªà¸£
à¸£à¸§à¸¡ à¸Ħ
à¹ĥà¸Ļ à¹Ģà¸Łà¸ª
à¸ļà¸Ńà¸ģ à¸«à¸Ļ
Ġà¹ĥà¸Ħà¸£ à¸ŀà¸Ńà¸¡
à¸Ķà¸Ī à¸Ń
à¸įà¸įà¸² à¹Ĥà¸Ĺ
à¹ģà¸Ĺà¸ļ à¸Īà¸°à¹Ħà¸¡
à¸ĩ à¸£à¸°à¸Ķ
Ġà¸« à¸²à¹Ģà¸ŀ
Ġsh in
à¹Ģà¸«à¸¡à¸²à¸°à¸ªà¸¡ à¸ģ
à¹Ģà¸£à¸² à¹Ģà¸Ħà¸¢
à¸Ńà¸Ļ à¸ģà¸£
à¸ģà¸ģ à¸£à¸°à¸Ĺ
à¸ķà¸£à¸ĩ à¸ģà¸¥à¸²à¸ĩ
à¸ŀà¸§à¸ģ à¸¡
Ġwal let
Ġn ar
Ġwh ite
à¸Ļà¸ķ à¸²
Ġà¸«à¸²à¸ģ à¸ķ
à¸§à¸£ à¸²à¸Ħ
à¸¨ à¸ķà¸§à¸£à¸£à¸©
Ġs ur
à¸²à¸ĩ à¹Ģà¸¢à¸Ńà¸°
Ġà¹Ħà¸Ľ à¹Ģà¸£
à¸²à¸ĩà¸²à¸Ļ à¸«à¸Ļ
à¹Ĥ à¸§
à¸¥à¸ĩ à¸§
Ġà¸¡ à¸²à¸ķà¸£
à¸ģ à¸Ħà¸°
à¹Ħà¸§ à¸£
à¸Ńà¸Ńà¸ģ à¸¡à¸²à¸Ķ
à¸ļ à¸ŀà¸¥
m ar
à¸Ńà¸ĩ à¸£à¸²à¸Ĭ
à¸Īà¸° à¹Ħà¸Ľà¸Ĺ
à¸Ļà¸Ń à¸²à¸ģà¸²à¸£
à¸£à¸°à¸ļ à¸Ńà¸ļ
Ġpack age
à¸§à¸ĩ à¹Ģà¸¢
à¸ľà¸¡ à¹Ģà¸ŀ
à¹Ħà¸«à¸Ļ à¸Ļ
à¸Ńà¸Ļ à¸°à¸Ħà¸£
à¸Ń à¹Ħà¸«à¸Ļà¸Ķ
à¸¢ à¸£à¸ĸ
Ġà¹ģà¸¥à¸° à¸«à¸Ļ
à¸²à¹Ħà¸¡ à¸Ĺ
à¸Ń à¹ĥà¸ª
Ġà¸Ī à¸Ļà¸ª
à¸Ļ à¹Ģà¸§à¸Ĺ
à¹Ģà¸£à¸²à¸Īà¸° à¹Ħà¸Ķ
à¸¡à¸²à¸ģà¹Ĩ à¹Ģà¸¥à¸¢
à¸²à¸§ à¸¢
à¸Ńà¸°à¹Ħà¸£ à¸¡
à¸¢à¸ģ à¸Ļ
Ġt ax
à¸Ńà¸ĩ à¹ģà¸Ħ
er n
Ġà¹ģ à¸Ľà¸£
à¸ķà¸²à¸¡ à¸Ķ
à¸ĩ à¸Ħà¸Ļà¸Ń
à¸ģ à¸£à¸²à¸Ĭ
Ġ à¸Ńà¸°à¸Ħà¸£
à¸ķà¸£ à¸ĩà¸ª
à¹ģà¸¥ à¹Ģà¸£
Ġc up
à¸Ļ à¸Ńà¸°
à¸Ļà¸Īà¸° à¸£
à¹Ĥà¸¢ à¸ķ
Ġà¹Ģà¸¥ à¸¢à¸£
à¸£à¸£ à¸ŀ
à¸ļà¸ģà¸²à¸£ à¸¨
Ġ6 50
Ġm om
à¸²à¸ĩà¸ģ à¸°à¸Ľ
re et
iss an
à¸Ļà¸Ħ à¸ĩà¹Ħà¸¡
Ġle novo
à¸Ķà¸ŀà¸¥à¸²à¸Ķ à¸Ľà¸£à¸°à¸ģà¸²à¸£à¹ĥà¸Ķ
Ġà¹Ģà¸Ń à¸²à¸Īà¸£
à¸ĩà¸²à¸Ļ à¹ģà¸ķ
à¸Ńà¸ĩ à¹Ĥà¸Ĺà¸£à¸¨
em ent
à¸Ī à¸Ĥà¸Ńà¸ĩ
à¸¥à¸ĩ à¹Ĥà¸Ĺà¸©
Ġcol or
à¸µà¹ī (
à¹Ģà¸ĺà¸Ń à¹Ģà¸Ľ
à¸ģ à¹ģà¸£
ig ital
à¹Ħà¸Ķ à¸£
à¸° à¹Ģà¸ŀà¸£à¸²à¸°
à¹ģà¸¥ à¸ģà¹Ģà¸Ľà¸¥
Ġà¸Ľà¸£à¸°à¸ģà¸Ńà¸ļ à¸ģ
à¹Ģà¸Ń à¸²à¸Ĥ
as y
à¸² à¹Ĥà¸£à¸ĩà¹Ģà¸£
à¸Ńà¸ĩ à¹ĥà¸Ī
à¹Ħà¸Ľ à¸Ľ
Ġint el
Ġmark et
à¸Ļà¹ģ à¸Ľ
à¸¡à¸²à¸ķ à¸Ńà¸ļ
à¸ķ à¸£à¸°à¸ģ
à¹ģà¸ļà¸ļ à¸Ń
à¸£ à¸ļ
Ġenter tain
à¹Ģà¸ķ à¸°
à¸į à¸£
à¸ļ à¹Ģà¸Ħà¸¥
à¹Ģà¸£ à¸²à¸ľ
Ġà¹Ģà¸«à¸¡à¸²à¸° à¸ģ
à¹Ĥà¸£à¸ĩ à¸łà¸²à¸ŀà¸¢à¸Ļà¸ķà¸£
Ġà¸ģà¸²à¸£ à¸¨
Ġfir st
à¸ķà¸£ à¸²à¸ģà¸²à¸£
à¸²à¸ĩà¸²à¸Ļ à¹Ģà¸ģ
à¹Ģà¸Ĺ à¸²
à¹Ħà¸ķà¸£ à¸¡à¸²à¸ª
à¸Ķ à¹ģà¸Ľà¸¥à¸ĩ
à¹Ĥ à¸«à¸£
à¸Ńà¸¡ à¸²à¸Ĺ
à¸Īà¸²à¸ģ à¸ģ
à¸Ħà¸Ļ à¹ģà¸£à¸ģ
à¸ģ à¹ģà¸Ĺ
à¸ĩà¸Ħà¸¡ à¹Ħà¸Ĺà¸¢
Ġà¹Ĥà¸¡ à¸ĩà¹Ģà¸Ĭ
à¸²à¸§ à¸ľ
à¹Ģà¸Ń à¸²à¸¥
à¸ģ à¸ĺ
à¸²à¸Ļ à¹Ģà¸ª
Ġà¸ķà¸£à¸§à¸Ī à¸ªà¸Ńà¸ļ
à¸Ńà¸¢ à¸Ľ
à¸Ļ à¸Ĭà¸²à¸¢
à¸²à¸Ļà¸¡à¸² à¹ģà¸¥
ill a
Ġe m
à¸¢ à¸«à¸¥
à¸¢à¸ĩ à¹Ģà¸Ľ
à¸Ĥà¸Ńà¸ĩà¸ķ à¸Ļà¹Ģà¸Ńà¸ĩ
à¸Ļà¸°à¸Ħà¸° à¸§
à¸Ń à¸ŀà¸£
Ġf rom
à¸¡ à¹Ħà¸§
à¸Ļà¹Ĩ à¸Ń
à¸Ļà¹ģà¸«à¸¥ à¸°à¸Ħà¸£
Ġà¸ļ à¸Ĺà¸Ĺ
à¸Ŀà¸²à¸ģ à¸Ħà¸£à¸£à¸ł
à¸¢à¸Ļ à¸¡à¸«à¸²à¸¥
Ġà¹ģà¸Ĺ à¸ļ
a u
à¸ģà¸¢ à¸łà¸²à¸ŀ
à¹ģà¸Ļà¸° à¸Ķ
Ġo ver
à¸ªà¸£à¸£à¸ŀ à¸ª
à¸Ļà¸¡ à¸²à¸Ī
s d
à¸§à¹Ģà¸£à¸² à¹Ģà¸Ńà¸ĩ
à¸Ļà¸Ħà¸Ļ à¸Ī
à¸Ļà¸ģà¸²à¸£ à¸¨
Ġà¹Ģà¸£à¸² à¹Ģà¸Ńà¸ĩà¸ģ
Ġà¸£à¸²à¸¢ à¸ĩà¸²à¸Ļ
à¸ģà¸£à¸£à¸¡ à¸Ĺ
Ġh tc
à¸§à¸¢ à¸ŀà¸£
à¸Ńà¸ģ à¹Ģà¸Ľ
à¸ĺà¸Ļà¸²à¸Ħà¸²à¸£ à¸ģà¸ª
Ġwal k
à¹Ħà¸Ń à¸ĭ
à¸¥ à¸£
à¸²à¸¢ à¸«à¸£
ak i
Ġ à¹ĥà¸«à¸į
Ġà¸Ń à¸²à¸Ħà¸²à¸£
oll ow
Ġà¸Ĥ à¸Ńà¸Ĺ
à¹Ī (
à¹Į ">
à¸ļà¹Ģà¸£ à¸²à¸§
à¸²à¸ŀ à¸Ńà¸Ķ
à¸¹ )
Ġl ife
à¸²à¸ĩ à¹Ģà¸ª
à¸Ńà¸¡ à¸Ĺà¸£
à¸ļà¸Ńà¸ģ à¸£
à¸£à¸²à¸Ĭ à¸ĺà¸²à¸Ļ
Ġ, [
à¹Ħà¸ģà¸¥ à¸ģ
à¸Ńà¸ĩà¸Ĥà¸Ńà¸ĩ à¹Ģà¸£
Ġm m
Ġà¹Ģà¸Ĥ à¸²à¹Ħà¸Ķ
Ġe v
à¹Ģ à¹Ģà¸«
à¹Ģà¸¥ à¸ª
Ġus a
à¹Ģà¸ĺ à¸Ńà¸Ħ
Ġà¹Ģà¸¨à¸£ à¸©à¸Ĳ
à¸²à¸Ĭ à¸¡
à¸Ļà¸²à¸Ļ à¸²à¸Ĭà¸²à¸ķ
à¸Ńà¸¢ à¸ļ
Ġ3 20
Ġà¸Ħà¸§à¸²à¸¡ à¸¢à¸²à¸§
Ġ' '
à¸ªà¸²à¸£ à¸ŀ
à¸Ļà¹Ħà¸Ľ à¸Ńà¸¢
à¸ŀ à¸²à¸¥
à¸²à¸Ķ à¸Ĺ
à¸²à¸Ļ à¸§à¸¢à¸ģà¸²à¸£
à¹Ĥà¸Ĺà¸£ à¸ķ
à¸ģ à¸ļà¸£
à¸Ľà¸£à¸°à¹Ģà¸Ĺà¸¨ à¹Ģà¸ģà¸²à¸«à¸¥
à¸²à¸Ńà¸°à¹Ħà¸£ à¹Ģà¸¥à¸¢
à¹Ģà¸Ĥ à¸²à¸ĸ
à¸Ļà¸Ļ à¸²à¸ĩ
Ġoly mpus
à¸£à¸²à¸Ħà¸² à¹Ģà¸Ĺ
Ġm g
à¸£à¸ĸ à¸ģ
Ġfl ash
Ġà¸Īà¸° à¹Ģà¸ģ
Ġst ation
à¸²à¸¢ à¹Ģà¸¥à¸¢
à¸Ļà¸Ħà¸§à¸²à¸¡ à¸ľ
à¸¸ ,
ber ry
à¸²à¸¢ à¸Ńà¸Ńà¸ģ
lo ad
à¸²à¸« à¸²à¸¢à¹Ħà¸Ľ
à¹Ģà¸Ń à¸²à¸¡à¸²
à¸ľ à¸Ńà¸¡
à¸¢à¸Ļ à¹Ģà¸ŀ
à¸ĸà¸²à¸¡ à¸«à¸Ļ
Ġre st
à¸²à¹Ĥ à¸Ħ
uk u
à¸ĩà¹Ģà¸ģ à¸ķà¸§
b ig
à¸Ļ à¸«à¸£à¸Ńà¸ģ
à¸Ńà¸Ķ à¸Ħ
à¸¥ à¹ģà¸¥
à¸²à¹Ģà¸£à¸² à¹Ħà¸Ķ
Ġà¸ľà¸¡ à¸Ńà¸¢à¸²à¸ģ
à¸Ń à¸Ńà¸¡à¸ª
à¸² à¹Ĥà¸Ńà¹Ģà¸Ħ
à¸ŀ à¸ŀ
à¹Ħà¸ģà¸¥ à¹Ĩ
à¸²à¸ ı
à¸łà¸²à¸Ħ à¸ģà¸¥à¸²à¸ĩ
Ġ ul
à¹ Ĺ
Ġà¹ģ à¸Ķ
à¸Īà¸° à¸Ľà¸¥
à¸ĩà¸ªà¸Ńà¸ĩ à¸Ŀ
Ġà¸Ħ à¸Ķ
Ġà¹Ģà¸ŀà¸£à¸²à¸° à¹Ģà¸£à¸²à¹Ħà¸¡
à¹Ģà¸£ à¸²à¸«à¸Ļ
à¸Ļ à¹Ģà¸īà¸ŀà¸²à¸°
Ġà¹Ģà¸Ń à¸²à¹Ħà¸Ľ
à º
à¸«à¸²à¸£ à¸²à¸Ĭ
Ġà¸Ľà¸£à¸° à¸§
à¸§à¹Ĩ à¹Ħà¸Ľ
à¸Ļ à¹Ģà¸£à¸²à¹Ħà¸¡
à¹Ĥà¸Ĭ à¸Ħ
à¸£à¸ĸà¹Ĥà¸Ķà¸¢à¸ªà¸²à¸£ à¸Ľà¸£à¸°à¸Ī
à¸²à¸¢ à¹ģà¸ļà¸ļ
à¹Ģà¸Ń à¸²à¸Ńà¸Ńà¸ģ
à¹Ĥà¸Ķ à¸Ļà¸Ī
à¹ģà¸ŀ à¸Ħ
à¹Ģà¸Ń à¸Ĺ
à¸ģà¸²à¸£ à¸Ľà¸ı
à¸ĩ à¹ĥà¸Ħà¸£
Ġà¹Ĥ à¸Ħà¸¥
à¸²à¸Ĥà¸Ń à¹Ĥà¸Ĺà¸©
à¸ŀà¸Ń à¸ĸ
à¹Ģ à¹Ģà¸ŀ
à¸¢à¸Ļ à¹Ĩ
à¸łà¸²à¸Ħ à¸ķà¸°à¸§
à¸Ń à¸Ĭà¸Ńà¸ļ
à¸Ļ à¹Ģà¸ĭà¸Ńà¸£
Ġth at
à¸ªà¸ª à¸ªà¸ª
Ġ à¸¤à¸Ķ
Ġà¸Ĥà¸Ńà¸ĩ à¸ľà¸¡
à¸§à¸¢ à¸Ńà¸¢
à¸Īà¸²à¸ģ à¸Ĥ
à¸²à¸ª à¸¡à¸¡
à¸¢à¸ģ à¸¡
à¹ģà¸¥à¸° à¹Ģà¸£
Ġà¸Ħ à¸Ńà¸¡à¸¡
à¸²à¸ģ à¸¢
à¹Ħà¸«à¸Ļ à¸ĸ
à¸Ńà¸ĩ à¸Ńà¸²à¸«à¸²à¸£
à¸Ļ à¸ĺà¸£à¸£à¸¡à¸Ķà¸²
j ect
à¸Ķ à¹Ģà¸ªà¸£
Ġà¸ª à¸«à¸£
à¸²à¹Ģà¸Ĥ à¸²à¸ģ
Ġ: "
à¸İ à¸ģ
à¸ł à¸²à¸£à¸ģ
Ġc ase
Ġà¸Īà¸° à¸Ĥ
g o
à¸Ńà¸ĩà¹Ħà¸Ľ à¸ķ
Ġs he
à¸Ńà¸ģ à¸«à¸Ļ
à¸ĵ à¸Īà¸°à¸Ĺ
à¸¢à¸§ à¸Ńà¸¢
à¸¡ à¸Ħà¸§à¸²à¸¡
à¸ĩà¹ĥà¸Ī à¸ģ
à¸Ń à¹ģà¸Ĥ
à¸Ńà¸ª à¸²à¸¡
à¹Ģà¸Ĥ à¸²à¹ĥà¸«
Ġm hz
Ġc or
à¹Ĥà¸¥ à¸ķ
20 16
i end
à¸¢ à¸ľ
à¸Ļà¸Ħà¸Ļ à¸¡
à¸ģà¸ªà¸Ļ à¸²à¸Ļ
Ġa k
Ġà¸Ńà¸°à¹Ħà¸£ à¸Ľà¸£à¸°à¸¡à¸²à¸ĵà¸Ļ
à¸ļà¸£ à¸ļà¸ģà¸§à¸Ļ
à¸ªà¸Ļ à¸Ńà¸ĩ
s en
à¸Ļ à¹Ĥà¸Ľà¸£
à¸ĩ à¹ģà¸¢à¸ģ
à¹ĥà¸Ļà¸ģà¸²à¸£ à¸ª
Ġà¹ģà¸¡ à¸§
à¹Ģà¸Ĺ à¸Ħ
à¸¢à¸²à¸§ à¸Ļà¸²à¸Ļ
à¸ģà¹Ĩ à¸Ľ
à¸¢à¸ĩ à¹Ģà¸Ĺ
à¸§ à¸²à¸Ĺ
à¸¡ à¸¥à¸ĩ
à¸Ļà¸Ķ à¸Ļà¸ķà¸£
Ġà¸« à¸²à¸Ĥ
à¸Ńà¸ĩà¸Īà¸²à¸ģ à¸§
à¸ĸà¸²à¸¡ à¸Ħà¸Ļà¸Ĺ
à¸ģà¸© à¸²à¸¡
à¸§à¹Ģà¸Ńà¸ĩ à¸Ħ
à¸Ńà¸ģ à¸Ĥ
à¸Ļà¸¡à¸²à¸ģ à¸¡à¸²à¸¢
à¸Ńà¸ĩ à¸Ľà¸£à¸°à¸Ķ
à¸Ńà¹ĥà¸Ħà¸£ à¸¡
à¸ļà¸ģà¸²à¸£ à¹Ģà¸¥
à¸ģà¸Ń à¸²à¸Ĺ
Ġà¸Ĥ à¸Ńà¸ª
9 6
!! !!!
à¸ªà¸§à¸¢ à¸¡à¸²à¸ģ
à¸²à¸Īà¸° à¸ľ
Ġà¸Ħà¸Ļ à¸ª
à¸Ļà¸¥ à¸ĩà¸Ĺ
à¸Ļà¸ª à¸ķ
Ġed ge
Ġà¸Ī à¸Ļà¸ľà¸¡
Ġey e
à¹ģ à¸§à¸Ķà¸¥
à¸Ļà¸Ĥà¸Ńà¸ĩ à¸Ħ
à¸§ à¸ģà¸²à¸£
à¸ĩà¹ĥà¸Ļ à¸Ļ
à¸Ķ à¸£à¸°à¸§
Ġdr ive
á Ħ
Ġà¸Ńà¸Ńà¸ģ à¸ģ
as ia
à¹ģà¸£ à¸ĩà¹Ĩ
Ġà¸Ħ à¸Ńà¸¡
à¹Ĥà¸ģà¸« à¸ģ
co unt
à¸«à¸¥à¸²à¸¢ à¸ª
à¹Ģà¸§à¸¥ à¸²à¸Ķ
à¸Ńà¸Ńà¸°à¹Ħà¸£ à¸Ħà¸£
Ġà¸Ĥ à¸¢
Ġc d
Ġà¹ģà¸¥à¸° à¸ľà¸¡à¸ģ
à¸ļ à¸Īà¸£
à¸Ĥà¸Ńà¸ĩ à¸ģà¸¥
à¸² à¹ģà¸£à¸ĩ
à¸ĩà¸ĩ à¸ĩ
à¸²à¸£ à¸²à¸¢à¹Ħà¸Ķ
à¸Ļà¹Ħ à¸ģ
à¹Ĥà¸Ķà¸Ļ à¸«à¸¥à¸Ńà¸ģ
, [
à¸Ĺ à¸¥
à¸Ľà¸£à¸°à¸¡ à¸§à¸¥
à¸²à¸¡ à¸ªà¸ģ
à¸Ńà¸¡ à¸²à¹ģà¸¥
à¹Ģà¸¥à¸¢ à¸¥à¸Ńà¸ĩ
Ġ à¸Ľà¸£à¸°à¸Ĭà¸²à¸Ĭ
à¸ĩ à¸ŀà¸§à¸ģ
à¸§ à¹ģà¸£à¸ģ
à¸Ĥà¸Ń à¸Ħà¸§à¸²à¸¡à¸£
à¸²à¸ģ à¸£à¸°à¹Ģà¸Ľ
à¸ľà¸¡ à¸Ĥ
à¸ŀà¹Ģà¸Ķ à¸ķ
à¸ģà¸£à¸° à¹Ģà¸ļ
à¸¢à¸ĩ à¸«
à¸ĩ à¸ķà¸£à¸ĩà¸Ĥ
à¸ļà¸ª à¸łà¸²à¸ŀ
à¹ĥà¸Ħà¸£ à¸ŀà¸Ńà¸Ĺà¸£à¸²à¸ļ
à¹ģà¸Ńà¸Ļ à¸Ķà¸£
à¸Ńà¸ĩ à¸§à¸ĩà¸Īà¸£à¸Ľ
à¹ĥà¸Ī à¸Īà¸£
à¸§à¹ģà¸Ĺà¸Ļ à¸Ľà¸£à¸°à¸ģ
w eb
à¸¥à¸Ńà¸Ķ à¸ł
d iy
20 15
à¸Ńà¸Ĥà¸Ńà¸ĩ à¸Ĺ
Ġà¸£à¸ļà¸ģà¸§à¸Ļ à¹Ģà¸ŀ
à¸ľà¸¡ à¸Ńà¸²à¸¢
Ġfib er
à¸ĩ à¹Ģà¸£à¸²à¹Ħà¸¡
Ġà¸ķà¸²à¸¡ à¸¥
à¹ģà¸¥ à¸£
à¸Ń à¹Ĥ
à¸Ķ à¹Ģà¸ŀà¸¥à¸ĩ
à¸¥à¸Ķ à¸Ħ
Ġà¹Ģà¸ŀà¸£à¸²à¸° à¸Ĭ
Ġà¹Ģà¸ŀ à¸Ĭà¸£
à¸§à¸¢ à¸Ńà¸£
à¸ļ à¸²à¸Ļ
Ġà¹Ģà¸¥à¸¢ à¹Ħà¸Ķ
à¸ŀ à¸²à¸¢
à¹Ģà¸§à¸¥ à¸²à¸ŀ
à¸Ļà¹Ĥà¸Ķ à¸§
. ,"
à¸Ķ à¸¨
à¸ľà¸¡ à¸Ńà¸¢à¸²à¸ģ
à¸¡ à¸ŀà¸¥
à¹Ģà¸ģ à¸¡à¸Ńà¸Ńà¸Ļà¹Ħà¸¥à¸Ļ
à¹Ħ à¸ľ
à¸§ à¹Ģà¸Ľà¸¥
à¸Īà¸° à¹ģà¸Ī
à¸²à¹Ĥà¸Ħà¸£ à¸ĩà¸ģà¸²à¸£
à¸ļ à¹ģà¸£à¸ģ
à¸£à¸§à¸¡ à¸ª
à¸£à¸²à¸¢à¸ĩà¸²à¸Ļ à¸§
à¸ŀ à¸ģ
à¸ģà¸Ħà¸Ļ à¸«à¸Ļ
à¸²à¹ĥà¸Ħà¸£ à¸¡
Ġg ood
à¸Ńà¸ĩà¸ģà¸²à¸£ à¸ª
à¸Ļà¸Ħà¸Ļ à¹Ħà¸Ĺà¸¢
à¹Ĥà¸Ľà¸£à¹Ĥà¸¡ à¸Ĺ
à¸ª à¸ľ
à¹Ĥà¸£ à¹ģà¸¡à¸Ļà¸ķ
à¸¢à¸Ļ à¹ĥà¸Ļ
à¸Ļà¹ģ à¸Ķà¸Ļ
à¸§à¸§à¸§à¸§ à¸§à¸§à¸§à¸§
à¸Ļ à¸£à¸°à¸Ķ
à¸Ļà¸ª à¸ļà¸²à¸¢
à¸§à¸¡ à¸Ķ
à¸Ħà¸ĵà¸° à¸ģà¸£à¸£à¸¡à¸ģà¸²à¸£
à¸Ĵà¸Ļà¸²à¸ģà¸²à¸£ à¹Ģà¸Ķ
à¸¡ à¸Ńà¸Ńà¸ģ
à¸Ĭ à¸Ļà¸ģ
à¸ģà¸ķ à¸²
à¸ĵ à¸²
à¸ļà¸Ńà¸ģ à¸Ķ
à¸Ķà¸Ĥ à¸§à¸²à¸ĩ
à¸Ļà¸ª à¸ĸà¸²à¸Ļà¸Ĺ
à¸Ĺà¸¢à¸²à¸Ļ à¹ģà¸«
Ġk n
à¸Ļ à¹Ħà¸«à¸¥
à¸Ńà¹Ħà¸Ľ à¸Ń
à¸ĩà¹Ħà¸Ľ à¸ģ
à¸Ķ à¹Ģà¸«à¸¥
à¸Ļà¸¢ à¸²
Ġà¹Ģà¸£à¸²à¸Ńà¸¢à¸²à¸ģ à¸£
Ġà¹Ĥ à¸ģ
Ġk aw
à¸Ļ à¸«à¸į
à¸Ļà¹ģ à¸Ĭà¸¡à¸Ľ
Ġà¹ĥà¸Ļ à¸Ń
à¸ĵ à¸«à¸Ļ
à¸Ńà¸ĩà¸ģà¸²à¸£ à¸ķ
à¸²à¸ĭ à¸²à¸ģ
à¸ķ à¸£à¸²à¸ª
à¸Ľ à¹Ģà¸ŀ
à¸²à¸Ł à¸£
à¸Ļà¹Ħà¸Ľ à¸ķ
Ġà¸ª à¸Ļà¸²à¸¡à¸ļ
à¸²à¹Ħà¸£ à¸ķ
à¸¨ à¸Īà¸£à¸£à¸¢
Ġà¸ķ à¸¡
à¸§à¸ĩ à¸«
à¸²à¸Īà¸° à¹Ģà¸Ķ
à¸Ī à¸ŀà¸£à¸°à¹Ģà¸Ī
à¸ļà¸¡à¸² à¹ĥà¸Ĭ
à¸Ķà¸ĸ à¸Ļà¸Ļ
à¸Ĥà¸Ń à¸Ħà¸§à¸²à¸¡à¸Ħ
à¸¡ à¹Ĥ
à¸ŀà¸Ńà¸Īà¸° à¹ģà¸Ļà¸°à¸Ļ
à¸ģà¹Ĩ à¸Ħà¸Ļ
à¸Ĥ à¸§à¸ļ
à¸ķà¸£ à¸łà¸²à¸ŀ
Ġà¸£à¸ĸ à¸ķ
Ġs il
à¸§à¸Ļ à¸ģà¸¥
á ŀ
Ġà¸Ľà¸£à¸° à¹Ĥà¸¢
à¸§ à¹ģà¸ģ
Ġentertain ment
à¸Ń à¹Ħà¸«à¸¡
Ġà¹Ĥà¸Ĺà¸£ à¹Ħà¸Ľ
à¸²à¸ĩ à¹ĥà¸«à¸į
Ġ4 1
er e
à¸Ļà¹ĥà¸Ļ à¸ª
à¸§à¸²à¸ĩ à¹Ħà¸§
à¸²à¸¡ à¸²à¸¢
à¹Ĩ à¹Ģà¸¥à¸¢
à¸Ħ à¹Ħà¸Ķ
Ġ uk
à¸Ī à¹Ģà¸£
Ġà¹ĥà¸Ļ à¸Ļ
Ġ ................
à¸Ħ à¹ĥà¸«
à¸Ĭ à¸¥à¸ļ
à¸Ħà¸£ à¸Ńà¸ļà¸Ħà¸¥
à¸Ļà¹Ħà¸«à¸Ļ à¸Ĺ
Ġà¸® à¸²à¸£
à¹Ĥà¸ķ à¸Ĥ
à¸£à¸²à¸Ĭ à¸ł
Ġexp ress
à¹Ĥà¸£à¸ĩà¹ģà¸£ à¸¡à¸Ĺ
à¸Ķ à¹Ħà¸Ĺà¸¢
à¸Ń à¹Ģà¸Ĥà¸²
% )
à¸²à¹Ģà¸ģ à¸²à¸«à¸¥
à¸²à¸§ à¸Ńà¸¢
à¸ļà¸Ń à¸²à¸ģà¸²à¸¨
à¸Ī à¸Ńà¸¢
à¹Ĩ à¸Ĭ
à¸²à¸Ļ à¹ģà¸¡
à¸²à¹Ģà¸Ĥ à¸²à¸Ħ
à¸Ń à¸ľà¸¥
Ġà¹Ĥ à¸¥à¸ģ
à¸ĩ à¹ģà¸Łà¸Ļ
à¹ĥà¸Ħà¸£ à¸Ĺà¸£à¸²à¸ļ
Ġh i
Ġv al
er ry
à¸£à¸ĸ à¸ª
à¸£à¸ļà¸ģà¸§à¸Ļ à¹Ģà¸ŀ
ob e
à¸§à¸ĩ à¸Ķ
à¸¡ à¸ķà¸²à¸¡
à¸µ ?
à¸Ķ à¹Ģà¸Ń
à¸Ļà¹Ħ à¸Ĺà¸Ļ
à¸²à¸¢ à¹ģà¸ŀ
à¸¢à¸ĩ à¹ĥà¸«
à¹Ģà¸£ à¸ķà¸ķ
y o
à¸Ĥà¸Ńà¸ĩ à¸¢
Ġà¸Ńà¸¢à¸²à¸ģ à¹Ģà¸«
à¸ĩ à¹Ĥà¸¡
Ġà¹ģà¸¥à¸° à¸Ńà¸¢
à¸Ħà¸§à¸²à¸¡ à¸ĸ
à¸¢à¸ĩ à¸ŀ
à¸ªà¸²à¸¡à¸²à¸£à¸ĸ à¸ª
Ġà¸ª à¸¢à¸²à¸¡
Ġà¸ŀà¸Ń à¹Ģà¸Ľ
à¸ģà¸Ĺ à¸²à¸ĩ
à¸²à¸Ńà¸²à¸ģà¸²à¸¨ à¸¢à¸²à¸Ļ
m g
à¸ļà¸Ńà¸ģ à¹Ħà¸Ľà¸§
à¸²à¸Ń à¸ģ
à¸ª à¸ªà¸²à¸§
à¸Ľ à¸Ńà¸¢
à¸²à¸Ļ à¸°à¸Ħ
à¸²à¸ª à¸²
à¸Ħà¸Ļ à¹ĥà¸Ĭ
p art
Ġà¸ģ à¸ª
Ġà¸Ļ à¸²à¸¢à¸ģ
w ord
y outube
?? ?,
à¸Ļ à¸ĺà¸£à¸£à¸¡à¸Ķ
à¸Īà¸Ńà¸¡ à¹Ģà¸ģà¸¥
Ġà¸ľà¸¥ à¸ĩà¸²à¸Ļ
à¹Ģà¸ŀà¸£à¸²à¸° à¸Ńà¸°à¹Ħà¸£
à¸¢à¸Ļ à¸¡à¸²
Ġà¸Ī à¸Ļà¸ļ
à¸£à¸° à¸Ļ
à¸ļ à¸Ńà¸Ķ
à¸Ļ à¹Ħà¸ĭ
à¸įà¸« à¸²à¸ķ
à¸Ńà¹Ģà¸£ à¸²à¸Ħ
à¸²à¹ĥà¸Ļ à¸Ĭ
Ġ ++++
Ġà¹Ĥà¸£à¸ĩ à¸ŀà¸¢à¸²à¸ļà¸²à¸¥
à¸¡ à¹Ģà¸Ļ
ut e
y n
à¸® à¸Ńà¸£
à¸¢ à¹Ģà¸Ļ
it ch
Ġd ec
Ġà¸ªà¸¡à¸¡ à¸ķ
Ġà¸Ńà¸Ńà¸ģ à¸¡à¸²
à¸«à¸§à¸²à¸Ļ à¹Ĩ
à¸Ļà¸Ķ à¸²à¸£
à¹Ħà¸Ľ à¹Ģà¸ģ
Ġà¸Ĭà¸Ńà¸ļ à¸Ĺ
à¸ļà¸¡ à¸²à¸Ńà¸¢
à¸Īà¸²à¸ģ à¸ŀ
à¸²à¸Ĥà¸Ńà¸ĩ à¸Ħ
à¸Ńà¸Ńà¸ģ à¸¡à¸²à¸ģ
à¹Ĥ à¸ģà¸¥
Ġà¹ĥà¸Ļ à¸Ĳà¸²à¸Ļà¸°
à¸Ńà¸¢ à¸¡à¸²
à¸ļà¸Ĺ à¸£à¸²à¸ļ
à¸¢ à¸Ńà¸°à¹Ħà¸£
à¸łà¸²à¸© à¸²à¸į
Ġà¹Ĥà¸Ķà¸¢ à¹Ħà¸Ķ
Ġà¹Ģà¸¥ à¸¢à¸ģ
à¹ģà¸ŀ à¸Ħà¹Ģà¸ģà¸Ī
an el
Ġin f
à¸Ńà¸ļ à¸¥
à¹ĥà¸Ļ à¸Ĺà¸²à¸ĩ
à¸¢à¸¡ à¸ª
à¸§à¹Ģà¸Ńà¸ĩ à¸¡
à¸¢ à¹Ģà¸Ħ
Ġto uch
à¸¡à¸²à¸ģà¹Ĩ à¹Ģà¸¥à¸¢à¸Ħ
Ġà¸Ħà¸Ļ à¸Ħ
à¸Ļ à¸£à¸ĸà¹Ħà¸Ł
Ġà¹ģà¸« à¸°à¹Ĩ
Ġgt x
à¸Ħ à¹Ħà¸Ĺ
à¹Ĥà¸Ķà¸¢ à¸ģà¸²à¸£
à¸Ńà¸ĩà¸Īà¸²à¸ģ à¹Ģà¸Ľ
à¹ĥà¸Ħà¸£ à¸ªà¸Ļà¹ĥà¸Ī
>> >
à¸ĩ à¹Ģà¸ĭ
à¸Ńà¸ĩà¸ģà¸²à¸£ à¸ĭ
à¸ģà¸£ à¸Ĺ
à¹Ģà¸£ à¸²à¸Ł
à¸§à¸¥à¸°à¸Ħà¸£ à¸Ĺ
à¹Ģà¸Ĥ à¸²à¸Ī
à¸¡ à¹Ħà¸Ĺà¸¢
à¸ĩ à¹Ħà¸«à¸¡à¸Ħà¸£
à¸Ļà¸Ħà¸Ļ à¸ª
on t
Ġ _
Ġà¹Ĥà¸Ĭ à¸§
à¸ĵà¸«à¸¡ à¸Ń
à¹ģà¸Ł à¸Ļà¸¡
à¹Ĥà¸¡à¸ĩ à¹Ģà¸¢
Ġà¸Ńà¸°à¹Ħà¸£ à¹ģà¸ļà¸ļà¸Ļ
Ġà¹ĥà¸Ħà¸£ à¸ģ
à¸° à¹Ģà¸Ļ
à¹Ħà¸«à¸¡ à¸Ĺ
ĠĠĠĠĠĠĠĠ ĠĠ
........ ..
à¸ļà¸Ńà¸ģ à¸Ħ
à¸Ī à¸Ļà¸ķ
à¸¡à¸²à¸ Ł
à¸Ńà¸Ļ à¸Ŀ
Ġse arch
Ġà¹ģ à¸Ń
Ġà¹Ħà¸Ľ à¸ª
à¸£ à¸§à¸¢
Ġm ake
à¸²à¸Ķ à¸«à¸§
Ġt om
à¸²à¸¢ à¸Ħà¸¥
à¸£à¸²à¸Ħ à¸²à¸ģ
à¸²à¸¡ à¸²à¸ķà¸Ńà¸ļ
à¸Ħà¸§à¸²à¸¡ à¹ģà¸ķà¸ģà¸ķ
", (
à¸²à¸Ļà¸§à¸Ļ à¸Ļ
Ġà¹Ĥà¸¡à¸ĩ à¹Ģà¸¢
à¸Ľ à¸ļ
à¸Ĭà¸Ńà¸ļ à¸Ļ
à¹Ĩ à¹Ħà¸¡
à¸Ľ à¹ĥà¸Ļ
à¸ĩ à¸£à¸°à¸ļà¸ļ
à¸²à¸£à¸° à¸¢à¸°
à¸²à¸¡ à¸Ń
à¸Ĥà¸Ńà¸ĩ à¸Ĥ
Ġà¹Ģà¸ŀà¸£à¸²à¸° à¸Ńà¸°à¹Ħà¸£
à¸²à¸¢à¸Ĺ à¸«à¸²à¸£
à¸ķ à¸«
Ġà¸Ħà¸Ļ à¹Ģà¸Ķ
à¸Ĭà¸į à¸²
Ġà¸Ķ à¸Ńà¸ģ
à¸Ľà¸¥ à¸Ńà¸ļ
à¸Ń à¹Ģà¸ĭ
Ġà¸Ńà¸²à¸Ī à¸¡
à¹Ģà¸§ à¸Ĭ
à¹Ģà¸Īà¸Ń à¸Ħà¸Ļà¸Ĺ
à¸Ħà¸Ļ à¸Ńà¸¢
à¸²à¹ģ à¸ĭ
à¸Ń à¹Ģà¸ĺà¸Ń
!! ,"
à¸Ń à¹Ģà¸Ńà¸ĩ
à¸ĩà¹ĥà¸Ī à¹Ģà¸£
à¸§à¸¢ à¸Ńà¸ĺ
à¸ĩà¸Ħ à¸ĩà¸¡
à¸Ńà¸¡ à¸¥
Ġre al
à¸£à¸²à¸ Ĳ
à¸Ńà¸Ľ à¸ģà¸ķ
à¸Īà¸° à¸¥à¸ĩ
à¹ģà¸£ à¸ĩà¸Ķ
à¸ĩ à¹ģà¸Ī
Ġch rome
Ġm p
20 17
à¹Ĩà¹Ĩà¹Ĩà¹Ĩ à¹Ĩ
20 13
à¸Ńà¸Ļ à¹ģà¸¡
à¹Ģà¸£à¸² à¹Ģà¸ģ
à¸²à¸ĩ à¸ģà¸§
Ġà¸Ĥà¸Ńà¸ĩ à¸ŀ
à¹ģ à¸«à¸¡
Ġ1 10
à¹ĥà¸Ļ à¹ģà¸ĩ
Ġc entral
Ġà¸¡ à¸Ńà¸ĩ
Ġ ant
à¸Ľ à¸£à¸²à¸ļ
c all
Ġw eek
à¸²à¸¡ à¸«
Ġinv est
à¸Ń à¸Ńà¸¢à¸²à¸ģà¸£
Ġà¸ł à¸²à¸¢à¹ĥà¸ķ
Ġà¸ª à¸§à¸Ļ
à¸ĩà¸¢ à¸Ńà¸Ķ
à¸ļ à¸ĺà¸Ļà¸²à¸Ħà¸²à¸£
à¸²à¸ĩ à¸Ļà¸°
Ġà¸ª à¹Ħà¸ķà¸¥
7 4
à¸Ķ à¸Ļà¸°à¸Ħà¸£
à¸Ī à¸Ħ
ud e
à¸«à¸£ à¸Ńà¸Ħ
à¸¡à¸²à¸ģ à¸Īà¸£
à¸Ļà¸Ĺà¸²à¸ĩ à¸ķ
à¸§à¸¢ à¹ģà¸ģ
Ġà¹ģ à¸Ńà¸Ķ
à¸ĸà¸²à¸¡ à¹Ģà¸Ħ
à¸²à¸Ħà¸§à¸²à¸¡ à¸ª
à¸Ńà¸ĩ à¸ŀà¸£
el d
Ġà¸ļà¸Ńà¸ģ à¹ĥà¸«
à¸²à¸¡à¸²à¸ģ à¸Ĥ
à¸Ĺà¸²à¸ĩ à¹Ģà¸Ĥ
à¹Ħà¸Ľ à¹Ģà¸Ĥ
à¸²à¸ª à¸§à¸¢
à¹Ģà¸«à¸¡à¸²à¸° à¸ª
à¸¡ à¸ĵà¸ĳà¸¥
à¸ģà¸²à¸£ à¹Ģà¸Ĭ
à¸§ à¸²à¸Ļ
Ġà¸Ĺ à¸°à¹Ģà¸¥à¸²à¸°à¸ģ
à¹Ģà¸Ī à¸Ļ
à¸Ľà¸£à¸°à¸ģà¸§ à¸Ķ
à¸§à¸Ļ à¹ĥà¸«
Ġh appy
à¸ļ à¹Ģà¸£à¸²à¸ģ
à¸Ĺ à¹Ħà¸Ķ
à¸Ļ à¸Ńà¸Ļà¸ģ
à¸Ķ à¸ŀà¸¥
à¹į à¹ī
5 2
à¸¢ à¸«
Ġ ++++++++++++++++++++++++++++++++
à¹Ģà¸§ à¸Ł
à¸Ńà¸ª à¸²à¸¡à¸²à¸£à¸ĸ
r a
à¸«à¸¥à¸²à¸¢à¹Ĩ à¸Ĺ
à¸Ńà¸ĩ à¹Ģà¸Ĥà¸²
à¹Ģà¸£à¸² à¹Ģà¸Ĭ
Ġà¸ŀ à¸Ńà¸Ħ
à¸§à¸ĩ à¹Ĩ
bb tv
à¸²à¹Ĥ à¸ģ
à¹Ħà¸Ĥ à¸Ńà¸¢
à¸Ļà¹Ĥà¸¢à¸ļ à¸²à¸¢
à¸Ļà¹Ħà¸Ľ à¸£
Ġ8 50
à¸Ĭ à¸ģà¸²à¸¥à¸Ĺ
à¸įà¸« à¸²à¸Ķ
à¸Ľ à¸Ĥà¸Ńà¸ĩ
Ġà¹Ģà¸Ń à¸²à¸¥
à¸Ļà¹Ģà¸¥à¸¢ à¸Ķ
à¸²à¹Ħ à¸ª
à¸į à¸Ī
à¸Ńà¸¡ à¹Ĩ
ang o
al k
à¸Ĺ à¹Ĥà¸Ł
Ġà¹Ģà¸£ à¸²à¹ģà¸Ħ
Ġà¸ľà¸¡ à¸¥à¸Ńà¸ĩ
Ġà¸Ĥ à¸²à¸ģà¸¥
Ġà¸ľà¸¡ à¸Ĥà¸Ń
à¸² à¹Ģà¸ļà¸Ńà¸£
Ġà¹ģà¸Ł à¸Ļà¸Ħà¸¥
à¹Ģ à¸Ńà¸¢
à¸Ńà¸ĩ à¸Ķà¸Ļà¸ķà¸£
Ġb ro
à¸ĩ à¸ŀà¸¢à¸²à¸¢à¸²à¸¡
à¸Ļ à¹Ģà¸Ł
à¸ĩà¸Ĥà¸Ńà¸ĩ à¸Ĺ
à¸²à¸Ńà¸Ńà¸ģ à¸ģ
à¸Ĵà¸Ļ à¸²à¸ĭ
chn ical
à¸° à¸«à¸¡
à¸Ķà¸ķà¸²à¸¡ à¸Ĥ
à¸§à¸ĩ à¸¡
Ġà¸Ĭ à¸²à¸ķ
à¸ĩà¸Ħ à¸ĩà¹Ģà¸Ľ
l an
Ġà¸Ħ à¸Ńà¸£
à¸Ļ à¸Ĥà¸²à¸¢
à¸ļ à¸¡à¸²à¸ĸ
à¸§ à¹Ģà¸Ħà¸¥
à¸ĩà¸Ħ à¸¡à¸Ĺ
Ġk id
à¹ģà¸¥à¸° à¸ģà¸¥
à¸§ à¸Ħà¸¥
à¸Ńà¸ĩ à¹ģà¸Ľ
à¸Ńà¸°à¹Ħà¸£ à¸ľ
à¸Ĺ à¸°à¹Ģà¸ļ
à¸ģ à¹Ħ
à¸Īà¸° à¸«à¸¢
à¸Ħà¸§à¸²à¸¡à¸ª à¸ĩà¸ª
à¸« à¸²à¸ļ
à¸Ĺ à¹Ħà¸Ńà¸Ĺ
Ġp ink
à¸¡à¸ł à¸²à¸£à¸°
Ġà¹Ĥà¸Ķà¸¢ à¹Ģà¸Ľ
Ġà¸Ħ à¸ĵ
à¸ŀà¸£à¸° à¹Ħà¸ķà¸£à¸Ľ
à¹Ģà¸¡ à¸¢
â ĸ
Ġà¸Ń à¸ł
à¸²à¸Ľ à¸£à¸°à¸Ĺ
à¸ļà¸¡à¸² à¹Ģà¸¥
à¸ļà¸ģ à¸£à¸°à¹Ģà¸Ľ
à¸ģ à¸Ħà¸§à¸²à¸¡à¹Ģà¸«
Ġà¸ģà¸²à¸£ à¸ŀ
Ġà¸ļà¸Ńà¸ģ à¸ķà¸£à¸ĩà¹Ĩ
à¸ĩ à¹Ģà¸Ħà¸£à¸²à¸°à¸«
à¸Ī à¸į
à¸Ļà¸«à¸Ļ à¸²à¸§
à¸Ńà¸ĩ à¸²à¸Ļ
à¸Ļà¸ķ à¸¥à¸²à¸Ķ
p le
à¸§ à¹Ģà¸£à¸²à¹Ħà¸¡
à¸ķà¸¢ à¸ģà¸£à¸£à¸¡
Ġà¹ģà¸Ł à¸Ļà¹Ģà¸ģ
à¸ģà¸Ħà¸Ļ à¸Ń
Ġà¹Ģà¸Ĥ à¸²à¸£
Ġb angkok
à¸ģà¸Ķ à¹Ģà¸ĩ
à¸£à¸° à¸¢
à¸¨ à¸ķà¸°à¸§
à¸Ļ à¹Ĥà¸Ĺà¸£à¸¨
à¸Ļà¸Ħ à¸ļà¸ģ
à¸ģà¸ķ à¸¥à¸Ńà¸Ķ
à¸²à¸ĩ à¹Ģà¸Ľà¸¥
à¸§à¸¢ à¸Ħà¸§à¸²à¸¡à¸£
] ]
à¹Ģà¸Ħà¸¢ à¹Ģà¸£
à¸« à¸²à¸«à¸¡
à¸²à¸«à¸Ļà¸Ķ à¹ĥà¸«
à¹Ħà¸Ľ à¹Ģà¸«
Ġà¸ģà¸²à¸£ à¸Ķ
à¸Ļà¹ģ à¸ªà¸Ķ
à¸¡à¸²à¸Ĥ à¸Ń
Ġà¸Īà¸° à¸Ńà¸¢
à¸Ńà¸ĩ à¸Ľà¸£à¸°à¸ģ
à¸Ħ à¸Ĥà¸Ńà¸ĩ
à¸ľà¸¡ à¸ļ
à¸Īà¸° à¹Ģà¸ŀ
Ġà¸Ńà¸²à¸Ī à¸Īà¸°à¹Ħà¸¡
Ġro ck
à¸²à¸Ļ à¹Ģà¸Ļ
Ġ end
à¸§ à¹Ħà¸ĩ
Ġ14 0
à¹Į /
à¸¢à¸Ĭ à¸Ļà¸°
per ia
Ġà¸ļ à¸Ńà¸¥
à¸Ńà¸Ļ à¸Īà¸£
à¸«à¸²à¸Ķ à¹ĥà¸«à¸į
à¸Īà¸²à¸£à¸ĵ à¸²
à¸²à¸Ļ à¸¡à¸²à¸Ļ
à¸ŀà¸Ń à¹Ĩà¸ģ
à¸Ńà¸¢à¹Ĩ à¸ģ
à¸¢ à¹Ģà¸Ĺ
à¸ł à¸²à¸§
Ġw ater
à¸ļà¸ļ à¸Ńà¸ģà¸§
à¸²à¸ģ à¸ģ
__ _
à¹Ģà¸ŀà¸£à¸²à¸° à¸ģà¸¥
Ġà¸ªà¸²à¸¡à¸²à¸£à¸ĸ à¸ķ
à¸Īà¸° à¸«à¸¥
à¸ĩà¹Ħà¸Ľ à¸Ķ
à¸Ľà¸£à¸°à¹Ģà¸Ĺà¸¨ à¸Ļ
à¸§ à¹ģà¸Łà¸Ļ
Ġ4 7
Ġweb site
à¸ģ à¹Ģà¸«à¸¥
à¸ĩà¹Ħà¸ĩ à¹Ħà¸Ķ
Ġà¸ľà¸¡ à¹Ģà¸Ĭ
Ġâ ĺ
Ġà¸Ľà¸£à¸° à¸Ĺ
à¸ľà¸¡ à¸ªà¸ĩà¸ª
Ġ ==
âĢĶ âĢĶ
à¸£à¸²à¸ ł
Ġ201 1
à¸Ľà¸£à¸°à¹Ģà¸ł à¸Ĺà¸Ļ
à¸Ĺ à¸«à¸¥
Ġ4 3
Ġà¹Ģà¸£à¸²à¸Īà¸° à¹Ħà¸Ķ
à¸¡à¸Ńà¸ĩ à¹Ħà¸¡
à¹ĥà¸Ķà¹Ĩ à¸Ĺ
à¹Ģà¸Ĺ à¸¥
à¸§ à¹Ģà¸Ńà¸ģ
à¸Ńà¸ļ à¸²à¸ĩà¸Ĺ
à¸ļà¸¥ à¸£à¸²à¸Ĭà¸ĺà¸²à¸Ļ
Ġb nk
à¸Ļà¸Ħà¸§à¸²à¸¡ à¸ĸ
à¸¡à¸² à¹Ģà¸¢
à¸ģà¸ģ à¸°
à¸«à¸¢ à¸²à¸ļ
Ġfib re
à¸Ĥ à¸Ńà¸Ķ
à¹ģà¸¢à¸ģ à¸¢
à¸ŀà¸Ń à¹Ģà¸Ľ
à¸§à¸Ļ à¸Ĭ
à¸Ĥà¸łà¸²à¸ŀ à¸Ķ
à¸Ľà¸§ à¸Ķà¸Ĺ
à¸¢à¸ĩ à¹Ģà¸£
à¸Ķ à¸ªà¸¡
Ġà¸Ĺ à¸°à¹Ģà¸¥
Ġà¸Ļ à¸²à¸Ļà¹Ĩ
à¸Ńà¸Ļ à¸Īà¸°à¹Ģà¸Ľ
à¸Ĺà¸ĺ à¸¨à¸²à¸ªà¸Ļ
Ġop en
Ġle ague
Ġà¸Ī à¸Ļà¹Ħà¸Ķ
Ġà¹ģ à¸Ĭ
à¸¡à¸²à¸£ à¸¢à¸²à¸Ĺ
Ġis o
à¸ĩ à¹Ģà¸Ńà¸ģà¸ªà¸²à¸£
à¸²à¸Ļ à¹ģà¸Ļà¸°à¸Ļ
à¸²à¸ļ à¸²à¸ĩ
à¸ģà¸©à¸ĵà¸° à¸Ļ
Ġr ich
xx xx
Ġm iss
à¸Ķ à¸²à¸Ļ
à¸Ħà¸Ļ à¸Ĭ
Ġà¹ĥà¸Ļ à¹ĥà¸Ī
à¸ģà¸§ à¸²à¸Ķ
Ġtr ans
à¹Ĩ à¹ĥà¸«
à¸ģà¸£à¸°à¸Ī à¸²à¸¢
à¸²à¹ĥà¸Ī à¸Ĺ
à¸ļ à¹Ħà¸¥
à¸Ńà¸¡ à¸ģà¸¥
Ġà¹ģà¸¥à¸° à¹Ģà¸Ķ
à¸ĩà¸²à¸Ļ à¸Ń
à¸Ńà¸Ļà¸Ļ à¸Ńà¸Ļ
à¸§ à¸Īà¸°à¹Ħà¸¡
à¸ķ à¸¥à¸ģ
à¸Ķà¸Ħà¸§à¸²à¸¡ à¸Ń
à¹Ģà¸Ń à¸²à¸Ĥà¸Ńà¸ĩ
à¸²à¸Īà¸° à¸«
Ġp at
ah oo
à¸Ńà¸²à¸«à¸²à¸£ à¸į
à¸ĩà¸ª à¸ĩà¸ª
à¸§ à¸Īà¸°à¸Ĺ
à¸²à¸¡ à¸²à¸§
à¸į à¸¡à¸²à¸ģ
Ġà¸ª à¸ĸà¸²à¸ļ
à¸ķà¸£ à¸Ħ
à¹ģà¸Łà¸Ļà¸ķ à¸²à¸ĭ
à¹Ģà¸Ī à¸Ńà¸Ń
Ġt re
à¸¢à¸ĩ à¸Ħà¸£
à¸Ńà¸Ļà¹ĥà¸Ļ à¸ģà¸¥
à¸²à¸ª à¸¥
à¹Ģà¸Ħà¸¢ à¸Ī
Ġà¸ŀ à¸Ńà¸ª
Ġ18 00
à¹Ĥà¸£à¸Ħ à¸Ī
Ġà¸Ī à¸Ń
à¸ªà¸Ńà¸ĩ à¸Ľ
à¸įà¸« à¸²à¹Ģà¸ģ
à¸Ńà¸Ļ à¹Ģà¸Ĭ
à¹Ħà¸Ń à¹ģà¸ŀ
à¸²à¸¡ à¸Ī
à¸Ĭà¸²à¸¢ à¸«à¸Ļ
à¸ĩà¸Ļ à¸²à¸Ļ
à¸Īà¸²à¸ģ à¸«à¸Ļ
à¹Ģà¸Ń à¸²à¸Īà¸£
à¸ģà¸²à¸£ à¹ģà¸ŀà¸Ĺà¸¢
Ġà¸£à¸°à¸¢à¸° à¸Ĺà¸²à¸ĩ
à¸²à¸ĩ à¸ªà¸£à¸£à¸ŀà¸ª
à¹Ĥ à¸Ħà¸§
Ġà¹Ģà¸ŀà¸£à¸²à¸° à¹Ģà¸£
à¹Ģà¸Ń à¸²à¸ľ
à¸² à¹ģà¸£à¸ģ
à¹ģà¸ļà¸ļ à¹Ħà¸«à¸Ļà¸Ķ
Ġ---------------------------------------------------------------------------------------------------------------- ----
à¸ķà¸²à¸¡ à¸§
à¸Ļà¹Ħà¸Ľ à¸ĭ
Ġà¹Ģà¸ŀà¸£à¸²à¸° à¸Ńà¸¢
à¸ī à¸¥à¸Ńà¸ĩ
Ġà¹ģà¸¥à¸° à¹Ģà¸¥
Ġà¸Ń à¸²à¸§
Ġ- >
Ġà¸ŀ à¸Ńà¸Ļ
à¸ĺà¸£à¸£à¸¡ à¸ģà¸²à¸¢
à¸ĩ à¹Ģà¸§à¸¥à¸²à¸Ĺ
Ġà¸ĸ à¸Ńà¸Ķ
Ġà¹Ģà¸Ń à¹Ģà¸Ĭ
à¸²à¸¡ à¸°
à¸ģà¹Ģà¸ģ à¸Ī
à¸µ âĢĿ
à¸ķ à¸£à¸²à¸Ķ
Ġà¸Ħ à¸Ńà¸Ļà¹Ĥà¸Ķ
Ġ8 5
Ġbl u
à¸Ļà¸Ĥà¸Ńà¸ĩ à¸Ĥà¸§
Ġ255 4
à¸Ĭà¸Ńà¸ļ à¸ª
Ġw indow
à¹Ģà¸Īà¸Ń à¸ľ
áĦ ı
à¸ģà¹ĥà¸Ī à¸ģ
à¸Ĥà¸Ńà¸ĩ à¸ŀà¸£à¸°
Ġp i
ic ial
Ġà¸ģà¸£à¸° à¸Ĺà¸£à¸§à¸ĩ
à¸Ł à¹Ģà¸§à¸Ńà¸£
à¸ģà¸²à¸£ à¹Ħà¸¡
à¹Ģà¸¨à¸© à¸Ĺ
à¸Ńà¸Ķ à¸Ĺà¸Ļ
à¹Ģà¸Īà¸Ń à¹Ģà¸ŀ
à¸²à¸¡ à¸²à¹Ģà¸£
à¸ŀà¸£à¸°à¸£à¸²à¸Ĭ à¸ļ
à¸ģ à¹Ģà¸¥à¸¢à¸Ħ
à¸Ļ à¸«à¸¥à¸²à¸¢à¸Ħà¸Ļ
à¸²à¸«à¸¢ à¸²à¸ļ
à¹Ħà¸«à¸Ļ à¸Ń
à¸ģ à¹Ģà¸¢
à¸ģ à¸Ļà¸°à¸Ħà¸£
Ġ-- >
à¸Ĥ à¸²
à¸²à¸¡ à¸²à¸Ĥ
à¸ķà¸£ à¸²
! ,"
Ġb ur
Ġ08 6
Ġin box
o on
à¸ĩà¸Ħà¸¡ à¸Ĭà¸²à¸§à¸ŀ
Ġco ver
à¹Ģ à¸Ńà¸Ļ
à¸ļà¸¡ à¸²à¸¡
à¹ģà¸ļà¸ļ à¸Ħ
y a
à¸Ĺ à¸Ķà¸¥à¸Ńà¸ĩ
à¸Ħà¸Ļà¹Ħà¸Ĺà¸¢ à¹ĥà¸Ļà¸Ń
à¸Ĵà¸Ļà¸²à¸ĭ à¸Ńà¸Łà¸ķ
à¸ŀ à¸į
à¸²à¸ģà¸²à¸£ à¸£
at ing
v al
à¸Ļà¸²à¸Ļ à¸¡à¸²à¸ģ
à¸ģ à¹Ģà¸£à¸²à¸ģ
ah a
Ġp ol
Ġà¹ģà¸¥à¸° à¹Ģà¸ª
Ġà¸£à¸²à¸Ħà¸² à¹Ģà¸Ĺ
à¸łà¸²à¸Ħ à¸Ļ
Ġà¸ª à¸Ńà¸ĩ
à¸²à¸Ļà¹ĥ à¸Ķà¸¡
à¸° à¸«à¸£
à¸Ī à¸Ļà¹Ħà¸¡
à¸²à¸ŀà¸§à¸ģ à¸Ļ
à¸Ī à¸²à¸Ļ
à¸¡ à¸Ľà¸£
Ġà¸£à¸²à¸Ħ à¸²à¸ģ
Ġman ag
à¸²à¸ŀ à¸£à¸£à¸Ħ
à¸ķà¸Ńà¸Ļ à¸Īà¸ļ
à¸ģà¸©à¸² à¹Ģà¸ŀ
Ġb ut
à¸Ńà¸¡ à¹Ĩà¸ģ
Ġà¹Ģà¸¢ à¸Ļ
Ġs um
un e
à¸¨à¸²à¸ªà¸Ļ à¸²à¸Ń
à¹ģà¸« à¸§à¸Ļ
Ġy ear
à¸Ńà¸°à¹Ħà¸£ à¹Ģà¸ŀ
Ġà¹Ģà¸£à¸² à¹Ģà¸Ķ
Ġà¸¡ à¸²à¸¢
à¸ķ à¸²à¸ģ
à¸²à¹ģ à¸Ĭà¸¡à¸Ľ
à¸¡ à¸²à¸ŀà¸£
à¹ģà¸ľ à¸Ļà¸ģà¸²à¸£
Ġà¸ŀà¸£à¸° à¸ŀ
Ġzen fone
à¸Ńà¸¢ à¹Ģà¸£
à¸£à¸°à¹ģ à¸§à¸ĩ
à¸²à¸¢ à¹Ģà¸ļ
à¹Ħ à¸Ħà¸£
Ġà¸ľà¸¡ à¸ŀ
à¸Ļà¸Ĥ à¸Ļà¸¡
à¸ģà¹ģà¸ªà¸Ķà¸ĩ à¹Ħà¸Ĺà¸¢
à¹Ģà¸Ī à¸Ńà¸ķ
à¹Ģà¸§à¸ĵ à¸Ļ
à¸§ à¸Īà¸°à¸ķ
Ġg ps
à¸Ńà¹Ħà¸Ľ à¸Ħ
à¸ĩà¸¡à¸²à¸ģ à¸Ĺ
à¸ķ à¸Ĥ
à¸ªà¸²à¸« à¸ģ
à¸Ķ à¹Ģà¸Ľà¸¥
Ġ5 4
à¸Ńà¸ģ à¹ĥà¸Ī
à¸²à¹Ģà¸£ à¸²à¸Ħà¸§à¸£
Ġà¸¡ à¸«à¸²à¸¥
r on
à¸Ń à¸«à¸§
à¸ģà¸£ à¸²à¸¢
à¸Ńà¸ĩ à¹Ģà¸«à¸¥
à¸ģà¸²à¸£ à¸Ńà¸ļà¸£à¸¡
Ġ5 2
à¸Ķ à¸®
âĢ¢ âĢ¢
à¸ªà¸Ńà¸ļà¸ĸà¸²à¸¡ à¸Ħà¸£
à¸Ļà¹Ĩ à¸Ķ
Ġc iv
Ġ om
b it
à¸ĩ à¸Ńà¸¢à¸²à¸ģà¸Īà¸°
à¸« à¸²à¸Ń
à¸Ńà¸¢à¸²à¸ģ à¸¢
à¹Ĥ à¸Ĥà¸Ĺ
à¸§à¸ĩ à¸¡à¸²à¸¥
à¸¢à¸Ļ à¸Ħà¸ĵà¸°
à¸²à¸ĺ à¸²à¸£à¸ĵà¸°
à¹Ģà¸¥à¸¢ à¸Īà¸£
à¸¢à¸ĩ à¸«à¸Ļ
à¸²à¸Ħà¸§à¸²à¸¡ à¹Ģà¸Ĥ
à¸Ĭ à¸¥
á ħ
à¸¢à¸§ à¹ĥà¸«
à¸Ńà¸Ļ à¹Ģà¸Ļ
à¸ļà¸£à¸£ à¸¥
à¸Ļà¹ģà¸«à¸¥ à¸°à¸Ħ
m ark
à¸Ńà¸ľà¸¡ à¹Ħà¸¡
à¹Ħà¸Ľ à¸ģà¸§
Ġcam era
p a
à¸ģ à¸ķà¸£
à¸ļ à¸Ńà¸Ńà¸ģ
Ġà¸Īà¸° à¸ģà¸¥
Ġà¸¡ à¸²à¸Ń
un z
à¸Ļ à¸ŀà¸£à¸°à¹Ģà¸Ńà¸ģ
à¸²à¸ĩ à¸Īà¸°
à¸ļà¸ķ à¸²
Ġp age
Ġà¸ŀà¸Ń à¸Īà¸°
à¸²à¸¢ à¸ĭ
à¹Ģà¸ģà¸©à¸ķà¸£ à¸ģà¸£à¸£à¸¡
à¸£à¸ĸ à¸£
à¸ķà¸ģà¸¥ à¸ĩà¸ģ
à¸²à¸Ļ à¹Ģà¸«à¸¥
à¸ģà¸²à¸£ à¹ģà¸Ī
à¹Ĥ à¸ļà¸Ļ
y le
à¹Ģà¸Ī à¸Ńà¸Ļ
à¸£ à¹Ĥà¸Ĺà¸©
à¸Ĭà¸Ńà¸ļ à¹ĥà¸«
à¸²à¸ĩ à¸²à¸¡
à¸²à¹ĥà¸Ī à¸ĸ
à¸ĩ à¸¡à¸²à¸ģà¸ģà¸§
à¸¢ à¹Ħà¸§
Ġ4 6
à¸²à¸ĩ à¸Ļà¸°à¸Ħà¸£
à¹ĥà¸Ļ à¸§à¸ĩ
à¸§ à¸ªà¸¡
8 3
? ""
à¹ģà¸¥ à¹Ģà¸ª
à¹ģ à¸Ńà¸Ħ
Ġk m
à¸ģà¸²à¸£ à¹Ģà¸ŀ
à¸§ à¸Ĺà¸²à¸ĩ
à¸Ħà¸Ļ à¹Ĩà¸Ļ
à¸Ļ à¸§à¸Ļ
à¹Ħà¸¡ à¸¥
à¸²à¹Ģà¸¥ à¸Ļà¹Ħà¸Ĺà¸Ļ
à¸²à¸Ĥ à¸²
à¸ĸ à¸Ńà¸Ļ
à¸ļà¸ļà¸Ĺ à¹Ģà¸Ľ
à¸§à¸ĩ à¸Ĭ
Ġà¸Ĥà¸Ńà¸ĩ à¸ķ
à¸ģ à¸Īà¸°à¹Ģà¸Ľ
à¸¡ à¹Ģà¸Ħà¸£
à¸Ļà¸Ļ à¸²à¸ĩà¹Ģà¸Ńà¸ģ
à¹Ĥà¸Ķ à¸Ļà¹ģ
à¸Ĭ à¸ķ
à¸²à¸Ļ à¹Ģà¸§
Ġ +++
à¸Ľà¸£à¸°à¸ģà¸Ńà¸ļà¸Ħ à¸Ńà¸¡à¸ŀ
à¸§ à¹Ģà¸ªà¸£
à¸ļ à¸§à¸¡
Ġà¸£à¸ļà¸ģà¸§à¸Ļ à¸Ĥà¸Ńà¸Ħ
à¸£à¸²à¸¢ à¸ģà¸²à¸£à¸Ĺ
à¸Ńà¸°à¹Ħà¸£ à¸¢
à¸ĸà¸²à¸¡ à¸ĸ
à¸Ļà¹ĥà¸Ļ à¸£
à¸«à¸¥à¸²à¸¢ à¹Ģà¸£
Ġ à¸«à¸¡à¸²à¸¢à¹Ģà¸«à¸ķ
à¸Ńà¸¢ à¸ľ
Ġcre dit
à¸¡à¸«à¸²à¸ģ à¸©
à¸Ŀ à¸Ļà¸ķ
à¸²à¸ŀà¸£à¸° à¸¢à¸²
Ġsh ow
à¸Ĵà¸Ļ à¸²à¸ķ
à¸ĩà¸£ à¸§à¸¡
à¸£ à¸©à¸ĵ
à¹Ģ à¹Ģà¸Ĭ
à¸ĸ à¸Ńà¸¢
à¸¢à¸§ à¹Ģà¸Ĥ
à¸Ĥà¸Ńà¸ĩ à¹Ģà¸¡
à¸ģà¸²à¸£ à¸Ńà¸Ńà¸ģà¹ģà¸ļà¸ļ
à¸į à¸ŀ
à¸¡ à¸§à¸¥
à¸¢à¸§ à¹Ģà¸Ńà¸ĩ
à¸ŀà¸£à¸° à¸Ńà¸²à¸Ĺ
Ġà¹Ģà¸¥à¸¢à¸Ńà¸¢à¸²à¸ģ à¸ĸà¸²à¸¡à¸§
Ġà¸£à¸²à¸Ħ à¸²à¸ķ
à¸ļà¸Ńà¸ģ à¹Ģà¸£à¸²à¸§
à¹ģà¸Ńà¸Ľ à¹Ģà¸Ľ
à¸²à¸ĩà¹Ħà¸£ à¹ĥà¸«
à¸²à¹ĥà¸Ļ à¸Ľ
ww w
à¸¢ à¸ļà¸Ĺ
à¸Ńà¸¥ à¹Ģà¸¥
f ord
à¸Ķ à¹ģà¸«
à¸¥ à¸Ł
à¸§ à¸ŀà¸£
à¹ĥà¸Ļà¸Ĥ à¸ĵà¸°à¸Ļ
Ġà¹ĥ à¸ļà¸Ļ
à¸Ńà¸¢ à¹Ģà¸«
à¸Ļà¸ļ à¸Ńà¸£
à¸²à¸ĩ à¹ģà¸Ĺ
à¸ĩà¸ª à¸§à¸¢
maz da
à¸¡à¸²à¸ģ à¸§
à¸ģà¸²à¸£ à¸Ńà¸¢
à¹Ģà¸ĺ à¸Ńà¸¢
à¹Ħà¸Ľ à¸ªà¸¡
à¸¢à¸§ à¸°
Ġà¹ģ à¸Ńà¸Ļ
à¸Ńà¸ģà¸²à¸£ à¸¨
Ġd igital
à¸¢à¸Ļ à¸¥
à¸ŀ à¸Ļà¸ĺ
à¸ķà¸£ à¹Ģà¸Ķà¸ļ
à¹Ģà¸¢à¸²à¸§ à¸Ĭà¸Ļ
à¸Ńà¸ĩ à¸ªà¸Ńà¸ļ
à¸Ĺ à¹Ģà¸¡
à¸£à¸° à¸«à¸Ļ
à¹Ģà¸Ł à¸£à¸¡
Ġà¹Ģà¸Ļ à¸Ħà¹Ħà¸Ĺ
25 60
à¸Ļà¸ķ à¸Ńà¸ļ
Ġà¸Ľà¸£à¸° à¸«à¸¢
à¹ģà¸«à¸¥ à¸°à¸Ĺ
à¸Ħ à¸«
@@ @
à¸¥ à¹ĥà¸Ļ
Ġà¹Ģà¸ ĸ
à¸ŀ à¹Ģà¸£
à¸²à¸ĩ à¸Ńà¸Ńà¸ģ
à¹Ģà¸¢à¸Ńà¸° à¹Ģà¸¥à¸¢
à¸« à¸ĩà¸ª
à¸Ħà¸§à¸²à¸¡ à¸¢à¸²à¸§
à¹Ģà¸ģ à¸¢
à¸Ĥ à¸Ńà¸Ļà¹ģà¸ģ
à¸Ńà¸¢à¸²à¸ģ à¸Ń
à¸²à¹Ħà¸£ à¹Ħà¸¡
à¸Ľà¸£à¸° à¹Ģà¸ŀà¸ĵ
Ġd dr
Ġà¸Īà¸Ļ à¸¡à¸²à¸ĸ
Ġn on
à¸ĵà¸° à¸ģà¸£à¸£à¸¡à¸ģà¸²à¸£
à¸Ńà¸ĩ à¸ģà¸Ķ
à¸ª à¸ŀ
à¸Ľ à¸ģà¸²à¸£
à¸ģà¸£ à¸²à¸Ħ
à¹ĥà¸Ļà¸ģà¸²à¸£ à¸ŀ
Ġà¸ģà¸£à¸° à¸ķ
à¸²à¸Ĥ à¸Ńà¸ĩà¸Ļ
à¹ģà¸Ĺà¸Ļ à¸£à¸²à¸©à¸İà¸£
n ational
à¸ķà¸²à¸¡ à¸Ĭ
8 2
ou d
à¸²à¸ĩà¸²à¸Ļ à¸ļ
à¸¡à¸²à¸ģ à¸ª
à¸Ļà¸Ħà¸Ļ à¸ľ
à¸Ļà¸Ńà¸Ļ à¸Ķ
à¸Ĺ à¸ŀ
Ġà¹Ģà¸ŀ à¸¨
à¸ģà¸£à¸¢à¸²à¸Ļ à¸¢à¸Ļà¸ķ
à¸ķà¸²à¸¡ à¸¡à¸²
à¸° à¸ŀà¸²à¸Ļ
à¸Ļà¹ĥà¸Ī à¹Ħà¸Ķ
à¸ªà¸Ļà¹ĥà¸Ī à¸ķ
à¸² à¹Ĥà¸¡
à¸§à¸¢ à¸ĸ
in ess
à¸¡ à¸Īà¸°
à¹Ĥà¸Ħà¸£ à¸²à¸Ĭ
à¸Ļ à¹Ĥà¸Ħ
à¸Ļ à¸Ńà¸¥
Ġw ill
à¸£à¸²à¸Ħ à¸²à¸Ħ
à¸įà¸į à¸²à¸Ĺ
à¸Īà¸°à¸¡ à¸²à¸£
à¸Ńà¸Ļ à¸Ħà¸Ļà¸Ĺ
Ġ Â
Ġà¸¡à¸²à¸ģ à¹Ĩ
à¹Ĥà¸Ķ à¸Ļà¸¢
à¸²à¸¡à¸² à¹ĥà¸Ļ
à¹ĥ à¸¢
à¸° à¸Ńà¸¢
à¸ģ à¸ļà¸Ńà¸¥
à¸¢à¸¡ à¸Ń
à¸¡à¸²à¸ģà¹Ĩ à¸Ħà¸£
à¸£à¸§à¸¡ à¸ķ
à¸§à¸Ļ à¸§
à¸ļà¸ģà¸²à¸£ à¹Ģà¸ĩ
à¹Ģà¸£à¸²à¸Ń à¸²à¸¢
Ġà¹ĥà¸Ļ à¸ŀ
à¸Ńà¸¡ à¸²à¹ĥà¸Ĭ
st on
Ġà¸ķ à¸¥
Ġà¸Ķ à¸Ńà¸ģà¹Ģà¸ļ
à¸Ļ à¸²à¸£
à¸Īà¸²à¸ģ à¸ģà¸²à¸£à¸Ĺ
à¸ļà¹Ħà¸Ľ à¸§
à¸Ļ à¸¢à¸Ļà¸ķ
Ġà¹Ħà¸Ľ à¸ĭ
à¸ģà¸²à¸£ à¸ĩà¸²à¸Ļ
am ily
à¸Ńà¸Ńà¸Ńà¸Ń à¸Ńà¸Ńà¸Ńà¸Ń
à¸ŀà¸¥ à¸Ńà¸¢
à¸ļà¹Ħà¸Ľ à¸ģ
Ġcol le
Ġà¸ģà¸£à¸° à¸Ī
Ġi m
à¸ŀà¸£à¸£à¸Ħ à¸Ľà¸£à¸°à¸Ĭà¸²à¸ĺ
à¸Ļ à¹ģà¸Ĺà¸Ļ
à¸Ħ à¸«à¸Ļ
à¸ķà¸ģà¸¥ à¸ĩ
à¸¡à¸Ń à¹Ħà¸ĭà¸Ħ
à¸ļà¸¡ à¸²à¸ª
à¹ĥà¸Ħà¸£à¹Ģà¸Ħà¸¢ à¹Ģà¸Ľ
à¹Ģà¸¥ à¸§
Ġaut o
Ġair port
à¸ķ à¹ĥà¸Ļ
à¸Ĭà¸§à¸Ļ à¸Ħ
à¸¢ à¸Ńà¸ĩà¸Ĥà¸§
à¸Ļà¸Ńà¸Ńà¸ģ à¹Ģà¸ī
à¸ļà¸¡à¸² à¹Ħà¸Ķ
à¸¢ à¹Ĥà¸Ĺà¸£à¸¨
à¸ļ à¹ĥà¸«à¸¡
à¸ĸ à¸ĸ
Ġà¸£ à¸Ńà¸Ķ
à¸²à¹Ħà¸¡ à¸¢
à¸²à¸§ à¹Ģà¸Ķ
le d
à¸¡à¸² à¹Ģà¸ķ
à¹Ģà¸Ń à¸²à¸Ĭ
Ġà¸£à¸ļà¸ģà¸§à¸Ļ à¸«à¸Ļ
à¸²à¸ĩà¸²à¸Ļ à¹ĥà¸«
à¸²à¸ģà¸²à¸£ à¸Ī
à¸Ħà¸§à¸²à¸¡ à¸Ĥ
à¹Ģà¸Ħ à¸²à¸Ļ
à¹Ģà¸Īà¸Ń à¸ŀ
à¸ŀà¸§à¸ģ à¹Ģà¸Ĥà¸²
à¸²à¹Ģà¸ª à¸ŀà¸ķ
à¸¢à¸¢à¸¢à¸¢ à¸¢
Ġà¸¢ à¸Ńà¸¡
Ġe le
à¸ĭà¸° à¹ģà¸¥
à¸£à¸²à¸ķ à¸£
à¸Ńà¸¢ à¹Ģà¸Ĺ
à¸² à¹Ĥà¸£à¸ĩ
à¸Ńà¸Ļ à¸ļà¸Ńà¸ģà¸§
à¸ļà¸¡ à¸²à¸Ļ
à¸« à¸²à¹Ģà¸£
à¹Ĥ à¸ļà¸ģ
à¹ģà¸¥à¸° à¹Ģà¸ª
à¸ģà¸²à¸£ à¸«à¸¥
à¹Ģà¸Ń à¸²à¸Ķ
à¸¡ à¹Ģà¸«à¸¡
à¸Ľà¸£à¸°à¸ĺà¸²à¸Ļ à¸²à¸ĺ
ish i
à¸Ń à¹Ģà¸ķà¸£
Ġg ame
à¸Ńà¹Ħà¸Ľ à¹Ģà¸£
à¹Ħ à¸ģà¸£
à¹Ĥà¸Ńà¸ģà¸²à¸ª à¹ĥà¸«
Ġà¸ł à¸²à¸¢à¸«à¸¥
Ġà¹Ģà¸ī à¸¥
Ġ à¸Ħà¸§à¸ļà¸Ħ
à¸¢à¸ģ à¸Ĺ
à¸Ĭ à¸ģ
à¸²à¸Īà¸²à¸ģ à¸Ĺ
à¸ķà¸²à¸¡ à¸ģ
Ġà¹Ĥà¸Ľà¸£ à¹Ĥà¸¡à¸Ĭ
à¸ĵ à¸Ĭ
à¹Ĥ à¸ļà¸§
Ġà¹Ģà¸Ķ à¸£
à¸Ĭà¸Ńà¸ļ à¸Ń
Ġà¹Ģà¸Ĥ à¸²à¸ķ
à¸Īà¸²à¸ģ à¸¥
à¹ĥà¸Ļ à¸Ŀ
Ġà¸ª à¸²à¸§à¹Ĩ
Ġà¹ģ à¸¡à¸Ļ
à¸²à¸ĸà¸²à¸¡ à¸Ļ
à¸ķà¸£ à¸ª
à¸«à¸¥à¸²à¸¢ à¹Ģà¸Ķ
opp o
à¸Ļ à¹Ģà¸ľ
à¸ŀà¸£à¸° à¸Ĺ
à¸Ķ à¸ī
Ġ1 55
à¸ĩ à¹ĥà¸ģà¸¥
Ġà¸¡ à¸²à¹Ħà¸Ķ
Ġà¸£à¸Ńà¸ļ à¸Ļ
à¸Ļà¸Ħà¸Ļ à¸ŀ
b ts
à¸²à¹Ħà¸Ľ à¹Ģà¸¥
à¸Ļà¹Ħà¸Ľ à¸¡
à¸Ħà¸£ à¸Ńà¸ĩ
à¸²à¸£à¸¢ à¸²à¸Ĺ
à¸Ķ à¹ģà¸Ļ
à¸ĩ à¸«à¸¢
255 7
à¹Ĥà¸Ĺà¸£à¹Ħà¸Ľ à¸ĸà¸²à¸¡
à¸ķà¸£ à¸Ķ
à¸ģà¸£ à¸Ń
à¸²à¹Ĩ à¸Ĺ
à¸¡ à¸Ļà¸¡
à¸ģà¸²à¸£ à¸«
à¸¢à¸Ńà¸¡ à¸Ĺ
Ġà¹Ģà¸£à¸²à¸Īà¸° à¸Ĺ
à¸ĩ à¹ĥ
Ġà¸ģà¸²à¸£ à¸Ħ
Ġà¹Ĥà¸Ķà¸¢ à¸Ħ
à¸Ħà¸Ļà¹Ħà¸Ĺà¸¢à¹ĥà¸Ļ à¸į
à¸Ĥ à¸Ķ
à¹Ħà¸Ľà¸« à¸²à¸«à¸¡à¸Ń
à¸¡ à¹Ħà¸«à¸¡
à¸ģ à¸ł
à¸¡à¸¡ à¸Ńà¸ĩà¸Ĥà¸Ńà¸ĩ
à¹ģà¸¥à¸° à¸ļ
ol og
à¸Ļà¸¡ à¸²à¸Ńà¸¢
az z
à¹Ģà¸Ħà¸¢ à¸Ĥ
à¹Ĥà¸£à¸Ħ à¸ķ
à¸²à¸Ĥ à¸Ļà¸²à¸Ķà¸Ļ
à¸Ļ à¸¡à¸²à¸Ĥ
à¸§ à¸Ńà¸°à¹Ħà¸£
à¸²à¸ķà¸Ńà¸ļ à¸¥
à¸Ħà¸§à¸²à¸¡ à¸ģà¸¥
à¸Ķ à¹ģà¸£à¸ģ
à¸¥à¸° à¸Ĭ
Ġ à¸«à¸¡à¸²à¸¢à¸Ħà¸§à¸²à¸¡à¸§
à¸Ńà¸ĩ à¸£à¸°à¸§
Ġà¸Ļà¸²à¸¢ à¸«à¸Ļ
7 3
à¸§à¸Ļ à¸ģà¸¥à¸²à¸ĩ
à¸Ļ à¸Ľà¸£à¸°à¹Ģà¸Ķ
Ġà¹Ģà¸ŀà¸£à¸²à¸° à¹Ģà¸ŀ
à¸²à¸Ń à¸²à¸§
ver y
Ġb est
à¸¢ à¸Ńà¸Ļ
che ster
à¹Ĥà¸¢à¸ļ à¸²à¸¢
à¸Ĭà¸²à¸¢ à¸Ħà¸Ļà¸«à¸Ļ
à¸Ĥà¸Ńà¸ĩ à¸«
à¹Ģà¸ĺ à¸Ńà¸§
âĻ¥ âĻ¥
à¸ªà¸²à¸¡à¸²à¸£à¸ĸ à¹Ģà¸Ľ
à¸¡ à¹Ģà¸Ľà¸¥
à¸¡ à¹Ģà¸Ĭ
Ġà¹ģà¸Ł à¸Ļà¸ģ
Ġà¸§ à¸²à¸ĩà¹ģà¸ľ
à¸Ńà¸ĩ à¸£à¸ĸ
à¸Ń à¸Ńà¸ª
à¸²à¸Ļ à¹ĥà¸Ĭ
g er
Ġà¸łà¸²à¸ŀ à¸Ĺ
Ġà¹Ģà¸Ńà¸Ł à¸ĭ
. /
Ġà¹Ģà¸¡ à¸¥
ad get
af e
à¸ķà¸²à¸¡ à¸Ń
à¸ģà¸¥à¸²à¸ĩ à¹Ģà¸¡
à¸ģ à¸¨à¸£
à¸Ļà¹Ħà¸Ľ à¸¢
Ġt ak
à¸Ńà¸ĩ à¸ī
à¸²à¹ĥà¸Ļ à¸§
à¸¨à¸ķà¸§à¸£à¸£à¸© à¸Ĺ
à¸ª à¸§à¸¡
Ġà¹Ģà¸£à¸²à¸Ħ à¸ļà¸ģ
à¸Ķ à¹Ģà¸¥à¸¢à¸§
à¸Ļà¹ĥà¸Ī à¸ģ
à¸²à¸ŀ à¸Ń
Ġà¹ģà¸ĸ à¸¡à¸¡
à¸¡ à¹ģà¸ģ
Ġà¸ģ à¸ģà¸ķ
à¸ģà¸© à¸²à¸Ľ
à¸§à¸ľà¸¡ à¹Ģà¸Ńà¸ĩ
Ġ à¸Ľà¸£à¸°à¸ª
à¸²à¸Ħ à¸Ńà¸¡
à¸Ķ à¹ĥà¸Ļà¸Ĭ
à¹Ĥà¸Ķ à¸Ļà¸ģ
à¸µà¹ī ""
5 1
h o
à¸¥ à¸ŀ
Ġà¸Ľ à¸§à¸ª
! ?
à¸§à¸¢à¸ķ à¸Ļà¹Ģà¸Ńà¸ĩ
à¸Ħà¸Ħà¸¥ à¸Ħ
à¸²à¸¢ à¹Ģà¸¥
Ġ5 3
à¹ĥà¸Ļ à¸Ħà¸¥
Ġm ay
Ġà¹ģà¸¥à¸° à¸ĭ
à¹Ĥà¸Ĺà¸£à¸Ħ à¸¡à¸Ļà¸²à¸Ħà¸¡
à¸¡à¸²à¸ģ à¹ģà¸ķ
Ġà¸Īà¸° à¸ģ
à¸²à¸¡ à¸Ľ
à¸įà¸į à¸²à¸§
à¸²à¸¢ à¹ģà¸ķ
Ġà¹Ģà¸ĭ à¸Ļà¸ķ
Ġà¸Ļ à¸Ńà¸ģà¸Ļ
ad ow
à¸£ à¸§
à¸ķ à¹Ģà¸ŀ
à¹Ģà¸£à¸²à¸ª à¸Ńà¸ĩà¸Ħà¸Ļ
à¹Ģà¸Ń à¸²à¹Ģà¸Ľà¸£
à¸²à¸Ńà¸°à¹Ħà¸£ à¸ľ
à¹ģà¸Ļà¸§ à¸£
à¸ĩ à¸ĩà¸§
Ġk it
à¸¢à¸§ à¸Īà¸°
à¸Ńà¸¡à¸²à¸ģ à¸ģà¸§
à¸ŀ à¸«à¸¥
à¹Ģà¸¥à¸¢ à¸ļà¸Ńà¸ģà¸§
à¸Ńà¹Ħà¸Ľ à¸¢
à¸²à¸ª à¸°à¸ŀ
Ġà¹Ģà¸§à¸¥ à¸²à¸ľ
à¸²à¸Ļà¸§à¸¢ à¸Ħà¸§à¸²à¸¡à¸ªà¸°à¸Ķà¸§à¸ģ
Ġst reet
à¸ļà¹Ģà¸£ à¸²à¸Ĺ
Ġre t
à¸Ļà¸ģà¸²à¸£ à¸£
Ġà¸¥à¸ĩà¸Ĺ à¸°à¹Ģà¸ļ
Ġà¹Ĥà¸Ķ à¸¢à¸ģ
à¸ĩà¸Īà¸²à¸ģ à¹Ħà¸Ķ
Ġpre m
à¸ģà¸ģà¸ģà¸ģ à¸ģ
à¸Ļà¸Īà¸° à¸Ĥ
ul a
à¸²à¸Ī à¸Ļà¸ĸ
Ġ4 000
à¸¡à¸Ħà¸£ à¸Ńà¸ĩ
cl ub
Ġs ocial
à¸² à¹Ĥà¸Ķà¸Ļ
à¸ļà¸ģà¸²à¸£ à¸Ī
iv o
à¹ģ à¸ªà¸ķ
à¸Ķà¹Ģà¸Ī à¸Ļà¸§
à¸²à¹Ħà¸ĩ à¸Ħà¸£
à¸§ à¸«à¸²à¸¢
à¹ĥà¸Ī à¸Ļ
Ġà¸Ī à¸Ļà¸ģà¸§
**** *
à¸Ńà¸Ļ à¹Ģà¸ĭà¸Ńà¸£
à¸ĸà¸²à¸¡ à¸Ļ
Ġss d
à¸ªà¸Ńà¸ĩ à¹Ģà¸Ķ
à¸ªà¸Ńà¸ļà¸ĸà¸²à¸¡ à¸Ĺ
Ġ0 6
à¸²à¸Ķ à¸£
Ġà¹ĥà¸Ħà¸£ à¸ŀà¸Ńà¸Ĺà¸£à¸²à¸ļ
à¹Ģà¸ķ à¸¢
à¸ģà¸© à¸²à¸ģà¸²à¸£
à¸ļ à¸Ħà¸§à¸²à¸¡à¸Ħ
à¸Ĭà¸²à¸¢ à¸Ħ
à¸¥à¸ĩ à¹Ģà¸£
k e
à¹ģ à¸£à¸°
à¸Ĥ à¸ļà¸§à¸Ļ
à¹Ģà¸Ń à¸§
à¸Ĭà¸Ńà¸ļ à¸¡
à¸Ĥà¸Ńà¸£ à¸ļà¸ģà¸§à¸Ļ
à¸ģà¸£à¸° à¸ª
à¸ļà¹ĥà¸Ħà¸£ à¸Ĺ
à¹Ĥà¸® à¸¡
à¸ĩ à¹ĥà¸Ļà¸ģà¸²à¸£
à¸į à¸²à¸į
er o
à¸Ńà¸ĩà¸ģà¸²à¸£ à¸£
à¸Ń à¸Ńà¸ªà¹Ģà¸ķà¸£à¹Ģà¸¥
à¸ģà¸Ĥà¸Ńà¸ĩ à¹Ģà¸£à¸²
à¸Ń à¸Ĭà¸²à¸ķ
à¹Ģà¸ŀà¸¥ à¸¢
à¸Ńà¸ľà¸¡ à¹Ģà¸Ľ
à¸Ļà¸«à¸¡à¸Ķ à¹ģà¸¥
Ġ?? ,"
à¸¢ à¹Ģà¸«à¸¡
à¸¡à¸ķ à¸¥à¸Ńà¸Ķ
à¸ļ à¹Ģà¸ĭ
à¸ª à¸Ńà¸¢
Ġk c
à¸ĩà¸²à¸Ļ à¸Ŀ
à¸ĩ à¹Ģà¸¥à¸¢à¸Ħà¸£
Ġp ow
Ġà¸Ħà¸§à¸²à¸¡ à¹Ģà¸Ľ
à¸§à¸ĩ à¸Ń
à¸ŀ à¸Ńà¸¥
Ġà¸Ń à¸²à¸¨
r ing
à¸Ħ à¹ģà¸¥
Ġ à¹Ħà¸«à¸¥
à¹Ĥà¸¡ à¹Ģà¸¡
à¸ĩà¸« à¸²à¸ģ
t ot
à¸Īà¸° à¸Ĥà¸²à¸¢
à¸ģà¸£ à¸£
à¸²à¸Ħ à¸Ļà¹Ĥà¸ªà¸Ķ
à¸²à¸¡ à¸²à¸ŀ
à¸Ĥà¸Ńà¸ĩ à¸ĭ
à¸Ķ à¸Ńà¸Ļà¹Ģà¸¡
à¸ŀ à¸Ńà¸ª
à¸Ļà¹Ĩ à¸Ļ
Ġà¸Ļ à¸²à¸¬
à¸²à¸Ļ à¸Ļà¸°à¸Ħà¸°
Ġà¸ģà¸²à¸£ à¸ļ
à¸¢à¸Ķ à¸Ķ
à¸Ļà¸ģà¸²à¸£ à¸Ī
à¸Ĭ à¸ª
à¹Ĥà¸¥ à¹Ĥà¸ģ
à¸Ļ à¹Ĥà¸£
à¸§à¸¢ à¸Ńà¸°à¹Ħà¸£
à¸Ķ à¹Ģà¸§
z a
à¸ªà¸²à¸¡à¸²à¸£à¸ĸ à¸Ī
à¸¥à¸ĩ à¹Ģà¸¥
à¹Ħà¸Ĺà¸¢ à¸£
Ġà¹ĥà¸Ļ à¸¢
Ġà¸ªà¸²à¸Ĥ à¸²à¸Ń
à¸²à¸Ī à¸Ńà¸¡
à¸² à¹Ĥà¸Ľà¸£
à¸¢à¸§ à¹ģà¸¥à¸°
à¸Ļà¸ª à¸²à¹Ģà¸«à¸ķ
à¸²à¸Ĥà¸Ńà¸ĩ à¸Ń
à¸ģ à¸Ħà¸§à¸²à¸¡à¸Ħ
à¸¡à¸« à¸²à¸¨à¸²à¸¥
à¸ĩ à¸«à¸į
à¸²à¹Ģà¸Ĥ à¸²à¹Ģà¸Ľ
à¸ĵ à¸Ļà¸°à¸Ħà¸°
à¸ļ à¸ģà¸¥à¸²à¸¢à¹Ģà¸Ľ
à¸²à¸Ķ à¸²
Ġac er
à¸ģ à¸Ĭà¸²à¸ķ
à¸ł à¸²à¸ľ
à¸Ń à¹Ħà¸ĩ
à¸Ńà¸ĩ à¸Ħà¸¥
à¹ģà¸ļà¸ļ à¸Ķ
if ic
à¸² à¹Ģà¸§à¸¥à¸²
à¸¡à¸² à¹Ģà¸Ķ
à¸¡à¸²à¸Ĭ à¸Ńà¸ļ
à¸¡à¸²à¸ģ à¸ģà¸ģà¸ģ
à¹ī ..
Ġà¸ļà¸²à¸Ĺ à¹Ģà¸Ĺ
Ġb ike
Ġ12 5
à¸ģà¸© à¸²à¸Ļ
Ġsp f
Ġà¸ľà¸¡ à¹Ģà¸Ńà¸ĩà¸ģ
à¸Ńà¸Ļ à¹Ĥà¸ķ
à¸Ļà¸¡ à¹ģà¸¡
à¹Ģà¸£à¸²à¸Īà¸° à¸Ĺ
Ġd ata
Ġà¸¡ à¸²à¸ŀà¸£
Ġinvest ment
à¸° à¸ķà¸Ńà¸Ļà¸Ļ
à¸ªà¸£ à¸£
à¸Ĥà¸Ńà¸ĩ à¹ģà¸Ĺ
à¸Ńà¸¡ à¸«à¸Ļ
Ġà¸ģà¸£à¸°à¹Ĥà¸Ľà¸£ à¸ĩ
à¸²à¸§ à¹Ģà¸§à¸Ńà¸£
ro p
Ġ à¸Ļà¸°à¸Ħ
à¸ĩ à¸ł
à¸²à¹Ģà¸£ à¸²à¸Ń
Ġ à¸Ĩ
à¹Ģà¸Ħà¸¢ à¸Ĭ
Ġm ode
à¸«à¸²à¸ģ à¸¡
à¹Ģà¸ĺ à¸Ńà¸Ļ
à¸ģà¸Ħà¸Ļ à¸£
à¸¢à¸§ à¹ģà¸ķ
à¸Ļà¹Ģà¸¢à¸Ńà¸° à¹Ĩ
Ġà¸¡ à¸²à¸Ħà¸£
à¸ļà¸²à¸ĩ à¸Ħà¸Ļà¸ģ
à¸Ńà¸ģ à¸Ĭ
à¹ģà¸£ à¸ģà¸§
s m
Ġm en
à¹Ģà¸¥à¸¢ à¸Ńà¸¢à¸²à¸ģà¸Īà¸°
Ġx peria
Ġ à¸Ńà¸Ļà¸²à¸Ħà¸ķ
à¸²à¸¡ à¸²à¸ĸ
à¸²à¸Ķ à¸§
Ġn at
à¸ģà¸ģà¸ģà¸ģà¸ģà¸ģà¸ģà¸ģ à¸ģà¸ģà¸ģà¸ģà¸ģà¸ģà¸ģà¸ģ
à¸Ĭ à¹Ģà¸Ĭ
à¸Ĥà¸Ńà¸ĩ à¸Ĥà¸§
à¸Ĺà¸²à¸ĩ à¸Ńà¸Ńà¸ģ
à¸«à¸¡à¸Ķ à¸ģ
à¸¡ à¹Ģà¸Ħ
à¸ģà¸£ à¸§à¸£
d is
à¸Ľ à¸ªà¸ķ
à¸²à¸ķ à¸²à¸Ļ
à¸Ĺà¸²à¸ĩ à¸ģ
9 3
1 20
à¸² à¹Ħà¸«à¸¡à¸Ħà¸°
à¹Ĥà¸£à¸Ħ à¸ľ
à¸ķà¸¥à¸Ńà¸Ķ à¸Ĺ
à¸Ĥà¸Ńà¸ĩ à¸Ħà¸Ļà¸Ĺ
à¸²à¸Ŀ à¸£
en se
Ġà¸Ľà¸¥ à¸²à¸¢
à¸ĩà¹ĥà¸Ļ à¸Ľ
à¸ĩà¸§à¸¥ à¸§
à¸Ńà¸Ńà¸ģà¸¡à¸² à¹ĥà¸«
à¹Ģà¸£à¸²à¸Ħà¸§à¸£ à¸Ĺ
Ġà¸ľà¸¡ à¸Ńà¸¢à¸²à¸ģà¸£
à¸Īà¸° à¸ķà¸Ńà¸ļ
à¸Ķ à¹Ħà¸Ľà¹ģà¸¥
à¹Ģà¸Ħà¸¢ à¸ĸ
à¸ĭ à¸°à¸Ĺ
à¸²à¸ĩ à¸¥à¸°à¹Ģà¸Ń
à¸Ļ à¸Ńà¸¢à¸²à¸ģ
Ġà¸Ł à¸Ńà¸£
à¸Ļà¹ģ à¸ľà¸¥
à¸ĩ à¸Ľà¸£à¸°à¸ķ
à¸Ĭà¸Ńà¸ļ à¹Ģà¸£à¸²
Ġ ********************************
Ġv ers
Ġh and
Ġ5555 555
à¸ģà¸£à¸§à¸£ à¸£à¸Ķ
t w
à¹ĥà¸Ī à¹Ģà¸¢
à¸Ķà¹Ĩ à¸«à¸Ļ
Ġà¸ģà¸²à¸£ à¸ģ
Ġà¹ĥà¸Ļ à¸ģà¸²à¸£à¸Ĺ
à¸²à¸£à¸° à¸ļà¸²à¸¢
à¸Ļà¸²à¸¢ à¸ģà¸£
à¸Ĳ à¸Ĺ
à¸²à¸¢à¹Ħà¸Ľ à¸Ńà¸¢
à¸Ńà¸²à¸Ī à¸Īà¸°à¸ķ
Ġm il
à¸²à¸ĩà¸²à¸Ļ à¹ĥà¸Ļ
Ġbrow ser
à¹Ħà¸ģà¸¥ à¸Īà¸²à¸ģ
sp oil
Ġ0 7
à¸Ļà¹ģà¸ļà¸ļ à¹Ħà¸«à¸Ļ
à¸²à¹Ħà¸Ľ à¸Ī
à¸²à¸Ļ à¹Ģà¸£à¸²à¸ģ
à¸ªà¸²à¸¡à¸²à¸£à¸ĸ à¸ŀ
," -
à¹ī .
à¸Ńà¸Ļà¸Ķ à¸Ńà¸Ļ
à¹Ģà¸£à¸²à¸ķ à¸¥à¸Ńà¸Ķ
à¸ģ à¸ŀà¸£
à¸Ńà¸Ļà¹Ĩ à¸Ħà¸Ļà¹Ħà¸«à¸Ļ
à¸Ńà¸¡ à¸²à¸Ħ
Ġà¸Ĺà¸²à¸ĩ à¸Ĭ
à¸²à¸ĩ à¹ĥà¸«à¸¡
à¸¥ à¹Ģà¸Ķ
à¹ĥà¸Ħà¸£ à¸Ńà¸¢
Ġà¸Ī à¸Ļà¹Ģà¸¡
à¸¢ à¹ģà¸«
à¹Ħà¸¡ à¸Ħ
à¸ļ à¸£à¸²à¸Ĭà¸ģà¸²à¸£
2 000
j or
à¸Ńà¸ĩà¸Īà¸²à¸ģ à¸ķ
à¹Ģà¸Ī à¸Ńà¸ļ
à¸²à¹Ħà¸¡ à¸ľ
à¸ĩà¸¡ à¸²à¸§
à¸²à¹ģ à¸Ķà¸ĩ
à¸²à¸Ļ à¹Ģà¸«à¸£
Ġà¹Ģà¸ŀà¸£à¸²à¸° à¸Ń
Ġp oint
Ġà¹Ģà¸¥à¸¢ à¸Ī
à¹Ģà¸ ©
Ġb re
à¸Īà¸° à¹Ģà¸Ńà¸²
Ġmas ter
à¹ģà¸ļà¸ļ à¹Ģà¸Ľ
à¸Ļ à¸¨à¸²à¸¥
an e
à¸ģ à¹ģà¸Łà¸Ļ
à¹Ĥ à¸«à¸Ļ
not e
à¸²à¸¡ à¸ª
à¹ĥà¸Ļ à¸£à¸Ńà¸ļ
à¸Ńà¸°à¹Ħà¸£ à¸«à¸£
um e
à¸¢ à¸ĵ
à¹Ĥà¸Ń à¹Ģà¸Ħà¸£
n ect
à¸ªà¸Ķ à¸Ĭ
g en
à¹Ĥà¸Ķ à¸Ļà¸«
à¸Ń à¸Īà¸°à¹Ħà¸Ľ
Ġl ow
un ter
à¸Ļ à¸Ńà¸Ķ
osh op
à¸Ħ à¹Ģà¸ķà¸Ńà¸£
à¹Ĥà¸Ķ à¸Ļà¸ļ
à¸¡ à¸²à¸«à¸¥
à¸²à¸£à¸ĸ à¸ķ
à¸Ļà¹Ģà¸£ à¸²à¸Ĺ
à¸Īà¸ļ à¸¥à¸ĩ
Ġà¸Ħ à¸ªà¸Ĭ
à¸§à¸Ļ à¸Ī
à¸²à¸Ń à¸£
or a
à¸ļà¸ª à¸²à¸§
à¸ĺà¸£à¸£à¸¡ à¸£à¸²à¸Ĭ
om i
à¸£ à¸²à¸§à¹Ĩ
Ġà¸Ĺ à¸Ńà¸ĩ
à¹Ħ à¸Ĺà¸£
' t
9 90
à¸§ à¸Ŀ
à¹Ĥà¸Ńà¸£ à¸ª
à¹Ģ à¹Ģà¸¢
Ġà¸£ à¸ļà¸ģà¸§à¸Ļà¸Ĺ
à¸Ķà¸²à¸§ à¹Ģà¸Ĺ
à¸Ĥà¸Ńà¸ĩ à¸ī
à¸ŀà¸£à¸° à¸ļà¸²à¸Ĺà¸ªà¸¡à¹Ģà¸Ķ
Ġà¸Ńà¸¢à¸²à¸ģ à¹Ģà¸£
à¹Ħà¸Ń à¸¨
à¸§ à¸Ľà¸£à¸°à¸¡à¸²à¸ĵ
Ġà¹Ģà¸Ĥ à¸²à¸Ī
à¸Ńà¸Ļ à¹Ħà¸§
à¸ģà¸²à¸£ à¸Ľà¸£à¸°à¸Ĭ
à¸²à¸¢ à¹Ħà¸«à¸Ļ
à¹ģà¸ļà¸ļ à¸Ĭ
à¹Ģà¸Ńà¸²à¹Ħà¸Ľ à¹ĥà¸Ĭ
Ġ.... ...
à¸ģà¸ķ à¸Ńà¸Ļà¸Ļ
à¹ģà¸Ĥ à¸Ļ
à¸¢ à¸Īà¸²à¸ģ
à¹Ģà¸§à¸¥ à¸²à¸ģà¸¥
Ġà¸§ à¸²à¸ĩ
Ġt em
à¸¥à¸ĩ à¸¡à¸²
à¸Ńà¸¢ à¹Ģà¸¥
à¸Ńà¸ĩà¸¡ à¸²à¸£
p ass
ason ic
à¸²à¸ĩ à¸£à¸²à¸¢à¹Ħà¸Ķ
à¸ļà¸Ńà¸ģ à¸¡
à¸ª à¸¡à¸²à¸ĺ
Ġf ind
mac book
Ġà¸ģ à¸ŀ
Ġs ol
à¸Ńà¹Ħà¸Ľ à¹ģà¸¥
Ġm ult
Ġ25 00
à¸ªà¸²à¸¢ à¸Ļ
à¸²à¹ģ à¸Ķ
à¸Ľ à¸Ĺà¸£
à¸Ļà¸ģà¸²à¸£ à¹ĥà¸«
à¹ĥ à¸ł
Ġà¹Ģà¸£ à¸²à¸«
Ġà¸ķà¸²à¸¡ à¸Ļ
à¸¡à¸²à¸Ĥ à¸Ńà¸Ħ
à¸ĩà¸²à¸Ļ à¸ŀ
à¸ĸà¸²à¸¡ à¹Ģà¸ģ
à¸Ńà¸ľà¸¡ à¸¡
à¸Ńà¸Ńà¸ģ à¹Ħà¸Ķ
à¸²à¸Ļ à¸ļà¸Ńà¸ģà¸§
à¸²à¸¥à¸ĩ à¸ģà¸£à¸ĵ
à¸² à¹ĥà¸Ļà¸ģà¸²à¸£
à¸ķà¸²à¸¡ à¸«à¸¥
à¸Ķ à¸¥à¸ļ
à¸²à¹Ħ à¸Ĥ
à¸Ļ à¹ĥà¸ļ
à¹Ģà¸Ĺ à¸Ńà¸£
à¸§ à¸Īà¸°à¹Ħà¸Ķ
à¸Ļà¸¥ à¸¡
à¸²à¸¢ à¸¡à¸²à¹Ģà¸Ľ
à¸Ļà¸§ à¸²
à¸ģà¸£à¸° à¹Ģà¸Ĺ
Ġà¸ķ à¸²à¸£
à¸§à¸Ļ à¸Ħà¸Ńà¸¡à¸ŀ
Ġch anel
à¸¥ à¸Ĥ
Ġà¸Ĥà¸Ńà¸ĩ à¸Ń
Ġ12 00
à¸²à¸Ļ à¸²à¸Ļà¹ģà¸¥
à¸Ńà¸Ł à¸Ł
à¹Ĥà¸£à¸Ħ à¸ĭ
à¸Ľ à¸«
Ġ à¸§à¸ĩà¸¨
à¸²à¸Ń à¸ª
à¸Ńà¸Ķ à¸ķ
Ġà¹ģ à¸ģà¸£
à¸²à¸ĩà¸²à¸Ļ à¸Ļ
à¸Ń à¹Ģà¸§
à¸§ à¸Īà¸°à¹Ģà¸Ľ
Ġà¹Ģ à¹Ģà¸ļ
à¸Ļ à¸Ļà¸Ĺ
à¸Ńà¸ģ à¹Ħà¸ģ
à¸§à¸²à¸ĩ à¸ķ
à¸²à¸ĩ à¸Ł
à¸ĩ à¹Ģà¸ĺà¸Ń
Ġpow der
Ġà¹Ģà¸£à¸²à¹Ģà¸¥à¸¢ à¸ķ
n t
à¸Ķ à¸ģà¸£à¸°à¹Ģà¸Ľ
à¸ĵà¸¡à¸²à¸ģà¹Ĩ à¸Ħà¸£
ro om
c pu
Ġag ency
à¸Ńà¸²à¸«à¸²à¸£ à¸ļ
à¸ģà¸Ń à¸®à¸Ńà¸¥
m et
à¸ŀà¸£à¸£à¸Ħ à¹Ģà¸ŀ
Ġh uawei
à¸Ńà¸¡ à¸²à¸£
à¸²à¸ª à¹Ģà¸ģ
à¸¢ à¸Ķà¸ķ
à¹Ģà¸ŀà¸£à¸²à¸° à¹Ģà¸Ħ
à¸²à¸Īà¸° à¸Ń
à¹Ģà¸ŀà¸¥à¸ĩ à¸Ľà¸£à¸°à¸ģà¸Ńà¸ļ
à¸Ļà¸²à¸Ļ à¸¡à¸²à¸Ļ
à¸ĩà¸Īà¸° à¸Ĥ
à¸¡à¸²à¸ģ à¹Ģà¸¥à¸¢à¸Ħà¸£
Ġà¸Īà¸° à¹Ģà¸Ķ
à¸§à¸¢ à¹Ħà¸Ĺà¸¢
à¸¬ à¸²à¸¥à¸ĩà¸ģà¸£à¸ĵ
à¸ļà¸¡ à¸²à¸ķ
à¸Ħà¸Ļ à¹Ħà¸Ĥ
à¸Ļà¸¡ à¸°à¹Ģà¸£
à¸²à¸ĩ à¹Ģà¸ªà¸£
on line
à¸Ńà¸Ļ à¹Ģà¸ķ
à¸ĩà¸£ à¸Ńà¸ļ
Ġ à¸¢à¸ģà¹Ģà¸¥
à¸§à¸¢ à¸ĩà¸²à¸Ļà¸Ĺ
à¸Ńà¸¢ à¹Ħà¸§
à¸µà¹Ī )
à¸£ à¸§à¸ļà¸£à¸§à¸¡
à¸²à¸¢ à¹Ģà¸¡
à¸ŀ à¸Īà¸Ļ
à¸Ńà¸¢ à¸Ńà¸Ńà¸ģ
Ġ0 1
à¸Ħà¸£ à¸Ĺ
Ġà¸«à¸¥à¸²à¸¢ à¸Ħà¸£
Ġ à¸ĺà¸£à¸£à¸¡
à¸Ļ à¸£à¸ĸà¸¢à¸Ļà¸ķ
à¸ģ à¸°à¸§
à¹Ģà¸£à¸² à¹ģà¸Ħ
Ġà¸ķ à¸°
Ġgro up
Ġbe auty
à¸Ļà¸Ĺ à¸²à¸Ļ
Ġer ror
Ġà¸ģ à¸£à¸°à¸Ķ
Ġb i
r i
Ġà¸ļ à¸²à¸£
à¸²à¸ł à¸£à¸ĵ
. (
à¸²à¸¡ à¸¡
à¸²à¸ª à¸Ńà¸ĩà¸Ħà¸Ļ
à¹Ģ à¹Ģà¸Ĥ
à¸²à¸Ńà¸²à¸Ī à¸Īà¸°
à¸Ļà¹Ħà¸Ľ à¸Ī
Ġà¸Ľ à¸¥à¸Ńà¸Ķà¸ł
à¸Ńà¸Ļ à¸Īà¸²à¸ģ
Ġà¸Ľ à¸§à¸Ĭ
à¸¡à¸²à¸ĸà¸²à¸¡ à¸§
Ġm ap
à¸ĩà¹ĥà¸Ļ à¸ª
à¸²à¸Īà¸° à¸¥
à¸ģ à¸ī
à¸ľà¸¡ à¹ĥà¸«
à¸Ī à¹Ħà¸Ķ
à¸§à¸ĩ à¹Ģà¸£
à¸²à¹Ħ à¸Ĺ
à¸§à¸ĩ à¹Ģà¸§à¸¥à¸²à¸Ļ
y ahoo
à¸²à¸§ à¸ģà¸¥
à¸Ĺà¸°à¹Ģà¸¥ à¸²à¸°
à¸ĸà¸²à¸¡ à¸Ń
Ġ) "
Ġà¸«à¸¡ à¸Ńà¸ģ
sh ip
à¸Ńà¸Ļ à¸Īà¸°à¹Ħà¸¡
à¸Ļà¸¡ à¸²à¸¢
à¸£à¸²à¸¢à¸ģà¸²à¸£ à¸Ļ
à¸Ļà¹Ĩ à¸§
1 10
à¸²à¸¡ à¸«à¸²à¸§
à¸Ńà¸Ħ à¸Ńà¸Ļà¹Ĥà¸Ķ
Ġz ara
Ġc p
à¸§à¸ķ à¸Ļ
or o
à¸Īà¸° à¸Ĥà¸Ń
à¸Ńà¸Ļ à¸£à¸ĸ
à¸²à¸Ļ à¹Ģà¸Ĺ
Ġg ot
à¸§ à¸Ńà¸¢à¸²à¸ģ
Ġà¹Ģà¸Ħà¸£ à¸Ķ
Ġs al
iq ue
à¸Ľà¸£à¸°à¸Ĭ à¸²à¸¡à¸ķ
te chnical
à¸ķ à¸Ńà¸ļà¸Ħ
à¸£ à¸ĩà¸Ħ
à¸ķà¸¥à¸Ńà¸Ķ à¸Ĭ
Ġà¸¥ à¸ļ
à¹ĥà¸Ļ à¹Ģà¸Ĥà¸ķ
à¸ŀ à¹Ģà¸ŀ
à¸ļà¸Ļ à¹Ĥà¸Ĺà¸£à¸¨
à¸Ńà¸ĩà¸ģà¸²à¸£ à¸ģ
à¸Ļà¹ĥà¸Ļ à¸ķ
à¸Ķ à¸Ńà¸²à¸¢
à¸¡à¸² à¹Ģà¸Ĭ
à¸Ńà¸¡ à¸²à¸ķ
à¸Ļà¸Ķ à¸²
Ġà¸¡à¸²à¸ķà¸£ à¸²
Ġà¸Īà¸²à¸ģ à¸§
à¹Ģà¸¥à¸¢ à¹ĥà¸«
à¸© à¸Ī
à¸Ļà¸ĺ à¸£
à¸Ńà¹Ģà¸£ à¸²à¸Ĺ
à¸µ ..
à¸Ńà¸ģà¸¥ à¸§à¸ĩ
à¹Ģà¸£à¸²à¸Īà¸° à¹Ħà¸¡
à¸ģà¸©à¸²à¸Ħà¸§à¸²à¸¡ à¸Ľà¸¥à¸Ńà¸Ķà¸ł
Ġm ain
Ġà¹Ģà¸£ à¸²à¸ĭ
à¸Ĥà¸²à¸¢ à¹ģà¸¥
à¹Į âĢĭ
à¸Ńà¸ģ à¸ľ
à¸Ķà¹Ĩ à¸ģ
à¸ĩà¹ģà¸£ à¸ģà¸ģ
Ġo il
Ġà¸Ħà¸Ļ à¸ķ
à¸Ĺà¸ĺ à¸¨
à¸²à¹ĥà¸Ī à¸ĩ
255 6
à¸Ľà¸£à¸°à¸ªà¸²à¸Ļ à¸ĩà¸²à¸Ļ
à¸ģà¸¥ à¸ĩà¸ģ
à¸²à¸¢à¸¡ à¸²à¸Ńà¸¢
Ġà¸Ī à¸Ļà¸Ľ
à¸Ńà¸Ń à¸²à¸Ĺ
à¸Ļà¸Ĥ à¸Ńà¸ļà¸Ħ
à¸Ļà¹ĥà¸Ī à¹Ģà¸¥
Ġf ac
à¹Ģà¸ª à¸ĸ
et o
à¸¡ à¸ĺà¸²à¸Ļ
à¸ľà¸¡ à¹Ģà¸Ĭ
à¸Ļà¸Ħà¸§à¸²à¸¡ à¸Īà¸£
à¸Ĺ à¹Ģà¸Ķ
à¹ĥà¸Ļ à¸£à¸°à¸«à¸§
Ġt el
à¹Ĥà¸ī à¸Ļà¸Ķ
à¸²à¸§ à¹Ģà¸«à¸Ļ
Ġ( ;
à¸Ļà¸Ĥà¸Ńà¸ĩ à¸§
à¸§à¸ĩ à¹ģà¸£à¸ģà¹Ĩ
à¸Ĺ à¸°à¸¥
à¸¥à¸ĩ à¸ļ
à¸§ à¸Ħà¸Ļà¸Ĺ
à¸Ńà¸ĩà¸Īà¸²à¸ģ à¹Ħà¸¡
Ġn a
à¸§à¸Ļ à¸Ľà¸£à¸°à¸ģà¸Ńà¸ļ
à¸ģ à¸ªà¸¡
Ġà¸ķ à¸²à¸¢
à¸ģ à¹Ħà¸Ľà¹ģà¸¥
à¹ģà¸ļà¸ļ à¸Ī
à¸Ńà¸ĩà¸ģà¸²à¸£ à¸Ńà¸°à¹Ħà¸£
Ġf il
à¸ĩ à¸Ŀà¸£
à¸Ķ à¹Ģà¸£à¸²
opp ing
Ġst at
à¸Ńà¸Ļ à¸ªà¸¡
à¸ĩ à¸Ńà¸ģ
à¸²à¸ĩ à¹ģà¸£à¸ĩ
à¸ĩà¸ķ à¸Ńà¸Ļà¸Ĺ
Ġres ort
à¸ļà¸Ńà¸ģ à¹Ģà¸ŀ
à¸Ńà¸ª à¸Ļ
à¸²à¸ª à¸ģ
à¸ļà¸ģà¸²à¸£ à¹Ģà¸Ķ
à¸Ńà¸Ļ à¹Ģà¸£à¸²à¸¡
à¸¢à¸ģ à¸ª
à¸§à¸¢à¸ķà¸Ńà¸ļ à¸Ķ
à¸¡ à¸¥à¸°
à¸²à¹ĥà¸Ī à¸ķ
à¸Ķ à¹Ħà¸«à¸Ļ
à¸Ĭ à¸²à¸Ļ
à¸ļ à¹Ģà¸§
Ġà¹Ģà¸ĺ à¸Ńà¹Ģà¸Ľ
Ġà¸ŀà¸§à¸ģ à¸Ħ
à¸²à¸ł à¸²à¸Ħ
à¹ī âĢĿ
," ""
id er
Ġà¸ª à¸Ńà¸Ļ
à¸²à¸ª à¸²à¸£
à¸¢à¸§ à¹Ģà¸¡
t ing
à¸ĩà¸ķ à¸Ńà¸ļ
Ġe ar
à¸Ļà¹Ģà¸Ńà¸ĩ à¸ģ
Ġ2 70
à¹Ģà¸£à¸²à¸Īà¸° à¸ķ
à¸ģ à¹Ģà¸«
Ġà¹Ģà¸¥à¸¢ à¸Ńà¸¢à¸²à¸ģà¹Ħà¸Ķ
à¸ĩà¸Ħà¸§à¸²à¸¡ à¹Ģà¸Ľ
à¹ģà¸® à¸°
à¹Ģà¸Ħà¸¢ à¸¥
à¸Ńà¸Ńà¸ģ à¹ģà¸¥
à¹ģà¸Ń à¸Łà¸£
à¸Ĳà¸ļà¸²à¸¥ à¸Ĺ
à¹Ģà¸Ńà¸²à¸¡ à¸²à¸Ĺ
à¸ĵ à¸«à¸į
Ġà¹Ħà¸Ľ à¸Ń
à¸ŀ à¸Ńà¸Ļ
à¸ļ à¹Ĥà¸Ķà¸¢
à¸Ľà¸£ à¸²à¸¡
à¸ģà¸© à¸²à¹Ħà¸Ķ
Ġà¹Ģà¸£ à¸²à¸ĸ
à¹Ģ à¸Ļà¸Ĺ
à¸Ńà¸ĩ à¸Ļà¸°à¸Ħà¸°
Ġà¹Ģà¸£ à¸²à¸Ĭ
$ $
à¸ĩà¸Īà¸° à¸ĸ
Ġg am
à¸Ħà¸¥à¸²à¸ª à¸ª
à¸²à¸Ļ à¸Īà¸²à¸ģ
l ing
à¹ģà¸ļà¸ļ à¹Ģà¸ķ
à¹ģà¸® à¸Ľà¸Ľ
à¸Ńà¸ĩ à¹Ģà¸ļ
à¸²à¸¡ à¹Ħà¸Ľ
à¸²à¸¡ à¸²à¸«à¸²à¸ģ
ann el
à¸Īà¸° à¹ĥà¸ª
à¸§à¸Ļ à¹Ģà¸ŀ
à¸«à¸¥à¸²à¸¢ à¸Ĭ
7 1
n okia
à¸²à¸£ à¸²à¸ģ
à¸« à¸²à¸ķ
à¸°à¸Ĺ à¸°
à¸łà¸²à¸Ħ à¸ķ
à¸Īà¸ģà¸£à¸£à¸¡ à¸Ĺ
à¹Ĥ à¸Ļà¸°
à¸Ķ à¸Ľà¸£
à¸ľà¸¥ à¸ª
à¸Ł à¸²à¸£
à¸²à¸¥ à¸ĩà¹Ħà¸Ľ
à¸ŀ à¹Ģà¸ģà¸£
à¸²à¸ĩ à¹ģà¸Ħ
à¸ģ à¸Ńà¸Ķ
ec e
à¸Ľà¸²à¸ģ à¸ģ
à¹ģà¸¥à¸° à¸Ľ
à¸²à¸Ľ à¸²à¸ĩ
ch ange
à¹Ģà¸Ħà¸¢ à¹Ģà¸ģ
à¸²à¹Ģà¸£ à¸²à¸Ķ
à¸§ à¹ģà¸ŀ
à¸Ħà¸§à¸£ à¹ĥà¸Ĭ
à¹Ģà¸ĸà¸Ńà¸° à¸Ħ
Ġex cel
Ġa mer
à¸Ħà¸§à¸²à¸¡ à¸ŀà¸¢à¸²à¸¢à¸²à¸¡
à¸§à¸¡à¸ĩà¸²à¸Ļ à¸ģ
à¸§à¸¢ à¹Ģà¸ª
à¸ģà¸ķ à¸Ńà¸Ļ
à¸Ń à¸²à¸Ļ
à¸« à¸²à¸¡
Ġvi ew
à¸ĵ à¹Ģà¸Ķà¸Ĭà¸Ļ
à¸Ńà¸Ļ à¹Ģà¸¥à¸¢à¸§
à¸Ķ à¹Ģà¸¥à¸¢à¸Ħ
us tr
à¸Ńà¸²à¸«à¸²à¸£ à¸Ħà¸²à¸§
à¹ģà¸ļà¸ļ à¸£
à¸¨à¸²à¸¥ à¸£
à¸Īà¸° à¹ģà¸ķ
à¹Ģà¸ª à¸ŀ
à¸Ńà¸Ńà¸ģ à¹Ģà¸ª
à¸²à¹Ģà¸£ à¸²à¸Ļ
Ġ< <
Ġà¹Ĥà¸Ķà¸¢ à¸ģà¸²à¸£
à¸§à¸¢ à¹Ģà¸Ĥ
à¸ģ à¸Ńà¸ĩ
à¸Īà¸° à¸ŀà¸¢à¸²à¸¢à¸²à¸¡
à¸²à¸Ĺ à¸²à¸Ļ
f er
â ľ
à¸Ķ à¸ĺ
à¸ĩà¹Ĩ à¹Ĩ
Ġà¸¥ à¸²à¸ģ
à¸§à¹Ģà¸Ńà¸ĩ à¹ģà¸¥
Ġbrow n
à¸²à¸Ĭ à¸Ńà¸²à¸ĵà¸²à¸Ī
à¸ĩ à¹ĥà¸Ķ
à¸¢à¸Ńà¸Ķ à¹Ģà¸ĩ
à¸ļ à¸Ńà¸²à¸¢
à¸ĩà¸ª à¸£à¸£à¸Ħ
à¹ĥà¸Ħà¸£ à¸ļ
à¸ģà¸²à¸£ à¸Ľà¸ģà¸Ħà¸£
à¸ļà¸²à¸ĩ à¹Ģà¸£
à¸²à¹Ģà¸Ĥ à¸ķ
an y
à¸ļ à¸®
à¸¢à¸Ķ à¸²à¸¢à¸Ĺ
à¹ģà¸ļà¸ļ à¸ŀ
à¸ĩ à¹ģà¸¢
am aha
à¹Ħà¸«à¸Ļ à¸£
à¸¢à¸§ à¸«
Ġ à¹ĥà¸ķ
à¸ĩà¸Ħ à¸¥à¸Ńà¸Ķ
à¸Ń à¸²
à¸Ńà¹Ģà¸ªà¸Ļà¸Ń à¹ģà¸Ļà¸°
à¸²à¸§ à¹Ħà¸§
à¹Ħà¸Ľ à¹ģà¸Ī
à¹Ģà¸Ĥ à¸²à¸Ĭà¸Ńà¸ļ
à¸§à¹Ģà¸Ńà¸ĩ à¸ķ
à¹Ģà¸ĺ à¸Ńà¸¡à¸²à¸ģ
à¸Ļà¸ª à¸Ńà¸ĩà¸Ħà¸Ļ
à¸«à¸¡à¸Ķ à¸Ħ
Ġm ess
à¸ĩà¸Ĥ à¸¥à¸²
Ġi f
55555555 55555555
Ġmac book
à¸ģ à¸ı
à¸Ī à¸ļà¸ģ
Ġà¸£à¸²à¸¢ à¸Ĭ
à¸Ļà¸ª à¸§à¸¢
à¹ģà¸ģ à¸Ļà¸Ļ
à¸¢à¸Ļà¹ģà¸¥ à¸ģà¹Ģà¸Ľà¸¥
à¸ļà¸£ à¸Ńà¸ĩà¸§
Ġà¸«à¸¡ à¸Ń
à¸¡à¸²à¸ģ à¹Ģà¸Ĺ
à¸Ļà¸ª à¸Ńà¸ĩ
à¸ļà¸Ńà¸ģ à¸Ļ
à¸¢à¸§ à¹Ģà¸Ľ
Ġsupp ort
<< <<
Ġà¹ģ à¸Ńà¸ŀ
à¸§ à¸Ĥà¸Ńà¸ĩà¸ķ
Ġà¸Ħ à¸Ńà¸Ļ
Ġ255 3
à¸§à¸ĩ à¸£
Ġw i
à¸ļà¹Ħà¸Ľ à¹Ģà¸Ľ
à¸Ńà¸Ļ à¹ģà¸Ń
Ġà¸Ĥà¸Ń à¸Ħà¸§à¸²à¸¡à¸ģà¸£
à¸Ķ à¸Ńà¸Ńà¸ģà¸¡à¸²
Ġf it
à¹Ĩ à¸ķ
Ġà¸ķà¸Ńà¸Ļ à¹Ģà¸¢
à¸ģ à¹ģà¸Ľ
à¸°à¹Ģà¸¢ à¸²
à¹ĥà¸Ī à¸ª
à¸§à¸£ à¸Ńà¸¢
à¹Ģà¸Ħà¸¢ à¹ĥà¸«
Ġà¸ķà¸²à¸¡ à¸Ķ
à¸ŀ à¸²à¸ª
Ġac count
à¸ģà¸²à¸£à¸ª à¸Ńà¸Ļà¸¥
à¹ģ à¸ī
s on
à¸Ļ à¸Ńà¸ĩà¸Ħ
à¸Ļ à¸Ľà¸£à¸°à¹Ģà¸Ĺà¸¨
Ġst udio
à¸¡ à¸ĩ
à¸²à¸¡ à¸²à¸ĭ
Ġà¹ĥà¸Ļ à¸Ľà¸£à¸°à¹Ģà¸Ĺà¸¨à¹Ħà¸Ĺà¸¢
Ġh p
Ġa ss
Ġà¸Ħà¸§à¸²à¸¡ à¹Ģà¸«
à¸²à¸ª à¸ĸà¸²à¸Ļ
à¸¢à¸Ļ à¸Ńà¸Ļ
à¸²à¸ľ à¸²à¸ģ
à¸Ńà¸¢ à¹Ģà¸ŀ
à¹Ĥà¸Ĺà¸£ à¸¡à¸²à¸«
Ġà¸ļà¸¥ à¸²à¹Ĩ
à¸ļà¸ģà¸²à¸£ à¸ª
à¸° à¹Ħà¸Ķ
à¸²à¸Ļà¸¡à¸² à¹Ħà¸Ķ
à¸Ńà¸Ļà¹Ĩ à¸Ĭà¸²à¸§à¸ŀ
à¸¢à¸Ļ à¸ģà¸²à¸£à¸ª
à¹ĥà¸ļ à¹ģà¸Ī
Ġà¸ľ à¸ªà¸¡
Ġpl an
à¸Ń à¹Ĥà¸ķ
e le
à¸¢à¸Ńà¸Ķ à¸Ħ
1 99
Ġh ak
à¸Ńà¸ĩ à¸¢à¸Ńà¸¡
à¸ļà¸ļ à¸£à¸£
ip p
à¹Ģà¸ĭ à¸ķ
à¸Ń à¹Ģà¸Ĺà¸¨
Ġà¸ŀ à¸ļ
à¹Ħà¸«à¸Ļ à¹ģà¸¥
Ġm oney
p oint
u a
à¸Ńà¸ĩà¸Ĥà¸Ńà¹Ĥà¸Ĺà¸© à¸Ķ
à¸§à¸¢ à¸ģà¸¥
en o
iv al
g ram
à¸Ļ à¹ĥà¸ķ
Ġà¸£ à¸Ńà¸ĩ
Ġà¹Ģà¸£à¸² à¹Ģà¸ª
à¸Ļà¹Ģà¸ª à¸¡à¸Ń
n ing
Ġ à¸ĩà¸ļà¸Ľà¸£à¸°à¸¡à¸²à¸ĵ
à¸Ļà¸ļ à¸²à¸ĩ
à¸Ńà¸Ń à¹Ĥà¸ķ
à¸Ļ à¹Ģà¸Ĺà¸ŀ
à¸²à¸Ķ à¹ĥà¸«à¸į
Ġà¸Īà¸²à¸ģ à¹Ģà¸Ķ
à¸Ńà¸Ļ à¸²à¸¡
à¸ķà¸²à¸¡ à¸Ī
à¸¢à¸¡ à¹Ħà¸§
Ġf ore
Ġg hz
à¸Ļ à¸Ńà¸Ļà¸Ĺ
à¸£à¸²à¸Ħ à¸²à¸Ľà¸£à¸°à¸¡à¸²à¸ĵ
à¸£ à¸Ķà¸ģ
Ġ à¸ĺà¸Ļ
à¸ĭ à¸²à¸Ļ
à¸ĸ à¸¥
à¸²à¸Ļ à¸Ĥà¸§
p m
à¸Ńà¹Ħà¸Ľ à¹Ħà¸Ķ
ent al
à¸Ń à¹ģà¸ŀ
. ",
Ġ100 00
à¸§à¸Ļ à¸Ħà¸£
Ġà¹ĥà¸Ļ à¸£à¸°à¸«à¸§
Ġà¸Ħà¸Ļ à¸¡
Ġà¸ļà¸Ńà¸ģ à¸ģ
à¸£à¸²à¸¢ à¸§
à¸Ĺà¸ĺ à¸£
à¸ļà¹Ħà¸Ľ à¸ª
à¸ĩà¸²à¸Ļ à¸¡
à¸ĩ à¹Ģà¸Ĥà¸²à¸ģ
à¸Ļ à¹Ħà¸ģà¸¥
à¸« à¸§à¸ĩ
à¸ªà¹Ģà¸Ľ à¸Ļ
à¸²à¸Ļà¸§à¸Ļ à¸«à¸Ļ
à¸ģ à¹ģà¸ĸà¸§
à¹ģ à¸«à¸Ļ
Ġà¸ª à¹Ģà¸ķ
à¸ģ à¹ģà¸£à¸ģ
à¸Ńà¸°à¹Ħà¸£ à¹ģà¸Ļà¸°à¸Ļ
à¸ģ à¸«à¸į
à¸¡ à¸Ļà¸°
à¸¢à¸Ńà¸Ķ à¸Ĺ
à¸Ńà¸ĩà¸£à¸²à¸§ à¸Ĥà¸Ńà¸ĩ
à¸²à¸Ĥ à¸§
Ġà¹Ģà¸¥ à¸¢à¸§
à¸Ļà¸Ńà¸ģ à¸ļ
5555 555
à¸ĵ à¹Ģà¸ŀ
Ġà¹ĥà¸Ļ à¸«à¸Ļ
n d
.. "
à¸¥ à¸²à¸¡
Ġt ur
aph ic
Ġm ango
à¸Ļà¹Ģà¸£ à¸²à¸ķ
à¸²à¸ŀ à¸¥à¸²à¸Ķ
à¹Ģà¸Ńà¸²à¹ĥà¸Ī à¹ĥà¸ª
9 4
à¸ĩà¸ª à¸ļà¸²à¸¢
à¸Ļà¸Īà¸° à¸Ħ
à¸ªà¸¡ à¸«à¸§
à¸¢ à¸Ļà¸°à¸Ħà¸°
à¸²à¸į à¸Īà¸Ļ
Ġà¹ģà¸Ńà¸ļ à¸£
Ġdis k
à¸Ļà¹ģ à¸ª
à¸²à¸¢ à¸ķà¸£à¸ĩà¸Ĥ
à¹Ģà¸ŀà¸£à¸²à¸° à¸Ļ
Ġe ss
à¸ģà¸© à¸²à¸Ĥ
à¸Ĭà¸²à¸§ à¸Ń
Ġk g
à¸¢à¸Ļ à¹ĥà¸Ī
Ġ Ì
Ġà¹ģà¸Ĺ à¸ļà¹Ħà¸¡
à¸¨ à¸¡
l ink
Ġm icrosoft
à¸²à¸Ľà¸£à¸° à¸«à¸¢
Ġà¹Ģà¸Ł à¸Ńà¸£
à¸£ à¸Ńà¸ĩ
255 8
à¸į à¸Ļ
Ġà¸Īà¸° à¸ªà¸²à¸¡à¸²à¸£à¸ĸ
à¹Ģà¸Ł à¸¥
à¸¹à¹ī )
à¸ģà¸© à¸²à¸Īà¸²à¸ģ
à¸ģà¸ª à¸Ĺà¸Ĭ
à¸įà¸«à¸² à¹ģà¸ļà¸ļà¸Ļ
à¹Ģà¸¥ à¸§à¸£
ĠĠĠĠĠĠĠĠ ĠĠĠĠ
à¸Ńà¸¡ à¸Ńà¸¢
Ġà¸¥ à¸Ńà¸ĩà¸Ħ
à¸Ńà¸ĩ à¹Ħà¸Ľà¸Ķ
à¸Ńà¸Ļ à¸Ħà¸°
Ġt est
ire less
à¸§à¸Ļ à¹Ħà¸Ľ
Ġà¹Ģà¸£ à¸²à¸ĸà¸²à¸¡
à¸²à¸ĩ à¹Ģà¸Ļ
Ġà¸Ħà¸Ļ à¹Ħà¸¡
à¸ģà¹Ģà¸ķ à¸°à¸Ĺ
à¸ģ à¸²à¸¡
à¸© à¸İ
à¸Ńà¸¢ à¸«à¸£
à¹ģà¸ŀà¸¥ à¸Ļà¸Īà¸°
à¸¢ à¸ģà¸²à¸£
à¸į à¸Ń
Ġsch ool
à¸ģ à¸£à¸²à¸ļ
Ġf in
à¸Ļà¸²à¸¢ à¸ª
à¸²à¸Ľà¸£à¸°à¸Ĭ à¸²à¸Ĭ
à¸Ńà¸Ħà¸§à¸²à¸¡à¸ª à¸°à¸Ķà¸§à¸ģ
Ġâ ĸ
à¸ŀà¸¢ à¸ŀ
à¸Ļ à¸«à¸£à¸Ń
à¸ĩà¸ļ à¹Ħà¸¡
à¹Ī -
à¸Ħ à¸ĩà¸¡
à¹Ģà¸¥à¸¢ à¸ªà¸ĩà¸ª
à¹Ģà¸ĺ à¸Ńà¸Ķ
Ġà¹Ģà¸Ĺ à¸ŀ
Ġà¸ª à¸²à¸¢à¸ķ
à¸²à¸Ļ à¸Ńà¸ĩ
Ġtr ain
Ġà¸Ńà¸Ńà¸ģ à¸Ńà¸²à¸ģà¸²à¸¨
à¸¢à¸Ķ à¸Ń
à¸²à¸Ļà¸§ à¸Ļà¸Ĺ
à¹Ĩ à¹Ħà¸Ľ
à¸¢à¸Ķ à¸Ļ
à¸ģ à¹ģà¸Ľà¸¥à¸ģà¹Ĩ
à¸Ńà¸¥ à¹Ģà¸ĭ
à¹Į .
" )
à¹ģà¸¥ à¸Ķ
à¸Ĭà¸Ńà¸ļ à¸£
c re
Ġà¸ŀà¸Ń à¸Ĥ
Ġ à¸¿
à¸¢ à¸²à¸ļà¸²à¸¥
à¸Ńà¸¢ à¹Ģà¸Ķ
Ġ2 80
à¸²à¸¡ à¸ŀ
âĺ ħ
à¸¥à¸°à¸Ħà¸£ à¸Ĺ
à¸¡ à¸Ńà¸¥à¸¥
im g
à¸ļ à¹Ģà¸«à¸¥
à¸§à¸Ļ à¹Ģà¸Ľ
à¸Ļà¸Ĥà¸Ńà¸ĩ à¹Ģà¸£à¸²
à¸²à¸«à¸¥à¸²à¸¢ à¸§
à¹Ģà¸Ħ à¸²à¸°
Ġa maz
à¹Ĥà¸Ľà¸£à¹ģà¸ģà¸£ à¸¡à¸Ĺ
c ord
à¸£à¸°à¸¢à¸° à¸ª
à¸²à¸ĩ à¹Ģà¸ĩ
à¸¢à¸Ńà¸Ķ à¸Ļ
à¸ĩà¹ĥà¸Ļ à¸§
Ġse x
Ġhe art
à¸¢à¸ĩ à¹Ģà¸ŀ
à¹Ģà¸Ńà¸ģà¸ªà¸²à¸£ à¸Ĺ
à¸ªà¸Ńà¸ļà¸ĸà¸²à¸¡ à¹Ħà¸Ķ
Ġ- *-
un es
Ġp op
à¸¡à¸² à¹ĥà¸ª
à¸Ĳà¸²à¸Ļ à¸°à¸Ĺ
à¸ŀà¸£à¸°à¸£à¸²à¸Ĭ à¸§
à¹Ĩ à¸Ń
à¸¡ à¸Ħà¸Ļ
à¸Ļà¸Ĺ à¸Ńà¸ĩ
ag uch
à¸²à¹Ģà¸Ħ à¸¥
Ġx l
à¸Ļ à¸Ħà¸§à¸²à¸¡à¸Ħ
à¸Ļà¸Ĺ à¸Ļà¸²
à¸Ļà¸Ĺà¸²à¸ĩ à¸Ļ
à¸Ńà¸Ħ à¹Ĥà¸ģ
at ed
à¸Ķà¸Ńà¸°à¹Ħà¸£ à¹Ħà¸¡
à¸Ļà¸Īà¸²à¸ģ à¸Ĺ
à¸ŀ à¸²à¸Ĺ
Ġà¹ģà¸ķ à¸ģà¸ķ
áħ ²
à¸²à¸ķ à¸Ńà¸Ļà¸Ĺ
à¸²à¹Ħà¸Ľ à¸¡
à¹Ħà¸« à¸§à¸ģ
à¸Ńà¸¢à¹Ĩ à¸Ħ
à¸Ńà¸ļ à¹ĥà¸«
à¸²à¸ĩà¹Ħà¸£ à¸ķ
Ġà¸Ħ à¸ĩà¸Īà¸°
à¹Ħà¸Ĺà¸¢ à¸¡
à¸²à¹Ģà¸£ à¸²à¸Ńà¸¢
à¸Ī à¸ŀà¸£à¸°à¸£à¸²à¸Ĭ
à¸¡ à¸Ńà¸²à¸«à¸²à¸£
Ġp m
Ġ12 8
à¹Ģà¹Ģà¸£ à¸ģ
Ġà¸ª à¸ł
à¸Ĭà¸Ńà¸ļ à¹Ģà¸¥
à¸Ļà¸Ĺà¸Ļ à¸Ļà¸Ĺ
à¸įà¸« à¸²à¸¢
à¹Ĥà¸¥ à¸§
à¸²à¸£à¸²à¸¢ à¸ģà¸²à¸£
à¸Ńà¸Ļ à¸¥à¸ĩ
Ġà¹Ĥà¸Ķà¸¢ à¸ľ
à¸ģ à¹Ģà¸«à¸Ļ
à¹Ģà¸¥à¸¢ à¹Ģà¸¥
à¸¡ à¸Ļà¸°à¸Ħà¸°
Ġà¹ĥà¸Ļ à¸¡
à¸²à¸«à¸Ļà¸Ķ à¸§
à¸§ à¸Ľà¸ģà¸ķ
Ġà¹Ģà¸Ħ à¸¢à¸Ħ
à¸Ķ à¸ł
Ġà¹Ģà¸ģ à¸£à¸Ķ
Ġ à¸²
à¸ļ à¸£à¸²à¸ĵ
à¸ģà¸ĩà¸²à¸Ļ à¸ķ
à¸²à¸ĩ à¹Ħà¸«à¸¡à¸Ħ
à¸¡à¸Ľ à¸²à¸ģ
à¸Ńà¸Ļ à¹ĥà¸Ļà¸«
Ġà¸ªà¸²à¸Ĥ à¸²à¹Ģà¸Ĭ
à¸Ńà¸ķ à¸¥à¸Ńà¸Ķ
à¸Ļà¸¢ à¸Ńà¸¡
à¸Ń à¹ĥà¸«à¸į
à¸ĩà¸ª à¸²à¸¢
à¸ģà¸ĩà¸²à¸Ļ à¹ĥà¸«à¸į
Ġà¸«à¸²à¸ģ à¸Ħ
Ġà¸Ĺ à¸²à¸Ļ
c a
à¸Ńà¸¢à¸²à¸ģ à¸ª
à¸ķà¸Ńà¸ļ à¸Ĺ
à¸Ńà¸ŀ à¸²à¸£
Ġm i
Ġà¹Ģà¸ŀà¸¥à¸ĩ à¸Ļ
à¸¡ à¸Īà¸£
à¸Ļ à¸²à¸ĩà¸ģ
à¸Ļà¹Ģà¸ŀ à¸Ī
à¹Ģà¸¥à¸¢ à¹Ģà¸Ľ
à¸ļà¸£ à¸£à¸ĵ
à¸Ļà¸ģà¸²à¸£ à¹ĥà¸Ĭ
à¹Ģà¸Ń à¸Ĭ
255 9
Ġà¹ĥà¸Ļ à¸Ī
l a
à¹Ģà¸ŀà¸£à¸²à¸° à¸ŀ
à¸¥ à¸Ħà¸£
t te
Ġà¸ľà¸¡ à¸ĭ
à¸Ļà¸¡ à¸°à¸ŀà¸£
à¸ªà¸Ķ à¹Ĩ
à¸ªà¸²à¸¡ à¸ª
à¸Ńà¸ĩà¹Ħà¸Ľ à¹Ģà¸£
à¹Ģà¸Ĥà¸² à¹Ģà¸Ĥ
ad y
Ġà¸ŀà¸§à¸ģ à¸Ĺ
à¸Ļà¸Ĥà¸Ńà¸ĩ à¸ľ
à¸Ńà¸Ķ à¸Ļ
à¸ģ à¹Ģà¸Ńà¸ĩ
à¸¢à¹ĥà¸Ī à¸Ĺ
à¸¡ à¸Ħà¸¥
à¸ģà¸§ à¸Ķà¸§
à¸Ľ à¹Ĥà¸Ľ
à¸¢à¸ĩ à¸ļ
Ġp le
à¸Ńà¸ĩà¸¡ à¸²à¸Ķ
à¸Ĥ à¸Ļ
à¸ģà¸²à¸£ à¸ªà¸¡
à¸¥à¸Ķ à¸£à¸²à¸Ħ
à¸Ńà¸Ļ à¸²à¸Ļ
à¸ļ à¸°
à¸«à¸¡ à¸²
à¹Ĥà¸Ĺà¸£ à¸ª
à¹Ħ à¸ģà¸Ķ
à¸į à¸Ńà¸¢
à¹ģà¸¥à¸° à¸«
à¸§à¹Ģà¸Ńà¸ĩ à¸ļ
s ms
à¸ĩ à¸ĸà¸²à¸¡
à¹ĥà¸Ħà¸£ à¸Ń
à¹ĥà¸Ļ à¸£à¸ĸ
à¸łà¸²à¸ŀ à¸ģ
à¸Ļà¸£ à¸²à¸¢à¹Ģà¸Ķ
à¹Ĥà¸¡ à¸Ĺ
à¸²à¹ĥà¸Ļ à¸ķ
.... "
à¸Ļà¹ģà¸ļà¸ļ à¹Ħà¸¡
à¹Ĥà¸¡à¸ĩ à¹Ģà¸Ĭ
à¸ķà¸Ń à¸²à¸ªà¸²
Ġm ed
à¸²à¸§ à¸Ī
à¸Ļà¸ª à¸ģ
à¸²à¸£à¸° à¸«à¸Ļ
à¸Ļà¹ģà¸ļà¸ļ à¸Ĺ
à¸Īà¸° à¸«à¸¡à¸Ķ
à¸Ńà¸ģ à¸Ńà¸¢
à¸Ļà¹Ģà¸ŀà¸£à¸²à¸° à¸§
à¸²à¸¡ à¸²à¸¡
à¸ĩ à¹Ģà¸¢
à¸Ħ à¸ŀ
à¸Ń à¹ģà¸ľ
à¸ļ à¸ĩ
Ġw ay
à¸Ńà¸Ļà¸¡ à¸ģà¸£à¸²à¸Ħà¸¡
à¸²à¹ģ à¸ļà¸£à¸Ļà¸Ķ
à¹Ģà¸Ńà¸² à¹Ģà¸Ħà¸£
Ġ order
à¸¡ à¸¡à¸²à¸ģà¸Ĥ
p ool
à¸§à¸¡ à¸ķ
Ġà¹Ģà¸Ĺ à¸Ħà¸Ļ
à¸² à¹Ģà¸¥à¸¢à¸Ħà¸£
à¸ģà¸¥à¸²à¸ĩ à¹Ģà¸Ķ
à¸¡ à¹Ħà¸«à¸Ļ
à¸ĩà¸ľà¸¥ à¸ģà¸£à¸°à¸Ĺ
à¸£à¸²à¸¢à¸ģà¸²à¸£ à¸§
## #
à¸ģ à¹ĥà¸ļ
à¸¢à¸ª à¸¥à¸°
c ar
Ġà¹ĥà¸Ħà¸£ à¸Ĺà¸£à¸²à¸ļ
à¸Ńà¸²à¸ģà¸²à¸£ à¹ģà¸ļà¸ļà¸Ļ
Ġbook ing
à¸Ħ à¸ĩà¸Ĺ
à¸Ļà¹Ģà¸ģ à¸²à¸°
Ġf ire
2 14
Ġà¸Ńà¸¢à¸²à¸ģ à¹Ģà¸Ľ
à¸¥ à¸«à¸Ļ
à¹Ģà¸Īà¸Ń à¹Ģà¸¥à¸¢
Ġg re
Ġà¸Ī à¸Ļà¹Ħà¸¡
à¸Ńà¸¢ à¹Ģà¸«à¸¡
à¸Ķà¸Ķ à¸Ķ
à¸Ńà¸ĩ à¹Ģà¸Īà¸Ń
à¸ķà¸Ńà¸Ļ à¹Ħà¸«à¸Ļ
à¸ªà¸Ńà¸ļ à¸Ĺ
d f
à¸ĵ à¸²à¸Ńà¸¢
à¹Ģà¸§à¸¥à¸² à¹Ģà¸¥
à¸ĩà¸Ń à¸²à¸ģà¸²à¸£
à¸ĩà¹Ħà¸Ľ à¸¢
Ġv ideo
Ġà¹Ĥà¸Ķà¸¢ à¸Ń
à¸Ļà¸Ĥà¸Ńà¸ĩ à¸Ļ
........ ...
à¸Ń à¸Ħà¸Ļà¸Ń
Ġf ile
or i
Ġl in
t i
à¸° à¹Ģà¸Ķ
à¸ĭà¸° à¸Ķ
à¸¥à¸ĩ à¸Ĭ
à¸²à¸Ńà¸²à¸Ī à¸Īà¸°à¸¡
Ġà¹ģà¸Łà¸Ļ à¹Ģà¸£à¸²à¸ģ
à¸Ńà¸Ķ à¸Ńà¸¥
Ġdis ney
Ġà¹Ģà¸Ń à¸²à¹ģà¸ķ
à¸¢à¸§ à¸«à¸Ļ
Ġd on
g adget
Ġg mm
à¸£à¸²à¸ ĺ
à¸£à¸°à¸ļ à¸§à¸Ļ
à¸ŀà¸²à¸ģ à¸¢
b an
à¸¬ à¸²à¸Ĺ
Ġà¸Ħ à¸ĩà¹Ģà¸Ľ
à¸§à¹Ģà¸Ńà¸ĩ à¹ģà¸¥à¸°
Ġà¸ªà¸²à¸Ĥ à¸²à¸ª
Ġperf ect
à¸£ à¸Ńà¸ģ
à¸łà¸²à¸¢à¹ĥà¸Ļ à¸§
à¸Ńà¸¢à¸ģ à¹Ģà¸¥
à¸ļ à¸ĺ
âĺ Ĩ
à¸² à¹Ģà¸Ĺà¸ŀ
à¸ģà¸§ à¸Ńà¸¥à¹Ģà¸¥à¸¢
in st
à¹Ĥà¸£à¸ĩ à¸«à¸Ļ
Ġad d
à¸ļà¸Ļ à¸ŀ
à¸Ķ à¹ģà¸Ī
à¸ĵ à¸ĵ
à¸²à¸¢ à¸ĩà¸²à¸Ļ
Ġt s
à¸ĩ à¸£à¸²à¸¢à¸¥à¸°à¹Ģà¸Ń
as us
à¸¢à¸§ à¸Ľ
à¹Ģà¸§à¸¥ à¸²à¹Ģà¸Ľ
à¸ķà¸ģ à¸«à¸¥
à¸§ à¸ŀà¸§à¸ģ
à¸Ļà¹Ģà¸£ à¸²à¸Ħ
à¸Ľà¸£ à¸²à¸£à¸ĸ
à¹Ĥà¸Ħà¸£à¸ĩà¸ģà¸²à¸£ à¸Ļ
Ġà¹Ģà¸ª à¸Ļ
à¸¢à¸ĩ à¸¢
Ġà¸ľà¸¡ à¸Ĥ
eto oth
Ġà¹Ĥ à¸Ĩà¸©à¸ĵ
à¸Ļà¸Ĺà¸²à¸ĩ à¹Ģà¸Ĥ
à¸²à¸ķ à¸Ńà¸ļà¸Ħà¸£
à¸Īà¸²à¸ģ à¸«
à¸ļà¸¡à¸²à¸Ħ à¸ļà¸ģ
à¹Į ...
à¸¡à¸²à¸ķ à¸²à¸¡
ĠĠĠĠĠĠĠĠ ĠĠĠĠĠĠ
à¸¨ à¸§à¸£à¸£à¸©
z uki
es h
à¸ª à¸Ńà¸ĩà¸ķ
à¸£ à¸ĵà¸°
Ġtax i
à¹Ģà¸¥à¸¢ à¸Ńà¸¢à¸²à¸ģà¸£
Ġà¸¥ à¸²à¸Ķ
Ġus er
Ġà¸«à¸²à¸ģ à¸Ĺ
à¸¡ à¸ªà¸£
à¸ľà¸¡ à¸Ħà¸§à¸£
à¸ķà¸Ńà¸Ļ à¸¡
à¸ĩà¸ĩà¸²à¸Ļ à¸Ĺ
à¸Ńà¸ļ à¹Ģà¸Ķ
Ġà¹Ģà¸ŀà¸£à¸²à¸° à¹Ģà¸£à¸²à¸ģ
Ġà¸Ħà¸Ļ à¸«à¸Ļ
à¹Ģà¸ŀà¸£à¸²à¸° à¸ĸ
à¸ı à¸Ĳ
à¸Ńà¸¡ à¸²à¸Ń
à¸Ńà¸Ńà¸ģ à¸ª
Ã ©
Ġo z
Ġà¹ĥà¸Ħà¸£ à¹Ģà¸Ħà¸¢
à¸Ľà¸£à¸° à¸Ħ
à¸Ńà¸«à¸¡ à¸Ńà¸ļ
à¸¥ à¸ĩà¸ģ
à¸ļà¸²à¸ĩ à¸§
Ġà¹Ģà¸Ī à¸¡à¸ª
à¸ªà¸Ļ à¹Ģà¸Ĺà¸¨
à¸§à¸Ļ à¸Ńà¸¢
Ġf amily
à¸ļà¸Ńà¸ģ à¹Ħà¸§
Ġà¹Ĥà¸Ķà¸¢ à¹Ģà¸£
Ġh el
à¸ģà¸Ķ à¸Ľ
à¸Ļà¹Ģà¸£ à¸²à¸£
Ġà¸Ĺà¸²à¸ĩ à¸Ķ
à¸²à¸§ à¹Ģà¸Ĥ
Ġst and
à¹Ĥ à¸ģà¸Ķ
à¸¢à¸ļ à¹Ħà¸Ľ
à¸° à¸ĭ
à¸£à¸°à¸¢à¸° à¹Ģà¸§à¸¥à¸²à¸Ĺ
à¸Īà¸į à¸ł
Ġà¸Ħà¸§à¸£ à¹Ģà¸¥
à¸Ľà¸£à¸°à¸ģà¸Ńà¸ļ à¸ģ
à¸ĩ à¹ģà¸Ļà¸§
ter y
à¸µà¹ī ..
r ay
à¸Ńà¸ĩà¸Īà¸²à¸ģ à¸Ĺ
à¸ļà¸ľà¸¡ à¸§
Ġl and
à¸Ļ à¸ĩà¸²à¸Ļà¸Ĺ
à¸Ļà¸ª à¸²à¸£
à¸ģ à¸®
à¸Ĥà¸Ń à¸Ĭ
à¸Ńà¸ĩà¸ª à¸ĩà¸ª
à¸¨à¸²à¸¥ à¸²à¸Ħà¸Ļà¹Ĥà¸ªà¸Ķ
Ġlog in
à¸Ĭà¸²à¸§ à¹Ħà¸Ĺà¸¢
Ġd i
Ġà¹Ģà¸¢ à¸Ńà¸£
à¸Ńà¸ĩ à¹ģà¸Ĺ
à¸²à¸Ļ à¹ĥà¸Ķà¸Ĺ
à¸Ńà¸ģ à¸ģà¸¥
Ġà¸Ľà¸£ à¸²à¸ģà¸ı
o om
à¸Ļà¸¡ à¸²à¸ŀ
à¸²à¸ĩà¸²à¸Ļ à¸Ħ
Ġ200 8
à¸Ńà¸ĩ à¸Ħà¸§à¸²à¸¡
à¸§à¸¡ à¸Ĭ
ux e
à¸į à¹Ħà¸Ķ
à¸Ļà¸Ĺà¸£ à¸²
âĢ ¬
à¸Ńà¸« à¸²à¸Ĺ
à¹ģà¸ļà¸ļ à¸ļ
à¸Ĭà¸Ńà¸ļ à¹Ģà¸Ħ
Ġà¸ģ à¸²à¹ģà¸Ł
à¸Ń à¸ŀà¸Ń
à¸²à¸ĩ à¸¨
Ġà¸ŀà¸Ńà¹Ħà¸Ľ à¸ĸ
Ġà¸Ĥ à¸Ńà¸¢
à¸¡à¸¡ à¸¡
à¸²à¸¢ à¹Ģà¸ŀà¸¥à¸ĩ
Ġm al
à¸ĩ à¹Ģà¸ļà¸Ńà¸£
à¸§à¸¢à¸Ļà¸°à¸Ħà¸° à¸Ĥà¸Ńà¸ļà¸Ħ
j a
Ŀ ¤
Ġc al
Ġ à¸£à¸°à¹Ģà¸ļ
à¸²à¸Ļ à¸Īà¸°à¹Ħà¸Ķ
Ġi c
Ġà¸Ĭà¸²à¸§ à¸ļ
à¸ģà¸¥ à¸²à¸ĩà¹Ĩ
à¸Ļà¸¡à¸² à¹ĥà¸Ĭ
à¸Ńà¸ĩ à¹Ģà¸ĭ
à¹Ģà¸Ń à¸²à¸ģà¸¥
à¸Īà¸° à¸ĸà¸²à¸¡
Ġphot oshop
Ġà¸Ĥà¸Ńà¸ĩ à¸Ļ
Ġ7 200
à¹Ħà¸§ à¹Ħà¸Ł
Ġc ro
à¸ģà¸²à¸£ à¹Ģà¸Ħà¸¥
à¸²à¸¡ à¹Ħà¸¡
à¸Ĥà¸Ńà¸ĩ à¹Ĥà¸¥à¸ģ
à¸ģ à¹Ģà¸ļà¸Ńà¸£
à¸²à¹Ģà¸Ĥ à¸²à¸Ĺ
à¸§à¸¥ à¸Ĭ
Ġà¹Ĥ à¸Ľ
à¸Ļà¸Ńà¸²à¸Ī à¸²à¸£à¸¢
à¸ģà¸«à¸Ļ à¸²
à¸łà¸²à¸ŀ à¸¥
Ġb ie
à¸ļà¸ģà¸²à¸£ à¸Ķ
à¸ģà¸²à¸£ à¸ķà¸ģà¹ģà¸ķ
à¸ĩ à¹ģà¸ŀ
Ġà¸ļ à¸§à¸ģ
à¸¢à¸Ķ à¸Ħ
à¸Ļà¸¡à¸² à¹Ģà¸ģ
à¸£à¸ļà¸ģà¸§à¸Ļ à¸«à¸Ļ
à¸īà¸²à¸ģ à¸Ļ
à¸£à¸£ à¸ĵ
à¸Ļ à¹Ħà¸Łà¸¥
à¸Ĺà¸²à¸ĩ à¸Ī
à¸Ń à¸Ńà¸¢à¸²à¸ģà¸Īà¸°
à¸§ à¹Ģà¸Īà¸Ńà¸£
à¸ª à¹Ĥà¸ģ
à¹ģà¸Ł à¸¥à¸Ĭ
à¸¢à¸ĩ à¹Ģà¸¥
à¸ģà¹ģà¸ªà¸Ķ à¸ĩà¸Ĺ
Ġà¹Ģà¸¨à¸£à¸©à¸Ĳ à¸ģ
Ġ255 0
à¸Īà¸²à¸ģ à¹Ģà¸§
à¸ĩ à¸į
à¸Ļà¸Ĺà¸²à¸ĩ à¹Ħà¸Ľà¸Ĺ
à¸įà¸« à¸²à¹ĥà¸«
à¹ģà¸ļà¸ļ à¸ģ
à¹Ģà¸ģà¸²à¸° à¸¥
à¸Ńà¸ĩ à¹ģà¸Ĥ
à¸Ļà¸Ķ à¸£
à¹Ģà¸Ļ à¸²à¸°
à¸ªà¸Ľ à¸Ńà¸£
th ai
à¸²à¸ĺ à¸Ļà¸²à¸Ħà¸²à¸£
Ġà¹ģà¸¥à¸° à¹Ģà¸ģ
Ġà¸¥ à¸²à¸¢
Ġ3 60
à¸«à¸¥ à¸ĩà¸£
à¸ª à¸Ńà¸ĩà¸Ĺ
à¸ļà¸ª à¸§à¸Ļ
à¸Ńà¸ľà¸¡ à¸ķ
Ġed ition
Ġf ollow
à¸ķà¸¥à¸Ńà¸Ķ à¹Ģà¸¥à¸¢
à¹Ģà¸Ńà¸²à¹Ħà¸Ľ à¹ĥà¸«
à¸ģ à¸²à¸Ĺ
à¸Ħà¸Ļ à¸Ĥà¸²à¸¢
à¸§ à¹ģà¸Ļ
à¸ĭà¸° à¸«à¸Ļ
à¸Ńà¸¡ à¸²à¸ĸ
à¸ĩà¸ģà¸¥ à¸Ńà¸Ļ
à¸ģà¸Ĥ à¸²à¸Ķ
à¸¡à¸²à¸ ¨
y l
à¸Ļ à¸ģà¸£à¸ĵ
à¸Īà¸²à¸ģ à¹Ģà¸ŀ
à¸²à¹ģ à¸Ĺà¸Ļ
à¸Ļà¹ģà¸Ļà¸§ à¸Ĺà¸²à¸ĩ
à¸Ļ à¹Ģà¸«à¸¢
à¸ģ à¸Ńà¸¥
Ġà¹Ģà¸ŀà¸£à¸²à¸° à¹Ģà¸¡
à¸ĺà¸¢à¸¡ à¸¨
Ġd ell
à¸Ĭà¸²à¸¢ à¹ģà¸Ķà¸Ļ
s ale
Ġà¸Ħà¸£ à¸ļ
à¸ļà¸ķ à¸Ńà¸Ļ
à¸Ĺà¸²à¸ĩ à¸¥
à¹ĥà¸Ħà¸£ à¸ŀà¸Ńà¸£
à¸Ńà¹Ģà¸£ à¸²à¸£
à¸ĩà¸²à¸Ļ à¸Ńà¸¢
à¸Ĩ à¸©
à¸¡à¸²à¸Ľ à¸¥
à¸²à¹Ģà¸ł à¸Ńà¹Ģà¸¡
à¹Ģà¸Ĥà¸² à¹Ģà¸¥à¸¢
à¸Ĥ à¸¡à¸²à¸ģ
Ġà¸Ĥà¸Ńà¸ĩ à¸ª
od a
> <
à¸ĩ à¸ľà¸¡à¹Ħà¸¡
à¸ģ à¹Ĥà¸Ĺà¸©
à¸ļ à¹ģà¸Ĺ
à¸¥à¸° à¸Ļ
Ġv ga
à¸Ńà¸« à¸²à¸ģ
Ġ à¸«à¸§à¸²à¸Ļ
à¸ĩ à¸¥à¸°à¸Ħà¸£
à¸²à¸ĩà¹Ĩà¸Ļ à¸²à¹Ĩ
à¹Ģà¸£à¸² à¹Ģà¸Ńà¸ĩà¸ģ
Ġà¸ģ à¸ķ
à¸Ħà¸Ļ à¹Ĥà¸ķ
à¸ļ à¹Ģà¹Ģà¸Ł
à¹Ħà¸Ľ à¸ķà¸£à¸§à¸Ī
/ \
à¸Ķ à¸¥à¸ĩà¹Ħà¸Ľ
Ġd ual
à¸ĩ à¸ļà¸Ĺ
à¸ļà¹Ħà¸Ľ à¸Ń
à¹Ħ à¸ļ
à¸ŀ à¹Ģà¸Ľ
à¸²à¸Īà¸° à¸Ľ
à¸Ľà¸£ à¸²à¸ģà¸İ
à¹Ģ à¹Ģà¸Ī
à¸¡ à¸Ńà¸£
à¸Ķ à¹Ģà¸¢à¸Ńà¸°
Ġ5 1
à¹Ģà¸ģà¸¡ à¸ļà¸Ļà¹Ĥà¸Ĺà¸£à¸¨
à¸Ńà¸Ńà¸ģ à¹Ģà¸Ľ
Ġc os
à¹Ħà¸Ĥ à¹ĥà¸«
p hot
à¸ģà¸²à¸£ à¸Ħà¸¥
Ġb ay
à¸²à¸ĩ à¸ªà¸¡
Ġà¹Ģà¸ŀà¸£à¸²à¸° à¸¥
à¸Ķà¸ª à¸£
p c
Ġà¹Ģà¸Ī à¸£
à¸Ļà¸Īà¸° à¸¢
á »
6 50
à¸ļà¹Ħà¸Ľ à¸Ńà¸¢
à¸ķà¸£ à¸ĩà¸Ī
à¸Ļà¸£à¸ĸ à¸Ĺ
à¸Ń à¸Ĺà¸£
à¸Ńà¸Ĥ à¸Ļà¸¡
Ġà¸Ĥà¸ĵà¸° à¹Ģà¸Ķ
ĠĠĠĠĠĠĠĠ ĠĠĠĠĠĠĠ
à¸Ķ à¸²à¸ļ
à¹Ħà¸Ľ à¸Ł
Ġà¸ķà¸Ńà¸Ļ à¹Ģà¸Ķ
à¸Ńà¸°à¹Ħà¸£ à¸Ńà¸¢
à¸ĭ à¸Ńà¸Ł
à¸ĩà¸ª à¸Ļà¹ĥà¸Ī
Ġà¸Īà¸²à¸ģ à¸£
à¸²à¸Ļ à¸Ļà¸°à¸Ħà¸£
à¸£à¸Ńà¸ļ à¸Ĺ
à¸ĩ à¹Ģà¸«à¸Ļ
à¸ģà¸£à¸¢à¸²à¸Ļ à¹Ģà¸ª
à¹Ħà¸Ĥ à¹Ħà¸Ķ
à¸ķà¸²à¸£ à¸²à¸ĩ
à¸Ļà¸£ à¸²à¸¢à¸ģà¸²à¸£
à¸§à¸¢ à¹Ģà¹Ģà¸Ļà¸°à¸Ļ
Ġà¹ģà¸¥à¸° à¹Ģà¸Ħ
à¸Ļ à¹Ģà¸Ńà¸²
à¸Ļà¸£ à¸²à¸ĩà¸§
à¹Ģà¸ļ à¸ª
à¹Ħ à¸§à¸Ļ
à¸Ńà¸¡ à¸Ĭ
Ġde ad
Ġ --------------------------------
à¸Ń à¸į
lo ve
à¸¡à¸« à¸²à¸Ķ
à¸¡à¸Ľ à¸Ĺà¸²à¸Ļ
à¸²à¸ģ à¸°
à¸¥à¸° à¸£
y p
à¸¥ à¹Ģà¸£
à¹Ģà¸¥à¸¢ à¸ĸ
à¸ªà¸²à¸¢ à¸ķà¸²
n ess
à¹Ĥà¸« à¸Ķ
à¸Īà¸°à¹Ħà¸Ľ à¸ģ
à¸Īà¸°à¹Ħà¸Ľ à¸ķ
à¹Ĥà¸¡ à¸ĩà¸Ħ
à¸Ńà¸²à¸Ī à¸Ĺ
à¸Ļà¸£à¸²à¸Ħ à¸²
Ġs an
à¸Ńà¸Ńà¸ģ à¹ĥà¸«
à¸Ĭà¸²à¸§ à¸Ļ
ap e
à¸²à¹Ģà¸ª à¸Ļ
à¹ģà¸ªà¸Ķ à¸ĩà¸Ĺ
à¹Ī !!
à¸ĩ à¹ģà¸ľ
à¸Ļà¸Ħà¸£ à¸¨à¸£
à¸Ħà¸Ħà¸¥ à¸ĺà¸£à¸£à¸¡à¸Ķà¸²
à¸Ļà¸Īà¸° à¸ª
à¸£à¸²à¸¡ à¸Ħ
Ġà¹Ģà¸ŀà¸£à¸²à¸° à¹ģà¸¡
à¸Ľà¸£à¸°à¸ª à¸ļà¸Ľ
Ġà¸ŀà¸Ń à¸ľ
à¸ľà¸¥ à¹Ģà¸ª
Ġà¸Ļà¸²à¸¢ à¸ª
à¸ķ à¹Ħà¸Ľ
à¹ģ à¸Ńà¸Ļà¸Ķ
Ġà¸ļà¸Ńà¸ģ à¹Ģà¸¥à¸¢à¸§
Ġà¹Ħ à¸ķ
à¸²à¸ĩ à¸¡à¸²
Ġà¸Ĺ à¸°à¹Ģà¸ļ
Ġà¸ĭ à¸Ńà¸¢
à¸ªà¸²à¸¡à¸²à¸£à¸ĸ à¸¢
à¸ĩ à¹Ĥà¸¥à¸ģ
à¸ļà¹Ħà¸Ľ à¹Ģà¸£
à¸įà¸Ĭ à¸²à¸ģà¸²à¸£
à¸Ħà¸Ļà¹Ħà¸Ĺà¸¢ à¸Ĺ
à¸¢à¸§ à¹Ģà¸¥
à¸łà¸²à¸ŀ à¸ª
à¸ĩà¸¡ à¸²à¸ķ
à¸Ł à¸ķ
Ġà¹ģà¸¥à¸° à¹ĥà¸Ļ
à¸Īà¸²à¸ģ à¸¡
à¸ĩà¹Ĩ à¸Ī
Ġre p
à¹Ĥà¸Ķ à¸Ļà¸Ĥ
à¸ĩ à¸ĺ
à¹Ħà¸Ĥ à¸Ĥ
f ace
à¸¡ à¹Ħà¸¥à¸Ļ
à¸Ħ à¹Ħà¸¡
à¹Ĥ à¸ģà¸ª
à¸Ļà¸Ľ à¸ı
à¸Ļ à¸Ľà¸£à¸°à¸ªà¸ļà¸ģà¸²à¸£à¸ĵ
à¸²à¸£à¸§à¸Ī à¸Ĺ
à¸ļà¸Ħà¸Ļ à¸£
Ġà¸£ à¸Ńà¸¢
à¸ķ à¸«à¸Ļ
9 1
à¸£à¸ļà¸ģà¸§à¸Ļ à¸Ĥà¸Ńà¸Ħ
Ġà¹Ģà¸ŀà¸£à¸²à¸° à¸Ľà¸ģà¸ķ
Ġtab let
áĦı áĦı
à¸Ń à¸«à¸¢
à¸Ħà¸§à¸²à¸¡ à¸Ĭà¸Ńà¸ļ
à¹ģà¸Ł à¸Ļà¸Ļ
à¸Ńà¸Ń à¸ĺ
à¸ķ à¸ģà¸£à¸£à¸¡
à¹Ģà¸ŀà¸£à¸²à¸° à¸¢
à¸¡à¸²à¸Ĥ à¸Ńà¸ĩ
à¸£à¸° à¹Ģà¸Ĥ
Ġà¹ģà¸ļ à¸ĩà¸Ħ
à¸Ħ à¹ĥà¸«à¸¡
à¸²à¹Ģà¸¥à¸¢ à¸Ĺ
s i
à¸§ à¹ģà¸«
à¸ª à¹ģà¸ķ
à¹ĥà¸Ħà¸£ à¹Ģà¸Ĥ
) .
à¸² à¹Ģà¸ľ
à¸Ń à¹ģà¸ļà¸ļà¸Ļ
à¹Ħà¸Ľ à¹Ģà¸¢
à¸²à¸Ńà¸°à¹Ħà¸£ à¸Ńà¸¢
à¸ľà¸¡ à¸¥
à¸Ĺà¸²à¸ĩ à¸ĺ
à¸²à¹Ĥ à¸Ī
à¸ļà¸²à¸¢ à¸§
à¸ģà¸Ħà¸Ļ à¸§
Ġst art
à¸§ à¸Ħà¸Ļà¹Ģà¸Ķ
à¸ł à¸²à¸Ħà¸£
à¸ŀà¸§à¸ģ à¹Ģà¸£à¸²
à¸Ļà¸Ĥà¸Ńà¸ĩ à¹ģà¸Ĺ
à¸Ļ à¹Ĥà¸ĭ
à¸ªà¸Ńà¸ĩ à¸§
Ġpass port
à¸Ńà¸¢ à¸ªà¸Ļà¹ĥà¸Ī
à¸ªà¸Ńà¸ļ à¸ķ
Ġ ------------------------------------------------
à¸§ à¸«à¸£à¸Ń
à¸²à¹Ħ à¸«
Ġà¹Ģà¸ĺ à¸Ńà¹Ħà¸¡
à¸¢à¸ļ à¹Ģà¸Ļ
Ġà¸ŀà¸£à¸° à¸£à¸²à¸¡
Ġm az
à¸²à¸ļà¸Ńà¸ģ à¹ĥà¸«
à¸ĵ à¸Īà¸°à¸£
à¸ª à¹Ħà¸¡
à¸²à¸Ļ à¸¨
à¸¥ à¹Ĩ
à¸²à¸¡à¸² à¹ĥà¸Ļà¸Ĭ
à¸¡ à¹Ģà¸¢
ock et
à¸Īà¸²à¸ģ à¸Ī
Ġmb ps
Ġà¹Ģà¸Ĺ à¸Ħà¹Ĥà¸Ļà¹Ĥà¸¥à¸¢
à¹ģà¸¡ à¸Ļà¸¢
à¸Ĺà¸£à¸²à¸ļ à¸Ĥ
à¹Ħà¸Ľ à¹ģà¸ķ
à¹Ģà¸¡ à¸©
Ġc ine
à¸²à¸ªà¸ķ à¸²à¸ĩà¸Ħ
Ġadv anc
Ġà¹Ģà¸Ĺ à¸¨
Ġà¸Ħà¸§à¸£ à¹ĥà¸Ĭ
à¹ģà¸£ à¸ģà¸ķ
à¸Ħà¸£ à¸ģ
à¸ĩà¸Ĥ à¸²à¸Ķ
à¸Ļà¸Ĭ à¸Ļ
à¸ĩà¹ģ à¸Ķà¸Ķ
à¹Ģà¸¢à¸Ńà¸° à¸¡à¸²à¸ģà¹Ĩ
à¸Ńà¸Ńà¸ģ à¹ģà¸Ļà¸§
à¸´ ,"
à¹Ħà¸Ľ à¸ģà¸¥
à¹Ģà¸Ńà¸° à¹ĥà¸Ī
à¸ģà¸ģ à¸İà¸«à¸¡à¸²à¸¢
à¸ģ à¹Ģà¸ĭà¸¥
] ,"
Ġà¸Ĭ à¸¥à¸ļ
à¸Ľ à¹Ģà¸ģ
à¸¢à¸ļ à¹Ħà¸¡
à¸ķ à¸ŀ
à¸ļà¸ģà¸²à¸£ à¹Ģà¸£
Ġam d
Ġà¸ģà¸²à¸£ à¹Ģà¸Ĥ
à¸Ĭ à¸²à¸ģ
Ġà¸Īà¸²à¸ģ à¸Ń
a on
à¸Ń à¸ŀà¸Ńà¸Ķ
à¸§à¸£ à¸Ńà¸Ķ
id ge
Ġà¹ģà¸¥à¸° à¹Ģà¸Ĭ
à¸ĩà¹Ħà¸ĩ à¸¡
Ġch amp
ro l
Ġ à¸Ńà¸ļà¸£à¸¡
à¸£à¸Ńà¸ļ à¸ļ
Ġ ĉĉĉĉĉĉĉĉĉĉĉĉĉĉĉĉĉĉĉĉĉĉĉĉĉĉĉĉĉĉĉ
Ġà¸ĩà¸²à¸Ļ à¸Ĺ
à¸Ĭà¸²à¸¢ à¸£
Ġà¹Ģà¸ĭ à¸Ńà¸£
à¸«à¸²à¸£ à¸Ĺ
à¸ļà¸ª à¸¡à¸²à¸Ĭ
à¹Ħà¸Ĺà¸¢ à¹Ħà¸Ķ
à¸²à¸« à¸²
à¹Ĥà¸Ĭ à¸Ħà¸Ĭ
à¸ļà¸Ļ à¹Ģà¸ķ
Ġà¸ŀà¸¢ à¸²à¸ļà¸²à¸¥
Ġà¹Ĥà¸Ľà¸£à¹ģà¸ģà¸£ à¸¡
Ġà¹ģ à¸Ķà¸ĩ
Ġà¸£à¸²à¸Ħ à¸²à¸Ĺ
à¸ŀà¸Ń à¹Ģà¸£
à¸«à¸£à¸Ńà¸ģ à¸Ļà¸°
à¸ŀà¸£à¸° à¸ª
à¸Īà¸° à¸Ł
bur g
à¹Ģà¸Ń à¸²à¸Ń
à¹Ģà¸Ńà¸²à¸¡ à¸²à¹ĥà¸«
Ġw ord
à¸²à¸ģà¸²à¸£ à¸ģà¸£à¸°à¸Ĺà¸£à¸§à¸ĩ
à¸Ħà¸Ļ à¹ĥà¸Ļ
à¸Ļà¹ģà¸ļà¸ļ à¹Ģà¸Ķ
à¸· à¹Ĭ
Ġà¸ľà¸¡ à¸Ń
Ġs le
à¹Ģà¸¥ à¸Ļ
à¸²à¸ĩà¸Ĥ à¸§à¸²à¸ĩ
à¸Ĭà¸¡ à¸£à¸¡
à¹Ģà¸£à¸² à¹ģà¸ķ
Ġà¸« à¸²à¸§
à¸Ń à¹ĥà¸ģà¸¥
à¸Ļà¸ģà¸²à¸£ à¹Ģà¸¡
à¸ļà¸²à¸ĩ à¸£
Ġt a
re s
à¸Ļà¸Īà¸° à¹Ģà¸ģ
à¸ĩà¸Īà¸° à¸ģà¸¥
à¹Ģà¸¥à¸¢ à¸ĭ
à¸Ħà¸§à¸²à¸¡ à¹Ģà¸Ħà¸¥
Ã Ĺ
à¸²à¸ĩ à¸ĸà¸Ļà¸Ļ
ap ter
à¸ĩà¸Ħà¸²à¸£ à¸Ĺ
n b
à¹Ģà¸Ī à¸Ļà¸ĭ
à¸ĩà¸Īà¸° à¸¢
à¸° à¹Ģà¸Ĭ
Ġinter national
Ġà¹ģà¸¥à¸° à¸ļà¸£
Ġex change
à¸Ĭà¸Ńà¸ļ à¹Ģà¸£
à¸Ĥà¸Ń à¸Ħà¸§à¸²à¸¡à¸ģà¸£
à¸¢à¸§ à¸Ļà¸°
à¸Ńà¸Ńà¸ģ à¸¡à¸²à¸Ĺ
à¹Ĥà¸Ķ à¸£
à¹Ĥ à¸ĸ
à¸Ńà¸ģ à¹Ģà¸Ĥ
Ġchar les
à¸§à¸ĩ à¸Ħà¸£
à¹Ģà¸£à¸² à¹Ģà¸«à¸¡
à¸ķà¸¥à¸Ńà¸Ķ à¸§
à¸į à¹Ģà¸ķ
"""" """"
à¹ĥ à¸Ŀ
à¸¡à¸² à¹ģà¸Ī
val ue
à¸Ļà¹Ĩ à¹Ħà¸Ķ
à¸²à¸Ľà¸£à¸° à¹Ĥà¸¢
à¸Ķ à¹ģà¸ľ
à¸ľà¸¡ à¹Ģà¸Ķ
à¸¢à¸Ķ à¸Ĭ
à¸Ļà¹Ħà¸Ľ à¸Ĥ
ub ishi
Ġunivers ity
Ġà¸Ńà¸Ńà¸ģ à¹ģà¸ļà¸ļ
à¸Ħ à¸¢
Ġmo v
à¹ģ à¸Ńà¸Ļà¸ķ
à¸Ī à¸ļà¸¡
à¸Ŀ à¸Ļ
à¸Ľà¸£à¸°à¸ĸ à¸¡
Ġà¸ģà¸²à¸£ à¸Ĥ
à¸¥à¸ĩ à¸Īà¸²à¸ģ
à¸Ĥà¸Ń à¹Ģà¸ĩ
à¸²à¸«à¸£ à¸Ń
à¸Ļà¹Ģà¸£ à¸²à¸¡
Ġà¸Īà¸° à¹Ģà¸Ľà¸¥
à¸Ļà¹ģ à¸Ħà¸£
Ġor ig
à¸²à¸ļ à¸Ķ
à¸ķà¸Ńà¸ļ à¹Ħà¸Ķ
à¹ģà¸¥à¸° à¹Ģà¸Ĥ
à¸¡à¸²à¸ģ à¸ĸ
ĠĠĠĠĠĠĠĠ ĠĠĠĠĠ
à¸ĩ à¹Ĥà¸Ĺà¸£
à¸Ļ à¹Ģà¸īà¸¢à¹Ĩ
à¸ģà¸Ħà¸Ļ à¹Ģà¸Ķ
Ġ ________________________________
à¸ĩà¸Ĥ à¸¢à¸°
à¸Ĺ à¹Ģà¸Ľ
Ġb aby
Ġac cess
à¸Ńà¸ĩ à¹Ĥà¸Ĺà¸£
à¸ª à¸Ļà¸Ĺà¸Ļ
à¸ĸà¸²à¸¡ à¸Ķ
à¹Ĥà¸Ķ à¸Ļà¸ª
à¸Ļ à¹Ģà¸ĺà¸Ń
à¸ķà¸Ńà¸ļ à¹Ħà¸Ľà¸§
à¹Ģà¸Ī à¸¥
à¸Ńà¸ĩà¸¡ à¸²à¸ķ
à¸Ń à¸²à¸ģ
à¸£à¸²à¸Ĭ à¸Ķ
s ing
à¸Īà¸°à¹Ħà¸Ľ à¹Ģà¸£
à¸µà¹Ī ""
à¸²à¸ŀà¸£à¸° à¹Ģà¸Ńà¸ģ
à¸«à¸¥ à¸°
bl ack
à¸£ à¸ķ
av a
à¹Ģà¸ ĵ
à¸Ļ à¸«à¸¡à¸²à¸¢à¸Ħà¸§à¸²à¸¡à¸§
à¹ģ à¸§à¸ģ
à¸Ļà¸¡à¸² à¹Ģà¸¥
Ġ---------------------------------------------------------------------------------------------------------------- ---------
à¹Ģà¸§à¸¥ à¸²à¸£
Ġw ireless
Ġà¸Ħ à¸Ńà¸¢
à¸¢à¸ļ à¸Ħ
à¹Ģà¸Ķ à¸Ļ
à¸¥à¸Ńà¸ĩ à¹Ģà¸¥
Ġà¸Ľà¸£à¸° à¸¡à¸²à¸Ļ
à¸Ńà¸¡ à¹Ģà¸ª
à¹ģà¸ªà¸Ķ à¸ĩà¸ª
à¸¢à¸Ļ à¸£à¸ĸ
à¸Ńà¸ĩ à¹Ħà¸«à¸¡
Ġà¸Ńà¸¢à¸²à¸ģ à¹Ģà¸¥
à¸Ļ à¹Ģà¸Łà¸ª
à¸Ĺ à¸Ī
à¸Ń à¹ģà¸Ľ
à¸¥à¸° à¹Ģà¸Ķ
Ġà¸ĩà¸ļ à¹Ħà¸¡
à¸ļà¸ļ à¸²à¸Ķà¹Ģà¸Ī
à¸²à¸Ńà¸Ńà¸ģ à¸¡à¸²
à¸²à¹Ģà¸£ à¸²à¸Ńà¸¢à¸²à¸ģ
Ġ10 1
à¸²à¸£à¸° à¸ļ
à¸² à¹Ħà¸Łà¸Ł
Ġt im
à¸ĩ à¹Ģà¸Ħà¸¢
à¸Ļà¸« à¸²à¸ģ
Ġth r
à¸Ń à¹Ĥà¸£à¸Ħ
à¸ĩà¸Īà¸° à¹Ģà¸¥
à¸ĩà¹ĥà¸Ļ à¸Ĺ
à¸ķà¸²à¸¡ à¸Ľà¸£à¸°à¸ª
à¸¨ à¸Ĺ
à¸Ľ à¸«à¸¥
à¸Ĭà¸²à¸¢ à¸«à¸²à¸Ķ
à¸²à¸¡à¸² à¹Ģà¸ģ
à¸§à¸¢ à¹Ģà¸ĩ
à¸¢à¸Ļ à¸¡à¸²à¹ĥà¸Ĭ
Ġà¹ĥà¸Ļ à¸ļ
à¹Ģà¸ī à¸¥à¸¢
Ġun l
à¹ĥà¸Ļ à¸ķà¸¥à¸²à¸Ķ
Ġh ave
à¸ļà¸Ħ à¸Ķ
Ġà¹ģ à¸ŀà¸¥
à¸Ńà¸Ļ à¹ģà¸ļà¸ļ
à¸Ńà¸Ķ à¹ĥà¸«
à¸Ļà¸ģà¸²à¸£ à¹Ģà¸ĩ
à¸Ńà¸ģà¸²à¸£ à¸ķ
5 000
à¸Ķ à¹Ģà¸Īà¸Ńà¸ģ
à¸Ķà¸¡ à¸²à¸Īà¸²à¸ģ
à¸²à¸Ħà¸§à¸²à¸¡ à¸ľ
à¸ĩ à¹ĥà¸ļ
9 2
à¸²à¹Ħà¸Ľ à¹Ģà¸Ĭ
Ġà¹Ģà¸Ń à¸²à¸Ĺ
à¸§à¸Ķ à¸«
à¸ļà¸²à¸ĩ à¸ķ
à¸ªà¸Ńà¸ļ à¸ª
à¹ĥ à¸§
Ġà¹ģà¸ŀ à¸Ĺà¸¢
à¸ļ à¹Ģà¸ŀà¸¥à¸ĩ
Ġà¸ª à¸ĩà¸Ħà¸£à¸²à¸¡
à¸ľà¸¡ à¹Ģà¸ª
p ower
Ġ25 62
à¹Ĥà¸«à¸£ à¸²à¸¨à¸²à¸ªà¸ķà¸£
à¸Ĥà¸Ńà¸ĩ à¸Īà¸£
à¸Ńà¸¢à¸²à¸ģ à¸Īà¸°à¸Ĺ
Ġpay pal
Ġpan asonic
Ġà¸£à¸²à¸Ħ à¸²à¸ŀ
as er
à¸ĩ à¸Ńà¸Ńà¸ģà¸¡à¸²
Ġj ust
à¸Ĺ à¸Ķà¸ªà¸Ńà¸ļ
à¸Ńà¸Ńà¸ģ à¸ļ
à¸Ļà¸Ĺà¸²à¸ĩ à¹Ģà¸Ķ
Ġpr in
à¸¡à¸²à¸Ĥ à¸²à¸¢
Ġà¸ľà¸¡ à¹Ģà¸Ķ
à¸ĩà¸Īà¸° à¹Ħà¸Ľ
à¸Ńà¸Ļà¸ŀ à¸¤à¸¨à¸Ī
à¸ļà¸ģà¸²à¸£ à¸ŀ
Ġà¹Ģà¸Ħà¸¢ à¹Ħà¸Ķ
à¸²à¸§ à¸Ĭ
à¸ĩà¸Ĭ à¸Ļà¸°à¹Ģà¸¥
à¸²à¸Ħà¸° à¹ģà¸Ļà¸Ļ
à¸Ľ à¸ŀ
Ġcon nect
à¸Ļ à¹Ĥà¸Ĺà¸£
à¹Ģà¸Ĥà¸² à¹ģà¸¥
Ġà¸ŀà¸Ńà¸¡ à¸²à¸ĸ
à¸¢à¸§ à¸¥
à¸Ńà¹Ħà¸Ľ à¸ĸ
à¹Ģà¸¥à¸Ĥ à¸ļ
à¸§à¹Ģà¸Ńà¸ĩ à¸¢
à¸«à¸£ à¸Ńà¸ģà¸§
à¸§ à¹ģà¸«à¸¥à¸°
à¸Ļà¹Ħà¸Ľ à¸§
Ġà¸Ĥà¸Ńà¸ĩ à¸ģ
Ġà¸Ĺ à¸£à¸²à¸ļ
à¸ĩà¹Ģà¸ģà¸ķ à¹Ģà¸«
à¸ķà¸£ à¸ķ
à¹Ĥà¸Ķà¸¢ à¸Ń
ot o
à¸¡à¸¡ à¸Ńà¸ĩ
à¹Ģà¸īà¸¢ à¹Ģà¸¥à¸¢
à¸ŀà¸§à¸ģ à¹Ģà¸Ħ
+ ,
à¹ģà¸Łà¸Ļ à¹Ģà¸£à¸²à¸ģ
Ġà¹ģà¸ļà¸ļ à¸¡
Ġ17 5
à¸¢à¸ļ à¸ĩ
à¸Ĥà¸Ń à¹Ħà¸¡
à¸ģà¸ĩà¸²à¸Ļ à¸ļà¸Ńà¸ģà¸§
à¸Īà¸° à¸ģà¸¥à¸²à¸¢à¹Ģà¸Ľ
à¹Ĥà¸Ķ à¸Ļà¸Ļ
à¸Ļà¹Ħà¸Ľ à¸«à¸¡à¸Ķ
à¸Ńà¸¡ à¸²à¹Ģà¸Ľ
à¸« à¸²à¸Ĭ
à¸²à¸¢ à¹Ģà¸£à¸²à¸ģ
Ġ6 2
Ġh ol
à¸ģà¸Ħà¸Ļ à¸Ķ
à¹ģà¸ªà¸Ķ à¸ĩà¸ķ
à¸ģà¸Ħà¸Ļ à¹Ħà¸Ķ
à¸Ħà¸§à¸£ à¹Ģà¸¥
à¸§ à¸Īà¸°à¸£
à¸ģà¹ĥà¸Ī à¸¡à¸²à¸ģ
à¹Ģà¸¥à¸¢ à¸«à¸£à¸Ń
st ation
à¸¡à¸² à¹Ģà¸Ł
Ġb it
à¹Ģà¸Īà¸Ń à¹Ģà¸£
à¸į à¸ļ
à¸²à¸ģà¸²à¸£ à¸ĭ
à¸Ńà¸Ńà¸°à¹Ħà¸£ à¸Ħà¸°
its ubishi
à¸ļ à¸Ļà¸°
à¹Ĥà¸Ķ à¸§
à¸ķ à¹Ģà¸£
à¸¥ à¹Ģà¸Ľ
âĻ ¦
à¸¥ à¸ľ
à¹Ģà¸Ĥ à¸²à¸¡à¸²à¸ģ
à¸Ĥà¸²à¸¢ à¸Ńà¸¢
p n
à¹ģà¸¥à¸° à¸«à¸Ļ
à¸²à¹Ħà¸¡ à¹Ģà¸Ħ
à¸²à¹ģà¸¥à¸° à¸ķ
à¸²à¸«à¸¥à¸²à¸¢ à¸Ħà¸£
à¸²à¸ĺà¸²à¸£à¸ĵ à¸£
à¸Ń à¸²à¸¥
Ġm ade
à¹Ĥà¸ĭ à¹Ģà¸§
à¸ł à¸£à¸£à¸¢à¸²
à¸Ļà¸Ń à¸Ńà¸Ļà¹Ħà¸¥à¸Ļ
à¸¡à¸Ĺ à¸°à¹Ģà¸¥
à¸ĩà¸²à¸Ļ à¸£à¸²à¸Ĭà¸ģà¸²à¸£
à¸²à¸ľà¸¡ à¹Ħà¸Ķ
à¸Ī à¸Ļà¹Ħà¸Ķ
Ġà¸Ĺ à¸²à¸ĩà¸Ĺ
Ġà¹Ĥà¸Ķà¸¢ à¸£à¸§à¸¡
s o
à¸¢à¸¡ à¸Ļ
Ġà¸Ĥà¸Ńà¸ĩ à¸¡
Ġà¸ŀà¸Ń à¹Ģà¸¥
à¸Ļ à¸Ľà¸£à¸°à¸ĺà¸²à¸Ļ
à¸«à¸²à¸¢ à¸Ħ
Ġ19 0
à¸§à¸Ļ à¹Ħà¸Ķ
à¸ĩ à¸ģà¸¥à¸²à¸ĩ
Ġ7 2
à¸Ļà¸²à¸Ļ à¸Ļ
à¹Ĩà¸¡à¸² à¹Ĩ
à¸Ľà¸£à¸°à¸¡à¸²à¸ĵ à¸ģ
Ġà¸¡ à¸²à¸ŀ
Ġà¹ĥà¸Ħà¸£ à¸ŀà¸Ńà¸£
ig e
à¸ĸ à¸²à¸§à¸£
à¸²à¹Ħà¸Ľ à¹Ģà¸Ľ
à¸ĵ à¸Ĥ
à¸²à¸Ļà¹Ħà¸Ľ à¸ª
b uck
t y
à¸¢à¸Ļ à¹ģà¸Ľà¸¥
à¸Ń à¹ģà¸Ļ
Ġcomp act
à¸ľà¸¡ à¹Ģà¸Ńà¸ĩ
Ġà¹Ģà¸£à¸² à¹Ģà¸ŀ
Ġ?? ?,"
Ġà¹ģà¸¥à¸° à¹ģà¸¡
à¸¨à¸²à¸ªà¸Ļ à¸²à¸Ħà¸£
à¸²à¸¢ à¹Ħà¸§
Ġà¹Ĥ à¸Ńà¸ĭ
à¸Ĥà¸²à¸¢ à¸Ľà¸£à¸°à¸ģ
à¹Ħà¸«à¸§ à¸Īà¸£
Ġà¹ģ à¸£à¸ģ
ash i
à¹ģà¸«à¸¥ à¸¡
à¸ĩà¸¢ à¸²à¸§
à¹ĥà¸Ķ à¸ļ
à¸Ļ à¸¯
à¸ŀ à¸Ļà¸¡
Ġh ost
à¸ģ à¹ģà¸ĭ
Ġà¸Īà¸° à¸ļà¸Ńà¸ģà¸§
Ġser ver
à¸¢à¸§ à¸ĸ
à¸Ļà¸£à¸ĸ à¸ķ
à¸Ĭà¸Ńà¸ļ à¸¡à¸²à¸ģ
à¸«à¸¡ à¸Ńà¸Ļ
à¹Ģà¸¢à¸²à¸§ à¸Ĭ
à¸Ħà¸§à¸£ à¸Īà¸°
à¸ļà¸ģ à¸ŀà¸£
à¸ģà¸¡à¸²à¸ģ à¸Ħ
à¸Ńà¸ĩ à¸Ĥà¸Ńà¸ļà¸Ħ
Ġd ream
à¹Ģà¸§à¸¥à¸² à¹Ģà¸Ĺ
à¹Ģà¸Ī à¸Ķ
à¸¡ à¸ĸà¸Ļà¸Ļ
ad sl
à¸Ńà¸ĩ à¸Ĺà¸£
à¸Ħà¸£ à¹Ģà¸Ľ
Ġà¸Īà¸° à¹Ģà¸Ń
Ġh ow
à¸ĩà¸¢ à¸²à¸ĩ
Ġà¸ª à¸ª
... ""
à¸§à¸¢à¸Ħà¸§à¸²à¸¡ à¹Ģà¸£
it or
à¸£à¸Ńà¸¢ à¸¢
à¸£à¸°à¸ļà¸ļ à¸£
à¸ģà¸²à¸£ à¸Ľà¸¥
à¸ķà¸£ à¸ĩà¹Ħà¸Ľ
à¸² à¹Ĥà¸Ń
à¸ĩà¹Ĩ à¸«à¸£
à¸Ļ à¸²à¸§
Ġà¸ľà¸¡ à¸ŀà¸¢à¸²à¸¢à¸²à¸¡
à¸Ļ à¹Ĥà¸£à¸ĩà¹Ģà¸£
à¸Ĺà¸²à¸ĩ à¹Ħà¸«à¸Ļ
à¸² à¹Ģà¸Ńà¸ģà¸ªà¸²à¸£
à¸ķà¸£ à¸ŀ
Ġà¹Ħà¸Ľ à¸Ħ
Ġà¸ľà¸¡ à¸Ńà¸¢à¸²à¸ģà¸Īà¸°
à¸§à¸¡ à¸£
Ġà¸ľà¸¡ à¹Ģà¸Ħà¸¢
à¸Ļ à¸łà¸²à¸ŀà¸¢à¸Ļà¸ķà¸£
à¸Ńà¸ĩà¸¡ à¸²à¸Ħ
Ġà¸Ħà¸Ļ à¹Ģà¸ģ
à¸²à¹ģ à¸¡à¸§
à¸²à¸Ļ à¹Ģà¸Ħà¸£
à¸ĩà¸Īà¸° à¸ª
à¸«à¸²à¸¢à¹Ħà¸Ľ à¹Ģà¸¥à¸¢
Ġ à¹Ħà¸ģà¸¥
à¸ĩà¹Ģà¸ģ à¸²à¸«à¸¥
à¸£ à¸Ńà¸ĩà¸ŀ
à¸ģà¹ģà¸ªà¸Ķà¸ĩ à¸łà¸²à¸ŀà¸¢à¸Ļà¸ķà¸£
à¸²à¹Ģà¸Ĥ à¸²à¸Īà¸°
à¸²à¸¢à¹Ĩ à¸Ħ
^^ "
à¸ģà¸²à¸£ à¸§à¸²à¸ĩà¹ģà¸ľ
Ġch annel
à¸Ļà¸Ńà¸ģ à¹ĥà¸Ī
à¸ĩà¸«à¸¡à¸Ķ à¸ģ
à¸ĩ à¹Ħà¸£
à¸²à¹Ģà¸£à¸² à¹Ħà¸Ľ
à¹ģà¸£ à¸ĩà¸ģ
Ġà¸ŀà¸Ń à¸ŀ
à¸²à¹Ĥ à¸ĭ
à¸«à¸¢ à¸Ńà¸Ķ
à¸Ļà¸¡à¸²à¸ģ à¸Ħ
Ġà¸ģà¸£à¸° à¹ģà¸ª
à¸ĺà¸£à¸£à¸¡ à¸Ĺ
à¸Ļà¸¡à¸² à¹Ģà¸ŀ
à¹Ģà¸£à¸²à¸Ńà¸¢à¸²à¸ģ à¸£
à¸²à¸ĩà¸²à¸Ļ à¸§
à¸²à¹Ģà¸Ĥ à¸²à¸£
m w
à¸²à¸¢à¸Ĺ à¸°à¹Ģà¸ļ
à¸ĩ à¸§à¸Ļ
à¸ļà¸ķ à¸¥à¸Ńà¸Ķ
ia omi
à¸²à¸Ħ à¸Ķ
¸ ĥ
à¸´ (
à¸ĭà¸° à¸Ń
lo g
à¸§ à¹ĥà¸Ħà¸£
Ġm ail
à¸ĩ à¹Ģà¸Ħà¸¥
à¸° à¹Ģà¸Ħ
à¸ĩà¹ĥà¸Ļ à¸ķ
à¸¡à¸²à¸Ķ à¸²à¸¡à¹Ģà¸®à¸ĩ
à¸ģ à¹Ħà¸«à¸¡à¸Ħà¸°
à¸Ļà¹Ĩ à¸Ħ
à¸²à¹ģà¸Ł à¸Ļà¹Ģà¸ģ
à¸Ĺà¸²à¸ĩ à¸ļà¸£
Ġp ost
à¸Ħà¸¥ à¸²à¸ģà¸£
Ġà¸ķà¸£ à¸ĩà¸ģ
Ġà¸Ĥà¸Ńà¸ĩ à¸ľ
à¸²à¸¡ à¸£
######## ########
Ġà¸ģà¸£à¸° à¸Ľ
ick et
ï ¸ı
à¹ĥà¸Ļ à¹Ģà¸Ĭ
à¸Ľà¸£à¸°à¸ª à¸ļà¸ģà¸²à¸£
à¸²à¹Ħà¸Ľ à¹ĥà¸«
à¸²à¸ĩ à¹ģà¸¡
à¸²à¸¢à¸ģ à¹Ģà¸¥
à¸Ļà¸Ĺà¸²à¸ĩ à¸ªà¸°à¸Ķà¸§à¸ģ
à¸Ķà¸§à¸ĩ à¹Ħà¸ŀ
à¸§ à¹ģà¸Ħ
à¸ĩà¸²à¸Ļ à¹ģà¸ªà¸Ķà¸ĩ
à¸ªà¸²à¸§ à¸ģ
à¸Ĭà¸Ńà¸ļ à¸ķ
Ġà¹Ģà¸£à¸²à¸Īà¸° à¹Ħà¸¡
Ġ à¹Ħà¸«à¸§
à¸ļà¸ľà¸¥ à¸ģà¸£à¸°à¸Ĺ
Ġà¸«à¸¡ à¸Ńà¸ļà¸Ńà¸ģà¸§
à¸Ļà¸Ńà¸Ļ à¸«à¸¥
à¸Ķ à¸ķà¸£à¸ĩà¹Ĩ
à¸ļà¸Ń à¸²à¸ģà¸²à¸£
à¸Ļà¸ģà¸²à¸£ à¸Ķ
Ġd ark
à¸²à¸§ à¹Ģà¸ģ
à¸¢à¸§ à¹Ģà¸Ķ
à¸¡ à¸«à¸¡
Ġi mp
à¹Ģà¸¥à¸¢ à¹Ħà¸Ľ
à¹Ħà¸Ľà¹Ħà¸«à¸Ļ à¸¡à¸²
à¸²à¸§ à¸«à¸£
Ġ3 99
à¸ĩà¸¡ à¸²à¸Ļ
à¹Ī !
Ġà¹ģà¸¥à¸° à¸«à¸²à¸ģ
Ġm icro
à¸Ńà¸ģ à¹ģà¸¥
à¸Ńà¸¢à¸²à¸ģ à¸Ī
à¸ĩà¹ĥà¸Ļ à¸«
à¸¢à¸ģ à¸Ĥ
à¸²à¹Ģà¸¡ à¸Ļ
à¸Ń à¸²à¸ª
à¹Ħà¸Ľ à¸«à¸£
à¹Ģà¸¢à¸Ńà¸° à¸Ĥ
Ġà¹Ģà¸ŀà¸£à¸²à¸° à¸ľ
à¸Ĺà¸²à¸ĩ à¸Ħ
à¸¢à¸į à¸Ĺà¸Ńà¸ĩ
à¹ĥà¸Ļà¸ģà¸²à¸£ à¹Ģà¸Ĥ
à¸²à¸ªà¹Ģà¸ģ à¸ķà¸ļà¸Ńà¸¥
à¸Ńà¸Ļ à¹ģ
u i
à¸Ńà¸²à¸į à¸²
Ġà¸Ļ à¸Ļ
Ġà¹Ħà¸Ľ à¹Ģà¸Ľ
à¹ĥà¸Ħà¸£ à¸ŀà¸Ńà¸Īà¸°à¸Ĺà¸£à¸²à¸ļ
à¸ķà¸Ńà¸ļ à¹Ĥà¸Īà¸Ĺà¸¢
Ġà¸£à¸ĸ à¸ļà¸£à¸£à¸Ĺ
à¸Ķà¹Ħà¸Ľ à¸Ħ
man chester
à¸Ĺ à¸ĭ
à¸§à¸Ļ à¹ģà¸¥
Ġà¹Ģà¸£ à¸²à¸ľ
Ġà¹Ģà¸£ à¸ķà¸ķ
Ġà¹Ģà¸ŀ à¸Ī
à¸²à¸£à¸ĸ à¸¢à¸Ļà¸ķ
à¸ķ à¹ĥà¸«à¸¡
à¸Ĥ à¸Ńà¸¡
à¸Ń à¸Īà¸°à¸ķ
à¸¢à¸Ļ à¸ģà¸²à¸£
à¸Ĭà¸Ļ à¸ļà¸Ĺ
à¹Ĥà¸Ĺ à¸Ļ
Ġà¹Ĥà¸Ķà¸¢ à¸Ľà¸ģà¸ķ
Ġà¹Ģà¸ľ à¸¢
Ġà¹ĥà¸Ļ à¸ªà¸¡
à¸ļ à¹ģà¸ª
à¸Ĥà¸²à¸¢ à¸«à¸£
Ġsh opping
à¸§ à¹Ģà¸ĺà¸Ń
Ġà¸¡à¸²à¸ģ à¸¡à¸²à¸¢
à¸¢ à¹ģà¸«à¸¥à¸°
à¸Ķ à¸Ńà¸Ńà¸ģà¹Ħà¸Ľ
à¸Ńà¸ĩ à¸Ńà¸²à¸¢
Ġà¸ľà¸¡ à¸ĸ
Ġth ree
à¹ģà¸¥à¸° à¸Ľà¸£
Ġres et
à¸²à¸ª à¸°à¸Ķà¸§à¸ģ
à¹Ģà¸§à¸¥à¸² à¹Ģà¸Ĥ
Ġ255 1
à¸²à¸ĩ à¸£à¸°à¸«à¸§
à¸« à¸²à¸ĩà¸²à¸Ļà¸Ĺ
Ġs qu
Ġà¹ģà¸ĸ à¸§à¹Ĩ
à¸ĵ à¹Ģà¸¥
à¸Ńà¸ģ à¸Ī
way s
à¸¢ à¹ģà¸ļà¸ļ
Ġ à¸¥à¸ĩà¹Ħà¸Ľ
à¹ģ à¸Ħà¸§à¸£
Ġà¹Ĥà¸ŀ à¸ªà¸ķ
à¸ĩ à¸Ńà¸¢à¸²à¸ģà¹ĥà¸«
à¸Ńà¸Ńà¸ģ à¹Ħà¸¡
à¸Ļà¹ģ à¸ģà¸¥
im a
à¸ļ à¸²à¸Ķ
j o
à¸Īà¸ī à¸£
Ġciv ic
à¸Ķ à¸Ħà¸Ļ
à¸²à¸¡ à¸ĸà¸Ļà¸Ļ
Ġnex t
// /
com e
à¸Ļà¹ĥà¸Ļ à¹Ģà¸£
à¸ķà¸£ à¸Ń
à¸ŀà¸£à¸° à¸Ń
à¸²à¸ĩ à¹Ģà¸Ń
à¸§ à¸Ńà¸£
à¸²à¸ľà¸¡ à¸£
à¹Ħà¸¥ à¸Ķ
à¹Ģà¸ŀà¸£à¸²à¸° à¹Ģà¸«
à¸Ķ à¸¡à¸²à¸ģà¹Ĩ
à¸ģ à¹ģà¸Ľà¸¥
à¸²à¸§ à¸ŀ
à¸¢à¸ĩ à¹ĥà¸ķ
ul ar
à¸ľà¸¡ à¸Ńà¸¢à¸²à¸ģà¸Īà¸°
à¸²à¸«à¸Ļà¸Ķ à¹Ħà¸§
à¹Ģà¸Ī à¸Ńà¸§
à¸¶ à¹Ĭ
à¸Ńà¸¢à¸²à¸ģ à¸ªà¸Ńà¸ļà¸ĸà¸²à¸¡
à¹Ĩ à¸ª
à¸Ĥà¸Ńà¸ĩ à¹Ģà¸£à¸²à¸ģ
Ġd u
Ġw r
à¸Īà¸°à¹Ħà¸Ľ à¸ĭ
à¸²à¸ķ à¸°
Ġb as
à¹Ģà¸Īà¸Ń à¹Ģà¸«à¸ķ
Ġà¹Ģà¸ŀà¸£à¸²à¸° à¸Ĥ
à¸Ĥà¸Ńà¸ĩ à¸Ĺà¸£
à¸ĺà¸£à¸£à¸¡à¸Ķ à¸²à¹Ĩ
Ġà¸«à¸¥ à¸Ńà¸Ķ
à¸²à¹Ħ à¸ĩà¸ģ
g hz
à¸¢ à¸²à¸ª
Ġd ress
Ġb at
à¸Ńà¸°à¹Ħà¸£ à¹Ģà¸Ľ
à¸§à¹Ģà¸£ à¸²à¸ķ
Ġà¹Ģà¸£à¸²à¹Ģà¸¥à¸¢ à¹Ħà¸¡
Ġà¸Ĥà¸Ń à¸Ħà¸§à¸²à¸¡à¹Ģà¸«
à¸ķ à¹ģà¸ŀà¸Ĺà¸¢
à¸²à¸ĩ à¸ģà¸²à¸£
Ġ à¹Ħà¸ĭ
à¹Ħà¸ŀà¸£ à¸ª
à¹Ĥà¸Ħ à¸Īà¸£
Ġl i
à¹Ģà¸£ à¸²à¸Ľ
à¸Ħ à¸ªà¸¡
Ġf inal
à¸Ļà¸Īà¸²à¸ģ à¸ģà¸²à¸£
Ġà¹Ģà¸ŀà¸£à¸²à¸° à¸«à¸Ļ
à¸Ľ à¸¥à¸ĩ
b all
à¹Į", [
à¸¢à¸Ļ à¸Ħà¸§à¸²à¸¡à¸Ħ
Ġà¸ŀ à¸Ńà¸Ń
à¹Ĥà¸Ħà¸£ à¸ĩà¸Ĥ
à¸¡ à¸Ļà¸°à¸Ħà¸£
à¸Ľ à¸²à¸¥
à¹Ģà¸Ħà¸¢ à¸Ńà¸¢
à¸Ńà¸Ļ à¹Ģà¸«à¸¡
à¹Ģà¸Ħà¸¢ à¹ĥà¸ª
à¸£à¸ļà¸ģà¸§à¸Ļ à¸ŀ
à¸² à¹ĥà¸ķ
à¸ªà¹Ģà¸Ľ à¸Ħ
à¸²à¸Īà¸° à¹Ģà¸Ńà¸²
à¸Ļà¸Ńà¸Ļ à¸Ńà¸¢
à¸Ńà¸Ńà¸°à¹Ħà¸£ à¸Ĺ
Ġ ................................................................
à¸ĩà¸ļ à¸²à¸¥
à¸ľà¸¡ à¸Ńà¸¢à¸²à¸ģà¸£
à¸Ļà¸Ĺ à¸£à¸¡
à¸Ļà¹Ģà¸ģ à¸²à¸«à¸¥
Ġà¸ļà¸²à¸Ĺ à¸Ħà¸£
à¸ģà¹Ĩ à¸Ķ
7 50
à¸Īà¸²à¸ģ à¸§
à¸Ĭà¸Ńà¸ļ à¸Ńà¸¢
à¸Ń à¹Ģà¸ªà¸£
à¸Ħà¸£ à¸ļà¸£à¸Ńà¸ļ
à¸Ńà¸ĩ à¸Ļà¸°
à¹ģà¸Ł à¸Ļà¸Ķ
à¸ļà¸²à¸ĩ à¸Ĭ
à¸ĩà¸²à¸Ļ à¸£
à¹Ģà¸ģ à¸°
à¸²à¸Ļà¹Ħà¸Ľ à¹Ħà¸Ķ
à¸Ļà¸Ħà¸£ à¸ļ
à¸ģà¸ģà¸ģà¸ģ à¸ģà¸ģ
Ġà¸Ńà¸¢à¸²à¸ģ à¸Ĥà¸Ńà¸Ħ
à¸Ľ à¸Ī
à¸Ĭà¸²à¸¢ à¸Ń
Ġà¸Ńà¸¢à¸²à¸ģ à¹Ħà¸Ľ
Ġà¹Ģà¸« à¸¢
à¸ŀ à¸ª
Ġg ard
Ġà¹ ĸ
à¸²à¹Ģà¸£à¸² à¹Ģà¸¥
à ¸ĥ
à¸ģ à¸Ľà¸£à¸°à¸ģ
à¸£à¸© à¸°
à¸²à¸¢ à¸Īà¸£
à¸Ńà¸Ļ à¸ľà¸¡à¸ģ
à¸Ńà¸ģà¸²à¸£ à¸Ħ
à¹Ģà¸ļ à¸£
à¸²à¹ģ à¸ļà¸ķ
à¸ľà¸¥ à¸¥
à¸ª à¹ģà¸¥
f re
à¸²à¸Ļ à¸Ł
à¸Ļà¹ģ à¸Ńà¸£
à¸²à¸£ à¸«
Ġà¹Ģà¸ŀà¸£à¸²à¸° à¹Ħà¸Ķ
à¸Ńà¸ĩ à¹ģà¸Ńà¸£
à¸²à¹Ħà¸Ľ à¸ŀ
à¸£à¸Ń à¸Ńà¸¢
à¸§à¹Ħà¸Ľ à¸ģ
à¸Ń à¹Ĥà¸Ńà¸ģà¸²à¸ª
à¸Ļà¸ģ à¸£à¸°à¹Ģà¸Ľ
à¸¥à¸Ńà¸ĩ à¹Ģà¸Ĥ
à¸Ńà¸ĩà¸Ń à¸²à¸¨
à¸²à¸ĩ à¹ģà¸ļà¸ļ
à¸Ĥ à¸¥
à¸Ĥà¸Ń à¹Ģà¸£
........ ....
à¸Ĭà¸²à¸¢ à¸Ķ
à¸§à¸¢ à¸²à¸§
Ġs ens
à¸Ļà¸Ĺà¸²à¸ĩ à¹Ĥà¸Ķà¸¢
à¸Ľà¸£à¸°à¸ģà¸Ńà¸ļ à¸Ńà¸²à¸Ĭ
à¸Īà¸° à¸«à¸²à¸¢
à¸²à¸ĩà¸²à¸Ļ à¸¡
à¸Ńà¸ģà¹Ħà¸ģ à¹Ĥà¸Ķ
à¸ĩ à¹ģà¸Ńà¸ļ
à¹Ģà¸Ħ à¹Ģà¸ļ
à¸Ħ à¸²à¸¡
Ġà¹ģà¸¥à¸° à¹Ģà¸Ī
à¸²à¹Ģà¸£ à¸²à¸§
id a
ro und
à¸Ļ à¹Ģà¸§à¸¥à¸²à¸Ĺ
à¸²à¸ķ à¸²à¹Ħà¸¡
à¸Ĺà¸²à¸ĩ à¹Ģà¸ŀà¸¨
à¹Ģà¸ľ à¸Ķ
à¸Īà¸° à¹Ģà¸Īà¸Ń
à¸ģ à¹Ħà¸¥à¸Ļ
à¸ľà¸¡ à¸Ĭ
à¸²à¸¡ à¸²à¸ļ
à¸ģà¸²à¸£ à¹Ĥà¸Ĩà¸©à¸ĵà¸²
oc us
à¸ªà¸§à¸¢ à¸Ķ
à¸ĩà¸¡ à¸²à¸Ķ
à¸ĩà¸«à¸§ à¸°à¸Ĺ
Ġà¹ģ à¸Ĭà¸¡à¸Ľ
à¸Ļà¸«à¸¡à¸Ķ à¸Ńà¸²à¸¢
Ġ15 000
à¹ģà¸¥ à¸¥
à¸ĩà¸Ńà¸Ńà¸ģ à¹Ģà¸Ľ
à¹ĳ à¹ĳ
à¸į à¸Ķ
à¸Ńà¸¡ à¸²à¸§
à¸¢à¸ļ à¸Ķ
à¸£à¸ĸ à¸Ī
à¸²à¹Ģà¸ģ à¸£
Ġ200 9
à¸²à¸ķà¸£à¸§à¸Ī à¸ªà¸Ńà¸ļ
à¸Ķ à¸£à¸²à¸Ħ
à¸ķ à¹Ģà¸¡
à¸Ńà¸ļ à¸£à¸£
à¸ķà¸£à¸§à¸Ī à¸ª
à¸Ķ à¸Īà¸ļ
à¸ªà¸Ļà¹ĥà¸Ī à¸Ĺ
à¸§à¸²à¸ĩ à¸ªà¸²à¸¢
our ce
à¸²à¹Ģà¸£ à¸²à¸Ī
Ġà¹Ħà¸Ľ à¸§
à¸ªà¸²à¸ĺà¸²à¸£à¸ĵ à¸ª
Ġà¸ł à¸£à¸£à¸¢
à¹ģ à¸Ħà¸§
à¸Ńà¸ĩ à¹Ģà¸Ĥà¸²à¸ģ
à¸ĩ à¸«à¸£à¸Ń
à¸ŀ à¸ŀà¸²à¸Ļ
à¸²à¹Ĩ à¹ģà¸¥
ond on
y u
à¸ģ à¹ģà¸ļ
à¸Ńà¸ĩ à¹Ĥà¸Ķà¸¢
à¸Ħà¸Ļ à¹ģà¸Ļà¸°à¸Ļ
à¸ªà¸¢ à¸Ńà¸ĩà¸Ĥà¸§
à¸Ħà¸§à¸£ à¸ķ
ore a
Ġch ina
à¹ĥà¸Ļ à¸ªà¸²à¸¢à¸ķ
l ish
à¸Ńà¸Ļ à¹Ģà¸Ī
Ġh all
à¸§à¸¢ à¸Ľà¸¥
à¸Ħà¸Ļ à¸¥
à¸²à¸« à¸¥à¸ĩ
à¸ªà¸¡ à¸Ķ
à¸² à¹Ĩà¹Ĩà¹Ĩ
à¸Ķ à¹Ģà¸ĭ
à¸įà¸įà¸²à¸ĵ à¸Ĺ
ex t
à¸Ĥ à¸¢à¸°
Ġro m
à¸Ń à¸Īà¸°à¸Ĺ
à¸²à¸§ à¹Ģà¸£
à¸Īà¸° à¹Ģà¸ķ
uz u
out h
à¸Ń à¹Ĥà¸Ĺ
y ou
Ġ ================================
à¹ģ à¸ļà¸¥
à¸Ńà¸°à¹Ħà¸£ à¸¡à¸²à¸ģà¸¡à¸²à¸¢
Ġà¹Ĥà¸ķ à¹Ģà¸ģ
à¸²à¸ĩ à¸§à¸Ķ
Ġsc reen
à¹Ģà¸ŀà¸£à¸²à¸° à¹Ģà¸£
à¸²à¹Ħà¸Ľ à¸«
j uku
Ġà¹Ģà¸Ń à¸²à¹ĥà¸Ī
à¸Ľà¸£à¸° à¹Ģà¸ªà¸£
à¸¢ à¹Ģà¸Ĥ
à¸Ńà¸Ńà¸ģ à¸ĩà¸²à¸Ļ
à¸Ĥ à¸Ńà¸¥
Ġt y
à¸¢à¸Ļ à¸ģà¸¥
à¸ģà¹Ĩ à¸Ħà¸£
à¸²à¹ĥà¸Ļ à¸£
à¸ģà¹ģà¸ªà¸Ķà¸ĩ à¹Ģà¸ģà¸²à¸«à¸¥
à¸ģ à¹Ħà¸Ľà¸ģ
à¸ĩ à¸Ħà¸Ļà¹Ģà¸Ķ
Ġà¸¡ à¸²à¸Ī
à¸ĩà¸ª à¸¡à¸²à¸ĺ
à¸Ĥà¸Ńà¸ĩ à¹Ģà¸Ĥ
Ġs am
Ġà¸Ħà¸§à¸²à¸¡ à¸ķ
ub le
h i
at in
à¸ķà¸Ńà¸Ļ à¸ª
à¸¥ à¸²à¸Ńà¸Ńà¸ģà¸Īà¸²à¸ģ
es e
Ġà¹Ħà¸¡ à¸¥
à¸ģ à¸łà¸²à¸©
à¹ĥà¸Ļ à¸łà¸²à¸ŀ
Ġtr an
Ġà¸ªà¸²à¸¡à¸²à¸£à¸ĸ à¸Ļ
1 25
à¸Ń à¸Ľà¸£à¸°à¹Ĥà¸¢à¸Ĭà¸Ļ
à¸ļ à¸ľà¸¡à¸ģ
Ġf ur
Ġ25 49
à¸Ń à¸łà¸²à¸ŀ
Ġà¹Ģà¸¥ à¸¢à¸Ļ
à¸ĩà¸Ħà¸£à¸²à¸¡ à¹Ĥà¸¥à¸ģà¸Ħà¸£
à¸Ħà¸£ à¸ķ
Ġà¸Ĥà¸Ńà¸ĩ à¸£
Ġà¸Ľà¸£à¸°à¹Ģà¸Ĺà¸¨ à¸Ń
à¸ĩà¸Ħà¸£ à¸Ńà¸ļà¸Ħà¸£
Ġà¹Ģà¸§à¸¥ à¸²à¸Ľà¸£à¸°à¸¡à¸²à¸ĵ
à¸Ĺà¸²à¸Ļ à¸Ĥ
à¸£à¸²à¸Ĳ à¸²à¸Ļ
à¹ĥà¸Ī à¹ģà¸¥
à¸Ĺ à¸Ńà¸¢
Ġà¹ģà¸¥à¸° à¸ªà¸²à¸¡à¸²à¸£à¸ĸ
à¸¢ à¹Ģà¸¡
Ġke ith
à¹Ģ à¹Ģà¸ĸ
à¸ŀà¸§à¸ģ à¸ŀ
à¸Ķ à¸²à¸Ĥà¸Ńà¸ĩ
à¸Ķ à¹Ħà¸Ľà¸ģ
à¸¡à¸² à¹ģà¸Ļà¸°à¸Ļ
à¸ķà¸Ńà¸ļ à¹ģà¸Ĺ
à¸ķà¸£à¸²à¸Ķ à¸Ńà¸ģà¹Ģà¸ļ
à¸Ī à¸Ńà¸ĩà¸Ĺ
Ġà¸Ĥà¸Ńà¸ĩ à¸Ńà¸¥
à¸Ńà¸¢ à¸Īà¸£
Ġt mb
à¸²à¸Ń à¸ĩà¸Ħ
à¸²à¸¢ à¹Ģà¸Ħà¸£
oc al
Ġà¸ķà¸Ńà¸Ļà¹ģà¸£à¸ģ à¸Ħ
Ġà¹Ģà¸ŀà¸£à¸²à¸° à¸Ľ
à¸ĵ à¹Ģà¸Ī
à¸²à¸ĩà¹Ħà¸£ à¹Ħà¸Ķ
c an
à¸Ńà¸Ļ à¹ĥà¸Ħà¸£
Ġà¹Ĥà¸Ľà¸£ à¸Ķ
à¹Ħà¸Ľ à¹Ģà¸ª
à¸ļà¸Ĺ à¸§à¸Ļ
b le
Ġà¸ŀà¸Ń à¹Ģà¸«
à¸Ļà¹Ħà¸Ľ à¹ĥà¸«
Ġà¹Ģà¸£à¸² à¹Ģà¸Ĭ
à¸§ à¸¡à¸²à¸ģà¹Ĩ
à¸Ńà¸ĩà¸Ĺà¸²à¸ĩ à¸ķ
Ġ2 99
Ġà¸¢ à¸²à¸¡
olog y
à¹Ĥà¸£ à¸ļ
Ġà¸Ļà¸²à¸¢ à¸ģà¸£
à¸ĩ à¸ķà¸£à¸ĩ
à¸ĩà¸ª à¸Ńà¸ĩà¸Ĥ
à¸ķà¸§ à¹ģà¸ŀà¸Ĺà¸¢
à¸Ńà¸ĩ à¹Ħà¸£
u it
à¸Ĺà¸ĺ à¸¨à¸²à¸ªà¸Ļà¸²
00 00
à¸Ħà¸Ļ à¸Ľ
à¸ģà¸©à¸²à¸ŀ à¸¢à¸²à¸ļà¸²à¸¥
Ġà¸« à¸²à¸Ĺ
ce pt
3 000
Ġà¸Ń à¸²à¸ļà¸Ļ
à¸¢à¸¡ à¸ŀà¸£
Ġmo on
à¸²à¸«à¸Ļ à¸²à¸§
Ġoff icial
Ġà¹Ģà¸Ł à¸ª
à¸Ń à¹Ĥà¸Ĺà¸£
à¸Ļà¸ģ à¸°
st ick
à¸¢à¸ĩ à¹Ħà¸§
à¸£à¹Ĥà¸Ĺà¸© à¸ģà¸£à¸£à¸¡
um p
à¸łà¸²à¸ŀ à¸£
v c
Ġ5 99
Ġà¸Ī à¸Ńà¸¡
à¸Ļ à¸¡à¸²à¸Ĭ
à¸²à¸ģ à¸ª
à¸Ļà¹ģà¸£ à¸ĩà¸¡à¸²à¸ģ
à¸Ń à¸¥à¸°
à¸£à¸²à¸Ĭ à¸²
Ġà¸Ńà¸Ńà¸ģ à¹Ģà¸Ķ
à¸Ľà¸¥ à¸²à¸Ĺ
à¸ģà¸© à¸²à¹ĥà¸«
Ġà¹Ģà¸Ħà¸¢ à¹Ģà¸«
à¸¢ à¹Ģà¸Ĭ
à¸Ńà¸Ļ à¹Ĥà¸¢à¸Ļ
à¹ģà¸¥à¸° à¹Ģà¸Ķ
à¸ģà¸©à¸ĵà¸° à¹Ģà¸Ľ
Ġn ak
à¸Ńà¸ļ à¸ŀà¸£à¸°à¸Ħ
à¸£à¸ĸ à¹Ģà¸Ĥ
à¸Ķà¸Ńà¸°à¹Ħà¸£ à¸Ńà¸¢
à¸ģà¹Ģà¸Ĥ à¸²à¸¡à¸²à¸ģ
à¸² à¹ĥà¸Ķ
à¸²à¹Ħà¸ĩ à¹Ħà¸Ķ
à¸Ĺà¸ĺ à¸¨à¸²à¸ªà¸ķà¸£
à¸Ńà¸ĩà¸£ à¸Ńà¹ĥà¸«
Ġeng ine
à¸ĩ à¹Ħà¸¥
à¸¥ à¸Ī
à¸ļà¸Ńà¸ģ à¹ģà¸¡
Ġà¸Ľ à¸ķà¸Ĺ
à¸ĩà¸Ń à¸²à¸£à¸¡à¸ĵ
à¸²à¹Ħà¸ĩ à¸ķ
ic an
à¸Ļ à¸łà¸²à¸©à¸²à¹Ħà¸Ĺà¸¢
à¸Ń à¸£à¸°à¸ļà¸ļ
Ġà¹Ģà¸ŀà¸£à¸²à¸° à¸ļ
Ġà¹Ģà¸¥à¸¢ à¸¢
Ġà¹Ħà¸Ľ à¹Ģà¸¥à¸¢
Ġà¹ģ à¸ŀà¸£
Ġà¹Ģà¸Ĺ à¸Ńà¸¡
à¸¡à¸Ķ à¸¥
à¸ģ à¹ģà¸Ĥ
à¸ģà¸²à¸£ à¸Ŀ
à¹Ģà¸ŀ à¸£
à¸²à¸Ļ à¹ĥà¸«à¸į
aguch iko
Ġà¸Ķ à¸²à¸§à¸Ļ
à¸ĩ à¸ļà¸Ńà¸¥
à¹Ģà¸Ńà¸ĩ à¸Ķ
à¸²à¸ĩà¸²à¸Ļ à¸ª
à¸ķ à¹ģà¸ļà¸ļ
à¸ķ à¸«à¸¥
à¸Ļ à¹ģà¸Łà¸Ļà¸Ħà¸¥
à¸²à¸ķà¸Ńà¸ļ à¸ģà¸¥
f ir
à¸ªà¸²à¸£ à¸ªà¸Ļà¹Ģà¸Ĺà¸¨
à¸Ńà¸ĩ à¸ªà¸£
à¸²à¸Ńà¸Ńà¸ģ à¹Ħà¸Ľ
Ġcop y
u j
à¹ģà¸Ńà¸¥ à¸ģà¸Ńà¸®à¸Ńà¸¥
à¸¢à¸ĩ à¹Ģà¸«à¸Ļ
us s
à¸²à¸Ļ à¸ªà¸°à¸Ķà¸§à¸ģ
à¹Ģà¸Ńà¸ĩ à¸§
à¸Ķ à¸ķà¸£à¸ĩà¸Ĺ
à¸ĩà¸Ľ à¸ı
à¸¡à¸² à¹ģà¸Ħ
Ġà¸£à¸²à¸¢ à¹Ģà¸Ķ
à¹Ģà¸Ń à¸²à¸ļ
Ġl ab
à¸Ļà¹Ģà¸Ī à¸Ńà¸£
à¸Ħ à¸Ľ
à¸ģ à¹Ģà¸§
Ġà¸¥ à¸Ńà¸ĩà¸Ĺ
à¸Ļà¹Ĩ à¸Ńà¸¢
à¸Ļ à¹Ĥà¸Ħà¸£à¸ĩà¸ģà¸²à¸£
à¸Ńà¸²à¸«à¸²à¸£ à¸Ŀà¸£
à¸ļ à¸Ŀà¸²à¸ģ
à¸Ľ à¹Ħà¸§
à¸Īà¸° à¹Ģà¸Ĺ
à¸²à¸ĸà¸²à¸¡ à¸Ħà¸£
à¸²à¸Ħ à¸²
à¸ł à¸²à¸§à¸Ļ
à¸¢à¸Ļ à¹ģà¸ķ
Ġà¹ĥà¸Ļ à¸ĩà¸²à¸Ļ
à¸į à¸«à¸Ļ
Ġà¹Ģà¸Ĥ à¸²à¹Ģà¸£
Ġà¸¥ à¸Ńà¸ĩà¸«
iy a
à¸ĸà¸²à¸¡ à¸Ĭ
Ġso und
à¸Ńà¸¡ à¸Ńà¸²à¸«à¸²à¸£à¹Ģà¸Ĭ
à¸ĩà¹Ĩ à¸Ńà¸¢
à¸¡à¹Ģà¸«à¸¥ à¸§
p ress
Ġs ign
Ġà¹Ģà¸Ĥ à¸²à¹Ģà¸¥à¸¢
à¸ĩà¸²à¸Ļ à¸Īà¸£
à¸«à¸§ à¸²à¸Ķ
à¸ļà¸Ħà¸§à¸²à¸¡ à¸Īà¸£
à¸Īà¸²à¸ģ à¹Ģà¸Ķ
à¸ĩà¸Ĥà¸Ńà¸ĩ à¸ķ
à¸Ļà¸ķà¸£ à¸ĩà¸Ļ
à¸Ļà¸Ĺ à¸²
Ġà¸ķ à¸²à¸£à¸²à¸ĩ
à¸Ļ à¹Ĥà¸¥à¸ģ
à¸ģ à¹Ģà¸ĭ
à¸£à¸²à¸Ĭ à¸Ńà¸²à¸ĵà¸²à¸Ī
à¸¡ à¹ģà¸¢
Ġ ................................
à¸¡ à¸ŀà¸£à¸°
à¸²à¹ģà¸¥à¸° à¸¡
Ġà¸«à¸¡ à¸§à¸ģ
à¸¢à¸§ à¹Ħà¸Ľ
à¹Ģà¸£à¸²à¸Īà¸° à¸¡
à¸Ķ à¸ķà¸£
à¸Ĥà¸²à¸¢ à¸«
à¸Ļ à¸²à¸ĸ
à¹ĥà¸Ļ à¹Ģà¸Łà¸ªà¸ļ
à¹ĥà¸Ļ à¸Ĥà¸ĵà¸°à¸Ĺ
à¸²à¸Ĥà¸Ńà¸ĩ à¸ľ
à¸¥à¸° à¸ļ
Ġà¸ģ à¸£à¸Ńà¸ļ
Ġà¹Ģà¸£à¸²à¸Īà¸° à¸ķ
à¸Ńà¸Ļ à¸Ħà¸¥
à¸¡à¸²à¸ģ à¸Ķ
à¸ĩ à¸£à¸°à¸«à¸§
à¸¢ à¹Ģà¸Ĺà¸Ħà¹Ĥà¸Ļà¹Ĥà¸¥à¸¢
Ġà¹Ģà¸ŀà¸£à¸²à¸° à¹Ģà¸Ķ
à¸Ķ à¸Ľà¸£à¸°à¸Ĭ
à¹Ī ....
à¹Ĥà¸£ à¸Īà¸Ļ
à¹Ģà¸£ à¸²à¸¡à¸²
à¸§à¹Ħà¸Ľ à¹ģà¸¥
à¸Ńà¸ĩ à¹ģà¸¡à¸§
à¸¡à¸² à¹Ģà¸¢à¸Ńà¸°
à¸ļà¸£ à¸§à¸¡
à¸²à¹Ħà¸Ľ à¹Ģà¸¥à¸¢
à¸Ļà¸ģà¸£à¸° à¹ģà¸ª
à¸Ńà¸ĩà¸ģà¸²à¸£ à¸¢
à¸Ľ à¸ľ
Ġà¸ªà¸łà¸²à¸ŀ à¹ĥà¸«à¸¡
à¸²à¸ĸà¸²à¸¡ à¸ģ
à¸ĩà¹Ħà¸ĩ à¸Ń
à¸§ à¹Ĥà¸ķ
à¸ļà¸Ńà¸ģ à¸Ĭ
à¸ĩà¸Ļ à¸²à¸Ļà¹ģà¸¥
à¸²à¸ģ à¸£à¸¡
à¸ģ à¸«à¸¥à¸²à¸¢à¹Ĩ
à¸ģà¸Ľ à¸²à¸ģ
ut ion
Ġà¸£à¸ĸ à¸Ĺ
Ġà¸Ķ à¸Ńà¸ģà¹Ħà¸¡
à¸Ļà¸Ī à¸Ļà¸ĸ
à¸Ń à¹Ĥà¸Ļ
à¸¡à¸²à¸ ł
à¸Ńà¸Ļ à¹Ģà¸ĭ
Ġv at
Ġà¸ļà¸²à¸ĩ à¸ķ
Ġà¸Ńà¸¢à¸²à¸ģ à¸ĸà¸²à¸¡
à¸¡à¸²à¸ģ à¹Ħà¸¡
à¸ģà¸£à¸° à¸ŀà¸£
Ġà¸ģà¸²à¸£ à¸ļà¸£
à¸²à¸¡ à¸²à¸ķà¸¥à¸Ńà¸Ķ
Ġl v
à¹ĥà¸« à¸Ļ
à¹ĥà¸Ļ à¸£à¸²à¸¢à¸ģà¸²à¸£
Ġà¹Ģà¸£ à¸²à¸Ńà¸²à¸¢
à¸ģà¸£à¸° à¹ģà¸Ĺ
à¸Ĥà¸²à¸¢ à¹Ħà¸¡
à¸Ļà¸Īà¸° à¹Ģà¸Ĥ
p ink
à¸² à¹Ħà¸¥
à¸§ à¸ķà¸²à¸¡
à¸Ńà¸Ļ à¸Ħà¸¥à¸²à¸¢
Ġà¸£à¸²à¸Ħ à¸²à¸ª
à¸²à¹Ģà¸£ à¸²à¸ª
à¸²à¸²à¸²à¸² à¸²à¸²
à¸Ħ à¸¡à¸Ļà¸²à¸Ħà¸¡
à¸ĩà¸ª à¸Ńà¸ĩà¸Ĺ
à¸¢ à¹ģà¸ļà¸ļà¸Ļ
à¸ģà¸İà¸«à¸¡à¸²à¸¢ à¸ģà¸²à¸£à¹Ģà¸¡
à¸² à¹Ģà¹Ģà¸¥
à¸£à¸²à¸Ħ à¸²à¹ģà¸ŀ
à¹Ģà¸ªà¸¡ à¸Ńà¸§
Ġà¹ģ à¸ģà¸ģ
Ġk l
à¸Ļà¸ł à¸²à¸£à¸°
io us
à¹Ģ à¹Ģà¸ª
à¸ķà¸Ńà¸Ļ à¹Ģà¸£
Ġà¹Ĥà¸Ħà¸¥ à¸Ļà¸«à¸¡
à¸ĩà¸§à¸¥ à¹Ģà¸£
à¸Ļ à¹Ģà¸¥à¸Ĥ
à¹ģà¸ĸà¸¥à¸ĩ à¸Ĥ
Ġà¸Ľ à¸²à¸£
Ġd c
à¸ģà¸£à¸£à¸¡ à¸ģà¸²à¸£à¸ģ
à¹Ģà¸ĺ à¸Ńà¸ģà¸¥
Ġj azz
à¸²à¸«à¸¥ à¸§à¸ĩ
Ġà¸« à¸²à¸£
Ġvers ion
à¸Īà¸° à¹Ħà¸Ľà¸Ķ
à¹Ģà¸Ĥ à¸²à¸¥
à¸µà¹Ī ...
à¸ļà¸Ļ à¸ĸà¸Ļà¸Ļ
Ġà¸Īà¸²à¸ģ à¸Ħ
à¸²à¸Ļ à¸ªà¸¡
à¸«à¸¡ à¸Ńà¸Ĭ
à¸ĩà¸£à¸ĸ à¸ķ
Ġ ********
à¸²à¸Īà¸²à¸ģ à¸ľ
à¸Ļà¸ģà¸£à¸° à¸Ī
_ -
à¸Ļà¸Ļ à¸Ńà¸Ļ
à¸Ħà¸£ à¸ªà¸¡à¸²à¸Ĭ
3 50
à¸ķà¸£ à¸§
à¸Ńà¸ķ à¸ģà¸¥
Ġk r
à¸²à¹ĥà¸Ļ à¸ģà¸£
à¸Ķà¸Ĥ à¸Ļà¸²à¸Ķ
à¸²à¸Ļ à¹Ģà¸Īà¸Ń
Ġà¹Ģà¸Ń à¸ª
h y
Ġà¸Īà¸° à¸Ń
à¸ªà¸²à¸¡ à¸ģ
à¹ĥà¸Ļ à¸ĸ
Ġà¸Īà¸²à¸ģ à¸Ĥ
à¸Ī à¸Ļà¸¡
à¸Ľ à¸£à¸²à¸ªà¸²à¸Ĺ
Ġà¹ĥà¸Ħà¸£ à¸ŀà¸Ńà¸Īà¸°à¸¡
h uawei
Ġà¸« à¸ĩ
à¹ģà¸ªà¸Ķà¸ĩ à¸Ħà¸§à¸²à¸¡à¹Ģà¸«
à¸Ńà¸ļ à¸²à¸ĩ
Ġà¸¡ à¸²à¸Ńà¸¢
à¸Ĥ à¸²à¸ģà¸¥
à¹ģà¸¥à¸° à¸Ħà¸§à¸²à¸¡
à¸ĩà¸£ à¸Ń
à¸Īà¸° à¸Īà¸ļ
Ġà¸ģà¸²à¸£ à¹Ģà¸Ľ
à¸Ļ à¹Ħà¸¥à¸Ļ
à¸²à¸ŀà¸£à¸° à¸Ńà¸ĩà¸Ħ
à¸ĩ à¸Ħà¸§
Ġr ail
Ġà¹Ģà¸ĭ à¸¥à¸¥
à¹Ĥà¸Ħà¸§ à¸ķ
à¸²à¸¢ à¹ģà¸£à¸ĩ
Ġà¹Ģà¸§à¸¥ à¸²à¸Ħ
Ġpr im
Ġà¹Ĥ à¸ªà¸Ķ
à¸ĩà¸Īà¸²à¸ģ à¸ª
Ġà¹Ģà¸ĺ à¸Ńà¸¡
Ġt f
à¸ļà¸ģà¸²à¸£ à¹Ģà¸Ľ
Ġà¸ľà¸¡ à¸ªà¸ĩà¸ª
à¸Ļà¸Ĥ à¸§
à¹ģà¸Ļ à¸Ļà¸Ĺ
à¸Ľ à¸£à¸²à¸¨
à¹ģà¸¥à¸° à¹ĥà¸Ĭ
à¸Ńà¸Ńà¸ģ à¸Ļà¸Ńà¸ģ
à¸ĩà¹Ħà¸Ľ à¹ĥà¸«
à¸Ľà¸£à¸°à¹Ĥà¸¢ à¸Ħà¸Ļ
à¸¢ à¹Ĩà¸ģ
à¸²à¸Ļ à¸Īà¸°
h l
à¸¥ à¸Ńà¸ĩà¸ª
à¸ĵ à¸ªà¸¡à¸²à¸Ĭ
Ġp ale
à¸Ķà¸ģà¸²à¸£ à¹Ģà¸£
à¸Ħà¸Ļ à¹Ħà¸Ķ
à¸ĩà¸ŀ à¸Ńà¸¡
à¸²à¸Ļà¸Ńà¸²à¸«à¸²à¸£ à¸Ĺ
Ġà¹ĥà¸Ļ à¸Ħ
à¸ŀà¸Ń à¸Ħà¸§à¸£
à¸ªà¸²à¸Ĥ à¸²à¸Ĺ
à¹Ģ à¸Ńà¸£
k a
à¸¡à¸² à¹Ĥà¸Ķà¸¢à¸ķà¸¥à¸Ńà¸Ķ
Ġsing le
à¸Ħà¸Ļ à¸¢
t or
Ġhd mi
Ġp al
à¸Ńà¸ļ à¸Ķ
à¸Ńà¸¢à¸²à¸ģ à¸£à¸°à¸ļà¸²à¸¢
à¸Ńà¸ģ à¸£à¸°à¹Ģà¸Ľ
à¸²à¸ķ à¸²à¸£
à¹Ģà¸¥à¸¢ à¸ŀ
Ġa ward
à¸Ńà¸ĩ à¸Ľà¸ı
à¸ľà¸¥ à¸Ĥ
à¸Ķ à¹Ģà¸ģà¸¡
à¸ļà¸Ļ à¸«à¸Ļ
Ġ0 5
à¸ľà¸¥ à¸Ħ
à¸²à¸Ńà¸²à¸Ī à¸²à¸£à¸¢
Ġà¹Ģà¸Ħ à¸¢à¸Ĺ
à¸ªà¸Ļà¹ĥà¸Ī à¹Ģà¸£
Ġw est
à¹Ģà¸Ń à¸²à¸ĭ
à¹Ģà¸ĺ à¸Ńà¸Ń
à¸ļ à¸Ńà¸²à¸«à¸²à¸£
Ġfo und
à¸ŀà¸£à¸° à¸Ļà¸²à¸ĩ
à¹Ĥà¸Ľà¸£ à¹Ħà¸Łà¸¥
à¸ĩ à¸ģà¸£à¸ĵ
à¸Ħà¸Ļ à¸ģà¸¥
Ġin s
h appy
us a
à¸ĩà¸ģà¸¤à¸© à¹Ħà¸Ķ
à¸ĩà¸ģà¸¤à¸© à¸ģ
à¹Ģà¸īà¸ŀà¸²à¸° à¸ķ
à¸įà¸į à¸²à¸Ń
à¸ļ à¹Ħà¸Ł
à¸Ńà¸ĩà¹Ħà¸Ľ à¸ģ
à¸ģ à¹ģà¸Ĭà¸Ĺ
à¸« à¸²à¸ĩ
à¹Ħà¸¡ à¹Ĥà¸Ħà¸£
à¸²à¸§ à¹Ĥà¸ŀ
à¸Ĭà¸²à¸§ à¸Ī
à¸Ĥà¸Ńà¸ĩ à¸Ĺà¸²à¸ĩ
à¹Ģà¸¥à¸¢ à¹ģà¸ķ
à¸ķà¸¥à¸Ńà¸Ķ à¹Ħà¸Ľ
à¸Ľ à¸²à¸Ķ
à¹Ģà¸Ĺ à¸§
à¸Ķà¸ª à¸²à¸¢
à¹ģà¸Ńà¸ļà¸Ĭà¸Ńà¸ļ à¹Ģà¸ŀ
Ġà¹Ģà¸ª à¸Ļà¸Ń
à¹Ħà¸ĩ à¸Ķ
à¸²à¸Ħà¸£ à¸Ńà¸ĩà¸Ĭ
à¸Ļ à¸«à¸¥à¸²à¸¢à¹Ĩ
à¸Ńà¸Ńà¸°à¹Ħà¸£ à¸Ķ
Ġà¸Ńà¸¢à¸²à¸ģ à¸ģ
à¹ģà¸¥à¸° à¸ģà¸²à¸£
Ġro ad
Ġà¸¡ à¸²à¸Ĥ
Ġk bank
à¸Ī à¸²à¸£
Ġà¸Ĥà¸Ńà¸ĩ à¹Ģà¸¥
p ay
Ġi r
à¸ĩà¸Īà¸²à¸ģ à¸ķ
g l
à¸²à¸¡ à¸²à¸¥
à¸²à¹Ģà¸¥ à¸Ļà¸ª
à¸Ĥà¸Ļà¸¡ à¸Ľ
à¸§à¸ķ à¸¥à¸Ńà¸Ķ
à¸¡à¸²à¸ģ à¹Ĩà¹Ĩ
Ġà¹Ģà¸£à¸²à¸ª à¸Ńà¸ĩà¸Ħà¸Ļ
à¸²à¸Ĭ à¸§à¸Ļ
à¸¢à¸Ļ à¹Ģà¸ļà¸Ńà¸£
à¸Īà¸°à¹Ħà¸Ľ à¸£
Ġn t
à¸²à¹Ħà¸¡ à¸ŀ
à¸Ķ à¹Ħà¸Ľà¸Ĺ
à¸²à¸Īà¸° à¹Ħà¸Ľà¹Ģà¸Ĺ
à¸ļà¸Ļ à¹Ģà¸§à¸Ĺ
à¸ģ à¹Ĥà¸ķ
à¸²à¸ĩ à¹Ģà¸ľ
Ġà¹ĥà¸Ļ à¹ģà¸ķ
Ġg reen
Ġâľ Ķ
à¸ģà¹Ģà¸ģ à¸ĵà¸ĳ
Ġg ap
//////// ////////
à¸ĩ à¹Ģà¹Ģà¸¥
og r
à¹ģà¸ľà¸¥ à¹Ģà¸Ľ
à¸Ĭ à¸Ķà¸²
à¸²à¸ĩ à¹Ģà¸Ī
Ġà¸Ī à¸Ļà¸¥
à¸Ļà¸¡à¸² à¹ĥà¸«à¸¡
à¸²à¹Ĥ à¸«à¸¡
à¹Ĥà¸¡ à¸£
à¸Ńà¸Ħà¸§à¸²à¸¡ à¸Ļ
Ġà¸£ à¸ª
Ġà¹Ģà¸Ħà¸¢ à¹Ģà¸Ľ
à¸²à¸Ļ à¹Ħà¸§
à¹ģà¸¥ à¸Ļ
à¸²à¹Ħà¸¡ à¸Ļ
à¸Ĭà¸Ńà¸ļ à¹Ģà¸ŀ
à¸ŀà¸¢ à¸²à¸¡
à¸ĩà¸Ħ à¸²
à¸²à¸ĸ à¸Ļà¸Ļ
à¸¥ à¸ķà¸£
à¹Ĥà¸Ħà¸£ à¸ķ
à¹Ĥà¸¡ à¸Ļ
à¸ļà¸Ńà¸ģ à¸ķà¸£à¸ĩà¹Ĩ
itt le
Ġaf ter
à¸ĩ à¸«à¸²à¸¢
à¸²à¸£ à¸§à¸¢
à¸§à¸¡ à¸ª
Ġnex us
à¸²à¸Ńà¸°à¹Ħà¸£ à¸Ħà¸£
à¸ļà¸£à¸ĸ à¸¢à¸Ļà¸ķ
Ġpro ject
Ġà¹Ĥà¸Ħ à¸ķà¸£
Ġp et
à¸ģ à¸¡à¸²à¸ģà¸ģà¸§
à¸Ļà¸Īà¸° à¸ĸ
à¹Ĩ à¹Ħà¸Ķ
à¸¢à¸Ļ à¸Ĥà¸Ńà¸ĩ
à¸ĩà¹Ħà¸ĩ à¹ģà¸¥
à¸ļà¸Ńà¸ģ à¹Ģà¸¥à¸¢à¸§
à¸ĩà¹Ħà¸ĩ à¸§
à¸ĩà¹Ģà¸£ à¸²à¸Ĺ
à¸«à¸¥à¸§à¸ĩ à¸Ľ
à¸ĩà¸£à¸ĸ à¹Ģà¸¡à¸¥
à¸²à¸« à¸Ńà¸ŀ
Ġ200 7
à¹ĥà¸Ļ à¸ľ
à¸£à¸© à¸²
à¹Ĥ à¸Ńà¸Ķ
ol a
à¸²à¸ĩà¸²à¸Ļ à¸Ń
à¸ļà¸Ħà¸§à¸²à¸¡ à¹Ģà¸ª
à¸Ķ à¸Ĥà¸²à¸¢
à¸Ķ à¹Ĩà¹Ĩ
à¸Ńà¸ĩ à¸ŀà¸¢à¸²à¸¢à¸²à¸¡
à¸§à¹Ģà¸Ńà¸ĩ à¸Ļ
à¹Ĥà¸¡ à¹Ĥ
à¸² à¹Ĥà¸£à¸ĩà¹ģà¸£à¸¡
à¹ĥà¸Ļ à¸ªà¸Ļà¸²à¸¡
à¸Ńà¸Ļà¹Ĩ à¸«à¸Ļ
à¸§à¸ĩ à¹Ģà¸Ľ
à¸²à¸Ľà¸£à¸° à¹Ģà¸¡
à¹Ĥà¸£à¸ĩ à¸ŀ
à¸ĩà¸¡ à¸Ńà¸ĩà¸«
à¸Ķ à¸Ľà¸£à¸°à¸Ī
à¸Ńà¸£ à¸«
Ġà¸ªà¸²à¸Ĥ à¸²à¸Ļà¸Ħà¸£
m r
Ġà¸ª à¸ķà¸²à¸£
à¸¢ à¸£à¸ĸà¸¢à¸Ļà¸ķ
à¸ŀà¸Ń à¹Ģà¸ŀ
à¹ģà¸ĸ à¸ļ
Ġà¸ļà¸Ńà¸ģ à¹Ħà¸¡
à¸² à¹Ģà¸Ńà¸²à¸¡
à¹Ģà¸ģ à¸¡à¸Ļ
à¸ĩà¹Ģà¸ģ à¸¥
Ġà¸£à¸ļà¸ģà¸§à¸Ļ à¸ŀ
à¸²à¸Ħ à¸Ļà¸£
Ġà¹Ħà¸Ľ à¹Ħà¸Ķ
Ġà¹ĥà¸Ħà¸£ à¹Ħà¸¡
à¹Ģà¸¨à¸© à¸ª
à¸Ńà¸ĩà¸ķ à¸¥à¸Ńà¸Ķ
Ġcolle ction
buck s
à¸ŀ à¸Ńà¸¢
à¸ĩà¸ľà¸¥ à¸ķ
Ġf act
Ġl imited
à¸Ļà¸¡à¸²à¸ģ à¸Ĺ
Ġ à¸Ľà¸£à¸°à¸Ĭ
à¸Ńà¸Ńà¸ģ à¹Ģà¸¥à¸¢
à¸Ńà¸ģ à¹Ĥà¸ģ
à¸²à¸Ńà¸¢à¸²à¸ģ à¸£
Ġo ur
à¸ĵ à¸ļ
Ġst ud
à¸ªà¸Ńà¸ĩ à¸Ĭ
à¸§à¸£à¸£à¸ĵ à¸ģà¸£à¸£à¸¡
à¸£à¸²à¸ļ à¸£
à¸§ à¸Ńà¸°
à¸ķà¸£à¸§à¸Īà¸ªà¸Ńà¸ļ à¹ĥà¸«
à¸Ļ à¹Ģà¸®
à¹Ģà¸Ħ à¸²à¹Ģà¸ķà¸Ńà¸£
à¸ģ à¸Īà¸°à¹Ħà¸¡
à¸Ĥà¸¢à¸²à¸¢ à¸ķ
à¸¢à¹ģà¸Ħ à¸¡à¹Ģà¸Ľà¸į
à¸¢à¸Ļ à¹Ģà¸ģà¸¡à¸ª
à¸¥ à¸Ńà¸ĩà¸ģ
à¹ģà¸ķ à¸°
à¸²à¸ĩ à¹Ģà¸£à¸²à¸ģ
à¸ĩà¸ŀ à¸Ļ
à¸§ à¹Ģà¸Īà¸Ń
Ġà¹ģà¸¥à¸° à¹Ģà¸Ļ
m as
Ġk yot
à¹Ģà¸© à¸ģ
el f
à¸ĩà¹Ħ à¸«à¸¥
Ġmaz da
à¸¡à¸²à¸ ī
à¸Ļà¸¡ à¸²à¸«
à¸ĩà¸ķ à¸¥à¸²à¸Ķ
Ġà¸Ĭà¸²à¸§ à¸ŀ
à¸ŀ à¸¤à¸ģà¸©
Ġà¸Ĥà¸Ńà¸ĩ à¹Ħà¸Ĺà¸¢
Ġà¹ĥà¸Ļ à¸ķà¸Ńà¸Ļà¸Ļ
à¸ļ à¸§à¸ĩ
à¸² à¹Ģà¸®
Ġà¹Ģà¸Ĥ à¸²à¸ŀ
à¸ģ à¸ļà¸²à¸Ĺ
à¸Ńà¸Ķ à¸Ķ
à¸²à¸ķà¸£ à¸ĩà¸Ļ
ur al
à¹ĥà¸Ļà¸ģà¸²à¸£ à¹Ģà¸£
à¹Ģà¸Ĭ à¸Ńà¸£
Ġà¹Ģà¸¥à¸¢ à¹Ģà¸¥
à¸ļà¸¡ à¸²à¸¢
Ġc ool
à¸¢à¸Ķ à¸Ĥà¸Ńà¸ĩ
à¸Ĭà¸²à¸¢ à¸¡
à¸Ļ à¹Ĥà¸Ĭà¸§
à¹Ģà¸Ķ à¸£à¸ª
à¸Īà¸° à¹Ģà¸Ļ
Ġbl ush
à¸ĩà¹Ĩ à¸Ķ
2 30
à¸Ńà¸ĩ à¸ĸà¸²à¸¡
à¸ļà¸Ļ à¹Ģà¸Ħà¸£
à¸²à¹ĥà¸Ħà¸£ à¹Ģà¸Ľ
à¸ŀà¸ļ à¹Ģà¸«
Ġbus iness
à¸Ļà¸Ľ à¸²à¸ģ
à¸ª à¸Ńà¸ĩà¸Ħ
à¸Ļ à¸įà¸²à¸ķ
à¸Ķ à¹Ģà¸ŀà¸¥
Ġà¹ģ à¸ģà¸¥
à¸Ļà¹Ģà¸Ńà¸ĩ à¸Ħ
à¸Ńà¸Ķ à¹Ħà¸¡
à¸Ļà¸¢ à¸²à¸¢
m iss
à¸Ħ à¸²à¸ļ
à¸įà¸« à¸²à¸Ń
à¸²à¸ĩ à¸¥à¸ĩ
à¸¢à¸ĩ à¸Ľ
à¸²à¹Ħà¸£ à¸ª
Ġà¹Ħ à¸ª
à¹Ģà¸Ľà¸£ à¸¢
?? "
Ġkyot o
Ġ ì
à¸ĩà¸ģà¸¤à¸© à¸Ĺ
à¸Ķà¸Ĭ à¸¥à¸ļ
Ġà¹Ģà¸¡à¸© à¸²
Ġà¸ªà¸§à¸¢ à¹Ĩ
à¸¥à¸° à¸Ľ
à¸¢à¸Ķ à¹Ģà¸£
Ġ ang
à¸¡à¸²à¸ķà¸£ à¸§à¸Ī
à¸¢à¸Ļ à¹Ģà¸ª
à¸Ńà¸Ńà¸ģ à¸£à¸ĸ
à¹Ĥà¸Ľà¸£à¹Ģà¸Ī à¸Ħ
à¸¢à¸Ļ à¸ģà¸£à¸°à¸Ĺ
iver pool
Ġe os
à¸Īà¸° à¸«à¸Ļ
à¸²à¸Ļà¸¡ à¸²à¸Ĺ
à¸Ī à¸ŀ
à¸²à¸§ à¹Ģà¸Ĭ
à¸Ħà¸° à¸Ĥà¸Ńà¸ļà¸Ħ
à¸Ńà¸ĩà¸Ħ à¸Ńà¸¢
à¸ļà¸Ļ à¸²à¸ĩà¹Ģà¸Ńà¸ģ
à¸Ńà¸ĩà¹Ħà¸Ľ à¹Ģà¸Ľ
Ġwh at
à¹Ģà¸§à¸¥ à¸²à¸ĸ
Ġà¹Ģà¸ŀà¸£à¸²à¸° à¸Ī
Ġl ist
Ġà¹Ħà¸Ľ à¸Ńà¸¢
à¸Ļà¸ģà¸²à¸£ à¹Ģà¸£
Ġà¸ĩ à¸ĩà¹Ĩ
à¹ģà¸£ à¸¡
à¸¥ à¸¡à¸²
at ure
à¸ĩ à¸Ńà¸¢à¸²à¸ģà¹Ħà¸Ķ
à¸Ńà¸ŀ à¸Ļ
Ġà¸ŀ à¸²à¸£
à¸ĺà¸Ļà¸²à¸Ħà¸²à¸£ à¹Ħà¸Ĺà¸¢à¸ŀà¸²à¸ĵ
Ġsh ut
Ġà¸Ĭ à¸²à¸¢à¸«à¸Ļ
v id
à¸Ķ à¹Ĥ
Ġf ood
à¸ĩà¹ģà¸£à¸ģ à¸Ħ
à¸ĩ à¹ģà¸ª
à¹Ħà¸«à¸Ļ à¸ķ
à¸Ļà¸Ĺà¸²à¸ĩ à¸Ħà¸£
à¸¢à¸Ļ à¹Ģà¸¥à¸¢
à¸²à¸Ńà¸²à¸Ī à¸Īà¸°à¹Ħà¸¡
à¸Ńà¹Ħà¸Ľ à¸§
à¸Ľà¸£à¸°à¸ģà¸²à¸¨ à¸§
f ox
ip h
à¹Ģà¸ Ĵ
à¸²à¸Ļà¸ªà¸°à¸Ķà¸§à¸ģ à¸ĭ
s w
à¸Ħà¸Ļ à¸ĸ
à¹ģà¸¥à¸° à¹Ģà¸¥
Ġfr iend
à¸¥à¸° à¸¥
Ġà¹ģ à¸Ńà¸Ľ
Ġà¹ģà¸ªà¸Ļ à¸¥
à¹Ģà¸§à¸¥ à¸²à¸Ĥ
à¸ļà¸Ļ à¸²à¸¢
à¸Ńà¸ĩà¸ģà¸²à¸£ à¸Ķ
à¸Ļ à¹Ĥà¸Ķà¸¢à¹Ħà¸¡
Ġj o
Ġplay er
à¸Ńà¸Ļ à¹ģà¸Łà¸Ļ
à¹Ħà¸ģà¸¥ à¸¡à¸²à¸ģ
à¸ģ à¸ģà¸£
à¸¢à¸ĩ à¸Ħà¸Ļà¹Ģà¸Ķ
Ġv ict
à¸Ńà¸Ļ à¸ªà¸²à¸§
Ġà¸ķ à¸¥à¸ģ
Ġ24 0
à¸Ńà¸ĩ à¸®
à¸ļà¸¡à¸² à¹Ģà¸£
à¸Ń à¹Ģà¸¢à¸Ńà¸°
à¸ĩ à¹ģà¸Łà¸Ļà¹Ģà¸ģ
à¹Ĥà¸Ķ à¸Ļà¸Ħ
à¸Ļà¸Ĺà¸²à¸ĩ à¹Ģà¸¥
à¸ļà¹Ģà¸£ à¸²à¸Ħ
à¸Ķà¸§à¸ĩ à¹ĥà¸Ī
à¸²à¸ģà¸²à¸£ à¸Ħ
Ġtot e
à¸²à¸ľà¸¡ à¸Ħ
à¸²à¸Ļ à¸ģà¸§
à¸Ĭà¸²à¸¢ à¹Ħà¸¡
à¸Ħ à¸Ĥ
à¹Ĥà¸§à¸¢à¸§ à¸²à¸¢
à¸Ļ à¸¡à¸²à¸Ľ
Ġà¸¡ à¸¡
à¹Ģà¸£à¸²à¸Īà¸° à¸£
Ġbo y
à¸²à¸Īà¸° à¹Ģà¸ª
à¸Ń à¹Ħà¸ĭà¸Ħ
à¸ģà¸²à¸£ à¹Ģà¸ª
Ġà¸ªà¸° à¸Ńà¸²à¸Ķ
à¹ĥà¸Ļ à¸Ħà¸§à¸²à¸¡à¸£
à¹ģà¸£ à¸ĩà¸Ĺ
à¹ĥà¸Ļ à¸Ńà¸ĩà¸Ħ
à¸§à¸Ļ à¸«
Ġà¹Ĥà¸Ķ à¸¢à¸§
à¸Ķ à¸Ĭà¸¡à¸§
à¸Ļ à¹Ģà¸Ńà¸ģ
à¸Ńà¸ĩà¸ģà¸²à¸£ à¹Ģà¸£
à¸Ńà¸²à¸Ī à¸ķ
à¹ģà¸Ńà¸ļ à¸Ķ
à¸ļà¹ģà¸Łà¸Ļ à¸¡à¸²
à¸§à¸¡ à¹ģà¸Ĥ
à¸Ļ à¹Ħà¸Ń
à¸ĩà¸Īà¸° à¸Ħ
à¸Ńà¸ĩà¸ģà¸²à¸£ à¹Ģà¸Ķ
Ġà¸Ĥà¸Ń à¹ģà¸ļà¸ļ
n issan
ass y
à¹ĥà¸Ļà¸ģà¸²à¸£ à¸ĭ
à¸Ļ à¸Ńà¸°à¸Ħà¸£
Ġà¸ŀà¸Ń à¸ľà¸¡
à¸£à¸Ń à¸Ĭ
à¸Ńà¸Ħà¸§à¸²à¸¡ à¸§
à¸Ķà¹ĥà¸Ļ à¹ĥà¸Īà¸§
à¸Ńà¸°à¹Ħà¸£ à¸£
Ġl aw
à¸ĩ à¸Ńà¸Ńà¸ģà¹Ħà¸Ľ
à¸łà¸²à¸Ħ à¸Ĺ
Ġpro f
à¸Ĭà¸²à¸¢ à¸ķ
à¸Ńà¹Ħà¸Ľ à¸ķ
à¸ģ à¹Ĥ
Ġà¸ķà¸£ à¸ĩà¸Ĺ
Ġt ower
à¸ªà¸Ļ à¸ĺ
Ġdr iver
à¸° à¸ģà¸¥
à¸ª à¸²
à¹Ģà¸Ĥ à¸²à¸Ĥ
à¸Ļ à¹Ĥà¸¥
à¸²à¹Ĥ à¸Ĩà¸©à¸ĵ
Ġl ast
à¸ļà¸¡ à¸²à¸ŀ
à¸Ĥà¸Ńà¸ĩ à¹Ģà¸ª
à¸²à¹Ħ à¸ģ
Ġà¸¡ à¸²à¹Ģà¸ģ
à¸ļà¸ļ à¸Ńà¸ģ
à¸ĩ à¸¡à¸²à¹Ģà¸Ľ
à¸¢ à¹Ģà¸ª
à¸²à¸ļ à¸²à¸ĩà¸Ĺ
à¸Ķà¸¡ à¸²à¸Ĺ
Ġà¹Ģà¸Ħ à¸ª
à¸ĩà¸Ī à¸ļ
er al
à¸²à¹Ħà¸Ľ à¸Ĥ
Ġà¸ķ à¸Ľà¸Ĺ
à¸Ńà¸Ķ à¸Ĥ
à¸²à¹ģà¸ªà¸Ķ à¸ĩà¹Ĥà¸Ķà¸¢
à¸Ī à¸Ļà¸Ļ
à¸ģà¸²à¸£ à¸ķà¸£à¸§à¸Īà¸ªà¸Ńà¸ļ
à¸²à¹Ĥ à¸ĩ
Ġà¸Ńà¸¢à¸²à¸ģ à¸¥à¸Ńà¸ĩ
à¸Ħà¸§à¸£ à¸£
à¹Ģà¸ŀà¸Ĭà¸£ à¸ļ
à¹Ģà¸Ĥ à¸²à¸«
Ġà¸ľà¸¡ à¹Ģà¸ŀ
Ġin n
à¸Ľà¸£à¸°à¸Ĭà¸²à¸Ĭ à¸²à¸ķ
ee p
à¸Ľ à¹Ģà¸Ĺ
à¸²à¸ĩ à¸Ĥà¸§
Ġte am
à¸§à¹ģà¸Ĺ à¸Ļà¸Ī
à¹Ģà¸ĺà¸Ń à¸Ńà¸¢
à¸ģà¸²à¸£à¸Ĺ à¸«à¸²à¸£
à¸ĩ à¹Ĥà¸Ķà¸Ļ
Ġ å
à¸Ļà¸Ķ à¸²à¸§
à¸Ķà¸ķà¸²à¸¡ à¸ģ
à¸Ļà¸Ĺà¸²à¸ĩ à¸ª
à¸²à¸¡à¸² à¹Ģà¸ŀ
à¸¡ à¹Ģà¸Ī
à¸ļ à¹ģ
à¸¢à¸Ļ à¹Ģà¸Ķ
à¹ģà¸ļà¸ļ à¸ľ
à¹Ĥà¸Ńà¹Ģà¸Ħ à¸ģ
à¸Ļà¸Ĺà¸²à¸ĩ à¸§
à¹ĥà¸Ļà¸ģà¸²à¸£ à¹ģà¸Ĥ
à¸Ŀà¸²à¸ģ à¸Ĺ
Ġà¸ļà¸Ńà¸ģ à¹Ħà¸Ķ
Ġà¸ģ à¸£à¸²à¸ļ
à¹ģà¸Ķ à¸ĩà¸Ĺ
à¸ĩà¸Ľ à¸²à¸ģ
am i
à¸ŀ à¸Ħ
Ġà¸Ķ à¸£à¸²à¸¡
à¸¡ à¸ģà¸£
Ġc ath
g u
g ar
à¸Ļà¸Ļ à¸Ńà¸ģ
à¸ķà¸²à¸¡ à¸łà¸²à¸ŀ
à¸Ħà¸§à¸£ à¹Ģà¸Ľ
à¸ĩà¸ª à¸Ńà¸ļ
à¸²à¸ļà¸Ńà¸ģ à¹Ģà¸¥
à¸¥à¸Ľ à¸²à¸ģà¸£
à¸« à¸łà¸²à¸ŀ
à¸«à¸¡ à¸§à¸Ķ
à¸ĩà¸ķ à¸°à¸§
à¸« à¸ģ
à¸²à¸Ń à¸Ńà¸Ļà¹Ħà¸¥à¸Ļ
à¸Ļà¹Ģà¸Ńà¸ĩ à¸Ħà¸£
20 18
à¸²à¸¢ à¸£à¸ĸ
à¸Ĺà¸£ à¸£à¸¨
à¸Īà¸²à¸ģ à¸ģà¸¥
Ġà¸£à¸§à¸¡ à¸ģ
s im
à¹ĥà¸Ļ à¸ģà¸£à¸°à¹Ģà¸Ľ
à¸§à¸¢ à¹Ģà¸ŀà¸£à¸²à¸°
à¸ªà¸° à¸ģà¸Ķ
à¸Ļ à¸īà¸²à¸ģ
à¸Ńà¸Ļ à¹Ģà¸£à¸²à¸Ħ
tf ex
Ġpi ece
à¸Ńà¸Ńà¸ģ à¸ĭ
à¸ļà¸Ļ à¹Ĥà¸¥à¸ģ
à¸²à¸ĩà¸²à¸Ļ à¸ļà¸£
à¸Ĥà¸Ńà¸ĩ à¹Ģà¸Ħà¸£
à¸£à¸°à¸ļà¸Ńà¸ļ à¸Ľà¸£à¸°à¸Ĭà¸²à¸ĺ
Ġà¸Ĥ à¸Ńà¹Ģà¸£
à¸ļà¸ģà¸²à¸£ à¸Ħ
à¸¢à¸ĩ à¹ģà¸¥
c ard
à¹ģà¸ĸ à¸§à¸ª
à¸¢ à¹Ĥà¸Ļ
à¸ļ à¸²à¸Ľ
à¸£à¸° à¸Ī
et h
à¸Ĭà¸¡ à¹Ħà¸Ķ
Ġà¹Ģ à¹Ģà¸¡
à¸Ĭ à¸Ħ
à¸Ńà¸¢à¸²à¸ģ à¸«
à¸Ķ à¸łà¸²à¸©à¸²à¸Ń
à¸Ńà¸ĩà¹Ħà¸Ľ à¸¢
à¸²à¸ĩ à¸ªà¸Ļ
à¸Ńà¸ĩà¸Ĭ à¸Ļà¸°à¹Ģà¸¥
à¸£à¸²à¸Ł à¸Ł
. ""
at ive
Ġse a
à¹Ģà¸ģà¸© à¸¡
Ġà¸Ī à¸Ļà¸Ļ
à¸²à¸Ħà¸Ļ à¹Ħà¸Ĺà¸¢
à¸ª à¸ģà¸²à¸£
à¸ķà¸£ à¹ĥà¸«à¸¡
à¸ªà¸²à¸¢ à¸ŀ
à¸Ńà¸Ķ à¸Ń
à¸Ķà¹ĥà¸Ī à¸ģ
Ġà¹Ģà¸§à¸¥ à¸²à¹Ģà¸£
à¸¥à¸° à¸Ń
à¸¢à¸Ļ à¹ģà¸¥à¸°
à¸¥à¸ĩ à¸Ļ
à¸¢à¸ģ à¸£à¸°à¸Ķ
Ġp ot
à¸²à¸ª à¸²à¹Ģà¸«à¸ķ
Ġus d
à¸ģà¸²à¸£ à¸ķà¸£à¸§à¸Ī
à¸²à¸Ĥà¸Ńà¸ĩ à¸ª
à¸²à¸Ĺà¸²à¸ĩ à¸Ķ
à¸ª à¸Ńà¸Ļà¹ĥà¸«
à¸ģà¸ª à¸łà¸²à¸ľ
Ġà¹ģà¸Łà¸Ļ à¸ľà¸¡
à¹Ģà¸Ń à¸¥
Ġà¸Ħà¸§à¸²à¸¡ à¸Ķ
or ia
Ġ200 00
Ġà¸Ī à¸¡
Ġc ash
à¹Ħà¸Ľ à¹Ģà¸Ľà¸¥
1 60
à¸Ħà¸° à¸§
à¹Ĥà¸Ķà¸¢ à¸ķà¸£
Ġ< <<
Ġre g
à¹Ī âĢĿ
à¸Ńà¸ĩà¸ªà¸²à¸¡ à¸§
Ġà¹ģà¸¥à¸° à¸Ħà¸§à¸²à¸¡
à¹Ĩ à¹Ģà¸Ħ
à¸Ńà¸¡ à¸Ĥ
à¹Ĥà¸Ķ à¸Ļà¹Ģà¸ŀ
à¸²à¸ĩ à¸Ńà¸Ńà¸ģà¹Ħà¸Ľ
à¸§à¸¢ à¸Īà¸£
à¸Ī à¸Ļà¸ª
à¸«à¸² à¹Ģà¸ª
à¸²à¹Ħà¸¡ à¸£
à¸Ńà¸¥à¸¥ à¸²à¹Ģà¸Ī
à¸²à¸Īà¸° à¹Ħà¸Ľà¸Ĺ
à¸ļ à¸ķà¸£
Ġst ep
à¸²à¸¢ à¹Ģà¸Ńà¸ĩ
à¸Ńà¸¢ à¹Ģà¸Ń
Ġà¸ģà¸²à¸£ à¸¥à¸ĩà¸Ĺ
: "
à¸Ħà¸£ à¹Ģà¸£
Ġà¸Ĥ à¸Ńà¸ķ
à¸§à¹Ģà¸Ńà¸ĩ à¹Ģà¸¥à¸¢
à¸²à¸Īà¸° à¸§
à¸ªà¸²à¸¡à¸²à¸£à¸ĸ à¹Ģà¸Ľà¸¥
à¸Ļà¹ģà¸Ľà¸¥ à¸ģà¹Ĩ
Ġà¸«à¸²à¸ģ à¸ľ
on ic
à¸Ń à¹Ģà¸Ł
à¸§à¸Ļ à¹Ģà¸ª
b i
à¸Ĥà¸Ńà¸ĩ à¹Ģà¸£à¸²à¸Ħ
Ġl ondon
à¸Ļà¹Ħà¸Ľ à¹Ģà¸Ľ
Ġà¸Ħà¸§à¸²à¸¡ à¸Ī
Ġà¸ľà¸¡ à¹ģà¸Ħ
à¸Ļ à¸ľà¸¡à¹Ħà¸¡
Ġde f
att le
à¸Ħà¸¥ à¸Ńà¸ĩ
à¸Ńà¸Ļ à¹Ģà¸£à¸²à¹Ħà¸¡
Ġà¹ģ à¸£à¸¡
à¸ĩà¸Ħ à¸ĩà¸Ńà¸¢
à¸Ńà¸ĩ à¸Ħà¸¥à¸Ńà¸Ķ
à¸Ńà¸¡ à¸²à¹ĥà¸«
à¸Ļ à¹Ģà¸§à¸Ńà¸£
à¸Ńà¸ĩ à¹Ģà¸Ńà¸ĩ
Ù İ
à¸ªà¸²à¸¡à¸²à¸£à¸ĸ à¸Ĭ
à¹Ģà¸¢à¸Ńà¸° à¸Ħ
à¸ŀ à¸Ńà¸§
Ġà¸Ĥ à¸Ńà¸§
à¸Ńà¸Ļ à¸Ńà¸Ńà¸ģ
Ġà¸ĺ à¸Ħ
à¸Ńà¸ķ à¸Ńà¸Ļà¸Ĺ
id as
à¸ķà¸²à¸¡ à¹Ģà¸£
à¸ķ à¸ķà¸ģ
à¹Ĥà¸Ķ à¸Ļà¹ĥà¸Ī
Ġà¸Ī à¸Ļà¹Ģà¸ģ
Ġc ell
Ġ6 000
à¸ļà¸Ńà¸ģ à¹Ħà¸Ľ
à¸ŀà¸Ń à¹ģà¸Ļà¸°à¸Ļ
à¸Ľà¸£à¸° à¸Ĺà¸²à¸Ļ
à¸¢à¸§ à¹ģà¸ļà¸ļ
Ġgard en
à¸Ń à¸Ħà¸§à¸²à¸¡à¸Ħ
Ġà¹ģà¸ľ à¸Ļà¸Ĺ
ak er
à¸µà¹ī .
à¹ģà¸Ńà¸ļ à¸¡à¸Ńà¸ĩ
Ġà¹Ģà¸ª à¸¡à¸Ń
ar is
af f
à¸Ĳ à¸ģ
Ġb and
à¸ĩ à¹Ģà¸£à¸²à¹Ħà¸Ľ
à¸ĩà¸ª à¸Ļà¸²à¸¡
à¸Ķà¸ģà¸²à¸£ à¹ĥà¸«
à¸Ŀà¸²à¸ģ à¹Ħà¸§
Ġ à¸¨à¸²à¸ªà¸Ļà¸²à¸ŀ
à¸§à¹Ģà¸Ńà¸ĩ à¸Ń
à¸²à¸Ļà¸¡ à¸²à¸¡
à¸Ļà¹Ģà¸§à¸¥ à¸²à¸Ļà¸²à¸Ļ
à¹ģà¸Ĺ à¸Ļà¸ķ
Ġex o
à¸ļà¹ģà¸Ł à¸Ļà¸Ħà¸ļà¸ģ
à¸Ļ à¸¥à¸ĩà¹Ħà¸Ľ
s uper
à¸¬ à¸²à¸ª
à¸ģ à¹Ĥà¸Ħà¸£
Ġà¸ķà¸£ à¸ĩà¸Ĥ
à¸²à¸ļà¸Ńà¸ģ à¸ģ
à¸« à¸ģà¸£à¸ĵ
Ġà¸Ĥà¸Ńà¸ĩ à¹Ģà¸£à¸²
Ġher o
Ġb el
à¸ļà¸²à¸ĩ à¸Ħ
à¸Ńà¸ļ à¸Īà¸°
pl us
z en
à¸²à¸ Ĳ
à¸¢à¸Ńà¸¡ à¸ģ
==== ==
à¸¢à¸Ļ à¸Ńà¸°à¹Ħà¸£
à¸Ķà¹Ĩ à¸Ķ
à¸¢à¸²à¸ģ à¸Ĺ
em on
à¹Ģà¸Ń à¹Ħà¸Ńà¹Ģà¸Ńà¸ª
à¸²à¸Ĥà¸Ńà¸ĩ à¸«
à¸ĩà¸¡ à¸§à¸¥à¸Ĭà¸Ļ
à¹ĥà¸Ħà¸£ à¸ŀà¸Ńà¸¡
Ġc a
à¸¡à¸² à¹Ģà¸Īà¸Ńà¸ģ
à¹Ħà¸Ĺà¸¢ à¹Ģà¸Ĺ
à¸ĩà¹Ģà¸Ĺà¸ŀ à¸Ľà¸£à¸°à¸ģ
à¸¢à¸Ļ à¹Ĥà¸Ľà¸£
Ġg h
à¸ķà¸ļà¸Ńà¸¥ à¸Ĺ
um ber
à¸Ļà¸Ńà¸Ńà¸ģ à¸¡à¸²à¸Īà¸²à¸ģ
Ġà¸Ĥà¸Ńà¸ĩ à¹Ģà¸Ķ
à¸Ńà¸ĩà¹Ħà¸Ľ à¸£
à¹Ħà¸Ĥ à¹Ģà¸ŀ
à¸£à¸²à¸Ħ à¸²à¸«
à¸ķà¸ģ à¹Ģà¸Ľ
à¸²à¹ģà¸Ł à¸Ĭ
à¸Ķ à¸łà¸²à¸ŀ
à¸¨ à¸§à¸£
à¸Ķ à¸īà¸²à¸ģ
à¸Ħà¸£ à¸ļà¸ĸ
Ġà¹Ħà¸Ľ à¸Ļ
à¹ĥà¸Ļ à¸Ħà¸§à¸²à¸¡à¸Ħ
à¸²à¸§ à¹Ħà¸Ĺà¸¢
à¸ªà¸¡ à¸ľà¸¥
à¸Ī à¸Ļà¸ģà¸£à¸°à¸Ĺ
à¸¢à¸Ļ à¸¡à¸²à¸ģ
Ġle g
à¸§à¸¡ à¹Ģà¸Ľ
à¸ªà¸²à¸¡à¸²à¸£à¸ĸ à¸ģ
à¹Ĥà¸£à¸Ħ à¸¡à¸°à¹Ģà¸£
à¸¹à¹ī "
Ġsw e
à¸ĵ à¸ĺà¸£à¸£à¸¡
à¸¢à¸§ à¸ľ
à¸Ń à¹ģà¸«
à¹Ħà¸ĩ à¸§
Ġf lo
Ġback pack
ats app
Ġdel uxe
i w
z z
à¸ĵ à¸ĸ
Ġex t
à¸² à¹Ĥà¸Ķà¸¢à¸ªà¸²à¸£
à¸ķ à¹Ģà¸Ķ
à¸ķà¸Ńà¸ļ à¹Ħà¸¡
? ","
h r
Ġt own
ir us
à¹ģà¸Ł à¸Ļà¸§
à¸Ńà¸ķ à¸ķ
à¸Ĳ à¸ªà¸ł
Ġe asy
Ġà¸ľ à¸Īà¸ģ
Ġà¹Ģà¸Ł à¸ªà¸ļ
à¸Ķà¸ģ à¸ıà¸«à¸¡à¸²à¸¢
à¸Ķ à¹Ģà¸§à¸¥à¸²
à¸§à¸¢à¸ļà¸Ńà¸ģ à¸Ķ
eng er
Ġ2 90
à¸Ľà¸£à¸°à¸¡à¸²à¸ĵ à¹Ģà¸Ķ
à¸Ńà¸ĩ à¹ģà¸«
à¸ĩà¸Īà¸²à¸ģ à¸¡
m oney
à¸ªà¸²à¸¢ à¸ª
ok a
or th
Ġg ar
à¸Ĵà¸Ļ à¸²à¸Ĥ
à¸Ļà¹ģ à¸Ķà¸ĩ
Ġà¸Ļà¸Ńà¸ģà¸Īà¸²à¸ģ à¸Ĺ
sp ort
Ġ255 2
à¸²à¸Ļà¸Ķ à¸Ńà¸¥à¸¥à¸²à¸£
Ġà¸ŀ à¸ļà¸ģ
à¸¢à¸Ķ à¹Ĩ
à¸Ķ à¸Ĥà¸Ńà¸Ńà¸ł
Ġà¸¡ à¸°
à¸Ļà¸Ļà¸Ļà¸Ļ à¸Ļà¸Ļà¸Ļà¸Ļ
Ġe st
à¸§ à¹Ģà¸ļ
Ġà¸ģà¸¥ à¸²à¸ĩà¸§
à¸Ńà¸ļ à¸Ĭ
à¸¹ ""
à¸į à¸¢
.. ,"
Ġà¹Ģà¸Ķ à¸§
mot ion
à¸¥ à¹Ģà¸§
à¸ļ à¹ģà¸Ľ
à¹Ĥà¸ĭ à¸Ł
à¸²à¸ķà¸£ à¸ĩà¹Ĩ
Ġcon c
à¸§à¸§à¸§à¸§ à¸§
b ps
ig er
à¸Ĭ à¸£à¸²à¸ł
à¸¡à¸²à¸Ļ à¸²à¸Ļà¸¡à¸²à¸ģ
Ġà¹Ĥ à¸Ńà¸Ļà¹Ģà¸ĩ
Ġà¸Ľ à¸Īà¸Ķ
55 0
Ġple ase
à¸Ķ à¸ªà¸Ļ
Ġà¸ªà¸²à¸Ĥ à¸²à¸§
à¸Ńà¸ĩ à¹Ĩà¸Ĺ
à¸²à¸ª à¸¢à¸Ńà¸ĩà¸Ĥà¸§
à¸ĩà¸ģà¸¥ à¸²à¸¢à¹Ģà¸Ľ
à¸Ļà¸£ à¸²à¸¢à¹Ħà¸Ķ
à¸ķà¸²à¸¡ à¸ģà¸İà¸«à¸¡à¸²à¸¢
à¹Ģà¸ŀà¸£à¸²à¸° à¸Ķ
à¸¢à¸Ńà¸¡ à¹ģà¸ŀ
Ġà¸¡ à¸²à¸«
sc b
à¸Ļà¸Ĺ à¸°à¹Ģà¸¥
Ġpale tte
à¹ĥà¸Ħà¸£ à¸§
à¸ģà¸© à¸°à¸ª
à¸įà¸« à¸²à¸Ħà¸£
à¸ĩà¸²à¸Ļ à¹Ģà¸Ľ
à¸¢à¸Ńà¸¡ à¸Ī
à¸§ à¹Ħà¸«à¸Ļà¸Ĺ
Ġà¹Ĥ à¸ģà¸£à¸ĺ
à¸µ ","
à¸Ķ à¸ķà¸£à¸ĩ
à¸²à¹ĥà¸Ļ à¸Ĺ
à¸²à¹ĥà¸Ħà¸£ à¸Ĺ
Ġm use
à¹Ģà¸Īà¸Ń à¹Ģà¸Ħ
à¸ĩà¸Īà¸° à¹ĥà¸Ĭ
Ġpro du
à¸Ńà¸¢ à¸Ĥà¸Ńà¸ĩ
à¸² à¹Ģà¸Ńà¸²à¹Ħà¸Ľ
Ġà¸ŀà¸Ń à¹Ģà¸Ķ
à¸Ĥ à¸Ńà¸Ļ
Ġà¹Ģà¸¥à¸¢ à¸Ńà¸¢à¸²à¸ģà¹ĥà¸«
à¹ĥà¸Ļ à¹Ħà¸¥à¸Ļ
à¸Ļà¹ĥà¸Ī à¸Ķ
Â Ń
Ġà¹Ģà¸ŀà¸£à¸²à¸° à¸ľà¸¡à¹Ħà¸¡
à¹Ħà¸Ĥ à¸§
à¸Ńà¸Īà¸° à¹ĥà¸«
à¸Ńà¸Ļà¹Ģà¸£ à¸²à¸ļ
Ġ201 9
à¸Ļ à¹Ģà¸«à¸£à¸Ń
à¸¢à¸ĩ à¹Ħà¸®
Ġdown load
à¸ģ à¸°à¸Ĺ
à¸£à¸°à¸ļà¸ļ à¸Ĥà¸Ļà¸ª
Ġul tra
Ġg e
ot t
à¸Ļà¸Īà¸° à¸Ĭ
az a
Ġà¹Ģà¸Ĥ à¸²à¸ģà¸¥
à¸Ļà¸ĭ à¸°
à¸²à¹ĥà¸Ī à¸Ńà¸¢
Ġo h
à¸Ńà¸ĩ à¸¥à¸Ńà¸ĩ
à¸¢à¸¡ à¹Ģà¸Ńà¸ģà¸ªà¸²à¸£
à¸ļà¹ģà¸Ł à¸Ļà¸Ĺ
à¸ĩà¸ĩà¸ĩà¸ĩ à¸ĩà¸ĩà¸ĩà¸ĩ
Ġch r
m el
à¸¡ à¸²à¸«à¸Ļ
Ġ16 00
Ġ- ""
à¸Ńà¸ĩà¸ģà¸²à¸£ à¹Ģà¸Ľà¸¥
à¸ĩ à¸Ńà¸¥
Ġà¹ģà¸¥à¸° à¸Ĺà¸²à¸ĩ
à¸ĩà¸²à¸Ļ à¸«à¸Ļ
Ġà¹Ģà¸ģ à¸©à¸ķà¸£
à¸Ķ à¹Ĥà¸Ľà¸£
à¸ªà¸²à¸¡à¸²à¸£à¸ĸ à¸ĭ
n c
à¸²à¸ķ à¸ģà¸¥
Ġà¹Ģà¸Ĺ à¸£
à¸£à¸° à¸ķ
à¸Ļà¸ģà¸²à¸£ à¸Ĭ
if a
à¸²à¸Ľà¸£à¸°à¹Ģà¸Ĺà¸¨ à¹Ħà¸Ĺà¸¢
y al
à¸²à¸¢ à¹Ģà¸Ħ
à¸Ļà¸Ńà¸ģ à¹Ģà¸«à¸Ļ
Ġà¹Ģà¸¢à¸Ńà¸£ à¸¡
à¸Ħà¸Ļ à¹ĥà¸«
à¸Ńà¸¡ à¸ĸ
à¸ª à¹ģà¸Ħà¸§à¸£
à¸¡ à¹Ħà¸Ł
Ġday s
à¸ļ à¹Ģà¸ļà¸Ńà¸£
à¸²à¸ĩ à¸£à¸ĸ
à¸²à¸Ķ à¸Ł
à¸Ń à¹Ħà¸Ł
à¸Ńà¸²à¸«à¸²à¸£ à¸Ī
à¸« à¸²à¸ŀ
à¹Ģà¸Īà¸Ń à¸Ħà¸£
à¸§à¸¢à¸Ħà¸§à¸²à¸¡ à¸Ī
à¸µ ?,"
à¸¢ à¸²à¸Ħ
à¸Ļà¸ª à¸¥
à¸ļà¸Ń à¸²à¸£à¸¡à¸ĵ
à¸Ńà¸ĩ à¹ģà¸ļ
à¸²à¸Ħà¸§à¸²à¸¡ à¸Īà¸£
Ġ," [
à¹Ģà¸Ĺ à¸Ļà¸Ļ
à¹Ĥ à¸Ļà¸§
Ġà¸ªà¸ĸà¸²à¸Ļ à¸ģà¸²à¸£à¸ĵ
à¸Ķà¸ª à¸²à¸Ĥ
à¸Ļà¹Ħà¸Ľ à¸Ħà¸£
à¸ŀà¸¢ à¸²à¸ģà¸£à¸ĵ
Ġà¸«à¸²à¸ģ à¹Ģà¸Ľ
à¹Ģà¸¥à¸¢ à¹Ģà¸£
à¸Ħà¸§à¸£ à¸Īà¸°à¹Ģà¸Ľ
à¸ģà¸² à¹ĥà¸ķ
à¸ģ à¹Ģà¸ŀà¸¥à¸ĩ
à¸ģà¸²à¸¥ à¸Ļ
à¸²à¹Ħà¸Ľ à¸ļ
à¸ģ à¹ģà¸¡à¸§
à¸Īà¸Ļ à¸«à¸¡à¸Ķ
à¸²à¸£à¸§à¸Ī à¸ģ
à¸´ ",
à¹Ħà¸Ľ à¸ŀà¸£
à¸²à¸¢ à¸²à¸§
à¸Ħà¸£ à¹Ģà¸¥
à¸²à¹Ħà¸£ à¸Ķ
à¸ļ à¸įà¸²à¸ķ
à¹ģà¸ļà¸ļ à¸«à¸Ļ
à¸²à¹ĥà¸Ļ à¸«
à¸ĩà¸Ĥ à¸²à¸ª
Ġmot or
à¸²à¸ª à¸Ńà¸Ļ
à¹Ģà¸£à¸²à¸ŀ à¸¢à¸²à¸¢à¸²à¸¡
à¸Ķ à¹Ĥà¸Ńà¸ģà¸²à¸ªà¹ĥà¸«
Ġà¸§ à¸£
Ġà¸Īà¸° à¹ģà¸ģ
à¸Ļ à¸§à¸ĩ
Ġc ut
b nk
à¸Ļà¸Ĺà¸²à¸ĩ à¹Ħà¸Ľà¸¢
à¹Ħà¸Ńà¸¨ à¸ģà¸£
à¸¢ à¹ģà¸ģ
l g
à¸²à¸ģà¸²à¸£ à¹ĥà¸Ĭ
à¸ļ à¹ģà¸ļà¸ļà¸Ļ
Ġà¹Ģà¸£ à¸²à¹ĥà¸«
à¹Ģà¸ģ à¸ª
à¸²à¹ģ à¸ª
Ġg at
à¸§à¸²à¸ĩ à¸Ī
à¹Ĥà¸Ħà¸£ à¸ĩà¸ģà¸²à¸£à¸Ĺ
Ġ à¸ĩà¸Ķ
à¸ģ à¹ĥà¸ģà¸¥
à¸¡ à¸¡à¸Ļ
à¸Ń à¸Ńà¸¢à¸²à¸ģà¹Ħà¸Ķ
à¸ĩà¹Ħà¸Ľ à¹Ģà¸¥à¸¢
Ġcl in
à¸ķà¸Ńà¸Ļ à¸Ľ
Ġkaw aguchiko
à¸ķ à¸Ľ
à¸§ à¸£à¸ĸà¹Ħà¸Ł
à¸Ńà¸¢à¸²à¸ģ à¸Ł
à¸ĩà¹ĥà¸Ī à¸Ķ
Ġ^ __
à¸Ļà¹Ĩ à¹Ħà¸¡
à¸¢à¸ĩ à¹Ĩ
à¸łà¸²à¸¢à¹ĥà¸Ļ à¸ļ
à¸Ļ à¹Ĥà¸Ļ
Ġlot ion
à¸Ń à¹Ģà¸ģà¸¡
à¸Ńà¸ģ à¸Ńà¸ĩà¸Ĺ
à¸¢ à¸£à¸²à¸Ĭà¸ł
à¹ĥà¸Ļà¸ģà¸²à¸£ à¸Ħ
à¸ļà¸²à¸ĩ à¸Ħà¸Ļà¸Ĺ
Ġà¹Ģà¸Ĥ à¸²à¸Ķ
à¸ĩ à¸Ńà¸°
à¸Ħà¸£ à¸ļà¸ģ
à¹ĥà¸Ļ à¸£à¸²à¸Ħà¸²
Ġm t
à¸²à¸ª à¸§à¸¢à¸ĩà¸²à¸¡
à¹Ģà¹Ģ à¸Ńà¸ļ
à¸Ńà¸ĩà¸ģà¸²à¸£ à¸Ī
à¹Ģà¸ŀà¸£à¸²à¸° à¸ª
Ġ6 8
à¸¢à¸Ńà¸¡ à¸Ħ
Ġp en
tr y
à¸Ļà¸ģà¸²à¸£ à¸ģ
à¸¢à¸Ķ à¹Ħà¸Ķ
à¸ŀà¸Ń à¹Ģà¸¥
à¸£à¸²à¸Ħ à¸²à¸¡
Ġà¸ľà¸¡ à¸Ńà¸²à¸¢
à¸Ļà¹ģà¸¥à¸° à¸¡
Ġw as
à¸į à¹Ħà¸¡
Ġd oc
à¸²à¸ļ à¸Ńà¸Ķ
à¸ĩà¸Ľ à¸§à¸ĩ
à¸§ à¸ľà¸¡à¹Ħà¸¡
à¸¥ à¸²à¸ģà¸²à¸£
à¸Ńà¸¢ à¸Ħà¸¥
à¸Ńà¸°à¹Ħà¸£ à¸ĭ
à¸Ĭ à¸Ń
us b
à¸ļ à¸Ĭà¸²à¸§
à¸Ħà¸Ļ à¸ļ
à¹Ħà¸Ľà¸« à¸²à¸«à¸¡
à¸²à¸ª à¹Ģà¸Ľ
Ġt erm
à¸²à¸Ļ à¸«à¸¡
à¸ĩà¹Ģà¸ģ à¸²à¸°
à¸ŀà¸Ń à¸Ī
à¸¨à¸²à¸ªà¸ķà¸£ à¸²à¸Īà¸²à¸£à¸¢
à¸ŀà¸£à¸£à¸ĵ à¸ļ
m v
Ġà¸Ļ à¸ģ
Ġm ah
Ġun der
à¸Ńà¸ģ à¹Ģà¸Ķ
à¸Ļà¸¡à¸²à¸Ļ à¸²à¸Ļà¹ģà¸¥
à¸Ĥ à¸ļ
à¸¢ à¸ĺà¸£à¸£à¸¡à¸¨à¸²à¸ªà¸ķà¸£
à¸ģà¸Ľ à¸ı
à¸ļà¹ĥà¸Ħà¸£ à¸ģ
s mart
à¹Ģà¸Ĥ à¸²à¸Ĭ
à¸¢à¸ĩ à¹ĥà¸Ķ
à¸¥à¸ĩ à¹Ħà¸Ķ
à¸ĩ à¹Ĥà¸ģ
à¸¢à¸ĩ à¹ģà¸¡
à¸²à¸¢ à¹Ħà¸Ľà¸Ĺ
à¸Ńà¸Ļ à¸łà¸²à¸©
à¸Ńà¸Ļ à¹Ħà¸Ľà¸Ķ
Ġcom ic
à¸²à¸Ļ à¹Ģà¸£à¸²à¸¡
à¸Ķà¸¡ à¸¨
à¹Ħà¸Ľ à¹ģà¸Ħ
à¸ļà¸¡à¸² à¹ĥà¸«
Ġà¸ģà¸²à¸£ à¹Ģà¸ĩ
à¸ĩ à¸Ĭà¸Ļ
à¸Ńà¸ĩ à¸ķà¸£à¸§à¸Ī
à¸§à¸¡ à¸«
à¸Īà¸ī à¸²
à¸Ĭ à¸ģà¸£
à¹Ģà¸£ à¸²à¸Ļà¸°
à¸Ńà¸Ļà¸ŀ à¸¤à¸©à¸łà¸²à¸Ħà¸¡
à¸ļà¹Ģà¸£à¸² à¹Ħà¸Ķ
ay ama
Ġ6 9
à¸ķà¸Ńà¸ļ à¸«à¸Ļ
à¸¡à¸²à¸ģ à¸Ħà¸°
à¹Ģà¸§à¸¥ à¸²à¹Ħà¸Ķ
oo p
à¸Ńà¸ĩà¸ķ à¸¥à¸²à¸Ķ
à¸¡ à¸£à¸²à¸¢à¹Ħà¸Ķ
à¹Ģà¸¥à¸¢ à¹Ģà¸Ĥ
Ġà¸Ļà¸Ńà¸ģ à¹Ģà¸«à¸Ļ
Ġ à¸£à¸°à¸ļà¸²à¸¢
à¸ļ à¹ģà¸Łà¸Ļà¸ģ
Ġs and
e k
à¸²à¸Īà¸²à¸ģ à¹Ģà¸ŀ
à¸Ńà¸ĩ à¸Ńà¸°à¹Ħà¸£à¸ģ
Ġà¸ľà¸¡ à¸Īà¸°à¹Ħà¸Ķ
à¸Ĭà¸²à¸¢ à¸Ļ
à¸Ĥà¸Ń à¹Ģà¸Ĭ
à¸²à¸ĩ à¸ļà¸Ńà¸ģà¸§
Ġv an
à¸ĩà¹Ħà¸Ľ à¸ª
Ġà¸£à¸ĸ à¹Ģà¸ģ
und am
à¸Ńà¸¡ à¸²à¸Ķ
à¸Ńà¸ĩ à¸Ļà¸°à¸Ħà¸£
à¹Ģà¸Ń à¸²à¸§
à¸¢ à¸Ļà¸°à¸Ħà¸£
à¸Ļà¸ģà¸²à¸£ à¸¢
à¸Ńà¸ĩ à¹Ģà¸Ńà¸²
à¸ģ à¸Ĩ
à¸¢à¸ĩ à¹Ģà¸ŀà¸£à¸²à¸°
Ġà¸ģà¸¥ à¸²à¸ĩà¸Ħ
à¸Ĺ à¹Ģà¸Ĺ
à¸²à¸Ī à¸¡
à¸²à¹Ĥ à¸Ńà¸¥
Ġà¸ªà¸²à¸Ĥ à¸²à¸«
à¸ķà¸£ à¸²à¸Ħ
à¸ģ à¸Ľà¸£à¸°à¸Ī
à¸§à¸ª à¸§à¸¢
à¸ªà¸Ļà¹ĥà¸Ī à¸ª
à¸£à¸¡ à¸¢
*- *-
à¸ļ à¸«à¸į
à¸²à¸Ľà¸£à¸°à¹Ĥà¸¢ à¸Ĭà¸Ļ
à¸ŀà¸Ń à¹Ģà¸«
un ch
à¸ķà¸Ńà¸Ļ à¸ļ
à¸²à¹Ģà¸Ļ à¸²à¸ļ
à¸ĩ à¹Ħà¸¥à¸Ļ
à¸¡à¸² à¹Ģà¸«
à¸ģà¸© à¸²à¸ĺ
à¸²à¸¡à¸²à¸ģ à¸Ħ
à¸ĭ à¸Ńà¸ª
Ġà¹ĥà¸Ļ à¸ģà¸¥
à¹ĥà¸Ļà¸ģà¸²à¸£ à¸ģ
b us
à¸Ħà¸§à¸²à¸¡ à¹Ģà¸ģ
Ġi ll
à¸ĩà¹Ħà¸Ľ à¸Ń
Ġà¸ģà¸²à¸£ à¹ģà¸Ĥ
m f
à¸ŀ à¸Ĭ
à¸Ńà¸Ļ à¸¥à¸°à¸Ħà¸£
à¸¢à¸¡ à¸Ĥà¸Ńà¸ĩ
Ġà¸ª à¸ĸ
à¸¢à¸¡ à¸Ķ
Ġm ad
à¹Ĥà¸Ľà¸£ à¸Ļ
à¸ĵ à¹Ģà¸Ńà¸ĩ
à¸łà¸²à¸ŀ à¸Ĥà¸Ńà¸ĩ
à¸ķ à¹Ĥà¸Ķà¸¢
Ġà¹ģ à¸Ħà¸£
à¸ļà¸Ńà¸ģ à¸Ń
à¸Ĺà¸²à¸Ļ à¸Ńà¸²à¸«à¸²à¸£
à¸Ħà¸£ à¹Ħà¸Ķ
à¸²à¸Ĥà¸Ńà¸ĩ à¸¡
à¸ļ à¸¥à¸°à¸Ħà¸£
à¸ĸà¸²à¸¡ à¸ģà¸¥
à¸Ķà¹Ħà¸Ľ à¸§
à¸ķ à¸£à¸°
Ġà¸ģà¸²à¸£ à¸ģà¸£à¸°à¸Ĺ
à¸ģà¸Ĥà¸Ńà¸ĩ à¸ķ
à¸Ļà¸Ĺà¸²à¸ĩ à¸Ħ
à¸«à¸²à¸¢ à¹Ĩ
à¸ķà¸£ à¸§à¸Īà¸£
à¸ģà¸Ķ à¹Ħà¸¥à¸Ħ
à¸Ńà¸Ļ à¹ģà¸Ħ
à¸£à¸Ńà¸ļ à¹ģà¸£à¸ģ
Ġwar s
Ġs r
à¸ķà¸²à¸¡à¸« à¸²à¸«à¸Ļ
à¹Ģà¸ģ à¸¡à¸Ĺ
Ġl ock
à¸ļà¸ª à¸²à¸£
Ġ200 6
à¹ĥà¸Ħà¸£ à¸ŀà¸Ńà¸Īà¸°à¸£
Ġst ock
à¸ģà¸£à¸°à¸ļà¸§à¸Ļ à¸ģà¸²à¸£
s n
Ġpro gram
à¸ģà¸ªà¸²à¸¡ à¹Ģà¸ª
Ġà¸¥ à¸Ķà¸Ħà¸§à¸²à¸¡à¸Ń
à¸Ńà¸ĩà¸£ à¸Ńà¸ļ
à¸ķ à¹Ģà¸ĭà¸Ńà¸£
à¸²à¸Ļ à¹Ħà¸Ľà¹ģà¸¥
à¹Ħà¸Ľ à¸į
à¸ĩà¸¡à¸² à¹Ħà¸Ķ
à¸ĩà¸Ĥ à¸²à¸£
à¸Ļà¹Ģà¸¥ à¸ª
à¸Ń à¸Ńà¸¢à¸²à¸ģà¸Ĺà¸£à¸²à¸ļà¸§
à¸Ńà¸Ļ à¹Ģà¸£à¸²à¸Ĺ
à¹Ĥà¸¥ à¸ģà¸ģ
Ġmanag er
Ġ6 6
à¸Ńà¸¢ à¸Īà¸°
à¸²à¸¢à¸ģ à¸İà¸«à¸¡à¸²à¸¢
à¸¡ à¸Ħà¸°
à¸ĩ à¹Ģà¸ľ
à¸į à¸Ħà¸£
n am
à¸ģà¹Ĩ à¹Ĩ
âĢ İ
à¹Ģà¸£ à¸²à¸ļà¸Ńà¸ģà¸§
---- -
Ġh unz
f orm
Ġà¹Ģà¸ľ à¸¥
à¸µ /
à¸ģà¸ģ à¸£à¸°à¹Ģà¸Ľ
Ġà¸ģà¸²à¸£ à¸Ļ
Ø §
Ġà¹ģà¸¥à¸° à¹Ģà¸Ħà¸£
Ġe uro
à¹Ħà¸«à¸Ļ à¹Ģà¸Ľ
à¸Ńà¸Ļà¹Ĩ à¸Ķ
à¸¢à¸Ļ à¹Ģà¸¥
à¸° à¸«
Ġà¸ļà¸¥à¸² à¹Ĩà¹Ĩ
à¸ĩà¸ĩà¸²à¸Ļ à¹ģà¸¥
à¸Ħà¸§à¸²à¸¡ à¹ĥà¸Ļà¹ĥà¸Ī
à¹Ģà¸£à¸² à¹ģà¸Ńà¸ļà¸Ĭà¸Ńà¸ļ
à¹Ĥà¸¢ à¸Ħà¸°
à¸ªà¸²à¸§ à¸Ļ
à¸§ à¹Ģà¸ĭ
à¸Ĥ à¸Ńà¸ģ
à¸ªà¸²à¸¡à¸²à¸£à¸ĸ à¹Ģà¸Ķ
à¸Ł à¸Ńà¸ĩ
à¸¡ à¹ģà¸Łà¸Ļà¹Ģà¸ģ
Ġà¹Ģà¸¥à¸¢ à¸Īà¸°
Ġj as
Ġà¸£à¸ĸ à¸ļ
à¹Ģà¸¢à¸Ńà¸° à¸Ńà¸¢
à¸«à¸²à¸£ à¸ĺ
ans ai
à¸ªà¸ģ à¸Ľà¸£
Ġà¸ģà¸İà¸«à¸¡à¸²à¸¢ à¸Ĭà¸²à¸§à¸ļ
Ġbr and
à¸Ļ à¸¡à¸²à¸ĭ
à¸ĩà¸²à¸Ļ à¸Ľà¸£à¸°à¸Ī
à¸²à¸ĩà¸²à¸Ļ à¹ĥà¸«à¸¡
à¸Ĺà¸²à¸ĩ à¸ľ
à¸ļ à¸£à¸°à¸Ķ
à¸ľà¸¡ à¸¥à¸Ńà¸ĩ
Ġà¹ĥà¸Ļ à¸Ľà¸£à¸°à¹Ģà¸Ĺà¸¨
à¹Ĥà¸Ĺà¸£ à¹ģà¸Ī
à¸§à¹Ģà¸Ńà¸ĩ à¸ª
à¸ĺà¸¢ à¸²à¸¨
Ġst op
à¸§ à¸Īà¸°à¹Ħà¸Ľ
Ġà¸ľ à¸ļ
à¸ģà¸£à¸£à¸¡ à¸ª
à¸ļà¸ļ à¸Ńà¸¥
à¸¢à¸£ à¸²à¸¡à¸Ħ
Ġà¹Ħà¸Ľ à¸Īà¸Ļà¸ĸ
Ġà¸§à¸ĩ à¹Ģà¸ĩ
à¸ľà¸¡ à¸Ł
Ġbo ot
2 90
Ġm el
Ġà¸¥ à¸Ńà¸ĩà¹Ħà¸Ľ
à¸¥à¸ģ à¸²à¸ģà¸£
ult im
à¸ļ à¸Ĭà¸²à¸ķ
à¸ļà¸ģà¸²à¸£ à¹ģà¸ªà¸Ķà¸ĩ
à¹ģà¸ľ à¸Ļ
à¹Ģà¸£ à¸²à¸Ńà¸Ńà¸ģ
Ġà¸Ļ à¸¡
à¸Ķà¸ķ à¸Ńà¸Ļ
Ġc it
à¹ĥà¸Ļà¸ģà¸²à¸£ à¸ªà¸£
Ġâ Ĺ
Ġà¹Ģà¸¥à¸¢ à¸ª
à¸²à¸Ĥà¸Ńà¸ĩ à¹Ģà¸Ķ
Ġà¸Ħà¸§à¸²à¸¡ à¸«à¸¡à¸²à¸¢
à¸ŀ à¸ģà¸ŀ
à¸Ļà¸ª à¸ĩà¸ģà¸£à¸²à¸Ļà¸ķ
à¸°à¸ķ à¸²
à¸¡ à¸Ńà¸Ļ
t ime
à¸Ļà¸ļ à¸¥
Ġà¸Ĥ à¸²
à¸§ à¸Ħà¸§à¸£
à¹Ģà¸¥à¸¢ à¹Ģà¸Ķ
Ġà¹Ħà¸Ľ à¸Ĭ
Ġe b
Ġà¸Ĥà¸Ńà¸ĩ à¹Ĥà¸¥à¸ģ
à¸ļà¸£à¸ĸ à¹Ħà¸Ľ
à¸ĩ à¸ŀà¸Ńà¹ĥà¸Ī
à¹Ģà¸Ħà¸¢ à¸ļà¸Ńà¸ģà¸§
Ġw om
à¸Īà¸ļ à¸Ľ
à¸ĩà¹Ħà¸ĩ à¸Ĭ
à¸ķà¸Ńà¸ļ à¸Ķ
à¸Ķ à¹Ĥà¸Ĺà¸©
à¸² à¹Ģà¸ĸ
à¹ģà¸¢à¸ģ à¸ķ
à¹Į :
à¸Ļà¸§ à¸Ķ
Ġ7 7
5 90
à¸Ļà¹Ģà¸¥à¸¢ à¸§
à¸ģà¸Ĥ à¸Ļà¸²à¸Ķ
z e
Ġà¹Ģà¸£à¸² à¹Ģà¸¥à¸¢à¸Ħ
à¹ģà¸Ķ à¸ĩà¹Ĩ
à¸Ļà¹ĥà¸Ī à¹ĥà¸Ļà¸ķ
à¸ĩà¹ĥà¸Ļ à¸£
Ġb a
à¹Ģà¸Ķ à¸¥
à¸Ħà¸§ à¸²à¸¢
Ġà¸ŀà¸Ń à¸«à¸¥
à¸¢à¸²à¸¢ à¹ģà¸Ľà¸¥
Ġà¹Ĥ à¸¢
à¸ļà¹Ģà¸£ à¸²à¸¡
Ġmo ve
à¸ĩà¹ĥà¸Ļ à¹Ģà¸£
à¸ļ à¸£à¸²à¸ĭ
à¸Ļ à¹Ģà¸Ńà¸ģà¸¥
Ġà¹Ħà¸£ à¸ĩ
à¸į à¸ģà¸§
Ġb an
à¸Ĺà¸ĺ à¸²
à¸ķ à¹Ħà¸§
à¸Ńà¸Ľ à¸ı
à¸«à¸²à¸¢à¹Ħà¸Ľ à¹Ħà¸«à¸Ļ
à¹ĥà¸Ī à¸¡
à¸ŀà¸£à¸° à¸ļà¸²à¸ĩ
à¸²à¸Ļà¸ķ à¸°à¸§
à¸¢ à¸ł
à¸ľà¸¡ à¸Ĥà¸Ń
à¸²à¹ĥà¸Ī à¹ģà¸¥
à¸Ńà¸ªà¸²à¸£ à¸ģ
à¸²à¸¢ à¹Ħà¸Ł
à¸ļà¸Ĺ à¸Ĺ
à¸ĵà¸łà¸²à¸ŀ à¸ª
à¸Ĥà¸Ńà¸ĩ à¸¡à¸Ļ
à¸° à¸ľ
à¸²à¸ĩ à¸ªà¸²à¸¢
Ġà¹Ĥà¸Ķà¸¢ à¸Ī
à¹ĥà¸Ħà¸£ à¹Ģà¸¥à¸¢
à¹Ģà¸īà¸ŀà¸²à¸° à¸Ĺ
à¸ªà¸Ńà¸ĩ à¸Ħà¸Ļà¸Ļ
à¸Ļà¸ķà¸£ à¸²à¸¢à¸ķ
à¸Ń à¹Ħà¸Ń
Ġà¸ŀ à¸Ħ
Ġbr ush
Ġbu ff
Ġà¸Ī à¸Ļà¸ŀ
à¸įà¸į à¸²à¸Ī
Ġ10 5
à¸Ļà¹Ģà¸¥à¸¢ à¹Ħà¸¡
Ġà¸Ħà¸§à¸²à¸¡ à¸ľ
à¹ģà¸ļ à¸Ķà¸¡
à¸ªà¸Ļà¸Ńà¸ĩ à¸Ħà¸§à¸²à¸¡à¸ķ
à¹Ģà¸¡ à¸Ĺ
Ġà¹ĥà¸Ħà¸£ à¸ªà¸Ļà¹ĥà¸Ī
Ġà¹Ģà¸Ń à¸²à¸ĩ
à¸²à¸Ľà¸£à¸°à¸ģ à¸²à¸¨
à¸ľà¸¥à¸ķà¸Ńà¸ļ à¹ģà¸Ĺà¸Ļà¸Ĺ
à¸Ńà¸ĩ à¹Ģà¸§
Ġ08 7
à¸Ļ à¹Ģà¹Ģà¸ķ
à¸ģ à¹Ħà¸Ł
Ġl te
Ġpr ice
à¸łà¸²à¸Ħ à¹ģà¸£à¸ģ
à¸²à¸Ļ à¸ŀà¸£
à¹ģà¸Ļà¸§ à¸ķ
Ġ[ [
à¸Īà¸° à¹ģà¸Ļà¸°à¸Ļ
Ġl ook
Ġon ly
Ġà¹ģ à¸Ńà¸Ļà¸Ķ
à¸¡à¸£ à¸Ķà¸ģ
à¹Ģà¸£à¸² à¹Ħà¸Ľà¸Ĺ
ro ds
à¹Ħà¸« à¸§à¸¡
Ġà¹Ģà¸£à¸²à¸Ńà¸¢à¸²à¸ģ à¹ĥà¸«
b u
Ġf ast
à¸Ļà¸Ĺà¸²à¸ĩ à¸ļ
à¸Ļà¸²à¸¢ à¸Ī
à¸ĩ à¸²à¸Ķ
à¸²à¸¡à¸²à¸ģ à¸Ĺ
à¸ĩà¹Ħà¸Ľ à¹Ħà¸Ķ
à¸¡à¸² à¹Ģà¸ª
à¸ķà¸Ńà¸Ļ à¹ģà¸£à¸ģà¸ģ
à¸Ļà¸Ĺ à¸Ńà¸¡
Ġà¸ģà¸²à¸£ à¸¡
à¸ĩà¹Ħà¸Ľ à¹Ģà¸£
à¸Ĵà¸Ļ à¸²à¸ª
Ġà¹ Ĺ
à¸¢ à¹Ģà¸Ľà¸£
à¸Ńà¸¢à¹Ĩ à¸Ĺ
à¸ĩ à¸«à¸¡à¸²à¸¢
Ġà¸ľà¸¡ à¸Ńà¸¢à¸²à¸ģà¸Ĺà¸£à¸²à¸ļà¸§
à¸ģ à¸ľà¸¥
à¹Ģà¸¡ à¸Ħ
à¸§à¸ĩ à¸Ĥ
à¸Ĺà¸²à¸ĩ à¸«à¸¥
à¸Ń à¹ģà¸ĸ
à¸§à¸¢ à¹Ģà¸Ħà¸£
à¹Ģà¸ļ à¸£à¸ģ
à¸Ļ à¸«à¸¡à¸²à¸¢à¸ĸ
à¸¢ à¹Ģà¸Ń
à¹ģà¸Ľà¸¥ à¸ģà¸«à¸Ļ
à¸° à¸ģà¸£
à¸§à¸Ļ à¸Ħà¸Ļà¸Ĺ
à¸Ńà¸²à¸Ī à¸Īà¸°à¸Ķ
Ġcom ment
à¸Ńà¸Ĥà¸Ńà¸ĩ à¸ģ
à¸¡ à¸Ńà¸°à¹Ħà¸£
à¸Ńà¸¡ à¸²à¸¡
à¸Ľà¸¥ à¸Ķà¸¥
à¸Ĥà¸Ńà¹Ĥà¸Ĺà¸© à¸Ĺ
à¹Ĩà¹Ĩà¹Ĩà¹Ĩ à¹Ĩà¹Ĩ
à¸Ķà¸Ħà¸§à¸²à¸¡ à¹Ģà¸ª
à¸¹ "
à¸¥à¸Ķ à¸£à¸²à¸Ħà¸²
Ġà¸Ķ à¸Ļà¸ķà¸£
Ġà¹ĥà¸Ī à¸Īà¸£
Ġm edia
Ġj oh
à¸ģà¸«à¸¥ à¸²à¸Ļ
à¸Ń à¸²à¹Ģà¸ĭ
à¸²à¸ŀ à¸Ńà¸Īà¸°à¸¡
à¸²à¸Ļ à¸²
Ġw atch
Ġ........ ..
Ġà¹Ģà¸§à¸¥ à¸²à¸ģ
à¹ģà¸® à¸£
à¹Ģà¸ļ à¸Ļà¸ĭ
____ __
à¸Ļà¹ģ à¸Ĭà¸£
à¸Ń à¹ĥà¸Ļà¸£
à¸§à¸¢ à¸ģà¸²à¸£à¸Ĺ
à¸ĩà¸Īà¸²à¸ģ à¸£
à¸§à¹Ħà¸«à¸Ļ à¸Ļ
à¸¢à¸Ļà¸Īà¸ļ à¹ģà¸¥
à¸²à¸«à¸¥ à¸Ńà¸ģ
à¸Ń à¹Ģà¹Ģà¸¡
à¸Ĺà¸£à¸²à¸ļ à¸ģ
à¸Ļà¸Ńà¸°à¹Ħà¸£ à¹Ģà¸¥à¸¢
à¸ģà¸© à¸²à¸Ħà¸£
à¸ļà¸ª à¸ĸà¸²à¸Ļ
à¸Ħ à¸ĩà¸£
i ent
à¸Ľà¸£à¸°à¸¡ à¸²à¸Ļà¸Ļ
à¸Ĥà¸Ńà¸ĩ à¸į
à¸§ à¸¥à¸Ńà¸ĩ
à¹Ħà¸Ľ à¸ªà¸Ńà¸ļ
à¹Ģà¸¢à¸Ńà¸° à¸Ķ
à¸£à¸Ńà¸ļ à¹ģà¸¥
à¸²à¸¢à¸ķ à¸²
ot e
Ġà¹Ĥà¸Ńà¸ĭ à¸²à¸ģ
Ġà¸ļà¸²à¸ĩ à¸£
à¸Īà¸²à¸ģ à¸Ľ
f b
à¸Ĥà¸²à¸¢ à¸«à¸Ļ
à¸Ńà¹Ħà¸Ľ à¸Ħà¸£
Ġà¹Ħ à¸ķà¸£
sp ot
à¸Ńà¸¡ à¸²à¹Ģà¸¡
ing s
18 0
à¸Ķà¸¡ à¸ģà¸²à¸£à¸ĵ
Ġz ani
à¸ªà¸Ľ à¸Ńà¸¢
à¹Ħà¸Ĺà¸¢ à¸¥
à¹ģ à¸Ńà¸Ł
à¸£ à¸Ńà¸ļà¸Ħ
d d
à¸Ńà¸ĩà¸ª à¸Ńà¸Ļ
à¸Ļà¹Ħà¸Ľ à¸«à¸£
à¸ªà¸§à¸Ļ à¸ª
Ġsing er
Ġà¸Ĥà¸Ńà¸ĩ à¸Ī
à¹ģ à¸ģà¸§
à¸²à¸Īà¸° à¹Ģà¸«
à¸ģà¸£à¸° à¹Ģà¸ŀà¸²à¸°
à¸ªà¸²à¸¡à¸²à¸£à¸ĸ à¹ĥà¸«
à¸£à¸²à¸¢ à¸Ī
à¸ĩà¸Īà¸° à¹Ģà¸Ķ
à¸£à¸²à¸Ħ à¸²à¸Ķ
Ġstar bucks
à¸ģà¸© à¸ĵà¸°à¸Ĺ
à¸ģà¸£ à¸ģ
à¸§à¸ĩà¸ª à¸ĩà¸ģà¸£à¸²à¸Ļà¸ķ
Ġà¸Ľà¸§à¸Ķ à¸«
à¸° à¸¢à¸²à¸Ļ
à¸ľà¸¡ à¸Ħà¸§à¸£à¸Ĺ
Ġà¸Ĥà¸Ń à¹Ģà¸¥
à¸²à¸£à¸²à¸¢ à¸¥à¸°à¹Ģà¸Ń
à¸ĩà¸Īà¸²à¸ģ à¸ľ
à¸§à¸¢ à¸«à¸£à¸Ń
Ġà¸Ļ à¸Ńà¸Ļà¹Ħà¸¡
à¸«à¸¥à¸²à¸¢ à¸Ħà¸Ļà¸Ĺ
Ġl tf
à¹Ģà¸ĭà¸¥ à¸Ł
à¸Ńà¸ĩ à¹Ģà¸¥à¸¢à¸Ħ
à¸Ĥà¸Ńà¸ĩ à¸Ħà¸Ļà¸Ń
à¸ģà¸© à¸²à¸¢
à¸Ńà¸²à¸«à¸²à¸£ à¸ĭ
à¹Ĥ à¸Ńà¸Ħ
Ġn av
à¸ģ à¹Ģà¸ŀà¸¨à¸Ĺ
à¸Ĥà¸Ń à¹Ģà¸ļà¸Ńà¸£
à¸Ļà¹Ħà¸«à¸Ļ à¸ģ
à¸ĩ à¸Ĭà¸²à¸¢
à¸Ĺ à¸²à¸ª
Ġà¸¡ à¸²à¸ļ
à¹Ģ à¹Ģà¸Ķ
à¸Ńà¸ĩ à¸ģà¸¥à¸²à¸ĩ
Ġà¹Ģà¸ŀà¸£à¸²à¸° à¹Ģà¸Ĥ
à¸£à¸²à¸Ħ à¸²à¸ŀ
à¸¡à¸²à¸ª à¸Ńà¸ļ
à¸ģà¸²à¸£ à¸ģà¸¥
à¸į à¸Īà¸£
à¹Ĥà¸ķ à¹Ĥà¸¢à¸ķ
Ġà¹Ģà¸Ī à¸²à¸°
à¸Ļ à¸ŀà¸£à¸°à¸Ħ
à¸ľà¸¡ à¹Ģà¸ģ
à¸¢ à¸Ńà¸°à¹Ħà¸£à¸ģ
à¸Ńà¸ª à¸ģ
à¹Ĥà¸ŀ à¸ªà¸Ĺ
à¸Ńà¸ĩà¸Ħ à¸²à¸¢
à¹Ģà¸ªà¸Ļà¸Ń à¹ĥà¸«
à¸ģ à¹Ģà¸¥à¸¢à¸Ħà¸£
à¸Ńà¸Ħà¸§à¸²à¸¡ à¸Ĭ
à¸²à¸«à¸¡ à¸ĵ
à¸ģà¸£à¸° à¸«à¸§
à¸Ļà¸ģà¸²à¸£ à¹Ģà¸¥
à¸§ à¸ŀà¸Ńà¸Ķ
Ġà¸Ħ à¸ĩà¸¡
à¸Ńà¸ĩà¹Ħà¸Ľ à¹ģà¸¥
à¹Ĥà¸Ķà¸¢ à¸Ľà¸£à¸°à¸¡à¸²à¸ĵ
iv ate
t is
à¸§ à¹Ģà¸ĺà¸Ńà¸ģ
à¹ĥà¸Ī à¸Ńà¸¢
à¸Ńà¸£ à¸Ńà¸ĩà¹Ģà¸Ĺ
à¹ģà¸ªà¸Ķà¸ĩ à¸ľà¸¥
à¸²à¸ķ à¸ģà¹ĥà¸Ī
Ġh om
o us
à¸²à¸Ńà¸Ńà¸ģ à¸¡à¸²à¹Ħà¸Ķ
t u
Ġà¹ģà¸¥à¸° à¸Ħà¸£
à¸²à¸Ľà¸¥ à¸²
Ġ à¸Ńà¸°à¸Ħ
à¹ĥ à¸ļà¸Ĺ
à¹ģà¸Ł à¸Ļà¸¢
à¸¢à¸Ķ à¸«à¸Ļ
à¹ģà¸£à¸ģ à¸Ĥà¸Ńà¸ĩà¸ľà¸¡
Ġn ame
à¸Ķ à¹Ħà¸«à¸¥
à¸°à¸ķ à¸²à¸ģà¸£à¸£à¸¡
à¸Ķà¸£ à¸Ńà¸Ľ
4 90
à¸Ńà¸Ńà¸ģ à¸¡à¸²à¸§
à¸²à¸¡ à¸Ķ
à¸²à¸ĩ à¹ĥà¸Ĭ
à¸Ħà¸Ļ à¸Ĭà¸Ńà¸ļ
Ġwh o
à¹Ħà¸Ĺà¸¢ à¹ģà¸¥à¸Ļà¸Ķ
à¸ªà¸£à¸£à¸ŀ à¸²à¸ģà¸£
à¸ĩà¸²à¸Ļ à¸Ľà¸ģà¸ķ
à¸Ķà¸ķ à¸²
Ġà¹ģà¸ļà¸ļ à¹Ħà¸«à¸Ļ
à¸Ńà¸¡ à¸§
à¸Ĺà¸£ à¸ª
à¸¢à¸Ļ à¸łà¸²à¸©à¸²à¸Ń
à¸Ħà¸²à¸Ķ à¸Ħ
à¸«à¸Ļ à¸§à¸Ķ
Ġset ting
à¸²à¸łà¸²à¸© à¸²à¸Ń
Ġtr ack
à¸²à¹Ģà¸£à¸² à¹Ģà¸£
à¸²à¸¡ à¸ŀà¸¥à¸²à¸Ķ
ar u
à¹Ĩà¹Ĩà¹Ĩà¹Ĩà¹Ĩà¹Ĩà¹Ĩà¹Ĩ à¹Ĩà¹Ĩà¹Ĩà¹Ĩà¹Ĩà¹Ĩà¹Ĩà¹Ĩ
Ġà¹ģ à¸Ħà¸¥
Ġmov ie
à¸Ńà¸ļ à¸Ńà¸ģà¸ģ
à¹Ģà¸§à¸¥ à¸²à¸¥
ire ct
à¸£ à¸§à¸Ķà¹Ģà¸£
à¸Ļà¹Ħà¸Ľ à¸Ĭ
Ġro se
à¸²à¸ľà¸¥ à¸²à¸į
à¸Ĥà¸ĵà¸° à¹Ģà¸Ķ
Ġf i
à¸Ńà¸²à¸ģà¸²à¸£ à¸Ħ
à¸¡ à¸Ħà¸Ļà¸Ĺ
à¸ĩà¸²à¸Ļ à¹ģà¸¥
à¸²à¸ĩà¹Ĩ à¹Ħà¸Ķ
à¸²à¹Ħà¸ĩ à¹ĥà¸«
Ġà¸Ħà¸§à¸²à¸¡ à¸ĩà¸²à¸¡
Ġà¸ªà¸° à¸ŀà¸²à¸Ļ
Ġ7 9
à¸ĩà¸²à¸Ļ à¸Ī
Ġte chn
à¸«à¸²à¸£ à¸ª
à¸²à¸Ħà¸§à¸²à¸¡ à¸Ħ
à¸Ļà¸ķà¸²à¸¡ à¸Ĺ
en a
à¸² à¹Ģà¸§à¸Ńà¸£
à¸Ńà¸Ļ à¹Ģà¸£à¸²à¹Ģà¸Ľ
à¸¢à¸ĩ à¸Īà¸²à¸ģ
à¸Ļà¸Ĺà¸²à¸ĩ à¸Ńà¸¢
à¸¢à¸ķ à¸°à¸§
à¹ĥà¸Ļ à¹Ģà¸¥
à¸Ńà¸Ńà¸ģà¸¡à¸² à¹Ħà¸¡
à¸Ńà¸¢à¸Ļà¸°à¸Ħà¸° à¸Ĥà¸Ńà¸ļà¸Ħ
à¸Ńà¸ĩ à¸ļà¸£
à¸«à¸¡à¸Ķ à¹Ħà¸Ľ
à¹Ģà¸Ĥà¸² à¹ĥà¸Ĭ
à¸ļà¸Ńà¸¥ à¹Ĥà¸¥à¸ģ
Ġà¸ķà¸¥à¸Ńà¸Ķ à¹Ģà¸§à¸¥à¸²à¸Ĺ
à¸ļà¸ª à¸£
Ġà¸¥à¸Ķ à¸¥à¸ĩ
à¸§à¹ģà¸Ĺ à¸Ļà¸Ĥà¸Ńà¸ĩ
Ġà¸ª à¸Ķ
à¸Ļà¸£ à¸Ńà¸ĩà¹Ģà¸Ĺ
Ġb kk
à¸ĵ à¸Īà¸°à¹Ģà¸¥
à¸²à¹Ħà¸¡ à¸Ĭ
à¸Ĺà¸²à¸ĩ à¹ģà¸ģ
à¸Ĥà¸Ńà¸ĩà¹Ģà¸£à¸² à¹Ģà¸Ńà¸ĩ
à¹Ģà¸¡ à¸Ĩ
à¹Ħ à¸Ńà¸£
à¸Ĥà¸Ńà¸ĩ à¸Ŀ
Ġà¹ĥà¸Ļ à¸ģà¸²à¸£à¸ª
à¸ŀà¸²à¸£ à¸²à¸ģ
à¸ļ à¸¡à¸²à¸Ĥ
à¸Ľà¸£à¸° à¸ŀà¸¤à¸ķ
à¸§ à¹Ĥà¸Ķà¸Ļ
à¸©à¸¢ à¸²
à¹Ģà¸§à¸¥à¸² à¹Ģà¸ŀ
à¹Ĩ à¸Ļà¸°
à¸²à¸Ħ à¸¡à¸Ĺ
Ġw ild
Ġà¸Ľ à¸ģà¸Ľ
à¸Ń à¹Ģà¸£à¸²à¹Ħà¸Ľ
à¸Ńà¸¡ à¸²à¸Ļ
à¸¢à¸¢à¸¢à¸¢ à¸¢à¸¢
à¸²à¸ģà¸²à¸£ à¸¢
à¸Ĥ à¸Ļà¸²à¸Ļ
à¸ģà¸© à¸²à¸ľ
Ġà¸Ńà¸¢à¸²à¸ģ à¹Ģà¸Ľà¸¥
Ġà¹Ģà¸ª à¸¡
Ġà¸£à¸ĸ à¹Ħà¸¡
à¸ĺà¸£à¸£à¸¡à¸Ķ à¸²à¸Ĺ
à¸ĩ à¹Ģà¸ķà¸£
à¹Ģà¸ģà¸©à¸ķà¸£ à¸¨à¸²à¸ªà¸ķà¸£
à¸ļà¹Ģà¸£à¸² à¹ģà¸¥
à¸²à¸ĩ à¹ĥà¸ģà¸¥
à¸ĵà¸£ à¸ĩà¸Ħ
à¸¢à¸§ à¸ģà¸¥à¸²à¸ĩà¸Ħ
à¸¢à¸ĩ à¹Ģà¸ŀà¸¥à¸ĩ
Ġà¹Ĥ à¸«à¸§
à¸ģà¸²à¸£ à¸Ĥà¸Ļà¸ª
à¹Ģà¸ģà¸£ à¸ĩà¸§
à¸«à¸¡à¸Ķ à¸Ħà¸£
à¹ģà¸ļ à¸Ļà¸Ķ
à¸ĩà¸« à¸²à¸Ĺ
à¸Ķà¹Ģà¸Ĭ à¸¢
à¸Ļà¸Ń à¸²à¸£à¸¡à¸ĵ
à¸Ļà¸²à¸ĩ à¸Ł
à¹ģà¸ĸ à¸¡à¸¢
à¸ķà¸ķ à¸²à¸Ļ
à¸Ńà¸Ļ à¸Īà¸°à¸Ķ
à¹Ħà¸Ľ à¸Ľà¸£
à¸Ľà¸£à¸°à¸ģà¸²à¸¨ à¸ľà¸¥
à¸Ńà¸ª à¸ĭ
à¸²à¸Ľà¸£à¸° à¸§
à¸²à¸Ļ à¸ĩ
Ġà¹Ģà¸Ħ à¸¡
à¹ķ à¹ķ
à¸Ļà¸Ķ à¸Ńà¸Ļà¹Ģà¸¡
à¸ļ à¹Ĥ
à¸ĩà¸²à¸Ļ à¹Ģà¸Ĥ
à¸ª à¸¥à¸°
Ġpass word
à¸Ĥà¸Ń à¸Ń
à¸Ķ à¸Ħà¸§à¸²à¸¡à¸ª
à¸ĩà¸¡ à¸Ńà¸ļ
à¸ĩ à¹Ħà¸«à¸¡à¸Ħà¸°
à¹Ģà¸Ĥ à¸²à¸ļ
à¸£à¸²à¸Ĭ à¸ģ
à¸Ļà¸ķà¸£ à¸ĩà¸ģ
à¸ģà¸Ń à¸²à¸¨
à¸²à¹Ģà¸£ à¸²à¸ľ
à¸Ļà¸ģà¸²à¸£ à¸ŀ
à¸¢à¸¡ à¸£
à¹Ģà¸Īà¸Ń à¹ģà¸¥
à¸¥ à¹ģà¸¥à¸°
à¸į à¸Ľ
Ġc ook
Ġb ir
à¹Ģà¸£à¸²à¸Īà¸° à¹Ģà¸Ľ
à¸²à¸Ļà¸²à¸¢ à¸Ŀ
à¸Ĥà¸Ńà¸ĩ à¹ģà¸ĸà¸¡
à¸Ńà¸²à¸Ī à¸Īà¸°à¸Ĺ
à¸Ļà¹Ħà¸Ľ à¸Ĺà¸²à¸ĩ
à¸Ńà¸¢ à¹ģà¸¥à¸°
Ġà¸ľà¸¥ à¹Ħà¸¡
à¸Īà¸ī à¸²à¸Ĭ
à¸ªà¸ªà¸²à¸§ à¸°
à¸Ĺà¸£ à¸§à¸ĩà¸¨
à¸Ļà¸²à¸Ļ à¸ģà¸§
à¸ĩ à¹ģà¸Ļà¸°à¸Ļ
à¸§ à¹Ģà¸£à¸²à¹Ģà¸Ľ
Ġc ast
Ġ19 5
à¸ŀà¸Ń à¸Ń
à¸²à¸Ļ à¹Ģà¸«à¸¡
ap ore
à¸Īà¸ŀà¸£à¸° à¸ª
à¸ĸ à¸§
Ġf air
à¸ģà¸¥à¸²à¸ĩ à¸Ľ
à¸ĩ à¸§à¸ĩ
à¸ľà¸¡ à¹Ģà¸Ħà¸¢
à¸ķ à¸Ĺà¸£
Ġ" """
Ġfore ver
à¸Ļà¸Ħà¸Ļ à¸ģ
à¸¢à¸Ļ à¹Ģà¸Ĥ
à¸łà¸²à¸ŀ à¸£à¸§à¸¡
à¹Ĥà¸¡ à¸ĩà¸Ħà¸£
id ay
Ġà¸Ħ à¸Ľà¸ł
Ġb et
à¸²à¸ĩ à¸ŀà¸£
à¸Ī à¸Ļà¸§
à¹ĥà¸Ħà¸£ à¹Ģà¸¥
à¸²à¹ģ à¸Ńà¸£
à¸Ĥ à¸§à¸²à¸ĩ
à¸ķà¸ķ à¸²
à¸²à¸§ à¸Ľ
à¸Ńà¸ĩ à¹Ģà¸£à¸²à¸ģ
à¸Ħà¸Ļ à¹Ģà¸£
Ġà¹Ģà¸£ à¸²à¸Ńà¸²à¸Ī
à¸Ľà¸§à¸Ķ à¸Ľà¸£à¸°à¸Ī
Ġà¸¡à¸²à¹Ģà¸¥ à¹Ģà¸ĭ
à¹Ģà¸£ à¸Ļ
Ġf ly
à¸Ļà¸Ĥà¸Ńà¸ĩ à¸ľà¸¡
à¸ģà¸Ĳà¸²à¸Ļ à¸Ĺ
à¸ģ à¸ŀà¸¥
à¸ĵ à¸²à¸Ķ
à¸Ļà¹Ģà¸ŀ à¸¥à¸ĩà¸Ĺ
g y
Ġhe ad
à¸²à¸Ńà¸° à¸Ħà¸£
à¸Ńà¸Ļ à¹Ģà¸¥à¸¢à¸Ħ
à¸Ħà¸Ļ à¹Ģà¸ª
à¸Ļà¸Ĺ à¸°à¹Ģà¸ļ
à¸ļ à¹Ģà¸Ńà¸ģà¸ªà¸²à¸£
à¹Ĥà¸« à¸Ķà¸£
Ġp ur
à¸¥à¸ĩ à¹ĥà¸Ļ
Ġà¸£à¸ĸ à¸ģà¸£à¸°à¸ļà¸°
à¸Ķ à¹Ģà¸¥à¸¢à¸Ħà¸£
à¸¢à¸Ļ à¹Ģà¸Ĭ
à¸Ļà¹Ħà¸Ľ à¸ļ
à¸Ļà¹Ģà¸ŀ à¸¥
à¸¡ à¹Ħà¸«à¸¡à¸Ħà¸£
Ġ^^ ,"
Ġà¹Ħà¸Ľ à¹ĥà¸«
à¸ģ à¸Ńà¸¢à¸²à¸ģ
à¸Ń à¸Ľà¸£à¸°à¹Ģà¸Ĺà¸¨
à¸Ķ à¹Ħ
à¸Ń à¹ģà¸£
à¸Ķ à¸Ńà¸£
Ġ: ::
Ġn ow
à¸® à¸Ńà¸Ļà¸Ķ
à¸Ńà¸Ļà¸ģà¸£ à¸ģà¸İ
à¹ģà¸Ńà¸ļ à¸Ń
z er
à¸Ļà¹Ģà¸£ à¸²à¸¢
ver s
à¸²à¸Ķ à¸Ļ
Ġpro cess
à¸Ńà¸£ à¸Ńà¸ĩ
à¸£ à¸Ńà¸Ħ
Ġà¸Ĥ à¸¢à¸²à¸¢
à¸¡à¸²à¸Īà¸²à¸ģ à¹Ħà¸«à¸Ļ
Ġ9 50
Ġg od
à¸Ļà¸²à¸¡ à¸§
à¸Ķ à¸Ľà¸£à¸°à¹Ĥà¸¢à¸Ĭà¸Ļ
à¹ĥà¸Ļ à¹Ĥà¸£à¸ĩà¹Ģà¸£
à¹ģà¸ª à¸ĩà¸ª
à¸²à¸Īà¸° à¸Ľà¸£à¸°à¸¡à¸²à¸ĵ
à¸§à¸¡ à¹Ģà¸Ķ
à¸ļ à¸ŀà¸£à¸°à¹Ģà¸Ńà¸ģ
à¸ĵ à¹ĥà¸«
à¹Ģà¸¥à¸¢ à¸ģà¸¥
à¸Ńà¸ĩà¸ģà¸²à¸£ à¸Ļ
à¸Ī à¸Ķà¸Ī
à¸Ļà¹Ħà¸Ľ à¹Ģà¸¥
Ġà¹Ĥà¸£ à¸ĩà¸ĩà¸²à¸Ļ
Ġà¸« à¸²à¹Ħà¸¡
à¸§à¸Ļ à¹ģà¸ķ
à¸Ńà¸Ļ à¹ģà¸ļà¸ļà¸Ļ
à¸Ħà¸Ļ à¹Ģà¸Ĭ
Ġà¸ģà¸²à¸£ à¸ĭ
à¸ģ à¸Ľà¸£à¸°à¸ģà¸²à¸£
à¸§ à¹ģà¸Ľà¸£
ht c
à¸²à¸ļ à¸ļ
! "
à¸²à¸ª à¸°
à¸²à¸ļ à¸ļà¸ļ
.... ,"
à¸Ļ à¹Ģà¸«à¸ĩ
à¸Ńà¸ĩ à¸Ńà¸Ńà¸ģà¹Ħà¸Ľ
à¸Ńà¸¢ à¸ķà¸²à¸¡
à¹Ģà¸Ń à¸²à¹Ģà¸Ľ
à¹Ĥà¸¥ à¸Ļ
Ġà¸¢ à¸²à¸¢
g in
Ġà¸¡ à¸Ħ
25 61
à¸ģ à¹ģà¸ŀ
à¸ĩ à¹Ģà¸¡à¸¥
à¸²à¸ķ à¸Ļà¹Ģà¸Ńà¸ĩ
à¸¢à¸²à¸¢ à¹Ģà¸£
à¸§à¸¢ à¹ĥà¸Ĭ
h ard
à¸ģ à¹Ģà¸ĸ
ch amp
à¹Ĥà¸Ńà¸ģà¸²à¸ª à¸ķ
à¹Ģ à¸Ļà¸ģ
à¹ĥ à¸Ĥ
à¸Ļà¸ģà¸²à¸£ à¸ªà¸£
Ġà¸Ī à¸Ļà¹Ģà¸Ľ
à¸Ńà¸Ńà¸ģà¸Īà¸²à¸ģ à¸«
à¸Ń à¸£à¸°à¸Ķ
à¸Ļà¸¡à¸²à¸ģ à¸Ļ
Ġm k
Ġf ord
à¸ĩà¹Ħ à¸ģà¸¥
à¸ªà¸¡à¸£ à¸ªà¸ģ
à¸¡à¸²à¸«à¸¥à¸²à¸¢ à¸Ľ
à¸Ńà¸ĩà¸ģà¸²à¸£ à¹Ģà¸¥
à¸¡ à¹ģà¸Ī
Ġà¸«à¸¥ à¸§à¸ĩà¸ŀ
Ġà¸Ħà¸§à¸£ à¸ĭ
à¹Ħà¸«à¸Ļà¸¡à¸² à¹Ħà¸«à¸Ļ
à¸§ à¹Ħà¸Ľà¸Ķ
à¸ļ à¸Īà¸°
à¸ķà¸Ńà¸Ļ à¸«à¸¥
à¸Īà¸²à¸ģ à¹Ģà¸¡
à¹ĥà¸Ħà¸£ à¸¢
à¸Ńà¸²à¸ģà¸²à¸£ à¸Ĺ
à¸§ à¸Ħà¸Ļà¸Ń
à¹ģà¸ļ à¸ĩà¸ģ
à¸Ļà¹Ĥ à¸®
........ .....
à¹Ģà¸£ à¸²à¸«à¸£
Ġ6 3
à¸ķà¸Ńà¸ļ à¸ªà¸Ļ
à¸¹à¹Ī "
à¸ĩà¸Ħ à¸ĩà¹Ħà¸¡
à¸ļà¸ģ à¸Ńà¸ĩà¸Ĺ
à¸ģ à¸Īà¸°à¹Ħà¸Ķ
à¸¡à¸² à¹Ģà¸Ļ
Ġà¸Ĥà¸Ļà¸¡ à¸Ľ
Ġà¹ģà¸¥à¸° à¹Ģà¸«
18 5
à¸² à¹Ģà¹Ģà¸Ļà¸°à¸Ļ
Ġà¹ģà¸¥à¸° à¸Ľà¸£
à¸įà¸« à¸²à¹Ģà¸Ķ
à¸ĩ à¹Ĥà¸Ħ
à¸¥ à¸ģà¸£
à¸ŀ à¸ļà¸Ľ
es th
à¸Ĥà¸Ń à¸Ľà¸£
Ġà¸Ĥà¸Ń à¸Ħà¸§à¸²à¸¡à¸£
Ġf est
Ġà¸Ī à¸Ļà¸¡à¸²à¸§
Ġh ong
à¸¢à¸ĩ à¸ĭ
à¸ļà¸²à¸¢ à¹Ħà¸¡
Ġs ong
Ġ16 5
à¸Ńà¸ĩ à¸Łà¸£
à¸Ļà¹Ģà¸Ļ à¸Ńà¸°
à¸ķà¸£ à¸¡
à¹Ĥà¸Ńà¸Ļ à¸¢
orm ones
à¹Ģà¸§à¸¥ à¸²à¸Ī
Ġd et
à¸Ļà¸Ħà¸Ļ à¹Ģà¸¥
à¸¢à¸Ļ à¸ªà¸¡à¸£à¸ª
Ġ9 8
à¸Ńà¸ĩà¹Ħà¸Ľ à¸ĭ
à¸¢à¸Ļà¸łà¸²à¸© à¸²à¸Ĺ
à¹Ģà¸Īà¸Ń à¸Ħà¸Ļ
à¸Ńà¸ľà¸¡ à¹Ħà¸Ķ
Ġf ix
à¹Ĥà¸Ķà¸¢ à¹Ģà¸£
l i
Ġà¸£à¸²à¸Ħà¸² à¹Ģà¸ŀ
à¸ĩà¸Ħà¸§à¸²à¸¡ à¹Ģà¸«
Ġmer c
à¸¢ à¹Ģà¸Ī
à¸Ķ à¸ģà¸£à¸°à¸Ĺ
à¸ķ à¹Ģà¸§
à¸£à¸ŀ à¸²
à¸¢ à¸Ľà¸ģà¸ķ
à¸£à¸²à¸Ĭ à¸§
à¸§ à¹Ĥà¸Ķ
à¸¢à¸Ļ à¸Łà¸£
Ġs a
Ġis land
à¸£à¸²à¸¢à¸ģà¸²à¸£ à¸ª
à¸¢ à¹Ħà¸¥à¸Ļ
à¹Ģà¸Ħ à¸¢à¸§
à¸Ĳ à¸Ń
ag o
à¸Ļà¹Ĥà¸£à¸Ħ à¸ĭ
à¹ģà¸§à¸° à¹Ģà¸Ĥ
à¸²à¸Ħà¸§à¸²à¸¡ à¸Ķ
à¸« à¸²à¸Ļ
à¸ĩà¸²à¸Ļ à¸Ĥà¸Ńà¸ĩ
à¸²à¹Ģà¸ŀà¸£à¸²à¸° à¸Ńà¸°à¹Ħà¸£
à¸§à¹Ģà¸£ à¸²à¸¡
à¸ĩà¹Ģà¸¥ à¸§
à¸Ńà¸£ à¸£à¸ĸ
à¸²à¸ľà¸¡ à¸Ķ
à¸ķà¸Ńà¸ļ à¹Ĥà¸ķ
Ġste am
k r
à¸Ļ à¸ĸà¸²à¸¡
Ġf ar
Ġ---- ---
à¸²à¸Ķ à¸ŀ
à¸ļà¸Ħà¸Ļ à¹ĥà¸«à¸¡
à¸²à¸ª à¸ĩà¸Ħà¸£à¸²à¸¡
à¸Ķà¸ķ à¸Ńà¸Ļà¸Ļ
à¸ĩà¸Īà¸° à¸Ī
à¸²à¸ģà¸²à¸£ à¹Ģà¸Ķ
à¸ŀà¸¢à¸²à¸¢à¸²à¸¡ à¸ķ
Ġà¸Ńà¸²à¸Ī à¹Ħà¸¡
en ch
Ġp df
à¸ģ à¸Ħà¸§à¸²à¸¡
à¸ģà¸£à¸°à¸Ī à¸²à¸¢à¹Ģà¸ª
à¸Ľ à¹Ģà¸¥à¸¢
à¸Ńà¸ģ à¸Ħà¸£
à¸Ńà¸Ļà¹Ģà¸¡à¸© à¸²à¸¢à¸Ļ
Ġà¸Ħà¸§à¸²à¸¡ à¸ªà¸²à¸¡à¸²à¸£à¸ĸ
à¸²à¸Ŀ à¸Ļ
à¸²à¸Īà¸° à¹ģà¸ģ
à¹Ĥà¸Ĺà¸£ à¸Ńà¸Ńà¸ģ
à¸Ń à¸£à¸°à¸«à¸§
Ġà¹Ħà¸Ń à¹Ĥà¸Łà¸Ļ
à¸¡à¸²à¸Ļ à¸°à¸Ħà¸°
à¸²à¸ªà¸Ļà¹ĥà¸Ī à¸ļ
Ġà¹ģà¸¥à¸° à¸Īà¸°
à¸ĩà¸Īà¸° à¹ĥà¸«
à¹ģà¸Ĥ à¸§à¸Ļ
ĠâĢ ĭ
Ġà¹Ĥà¸ĭ à¸Ļ
Ġexp o
à¸§ à¸«à¸¢
à¸Īà¸²à¸ģ à¸Ĺà¸²à¸ĩ
à¸ķà¸Ńà¸ļ à¸ģ
à¸Īà¸²à¸ģ à¹Ħà¸Ľ
à¸ªà¸Ńà¸ļà¸ĸà¸²à¸¡ à¸Ĥ
à¸¥ à¸ĺà¸£à¸£à¸¡
à¹Ģà¸ŀà¸¥à¸ĩ à¹Ħà¸Ĺà¸¢
à¸Ķà¸£ à¸Ńà¸ļ
à¸ĩà¸²à¸Ļ à¸Ĭ
à¸Ĺ à¹ģà¸¥
Ġà¸ķà¸Ńà¸Ļ à¹ģà¸£à¸ģà¸Ĺ
à¸ģà¸²à¸£ à¸Ł
à¸ķà¸£ à¸Ľà¸£à¸°à¸Ī
à¸Ļà¸§ à¸²à¹Ģà¸¥à¸Ļà¹Ħà¸Ĺà¸Ļ
à¸° à¹ĥà¸«
à¸¢à¸§ à¸Ħà¸Ļà¹Ģà¸Ķ
Ġà¹Ģà¸ŀà¸£à¸²à¸° à¹ĥà¸Ĭ
à¸ļà¸ģà¸²à¸£ à¸Ĭ
Ġà¸¡ à¸²à¸ķà¸¥à¸Ńà¸Ķ
Ġà¸ªà¸¡ à¸²à¸Ħà¸¡
à¸²à¸Ĭ à¸²à¸£
à¸¡à¸²à¸Ľ à¸£à¸°à¸ģ
à¸ĩà¸¡ à¸²à¸ª
à¸Ļà¸ģà¸²à¸£ à¸ļ
Ġe ff
à¸§à¸Ļ à¹Ħà¸«à¸Ļ
Ġk im
à¸Ńà¸Ļ à¹Ģà¸ŀà¸£à¸²à¸°
à¸¢à¸Ķ à¸²à¸¢à¹Ģà¸ĩ
à¸ķ à¹Ģà¸¥à¸¢
à¸Ļà¸¡ à¸²à¸«à¸Ļ
at m
Ġà¹Ģà¸Ń à¸²à¹Ģà¸ĩ
à¸²à¸¡ à¸Ńà¸ĩ
à¹Ħà¸ĩ à¸Ħà¸£
6 000
Ġl ittle
à¸ļà¸Ńà¸ģ à¹Ģà¸¥à¸¢
Ġà¹Ĥà¸Ĺ à¸©
à¸ĩà¹ĥà¸Ī à¹Ħà¸§
à¹Ģà¸ŀà¸¥ à¸ĩà¸ģ
d own
j r
Ġà¸ľà¸¡ à¸Ĭ
à¸Ńà¸¡ à¸ĭ
à¸ĺà¸£à¸£à¸¡à¸Ķ à¸²à¸Ħ
à¸¡ à¸ļà¸£
à¸²à¹ĥà¸Ī à¸Ħà¸£
Ġà¹ĥà¸Ļ à¹Ģà¸§
à¸łà¸²à¸Ħ à¸ŀ
à¸² à¹Ģà¸«à¸¢
Ġv e
à¸² à¹Ģà¸Łà¸ª
Ġà¹Ģà¸ļ à¸¥
Ġbal ance
Ġà¹Ĥà¸Ĺà¸£ à¹Ģà¸Ĥ
à¸¡ à¹Ħà¸Ľà¹ģà¸¥
à¸Ľ à¸¡à¸²
à¸²à¹Ħà¸¡ à¸ģ
à¸ģà¸Ħà¸Ļ à¸Ħà¸£
á Ģ
à¸Ń à¸Ħà¸£à¸Ńà¸ļà¸Ħà¸£
à¸§à¸Ļ à¸ľà¸¡
à¸Ī à¹Ģà¸Ľ
à¸ĩà¸Ĺ à¸«à¸²à¸£
à¸«à¸¥à¸²à¸¢ à¹ģà¸ļà¸ļ
Ġà¸Ĥà¸Ńà¸ĩ à¹ĥà¸Ĭ
à¸²à¸Ļà¸¡ à¸²à¸Ħ
à¸£à¸° à¸Ħà¸²à¸¢
ann a
Ġv do
à¸Ńà¸ĩà¸Ĺà¸²à¸ĩ à¸ģà¸²à¸£à¸ķ
à¸Ńà¸ĩ à¹ģà¸¢
à¸Ļà¸£ à¸ģ
à¸£à¸ģà¸£à¸£à¸¡ à¸Ĺà¸²à¸ĩà¸ģà¸²à¸£à¹Ģà¸ĩ
à¸ļ à¹Ģà¸¢
à¸ªà¸§à¸¢ à¸Ĺ
Ġj ack
Ġno vel
à¸§à¸¢ à¸Ľà¸£
Ġà¹Ģà¸¡ à¸¢
à¹ģà¸Ĺà¸ļ à¸Īà¸°
à¸Ńà¸¡ à¸²à¸¥
à¸Ļà¸ļ à¸²à¸ĩà¸Ħà¸£
à¸ªà¸²à¸¡à¸²à¸£à¸ĸ à¹ģà¸Ļà¸°à¸Ļ
ser vice
à¹Ī .
Ġà¸Ĥ à¸Ńà¸Ķ
à¸«à¸¥à¸²à¸¢ à¸Ħ
ue en
à¸ĩà¸Ħ à¸ĩà¸ķ
à¸¢à¸ļ à¹Ħà¸Ķ
f ree
à¸§ à¸łà¸²à¸ŀ
10 1
Ġcom m
Ġcle ans
Ġ à¹Ħà¸«à¸¡à¸Ħà¸°
à¹Ħà¸ĭ à¹Ħà¸Ł
Ġ0 3
f or
à¸Ķà¸ķ à¸¥à¸²à¸Ķ
à¹ģà¸Ńà¸ļ à¸¡
à¸ĸ à¸§à¸²à¸¢
al th
à¸Ķà¹Ĩ à¸Ħ
à¸ģà¸²à¸£ à¸Ľà¸£à¸°à¸¡
Ġà¸ľà¸¥ à¸Ħ
Ġ!! !!!
à¸Ńà¸Ļ à¹Ģà¸Ħà¸¢
à¹Ģà¸¡ à¸ģ
à¸µ ",[
à¸Ńà¸ª à¸ģà¸²à¸£
ach i
à¸į à¹Ģà¸Ľ
à¸Ļà¹ģ à¸ĭ
à¸¡à¸²à¸£ à¸Ķ
à¸¡à¸« à¸²à¸ªà¸¡
Ġg ift
à¸²à¹Ģà¸Ń à¸¥
à¸§ à¹Ħà¸«à¸¥
re d
à¸Ĭ à¸¡à¸ª
à¸ľà¸¡ à¸ľ
à¹Ħà¸£ à¸Ĺ
Ġà¸ķ à¸ģà¹ģà¸ķ
à¸¢à¸§ à¸Ĥà¸Ńà¸ĩ
à¸²à¸§ à¸«à¸²
Ġà¹Ģà¸ŀà¸£à¸²à¸° à¸ķà¸Ńà¸Ļ
Ġair asia
à¸Ńà¸¢à¸²à¸ģ à¹Ħà¸Ľà¹Ģà¸Ĺ
Ġà¸ªà¸§à¸¢ à¸ĩà¸²à¸¡
Ġadvanc ed
à¸§à¸¢ à¹Ħà¸«à¸¡
à¸²à¸Ķ à¸ģ
à¸Ļà¸Ńà¸°à¹Ħà¸£ à¸Ķ
à¸Ľà¸£ à¸²à¸¢
à¹ģ à¸«à¸§
à¸ķà¸£ à¸Ĥà¸Ńà¸ĩ
à¸ªà¸²à¸Ĥ à¸²à¸Ļ
Ġit unes
Ġg d
à¸Ļ à¸ŀà¸£à¸°à¸£à¸²à¸Ĭ
à¸§à¸²à¸Ķ à¸£
à¸Ńà¸Ļ à¸«à¸¡
à¸ģà¸ĩà¸²à¸Ļ à¸£
Ġdr agon
Ġà¸£ à¸Ńà¸ļà¸Ħ
à¸²à¹Ħà¸¡ à¹Ģà¸£à¸²à¸ĸ
Ġà¸Ĥà¸Ńà¸£ à¸ļà¸ģà¸§à¸Ļ
Ġ8 9
à¸¡ à¸ªà¸Ļ
à¸Ħà¸§à¸²à¸¡ à¸«à¸Ļ
à¸ĩà¸ª à¸ĸà¸²à¸Ļà¸Ĺ
à¸¢à¸§ à¸Īà¸£
Ġ6 500
à¸Ķ à¸łà¸²à¸©
à¹Ħà¸Ľ à¹Ģà¸ŀ
Ġà¸ľà¸¡ à¸¥
à¸Ńà¸Ļà¹Ĩ à¸Ļ
à¸Ļ à¹Ģà¸Ńà¸²à¹Ħà¸§
à¹Ģà¸Ħ à¸²à¸Ĺ
à¸Ļà¸ģ à¸Ńà¸ĩà¸Ĺ
à¸Ĳà¸²à¸Ļ à¸Ĺ
à¸Ļà¹ģà¸ķ à¸ģà¸ķ
à¸Ĭà¸£ à¸ļ
b al
à¸¢à¸Ļà¹Ħà¸Ľ à¹ĥà¸Ĭ
à¹ģà¸ļà¸ļ à¸¥
Ġà¹Ģà¸ĭ à¸ķ
à¹ģà¸Ľà¸¥à¸ģ à¹ĥà¸«à¸¡
à¸ĺ à¸²à¸£
en ing
re view
à¸²à¸ĩ à¸Ĥà¸Ńà¸ļà¸Ħ
à¸§à¸¢à¸Ħà¸§à¸²à¸¡ à¹Ģà¸Ľ
à¸²à¸Ĺ à¸²à¸¢
Ġà¹ģà¸¥à¸° à¸Īà¸°à¸¡
fi eld
Ġu v
à¸²à¸Ńà¸°à¹Ħà¸£ à¸ķ
Ġà¸Īà¸²à¸ģ à¸ģà¸²à¸£à¸Ĺ
à¸Ķ à¹Ģà¸£à¸²à¸ģ
à¸Ľ à¸²à¸Ļà¸ģà¸¥à¸²à¸ĩ
à¹Ħà¸Ľ à¸¥à¸ĩ
à¸ĩà¸«à¸¡à¸Ķ à¹Ģà¸Ľ
à¹Ĥ à¸Ńà¸ķ
à¹Ĥà¸£à¸Ħ à¸ł
à¸ļà¸Ńà¸ģ à¸¥
Ġà¹Ģà¸Ń à¸²à¸ķ
à¸Ĭà¸Ńà¸ļ à¹Ģà¸¥à¸¢
à¸²à¸ģà¸²à¸£ à¸Ń
à¸° à¸«à¸¥
à¸Ľà¸£à¸°à¹Ģà¸Ĺà¸¨ à¸ķ
à¸ĺà¸Ļà¸²à¸Ħà¸²à¸£ à¸Ĺ
âĺħ âĺħ
à¸Ħ à¸Ħà¸£
Ġà¹ĥà¸Ļ à¸Ĺà¸²à¸ĩ
à¸Ķà¹Ĩ à¸Ļ
Ġà¸ķà¸Ńà¸Ļ à¸Īà¸ļ
à¸ļ à¹ģà¸ľ
à¸²à¸Ĥà¸Ńà¸ĩ à¹Ģà¸£à¸²
à¸Ľà¸£à¸²à¸ģà¸ı à¸ķ
o v
à¹Ģà¸¢à¸Ńà¸° à¸¡
à¸Ļà¹Ģà¸Ħ à¸¢à¸ģ
Ġà¸ľà¸¥ à¸Ĺ
à¸²à¸ľà¸¥ à¹Ħà¸¡
à¸Ķ à¸£à¸ĸà¸¢à¸Ļà¸ķ
à¸²à¸Ĭ à¸²
Ġ5555 5555
à¸Īà¸°à¹Ħà¸Ľ à¸ª
à¸¡à¸Īà¸²à¸ģ à¸ģà¸²à¸£
Ġp u
à¸£ à¸Ĭ
à¸Ķ à¸¢à¸²
à¸Ńà¸Ħà¸§à¸²à¸¡ à¹Ģà¸Ľ
à¸Ń à¸Ńà¸¢à¸²à¸ģà¹ĥà¸«
à¸²à¹Ħà¸¡ à¸Ī
-- >
à¸ĭ à¸Ńà¸ĩ
à¸²à¸ĩà¹Ħà¸£ à¸Ħ
Ġ à¸Ńà¸ļ
Ġm id
Ġà¸ŀà¸£à¸° à¸ļà¸²à¸Ĺà¸ªà¸¡à¹Ģà¸Ķ
Ġ?? ,
Ġà¸Ī à¸²à¸Ļ
à¸Ļà¸ª à¸Ńà¸Ķ
à¸Ń à¹Ģà¸£à¸²à¹Ħà¸Ķ
à¸ģà¸¥ à¸²à¹Ĥà¸«à¸¡
à¸²à¸ŀ à¸¢
Ġà¹ģà¸ªà¸Ļ à¸ļà¸²à¸Ĺ
à¸¥à¸° à¸Ħà¸°
à¸Ńà¸ĩ à¹Ģà¸«à¸Ļ
à¸§à¸²à¸ĩ à¹ĥà¸Ī
à¸²à¸ĩ à¸Ľà¸¥
à¸Ļà¹Ģà¸¡ à¸Ļ
ãĢ Ĥ
à¸¢à¸ĩ à¸«à¸¡
Ġà¸ľà¸¡à¹Ģà¸¥à¸¢ à¸ķ
à¸Ķ à¸ģà¸£à¸°
à¸ªà¸²à¸ĺà¸²à¸£à¸ĵ à¸£
à¹ģà¸Ľ à¸Ľà¹Ģà¸Ķ
à¸ľà¸¥ à¸Ńà¸°à¹Ħà¸£
à¸Ĥà¸Ńà¸ĩ à¹Ģà¸ģ
à¸«à¸¥ à¸ĩ
à¸ļà¸Ļ à¸«
à¸²à¸¢à¸Īà¸²à¸ģ à¸ģà¸¥
à¸Ļ à¹Ĥà¸¡
à¸Ħà¸§à¸²à¸¡ à¸¥à¸°à¹Ģà¸Ń
à¸Ļà¸£à¸ĸ à¹Ģà¸¡à¸¥
à¸Īà¸²à¸ģ à¹ĥà¸Ļ
à¸ĭà¸° à¹Ģà¸¥à¸¢
à¸Ł à¸§
à¹Ĥà¸£ à¸ĩà¸ļà¸²à¸¥
à¸ķà¸ĭ à¸Ńà¸¥
m c
à¸ĩ à¸¨à¸²à¸¥
à¸ĩà¸Ħ à¸ĩ
à¸Ŀà¸²à¸ģ à¹Ģà¸ĩ
à¸²à¹ĥà¸Ī à¹Ģà¸£
à¸²à¸§ à¹Ģà¸¢
à¸Ħ à¸ĩà¹Ħà¸Ķ
à¸ĭ à¸²à¸£
on s
Ġà¸£à¸§à¸¡ à¹Ģà¸Ľ
à¸ģ à¹Ħà¸Ľà¸Ĺ
Ġà¸ľà¸¡ à¹Ģà¸Ńà¸ĩ
à¸Ļà¸Ĺà¸²à¸ĩ à¹Ħà¸Ķ
Ġà¸Ī à¸Ńà¸«
à¸Ńà¸Ļ à¹Ģà¸«
Ġ( "
à¸ľà¸¡ à¸Ħà¸£
à¸łà¸²à¸ŀ à¸§
à¸Ļà¸Ĥà¸Ńà¸ĩ à¸£
à¸Ńà¸Ļ à¸Īà¸°à¸ķ
à¸¥ à¹Ģà¸ļ
à¹ģà¸ªà¸Ķà¸ĩ à¸Ħà¸§à¸²à¸¡à¸£
mb ps
Ġà¸« à¸²
à¸¥à¸²à¸Ķ à¸ģà¸£à¸°à¸ļ
à¸²à¸Ľà¸£à¸°à¸Ĭ à¸²à¸Ĭà¸Ļ
à¸ľà¸¥à¸ķà¸Ńà¸ļ à¹ģà¸Ĺ
à¹ĥà¸Ħà¸£à¹Ģà¸Ħà¸¢ à¸Ĺ
g g
Ġhar rods
à¸Ļà¸Ħ à¸Ń
à¸²à¸«à¸¡ à¸²à¸¢à¸Ĺ
à¸Ńà¸ĩà¸ģà¸²à¸£ à¹Ģà¸ĩ
à¸²à¸ªà¸°à¸ŀ à¸²à¸¢
[...]
