{"<s>":0,"<pad>":1,"</s>":2,"<unk>":3,"<mask>":4,"!":5,"\"":6,"#":7,"$":8,"%":9,"&":10,"'":11,"(":12,")":13,"*":14,"+":15,",":16,"-":17,".":18,"/":19,"0":20,"1":21,"2":22,"3":23,"4":24,"5":25,"6":26,"7":27,"8":28,"9":29,":":30,";":31,"<":32,"=":33,">":34,"?":35,"@":36,"A":37,"B":38,"C":39,"D":40,"E":41,"F":42,"G":43,"H":44,"I":45,"J":46,"K":47,"L":48,"M":49,"N":50,"O":51,"P":52,"Q":53,"R":54,"S":55,"T":56,"U":57,"V":58,"W":59,"X":60,"Y":61,"Z":62,"[":63,"\\":64,"]":65,"^":66,"_":67,"`":68,"a":69,"b":70,"c":71,"d":72,"e":73,"f":74,"g":75,"h":76,"i":77,"j":78,"k":79,"l":80,"m":81,"n":82,"o":83,"p":84,"q":85,"r":86,"s":87,"t":88,"u":89,"v":90,"w":91,"x":92,"y":93,"z":94,"{":95,"|":96,"}":97,"~":98,"¡":99,"¢":100,"£":101,"¤":102,"¥":103,"¦":104,"§":105,"¨":106,"©":107,"ª":108,"«":109,"¬":110,"®":111,"¯":112,"°":113,"±":114,"²":115,"³":116,"´":117,"µ":118,"¶":119,"·":120,"¸":121,"¹":122,"º":123,"»":124,"¼":125,"½":126,"¾":127,"¿":128,"À":129,"Á":130,"Â":131,"Ã":132,"Ä":133,"Å":134,"Æ":135,"Ç":136,"È":137,"É":138,"Ê":139,"Ë":140,"Ì":141,"Í":142,"Î":143,"Ï":144,"Ð":145,"Ñ":146,"Ò":147,"Ó":148,"Ô":149,"Õ":150,"Ö":151,"×":152,"Ø":153,"Ù":154,"Ú":155,"Û":156,"Ü":157,"Ý":158,"Þ":159,"ß":160,"à":161,"á":162,"â":163,"ã":164,"ä":165,"å":166,"æ":167,"ç":168,"è":169,"é":170,"ê":171,"ë":172,"ì":173,"í":174,"î":175,"ï":176,"ð":177,"ñ":178,"ò":179,"ó":180,"ô":181,"õ":182,"ö":183,"÷":184,"ø":185,"ù":186,"ú":187,"û":188,"ü":189,"ý":190,"þ":191,"ÿ":192,"Ā":193,"ā":194,"Ă":195,"ă":196,"Ą":197,"ą":198,"Ć":199,"ć":200,"Ĉ":201,"ĉ":202,"Ċ":203,"ċ":204,"Č":205,"č":206,"Ď":207,"ď":208,"Đ":209,"đ":210,"Ē":211,"ē":212,"Ĕ":213,"ĕ":214,"Ė":215,"ė":216,"Ę":217,"ę":218,"Ě":219,"ě":220,"Ĝ":221,"ĝ":222,"Ğ":223,"ğ":224,"Ġ":225,"ġ":226,"Ģ":227,"ģ":228,"Ĥ":229,"ĥ":230,"Ħ":231,"ħ":232,"Ĩ":233,"ĩ":234,"Ī":235,"ī":236,"Ĭ":237,"ĭ":238,"Į":239,"į":240,"İ":241,"ı":242,"Ĳ":243,"ĳ":244,"Ĵ":245,"ĵ":246,"Ķ":247,"ķ":248,"ĸ":249,"Ĺ":250,"ĺ":251,"Ļ":252,"ļ":253,"Ľ":254,"ľ":255,"Ŀ":256,"ŀ":257,"Ł":258,"ł":259,"Ń":260,"à¹":261,"¸²":262,"à¸²":263,"à¸²à":264,"à¸²à¸":265,"¸Ļ":266,"à¸Ļ":267,"à¹Ī":268,"¸Ń":269,"à¸Ń":270,"à¹Ģ":271,"à¹ī":272,"à¹Ģà":273,"à¹Ģà¸":274,"¸£":275,"à¸£":276,"¸±":277,"à¸±":278,"¸ģ":279,"à¸ģ":280,"¸¡":281,"à¸¡":282,"¸ĩ":283,"à¸ĩ":284,"¸µ":285,"à¸µ":286,"¸§":287,"à¸§":288,"¸¢":289,"à¸¢":290,"¸Ħ":291,"à¸Ħ":292,"¸ļ":293,"à¸ļ":294,"¸Ķ":295,"à¸Ķ":296,"à¹Ħ":297,"¸°":298,"à¸°":299,"¸¥":300,"à¸¥":301,"¸Ĺ":302,"à¸Ĺ":303,"à¹ģ":304,"¸ķ":305,"à¸ķ":306,"¸´":307,"à¸´":308,"¸«":309,"à¸«":310,"¸ª":311,"à¸ª":312,"¸·":313,"à¸·":314,"¸Ī":315,"à¸Ī":316,"¸Ľ":317,"à¸Ľ":318,"à¹ĥ":319,"à¹ĩ":320,"à¸Ńà¸ĩ":321,"à¸µà¹Ī":322,"¸¹":323,"à¸¹":324,"¸¸":325,"à¸¸":326,"¸Ĥ":327,"à¸Ĥ":328,"à¸²à¸ģ":329,"¸Ĭ":330,"à¸Ĭ":331,"¸ŀ":332,"à¸ŀ":333,"à¹į":334,"à¸²à¸£":335,"Ġà¹Ģà¸":336,"à¹Į":337,"à¸²à¸Ļ":338,"à¹Ħà¸¡":339,"à¸²à¸ĩ":340,"à¸²à¸¢":341,"à¸²à¸¡":342,"à¸Ńà¸¢":343,"à¸Ńà¸Ļ":344,"à¹Ĥ":345,"à¹ģà¸¥":346,"¸ĸ":347,"à¸ĸ":348,"à¸Ħà¸£":349,"à¹Ģà¸£":350,"à¸·à¹Ī":351,"¸ľ":352,"à¸ľ":353,"à¹Ħà¸Ķ":354,"¸¶":355,"à¸¶":356,"à¹Ģà¸Ľ":357,"à¸£à¸°":358,"à¹Ħà¸Ľ":359,"à¹Ģà¸¥":360,"à¹Ĩ":361,"à¹ĥà¸«":362,"à¸±à¹ī":363,"à¸Ńà¸ģ":364,"à¸µà¹ī":365,"à¸Īà¸°":366,"à¸ģà¸²à¸£":367,"à¸«à¸Ļ":368,"à¹ģà¸ķ":369,"..":370,"à¸¹à¹ī":371,"--":372,"à¹ĥà¸Ļ":373,"à¸Ńà¸ļ":374,"¸ĭ":375,"à¸ĭ":376,"à¸²à¸Ħ":377,"¸ĵ":378,"à¸ĵ":379,"à¸Ħà¸Ļ":380,"à¸§à¸¢":381,"¸į":382,"à¸į":383,"à¸²à¸Ĺ":384,"¸Ł":385,"à¸Ł":386,"à¹ģà¸¥à¸°":387,"à¸²à¸§":388,"à¹Ģà¸ŀ":389,"à¹Ģà¸Ķ":390,"à¸Ĥà¸Ńà¸ĩ":391,"à¹Ģà¸Ħ":392,"à¹Ģà¸Ĥ":393,"ĉĉ":394,"Ġà¸ģ":395,"à¹Ģà¸«":396,"à¹Ģà¸ģ":397,"à¸Ħà¸§":398,"à¸ľà¸¡":399,"à¸Ľà¸£à¸°":400,"Ġà¸Ĺ":401,"à¹Ģà¸¥à¸¢":402,"à¸¹à¹Ī":403,"à¸²à¸Ī":404,"à¸Ļà¸Ĺ":405,"ĠĠ":406,"¸¨":407,"à¸¨":408,"Ġà¸¡":409,"à¸Ļà¸°":410,"à¹Ģà¸Ĺ":411,"Ġà¸ª":412,"à¸²à¸«":413,"Ġà¹ģà¸ķ":414,"à¸«à¸¥":415,"à¸«à¸£":416,"¸ł":417,"à¸ł":418,"à¸Ńà¸¡":419,"à¸Ħà¸§à¸²à¸¡":420,"à¸ģà¸¥":421,"à¸£à¸²à¸":422,"à¸«à¸¡":423,"à¹ĥà¸Ĭ":424,"à¸¡à¸²à¸ģ":425,"Ġ\"":426,"à¸ļà¸ļ":427,"à¸¢à¸Ļ":428,"Ġà¸ķ":429,"à¸²à¸ķ":430,"Ġ1":431,"¸ĺ":432,"à¸ĺ":433,"à¹Ħà¸£":434,"à¸§à¸Ļ":435,"Ġà¸Ħ":436,"à¹ĥà¸Ī":437,"à¸Īà¸²à¸ģ":438,"Ġ2":439,"à¸Ńà¸°":440,"Ġ(":441,"à¸¢à¸§":442,"à¸´à¹Ī":443,"¸©":444,"à¸©":445,"à¸Ńà¸£":446,"Ġà¸ŀ":447,"Ġà¸£":448,"à¸²à¸ª":449,"à¸Ńà¸Ķ":450,"à¹Ģà¸ª":451,"à¸ķà¸£":452,"----":453,"à¸±à¹Ī":454,"à¸²à¸Ń":455,"à¸²à¸Ķ":456,"\",":457,"Ġà¹ģ":458,"Ġà¹Ģà¸£":459,"à¸¡à¸²":460,"à¸Ńà¸¢à¸²à¸ģ":461,"à¸Ħà¸°":462,"Ġà¹ģà¸¥à¸°":463,"à¸·à¹ī":464,"à¸²à¸¥":465,"à¹Ģà¸Ń":466,"à¸ģà¸£":467,"à¸ģà¸§":468,"à¹Ģà¸¡":469,"Ġà¸Ļ":470,"à¸Ļà¸Ļ":471,"à¸²à¸ŀ":472,"Ġà¸ļ":473,"à¸¸à¹Ī":474,"à¹ģà¸ļà¸ļ":475,"00":476,"Ġà¹Ħà¸¡":477,"à¸£à¸²à¸°":478,",\"":479,"Ġà¹Ģà¸ŀ":480,"à¹Ģà¸£à¸²":481,"à¹Ģà¸Ī":482,"Ġà¸Ń":483,"à¹Ģà¸ķ":484,"ĉĉĉĉ":485,"à¹Ģà¸§":486,"à¹Ĥà¸Ķ":487,"Ġà¸Ĥ":488,"à¸¶à¹Ī":489,"à¸ĩà¸Ĺ":490,"à¸²à¸Īà¸°":491,"à¸Ļà¸ģ":492,"à¸ĩà¸²à¸Ļ":493,"à¹Ģà¸Ļ":494,"Ġà¸Ī":495,"à¸§à¸ĩ":496,"Ġs":497,"à¸¶à¹ī":498,"à¸Ńà¸°à¹Ħà¸£":499,"à¸¡à¸²à¸":500,"à¸Ĺà¸¢":501,"Ġà¹ģà¸¥":502,"à¹Ģà¸Ĭ":503,"à¸ļà¸£":504,"à¸ĩà¸ª":505,"Ġà¸§":506,"à¸²à¹Ħà¸¡":507,"à¸Ĺà¸£":508,"Ġ3":509,"à¸§à¸ģ":510,"55":511,"à¸Ļà¸ķ":512,"Ġà¸ĸ":513,"Ġà¸Ľ":514,"....":515,"à¸¢à¸ĩ":516,"à¹īà¹į":517,"in":518,"à¸¥à¸°":519,"à¹Ħà¸«à¸Ļ":520,"à¸²à¸ļ":521,"à¸Ńà¸Ńà¸ģ":522,"à¹Ģà¸Ńà¸ĩ":523,"Ġà¸Ĭ":524,"à¹Ģà¸ĩ":525,"à¹Ĭ":526,"à¸ĩà¸ģ":527,"à¸Ļà¸ª":528,"à¹ĥà¸Ħà¸£":529,"Ġà¸«à¸£":530,"à¹ģà¸£":531,"à¸ĩà¸Ħ":532,"à¸²à¸Ĥ":533,"Ġà¸ľà¸¡":534,"à¸Ļà¸Ħ":535,"er":536,"**":537,"Ġt":538,"on":539,"à¸¥à¸ĩ":540,"Ġc":541,"à¸łà¸²à¸ŀ":542,"à¹Ģà¸ļ":543,"à¸²à¹ģ":544,"à¸ļà¸Ńà¸ģ":545,"à¸²à¹ĥà¸«":546,"Ġà¸ĭ":547,"à¸Īà¸£":548,"à¸Ļà¸¡":549,"Ġà¹Ģà¸Ľ":550,"à¸Ļà¸Ķ":551,"à¸§à¸¡":552,"à¸¢à¸ģ":553,"à¸Ľà¸£":554,"à¸«à¸§":555,"à¸´à¹ī":556,"Ġ-":557,"à¸Ńà¸Ļà¸Ļ":558,"à¹Ħà¸«à¸¡":559,"an":560,"ĠĠĠĠ":561,"--------":562,"Ġà¸Ķ":563,"à¹Ĥà¸Ķà¸¢":564,"à¹ģà¸¡":565,"à¸ģà¸ģ":566,"à¸Ńà¸ª":567,"¸Ŀ":568,"à¸Ŀ":569,"Ġà¹Ģà¸ŀà¸£à¸²à¸°":570,"à¹Ģà¸Ħà¸£":571,"à¹Ħà¸Ĺà¸¢":572,"à¸²à¸Ĭ":573,"à¸Ļà¸§":574,"à¸£à¸¡":575,"à¹Ģà¸Ħà¸¢":576,"à¹Ħà¸§":577,"âĢ":578,"à¸ķà¸²à¸¡":579,"à¸ĸà¸²à¸¡":580,"Ġà¸Īà¸°":581,"à¸ģà¸Ĺ":582,"à¸ļà¸ģ":583,"à¹Ģà¸§à¸¥":584,"à¹Ģà¸«à¸¡":585,"à¹Ģà¸Ľà¸¥":586,"à¸£à¸ĸ":587,"à¹Ģà¸¢":588,"à¸Ľà¸¥":589,"à¹ĥà¸«à¸¡":590,"à¸ģà¸ķ":591,"à¸ĩà¹Ħà¸¡":592,"à¸ĩà¹Ĩ":593,"Ġm":594,"Ġà¹Ģà¸¥":595,"à¸ģà¸©":596,"à¹Ħà¸ĩ":597,"à¸²à¹Ħà¸Ľ":598,"ĠĊ":599,"Ġa":600,"à¸ªà¸¡":601,"¸ī":602,"à¸ī":603,"Ġà¸¢":604,"à¸Ĺà¸²à¸ĩ":605,"\"\"":606,"à¸Ńà¸¥":607,"Ġà¹Ĥ":608,"à¹ģà¸Ł":609,"à¸Ńà¸ļà¸Ħ":610,"à¸ĩà¸Ļ":611,"à¸²à¹Ģà¸£":612,"à¸ģà¸£à¸°":613,"Ġp":614,"à¹Ģà¸Ĺà¸¨":615,"à¸²à¸Ľ":616,"à¸ľà¸¥":617,"¸Ĳ":618,"à¸Ĳ":619,"à¸ªà¸Ķ":620,"à¸²à¸£à¸ĸ":621,"Ġà¸¥":622,"Ġà¹ĥà¸Ļ":623,"à¸²à¹Ģà¸Ľ":624,"à¸įà¸«":625,"à¸ªà¸Ļ":626,"à¸Ĥà¸Ń":627,"or":628,"à¸Ļà¸°à¸Ļ":629,"Ġ4":630,"...":631,"à¹ģà¸Ħ":632,"à¸Ļà¹Ħà¸Ľ":633,"Ġ5":634,"ar":635,"Ġà¸ļà¸²à¸Ĺ":636,"à¸Ļà¸°à¸Ħà¸°":637,"à¸Ńà¸§":638,"à¸¸à¹ī":639,"ĉĉĉĉĉĉĉĉ":640,"à¸Ĭà¸Ńà¸ļ":641,"à¹Ĥà¸£":642,"à¸Ľà¸£à¸°à¹Ģà¸Ĺà¸¨":643,"à¸²à¸Ńà¸¢":644,"Ġb":645,"Ġà¸«":646,"¸®":647,"à¸®":648,"à¹Ĥà¸Ĺà¸£":649,"à¹Ģà¸ŀà¸£à¸²à¸°":650,"à¹ĭ":651,"à¹ģà¸ģ":652,"à¸Ńà¸ĩà¸Ĺ":653,"à¸Ļà¸Ń":654,"à¸²à¸ĩà¸²à¸Ļ":655,"à¸Ļà¸¢":656,"le":657,"Ġf":658,"à¸²à¸¡à¸²à¸£à¸ĸ":659,"à¸Ķà¸Ĺ":660,"à¸ĩà¸ķ":661,"à¸ŀà¸£":662,"à¸Ķà¸ª":663,"à¸²à¸«à¸Ļ":664,"à¸ĩà¸¡":665,"à¸«à¸¥à¸²à¸¢":666,"Ġ\"\"":667,"Ġà¹Ģà¸Ħ":668,"à¸²à¸«à¸£":669,"Ġ:":670,"Ġà¹Ģà¸Ĥ":671,"à¸¡à¸²à¸ĵ":672,"à¸Ħà¸§à¸²à¸¡à¸£":673,"++":674,"à¹Į,":675,"à¸Ķà¸§":676,"à¹ĥà¸ª":677,"en":678,"à¸Ķà¸ķ":679,"à¸ĩà¹Ħà¸ĩ":680,"à¸¢à¸£":681,"à¹ģà¸Ĺ":682,"à¹Ģà¸ĭ":683,"à¸²à¸ĸ":684,"à¸ļà¸Ĺ":685,"à¸Ńà¸ķ":686,"à¸Ħà¸¥":687,"à¸ŀà¸£à¸°":688,"Ġà¸Ńà¸¢à¸²à¸ģ":689,"à¸Ńà¸Ĺ":690,"Ġà¹Ħà¸Ķ":691,"à¸£à¸²à¸ļ":692,"à¸²à¸ģà¸²à¸£":693,"Ġà¹Ģà¸«":694,"à¹Ģà¸«à¸¥":695,"à¸«à¸¡à¸Ķ":696,"Ġà¸Ńà¸¢":697,"à¸Ļà¹Ħà¸¡":698,"à¸Ħà¸Ļà¸Ĺ":699,"à¹ģà¸ļà¸ļà¸Ļ":700,"Ġd":701,"!!":702,"à¸²à¸ľ":703,"ac":704,"à¸Ļà¸°à¸Ħà¸£":705,"Ġà¸ľ":706,"à¹ģà¸£à¸ģ":707,"à¸²à¸¨":708,"à¹ĥà¸«à¸į":709,"à¹Ħà¸Ł":710,"à¹Ģà¸£à¸²à¸ģ":711,"à¸§à¸£":712,"Ġà¹Ģà¸Ķ":713,"à¸¢à¸¡":714,"à¸²à¹Ħà¸Ķ":715,"à¸¢à¸§à¸ģ":716,"Ġl":717,"al":718,"at":719,"re":720,"à¸Ńà¸Ħ":721,"à¸Ļà¸£":722,"Ġà¹Ģà¸¡":723,"à¸Ńà¸ĩà¸Ļ":724,"Ġà¹Ĥà¸Ķà¸¢":725,"à¹Ĥà¸¥":726,"à¸¢à¸Ķ":727,"à¹ģà¸Łà¸Ļ":728,"à¸ļà¸ģà¸²à¸£":729,"Ġh":730,"à¸²à¸°":731,"à¸Ĥà¸²à¸¢":732,"Ġi":733,"à¸Ľà¸£à¸°à¸¡à¸²à¸ĵ":734,"Ġà¸Ħà¸£":735,"à¸ŀà¸Ń":736,"à¸Ļà¸Ĺà¸²à¸ĩ":737,"Ġà¹Ģà¸¥à¸¢":738,"à¸Ļà¹ģ":739,"à¸ĩà¸§":740,"à¸Ľà¸£à¸°à¸ģ":741,"Ġg":742,"à¸ģà¸Ķ":743,"à¸ļà¸Ļ":744,"Ġà¸ģà¸²à¸£":745,"__":746,"à¸§à¹Ģà¸Ńà¸ĩ":747,"à¸²à¸«à¸²à¸£":748,"à¸ĩà¸Ĥ":749,"à¸Ļà¹Ħà¸Ķ":750,"à¹Ģà¸¢à¸Ńà¸°":751,"Ġà¹Ħà¸Ľ":752,"Ġà¸Ĥà¸Ńà¸ĩ":753,"à¸¥à¸Ńà¸Ķ":754,"à¸Ĭà¸²à¸¢":755,"à¸ªà¸Ńà¸ļ":756,"it":757,"à¸Ĺà¸ĺ":758,"à¸Ńà¸Ļà¸ģ":759,"----------------":760,"à¸ŀà¸¢":761,"ro":762,"à¸Ńà¸Ń":763,"à¸Ĺà¸£à¸²à¸ļ":764,"à¹Ģà¸ķà¸Ńà¸£":765,"Ġà¸Ħà¸Ļ":766,"is":767,"Ġà¹Ĩ":768,"Ġw":769,"Ġn":770,"à¸Ļà¸ļ":771,"Ġ6":772,"à¹ģà¸Ļà¸°à¸Ļ":773,"à¸ģà¸ª":774,"à¸£à¸£à¸¡":775,"à¸Ļà¹Ģà¸Ķ":776,"à¹Ģà¸ĺ":777,"à¹Ĥà¸¡":778,"à¸Ħà¸§à¸£":779,"à¸²à¸©":780,"¸¤":781,"à¸¤":782,"à¸Īà¸°à¸¡":783,"à¸ģà¸Ħ":784,"à¸Ļà¸Ńà¸¢":785,"à¸ļà¸ª":786,"à¸ĩà¹Ģà¸£":787,"à¸¡à¸Ļ":788,"Ġà¸Īà¸²à¸ģ":789,"à¸£à¸²à¸¢":790,"à¸Ļà¹Ģà¸Ľ":791,"à¸Ļà¸ŀ":792,"à¸Ńà¹Ħà¸¡":793,"à¸ªà¸²à¸¡à¸²à¸£à¸ĸ":794,"à¸ģà¹Ĩ":795,"à¸Ńà¸Ļà¸Ĺ":796,"??":797,"Ġà¸ģà¸¥":798,"ĠâĢ":799,"Ġà¹Ģà¸Ń":800,"à¸Ķà¸Ļ":801,"à¸Ļà¹Ĩ":802,"à¸Ļà¸Ĥ":803,"à¸ªà¸£":804,"ic":805,"à¸ļà¸ķ":806,"à¸Ļà¹Ģà¸£":807,"à¸ļà¸¡":808,"am":809,"à¸Ļà¸Ħà¸Ļ":810,"==":811,"à¸²à¹ĥà¸Ī":812,"à¸²à¸Ĥà¸Ńà¸ĩ":813,"à¸Ļà¹ĥà¸Ī":814,"à¸ļà¸Ńà¸ģà¸§":815,"Ġà¸£à¸²à¸Ħ":816,"à¸²à¸ĩà¸Ĺ":817,"Ġ7":818,"à¹ģà¸ŀ":819,"à¸ĩà¹ģà¸ķ":820,"........":821,"à¸«à¸į":822,"Ġe":823,"à¸«à¸¡à¸²à¸¢":824,"à¸¢à¸ļ":825,"000":826,"à¸ĵà¸°":827,"à¸§à¸Ķ":828,"Ġà¸«à¸¥":829,"Ġà¸ķà¸Ńà¸Ļà¸Ļ":830,"à¸ĩà¸Īà¸°":831,"à¸Ļà¸Ĭ":832,"Ġà¸«à¸Ļ":833,"à¸łà¸²à¸©":834,"à¸Ńà¸ĩà¸ģà¸²à¸£":835,"à¸ļà¸ģà¸§à¸Ļ":836,"à¸§à¸Ī":837,"à¸ĺà¸£à¸£à¸¡":838,"à¸Ļà¸Ī":839,"à¸ĩà¸Īà¸²à¸ģ":840,"à¸«à¸²à¸¢":841,"à¸Ńà¸ĩà¸¡":842,"à¹Ĥà¸Ľà¸£":843,"à¹Ģà¸«à¸ķ":844,"à¸ĩà¸£":845,"as":846,"à¸Ńà¸ĸ":847,"à¸²à¸Ħà¸£":848,"à¸Ļà¸²à¸Ķ":849,"Ġà¹Ģà¸£à¸²à¸ģ":850,"à¹Ģà¸ī":851,"Ġà¹ĥà¸«":852,"à¸²à¸ĩà¸ģ":853,"à¸ĩà¸Ķ":854,"à¸²à¸«à¸¥":855,"ĠĠĠĠĠĠĠĠ":856,"ot":857,"****":858,"à¹Ĩà¹Ĩ":859,"à¸Ńà¸Ľ":860,"à¸Ļà¸Ħà¸£":861,"à¹Ģà¸¨":862,"à¹ģà¸Ļ":863,"à¹Ģà¸Ńà¸ģ":864,"Ġà¹Ģà¸ª":865,"à¸ĩà¹Ģà¸Ľ":866,"un":867,"à¹Ģà¸¥à¸¢à¸Ħ":868,"à¸Ńà¹Ħà¸Ľ":869,"à¸¡à¸Ĺ":870,"ur":871,"à¸Ľà¸£à¸°à¸ª":872,"à¸ķà¸Ńà¸Ļà¸Ļ":873,"à¸Ĥà¸Ńà¸ļà¸Ħ":874,"à¸£à¸²à¸Ħ":875,"à¹Ģà¸Ĥà¸²":876,"à¸Ķà¸ģ":877,"à¸Ļà¸Īà¸°":878,"à¸ŀà¸¥":879,"à¹Ħà¸¥":880,"à¹ģà¸Ī":881,"à¸ĸà¸²à¸Ļ":882,"à¸§à¸§":883,"à¸įà¸į":884,"à¸ģà¸Ļ":885,"Ġà¹Ģà¸Ĭ":886,"à¸ŀà¸§à¸ģ":887,"à¸ģà¸£à¸£à¸¡":888,"à¸ģà¸Ħà¸Ļ":889,"om":890,"à¸Ńà¸ĩà¸ģ":891,"à¸Ńà¸ĩà¸ª":892,"à¸ģà¸Ńà¸¢":893,"à¸Ńà¸ĩà¸Ħ":894,"à¸Ńà¸²à¸«à¸²à¸£":895,"à¹Ģà¸Ł":896,"Ġà¹Ģà¸ģ":897,"à¸ļà¸Ħ":898,"à¸²à¸ĭ":899,"à¸Ļà¹Ģà¸ģ":900,"à¸¡à¸ŀ":901,"à¹Ģà¸Īà¸Ń":902,"à¸²à¸Ńà¸°":903,"à¸Ńà¸Ļà¹Ĩ":904,"à¸«à¸²à¸£":905,"à¸Ķà¸Ķ":906,"à¸ģà¸Ħà¸£":907,"Ġo":908,"à¸²à¸ĩà¹Ħà¸£":909,"à¸ķà¸Ńà¸Ļ":910,"à¸Ńà¸ĩà¸£":911,"Ġà¸Ĥà¸Ńà¸ļà¸Ħ":912,"à¸§à¸Ħ":913,"à¸ļà¸Ńà¸¥":914,"à¸Ļà¸«à¸Ļ":915,"à¸Ĭà¸²à¸ķ":916,"à¹Ģà¸ªà¸£":917,"à¸²à¸Īà¸²à¸ģ":918,"us":919,"à¹ģà¸ªà¸Ķ":920,"à¸«à¸¢":921,"ip":922,"il":923,"et":924,"à¸Ļà¸ģà¸²à¸£":925,"Ġ20":926,"¸ı":927,"à¸ļà¸§":928,"he":929,"à¸£à¸°à¸Ĺ":930,"à¹Ģà¸ŀà¸¥à¸ĩ":931,"¸¯":932,"à¸¯":933,"à¸Ļà¹ĥà¸Ļ":934,"à¸ĩà¸ļ":935,"à¹Ģà¸§à¸¥à¸²":936,"à¸²à¸²":937,"à¸Ļà¸ľ":938,"à¸ı":939,"Ġà¹Ģà¸§":940,"à¸²à¹Ħ":941,"à¸¡à¸Ń":942,"à¸²à¸Ńà¸°à¹Ħà¸£":943,"à¸£à¸²à¸Ĭ":944,"à¹Ĥà¸ķ":945,"à¸Ļà¸¥":946,"à¸Ńà¹Ģà¸£":947,"à¸¥à¸°à¸Ħà¸£":948,"Ġ8":949,"¸İ":950,"à¸²à¸ĩà¹Ĩ":951,"à¸İ":952,"à¸¡à¸«":953,"à¸Ľà¸ģà¸ķ":954,"à¸²à¹Ģà¸Ĥ":955,"Ġà¹ĥà¸Ĭ":956,"à¸ļà¸²à¸Ĺ":957,"one":958,"50":959,"à¸¢à¸Ļà¸ķ":960,"à¸ŀà¸Ĺ":961,"à¸ģà¸£à¸°à¸Ĺ":962,"à¸§à¸Ĺ":963,"à¸²à¸ĩà¸Ļ":964,"Ġ10":965,"à¸Łà¸£":966,"à¸¡à¸²à¸ģà¹Ĩ":967,"Ġà¹ģà¸ļà¸ļ":968,"oo":969,"Ġ,":970,"à¸²à¸ĩà¸Ľà¸£à¸°à¹Ģà¸Ĺà¸¨":971,"à¸ļà¸²à¸¢":972,"à¸ªà¸²à¸£":973,"à¹Ħà¸«à¸¡à¸Ħà¸£":974,"âĢĿ":975,"à¸Ļà¸¡à¸²":976,"à¸Ļà¸Ĥà¸Ńà¸ĩ":977,"Ġà¹ĥà¸Ħà¸£":978,"à¸²à¸Ħà¸§":979,"Ġk":980,"à¹Ħà¸Ĥ":981,"à¸¡à¸¡":982,"à¹ĥà¸Ļà¸ģà¸²à¸£":983,"à¸Ńà¸¢à¹Ĩ":984,"à¸Ħà¸Ļà¸Ļ":985,"à¸¥à¸ĩà¸Ĺ":986,"5555":987,"à¹ģà¸Ĥ":988,"à¸Ńà¸²à¸Ī":989,"à¸ķà¸§":990,"ĠâĢľ":991,"à¸Ķà¸Ĥ":992,"à¸ķà¸¢":993,"el":994,"à¸Ħà¸§à¸²à¸¡à¸ª":995,"à¹ģà¸«":996,"Ġà¹Ģà¸£à¸²":997,"Ġv":998,"à¸¡à¸ª":999,"Ġà¹Ģà¸Ī":1000,"à¸²à¸ĩà¸Ħà¸£":1001,"id":1002,"es":1003,"à¸°à¸Ħ":1004,"à¸¢à¸¢":1005,"à¸ķà¸Ńà¸ļ":1006,"Ġà¹ģà¸¡":1007,"à¸¨à¸²à¸ª":1008,"à¹Ģà¸Ńà¸²":1009,"à¸Ĭà¸Ļ":1010,"à¸²à¸Ħà¸§à¸²à¸¡":1011,"à¸¥à¸Ńà¸ĩ":1012,"à¸Ĺà¸£à¸²à¸ļà¸§":1013,"à¸«à¸²":1014,"à¹Ĥà¸£à¸ĩ":1015,"à¸ĩà¸«à¸§":1016,"++++":1017,"à¸ªà¸²à¸¢":1018,"à¸¢à¸°":1019,"à¹Ħà¸Ľà¸Ĺ":1020,"à¸Ļà¸ĺ":1021,"à¸ģà¸ĩà¸²à¸Ļ":1022,"à¸Ļà¸Ńà¸Ļ":1023,"à¸ĩà¸Ī":1024,"ing":1025,"Ġà¹Ģà¸Ļ":1026,"à¸¡à¸ķ":1027,"à¹Ģà¸£à¸²à¹Ħà¸¡":1028,"Ġà¹Ģà¸Ĺ":1029,"à¸²à¸Ľà¸£à¸°":1030,"Ġà¸ŀà¸Ń":1031,"à¸ªà¸§":1032,"à¸²à¸ģà¸¥":1033,"à¸ªà¸Ńà¸ļà¸ĸà¸²à¸¡":1034,"à¸Ľà¸£à¸°à¸Ĭ":1035,"à¸ĩà¸«à¸Ļ":1036,"à¸Ļà¸ĸ":1037,"à¸§à¸¢à¸ģ":1038,"Ġ9":1039,"à¸°à¸Ħà¸£":1040,"à¸Ńà¸ļà¸Ħà¸£":1041,"oc":1042,"à¸Ńà¹ĥà¸«":1043,"à¸Ļà¹Ģà¸¥à¸¢":1044,"ed":1045,"and":1046,"à¸Ļà¹ģà¸¥":1047,"à¸¥à¸Ķ":1048,"à¸Ńà¸ģà¸§":1049,"ĠĠĠ":1050,"à¸¥à¸²à¸Ķ":1051,"à¸²à¹Ĩ":1052,"à¸Ķà¹Ĩ":1053,"à¸²à¸ĺ":1054,"à¹Ĥà¸Ń":1055,"à¸ĩà¸Ń":1056,"Ġà¸ŀà¸£":1057,"à¸Ĳà¸²à¸Ļ":1058,"à¸ľà¸¡à¸ģ":1059,"à¸Ļà¸«":1060,"à¸Īà¸°à¸Ĺ":1061,"à¸Ńà¸ĩà¸ķ":1062,"à¸ĩà¹Ħà¸Ķ":1063,"à¸ĩà¸Ħà¸£":1064,"ĉĉĉĉĉĉĉĉĉĉĉĉĉĉĉĉ":1065,"ion":1066,"à¸²à¸Ħà¸¡":1067,"à¹ĥà¸ļ":1068,"à¹Ĥà¸Ĺà¸£à¸¨":1069,"à¹Ħà¸ĭ":1070,"à¸ģà¸Ĥ":1071,"ter":1072,"à¸ªà¸°":1073,"à¸¢à¸²à¸¢":1074,"ik":1075,"¸Ĵ":1076,"à¸Ĵ":1077,"à¸£à¸°à¸«à¸§":1078,"à¹Ĥà¸Ĺ":1079,"Ġà¸ķà¸Ńà¸Ļ":1080,"à¸ģà¸¥à¸²à¸ĩ":1081,"à¸Ļà¸Ľ":1082,"à¸ªà¸ķ":1083,"à¸Ļà¹Ģà¸ŀ":1084,"à¸²à¹Ģà¸Ķ":1085,"à¹ģà¸ĸ":1086,"Ġà¹Ģà¸§à¸¥":1087,"à¹ģà¸ªà¸Ķà¸ĩ":1088,"ad":1089,"à¸ļà¸²à¸ĩ":1090,"\",\"":1091,"à¸²à¸¢à¸Ļ":1092,"à¸ļà¹Ħà¸Ľ":1093,"à¸Ńà¹Ģà¸Ľà¸¥":1094,"à¹ģà¸ľ":1095,"à¹ĥà¸ģà¸¥":1096,"à¸¤à¸©":1097,"à¸²à¸¡à¸²":1098,"20":1099,"à¸²à¸Ħà¸²à¸£":1100,"à¸ģà¸£à¸ĵ":1101,"à¸Īà¸°à¹Ģà¸Ľ":1102,"ay":1103,"à¸ĩà¹ĥà¸Ī":1104,"à¹Ģà¹Ģà¸¥":1105,"à¹Ħà¸Ń":1106,"à¸Ķà¸Ħ":1107,"à¸²à¸¡à¸²à¸ģ":1108,"à¸°à¹Ģà¸ļ":1109,"à¸Ńà¸¢à¸Ħà¸£":1110,"à¸ŀà¸Ńà¸Ķ":1111,"ue":1112,"à¸£à¸ģ":1113,"à¸ĩà¹Ħà¸Ľ":1114,"à¸²à¸¢à¸Ĺ":1115,"à¸Ļà¸²à¸Ļ":1116,"à¹Ģà¸ĺà¸Ń":1117,"Ġ0":1118,"____":1119,"à¸ģà¸²à¸£à¸Ĺ":1120,"à¸ĩà¹ĥà¸Ļ":1121,"à¹Ģà¸«à¸Ļ":1122,"à¸Ļà¸¡à¸²à¸ģ":1123,"à¸ĩà¹Ģà¸ģ":1124,"à¸£à¸°à¸ļà¸ļ":1125,"à¸´à¹Į":1126,"à¸ļà¸ľ":1127,"à¹Ĥà¸¥à¸ģ":1128,"à¸Ľà¸£à¸°à¸Ī":1129,"à¸²à¹Ģà¸Ļ":1130,"à¸Ńà¸²à¸¢":1131,"=\"":1132,"à¸Ħà¸Ńà¸¡":1133,"à¹Ģà¸Ĺà¸ŀ":1134,"à¸§à¸Ļà¸ķ":1135,"à¸ģà¸ŀ":1136,"à¸¢à¸Ńà¸¡":1137,"à¸Īà¸Ī":1138,"à¸Ķà¸£":1139,"à¸²à¸ľà¸¡":1140,"à¹Ĥà¸Ńà¸ģ":1141,"à¸¢à¸²à¸ģ":1142,"à¸ĩà¸ĩ":1143,"à¸ķà¸ļà¸Ńà¸¥":1144,"à¸²à¸Ļà¸Ĺ":1145,"à¸°à¹Ģà¸¥":1146,"10":1147,"Ġà¸Ĥà¸Ń":1148,"ag":1149,"à¸§à¸ķ":1150,"à¸ĩà¸Ńà¸¢":1151,"à¸ĩà¸ģà¸²à¸£":1152,"à¸ªà¸ĸà¸²à¸Ļ":1153,"ine":1154,"à¹ģà¸«à¸¥":1155,"à¸²à¸¢à¸ģ":1156,"Ġ/":1157,"Ġ25":1158,"à¸£à¸£":1159,"à¸£à¸°à¸Ķ":1160,"à¸Ńà¸ŀ":1161,"à¸Ńà¸¢à¸Ħ":1162,"à¸²à¸ĵ":1163,"à¹Ģà¸¥à¸¢à¸Ħà¸£":1164,"à¸Ńà¸ĩà¸Īà¸²à¸ģ":1165,"à¸ĩà¸Ĭ":1166,"Ġin":1167,"à¸²à¹ĥà¸Ĭ":1168,"à¹ģà¸Ĭ":1169,"Ġà¸Ħà¸§à¸²à¸¡":1170,"à¸ĩà¸²à¸¡":1171,"à¹Īà¹į":1172,"hone":1173,"à¸²à¹Ĥ":1174,"ia":1175,"à¸ļà¸ģà¸²à¸£à¸ĵ":1176,"à¸Ńà¸ĩà¸Ķ":1177,"à¸ģà¸¡":1178,"à¹Ħà¸¥à¸Ļ":1179,"à¹Ģà¸ľ":1180,"à¹Ħà¸Ľà¸Ķ":1181,"à¸²à¹Ħà¸«à¸£":1182,"à¸ĺà¸Ļ":1183,"à¸£à¸Ń":1184,"à¸¡à¸²à¸Ĭ":1185,"à¸Īà¸ļ":1186,"à¸§à¸ª":1187,"ut":1188,"pp":1189,"à¸łà¸²à¸Ħ":1190,"à¸ģà¸©à¸²":1191,"),":1192,"à¹Ģà¸ļà¸Ńà¸£":1193,"ow":1194,"à¸Ļà¸Ĺà¸£":1195,"à¸Ħà¸Ļà¸Ń":1196,"Ġà¸£à¸²à¸Ħà¸²":1197,"ch":1198,"à¸²à¸Ļà¸Ļ":1199,"à¸Īà¸°à¹Ħà¸Ķ":1200,"à¸ķà¸¥à¸Ńà¸Ķ":1201,"à¸ģà¹Ģà¸£":1202,"à¸Ķà¸ĸ":1203,"à¹ģà¸Ķ":1204,"ve":1205,"à¸²à¸Ńà¸¢à¸²à¸ģ":1206,"à¸¡à¸²à¸ķ":1207,"à¸ªà¸Ļà¹ĥà¸Ī":1208,"os":1209,"à¸²à¸ĸà¸²à¸¡":1210,"à¸Ľà¸£à¸°à¸ªà¸ļà¸ģà¸²à¸£à¸ĵ":1211,"à¸²à¹Ģà¸ģ":1212,"à¸°à¸§":1213,"Ġà¹Ģà¸«à¸¡":1214,"Ġà¸Ľà¸¥":1215,"à¸¡à¸ģ":1216,"à¸²à¹Ģà¸¥":1217,"à¸Ĭà¸²à¸§":1218,"--------------------------------":1219,"à¸Łà¸Ļ":1220,"à¸Ĥà¸Ļà¸²à¸Ķ":1221,"à¸²à¹ģà¸Ļà¸°à¸Ļ":1222,"Ġr":1223,"à¸ĵà¸Ħà¸£":1224,"à¸ĩà¸«":1225,"ig":1226,"à¸²à¸¢à¹ĥà¸Ļ":1227,"¸Ĩ":1228,"à¸Ĩ":1229,"à¹ģà¸Ľ":1230,"à¸Ļà¹Ģà¸Ĺ":1231,"à¹Į\",":1232,"à¸²à¸ĩà¸Ħ":1233,"à¸Ļà¹Ģà¸Ĥ":1234,"à¸¢à¸Ļà¸ķà¸£":1235,"à¸ĩà¸¢":1236,"à¸²à¹ĥà¸Ļ":1237,"====":1238,"Ġ?":1239,"à¹Ĥà¸Ńà¸ģà¸²à¸ª":1240,"à¸Ĵà¸Ļ":1241,"à¸Ļà¸ĭ":1242,"à¸Ńà¸ĩà¹Ģà¸Ĺ":1243,"à¸ĩà¸Ĥà¸Ńà¸ĩ":1244,"à¸²à¸£à¸°":1245,"tr":1246,"à¸²à¹ģà¸¥":1247,"Ġà¸Ĥà¸²à¸¢":1248,"à¹Ĥà¸Ļ":1249,"à¸²à¹Ħà¸£":1250,"à¸Ķà¸Ń":1251,"à¸§à¸Ĥ":1252,"à¸²à¹Ģà¸ŀ":1253,"à¸£à¸ĵ":1254,"ir":1255,"à¹Ĥà¸¢":1256,"à¸¡à¸²à¸Ļ":1257,"à¸Īà¸°à¹Ħà¸¡":1258,"à¸Ńà¸ľ":1259,"à¸§à¹Ħà¸Ľ":1260,"à¸Īà¸°à¸ķ":1261,"à¸¡à¸²à¸¢":1262,"Ġà¸ľà¸¡à¸ģ":1263,"à¸£à¸Ńà¸ļ":1264,"à¸łà¸²à¸ŀà¸¢à¸Ļà¸ķà¸£":1265,"à¹Ĥà¸ģ":1266,"à¸²à¸ĩà¸§":1267,"Ġthe":1268,"à¸Ļà¹Ģà¸Ńà¸ĩ":1269,"à¸Ńà¹Ģà¸Ľ":1270,"à¸§à¸ĩà¸«à¸Ļ":1271,"à¸ĩà¸ģà¸¥":1272,"à¸£à¸ļà¸ģà¸§à¸Ļ":1273,"à¸ĩà¸Ħà¸¡":1274,"à¹Ħà¸«à¸¡à¸Ħà¸°":1275,"à¸ĵà¸Ħ":1276,"à¸ŀà¸²à¸°":1277,"ol":1278,"à¸ĩà¸Ľ":1279,"à¸Ńà¸ĩà¹Ħà¸Ľ":1280,"à¸ĩà¸ĩà¸²à¸Ļ":1281,"à¸ĩà¸ģà¸¤à¸©":1282,"à¸Ļà¹ĥà¸«":1283,"th":1284,"Ġ<":1285,"Ġtr":1286,"à¹ģà¸Ńà¸ļ":1287,"à¸£à¸Ħ":1288,"à¸ªà¸²à¸¡":1289,"à¸ĩà¸«à¸¡à¸Ķ":1290,"à¸²à¸Ļà¸§à¸Ļ":1291,"à¸²à¹Ģà¸ª":1292,"à¸¨à¸²à¸ªà¸ķà¸£":1293,"à¸§à¸Ħà¸£":1294,"à¸Ķà¸¡":1295,"à¹ĥà¸ķ":1296,"à¸Ħà¸§à¸²à¸¡à¸Ħ":1297,"à¸įà¸Ĭ":1298,"à¸ļà¸¥":1299,"à¸¨à¸Ļ":1300,"à¸¡à¸²à¸ģà¸ģà¸§":1301,"à¸ķà¸£à¸ĩ":1302,"à¸ªà¸§à¸¢":1303,"Ġ255":1304,"à¸ĺà¸Ļà¸²à¸Ħà¸²à¸£":1305,"à¸Ĺà¸¢à¸²à¸¥":1306,"à¸£à¸§à¸¡":1307,"à¸ĩà¹Ħ":1308,"à¹ģà¸Ļà¸§":1309,"Ġx":1310,"ack":1311,"Ġà¸ķà¸²à¸¡":1312,"à¸¢à¸Ĺ":1313,"Ġà¹Ģà¸Ħà¸£":1314,"à¸Ńà¸ģà¸Īà¸²à¸ģ":1315,"à¸¸à¹Ĭ":1316,"à¸²à¸¢à¸£":1317,"à¸Īà¸°à¹Ħà¸Ľ":1318,"Ġst":1319,"//":1320,"30":1321,"op":1322,"à¹Ģà¸īà¸ŀà¸²à¸°":1323,"à¸¢à¸Ħà¸°":1324,"à¸ļà¹Ģà¸ŀ":1325,"à¸§à¸¢à¸Ħ":1326,"Ġà¸£à¸ļà¸ģà¸§à¸Ļ":1327,"Ġj":1328,"Ġ**":1329,"à¸Ńà¸Ļà¸Ĥ":1330,"im":1331,"à¸ģà¸²à¸£à¸ĵ":1332,"à¸²à¸Ļà¸ģ":1333,"à¸ķà¸ģ":1334,"à¸Ķà¸ģà¸²à¸£":1335,"Ġ15":1336,"à¸Ńà¸Ļà¹Ģà¸Ķ":1337,"à¸Ńà¸°à¹Ħà¸£à¸ģ":1338,"à¸ªà¸Ńà¸ĩ":1339,"à¹Ģà¸¨à¸©":1340,"Ġà¸Ł":1341,"à¸Ĥà¸łà¸²à¸ŀ":1342,"¸ĳ":1343,"à¸ĳ":1344,"à¸µà¹ĭ":1345,"à¹ģà¸Ľà¸¥":1346,"Ġ...":1347,"à¸ļà¹Ģà¸£":1348,"à¸µ,":1349,"à¸ļà¸²à¸¥":1350,"à¸ļà¸¡à¸²":1351,"à¹Ģà¸¨à¸£":1352,"Ġy":1353,"à¸ĩà¸¥":1354,"à¸¢à¸Ħà¸£":1355,"à¸ķà¸£à¸§à¸Ī":1356,"à¸Ńà¸ģà¸²à¸£":1357,"à¹ĥà¸Ķ":1358,"à¸¡à¸£":1359,"à¸°à¸Ĺ":1360,"à¹Ĥà¸Ħà¸£":1361,"à¸Ļà¹Ģà¸ª":1362,"à¸²à¹Ģà¸£à¸²":1363,"à¸ĩà¸ĭ":1364,"à¸Ńà¸Ĥ":1365,"à¸ĩà¸ŀ":1366,"mo":1367,"à¸©à¸¢":1368,"à¸ļà¸Ĥ":1369,"à¸Ĥà¸ģà¸Ĺ":1370,"à¸ĩà¹ĥà¸«":1371,"Ġ30":1372,"à¹Ħà¸«à¸Ļà¸Ķ":1373,"à¸Īà¸Ļ":1374,"à¸²à¸Ħà¸§à¸²à¸¡à¸£":1375,"à¸Ķà¸«à¸Ļ":1376,"à¹Ħà¸«à¸§":1377,"à¸Ńà¸¢à¸²à¸ģà¸Īà¸°":1378,"à¹ģà¸ª":1379,"à¸Ńà¸Ńà¸ģà¸¡à¸²":1380,"à¸«à¸£à¸Ń":1381,"Ġà¹ģà¸ĸ":1382,"Ġ12":1383,"à¸¥à¸°à¹Ģà¸Ń":1384,"à¸Ńà¸ĩà¹ĥà¸Ĭ":1385,"à¸²à¹Ģà¸Ħ":1386,"à¸Ńà¸Ħà¸§à¸²à¸¡":1387,"à¸¡à¸²à¸£":1388,"Ġà¸£à¸§à¸¡":1389,"à¸ĩà¸¡à¸²à¸ģ":1390,"Ġ19":1391,"Ġà¸ŀà¸Ńà¸Ķ":1392,"à¸§à¹Ħà¸¡":1393,"ma":1394,"à¸Ļà¸°à¸Ħ":1395,"à¸ļà¸ŀ":1396,"à¸²à¸¢à¸²à¸¡":1397,"à¹Ĥà¸Ĺà¸©":1398,"Ġà¸«à¸¡":1399,"à¸§à¸¢à¹ģà¸Ļà¸°à¸Ļ":1400,"Ġ)":1401,"à¸Ļà¸ķà¸£":1402,"à¸ªà¸²à¸§":1403,"à¸§à¸«à¸Ļ":1404,"à¹Ĥà¸£à¸ĩà¹Ģà¸£":1405,"à¸²à¸¢à¸Ħ":1406,"à¸ļà¸ľà¸¡":1407,"à¸Ńà¸¢à¸²à¸ģà¹ĥà¸«":1408,"à¸Ńà¸«":1409,"Ġà¸®":1410,"à¸Ħà¸£à¸Ńà¸ļà¸Ħà¸£":1411,"à¸¥à¸¥":1412,"à¹Ģà¹Ģà¸ķ":1413,"à¸ģà¸ĭ":1414,"ook":1415,"à¹Ĩà¸ģ":1416,"Ġà¸ī":1417,"à¹Ħà¸Ľà¸ģ":1418,"à¸Ħà¸Ļà¹Ģà¸Ķ":1419,"à¸Ŀà¸²à¸ģ":1420,"à¸ļà¸Ń":1421,"Ġ#":1422,"ht":1423,"à¸ŀà¸¢à¸²à¸¢à¸²à¸¡":1424,"à¸²à¸į":1425,"doc":1426,"à¸¡à¸Ńà¸ĩ":1427,"à¸±à¹Ĭ":1428,"à¸§à¸¢à¸Ħà¸£":1429,"Ġ201":1430,"à¸ĩà¹ģà¸¥":1431,"à¸²à¹Ħà¸ĩ":1432,"¸¬":1433,"à¸¬":1434,"à¸²à¸¢à¹Ģà¸Ľ":1435,"à¹Ģà¸Ĥà¸²à¸ģ":1436,"à¸ĩà¹Ģà¸Ĺà¸ŀ":1437,"à¹ģà¸ļ":1438,"à¸¨à¸£":1439,"à¸²à¸Ļà¸¡":1440,"à¹Ĥà¸Ķà¸Ļ":1441,"wik":1442,"Ġre":1443,"à¹Ģà¸ķà¸£":1444,"à¹Ģà¸¥à¸Ĥ":1445,"à¸Ńà¸¢à¸²à¸ģà¸£":1446,"Ġà¸ģà¸£à¸°":1447,"à¸§à¹Ģà¸£":1448,"Ġà¸£à¸ĸ":1449,"à¸Ľà¸£à¸°à¸ģà¸Ńà¸ļ":1450,"à¸Ńà¸Ĥà¸Ńà¸ĩ":1451,"eb":1452,"à¸Ńà¹ģà¸¡":1453,"à¸²à¸ķà¸Ńà¸ļ":1454,"555":1455,"à¸¡à¸Ľ":1456,"à¸ĵà¸ĳ":1457,"st":1458,"à¸¢à¸Ńà¸Ķ":1459,"à¹Ĥà¸ŀ":1460,"à¸ļà¹Ħà¸¡":1461,"à¸§à¸²à¸ĩ":1462,"à¸£à¸°à¸¢à¸°":1463,"Ġà¹ģà¸Ħ":1464,"à¸²à¸§à¸Ļ":1465,">>":1466,"à¸ĩà¹ģà¸ļà¸ļ":1467,"à¸ªà¸ª":1468,"ak":1469,"Ġà¸Ĺà¸²à¸ĩ":1470,"à¸§à¸¥":1471,"à¸Ńà¹Ħà¸Ķ":1472,"à¸¥à¸ĩà¸Ĺà¸°à¹Ģà¸ļ":1473,"up":1474,"à¸Ļà¹ģà¸¥à¸°":1475,"à¸ªà¸ĩà¸ª":1476,"à¸įà¸²à¸ķ":1477,"à¸¢à¸²à¸§":1478,"Ġà¸«à¸²à¸ģ":1479,"................":1480,"à¸Ļà¹ģà¸ļà¸ļ":1481,"à¸£à¸ĸà¸¢à¸Ļà¸ķ":1482,"Ġà¸Ńà¸²à¸Ī":1483,"Ġà¸ªà¸²à¸¡à¸²à¸£à¸ĸ":1484,"à¸²à¸Ļà¸¡à¸²":1485,"à¹Ģà¸Ħà¸¥":1486,"à¸¡à¸Ĥ":1487,"Ġà¸Ľà¸£à¸°":1488,"à¹Ģà¸ł":1489,"à¹Ģà¸ĸ":1490,"à¸Ļà¸ģà¸¥":1491,"********":1492,"à¹Ģà¸ģà¸²à¸«à¸¥":1493,"à¸Ļà¸²à¸¡":1494,"à¸²à¸Īà¸£":1495,"à¹ģà¸¢":1496,"à¸§à¸ĩà¸Ļ":1497,"à¸ģà¸²à¸£à¹Ģà¸¡":1498,"à¸²à¸Ńà¸Ńà¸ģ":1499,"Ġ18":1500,"à¹Ĥà¸Ħ":1501,"à¸ļà¸Ķ":1502,"Ġà¹Ģà¸ļ":1503,"à¸Ńà¸Ļà¸§":1504,"Ġà¸ŀà¸£à¸°":1505,"à¸¡à¸Ķ":1506,"à¸Ļà¸«à¸¥":1507,"à¸Ńà¸ģà¸¥":1508,"à¸¢à¸Ħ":1509,"ec":1510,"à¸²à¸ĩà¸¡":1511,"à¸§à¸Ń":1512,"ps":1513,"âĢĭ":1514,"à¸ĩà¸ĸ":1515,"à¸ļà¸£à¸ĸ":1516,"à¸ģà¸¡à¸²à¸ģ":1517,"à¸²à¸ĩà¸Ħà¸°":1518,"à¸Ļà¹Ģà¸¥":1519,"iz":1520,"à¸§à¹Ģà¸ķà¸Ńà¸£":1521,"Ġ.":1522,"à¸Ķà¸Ī":1523,"à¸²à¸¢à¹Ĩ":1524,"à¸ĩà¹Ģà¸¥":1525,"à¸§à¸Ńà¸¢":1526,"à¸ģà¸«à¸Ļ":1527,"à¹Ģà¸£à¸²à¸Ħ":1528,"ub":1529,"à¸²à¸ģà¸²à¸¨":1530,"à¸¡à¸Ħ":1531,"à¹Ħà¸Ľà¹ģà¸¥":1532,"à¹Ĥà¸Ĺà¸£à¸Ĺ":1533,"à¹Ĥà¸Ĭ":1534,"à¹Ħà¸ģà¸¥":1535,"à¸¡à¸²à¸°":1536,"à¸²à¸£à¸¡":1537,"Ġ+":1538,"à¸§à¸Ļà¹ĥà¸«à¸į":1539,"à¸ļà¸Ľ":1540,"à¸ķà¸ķ":1541,"à¸£à¸²à¸Ħà¸²":1542,"à¹ĥà¸Ļà¸Ĭ":1543,"à¸Ńà¸Ńà¸°à¹Ħà¸£":1544,"à¸łà¸²à¸¢à¹ĥà¸Ļ":1545,"à¸Ńà¸ľà¸¡":1546,"à¸²à¸ļà¸Ńà¸ģ":1547,"à¸Ńà¸ĩà¸Ĥà¸Ńà¸ĩ":1548,"à¸Ńà¹Ģà¸¡":1549,"à¸²à¸Ĭà¸Ńà¸ļ":1550,"à¸įà¸«à¸²à¸Ħà¸§à¸²à¸¡à¸£":1551,"à¸ķà¸¥à¸²à¸Ķ":1552,"à¸ģà¸Ń":1553,"ent":1554,"Ġà¸ļà¸£":1555,"à¸Ńà¸ĩà¸ŀ":1556,"com":1557,"à¸§à¸ļ":1558,"art":1559,"à¸ĩà¹Ģà¸Ķ":1560,"à¹Ģà¸£à¸²à¸¡":1561,"à¸Ńà¸¢à¸²à¸ģà¹Ħà¸Ķ":1562,"60":1563,"Ġ100":1564,"à¹Ħà¸Łà¸Ł":1565,"à¸¨à¸²à¸¥":1566,"à¸Ħà¸Ħà¸¥":1567,"à¹ģà¸ģà¸£":1568,"Ġ--":1569,"à¸¡à¸²à¸ĸ":1570,"à¹Ģà¸£à¸²à¸Īà¸°":1571,"à¸ģà¸ģà¸ģà¸ģ":1572,"à¸²à¸Ļà¸ķ":1573,"à¸ģà¸²":1574,"ĉĉĉ":1575,"ĉĉĉĉĉĉĉ":1576,"ĉĉĉĉĉĉĉĉĉĉĉĉĉĉĉ":1577,"ĉĉĉĉĉĉĉĉĉĉĉĉĉĉĉĉĉĉĉĉĉĉĉĉĉĉĉĉĉĉĉ":1578,"à¸«à¸¥à¸²à¸¢à¹Ĩ":1579,"à¸ĸà¸²à¸¡à¸§":1580,"à¸ĵà¸Ĺ":1581,"à¸ĵà¸¥":1582,"à¸Ńà¸Ĭ":1583,"um":1584,"à¸Ńà¸ĩà¸Ń":1585,"à¸ģà¹ģà¸¥":1586,"à¸Ļà¹Ģà¸Ĭ":1587,"à¸ģà¹Ħà¸¡":1588,"à¸¡à¸²à¸Ĺ":1589,"à¸ļà¸£à¸£":1590,"à¸Īà¸°à¸£":1591,"à¸¥à¸ļ":1592,"Ġà¸Ńà¸Ńà¸ģ":1593,"à¸ģà¸ľ":1594,"Ġid":1595,"à¸Ĳà¸ļà¸²à¸¥":1596,"à¸Ńà¸Ļà¸«à¸Ļ":1597,"à¸£à¸²à¸¢à¸ģà¸²à¸£":1598,"à¸İà¸«à¸¡à¸²à¸¢":1599,"à¸¡à¹Ģà¸ķ":1600,"à¸²à¸Ļà¹Ħà¸Ľ":1601,"à¸´à¹Ĭ":1602,"++++++++":1603,"à¹Ģà¸ģà¸¡":1604,"à¸Ļà¸Īà¸²à¸ģ":1605,"à¸Ķà¹Ħà¸Ľ":1606,"à¸²à¸Īà¸°à¹Ģà¸Ľ":1607,"à¸²à¸ļà¸²à¸¥":1608,"à¸Ļà¸Ńà¸°à¹Ħà¸£":1609,"à¸«à¸²à¸ģ":1610,"à¹Ĥà¸ĭ":1611,"à¸Ļà¸²à¸ĩ":1612,"à¸§à¸°":1613,"à¹ģà¸£à¸ĩ":1614,"Ġà¸Ľà¸£":1615,"à¸Ļà¹ģà¸ļà¸ļà¸Ļ":1616,"à¸²à¸ĩà¹Ģà¸Ķ":1617,"à¹Ĥà¸£à¸ĩà¹ģà¸£":1618,"ung":1619,"!!!":1620,"Ġ11":1621,"Ġà¸Ĭà¸Ńà¸ļ":1622,"Ġà¸ªà¸£":1623,"à¹Ĥà¸Łà¸Ļ":1624,"à¸ĩà¹ģà¸£à¸ģ":1625,"à¸¢à¸§à¸ķ":1626,"à¸ģà¸Ľ":1627,"à¸¡à¸«à¸²à¸§":1628,"Ġsh":1629,"à¹Ĥà¸£à¸Ħ":1630,"à¸Ńà¸ĩà¸Ī":1631,"à¸Ńà¸²à¸ģà¸²à¸£":1632,"Ġà¹Ģà¸ĺ":1633,"Ġà¸ĺ":1634,"à¸²à¹ģà¸¥à¸°":1635,"à¸«à¸£à¸Ńà¸ģ":1636,"Ġch":1637,"ap":1638,"tac":1639,"Ġà¹":1640,"à¸¡à¸²à¸ļ":1641,"if":1642,"à¸Ļà¹Ģà¸«à¸¡":1643,"à¹Ģà¸Łà¸ª":1644,"à¸Ķà¸ķà¸²à¸¡":1645,"Ġà¸ģà¸§":1646,"à¸Ĭà¸¡":1647,"à¸ĩà¹Ģà¸Ĥ":1648,"à¸ģà¸Ĥà¸Ńà¸ĩ":1649,"Ġ16":1650,"à¸±à¹ĭ":1651,"à¸Ķà¸§à¸ģ":1652,"Ġro":1653,"ss":1654,"Ġto":1655,"à¸²à¸Ĺà¸²à¸ĩ":1656,"à¸²à¹Ģà¸¥à¸¢":1657,"à¸Ķà¹ĥà¸Ļ":1658,"Ġ^":1659,"Ġà¸ļà¸Ńà¸ģ":1660,"à¸ŀà¸Ļ":1661,"?,\"":1662,"à¸Ńà¸Ļà¸ķ":1663,"à¸²à¸ł":1664,"à¸Ńà¸Ļà¸Ķ":1665,"à¸Ĺà¸²à¸Ļ":1666,"à¸ĵà¹ģà¸¡":1667,"Ġà¸ŀà¸§à¸ģ":1668,"à¸Ńà¸Ļà¸¡":1669,"à¸²à¸Ļà¸°":1670,"à¸Ľà¸£à¸°à¹Ĥà¸¢":1671,"à¹Ħà¸«":1672,"phone":1673,"ver":1674,"à¸įà¸įà¸²à¸ĵ":1675,"à¸Ļà¸²à¸¢":1676,"à¸Ľà¸£à¸°à¸Ĭà¸²à¸Ĭ":1677,"à¹ģà¸Ļà¸Ļ":1678,"Ġà¸ļà¸²à¸ĩ":1679,"à¸Ńà¸«à¸Ļ":1680,"à¸Ļà¹ģà¸ķ":1681,"ul":1682,"à¸Ķà¸¥":1683,"à¸ĩà¸ľ":1684,"à¸Ńà¸ªà¸Ńà¸ĩ":1685,"à¸²à¸£à¸§à¸Ī":1686,"à¸ľà¸¡à¹Ħà¸¡":1687,"à¸Ńà¸ĩà¸ļ":1688,"à¸ªà¸Ļà¸²à¸¡":1689,"à¸¢à¸²à¸Ļ":1690,"à¸Ľà¸ı":1691,"à¸²à¸£à¸¡à¸ĵ":1692,"à¸ļà¹ģà¸Łà¸Ļ":1693,"Ġà¹Ĥà¸Ĺà¸£":1694,"ĠĠĠĠĠĠĠĠĠĠĠĠĠĠĠĠ":1695,"à¸Ńà¸¡à¸ģ":1696,"à¸©à¸ĵ":1697,"à¹ģà¸Ĺà¸Ļ":1698,"à¹Ħà¸«à¸¥":1699,"à¸ģà¸ļ":1700,"à¸įà¸«à¸²":1701,"à¹Ģà¸Īà¸Ńà¸ģ":1702,"Ġ14":1703,"Ġà¸ĵ":1704,"à¸Ľà¸Ķ":1705,"Ġ13":1706,"à¸¡à¸²à¸Īà¸²à¸ģ":1707,"Ġof":1708,"à¸§à¹Ĩ":1709,"à¸Ńà¹Ģà¸ª":1710,"à¹Ģà¸£à¸²à¹Ģà¸Ľ":1711,"Ġth":1712,"à¸Ľà¸ģà¸£à¸ĵ":1713,"à¸Ńà¸ĩà¸§":1714,"à¸²à¸ģà¸£":1715,"Ġà¸Ħà¸§à¸£":1716,"à¸²à¸¢à¸ķ":1717,"à¸ĩà¹Ħà¸ĩà¸Ķ":1718,"Ġ24":1719,"à¸²à¸£à¸ĵ":1720,"à¸ģà¸Ī":1721,"à¸Ńà¸Ńà¸ģà¹Ħà¸Ľ":1722,"15":1723,"à¸Ńà¸Ļà¸£":1724,"à¸Ńà¸ĩà¸ľ":1725,"à¸²à¸«à¸Ļà¸Ķ":1726,"à¸²à¸ļà¸Ńà¸ģà¸§":1727,"à¸Ńà¸ģà¸ķ":1728,"à¸²à¹Ģà¸¡":1729,"Ġ50":1730,"Ġà¸Īà¸Ĥà¸ģà¸Ĺ":1731,"à¸Ĥà¸Ńà¸Ħ":1732,"à¸§à¸¢à¸Ļà¸°à¸Ħà¸°":1733,"à¸²à¹Ģà¸Ĺ":1734,"Ġà¸Īà¸£":1735,"à¸Ńà¸ĩà¸Ĥ":1736,"à¹Ģà¸¥à¸¢à¸§":1737,"ile":1738,"à¸²à¹ģà¸«à¸Ļ":1739,"à¸ļà¹Ħà¸Ķ":1740,"à¸ŀà¸¢à¸²à¸ļà¸²à¸¥":1741,"à¸Ķà¸ļ":1742,"Ġ200":1743,"Ġà¸ģà¸£":1744,"à¸²à¸ĩà¸Ķ":1745,"à¸ģà¸²à¸£à¸ļ":1746,"à¸²à¸ķà¸£":1747,"à¹Ģà¸ģà¸£":1748,"à¸©à¸Ĳ":1749,"ant":1750,"à¹Ģà¸«à¸¡à¸²à¸°":1751,"à¸Ńà¸ĩà¹Ģà¸£":1752,"Ġà¸¡à¸²à¸ģ":1753,"à¸Ŀà¸£":1754,"Ġà¸ķà¸£":1755,"à¸Ħà¸§à¸²à¸¡à¸ĩà¸²à¸¡":1756,"à¸Ńà¹Ģà¸ŀ":1757,"à¸ģà¸Ĭ":1758,"à¸ģà¸¢":1759,"à¸Ļà¹Ģà¸ŀà¸£à¸²à¸°":1760,"à¸Ńà¸Ī":1761,"à¸§à¹ģà¸ķ":1762,"à¹Ģà¸«à¸£à¸Ń":1763,"Ġ*":1764,"Ġà¹Ģà¸£à¸²à¹Ħà¸¡":1765,"à¸ļà¸«à¸Ļ":1766,"Ġà¹Ģà¸ķ":1767,"Ġ5555":1768,"à¸Ńà¸ĩà¸ĸ":1769,"à¸¡à¸²à¸ģà¸Ħ":1770,"à¸ĩà¹Ħà¸ĩà¸ģ":1771,"à¹ģà¸¢à¸ģ":1772,"à¸ªà¸ģ":1773,"ation":1774,"Ġà¸ªà¸²à¸Ĥ":1775,"Ġà¸Ľà¸£à¸°à¸¡à¸²à¸ĵ":1776,"ce":1777,"à¹Ģà¸£à¸²à¸Ĺ":1778,"à¸ķà¸Ļ":1779,"à¸ķà¸²à¸¡à¸«":1780,"25":1781,"à¸ģà¹ģà¸ªà¸Ķà¸ĩ":1782,"à¹Ĥà¸Ńà¸Ļ":1783,"à¸Ńà¸ł":1784,"Ġà¸£à¸²à¸¢":1785,"à¸²à¸Ł":1786,"à¸²à¸Ħà¸§à¸£":1787,"Ġ17":1788,"Ġsm":1789,"à¸£à¸°à¸ļ":1790,"à¸²à¸Īà¸°à¸¡":1791,"à¸ļà¸Ī":1792,"à¸Īà¸°à¸Ķ":1793,"à¸ĩà¸Īà¸²à¸ģà¸Ļ":1794,"à¸ļà¸Ĭ":1795,"à¸§à¸¢à¸Ħà¸§à¸²à¸¡":1796,"à¸Ńà¸Ł":1797,"à¸Ķà¹Ħà¸¡":1798,"à¸Ķà¸Ńà¸°à¹Ħà¸£":1799,"à¸ļà¹Ģà¸£à¸²":1800,"à¸²à¸ĩà¸«à¸Ļ":1801,"à¸Ħà¸Ńà¸¡à¸ŀ":1802,"ize":1803,"à¸ĩà¹Ĩà¸Ĺ":1804,"à¸¥à¸Ľ":1805,"à¹Ģà¸īà¸¢":1806,"à¹Ģà¸®":1807,"à¹Ģà¸£à¸²à¸ķ":1808,"à¸Ľà¸Ĺ":1809,"à¸Ķà¸Ĥà¸Ńà¸ĩ":1810,"à¸¢à¸²":1811,"à¸Ńà¸ĩà¹Ģà¸Ľ":1812,"Ġà¹Ģà¸ĩ":1813,"90":1814,"à¹Ģà¸§à¸¥à¸²à¸Ĺ":1815,"Ġà¹Ħ":1816,"à¸Ķà¸Ńà¸¢":1817,"à¹ĥà¸Ļà¸ķ":1818,"à¸Ķà¸Īà¸²à¸ģ":1819,"à¸§à¸ĸ":1820,"à¸²à¸ĩà¸Ī":1821,"Ġapp":1822,"à¸ģà¹ĥà¸Ī":1823,"________":1824,".....":1825,"à¸Ĺà¸°à¹Ģà¸¥":1826,"à¸ĺà¸£à¸£à¸¡à¸Ķ":1827,"Ġà¸Ĥà¸Ļà¸²à¸Ķ":1828,"à¸²à¹Ģà¸Ĭ":1829,"ams":1830,"à¹ģà¸Ķà¸ĩ":1831,"à¹ģà¸«à¸¥à¸°":1832,"à¸¢à¸ļà¸£":1833,"à¹Ĥà¸¡à¸ĩ":1834,"à¸ŀà¸¥à¸²à¸Ķ":1835,"à¸²à¸ĩà¸Ń":1836,"ebook":1837,"à¹Ģà¸Ńà¸ģà¸ªà¸²à¸£":1838,"à¸²à¸Ļà¸Ħ":1839,"Ġà¸ĩà¸²à¸Ļ":1840,"Ġà¸Īà¸°à¸¡":1841,"à¸Ńà¸Ńà¸ģà¸Īà¸²à¸ģ":1842,"à¸ģà¸²à¸¢":1843,"à¹ĥà¸Ļà¸ª":1844,"à¸Ļà¹Ģà¸¡":1845,"à¸¡à¹Ĩ":1846,"à¸Ľà¸²à¸ģ":1847,"à¸²à¸ĩà¸ķ":1848,"11":1849,"à¸ģà¸²à¸£à¸ķ":1850,"all":1851,"à¸ļà¸²à¸Ĺà¸Ħ":1852,"à¸¨à¸²à¸ªà¸Ļ":1853,"à¸Ļà¸Īà¸£":1854,"à¸Ĭà¸£":1855,"à¸Ļà¸«à¸£":1856,"à¸Ķà¹Ħà¸Ķ":1857,"à¸ĩà¹ģà¸ļà¸ļà¸¥à¸ĩà¸Ĺà¸°à¹Ģà¸ļ":1858,"à¹Ħà¸Ľà¹Ģà¸Ĺ":1859,"à¸Ľà¸£à¸°à¹Ģà¸Ĺà¸¨à¹Ħà¸Ĺà¸¢":1860,"à¸Ńà¸¢à¸²à¸ģà¸Ĺà¸£à¸²à¸ļà¸§":1861,"Ġà¸£à¸«":1862,"à¸Ķà¹Ģà¸«":1863,"Ġà¹Ģà¸ĭ":1864,"à¸ªà¸ļà¸²à¸¢":1865,"Ġsize":1866,"ew":1867,"à¸Ħà¸Ķ":1868,"Ġà¸ªà¸¡":1869,"à¸¡à¸Ħà¸£":1870,"à¸²à¸¢à¹Ħà¸Ľ":1871,"à¸ģà¸²à¸£à¸ª":1872,"à¹Ģà¸Ħà¸£à¸Ķ":1873,"à¸įà¸«à¸²à¸Ĭ":1874,"à¸²à¸ķà¸²à¸¡":1875,"à¸¡à¸²à¸Ĥ":1876,"à¸¡à¸²à¹ģà¸¥":1877,"Ġ=":1878,"à¸¢à¸ģà¸§":1879,"à¹Ĥà¸Ńà¹Ģà¸Ħ":1880,"ard":1881,"à¸²à¹ģà¸Ł":1882,"Ġà¹ģà¸¥à¸°à¸¡":1883,"à¸²à¸«à¸¡":1884,"à¸²à¹ģà¸ķ":1885,"à¹Ī,":1886,"à¸Ļà¹Ĥ":1887,"à¸ģà¹Ģà¸ģ":1888,"à¸Ķà¹Ģà¸Ķ":1889,"12":1890,"à¸Ľà¸¥à¸²à¸¢":1891,"Ġà¹ĥà¸ª":1892,"à¸§à¸¡à¸ģ":1893,"à¸ĩà¸Ħà¸§à¸²à¸¡":1894,"amsung":1895,"à¸Ĥà¸²à¸§":1896,"à¸Ńà¹ĥà¸«à¸¡":1897,"à¸Ńà¸Īà¸°":1898,"à¹ĥà¸Ļà¸«":1899,"à¹ĥà¸Ļà¸Ĺ":1900,"à¸²à¸Ļà¹ģà¸¥":1901,"à¸Ļà¹Ģà¸ķ":1902,"ab":1903,"à¸²à¹ĥà¸Ħà¸£":1904,"à¹Ģà¸£à¸²à¸£":1905,"à¸Ńà¸Ħà¸£":1906,"##":1907,"à¹Ģà¸Ńà¸²à¸¡":1908,"Ġà¹ģà¸ģ":1909,"à¸Ĺà¹Ĥà¸Łà¸Ļ":1910,"em":1911,"Ġà¸Ŀ":1912,"Ġà¸Ńà¸°à¹Ħà¸£":1913,"à¸ļà¸Ħà¸Ļ":1914,"à¸Ĥà¸Ńà¸ĩà¸ķ":1915,"à¸°à¸ģ":1916,"à¸Ľà¸£à¸°à¸ģà¸²à¸¨":1917,"à¸²à¸£à¸¢":1918,"à¸ªà¸¡à¸²à¸£":1919,"à¸Ļà¸ľà¸¡":1920,"Ġline":1921,"à¸Ĥà¸§":1922,"à¹ģà¸Ĭà¸£":1923,"à¸ģà¹Ģà¸Ķ":1924,"à¸£à¸ĸà¹Ħà¸Ł":1925,"Ġà¸Ļà¸²à¸¢":1926,"à¸Ńà¸ĩà¹Ģà¸¥":1927,"à¸¢à¸Ļà¸Ĺ":1928,"Ġà¸Īà¸°à¹Ħà¸Ķ":1929,"à¸¡à¸²à¸Ķ":1930,"à¸ªà¸¥":1931,"à¸°à¸Ļ":1932,"Ġsp":1933,"à¹Ģà¸ģà¸¥":1934,"à¸§à¸¢à¹Ģà¸«à¸¥":1935,"à¹Ģà¸¡à¸¥":1936,"Ġà¸¨":1937,"à¸²à¸Ļà¸«à¸Ļ":1938,"à¸«à¸²à¸¢à¹Ħà¸Ľ":1939,"à¸ģà¸²à¸£à¸¨":1940,"Ġà¸ľà¸¥":1941,"à¸Ľà¸£à¸°à¹Ĥà¸¢à¸Ĭà¸Ļ":1942,"à¸Ķà¸¡à¸²à¸ģ":1943,"99":1944,"à¸Ńà¸Ļà¸Ħ":1945,"à¸Ńà¹Ģà¸Ķ":1946,"à¸Ļà¹Ħà¸«à¸Ļ":1947,"Ġà¹ģà¸Ĺ":1948,"à¸¡à¸¢":1949,"ou":1950,"à¸Ńà¸¡à¸ª":1951,"à¸Ļà¹Ħ":1952,"à¸ļà¸Ħà¸§à¸²à¸¡":1953,"Ġà¹Ģà¸£à¸²à¹Ģà¸¥à¸¢":1954,"à¸Ńà¸ĩà¹Ħà¸¡":1955,"à¹Ģà¸Ńà¸²à¹Ħà¸Ľ":1956,"ass":1957,"Ġ555":1958,"à¸Ķà¸¢":1959,"à¸¡à¸²à¸ª":1960,"mail":1961,"Ġz":1962,"true":1963,"ang":1964,"Ġais":1965,"à¸Ńà¸ĩà¹ĥà¸«":1966,"Ġà¸Ļà¸Ńà¸ģà¸Īà¸²à¸ģ":1967,"à¸²à¸ĩà¸ª":1968,"à¸Ńà¸°à¸Ħà¸£":1969,"Ġ[":1970,"à¹Ģà¸§à¸Ńà¸£":1971,"à¹Ģà¸Ħà¸¢à¸¡":1972,"à¸Ħà¸Ńà¸Ļ":1973,"Ġà¸ł":1974,"Ġà¹Ģà¸Ħà¸¢":1975,"Ġà¸Ļà¸²à¸Ĺ":1976,"Ġà¹Ĥà¸£":1977,"Ġà¹ģà¸Ł":1978,"à¹ģà¸ĭ":1979,"Ġ..":1980,"à¸ģà¹Ħà¸Ľ":1981,"à¸ĵà¸°à¸Ĺ":1982,"od":1983,"ax":1984,"à¹ĥà¸Ļà¸§":1985,"à¸Ńà¸¢à¸ģ":1986,"à¸Ķà¹ĥà¸«":1987,"Ġà¸Ħà¸Ļà¸Ĺ":1988,"à¸¡à¸²à¹ĥà¸«":1989,"à¸²à¸Ŀ":1990,"edia":1991,"à¸Ĥà¸Ńà¸ĩà¸Ĺ":1992,"à¸Ńà¸ĩà¸«":1993,"à¸Ķà¹Ģà¸Ī":1994,"à¸ģà¸£à¸°à¹Ģà¸Ľ":1995,"à¸²à¹Ħà¸ĩà¸Ķ":1996,"à¹ģà¸ŀà¸Ĺà¸¢":1997,"à¸ģà¹Ħà¸Ķ":1998,"à¸Ĥà¸²à¸Ķ":1999,"à¸Ļà¹Ģà¸Ļ":2000,"à¸Ļà¸ł":2001,"========":2002,"à¸Ńà¸ĩà¹Ģà¸ª":2003,"org":2004,"à¸ķà¸Ĺ":2005,"à¸ļà¹Ģà¸Ĥ":2006,"à¸¡à¸ļ":2007,"à¸¢à¹ĥà¸Ī":2008,"Ġà¹Ģà¸£à¸²à¸Īà¸°":2009,"à¸§à¸Īà¸°":2010,"à¸Ļà¸Ħà¸Ļà¸Ĺ":2011,"à¹Ģà¸£à¸²à¹Ħà¸Ľ":2012,"à¸ģà¸ĸ":2013,"à¸¡à¸Ĭ":2014,"à¸Īà¸²à¸£à¸ĵ":2015,"à¹Ĥà¸«à¸¥":2016,"à¸ļà¸ĸ":2017,"à¸Ħà¸§à¸²à¸¡à¹Ģà¸«":2018,"à¸²à¸°à¸ģ":2019,"à¸Ńà¹Ģà¸¡à¸£":2020,"à¹Ħà¸«à¸Ļà¸ģ":2021,"à¸Ńà¸Ńà¸¢":2022,"à¹Ħà¸ĭà¸Ħ":2023,"à¸ļà¸ªà¸Ļ":2024,"ort":2025,"à¸Ńà¸Ļà¹Ħà¸¥à¸Ļ":2026,"Ġà¸¢à¸²à¸§":2027,"à¸Ńà¹Ģà¸Ĥ":2028,"à¸¡à¸§":2029,"à¸Ķà¸«":2030,"à¸Ļà¸¥à¸°":2031,"à¸¡à¸²à¹Ģà¸Ľ":2032,"à¸ĩà¹Ģà¸ŀ":2033,"are":2034,"à¸ķà¸ª":2035,"Ġtrue":2036,"à¸Ļà¹Ģà¸Ī":2037,"Ġcl":2038,"à¸Ļà¸Ńà¸Ńà¸ģ":2039,"40":2040,"à¸Ľà¸Ķà¸²à¸«":2041,"Ġà¸ĩ":2042,"à¸łà¸²à¸©à¸²à¸Ń":2043,"à¸ĺà¸²à¸Ļ":2044,"à¸Ńà¹Ģà¸ģ":2045,"acebook":2046,"à¸²à¸¢à¸ª":2047,"à¸Ńà¸ªà¸Ńà¸ļ":2048,"à¸Ļà¸Ħà¸¥":2049,"Ġà¸ĸà¸²à¸¡":2050,"à¹Ģà¸£à¸²à¹Ħà¸Ķ":2051,"à¸²à¸Ļà¸Ńà¸²à¸«à¸²à¸£":2052,"à¸²à¸§à¹Ĩ":2053,"à¸¢à¸ĩà¹ĥà¸«à¸¡":2054,"Ġà¸ļà¸²à¸ĩà¸Ĺ":2055,"à¸¡à¸²à¸Ľ":2056,"cr":2057,"Ġà¸£à¸°à¸«à¸§":2058,"à¸ĩà¸ģà¸§":2059,"à¸Ńà¸²à¸Ĺ":2060,"bile":2061,"à¸Ńà¸¢à¸Ķ":2062,"Ġà¸Ľà¸ģà¸ķ":2063,"à¹Ħà¸ķ":2064,"à¸°à¸¥":2065,"Ġle":2066,"à¸Ńà¸¢à¸Ļà¸°à¸Ħà¸°":2067,"à¸£à¸°à¹Ģà¸ļ":2068,"à¹Ĥà¸Ī":2069,"à¸ģà¸²à¸¥":2070,"à¸¡à¹Ħà¸Ķ":2071,"à¸Ńà¸¢à¸¡":2072,"à¸Ļà¸Ħà¸§à¸²à¸¡":2073,"Ġà¹ģà¸Ļà¸°à¸Ļ":2074,"?,":2075,"à¸ĭà¸°":2076,"à¸Ļà¸ģà¸£à¸°à¸Ĺ":2077,"à¸²à¸Ħà¸°":2078,"à¸Ĺà¸¡":2079,"à¸£à¸ª":2080,"à¹Ĥà¸ł":2081,"à¸§à¹Ģà¸Ľ":2082,"à¸Ķà¸Ĭ":2083,"ind":2084,"à¸Ħà¸Ļà¹Ħà¸Ĺà¸¢":2085,"Ġur":2086,"à¸Ķà¹ģà¸¥":2087,"://":2088,"à¸ļà¸Ĥà¸Ńà¸ļà¸Ħ":2089,"18":2090,"Ġà¸Īà¸²à¸ģà¸Ļ":2091,"à¸Ļà¸£à¸ĸ":2092,"à¹ģà¸§à¸£":2093,"à¸Ļà¹Ģà¸ķà¸Ńà¸£":2094,"à¹Ĥà¸Ľà¸£à¹ģà¸ģà¸£":2095,"Ġ^^":2096,"Ġà¹Ģà¹Ģà¸ķ":2097,"à¸ģà¸«":2098,"Ġà¹ģà¸¥à¸°à¸Ĺ":2099,"à¸§à¹ĥà¸Ī":2100,"à¸ģà¸²à¸£à¹Ģà¸£":2101,"à¸¡à¸²à¸ģà¸Ħà¸£":2102,"à¸Ńà¸ĩà¸Ĭ":2103,"iphone":2104,"à¸ĩà¸ģà¸£à¸°à¸Ĺ":2105,"à¸¢à¹Ģà¸£":2106,"à¸ģà¸²à¸£à¹ĥà¸Ĭ":2107,"à¸¢à¸ª":2108,"Ġtit":2109,"à¸Ĺà¸ģ":2110,"à¸Ńà¸ĩà¹Ħà¸«":2111,"à¸²à¸Ļà¸Ķ":2112,"à¸Ńà¸Ļà¹Ħà¸¡":2113,"à¸ķà¸Ħ":2114,"à¸²à¹Ģà¸ĩ":2115,"à¸Ńà¸Ļà¸²à¸Ħ":2116,"à¸Ļà¹ģà¸«à¸¥":2117,"à¸Ńà¹Ģà¸¥":2118,"à¹Ĩà¹Ĩà¹Ĩà¹Ĩ":2119,"Ġà¸Ńà¸²à¸¢":2120,"à¸¢à¸²à¸¡":2121,"à¹Ģà¸¨à¸£à¸©à¸Ĳ":2122,"à¸§à¸ľà¸¡":2123,"à¸Ńà¸ĩà¸ĭ":2124,"htt":2125,"à¸²à¹Ģà¸Ī":2126,"à¸Ļà¹Ģà¸Ħà¸£":2127,"à¸ķà¸²à¸¢":2128,"à¸Ļà¹ģà¸Ħ":2129,"Ġ21":2130,"à¸²à¸ŀà¸£":2131,"à¸²à¸ĩà¸ļ":2132,"à¸ĩà¸²à¸Ļà¸Ĺ":2133,"à¸²à¸ģà¸ı":2134,"Ġà¹Ģà¹Ģà¸¥":2135,"à¸Ľà¸Ļ":2136,"à¸²à¹Ģà¸Ń":2137,"à¸²à¸Ľà¸£":2138,"à¸²à¸Ļà¸²à¸Ļ":2139,"à¹ģà¸£à¸ģà¸Ĺ":2140,"à¸Ľà¸£à¸°à¸ķ":2141,"ipedia":2142,"à¸ģà¹Ģà¸Ĥ":2143,"16":2144,"Ġand":2145,"à¹Ħà¸Ľà¸£":2146,"à¸ģà¸£à¸¢à¸²à¸Ļ":2147,"à¸²à¸ĩà¸£":2148,"à¸«à¸¥à¸²à¸¢à¸Ħà¸Ļ":2149,"à¸Ńà¸Ļà¸Īà¸°":2150,"à¸§à¸ŀ":2151,"cur":2152,"à¸Ńà¸ĩà¸¢":2153,"à¸Ľà¸£à¸°à¸§":2154,"\",[":2155,"à¸Ńà¸Īà¸²à¸ģ":2156,"à¸²à¹ģà¸ļà¸ļ":2157,"à¸Ĺà¸Ļ":2158,"à¸Ńà¸ĩà¹Ģà¸Ķ":2159,"Ġ....":2160,"à¸ĵà¸łà¸²à¸ŀ":2161,"à¹Ģà¸ĭà¸Ńà¸£":2162,"à¸Ńà¸²à¸ģà¸²à¸¨":2163,"à¹Ħà¸Łà¸¥":2164,"à¸²à¸²à¸²à¸²":2165,"à¹Ģà¸ŀà¸¥":2166,"à¸²à¸ªà¸ķà¸£":2167,"à¸Ńà¸Ļà¸ª":2168,"ok":2169,"à¹Į)":2170,"à¸Ĥà¸Ńà¸ĩà¸ľà¸¡":2171,"Ġpro":2172,"Ġurl":2173,"à¸Ķà¹Ģà¸£":2174,"à¸Ĥà¸Ļà¸²à¸Ķà¸Ļ":2175,"ais":2176,"à¸¥à¸ģ":2177,"!!!!":2178,"https":2179,"à¸Ķà¸§à¸ĩ":2180,"Ġtitle":2181,"à¸ĩà¸«à¸£":2182,"à¸«à¸¥à¸§à¸ĩ":2183,"à¹Ĥà¸¡à¸ªà¸£":2184,"wikipedia":2185,"à¸Ļà¹ĥà¸«à¸¡":2186,"à¸Ķà¸Ľ":2187,"wiki":2188,"Ġà¹Ģà¸Ĥà¸²à¸ģ":2189,"à¸Ńà¸Ļà¹ģà¸¥":2190,"à¸Ńà¸ĩà¸«à¸Ļ":2191,"Ġ</":2192,"14":2193,"à¹ĥà¸Īà¸§":2194,"ate":2195,"\">":2196,"à¸Ļà¸ģà¸§":2197,"à¹ģà¸Ľà¸¥à¸ĩ":2198,"à¸Ńà¸¡à¸²":2199,"à¹Ģà¸Ńà¸ĩà¸ģ":2200,"ore":2201,"curid":2202,"Ġà¹Ģà¸«à¸¥":2203,"à¸ģà¸¥à¸²à¸¢à¹Ģà¸Ľ":2204,"à¸ģà¸İà¸«à¸¡à¸²à¸¢":2205,"Ġ??":2206,"à¸²à¹Ģà¸«à¸ķ":2207,"Ġà¸ľà¸¡à¹Ħà¸¡":2208,"à¸ģà¸£à¸Ńà¸ļ":2209,"à¹Ħà¸Ľà¹Ģà¸£":2210,"Ġpl":2211,"à¹Ĥà¸Ħà¸£à¸ĩà¸ģà¸²à¸£":2212,"à¸«à¸§à¸²à¸Ļ":2213,"80":2214,"à¹Ģà¸ģà¸²à¸°":2215,"à¹Ĥà¸Ķà¸¢à¸ªà¸²à¸£":2216,"à¹Ħà¸«à¸¡à¸Ħ":2217,"Ġà¸Ĺà¸£":2218,"à¹Ģà¸¢à¸Ńà¸°à¸¡à¸²à¸ģ":2219,"Ġà¸Ħà¸§à¸²à¸¡à¸£":2220,"à¸²à¸¨à¸²à¸ªà¸ķà¸£":2221,"à¸£à¸²à¸¢à¸¥à¸°à¹Ģà¸Ń":2222,"à¸²à¸ģà¸§":2223,"à¹Ģà¸§à¸ĵ":2224,"à¸²à¸ªà¸Ļà¹ĥà¸Ī":2225,"à¸Ńà¸¢à¹Ħà¸Ķ":2226,"à¸Ļà¸Ł":2227,"Ġà¹Ģà¸¢":2228,"Ġà¹ģà¸¥à¸°à¸ģ":2229,"à¸¡à¸ľ":2230,"à¹ĥà¸Ļà¸Ľ":2231,"à¸Ńà¸ĩà¹Ģà¸Ĥ":2232,"à¸ģà¸©à¸ĵà¸°":2233,"à¸ĩà¹Ģà¸¥à¸¢":2234,"ice":2235,"à¸Ķà¹Ģà¸Ľ":2236,"à¸ĩà¹ģà¸¥à¸°":2237,"xx":2238,"à¸§à¸Ĭ":2239,"à¸§à¸¢à¸Ķ":2240,"à¸Īà¸Ńà¸Ķ":2241,"à¸Ńà¸ªà¸¡":2242,"Ġex":2243,"à¸²à¸Ļà¸²à¸Ī":2244,"13":2245,"Ġà¹Ĥà¸Ķ":2246,"à¸²à¸Ħà¸Ļ":2247,"à¸¡à¹Ģà¸Ľ":2248,"à¸§à¹Ģà¸¥":2249,"à¸«à¸²à¸§":2250,"à¸¢à¸ķ":2251,"Ġnot":2252,"à¸¢à¸Ńà¸¡à¸£":2253,"à¸Ļà¹Ģà¸Ħ":2254,"à¸Ńà¸¢à¸¡à¸²à¸ģ":2255,"à¸§à¸¢à¸Ĺ":2256,"à¸ĩà¹Ģà¸ª":2257,"à¸Ļà¹Ģà¸ĩ":2258,"Ġà¸Ńà¸¢à¸²à¸ģà¹Ħà¸Ķ":2259,"à¸Ļà¹Ħà¸£":2260,"à¸Ĥà¸Ńà¸ĩà¸Ħ":2261,"à¸ĸà¸Ļà¸Ļ":2262,"à¸ĩà¸£à¸ĸ":2263,"à¸ŀà¸§à¸ģà¸Ļ":2264,"à¸Ńà¸ĩà¸£à¸²à¸§":2265,"à¸ķà¸£à¹Ģà¸Ħà¸£à¸Ķ":2266,"à¸²à¸Ļà¸§":2267,"Ġà¹Ģà¸ľ":2268,"Ġà¸£à¸Ńà¸ļ":2269,"à¸µà¹Ĭ":2270,"à¸Ńà¸ĩà¸¥":2271,"à¸Ńà¸²à¸Īà¸Īà¸°":2272,"Ġà¹Ħà¸§":2273,"à¸¢à¸Ĭ":2274,"à¹ģà¸Łà¸Ĭ":2275,"Ġiphone":2276,"à¸ªà¸°à¸Ķà¸§à¸ģ":2277,"à¸Ķà¹ĥà¸Ī":2278,"à¸Ļà¸Ńà¸ģ":2279,"à¸ĩà¹Ħà¸§":2280,"à¸ļà¹Ģà¸ĩ":2281,"à¸Ńà¸ĭ":2282,"move":2283,"à¹ĥà¸Ħà¸£à¹Ģà¸Ħà¸¢":2284,"à¸ļà¹Ģà¸Ľ":2285,"à¸Ħà¸ļà¸ģ":2286,"à¸ľà¸¡à¸¡":2287,"à¸ļà¸«":2288,"à¹ģà¸Ńà¸£":2289,"à¸ģà¸²à¸£à¹Ģà¸¥":2290,"à¸Ńà¸ĩà¹Ħà¸Ķ":2291,"à¸ģà¸°":2292,"à¸Ńà¸Ļà¸Ń":2293,"ail":2294,"à¸īà¸²à¸ģ":2295,"à¸Īà¸ģ":2296,"à¸¡à¸²à¸ģà¸Ĥ":2297,"Ġà¸¯":2298,"à¸Ķà¸ŀ":2299,"Ġse":2300,"à¸²à¸«à¸¥à¸²à¸¢":2301,"à¸ĩà¸¡à¸²":2302,"à¹ĥà¸Ļà¸£":2303,"à¸¥à¸²à¸¢":2304,"à¸ļà¹ĥà¸Ħà¸£":2305,"Ġà¹ģà¸ļà¸ļà¸Ļ":2306,"à¹Ĥà¸£à¸ĩà¸ŀà¸¢à¸²à¸ļà¸²à¸¥":2307,"à¸¢à¸¢à¸¢à¸¢":2308,"à¹Ģà¸īà¸¢à¹Ĩ":2309,"à¸ģà¹Ģà¸¥à¸¢":2310,"17":2311,"Ġhd":2312,"à¸§à¸ĩà¸Ĺ":2313,"à¸²à¸ªà¸²à¸¡à¸²à¸£à¸ĸ":2314,"à¸ģà¹Ģà¸¥":2315,"à¸²à¹Ħà¸§":2316,"Ġà¸ŀà¸Ļ":2317,"à¸Ļà¸ķà¸²à¸¡":2318,"Ġà¸Ńà¸¢à¸²à¸ģà¸Ĺà¸£à¸²à¸ļà¸§":2319,"à¸Ļà¸ľà¸¥":2320,"à¸Ļà¸ķà¸Ńà¸Ļ":2321,"à¸ĺà¸£à¸£à¸¡à¸Ĭà¸²à¸ķ":2322,"Ġà¸£à¸²à¸Ħà¸²à¸Ľ":2323,"iv":2324,"500":2325,"à¸§à¸¢à¸ķ":2326,"à¸§à¸¢à¸Ļà¸°à¸Ħà¸£":2327,"à¸²à¸ĩà¹Ģà¸ģ":2328,"à¸¥à¸ĩà¹Ħà¸Ľ":2329,"à¹Ĩà¸Ĺ":2330,"à¸ģà¸Ĺà¸£":2331,"Ġà¸ªà¸°":2332,"à¸²à¸Ļà¸Ħà¸£":2333,"à¸²à¸Ľà¸£à¸°à¸ģ":2334,"Ġà¸Ńà¸ģ":2335,"à¸ªà¸Ĺ":2336,"Ġà¸Ħà¸¥":2337,"à¸Ħà¸Ļà¸£":2338,"à¸ªà¸Ļà¸²à¸¡à¸ļ":2339,"à¸ĩà¹Ģà¸ģà¸ķ":2340,"à¸²à¹ģà¸ļà¸ļà¸Ļ":2341,"à¸²à¸Ļà¸Ĥ":2342,"à¹ĥà¸Ļà¸ļ":2343,"à¸Ľà¸Ľ":2344,"Ġà¸Ńà¸¢à¸²à¸ģà¸£":2345,"à¸²à¸Ļà¸Ń":2346,"à¸¢à¸²à¸¢à¸²à¸¡":2347,"à¸Īà¸ģà¸£à¸£à¸¡":2348,"à¸¢à¸ģà¹Ģà¸¥":2349,"mobile":2350,"à¸ģà¸²à¸£à¸Ī":2351,"à¸ģà¹ģà¸¥à¸°":2352,"Ġà¹Ģà¸¥à¸¢à¸Ńà¸¢à¸²à¸ģ":2353,"à¸²à¸ķà¸¥à¸Ńà¸Ķ":2354,"à¸ģà¸©à¸ĵ":2355,"Ġ>>":2356,"à¸²à¸ĩà¸Īà¸²à¸ģ":2357,"per":2358,"à¸Ńà¸ĺ":2359,"à¸¢à¸«à¸²à¸¢":2360,"à¸Ķà¹Ģà¸¥":2361,"à¸§à¹Ģà¸Ĥ":2362,"line":2363,"à¸ĩà¸ľà¸¡":2364,"à¸¥à¸Ĺ":2365,"à¸ĩà¸Īà¸²à¸ģà¸Ĺ":2366,"à¸ĩà¹ģà¸¡":2367,"à¸¬à¸²":2368,"à¸²à¸¢à¹Ħà¸Ķ":2369,"à¸¡à¸²à¸ģà¸¡à¸²à¸¢":2370,"à¸Ńà¸¢à¸Ĺ":2371,"à¸ļà¹Ģà¸Ķ":2372,"à¸Ļà¹ĥà¸Ĭ":2373,"à¸ļà¸ĭ":2374,"Ġbl":2375,"à¸Ĺà¸Ĺ":2376,"à¸Īà¸°à¸ŀ":2377,"à¹Ħà¸«à¸Ļà¸ļ":2378,"à¸²à¸ļà¸£":2379,"à¸ķà¸£à¸§à¸Īà¸ªà¸Ńà¸ļ":2380,"à¸Ļà¸²à¸Ĺ":2381,"à¸²à¸¢à¸Ķ":2382,"à¸ªà¸¡à¸ļ":2383,"à¸Ńà¸£à¸ĸ":2384,"à¸£à¸ł":2385,"à¸ĩà¸Ńà¸Ńà¸ģ":2386,"à¸Ńà¸°à¹Ħà¸£à¸ļ":2387,"à¸ªà¸ĸà¸²à¸Ļà¸Ĺ":2388,"à¸Ńà¸¡à¸²à¸ģ":2389,"Ġ08":2390,"à¸ŀà¸£à¸£à¸Ħ":2391,"à¸ļà¹Ģà¸Ħ":2392,"à¹Ģà¸ĸà¸Ńà¸°":2393,"à¸Īà¸°à¸ĭ":2394,"Ġ***":2395,"à¸¢à¸§à¸Ĺ":2396,"à¸Ļà¹Ħà¸Ľà¹Ħà¸Ķ":2397,"Ġà¹Ħà¸Ń":2398,"à¸Ńà¸Ļà¸²à¸Ħà¸ķ":2399,"ond":2400,"à¸£à¸²à¸¡":2401,"à¸¥à¸¡":2402,"Ġà¹Ģà¸£à¸²à¸¡":2403,".)":2404,"Ġun":2405,"Ġà¸£à¸²à¸Ħà¸²à¸Ľà¸ģ":2406,"Ġà¸Ńà¸¢à¸²à¸ģà¹ĥà¸«":2407,"à¸ģà¸²à¸£à¸Ħ":2408,"Ġ&":2409,"à¸²à¹ģà¸¡":2410,"à¸ļà¹Ģà¸¥":2411,"à¸Ħà¸£à¸ļ":2412,"à¸ķà¸£à¸ĩà¸Ļ":2413,"Ġà¹Ģ":2414,"à¸Ĩà¸©à¸ĵ":2415,"à¸²à¸§à¸ģ":2416,"à¸Ńà¸ģà¸Ĺ":2417,"Ġ>":2418,"à¸²à¸Īà¸°à¸Ĺ":2419,"aw":2420,"Ġup":2421,"Ġ250":2422,"à¸ļà¸Ĥà¸Ńà¸ĩ":2423,"à¸Ńà¸ģà¹Ħà¸¡":2424,"est":2425,"à¸Ķà¹Ģà¸Ĺ":2426,"à¸²à¸ĩà¹Ħà¸¡":2427,"à¹Ħà¸Ľà¸ª":2428,"à¸¢à¸§à¸Ļ":2429,"à¸¢à¸ļà¸ģ":2430,"à¸¡à¸łà¸²à¸©":2431,"à¸ĩà¹Ģà¸Ń":2432,"à¹Ĥà¸łà¸Ħ":2433,"à¸²à¸Ľà¸£à¸°à¸¡à¸²à¸ĵ":2434,"à¸Ħà¸§à¸²à¸¡à¹Ģà¸Ľ":2435,"à¸Ńà¹Ģà¸Ļ":2436,"à¸¢à¸ĩà¸Ķ":2437,"Ġà¸¡à¸²":2438,"à¸§à¹Ĥà¸¡à¸ĩ":2439,"à¸²à¸ĩà¹Ģà¸Ľ":2440,"à¹Ĥà¸Ĭà¸§":2441,"av":2442,"à¹Ħà¸«à¸Ļà¸Ĺ":2443,"ork":2444,"à¸Ļà¸Ļà¸°":2445,"à¸ģà¹Ģà¸Ľ":2446,"ex":2447,"à¸ļà¹ģà¸¡":2448,"à¸Ļà¹ģà¸Ļ":2449,"à¸Ħà¸ĵà¸°":2450,"ai":2451,"à¸Īà¸°à¹Ģà¸¥":2452,"à¸¢à¸Ļà¹Ħà¸Ľ":2453,"Ġà¸łà¸²à¸ŀ":2454,"à¸Ńà¸ĩà¸Ńà¸¢":2455,"à¹Ĥà¸«":2456,"à¸¡à¸²à¸ģà¸Ĺ":2457,"à¸¡à¹Ħà¸¡":2458,"à¸¡à¸²à¹Ģà¸¥":2459,"----------------------------------------------------------------":2460,"à¸Ńà¹Ħ":2461,"à¸Ļà¸«à¸¡":2462,"à¸²à¹ģà¸ŀ":2463,"à¹Ģà¸ŀà¸¨":2464,"à¸²à¸§à¸§":2465,"à¸ªà¸§à¸Ļ":2466,"à¸Ĭà¸Ĭ":2467,"à¸§à¹Ħà¸Ķ":2468,"à¹Ģà¸Ńà¸²à¹Ħà¸§":2469,"ts":2470,"à¸Ļà¸¨":2471,"à¸²à¸Ńà¸²à¸ĩ":2472,"à¹Ħà¸Ľà¸ķ":2473,"à¸²à¸Ńà¸²à¸Ī":2474,"Ġon":2475,"à¸¥à¸¢":2476,"Ġ300":2477,"à¸ģà¸ģà¸§":2478,"Ġdtac":2479,"à¸¥à¸¯":2480,"à¸ĩà¸«à¸¥à¸²à¸¢":2481,"à¸ģà¸²à¸£à¸£":2482,"à¹Ģà¸£à¸²à¸§":2483,"à¸ļà¸Ľà¸£":2484,"à¸£à¸°à¸§":2485,"à¸Ħà¸Ļà¸«à¸Ļ":2486,"à¸²à¸Īà¸°à¹Ħà¸Ķ":2487,"à¸Ķà¸ŀà¸¥à¸²à¸Ķ":2488,"à¸§à¸Ļà¸Ĺ":2489,"19":2490,"à¸¡à¸²à¸Ħ":2491,"),\"":2492,"à¸ªà¸Ńà¸£":2493,"ight":2494,"à¹Ģà¸§à¸Ĺ":2495,"ity":2496,"à¸Ńà¸¡à¸Ĺ":2497,"à¸²à¸Ļà¹Ħà¸¡":2498,"Ġâ":2499,"à¸§à¸¢à¸§":2500,"à¸Ńà¸Ńà¸ģà¸ģ":2501,"sh":2502,"Ġà¹ģà¸¥à¸°à¸ķ":2503,"Ġà¹Ģà¸ŀà¸£à¸²à¸°à¸¡":2504,"à¸ŀà¸£à¸°à¹Ģà¸Ńà¸ģ":2505,"Ġà¹Ģà¸§à¸¥à¸²":2506,"à¸ĩà¹ĥà¸Ĭ":2507,"à¸²à¸ļà¸²à¸ģ":2508,"lo":2509,"à¸¡à¹Ģà¸ĩ":2510,"à¸§à¸¥à¸°à¸Ħà¸£":2511,"à¸Ķà¸Ħà¸£":2512,"à¸Ļà¹Ħà¸§":2513,"à¸ģà¸Ķà¸Ļà¸ķà¸£":2514,"à¸ĩà¸«à¸¥":2515,"à¹Ĥà¸£à¸ĩà¹ģà¸£à¸¡":2516,"à¸ģà¸«à¸¥":2517,"Ġà¸¥à¸ĩ":2518,"à¹Ĥà¸Ĺà¸£à¹Ħà¸Ľ":2519,"à¸ģà¸£à¸°à¸ļ":2520,"à¸§à¸«":2521,"à¸²à¸Ļà¸ļà¸²à¸Ĺ":2522,"à¸Īà¸°à¹ĥà¸«":2523,"70":2524,"à¸²à¹ģà¸Ħ":2525,"à¸Ļà¹Ģà¸¢à¸Ńà¸°":2526,"à¸¡à¸łà¸²à¸©à¸ĵ":2527,"Ġà¹Ĥà¸Ľà¸£":2528,"Ġà¸ķà¸Ńà¸Ļà¸Ĺ":2529,")\"":2530,"à¸Ńà¸²à¸£à¸¡à¸ĵ":2531,"à¸Ńà¹Ģà¸Ħ":2532,"à¸ļà¸Ħà¸Ļà¸Ĺ":2533,"à¸£à¸²à¸¢à¹Ħà¸Ķ":2534,"à¸Ĥà¸łà¸²à¸ŀà¸ģà¸²à¸¢":2535,"à¸įà¸įà¸²":2536,"à¸¢à¸²à¸ģà¸²à¸¨":2537,"à¸¡à¸¥":2538,"ly":2539,"à¸Ķà¸Ļà¸ķà¸£":2540,"à¸Ļà¹ģà¸¡":2541,"Ġà¹Ģà¸Ľà¸¥":2542,"100":2543,"roid":2544,"Ġà¸ģà¸£à¸°à¸Ĺ":2545,"à¸ŀà¸Ńà¸¡":2546,"Ġ23":2547,"à¸Ľà¸£à¸°à¹Ģà¸Ķ":2548,"à¸Īà¸°à¸Ħ":2549,"à¹Ģà¸¥à¸¢à¸Ĺ":2550,"of":2551,"Ġ'":2552,"à¸¡à¸Ńà¹Ģà¸ķà¸Ńà¸£":2553,"à¸£à¸²à¸°à¸«":2554,"à¸Ńà¸²à¸Ķ":2555,"à¸ĩà¹ģ":2556,"à¸ģà¹Ģà¸ª":2557,"à¸²à¸¢à¸¡":2558,"à¸ļà¹ģà¸¥":2559,"à¸¡à¸Ī":2560,"à¹Ģà¸łà¸Ĺ":2561,"à¸Ķà¸Ĭà¸Ńà¸ļ":2562,"à¹Ģà¸¨à¸£à¸©à¸Ĳà¸ģ":2563,"à¸§à¹ĥà¸«":2564,"à¸¥à¸Ħ":2565,"à¸Ńà¸ĩà¸Ĥà¸Ń":2566,"à¸Ĥà¸Ńà¸ĩà¹Ģà¸£à¸²":2567,"à¸¢à¸ĩà¸ģ":2568,"à¸¤à¸Ķ":2569,"à¸²à¸ĩà¸²à¸Ļà¸Ĺ":2570,"ong":2571,"à¸ªà¸¡à¸²à¸Ĭ":2572,"à¸Ĭà¸§à¸Ļ":2573,"à¸ŀà¸£à¸°à¸£à¸²à¸Ĭ":2574,"à¸²à¸Ľà¸¥":2575,"age":2576,"Ġà¹ģà¸Ī":2577,"à¸§à¸Īà¸£":2578,"à¹Ģà¸ģà¸©":2579,"à¹Ħà¸Ľà¸§":2580,"à¸¡à¸²à¹Ħà¸Ķ":2581,"à¸ĸà¸²à¸Ļà¸Ĺ":2582,"à¸Ńà¸¢à¸Ļ":2583,"à¸²à¸ªà¸¡":2584,"à¹Ģà¸ģà¸¡à¸ª":2585,"à¸ĩà¸ģà¸£":2586,"Ġ40":2587,"à¸Ĺà¸¢à¸²à¸¨à¸²à¸ªà¸ķà¸£":2588,"Ġus":2589,"ĠâĢĵ":2590,"à¸ŀà¸ļ":2591,"à¹Ģà¸Ħà¸£à¸²à¸°à¸«":2592,"à¸ĩà¸ľà¸¥":2593,"à¸ĩà¹Ģà¸Ĺ":2594,"à¸ļà¹ĥà¸Ī":2595,"à¹Ħà¸Ľà¸ĸ":2596,"à¹Ĥà¸Ķà¸¢à¹Ħà¸¡":2597,"Ġ22":2598,"Ġà¸Ńà¸²à¸Ĺ":2599,"à¸Ńà¸ĩà¸ģà¸¥":2600,"te":2601,"à¹Ģà¸¥à¸¢à¹Ħà¸¡":2602,"à¸Ĭà¸²à¸§à¸ļ":2603,"à¸°à¸ķ":2604,"à¸²à¸Ļà¹Ħà¸Ķ":2605,"à¹Ģà¸«à¸ĩ":2606,"Ġ@":2607,"'s":2608,"à¸ĩà¹Ħà¸¡à¸Ħ":2609,"à¸ľà¸¡à¸Ĺ":2610,"à¹ĥà¸Ļà¸Ń":2611,"à¸²à¹ģà¸ģ":2612,"à¸Ľà¸¥à¸Ńà¸Ķ":2613,"à¸Īà¸°à¹Ģà¸£":2614,"à¸ĩà¸Ħà¸£à¸²à¸¡":2615,"à¸²à¸Ļà¸¥":2616,"à¸¢à¸§à¹Ħà¸Ĺà¸¢":2617,"à¹Ģà¸Ľà¸£":2618,"ive":2619,"****************":2620,"Ġà¹Ĥà¸Ķà¸¢à¹Ģà¸īà¸ŀà¸²à¸°":2621,"à¸ªà¸²à¸Ĥ":2622,"à¸Ļà¸Ŀ":2623,"kin":2624,"à¸Īà¸°à¹Ģà¸Ĥ":2625,"à¸²à¹Ģà¸«à¸¡":2626,"à¸Ńà¸ĩà¸Ħà¸Ļ":2627,"Ġà¸Ħà¸°":2628,"à¸²à¹ĥà¸Īà¸§":2629,"Ġà¸¯à¸¥à¸¯":2630,"à¸Ńà¸ļà¸Ĺ":2631,"à¸ķà¸ļ":2632,"à¸²à¸Ļà¸«à¸¥":2633,"à¸¡à¸²à¸§":2634,"Ġal":2635,"à¸Ńà¸°à¸Ħ":2636,"à¸Ńà¸ĩà¸Ľ":2637,"à¸ĩà¸ģà¸²à¸¢":2638,"Ġà¸Ļà¸²à¸ĩ":2639,"à¸ģà¹Ģà¸ķ":2640,"à¸ļà¸¢":2641,"à¸§à¹Ģà¸Ķ":2642,"ct":2643,"à¸ķà¸ł":2644,"ib":2645,"à¸¡à¸°":2646,"à¸²à¸§à¸Ĺ":2647,"à¸Ńà¹Ģà¸Ĺ":2648,"à¸ĩà¹Ģà¸¡":2649,"à¸łà¸²à¸©à¸²":2650,"à¸Īà¸²à¸ģà¸Ĺ":2651,"Ġà¸ģà¸£à¸°à¹Ģà¸Ľ":2652,"à¸Īà¸°à¸ª":2653,"out":2654,"à¸¢à¸Ī":2655,"truemove":2656,"à¸Ńà¸Ļà¹Ģà¸£":2657,"à¸ģà¸£à¸°à¸Ī":2658,"à¸Ħà¸°à¹ģà¸Ļà¸Ļ":2659,"Ġà¹ĥà¸ļ":2660,"à¸Ļà¸²":2661,"uk":2662,"à¸Ļà¹Ģà¸Ĺà¸Ńà¸£":2663,"à¸Ńà¸ªà¸£":2664,"à¸§à¹Ģà¸¡":2665,"à¹Ģà¸Ńà¹Ģà¸Ĭ":2666,"à¸²à¸Ńà¸²à¸«à¸²à¸£":2667,"à¹Ĥà¸Ľà¸£à¹Ĥà¸¡":2668,"à¸²à¸ĩà¸ģà¸²à¸¢":2669,"à¸¤à¸ķ":2670,"à¸§à¸ĩà¸¨":2671,"Ġà¹ģà¸¥à¸°à¹Ħà¸¡":2672,"à¹Ģà¸«à¸£":2673,"Ġà¹Ģà¸£à¸²à¸Ħ":2674,"à¸Ħà¹Ĥà¸Ļ":2675,"à¸Ńà¸ĩà¹Ĩ":2676,"à¸Ķà¹Ģà¸Ĭ":2677,"à¸ªà¹Ĥà¸¡à¸ªà¸£":2678,"à¸§à¸Ĥà¸Ńà¸ĩ":2679,"à¸Ĭà¸²":2680,"Ġà¸Ľà¸£à¸°à¹Ģà¸Ĺà¸¨":2681,"net":2682,"à¸Ļà¹ģà¸£à¸ģ":2683,"à¸Ńà¸ĩà¹Ģà¸ģ":2684,"à¸ģà¸²à¸£à¸Ķ":2685,"à¸ļà¹ģà¸ķ":2686,"Ġà¸ªà¸Ļà¹ĥà¸Ī":2687,"à¸Ńà¹ģà¸¥":2688,"à¸¸à¹Į":2689,"az":2690,"ord":2691,"à¸¢à¸Ńà¸¢":2692,"à¸µ)":2693,"Ġà¸ľà¸¡à¹Ģà¸¥à¸¢":2694,"à¸Ńà¹Ģà¸£à¸²":2695,"Ġlo":2696,"à¸°à¸Ħà¸°":2697,"à¸Ļà¸Ļà¸°à¸Ħà¸°":2698,"à¸Ńà¸¡à¸£":2699,"à¸¢à¸Ļà¸£":2700,"à¸²à¸Ļà¸ª":2701,"à¹Ĥà¸Ľ":2702,"à¸Ľà¹ģà¸ļà¸ļ":2703,"à¸²à¸Īà¸°à¹Ħà¸¡":2704,"ain":2705,"à¸ķà¸²à¸¡à¸Ĺ":2706,"++++++++++++++++":2707,"Ġà¹ģà¸¥à¸°à¸ª":2708,"ress":2709,"Ġà¸ļà¸Ńà¸ģà¸§":2710,"à¸Ľà¸£à¸°à¸Ĺ":2711,"indow":2712,"à¹Ĥà¸¥à¸¢":2713,"à¸²à¸ŀà¸£à¸°":2714,"à¸¥à¸°à¸ģ":2715,"à¸²à¸Īà¸°à¸ķ":2716,"antip":2717,"à¹ģà¸ĸà¸§":2718,"à¹Ĥà¸Ľà¸£à¹ģà¸ģà¸£à¸¡":2719,"à¸Ħà¸§à¸ļà¸Ħ":2720,"à¸ĩà¹Ħà¸ĩà¸ļ":2721,"à¸Ńà¸ªà¸¡à¸Ħà¸§à¸£":2722,"Ġà¹Ģà¸£à¸²à¸ķ":2723,"à¸²à¸ķà¸²à¸¥":2724,"Ġà¹Ģà¸£à¸²à¸£":2725,"à¸ģà¸²à¸£à¸ģ":2726,"à¸ģà¸²à¸£à¸ŀ":2727,"à¸Ńà¹Ĩ":2728,"à¸Ħà¹Ĥà¸Ļà¹Ĥà¸¥à¸¢":2729,"à¸ļà¹Ĩ":2730,"à¸Ħà¹Ģà¸ģ":2731,"à¸«à¸²à¹Ģà¸ŀ":2732,"à¸Īà¸°à¸ĸ":2733,"à¸Ńà¸Ńà¸ģà¹ģà¸ļà¸ļ":2734,"à¸Ńà¸°à¹Ħà¸£à¸Ĺ":2735,"ifi":2736,"Ġ60":2737,"à¸ļà¸£à¸Ļà¸Ķ":2738,"samsung":2739,"à¸Ĥà¸Ńà¹ĥà¸«":2740,"Ġ26":2741,"à¸Ľà¸¥à¸Ńà¸Ķà¸ł":2742,"ash":2743,"dtac":2744,"à¸ģà¸²à¸£à¹Ģà¸ĩ":2745,"à¸ĩà¹ģà¸£":2746,"Ġsmart":2747,"à¸ľà¸ªà¸¡":2748,"à¸Ļà¸«à¸¡à¸Ķ":2749,"hot":2750,"à¸ĩà¸§à¸¥":2751,"se":2752,"à¸ļà¸ģà¸¥":2753,"à¹Ģà¸Īà¸£":2754,"à¸²à¹Ħà¸Ľà¸Ķ":2755,"à¹ĥà¸Ķà¹Ĩ":2756,"à¸§à¸¢à¹ĥà¸«":2757,"Ġà¸ªà¸²à¸¢":2758,"à¸ģà¸¨":2759,"ie":2760,"à¹Ħà¸Ľà¸«":2761,")\",":2762,"à¸¨à¸§":2763,"à¸ķà¸ĸ":2764,"à¸²à¸Ĥà¸²à¸¢":2765,"à¹ģà¸ķà¸ģà¸ķ":2766,"à¸²à¹Ģà¸ł":2767,"à¹ģà¸¥à¸Ļà¸Ķ":2768,"24":2769,"à¸Ńà¸¢à¸ª":2770,"à¸¡à¸Īà¸²à¸ģ":2771,"ms":2772,"Ġfacebook":2773,"Ġà¸ªà¸łà¸²à¸ŀ":2774,"Ġgal":2775,"à¹ģà¸§":2776,"Ġà¸Īà¸°à¹Ģà¸Ľ":2777,"200":2778,"à¸²à¸Ļà¹Ĩ":2779,"à¸Ńà¸Ļà¹Ģà¸Ľ":2780,"à¸ĵà¸ŀ":2781,"à¸ģà¹ĥà¸Ļ":2782,"à¸Ķà¸Ħà¸§à¸²à¸¡":2783,"à¸Ńà¸Ļà¸ļ":2784,"à¸²à¹Ħà¸¡à¹Ħà¸¡":2785,"Ġad":2786,"à¸Ńà¸¢à¸ģà¸§":2787,"à¹Ģà¸£à¸²à¸¢":2788,"à¸Ńà¸Ļà¸ŀ":2789,"Ġà¸¢à¸ģ":2790,"à¸²à¸ĩà¸Ĭ":2791,"à¸Ńà¹ĥà¸Ħà¸£":2792,"à¸²à¹ĥà¸«à¸¡":2793,"à¸Ńà¸¢à¹ĥà¸«":2794,"à¸ģà¸£à¸°à¸Ķ":2795,"à¸Ńà¹ĥà¸Ļ":2796,"ud":2797,"à¹Ģà¸Ĥà¸²à¹Ħà¸¡":2798,"à¹ģà¸Łà¸Ļà¹Ģà¸ģ":2799,"à¸Īà¸°à¹ĥà¸Ĭ":2800,"ial":2801,"app":2802,"à¹Ĥà¸Ł":2803,"à¸§à¹Ģà¸Ħ":2804,"Ġas":2805,"Ġà¸Īà¸°à¸Ĺ":2806,"à¸²à¸Ļà¸°à¸Ħà¸°":2807,"à¸§à¸¢à¸Ļ":2808,"à¸Ħà¸§à¸£à¸Ĺ":2809,"à¸§à¹Ģà¸£à¸²à¸ģ":2810,"Ġà¹Ĥà¸¡":2811,"bo":2812,"Ġà¹ģà¸Łà¸Ļ":2813,"à¸«à¸¡à¸²à¸¢à¹Ģà¸¥à¸Ĥ":2814,"à¸Ńà¸¡à¸ķ":2815,"Ġà¸ķà¸Ńà¸Ļà¹ģà¸£à¸ģ":2816,"Ġcon":2817,"à¸¢à¸§à¸Ĥ":2818,"Ġbe":2819,"Ġà¸ªà¸ĩà¸ª":2820,"enter":2821,"axy":2822,"à¹Ĩà¸Ļ":2823,"Ġis":2824,"à¸²à¸¢à¹Ģà¸ĩ":2825,"Ġcom":2826,"pack":2827,"à¸²à¸Ļà¸£":2828,"Ġsc":2829,"Ġair":2830,"à¹Ħà¸ĭà¸ķ":2831,"Ġà¹ĥà¸Ī":2832,"Ġà¹ģà¸ĸà¸¡":2833,"Ġà¸ŀà¸¥":2834,"à¸ľà¸¡à¸ķ":2835,"à¸ģà¸£à¸ĺ":2836,"à¸£à¸°à¸ļà¸²à¸¢":2837,"à¸ľà¸¡à¹Ħà¸Ķ":2838,"à¹Ħà¸Ľà¸Ń":2839,"Ġ500":2840,"ark":2841,"Ġà¸Ĭà¸¡":2842,"à¸§à¸¢à¸ģà¸²à¸£":2843,"à¸Ħà¸ĩà¹Ħà¸¡":2844,"à¸ĩà¸¨":2845,"Ġà¹ģà¸«":2846,"Ġà¸Īà¸Ļ":2847,"à¹ģà¸ļà¸ķ":2848,"à¹Ģà¸Ħà¸¢à¸Ĺ":2849,"à¸¢à¸Ļà¸ģ":2850,"à¸²à¸Ļà¸ŀ":2851,"Ġ150":2852,"34":2853,"à¸Ńà¸ĩà¸«à¸¥":2854,"Ġà¹Ģà¸®":2855,"à¹Ģà¸Īà¸Ńà¸£":2856,"à¸Ĭà¸¡à¸ŀ":2857,"Ġno":2858,"à¸Ķà¸²à¸§":2859,"à¸²à¸ĩà¸¡à¸²à¸ģ":2860,"à¸ľà¸¡à¹Ģà¸Ľ":2861,"Ġ27":2862,"à¸Ĭà¸Ļà¸°":2863,"the":2864,"à¸²à¹ĥà¸ª":2865,"à¸²à¸ĩà¸Ĥ":2866,"à¸Ħà¸Ļà¸ģ":2867,"à¸Ńà¸¢à¸Ļà¸°à¸Ħà¸£":2868,"Ġà¹ģà¸ŀ":2869,"à¸²à¹Ģà¸Ħà¸£":2870,"à¸Ħà¸Ļà¸Ķ":2871,"à¸įà¸«à¸²à¸ª":2872,"à¸ļà¹Ħà¸§":2873,"à¹Ĥà¸Ĩà¸©à¸ĵ":2874,"Ġà¸Ĥà¸Ńà¸Ħ":2875,"à¹Ħà¸ģ":2876,"à¸ľà¸¡à¸§":2877,"à¹Ģà¸£à¸²à¹Ģà¸¥à¸¢":2878,"à¸Ļà¸«à¸¢":2879,"à¸¡à¸Ļà¸ķà¸£":2880,"à¹ģà¸Ķà¸Ļ":2881,"back":2882,"à¸¢à¸Ļà¹Ģà¸Ľ":2883,"ink":2884,"Ġ28":2885,"à¸²à¸ŀà¸§à¸ģ":2886,"à¹ģà¸Ļà¸°":2887,"à¸Ńà¸¢à¸²à¸ģà¸Ĺ":2888,"????":2889,"Ġ---":2890,"ess":2891,"à¸Ľà¸ķ":2892,"35":2893,"à¸Ľà¸£à¸°à¸¡à¸²à¸ĵà¸Ļ":2894,"à¸Ńà¸ĩà¸Ħà¸£":2895,"à¸Ħà¸²à¸Ķ":2896,"ill":2897,"à¹Ģà¹Ģà¸ļ":2898,"à¸Ńà¸Ļà¸ľ":2899,"à¸²à¹Ħà¸Ľà¸Ĺ":2900,"à¸²à¹Ģà¸ķ":2901,"à¸£à¸Ķ":2902,"Ġà¹ģà¸¥à¸°à¸Ń":2903,"à¹ģà¸¡à¸§":2904,"à¸¡à¸²à¸ķà¸£":2905,"................................":2906,"à¸ŀà¹Ģà¸Ķ":2907,"à¸Ĭà¸¢":2908,"à¹Ģà¸¡à¸ķà¸£":2909,"à¸Īà¸°à¸¢":2910,"Ġgalaxy":2911,"à¸«à¸¡à¸²à¸¢à¸ĸ":2912,"à¸ļà¸Ńà¸¢":2913,"Ġà¹Ģà¸ŀà¸£à¸²à¸°à¸§":2914,"Ġà¸ªà¸Ńà¸ļ":2915,"à¸Ĥà¸Ńà¸ļ":2916,"à¹ģà¸ļà¸ļà¹Ħà¸¡":2917,"à¸¡à¹ĥà¸«":2918,"co":2919,"ee":2920,"Ġco":2921,"à¸ŀà¸Ńà¹ĥà¸Ī":2922,"à¸Ĥà¸Ńà¹Ĥà¸Ĺà¸©":2923,"à¸ģà¸Ŀ":2924,"à¹Ģà¸£à¸²à¸ª":2925,"à¸²à¸Ħà¸£à¸Ńà¸ļà¸Ħà¸£":2926,"à¸²à¸ķà¸Ńà¸Ļà¸Ļ":2927,"Ġà¸«à¸¥à¸²à¸¢":2928,"à¸¡à¸ĭ":2929,"à¸Ĳà¸²à¸Ļà¸°":2930,"Ġà¹Ĥà¸Ķà¸¢à¸Ĺ":2931,"Ġ55":2932,"28":2933,".-":2934,"à¸²à¹Ģà¸ļ":2935,"à¸§à¸¢à¸ļà¸Ńà¸ģ":2936,"à¹Ģà¸ªà¸¡à¸Ń":2937,"à¸²à¸ĩà¸¥":2938,"à¹ģà¸Ńà¸Ķ":2939,"à¸²à¸ĩà¹Ħà¸£à¸ģ":2940,"à¸īà¸ļ":2941,"à¸ļà¹ĥà¸«":2942,"gle":2943,"à¸Ĺà¸«à¸²à¸£":2944,"à¹Ģà¸¥à¸Ļà¸ª":2945,"à¸ģà¹Ģà¸Ĺ":2946,"à¸¢à¸į":2947,"à¸Ńà¸ĩà¸Ĺà¸²à¸ĩ":2948,"Ġà¹Ģà¸ŀà¸¥à¸ĩ":2949,"à¸Ńà¹Ģà¸¥à¸¢":2950,"à¹Ĥà¸«à¸¥à¸Ķ":2951,"à¸Ńà¹Ģà¸Ħà¸£":2952,"36":2953,"à¸ģà¸Ĳà¸²à¸Ļ":2954,"à¸Ńà¸Ļà¹Ħà¸Ķ":2955,"à¸§à¸ľ":2956,"Ġday":2957,"à¸§à¸Ļà¸¡à¸²à¸ģ":2958,"45":2959,"à¹Ħà¸Ľà¹Ģà¸¥à¸¢":2960,"Ġà¸ŀà¸Ńà¸¡":2961,"à¸¥à¸²":2962,"Ġmo":2963,"à¸¡à¸«à¸Ļ":2964,"à¸ľà¸¡à¸Ħ":2965,"Ġà¹Ģà¸«à¸ķ":2966,"48":2967,"ator":2968,"qu":2969,"à¸ĩà¸Ĭà¸²à¸ķ":2970,"à¸¡à¸«à¸²à¸¥":2971,"à¸ªà¸«à¸£":2972,"à¸Ńà¸Ńà¸Ļà¹Ħà¸¥à¸Ļ":2973,"à¸ģà¸Īà¸°":2974,"à¹ģà¸Łà¸Ļà¸ģ":2975,"à¸²à¸§à¸Ķ":2976,"gb":2977,"à¸²à¸ĩà¹Ħà¸£à¸ļ":2978,"Ġà¸Ńà¸²à¸«à¸²à¸£":2979,"à¸²à¸ī":2980,"à¸ģà¸²à¸£à¸¥à¸ĩà¸Ĺ":2981,"Ġà¸ģà¸²à¸£à¹Ģà¸¡":2982,"à¸¡à¸Ĭà¸²à¸ķ":2983,"à¸Ńà¸ĩà¹ģà¸¥":2984,"à¸¢à¸Ń":2985,"à¸²à¹Ģà¸ĭ":2986,"Ġà¸¡à¸²à¸£":2987,"à¸Ńà¸¢à¸²à¸ģà¸Ĺà¸£à¸²à¸ļ":2988,"à¸ĺà¸£à¸£à¸¡à¸Ķà¸²":2989,"à¸ªà¸ĸ":2990,"à¸ķà¸£à¸ĩà¹Ħà¸«à¸Ļ":2991,"à¸ļà¸Ńà¸ģà¹ĥà¸«":2992,"à¸£à¸°à¹Ģà¸Ľ":2993,"à¸Ļà¸Ĳà¸²à¸Ļ":2994,"à¹Ħà¸Ľà¸ĭ":2995,"à¸Ķà¸ĭ":2996,"oogle":2997,"Ġà¸£à¸§à¸¡à¸ĸ":2998,"à¸ģà¸²à¸£à¹Ģà¸Ķ":2999,"à¸Ńà¹ĥà¸Ĭ":3000,"à¹ģà¸ªà¸Ļ":3001,"à¸ģà¸¥à¸²à¸ĩà¸Ħ":3002,"à¸Ľà¸£à¸°à¸Ĭà¸²à¸ĺ":3003,"à¸ķà¸£à¸ĩà¸ģ":3004,"à¸¥à¸°à¸Ħà¸£à¹Ĥà¸Ĺà¸£à¸Ĺ":3005,"à¸Ńà¸²à¸¨":3006,"à¸°à¸¡":3007,"Ġnote":3008,"Ġpass":3009,"Ġà¹Ģà¸ļà¸Ńà¸£":3010,"à¸ĩà¹Ħà¸ĩà¸Ħà¸£":3011,"à¹ĥà¸Ļà¸ŀ":3012,"à¸²à¸ĩà¸Ĭà¸²à¸ķ":3013,"à¸°à¹Ģà¸¥à¸²à¸°à¸ģ":3014,"à¸Ńà¸Ļà¸Ńà¸¢":3015,"à¸²à¸ļà¸Ļ":3016,"Ġà¸ģà¸Ĺà¸¡":3017,"à¸ĩà¹Ģà¸Ĭ":3018,"Ġ32":3019,"me":3020,"à¸ĵà¸«à¸¡":3021,"à¹ī,":3022,"à¸Ļà¸ĩ":3023,"à¸ªà¸²à¸¢à¸ģà¸²à¸£à¸ļ":3024,"à¸ļà¸Īà¸²à¸ģ":3025,"à¹ģà¸§à¸°":3026,"à¸§à¸Ļà¸Ļ":3027,"à¸Ļà¸Ħà¸°":3028,"à¸Ħà¸Ń":3029,"à¸ŀà¸²à¸Ļ":3030,"à¸¢à¸Ļà¹ģà¸Ľà¸¥à¸ĩ":3031,"à¸ĩà¹Ĥ":3032,"à¸§à¸Ļà¸°":3033,"ure":3034,"à¸ľà¸¡à¸£":3035,"Ġà¸ľà¸¡à¸§":3036,"à¹Ħà¸Ľà¸Ħ":3037,"ist":3038,"à¹Ģà¸«à¸¢":3039,"à¹ģà¸Łà¸Ļà¸Ħà¸¥":3040,"Ġà¹Ģà¸£à¸²à¸Ńà¸¢à¸²à¸ģ":3041,"à¸Ħà¸§à¸²à¸¡à¸Ĭ":3042,"à¸ŀà¸£à¸°à¸Ħ":3043,"à¸Ķà¹Ģà¸¥à¸¢":3044,"à¸§à¸¢à¸«à¸Ļ":3045,"à¸Ńà¹Ħà¸«à¸£":3046,"Ġip":3047,"Ġà¹Ĥà¸Ķà¸¢à¸¡":3048,"à¸§à¸¢à¸ĭ":3049,"indows":3050,"à¸§à¸ģà¸¥":3051,"Ġfor":3052,"22":3053,"à¹Ģà¸Ĥà¸²à¸¡":3054,"af":3055,"à¸ĵà¸°à¸Ļ":3056,"à¸ķà¸ļà¸Ńà¸¥à¹Ħà¸Ĺà¸¢":3057,"à¸£à¸ŀ":3058,"end":3059,"à¹Ģà¸«à¸¡à¸²à¸°à¸ªà¸¡":3060,"à¸Ńà¹ģà¸ļà¸ļ":3061,"à¹ģà¸¥à¸°à¸Ĺ":3062,"à¸ķà¸ģà¸¥":3063,"à¸Ńà¸ķà¸Ńà¸Ļà¸Ļ":3064,"à¸ŀà¸Ńà¸Īà¸°":3065,"à¸Ľà¸§à¸Ķ":3066,"à¸Ńà¸¥à¸¥":3067,"Ġà¸ķà¸¥à¸Ńà¸Ķ":3068,"à¸²à¸Ļà¸Ńà¸¢":3069,"à¸Ľà¸ģà¸Ħà¸£":3070,"Ġde":3071,"ank":3072,"à¸²à¸¢à¸§":3073,"à¸²à¸ĩà¸¢":3074,"Ġà¸ģà¸²à¸£à¸Ĺ":3075,"à¸Ľà¸ģ":3076,"à¸ģà¸«à¸£":3077,"à¸¡à¹ģà¸¥":3078,"à¸Ľà¸£à¸°à¸¡":3079,"à¸ĩà¹Ģà¸Ħ":3080,"à¸Ħà¸Ļà¸ķ":3081,"à¸²à¸«à¸²à¸ģ":3082,"à¸Ĺà¸£à¸§à¸ĩ":3083,"Ġà¹ģà¸¥à¸°à¸¢":3084,"à¸¡à¸²à¸¥":3085,"à¸ľà¸¥à¸ĩà¸²à¸Ļ":3086,"Ġcare":3087,"à¸Ļà¹ģà¸«à¸¥à¸°":3088,"à¸¡à¸Ĥà¸Ńà¸ĩ":3089,"Ġà¹ģà¸¥à¸°à¸Ļ":3090,"à¹Ģà¸īà¸¥":3091,"à¹Ħà¸Ľà¸¢":3092,"à¸Ńà¸ĩà¹Ģà¸Ħ":3093,"à¸ķà¸Ĥà¸Ńà¸ĩ":3094,"à¸¢à¸Ļà¸Ńà¸¢":3095,"sp":3096,"Ġà¹ĥà¸Ħà¸£à¸¡":3097,"à¸²à¸Ħà¸¥":3098,"io":3099,"à¸Ļà¸ĩà¸²à¸Ļ":3100,"à¸²à¸ĩà¹ĥà¸Ļ":3101,"Ġà¹Ħà¸Ĺà¸¢":3102,"à¸Ńà¸Ļà¸Ĥà¸Ńà¸ĩ":3103,"à¹Ģà¸£à¸²à¸Ńà¸¢":3104,"à¸Īà¸ī":3105,"à¹ī)":3106,"Ġà¸Īà¸°à¸ķ":3107,"à¸¢à¸¥":3108,"à¸Ńà¸°à¹Ħà¸£à¹Ģà¸¥à¸¢":3109,"à¸Ńà¸ĩà¹Ħà¸Ĺà¸¢":3110,"Ġ****":3111,"à¸²à¸¢à¸«à¸Ļ":3112,"à¸§à¸§à¸§à¸§":3113,"à¸Ľà¸§":3114,"à¹ģà¸¥à¸°à¸¡":3115,"à¹Ģà¸ªà¸ĺ":3116,"Ġpantip":3117,"à¸Ļà¹Ĥà¸Ķ":3118,"à¸Ĭà¸²à¸£":3119,"Ġà¸Ļà¸Ńà¸ģà¸Īà¸²à¸ģà¸Ļ":3120,"à¹Ħà¸ķà¸¥":3121,"ale":3122,"à¸¢à¸¡à¸ķ":3123,"à¸Ļà¹Ģà¸«à¸¥":3124,"bb":3125,"Ġu":3126,"à¸Ķà¸ľ":3127,"Ġà¸ªà¸²à¸¡":3128,"à¸®à¸²à¸£":3129,"à¸ļà¸Ńà¸ģà¸ģ":3130,"à¸Ńà¹Ģà¸Ĭ":3131,"à¸ķà¸Ńà¸¥":3132,"à¸Ńà¸¢à¹ģà¸¥":3133,"Ġan":3134,"Ġà¹Ģà¸ŀà¸£à¸²à¸°à¹Ħà¸¡":3135,"Ġà¸Ļà¸°à¸Ħà¸£":3136,"à¸Ńà¸Ļà¸Ħà¸£":3137,"à¸§à¹Ģà¸Ħà¸£":3138,"à¸£à¸Ńà¸¢":3139,"à¹Ģà¸Ńà¸ª":3140,"Ġpr":3141,"backpack":3142,"à¸ļà¹ĥà¸Ļ":3143,"à¸Ńà¸«à¸¥":3144,"à¸µ\",":3145,"à¹Ģà¸¢à¸Ńà¸£":3146,"à¸§à¸¢à¸ķà¸Ńà¸ļ":3147,"à¸²à¸¢à¸Ń":3148,"à¹ģà¸Ń":3149,"à¸Ńà¸Ļà¹Ģà¸¡":3150,"sl":3151,"Ġfc":3152,"à¸Ļà¹Ģà¸£à¸²à¸ģ":3153,"à¸²à¸¢à¸Ĥà¸Ńà¸ĩ":3154,"à¸ĺà¸£à¸£à¸¡à¸Ļ":3155,"à¸Ńà¸ĩà¹Ģà¸¥à¸¢":3156,"à¸Ķà¹Ģà¸ŀ":3157,"à¸ķà¸Ńà¸Ļà¸Ĺ":3158,"à¸ĩà¸«à¸¡":3159,"und":3160,"Ġà¸£à¸°à¸ļà¸ļ":3161,"à¹ģà¸Ńà¸ļà¸£":3162,"work":3163,"à¸²à¸£à¸²à¸Ĭ":3164,"à¸Ļà¹ģà¸£":3165,"à¸Ķà¸Ł":3166,"à¹ĥà¸Ħà¸£à¸£":3167,"ios":3168,"à¸¡à¸²à¸Ń":3169,"à¸²à¸ªà¸ķ":3170,"Ġnew":3171,"à¹Ģà¸Ľà¸Ńà¸£":3172,"ww":3173,"à¸Īà¸°à¸Ī":3174,"à¸Ħà¸Ļà¸¥à¸°":3175,"à¸ģà¹ģà¸ķ":3176,"à¸²à¸Īà¸°à¸£":3177,"à¸§à¸¢à¸ª":3178,"à¹Ĩà¹Ĩà¹Ĩ":3179,"26":3180,"à¸²à¸Ļà¸ļ":3181,"::":3182,"ast":3183,"à¸²à¸Ħà¸Ļà¸Ĺ":3184,"à¸ģà¸Ńà¸ĩà¸Ĺ":3185,"Ġà¹ģà¸ľ":3186,"à¸²à¸ģà¸ıà¸§":3187,"à¸ĩà¸Ħà¸Ļà¸Ļ":3188,"à¸²à¹ģà¸«":3189,"à¹Ģà¸£à¸²à¸Ķ":3190,"***":3191,"à¸Ħà¸Ńà¸¡à¸¡":3192,"ĠĠĠĠĠ":3193,"à¸²à¹Ħà¸¡à¸ĸ":3194,"à¸ªà¸°à¸Ńà¸²à¸Ķ":3195,"à¹Ģà¸Ħà¸¢à¸Ħ":3196,"Ġà¹ģà¸¥à¸°à¹Ģà¸Ľ":3197,"à¸Ńà¸§à¸²à¸Ļ":3198,"à¹ĥà¸Ļà¹ĥà¸Ī":3199,"pl":3200,"à¸Ķà¸¡à¸²":3201,"à¹ĥà¸Ļà¹Ģà¸£":3202,"à¸Ĳà¸¡à¸Ļà¸ķà¸£":3203,"ell":3204,"Ġà¹Ģà¸£à¸²à¹Ģà¸Ľ":3205,"à¸Ļà¹ģà¸ģ":3206,"à¸£à¸²à¸Ĭà¸ģà¸²à¸£":3207,"à¸Ļà¸ķà¸¥à¸Ńà¸Ķ":3208,"à¸Īà¸ģà¸²à¸£":3209,"Ġà¹ĥà¸Ļà¸Ľ":3210,"à¸Ļà¸Ļà¸°à¸Ħà¸£":3211,"à¹ģà¸¥à¸°à¸ª":3212,"à¸Ńà¸ĩà¹ĥà¸«à¸¡":3213,"Ġsamsung":3214,"à¸ĩà¹Ģà¸ŀà¸¥à¸ĩ":3215,"à¸²à¸ģà¸İ":3216,"à¸Ńà¸Ļà¸¥à¸°":3217,"à¸Ľà¸£à¸°à¹Ģà¸łà¸Ĺ":3218,"à¸²à¸²à¸²":3219,"Ġ2556":3220,"à¸°à¸ª":3221,"à¹ģà¸®":3222,"à¸Ļà¸ŀà¸§à¸ģ":3223,"Ġà¸Ħà¸Ļà¸Ļ":3224,"ram":3225,"à¸ŀà¸Ńà¸Ĺ":3226,"à¸§à¸ĭ":3227,"à¸Ńà¸Ļà¸ľà¸¡":3228,"à¸ģà¹ĥà¸«":3229,"à¸ģà¸Ĭà¸²à¸¢":3230,"à¹ģà¸ļà¸ļà¸Ĺ":3231,"à¸Ńà¸Łà¸ķ":3232,"à¸Ļà¸Īà¸°à¸¡":3233,"à¹Ģà¸Ħà¸¢à¹Ģà¸Ľ":3234,"Ġà¹ģà¸¥à¸°à¸Ħ":3235,"à¸ģà¸Ħà¸Ļà¸Ĺ":3236,"à¸²à¹ģà¸Ĥ":3237,"________________":3238,"à¸Ńà¸°à¹Ħà¸£à¸Ķ":3239,"ry":3240,"à¸ģà¹Ģà¸«à¸¡":3241,"Ġà¹ģà¸£":3242,"ite":3243,"ony":3244,"à¸Ľà¸Ħ":3245,"à¸«à¸¡à¸Ķà¹ģà¸¥":3246,"à¸ŀà¸Ńà¸£":3247,"à¹Ģà¸ģà¸©à¸ķà¸£":3248,"à¹Ĥà¸ļ":3249,"à¸§à¹Ģà¸£à¸²":3250,"à¸ģà¸£à¸£à¸¡à¸ģà¸²à¸£":3251,"à¸ļà¸²à¸ĩà¸Ĺ":3252,"à¸¢à¸ĩà¸Ħ":3253,"à¸²à¸Ļà¸Ĥà¸²à¸¢":3254,"Ġà¸ŀà¸¢à¸²à¸¢à¸²à¸¡":3255,"à¸¢à¸ģà¸£":3256,"à¹ĥà¸Ħà¸£à¸¡":3257,"à¸ĩà¸Łà¸£":3258,"à¸§à¹ģà¸¥":3259,"à¸Ńà¸¢à¸²à¸ģà¸¡":3260,"à¸Ħà¸Ĺ":3261,"à¹Ħà¸Ĺ":3262,"à¹Ĥà¸ŀà¸ª":3263,"à¸Ńà¸Ļà¸¥":3264,"à¸Ļà¸Ńà¸²à¸Ĺ":3265,"à¸µ,\"":3266,"à¸Ńà¸ģà¸ģ":3267,"à¸¡à¹Ģà¸ŀ":3268,"à¸¡à¸ł":3269,"à¸ĩà¹Ģà¸¨":3270,"à¸ķà¹ĥà¸Ī":3271,"à¸ģà¹Ģà¸ŀ":3272,"à¸ªà¹Ĥà¸¡à¸ªà¸£à¸Ł":3273,"à¸Ĥà¸Ļà¸ª":3274,"à¸¡à¸ĩà¸²à¸Ļ":3275,"à¸ķà¸°":3276,"ck":3277,"Ġwifi":3278,"à¸²à¸§à¸Ħà¸£":3279,"à¹ĥà¸Ļà¸Ļ":3280,"Ġsmartphone":3281,"Ġà¸ªà¸§":3282,"38":3283,"à¸²à¸Īà¸°à¹Ħà¸Ľ":3284,"à¸Ńà¹ģà¸¥à¸°":3285,"à¸ĩà¸Ĺà¸²à¸ĩ":3286,"man":3287,"à¹Ĥà¸Ľà¸£à¹Ĥà¸¡à¸Ĭ":3288,"à¸ªà¸ł":3289,"à¹Ģà¸£à¸²à¸Ńà¸¢à¸²à¸ģ":3290,"à¹Ģà¸¡à¸°":3291,"à¸²à¸¥à¸²à¸¢":3292,"à¸Ļà¸Ńà¸²à¸Ī":3293,"à¸Ļà¹ĥà¸«à¸į":3294,"à¸Īà¸Ĥà¸ģà¸Ĺ":3295,"à¸ļà¸Ĺà¸²à¸ĩ":3296,"à¸Ńà¸Ļà¹Ħà¸Ľ":3297,"à¹Ģà¸Ĥà¸²à¸Ĺ":3298,"à¸¢à¸Ļà¸§":3299,"à¹Ĥà¸£à¸Ľ":3300,"à¹Ģà¸Ħà¸¢à¹ĥà¸Ĭ":3301,"ach":3302,"à¸²à¹Ģà¸§":3303,"Ġac":3304,"à¸ªà¸²à¸¡à¸²à¸£à¸ĸà¸Ĺ":3305,"à¸Łà¸Ńà¸£":3306,"à¸Ĺà¸¢à¸²":3307,"à¸¡à¹Ħà¸Ľ":3308,"à¸Ńà¸Ļà¹Ģà¸¥à¸¢":3309,"à¸Ĥà¸Ńà¸ĩà¸Ļ":3310,"à¹Ģà¸Ĥà¸ķ":3311,"à¸Īà¸°à¸Ļ":3312,"Ġ29":3313,"ãģ":3314,"à¸Īà¸Ķ":3315,"à¸§à¸¡à¸²à¸ģ":3316,"à¸£à¸°à¸ģ":3317,"à¸Ħà¸§à¸²à¸¡à¸§":3318,"à¸ŀà¸£à¸°à¹Ģà¸Ī":3319,"à¹Ĥà¸®":3320,"à¸Ĥà¸Ńà¸ĩà¸ľ":3321,"ace":3322,"à¸ĩà¸ķà¸Ńà¸Ļà¸Ļ":3323,"à¸Ĥà¸Ńà¸Ńà¸ł":3324,"à¸Ńà¸¥à¹Ģà¸¥à¸¢":3325,"à¸Ļà¹Ħà¸«à¸¡":3326,"à¸ĵà¸ª":3327,"à¸£à¸Ńà¸Ķ":3328,"à¸«à¸£à¸Ńà¸Ħà¸£":3329,"à¹ģà¸Ńà¸ŀ":3330,"......":3331,"à¹Ħà¸«à¸Ļà¸Ħà¸£":3332,"à¹Ģà¸ĺà¸Ńà¸ģ":3333,"à¸Ļà¸Ĭà¸Ńà¸ļ":3334,"ah":3335,"à¹Ģà¸£à¸²à¸Ļ":3336,"ment":3337,"à¸²à¹ģà¸Ĺ":3338,"Ġà¸¥à¸°":3339,"Ġset":3340,"Ġcan":3341,"à¸ĩà¹Ģà¸ķ":3342,"à¸Ĳà¸ĺà¸£à¸£à¸¡à¸Ļ":3343,"à¸ĵà¸ģ":3344,"à¸Ńà¹ģà¸ķ":3345,"Ġà¹ģà¸Ļ":3346,"ailand":3347,"75":3348,"Ġà¹ģà¸¥à¸°à¹Ħà¸Ķ":3349,"à¹Ģà¸Ĺà¸Ħà¹Ĥà¸Ļà¹Ĥà¸¥à¸¢":3350,"à¸ģà¸²à¸£à¸Ń":3351,"à¸²à¹Ģà¸£à¸²à¹Ħà¸¡":3352,"à¸«à¸²à¸Ĥ":3353,"---":3354,"à¸ģà¸²à¸£à¸Ļ":3355,"à¹Ģà¸ľà¸¢":3356,"à¸²à¸¬":3357,"Ġà¸ľà¸¡à¸Ī":3358,"Ġà¸Ĥà¸Ńà¹ĥà¸«":3359,"Ġà¹Ģà¸£à¸²à¸Ħà¸§à¸£":3360,"onda":3361,"à¸Ńà¸Ļà¸«à¸¥":3362,"à¸²à¸Ļà¹ĥà¸Ļ":3363,"à¸Ńà¸ģà¹Ģà¸ļ":3364,"Ġser":3365,"à¸¡à¸²à¸«":3366,"à¸°à¸Ĥà¸Ńà¸ļà¸Ħ":3367,"à¹ģà¸ŀà¸£":3368,"à¸Ķà¹Ħà¸§":3369,"à¹Ī)":3370,"à¸ļà¸ļà¸Ĺ":3371,"ey":3372,"à¹Ģà¸£à¸²à¹Ģà¸£":3373,"Ġ80":3374,"à¸Ńà¸²à¸Īà¸²à¸£à¸¢":3375,"à¸Īà¸Ļà¸ĸ":3376,"à¹Ģà¸§à¸¥à¸²à¸Ļ":3377,"à¸Ńà¸¢à¸ķ":3378,"à¸ĩà¸«à¸²à¸£":3379,"à¸ĸà¸²à¸¡à¹Ģà¸ŀ":3380,"Ġà¹Ģà¸Ł":3381,"à¸ĵà¸ķ":3382,"Ġbr":3383,"à¸Ńà¸Ķà¸£":3384,"Ġinter":3385,"à¸Ĺà¸²à¸ĩà¸Ĺ":3386,"à¸¡à¸Ħà¸£à¸Ńà¸ĩà¸ľ":3387,"à¸Ńà¸Ľà¸£à¸°à¸ģ":3388,"Ġar":3389,"à¸¢à¸ĩà¸¥":3390,"our":3391,"à¸Ļà¹Ģà¸Ń":3392,"Ġoper":3393,"à¸Ńà¸Ńà¸Ńà¸Ń":3394,"à¸Ļà¸Ĺà¸²à¸ĩà¹Ħà¸Ľ":3395,"à¸¡à¸²à¸ģà¹Ģà¸¥à¸¢":3396,"à¸£à¸²à¸ĵ":3397,"à¸Ķà¸²":3398,"ower":3399,"Ġà¸ļà¸²à¸ĩà¸Ħà¸£":3400,"ect":3401,"à¸Ļà¸ģà¸£à¸°":3402,"à¸ĩà¹Ħà¸Ĺà¸¢":3403,"23":3404,"à¸Ľà¸£à¸°à¸Ĭà¸²à¸Ĭà¸Ļ":3405,"Ġà¹ģà¸¥à¸°à¸ĸ":3406,"à¸¢à¸ļà¹Ģà¸Ĺ":3407,"à¸¡à¸²à¹Ģà¸£":3408,"à¸¢à¸Ļà¸ª":3409,"à¸Ļà¹Ģà¸ªà¸²à¸£":3410,"à¸¢à¸Ļà¸Ĭ":3411,"Ġà¹ĥà¸Ļà¸§":3412,"à¹ĥà¸Ļà¹Ģà¸¡":3413,"Ġà¸ªà¸§à¸¢":3414,"Ġà¸¥à¸Ķ":3415,"à¸²à¸ģà¸«à¸¥à¸²à¸¢":3416,"à¸ĩà¸Ħà¸£à¸£à¸ł":3417,"à¹Ĥà¸ģà¸£à¸ĺ":3418,"à¸Ķà¸ĩ":3419,"Ġà¸¥à¸Ńà¸ĩ":3420,"à¸ķà¸£à¸ĩà¹Ĩ":3421,"ube":3422,"à¸Ķà¹Ģà¸Ĥ":3423,"Ġ!!":3424,"Ġà¸Ńà¸¢à¸²à¸ģà¸Īà¸°":3425,"à¹ģà¸Ĭà¸¡à¸Ľ":3426,"Ġà¹ģà¸Ļà¸§":3427,"à¸«à¸²à¸Ķ":3428,"à¸ģà¸ªà¸²à¸§":3429,"à¹Į-":3430,"à¸Ĥà¸ĵà¸°à¸Ĺ":3431,"à¸Īà¹ģà¸¥":3432,"à¹Ģà¸ŀà¸£à¸²à¸°à¸¡":3433,"à¸²à¸Ļà¸Ī":3434,"ick":3435,"à¸²à¸Ļà¸ľ":3436,"à¸§à¸Ļà¸«à¸Ļ":3437,"à¸§à¸£à¸£à¸ĵ":3438,"à¸²à¸£à¸²à¸¢":3439,"à¸Ļà¸ķà¸Ńà¸Ļà¸Ļ":3440,"à¸²à¸Ńà¸°à¹Ħà¸£à¸ģ":3441,"Ġwh":3442,"à¹ģà¸ŀà¸ĩ":3443,"à¸§à¸¡à¸ĩà¸²à¸Ļ":3444,"android":3445,"à¸Ķà¹Ģà¸ª":3446,"à¸Ńà¸¡à¸¡":3447,"ge":3448,"à¸ķà¸°à¸§":3449,"à¸«à¸²à¸¥":3450,"à¸Ńà¸Ļà¹ĥà¸«":3451,"Ġà¹Ħà¸£":3452,"à¸²à¸ĩà¸Ńà¸¢":3453,"Ġà¸Ļà¸°à¸Ħà¸°":3454,"à¸§à¹ĥà¸Ĭ":3455,"27":3456,"à¸įà¸«à¸²à¸Ħà¸£à¸Ńà¸ļà¸Ħà¸£":3457,"à¸§à¹Ģà¸ŀ":3458,"à¸²à¸Ļà¸Ĭ":3459,"à¹ģà¸Ĺà¸Ħ":3460,"Ġ31":3461,"Ġyou":3462,"à¸¥à¸Ļ":3463,"à¹ģà¸Ħà¸£":3464,"à¸§à¹Ģà¸ģ":3465,"à¸²à¸§à¸°":3466,"Ġà¹ģà¸Ńà¸ļ":3467,"Ġmin":3468,"à¸Ļà¹Ħà¸Ĺà¸¢":3469,"Ġà¹Ģà¸¡à¸ķà¸£":3470,"à¸Ĭà¸²à¸¢à¸Ĺ":3471,"à¸¢à¸§à¸Ħ":3472,"à¸²à¸¡à¸²à¸Ĺ":3473,"Ġcall":3474,"à¸Ńà¸Ħà¸Ļ":3475,"à¸²à¸«à¸¡à¸²à¸¢":3476,"à¸¡à¸Ńà¸¢":3477,"à¸²à¹Ħà¸¡à¸ķ":3478,"à¸¢à¸Ļà¸Ħ":3479,"à¸£à¸²à¸¢à¸ĩà¸²à¸Ļ":3480,"à¹Ģà¸Ħà¸¢à¹Ħà¸Ķ":3481,"à¸ģà¹Ģà¸Ħ":3482,"à¸Ńà¸Ļà¹Ħà¸Ĥ":3483,"à¹ģà¸ľà¸Ļà¸Ĺ":3484,"Ġà¹Ĥà¸Ń":3485,"à¸Ķà¸Ķà¸Ķà¸Ķ":3486,"à¸Ķà¸«à¸£":3487,"Ġà¹Ģà¸¥à¸¢à¹Ħà¸¡":3488,"à¸Ńà¸Ļà¸ªà¸Ļ":3489,"iver":3490,"à¸Ńà¸¡à¸ŀ":3491,"à¸ĩà¹Ģà¸«à¸¥":3492,"29":3493,"à¸ķà¸²":3494,"à¸¡à¸²à¸ĸà¸²à¸¡":3495,"à¸Ńà¸Ļà¸ģà¸¥":3496,"à¸Ķà¸¢à¸Ńà¸Ķ":3497,"à¸Ńà¸Ļà¸¢":3498,"Ġà¹ĥà¸Ļà¸Ĭ":3499,"Ġà¸Īà¸Ļà¸Ĺ":3500,"à¸ĩà¸ªà¸£":3501,"ide":3502,"à¸ĩà¸Ħà¸Ļ":3503,"à¸²à¸Ļà¸ĭ":3504,"à¸²à¸ĩà¹ģà¸¥":3505,"à¸²à¹Ģà¸Ľà¸¥":3506,"à¹Ģà¸ŀà¸Ī":3507,"à¸įà¸Ĺ":3508,"Ġclub":3509,"à¹Ģà¸£à¸²à¸Ń":3510,"à¸ģà¹Ģà¸Ľà¸¥":3511,"Ġà¸ļà¸£à¸£":3512,"ock":3513,"à¸ªà¸łà¸²à¸ŀ":3514,"à¸°à¸ŀ":3515,"à¹Į),":3516,"à¸ĵà¸¡à¸²à¸ģà¸Ħ":3517,"à¸Ļà¸²à¸Ķà¸Ļ":3518,"mm":3519,"skin":3520,"à¸ĩà¸Ħà¸¥":3521,"Ġà¸ªà¸Ļ":3522,"Ġ()":3523,"à¸ĩà¸²à¸Ļà¹Ħà¸Ķ":3524,"à¹Ģà¸£à¸²à¹Ģà¸¥":3525,"à¸²à¸¢à¸łà¸²à¸ŀ":3526,"à¸Īà¸²à¸ģà¸ģà¸²à¸£":3527,"à¸¹à¹Ī,":3528,"à¹ģà¸Ńà¸ļà¸Ĭà¸Ńà¸ļ":3529,"Ġbo":3530,"ĠâĢ¢":3531,"à¸Ĥà¸Ńà¸ĩà¸£":3532,"à¸¢à¸ĩà¸Ĺ":3533,"à¸²à¸Ħà¸Ļà¹Ģà¸¨à¸£":3534,"à¸¨à¸²à¸¥à¸²à¸Ħà¸Ļà¹Ģà¸¨à¸£":3535,"oft":3536,"à¸ļà¸Ľà¸¥":3537,"Ġit":3538,"61":3539,"à¹ĥà¸Ħà¸£à¸Ĺ":3540,"à¸ĩà¸Ł":3541,"à¸Ħà¸§à¸²à¸¡à¹Ģà¸£":3542,"Ġà¹ģà¸ªà¸Ķ":3543,"à¸¡à¸²à¸Ī":3544,"================":3545,"à¸Ńà¸²à¸Ĭ":3546,"ix":3547,"à¸Ńà¸Ļà¹Ĥà¸Ķ":3548,"à¸Īà¸°à¸Ĭ":3549,"à¹ģà¸¥à¸°à¹Ħà¸¡":3550,"à¸§à¹Ħà¸«à¸Ļ":3551,"à¸¢à¸ĩà¸ª":3552,"à¸¢à¹Ģà¸ĩ":3553,"à¸ļà¹Ģà¸Ħà¸£":3554,"à¸ŀà¸²à¸ģ":3555,"à¸Ńà¸«à¸¡":3556,"Ġà¹ĥà¸«à¸¡":3557,"à¸Ńà¸Ļà¸Ī":3558,"à¸Ķà¹Ģà¸Ħà¸£":3559,"à¹Ģà¸Łà¸ªà¸ļ":3560,"à¸¢à¸£à¸ķ":3561,"Ġà¸Ńà¸Ķ":3562,"à¸²à¸Ļà¸¡à¸²à¸ģ":3563,"âĢĻ":3564,"à¸²à¸Ħà¸²à¸į":3565,"à¹ģà¸ķà¸ģ":3566,"à¹ģà¸¥à¸°à¸ķ":3567,"à¸ļà¸²à¸ĩà¸Ħà¸Ļ":3568,"Ġà¸ĩà¸ĩ":3569,"à¸Ļà¸Ľà¸ģà¸ķ":3570,"à¸ĩà¸ķà¸²à¸¡":3571,"à¸ĸà¸²à¸¡à¹Ģà¸£":3572,"à¸§à¹Ĥà¸¡":3573,"Ġroom":3574,"à¸ľà¸¥à¸Ĺ":3575,"à¸ĩà¹Ģà¸¨à¸ª":3576,"<<":3577,"pu":3578,"à¸²à¸£à¸²à¸Ħ":3579,"à¸ĩà¸Ńà¸¢à¸²à¸ģ":3580,"à¹Ĳ":3581,"Ġat":3582,"Ġà¸£à¸§à¸¡à¸Ĺ":3583,"à¸ķà¸²à¸£":3584,"à¸ªà¹Ģà¸ĭ":3585,"à¸²à¹Ģà¸Ńà¸ĩ":3586,"à¸§à¸²à¸ĩà¹ģà¸ľ":3587,"Ġà¹Ģà¸£à¸²à¸Ĺ":3588,"à¸Ĺà¸Ńà¸ĩ":3589,"à¸Ķà¸«à¸§":3590,"88":3591,"à¸Īà¸°à¸Ĥ":3592,"à¸ªà¸£à¸°":3593,"Ġcenter":3594,"à¸¥à¸ķ":3595,"à¸£à¸©":3596,"à¸§à¸¢à¸Ħà¸§à¸²à¸¡à¸Ĺ":3597,"à¸ģà¸ģà¸¥":3598,"à¸Ńà¸¡à¸ļ":3599,"à¸Ĭà¸²à¸ģà¸²à¸£":3600,"à¸Īà¸£à¸²à¸Īà¸£":3601,"Ġme":3602,"à¸ªà¸²à¸ĺ":3603,"à¸Ńà¸Ļà¹ĥà¸Ļ":3604,"ky":3605,"à¹ģà¸£à¸ģà¸ģ":3606,"21":3607,"à¸Ńà¸ĩà¹Ģà¸ŀà¸¥à¸ĩ":3608,"à¸ĩà¹Ģà¸Ħà¸£":3609,"ers":3610,"Ġà¹Ģà¸Ńà¸§":3611,"à¹Ģà¸¡à¸Ļ":3612,"à¸Ľà¸£à¸°à¸«à¸¢":3613,"Ġ35":3614,"Ġgoogle":3615,"à¸¢à¸Ķà¸²à¸¢":3616,"à¸ªà¸Ľ":3617,"Ġoperator":3618,"iss":3619,"à¸Ĥà¸Ńà¸ĩà¹ĥà¸Ĭ":3620,"Ġ?,\"":3621,"ime":3622,"à¸¥à¸ª":3623,"à¸Ļà¸ŀà¸£":3624,"à¸²à¹Ģà¸ŀà¸£à¸²à¸°":3625,"à¸Ńà¹Ģà¸ķà¸Ńà¸£":3626,"Ġnet":3627,"à¸Īà¸°à¹Ģà¸ģ":3628,"à¸²à¸§à¸£":3629,"og":3630,"Ġà¸į":3631,"Ġà¸ľà¸¡à¸ķ":3632,"à¸ĵà¸¡à¸²à¸ģà¸Ħà¸£":3633,"à¸²à¸¢à¹ģà¸¥":3634,"à¹Ħà¸Ľà¹Ħà¸Ķ":3635,"à¹Ĥà¸Ķà¸¢à¸Ĺ":3636,"à¸ĩà¹ĥà¸«à¸į":3637,"à¹Ģà¸¥à¸¢à¸ķ":3638,"à¸§à¸¢à¸Ļà¸°":3639,"Ġà¸Ńà¸²à¸ģà¸²à¸£":3640,"Ġà¸ļà¸²à¸ĩà¸Ħà¸Ļ":3641,"à¸ļà¹ģà¸Ł":3642,"à¸Ħà¸Ńà¸Ļà¹Ĥà¸Ķ":3643,"à¸Ļà¸ŀà¸£à¸°":3644,"Ġems":3645,"à¸Ľà¹Ħ":3646,"à¸¡à¸²à¸ķà¸¥à¸Ńà¸Ķ":3647,"eng":3648,"ike":3649,"à¸Ľà¸£à¸°à¸ªà¸ĩà¸Ħ":3650,"à¸ĩà¹Ģà¸Ī":3651,"à¸²à¸ĺà¸£à¸£à¸¡":3652,"####":3653,"à¸²à¹Ģà¸«":3654,"outube":3655,"à¹Ģà¸ªà¸Ļà¸Ń":3656,"à¸²à¸§à¸ķ":3657,"à¸¡à¹Ģà¸Ĥ":3658,"à¸¡à¸²à¹ĥà¸Ĭ":3659,"à¸Ķà¸ªà¸Ńà¸ļ":3660,"à¸Ńà¸²à¸£":3661,"???":3662,"à¸²à¸¢à¹Ģà¸Ķ":3663,"à¹Ģà¸Ĺà¸Ħà¸Ļ":3664,"Ġà¸Ļà¸°":3665,"à¸¢à¸Ļà¸Ļ":3666,"à¸ļà¸ļà¸£":3667,"à¸ªà¸Ńà¸ļà¸ĸà¸²à¸¡à¹Ģà¸£":3668,"à¸Ħà¸§à¸²à¸¡à¸Ń":3669,"à¹ģà¸Ľà¸¥à¸ģà¹Ĩ":3670,"à¸ķà¸ģà¹ģà¸ķ":3671,"à¸§à¸Ļà¸Ĥà¸Ńà¸ĩ":3672,"à¸§à¸£à¸£à¸Ħ":3673,"à¸ķà¹Ģà¸Ļ":3674,"à¸§à¸Ļà¸¥à¸Ķ":3675,"à¸²à¸¥à¸ĩ":3676,"à¸ļà¸Ħà¸£":3677,"Ġ!":3678,"à¸°à¸Ķà¸§à¸ģ":3679,"à¸ģà¸ģà¸²à¸£à¹Ģà¸¡":3680,"Ġà¸ģà¸£à¸ĵ":3681,"urt":3682,"Ġà¸Īà¸Ļà¸ĸ":3683,"à¸Ĥà¸Ĺ":3684,"Ġà¹ģà¸¥à¸°à¸£":3685,"à¸Īà¸°à¸ģà¸¥":3686,"à¹Ģà¸Ħà¸¢à¹Ģà¸«":3687,"à¸Ļà¸Ńà¸²à¸«à¸²à¸£":3688,"à¹ĥà¸Īà¸ģ":3689,"à¸²à¸ĩà¸ĩ":3690,"à¸ļà¸Ħà¸§à¸²à¸¡à¸ª":3691,"à¸§à¸«à¸¥":3692,"à¸Ńà¸ļà¸Ńà¸ģà¸§":3693,"Ġ2557":3694,"Ġà¸«à¸§":3695,"à¸Ħà¸Ħ":3696,"à¹Ģà¸ªà¸Ļ":3697,"Ġos":3698,"à¸Ķà¹ģà¸ķ":3699,"à¸ªà¸¡à¹Ģà¸Ķ":3700,"ber":3701,"à¸Ńà¸ĩà¹Ģà¸ŀ":3702,"à¸ľà¸¡à¹ĥà¸Ĭ":3703,"à¸Ńà¸Ĥà¸²à¸¢":3704,"à¹Ĥà¸Ńà¸Ļà¹Ģà¸ĩ":3705,"à¹Ģà¹Ģà¸£":3706,"à¹ģà¸¥à¸°à¸ģ":3707,"à¸Ńà¸¢à¸¥à¸ĩ":3708,"à¸ģà¸£à¸²à¸Ħà¸¡":3709,"à¸Ļà¸¥à¸ĩ":3710,"à¸ĩà¹Ģà¸«à¸¡":3711,"à¹Ĥà¸ŀà¸ªà¸ķ":3712,"à¸ªà¹Ģà¸Ľ":3713,"Ġà¸ľà¸¡à¸¡":3714,"ree":3715,"à¸łà¸²à¸ŀà¸ĸ":3716,"à¸ĩà¹Ĩà¸Ħ":3717,"à¹ģà¸ĩ":3718,"à¹Ģà¸¥à¸¢à¸Ļà¸°":3719,"à¸Ļà¹ģà¸Łà¸Ļ":3720,"à¸ĩà¸ªà¸Ńà¸ĩ":3721,"Ġà¸ªà¸ĸà¸²à¸Ļ":3722,"à¸£à¸²à¸Ł":3723,"Ġà¸Łà¸£":3724,"Ġà¹ĥ":3725,"à¸²à¸£à¸ŀ":3726,"à¸Ļà¹Ģà¸ļ":3727,"Ġà¸Ńà¸£":3728,"à¸Ńà¸ļà¸Ńà¸ģ":3729,"à¹Ģà¸Ħà¸¢à¹Ħà¸Ľ":3730,"à¸ĩà¸Ħà¸¡à¸Ħ":3731,"à¸²à¸Ļà¹Ģà¸£":3732,"à¹ģà¸ļà¸£à¸Ļà¸Ķ":3733,"à¸ķà¸Ńà¸Ļà¹ģà¸£à¸ģ":3734,"à¹Ģà¸ģà¸Ńà¸£":3735,"Ġà¹Ĥà¸Ķà¸¢à¹Ħà¸¡":3736,"à¸ļà¸£à¸£à¸¢à¸²à¸ģà¸²à¸¨":3737,"à¹Ģà¸£à¸²à¸ģà¸¥":3738,"à¸Ńà¹Ģà¸Ī":3739,"Ġgr":3740,"à¸¡à¹Ģà¸Ķ":3741,"à¸²à¸ķà¸Ńà¸Ļ":3742,"à¸²à¸ĩà¸Ĺà¸²à¸ĩ":3743,"à¹Ģà¹Ģ":3744,"à¸Ľà¹Ħà¸ķà¸¢":3745,"Ġvs":3746,"à¸ĩà¹ģà¸ģ":3747,"à¹ģà¸¥à¸°à¸£":3748,"à¸Ħà¸§à¸²à¸¡à¸ķ":3749,"à¸Ńà¸Ķà¸Ĺ":3750,"à¸Ńà¸ĩà¸«à¸¡":3751,"int":3752,"à¸²à¸Ļà¹Ģà¸Ľ":3753,"à¸Īà¸Ń":3754,"à¸£à¸²à¸ª":3755,"à¸Ķà¹Ģà¸Īà¸Ļ":3756,"Ġà¸ĭà¸¡":3757,"à¸Ĥà¸łà¸²à¸ŀà¸Ī":3758,"Ġmy":3759,"à¸Ńà¸ĩà¸Ľà¸£":3760,"à¹ķ":3761,"à¸Ńà¸ļà¸£à¸¡":3762,"Ġà¹ģà¸Ĥ":3763,"à¸ļà¹Ģà¸Ī":3764,"à¸ļà¸Ł":3765,"à¹Ģà¸ªà¸¡":3766,"255":3767,"à¸«à¸²à¸Ĺ":3768,"à¹Ĥà¸£à¸ĩà¹ģà¸£à¸¡à¸£":3769,"à¸²à¸ĩà¸Ĥà¸Ńà¸ĩ":3770,"à¸¥à¸²à¸Ħà¸¡":3771,"à¸ĵà¸¡à¸²à¸ģà¹Ĩ":3772,"à¸Īà¸Ńà¸ĩ":3773,"à¸¡à¸²à¸ĭ":3774,"à¹Ģà¸Ĥà¸²à¸Ħ":3775,"à¸¡à¸Ĺà¸£":3776,"à¸ĩà¹Ħà¸ĩà¸Ħà¸°":3777,"Ġà¹ģà¸Ľ":3778,"Ġà¸¡à¸²à¸Ķ":3779,"à¸ĩà¸Īà¸°à¸¡":3780,"à¸ģà¸²à¸£à¸ļà¸£":3781,"à¸ļà¹Ĥà¸ķ":3782,"à¸ĩà¹Ģà¸ĩ":3783,"à¸Ńà¸ĩà¸¨":3784,"à¸²à¸ĩà¹Ħà¸£à¸Ķ":3785,"à¸Ńà¸°à¹Ħà¸«à¸¥":3786,"Ġà¹ģà¸ļ":3787,"à¸²à¸®":3788,"Ġà¸ķà¸Ńà¸ļ":3789,"Ġwindows":3790,"à¸ŀà¸¢à¸²à¸ģà¸£":3791,"à¸Ļà¸²à¸Ħà¸¡":3792,"Ġà¸Ŀà¸²à¸ģ":3793,"à¸Ķà¹ĥà¸Ĭ":3794,"à¹Ħà¸®":3795,"mer":3796,"à¸Ļà¸§à¸²à¸Ħà¸¡":3797,"Ġ----------------------------------------------------------------":3798,"à¸ļà¹Ģà¸ª":3799,"à¹Ģà¸ŀà¸£à¸²à¸°à¸§":3800,"Ġà¸Īà¸²à¸ģà¸Ĺ":3801,"Ġà¹Ģà¸£à¸²à¸Ī":3802,"à¸Ķà¹ģà¸§à¸£":3803,"ans":3804,"à¸°à¸Ķ":3805,"à¸łà¸²à¸ŀà¸Ĺ":3806,"lic":3807,"à¸Ļà¸£à¸²à¸Ħ":3808,"à¸²à¸ľà¸¥":3809,"à¸ŀà¸Ńà¸ªà¸¡à¸Ħà¸§à¸£":3810,"à¸¢à¸Ķà¸Ļà¸²à¸¡":3811,"à¸ļà¸Ľà¸£à¸°à¸ģ":3812,"à¹ģà¸Ĺà¸ļ":3813,"Ġcc":3814,"\"\"\"":3815,"act":3816,"à¹Ģà¹Ģà¸Ł":3817,"ire":3818,"à¹ģà¸¥à¸°à¸Ħ":3819,"à¸Ĥà¸Ńà¸£":3820,"à¸ĩà¸Ħà¹Ĥà¸Ľà¸£":3821,"à¸įà¸«à¸²à¸ģ":3822,"à¸Ļà¹Ĥà¸£à¸Ħ":3823,"à¸ļà¹Ģà¸Ĥà¸²":3824,"à¸²à¹Ģà¸£à¸²à¸ģ":3825,"Ġsms":3826,"old":3827,"Ġà¸łà¸²à¸Ħ":3828,"33":3829,"à¸Ħà¸Ļà¸Ħ":3830,"à¸Ħà¸§à¸²à¸¡à¸Īà¸£":3831,"à¸ļà¸ªà¸²à¸¢":3832,"à¸ĩà¹Ĩà¹ģà¸¥":3833,"à¹Ģà¸£à¸²à¸Ĭà¸Ńà¸ļ":3834,"Ġsu":3835,"à¸Ńà¸¢à¸£":3836,"à¸Ļà¸Ĺà¸Ļ":3837,"49":3838,"Ġà¹ĥà¸ģà¸¥":3839,"Ġby":3840,"Ġà¹Ģà¸¥à¸¢à¸Ħ":3841,"à¸Ĭà¸²à¸¢à¸Ħà¸Ļà¸Ļ":3842,"Ġà¸Ľà¸£à¸°à¸ģ":3843,"Ġà¸ľà¸¡à¸£":3844,"à¸²à¸¢à¸«à¸¥":3845,"Ġà¹Ģà¸ŀà¸£à¸²à¸°à¸Ĺ":3846,"59":3847,"à¸ģà¸²à¸£à¹ģà¸Ĥ":3848,"à¸Ĥà¸Ńà¸ĩà¸ª":3849,"let":3850,"à¸§à¸¢à¸ĩà¸²à¸Ļ":3851,"à¸£à¸£à¸¢":3852,"à¸Ńà¸ĩà¸Ł":3853,"à¸²à¸Īà¸°à¸Ķ":3854,"à¸Ńà¸Ļà¹Ģà¸Ĥ":3855,"Ġà¸ľà¸¡à¸Ħ":3856,"à¸Ńà¸ĩà¹ĥà¸Ļ":3857,"à¸Ļà¹Ħà¸ĩ":3858,"à¸Ħà¸§à¸²à¸¡à¸¡":3859,"Ġà¹Ĵ":3860,"à¸²à¸ĩà¹Ģà¸Ĭ":3861,"ish":3862,"à¸²à¸ªà¸Ļ":3863,"Ġà¹Ĥà¸¥":3864,"à¹ģà¸Ĭà¸Ĺ":3865,"à¸ģà¸ģà¸ģà¸ģà¸ģà¸ģà¸ģà¸ģ":3866,"à¹Ģà¸¢à¸Ńà¸°à¹Ĩ":3867,"Ġ70":3868,"////":3869,"à¸£à¸²à¸Ķ":3870,"à¸ģà¸£à¸°à¸ķ":3871,"à¸²à¸«à¸§":3872,"à¹Ģà¸¥à¸¢à¸Ī":3873,"à¹Ģà¸Ħà¸¢à¸£":3874,"à¸²à¸Ĥà¸Ńà¸ĩà¸ĺ":3875,"à¸ļà¸ģà¸§":3876,"à¸ļà¸Ħà¸Ļà¸Ń":3877,"cl":3878,"à¸§à¸Ľ":3879,"à¸«à¸£à¸Ńà¸Ħà¸°":3880,"à¸ŀà¸£à¸°à¸Ńà¸ĩà¸Ħ":3881,"à¸¢à¸ĩà¹ģà¸Ħ":3882,"à¸Ńà¸ĩà¸¡à¸²":3883,"66":3884,"Ġà¹Ģà¸¡à¸©":3885,"facebook":3886,"à¸łà¸²à¸©à¸²à¹Ħà¸Ĺà¸¢":3887,"ith":3888,"à¸ļà¹Ħà¸ĭà¸ķ":3889,"Ġà¹Ģà¸ī":3890,"à¸ķà¸£à¸ĩà¸Ĺ":3891,"à¸µ\"":3892,"à¸Ĥà¸ª":3893,"à¸¢à¹ģà¸¥":3894,"Ġà¹Ģà¸ªà¸£":3895,"à¸ļà¸Ńà¸ģà¹Ħà¸¡":3896,"Ġ90":3897,"à¸Łà¸Ł":3898,"ood":3899,"à¸²à¸ĩà¹ĥà¸«":3900,"à¸ģà¹ģà¸ļà¸ļ":3901,"à¸ŀà¸£à¸°à¸ŀ":3902,"Ġà¸ļà¸Ĺ":3903,"ji":3904,"à¸²à¸ĩà¹Ģà¸Ńà¸ģ":3905,"Ġà¸Ĥà¸ĵà¸°à¸Ĺ":3906,"Ġà¹ĳ":3907,"ies":3908,"55555555":3909,"à¹Ģà¸Ķà¸Ńà¸£":3910,"à¸¥à¸Ń":3911,"mp":3912,"à¸ģà¸²à¸£à¸ĸ":3913,"Ġstar":3914,"à¸£à¸ĸà¸ķ":3915,"à¹Ģà¸ĭà¸¥à¸¥":3916,"Ġà¹ģà¸Ľà¸¥":3917,"à¹ģà¸ģà¸¥":3918,"à¸Īà¸°à¸Ńà¸¢":3919,"300":3920,"à¸ĩà¹Ģà¸«":3921,"à¸²à¸ĩà¹Ģà¸£":3922,"Ġpre":3923,"Ġà¸ľà¸¡à¹Ħà¸Ķ":3924,"à¸«à¸¥à¸²à¸¢à¸Ħà¸£":3925,"Ġfl":3926,"à¸²à¸Ĥà¸Ń":3927,"à¹Ħà¸Ľà¸Ļ":3928,"Ġtt":3929,"à¸ģà¸£à¸°à¹ģà¸ª":3930,"à¸Ķà¸¥à¸Ńà¸ĩ":3931,"Ġà¸Ĭà¸²à¸§":3932,"à¸°à¸Ń":3933,"32":3934,"à¸Ķà¸Ĺà¸°à¹Ģà¸ļ":3935,"à¸Ļà¹Ģà¸£à¸²":3936,"à¹Ģà¸¥à¸¢à¸Ļà¸°à¸Ħà¸°":3937,"à¸Ķà¸Ľà¸ģà¸ķ":3938,"mb":3939,"à¸Ńà¸ªà¸Ńà¸ļà¸ĸà¸²à¸¡":3940,"à¸Īà¸°à¹Ģà¸Ń":3941,"à¸¢à¹Ħà¸¡":3942,"à¸ķà¸£à¸ĩà¸Ĥ":3943,"à¸Ļà¸į":3944,"à¸ªà¸ĩ":3945,"à¸Ńà¸Ļà¸ĸ":3946,"à¸ģà¸Ł":3947,"Ġà¹Ģà¸ŀà¸£à¸²à¸°à¸ķ":3948,"à¸Ļà¸Īà¸°à¹Ģà¸Ľ":3949,"Ġcm":3950,"à¸ļà¹ĥà¸Ĭ":3951,"à¸ģà¸ģà¸ģ":3952,"à¸¢à¸Ĥà¸Ńà¸ĩ":3953,"à¸ĩà¸Ħà¸°":3954,"à¸²à¹Ħà¸Ľà¸ģ":3955,"à¸Ķà¹Ģà¸ģ":3956,"à¹ģà¸ĸà¸¡":3957,"à¸¥à¸²à¸ģ":3958,"à¸Ķà¹ģà¸¥à¸°":3959,"à¸§à¸«à¸£":3960,"à¸«à¸¥à¸²à¸ģà¸«à¸¥à¸²à¸¢":3961,"à¸ľà¸¡à¸Ķ":3962,"yot":3963,"à¸²à¸Ļà¸²à¸¢":3964,"à¸Ńà¸ĩà¹Ģà¸Ľà¸¥":3965,"à¹Ĥà¸«à¸§":3966,"à¸ļà¸¡à¸²à¸ģ":3967,"à¸įà¸«à¸²à¸Ĺ":3968,"à¸Ļà¹Ģà¸§à¸¥":3969,"ĠĠĠĠĠĠ":3970,"à¸Ńà¸ĩà¹Ģà¸Ĭ":3971,"à¸ĩà¸ģà¸£à¸°":3972,"à¸ĭà¸Ńà¸Łà¸ķ":3973,"à¸Ńà¸Ĺà¸²à¸ĩ":3974,"à¹Ĥà¸£à¸ĩà¸ĩà¸²à¸Ļ":3975,"44":3976,"à¹Ģà¸«à¸¡à¸²à¸°à¸ģ":3977,"à¸ŀà¹Ģà¸Ķà¸Ĺ":3978,"à¸²à¸ģà¸İà¸§":3979,"39":3980,"à¸Ľà¸£à¸°à¸Ķ":3981,"à¸ĭà¸²à¸ģ":3982,"@@":3983,"Ġà¹ĥà¸Ļà¸£à¸²à¸Ħà¸²":3984,"à¸¢à¸Ļà¸Īà¸ļ":3985,"à¹Ĥà¸ªà¸Ķ":3986,"à¸Ļà¸ķà¸£à¸²à¸¢":3987,"à¸°à¸Ľ":3988,"à¹ģà¸Ľà¸£":3989,"Ġà¹Ģà¸¥à¸¢à¸ķ":3990,"à¸Īà¸Ĺ":3991,"à¸²à¸Ĺà¸£":3992,"à¹Ĥà¸ķà¹Ģà¸ģ":3993,"à¸¡à¸²à¸Ńà¸¢":3994,"à¸²à¸§à¸Ħ":3995,"à¸²à¸Ļà¸¢":3996,"à¹Ģà¸£à¸²à¸ŀ":3997,"Ġ2558":3998,"à¸Ľà¸ª":3999,"à¸²à¹Ģà¸£à¸²à¸Īà¸°":4000,"à¸Ķà¹Ģà¸Ĺà¸Ńà¸¡":4001,"à¸Ļà¸°à¸§":4002,"à¸Ķà¸²à¸£":4003,"à¸Ĺà¸°à¹Ģà¸¥à¸²à¸°à¸ģ":4004,"à¸§à¹ģà¸Ĺ":4005,"à¹Ģà¸£à¸²à¸Ī":4006,"à¸Ļà¹Ģà¸ģà¸¡à¸ª":4007,"à¸ĩà¹Ģà¸Ĺà¸ŀà¸¯":4008,"uper":4009,"ool":4010,"Ġ//":4011,"Ġdr":4012,"Ġà¹Ĥà¸Ħ":4013,"à¸ļà¸«à¸¥":4014,"à¸Ļà¹Ħà¸Ľà¸Ĺ":4015,"à¸ŀà¸²à¸ĵ":4016,"à¸Ńà¹ģà¸Ħ":4017,"à¹Ģà¸¢à¸Ńà¸£à¸¡":4018,"à¸²à¹Ĥà¸ŀ":4019,"à¸ļà¸ĩà¸²à¸Ļ":4020,"Ġà¸«à¸¢":4021,"à¸¨à¸²à¸ªà¸Ļà¸²":4022,"Ġà¹Ĥà¸Ĭ":4023,"Ġà¸Ħà¸°à¹ģà¸Ļà¸Ļ":4024,"à¸Ńà¸ªà¹Ģà¸ķà¸£":4025,"à¸ģà¸²à¸£à¹Ģà¸Ľ":4026,"Ġgb":4027,"à¸Īà¸°à¸«":4028,"à¸²à¸¢à¸Ī":4029,"à¹ĥà¸Īà¸Ķ":4030,"à¸Īà¸Ńà¸Ķà¸£à¸ĸ":4031,"Ġà¸£à¸°à¸¢à¸°":4032,"à¸²à¸¢à¸ļ":4033,"Ġte":4034,"ance":4035,"à¸Ļà¹Ģà¸§":4036,"à¸Ńà¸ªà¸²à¸£":4037,"à¸Ńà¸Ľà¸¥":4038,"à¸¡à¹Ģà¸¡":4039,"à¸£à¸Ńà¸ĩà¹Ģà¸Ĺ":4040,"Ġ36":4041,"à¹ģà¸¥à¸°à¸Ļ":4042,"à¸Ĭà¸²à¸§à¸ŀ":4043,"à¸ģà¸£à¸°à¸Ĺà¸£à¸§à¸ĩ":4044,"à¹Ĥà¸ĩ":4045,"à¸Ķà¸ģà¸¥":4046,"à¸ģà¸£à¸¡":4047,"à¸¥à¸°à¸Ħà¸Ļ":4048,"less":4049,"Ġà¸¨à¸£":4050,"à¸Ħà¸§à¸²à¸¡à¸ªà¸²à¸¡à¸²à¸£à¸ĸ":4051,"à¸²à¸«à¸¢":4052,"cm":4053,"à¸Ńà¸ļà¸Ń":4054,"à¸¡à¸łà¸²à¸ŀ":4055,"Ġone":4056,"Ġà¹Ģà¸£à¸²à¸¢":4057,"à¸²à¸Ļà¹ĥà¸«":4058,"Ġà¹Ģà¸ŀà¸£à¸²à¸°à¸ĸ":4059,"à¸²à¸Ľà¸ģà¸ķ":4060,"Ġ400":4061,"à¸£à¸²à¸¢à¹Ģà¸Ķ":4062,"à¸£à¸²à¸ĩà¸§":4063,"à¹Ģà¸ŀà¸£à¸²à¸°à¹Ħà¸¡":4064,"à¹Ĥà¸ŀà¸ģ":4065,"à¹Ħà¸Ľà¸Ńà¸¢":4066,"à¹Ĥà¸Ļà¸¡":4067,"à¸Ļà¹Ģà¸ģà¸¡":4068,"à¸£à¸²à¸©":4069,"à¸ªà¸°à¸ªà¸¡":4070,"à¸²à¸¢à¹Ħà¸¡":4071,"à¸¢à¹Ħà¸Ķ":4072,"br":4073,"à¸Ńà¸Ļà¸Ĭ":4074,"à¸ļà¹Ģà¸¥à¸¢":4075,"à¸Ħà¸Ĭ":4076,"à¸ķà¸²à¸¡à¸Ļ":4077,"Ġ%":4078,"à¸²à¸¡à¸²à¸Ń":4079,"à¸§à¹ĥà¸Ļ":4080,"ost":4081,"à¸įà¸«à¸²à¸Ńà¸°à¹Ħà¸£":4082,"à¹ģà¸ļà¸ļà¹Ħà¸«à¸Ļ":4083,"à¸Ńà¹Ħà¸§":4084,"^^":4085,"à¹Ħà¸ŀ":4086,"Ġà¸ªà¸Ńà¸ļà¸ĸà¸²à¸¡":4087,"à¸Ńà¸Ļà¹Ģà¸£à¸²":4088,"à¹ĥà¸Īà¸Ĺ":4089,"à¸²à¸¡à¸²à¸ģà¹Ĩ":4090,"à¸²à¸Ļà¸°à¸Ħà¸£":4091,"à¸ķà¸ļà¸Ńà¸¥à¸ķ":4092,"tt":4093,"à¸Ħà¸§à¸²à¸¡à¸«à¸¡à¸²à¸¢":4094,"à¸¥à¸Ķà¸¥à¸ĩ":4095,"à¸ķà¸Ń":4096,"à¸¢à¸§à¸Ĺà¸°à¹Ģà¸¥":4097,"Ġà¸£à¸ļà¸ģà¸§à¸Ļà¸ľ":4098,"à¸Ńà¸ĩà¸ªà¸²à¸§":4099,"Ġà¸Ńà¸Ļ":4100,"à¸ļà¹Ģà¸Ļ":4101,"à¸ĵà¸¡":4102,"à¸Ĥà¸Ńà¸ĩà¸¡":4103,"à¸Ħà¸ģ":4104,"à¸²à¸«à¸Ńà¸¡":4105,"à¸ªà¸²à¸¢à¸ķ":4106,"à¸Ńà¸Ļà¸ĭ":4107,"à¸«à¸¥à¸Ńà¸ģ":4108,"à¸ĩà¹ĥà¸«à¸¡":4109,"à¸¢à¸Ļà¸¡":4110,"à¸ģà¸ģà¸²à¸£":4111,"à¹ģà¸ľà¸¥":4112,"à¸ģà¸İà¸«à¸¡à¸²à¸¢à¸Ĭà¸²à¸§à¸ļ":4113,"à¸¨à¸²à¸ªà¸Ļà¸²à¸ŀ":4114,"à¸²à¸«à¸¡à¸Ń":4115,"à¸ģà¸Ĺà¸£à¸Ńà¸Ļ":4116,"icro":4117,"à¸ģà¸©à¸£":4118,"à¸ĩà¹Ģà¸§à¸¥":4119,"à¸Ńà¸ĩà¸Ńà¸°à¹Ħà¸£":4120,"à¸Ńà¸«à¸£":4121,"à¸Łà¹Ģà¸Ł":4122,"ake":4123,"à¸ĩà¸Ŀ":4124,"à¸ļà¸«à¸£":4125,"Ġà¹ĥà¸Ħà¸£à¸£":4126,"à¸§à¸¢à¸Ī":4127,"à¸Īà¸²à¸Ħ":4128,"à¸§à¸ļà¸£":4129,"58":4130,"to":4131,"à¸Ļà¹ĥà¸Ħà¸£":4132,"à¸Ńà¸ģà¸£à¸°à¸Ĺ":4133,"à¸¡à¹Ģà¸£":4134,"à¸¡à¸²à¸ŀ":4135,"77":4136,"à¸²à¸Īà¸°à¸ĭ":4137,"à¸Ļà¸²à¸ĩà¹Ģà¸Ńà¸ģ":4138,"à¸¡à¸²à¸ģà¸Ļ":4139,"à¸ªà¸²à¸Ļ":4140,"Ġà¸Ľà¸£à¸°à¸ģà¸Ńà¸ļ":4141,"Ġcre":4142,"à¸īà¸²à¸¢":4143,"à¸¤à¸©à¸ł":4144,"à¸£à¸ĸà¹Ĥà¸Ķà¸¢à¸ªà¸²à¸£":4145,"à¹Į,\"":4146,"à¸Ļà¹ĥà¸Īà¸§":4147,"à¸ļà¸¡à¸²à¸Ĺ":4148,"Ġà¸¢à¸Ńà¸Ķ":4149,"à¸Ķà¸ĩà¸²à¸Ļ":4150,"Ġà¸łà¸²à¸¢à¹ĥà¸Ļ":4151,"à¸²à¸ĩà¸ĸ":4152,"Ġà¸ĺà¸Ļà¸²à¸Ħà¸²à¸£":4153,"ase":4154,"à¸Ħà¸§à¸²à¸¡à¸ľ":4155,"à¹Ī...":4156,"à¸Ĥà¸Ńà¸ĩà¸ŀ":4157,"ror":4158,"à¸Ļà¹Ħà¸«à¸Ļà¸Ķ":4159,"à¸²à¸Ļà¹Ģà¸¡":4160,"à¸Ļà¸ªà¸¡":4161,"Ġà¹ģà¸ļà¸ļà¹Ħà¸¡":4162,"à¸Ľà¸£à¸°à¸¡à¸²à¸ĵà¸§":4163,"à¸Ľà¸£à¸°à¸ĺà¸²à¸Ļ":4164,"à¸Ļà¹ģà¸£à¸ĩ":4165,"hotmail":4166,"à¸§à¹Ģà¸¥à¸¢":4167,"à¹Ģà¸Ļà¸Ńà¸°":4168,"Ġà¹Ĥà¸Ħà¸£":4169,"à¸Ļà¸łà¸²à¸ŀ":4170,"Ġhe":4171,"à¸Ńà¸¢à¸²à¸ģà¹Ģà¸Ľ":4172,"à¹Ģà¸¡à¸£":4173,"à¸Ķà¹ĥà¸«à¸¡":4174,"à¸ĺà¸¢à¸¡":4175,"à¸Ķà¹Ħà¸Ł":4176,"à¸¨à¸Ī":4177,"à¸ĩà¸Ńà¸°à¹Ħà¸£":4178,"?\"":4179,"à¸ĩà¸Īà¸£":4180,"à¸§à¹Ģà¸¥à¸Ĥ":4181,"à¸¡à¸ģà¸¥":4182,"à¸§à¸¢à¸Ń":4183,"à¸ģà¹Ģà¸ģà¸Ńà¸£":4184,"à¹Ģà¸«à¸£à¸Ńà¸Ħà¸£":4185,"Ġà¸«à¸¡à¸Ķ":4186,"à¸ľà¸¡à¸¢":4187,"à¸Ļà¹ģà¸Ĺ":4188,"à¸¡à¹Ģà¸¥à¸¢":4189,"Ġà¹Ģà¸£à¸²à¸§":4190,"à¸¢à¸Ļà¹Ħà¸Ķ":4191,"à¸Ńà¸Ļà¹Ĩà¸Ĺ":4192,"à¹Ħà¸Ľà¹Ħà¸«à¸Ļ":4193,"à¸Ĭà¸Ńà¸ļà¸Ĺ":4194,"Ġà¸ľà¸¡à¹Ģà¸Ľ":4195,"à¸Ļà¸Ľà¸£à¸°à¸Ī":4196,"à¸Īà¸ŀà¸£à¸°":4197,"à¸²à¸ĩà¸ŀ":4198,"à¸²à¸ĩà¸Ļà¸Ńà¸ģ":4199,"Ġipad":4200,"Ġthailand":4201,"Ġcard":4202,"Ġman":4203,"à¸²à¸¢à¹ĥà¸«":4204,"Ġà¸Īà¸°à¹Ħà¸¡":4205,"à¸Ļà¸ķà¸ģ":4206,"à¸¢à¸§à¸Ķ":4207,"âĻ":4208,"à¸ĵà¹Ħà¸¡":4209,"à¸Ĺà¸²à¸ĩà¸Ķ":4210,"à¸²à¸ĩà¹ģà¸Ķà¸Ļ":4211,"à¸ķà¹Ģà¸Ļà¸ª":4212,"à¸ģà¸«à¸¥à¸²à¸¢":4213,"56":4214,"Ġ2014":4215,"à¸ĩà¹Ģà¸ªà¸£":4216,"à¸ģà¹ģà¸ªà¸Ķ":4217,"vi":4218,"à¸§à¸Ķà¹Ģà¸£":4219,"à¸ļà¸²à¸ĩà¸Ńà¸¢":4220,"à¸¡à¸²à¸ļà¸Ńà¸ģ":4221,"à¸Ńà¸¢à¸Ī":4222,"à¸Ļà¹Ģà¸«à¸ķ":4223,"à¸ģà¹Ģà¸ķà¸°":4224,"Ġ!!!":4225,"à¸§à¸ĩà¸§":4226,"Ġed":4227,"à¹Ģà¸Ŀ":4228,"à¸²à¸Īà¸°à¹ĥà¸«":4229,"à¹Ĥà¸Ķà¸¢à¹Ģà¸īà¸ŀà¸²à¸°":4230,"à¸Ńà¸ªà¸ĩà¸ª":4231,"à¸²à¸ĩà¸²à¸Ļà¸ģ":4232,"à¹Ĥà¸Ĭà¸Ħà¸Ķ":4233,"à¸Ļà¹Ģà¸«":4234,"Ġà¹Ħà¸Ł":4235,"57":4236,"à¸Ńà¹Ħà¸£":4237,"ld":4238,"à¹Ħà¸ķà¸£":4239,"à¸ķà¸Ńà¸¢":4240,"ĠĠĠĠĠĠĠ":4241,"à¸¨à¸§à¸ģà¸£à¸£à¸¡":4242,"à¸Ńà¸Ļà¹ģà¸ģ":4243,"Ġtv":4244,"à¸¡à¸²à¸ĺ":4245,"à¸®à¸°":4246,"Ġà¸ªà¸¡à¸²à¸Ĭ":4247,"Ġà¹Ģà¸ķà¸£":4248,"à¸ĩà¹Ģà¸£à¸²":4249,"Ġtw":4250,"à¹ĥà¸Ļà¹Ģà¸§":4251,"Ġà¸Īà¸Ļà¸ģà¸£à¸°à¸Ĺ":4252,"à¸ĩà¸ļà¸Ľà¸£à¸°à¸¡à¸²à¸ĵ":4253,"à¸ļà¸§à¸Ļ":4254,"Ġà¹Ħà¸«à¸Ļ":4255,"à¸§à¸ģà¸ģ":4256,"à¸§à¸Ļà¹Ĩ":4257,"à¸²à¸Ļà¸§à¸Ļà¸¡à¸²à¸ģ":4258,"à¹Ģà¸Ńà¸²à¹Ģà¸ĩ":4259,"à¸ļà¸Ńà¸ģà¹Ģà¸¥":4260,"à¸¢à¸Ļà¸Ķ":4261,"à¸ģà¸ľà¸¡":4262,"à¸§à¸Ļà¸ļ":4263,"à¸Ļà¹Ģà¸§à¸¥à¸²":4264,"à¸Ńà¸¢à¸Ħà¸°":4265,"à¹Ħà¸ĭà¸ª":4266,"ade":4267,"air":4268,"à¸¢à¸¢à¸¢":4269,"à¸Ńà¸Ļà¸Ħà¸Ļà¸Ļ":4270,"à¸Ľà¸£à¸²à¸ģà¸ı":4271,"à¹ĥà¸Ļà¸ģà¸²à¸£à¸Ĺ":4272,"à¸²à¸ļà¸²à¸Ĺ":4273,"à¸ĩà¸«à¸²à¸Ħà¸¡":4274,"à¸Īà¸°à¹Ģà¸Ķ":4275,"Ġà¸£à¸ŀ":4276,"à¸¢à¸§à¸į":4277,"à¸ªà¸²à¹Ģà¸«à¸ķ":4278,"à¸Ńà¸°à¸Ħà¸°":4279,"37":4280,"Ġà¹Ģà¸«à¸¡à¸²à¸°":4281,"à¸§à¸²à¸Ķ":4282,"ich":4283,"à¸§à¸ĩà¸ģ":4284,"à¸§à¹Ģà¸ª":4285,"à¸²à¸Ļà¹Ħà¸«à¸Ļ":4286,"à¸£à¸²à¸¢à¸ģà¸²à¸£à¹Ĥà¸Ĺà¸£à¸Ĺ":4287,"à¸ķà¸¡":4288,"à¸¤à¸¨à¸Ī":4289,"à¸Ľà¸Ĭ":4290,"à¸²à¸łà¸²à¸ŀ":4291,"à¸ĩà¸Ļà¸°":4292,"pt":4293,"à¸Ļà¸¢à¸²à¸¢à¸Ļ":4294,"à¹ĥà¸Ļà¸¡":4295,"à¸ķà¸²à¸¡à¸£":4296,"à¸ĩà¸ªà¸²à¸¡à¸²à¸£à¸ĸ":4297,"à¹Į\"\"":4298,"à¹Ģà¸¥à¸¢à¸Ħà¸°":4299,"à¸§à¹Ģà¸£à¸²à¸°":4300,"à¸Ķà¹Ģà¸¡":4301,"à¹ģà¸¢à¸°":4302,"à¸įà¸ģ":4303,"à¸ĩà¹Ģà¸£à¸²à¸ģ":4304,"à¸ģà¹Ģà¸£à¸²":4305,"à¸Ńà¸¢à¹Ħà¸Ľ":4306,"à¸ŀà¸Ńà¸Īà¸°à¸¡":4307,"ara":4308,"à¸ªà¸ķà¸²à¸£":4309,"à¸Ħà¸¥à¸Ńà¸Ķ":4310,"à¸Ļà¸Ľà¸¥":4311,"Ġà¹Ģà¸ŀà¸£à¸²à¸°à¸Ħ":4312,"her":4313,"à¹ģà¸ŀà¸¥":4314,"à¹Ĥà¸Ńà¸ģà¸²à¸ªà¹Ħà¸Ķ":4315,"à¹Ī\",":4316,"à¸²à¸Ļà¹ĥà¸Ķ":4317,"à¸µ.":4318,"à¸Ķà¸«à¸¡à¸²à¸¢":4319,"à¸Ĥà¸¢":4320,"à¸²à¸¢à¸Ĺà¸Ńà¸Ķ":4321,"à¸²à¸Ļà¹Ģà¸£à¸²":4322,"à¸ŀà¸ļà¸§":4323,"à¸ĵà¸£":4324,"à¸Ĥà¸¢à¸²à¸¢":4325,"à¸Ļà¸ļà¸£":4326,"Ġà¸ģà¸¥à¸²à¸¢à¹Ģà¸Ľ":4327,"Ġcol":4328,"su":4329,"à¸Ńà¸ģà¸ĭ":4330,"à¸Ķà¹Ģà¸«à¸ķ":4331,"à¸Īà¸§":4332,"à¸Ķà¸Ńà¸Ńà¸ģ":4333,"hurt":4334,"à¸¡à¸²à¸Ľà¸£à¸°":4335,"à¸Ľà¸£à¸°à¸ģà¸²à¸£":4336,"à¸¡à¹Ģà¸¥":4337,"à¸Ĥà¸²à¸¢à¸Ĥà¸Ńà¸ĩ":4338,"à¸§à¸ĩà¸Ľ":4339,"à¸¹à¹Ĭ":4340,"à¸Ļà¸Ļà¸Ļà¸Ļ":4341,"Ġà¹Ĥà¸ķ":4342,"à¸Ńà¹ĥà¸Ī":4343,"¸º":4344,"no":4345,"46":4346,"à¸ıà¸«à¸¡à¸²à¸¢":4347,"à¸²à¸Ĭà¸Ļ":4348,"à¸Ķà¹Ģà¸ĩ":4349,"à¸Ħà¸§à¸²à¸¡à¹Ģà¸Ĭ":4350,"à¸§à¹ģà¸¥à¸°":4351,"Ġà¸ŀà¸Ńà¹Ģà¸£":4352,"à¹ĥà¸Ħà¸£à¹Ģà¸Ľ":4353,"à¹Ģà¸Īà¸²à¸°":4354,"à¸§à¹ģà¸Ĺà¸Ļ":4355,"à¸įà¸«à¸²à¹Ģà¸£":4356,"à¸ĩà¸Īà¸°à¹Ģà¸Ľ":4357,"port":4358,"¸¿":4359,"Ġà¸Ľà¸£à¸²à¸ģà¸ıà¸§":4360,"à¸Ħà¸Ńà¸¢":4361,"à¸¿":4362,"à¸£à¸²à¸¨":4363,"à¸ļà¸ªà¸¡":4364,"Ġbag":4365,"à¸ģà¸«à¸¡":4366,"à¸§à¸Ļà¸Ń":4367,"à¸Ĥà¸Ńà¸Ńà¸Ļ":4368,"row":4369,"use":4370,"à¸²à¸¢à¸Ĥ":4371,"à¸º":4372,"à¸§à¸Ķà¸¥":4373,"à¸Ńà¸ĩà¹ģà¸ķ":4374,"à¸²à¸Īà¸Ń":4375,"Ġà¸¡à¸²à¸ģà¸ģà¸§":4376,"à¸ļà¹Ģà¸ģ":4377,"Ġà¸ľà¸į":4378,"à¸Īà¸°à¸ģ":4379,"à¸¢à¸ĩà¹ģà¸ķ":4380,"à¸Ńà¸¢à¸²à¸ģà¸ĸà¸²à¸¡":4381,"42":4382,"Ġyoutube":4383,"dress":4384,"à¸¢à¸ĩà¸£à¸²à¸¢":4385,"à¸²à¸Ļà¹Ģà¸Ĥ":4386,"à¸Ĵà¸Ļà¸²à¸ģà¸²à¸£":4387,"à¸²à¸ĩà¸«à¸¥":4388,"Ġlove":4389,"à¸ĩà¸«à¸§à¸°":4390,"à¸Ńà¸ģà¸Ļ":4391,"à¸ļà¸¡à¸²à¸Ħ":4392,"à¸£à¸«":4393,"à¸Ļà¹ģà¸Ļà¸§":4394,"à¸Ńà¸¢à¹ĥà¸Ī":4395,"à¸²à¸¡à¸²à¸Ķ":4396,"à¸«à¸¡à¸²à¸¢à¸Ħà¸§à¸²à¸¡à¸§":4397,"à¸ĩà¹Ģà¸Ļ":4398,"hz":4399,"à¸¥à¸ĩà¸ª":4400,"à¸Ħà¸Ļà¸Ĥ":4401,"à¸ĸà¸Ńà¸Ķ":4402,"à¸²à¸Ļà¸Ĥà¸Ńà¸ĩ":4403,"Ġmc":4404,"Ġwww":4405,"à¸¢à¸Ļà¸ļ":4406,"à¸§à¸ĩà¸ķ":4407,"Ġ2560":4408,"Ġ2559":4409,"à¹ĥà¸Ļà¸ģà¸¥":4410,"à¹Ģà¹Ģà¸Ħ":4411,"Ġà¸Ħà¸ĵà¸°":4412,"à¸ªà¸£à¸£à¸Ħ":4413,"à¸²à¸ªà¸ĩà¸ª":4414,"à¸Ļà¹Ģà¸ĭ":4415,"eed":4416,"Ġà¹Ģà¸«à¸Ļ":4417,"Ġmb":4418,"à¸ĩà¸Ńà¸²à¸¢":4419,"à¸²à¹Ħà¸Ľà¹ģà¸¥":4420,"Ġoff":4421,"à¸ĸà¸Ļ":4422,"à¸Ńà¸¢à¸§":4423,"à¸Ńà¸ļà¸£":4424,"à¸§à¸¢à¸Ĭ":4425,"à¸Ńà¹Ģà¸Ń":4426,"à¸«à¸²à¸¢à¹ĥà¸Ī":4427,"Ġà¸ģà¸°":4428,"Ġà¸¡à¸«à¸²à¸§":4429,"à¸Ńà¸Ļà¹Ħà¸«à¸§":4430,"à¸²à¸¢à¹ĥà¸ķ":4431,"à¸²à¸¡à¸²à¸£":4432,"Ġà¹Ĥà¸£à¸ĩà¹Ģà¸£":4433,"Ġà¸£à¸£":4434,"à¸Ĥà¸Ļà¸¡":4435,"à¸ķà¹Ĥà¸Ļà¸¡":4436,"à¸ķà¸²à¸¥":4437,"à¸²à¸ĩà¸Ľ":4438,"à¹ĥà¸Ļà¸Ľà¸£à¸°à¹Ģà¸Ĺà¸¨":4439,"à¸ŀà¸¢à¸²à¸ģà¸£à¸ļ":4440,"à¸²à¹ĥà¸«à¸į":4441,"à¹ģà¸Ľà¸¥à¸ģ":4442,"Ġà¸ªà¸°à¹Ĥà¸ŀà¸ģ":4443,"à¸¥à¸Ķà¸Ħà¸§à¸²à¸¡à¸Ń":4444,"lication":4445,"Ġ350":4446,"à¸²à¸¯":4447,"à¸ĩà¹Ģà¸ļ":4448,"à¸įà¸«à¸²à¸Ħ":4449,"à¸ĵà¸«":4450,"à¸Ļà¹Ħà¸Ľà¸ģ":4451,"à¸§à¹Ģà¸«à¸¡":4452,"à¸Ńà¸ĩà¸ģà¸ĩ":4453,"à¸ļà¸Ħà¸§à¸²à¸¡à¸£":4454,"à¹Ħà¸ĭà¸Ķ":4455,"à¸¡à¸«à¸²à¸Ļà¸Ħà¸£":4456,"à¸Ļà¹Ģà¸¥à¸¢à¸Ħ":4457,"Ġ55555":4458,"Ġà¹ģà¸¥à¸°à¸Ķ":4459,"dr":4460,"à¸ĩà¹Ĥà¸ķ":4461,"Ġà¸Ĥà¸²à¸¢à¹ģà¸¥":4462,"own":4463,"à¸Ļà¹Ħà¸Ľà¹ģà¸¥":4464,"à¸ĵà¸ªà¸¡à¸ļ":4465,"Ġà¸¡à¸ģà¸£à¸²à¸Ħà¸¡":4466,"à¸¢à¸§à¸Ĭ":4467,"à¸§à¸ģà¸§":4468,"à¸Ļà¸²à¸¢à¸Ļ":4469,"à¸Ļà¸Ńà¸ģà¸Īà¸²à¸ģ":4470,"à¸²à¸Ħà¸Ļà¸Ń":4471,"à¸ķà¸ªà¸²à¸«":4472,"à¸ĩà¸Ħà¸²à¸£":4473,"ob":4474,"à¹Ģà¹Ģà¸¡":4475,"Ġcity":4476,"Ġsony":4477,"à¸ªà¸²à¸¡à¸²à¸£à¸ĸà¹ĥà¸Ĭ":4478,"à¸ļà¸ŀà¸§à¸ģ":4479,"à¸£à¸²à¸©à¸İ":4480,"à¸²à¸ĩà¸«":4481,"à¸ķà¸Ķ":4482,"fi":4483,"à¸Ļà¸Ħà¸Ļà¸Ļ":4484,"à¸Ķà¹ģà¸ļà¸ļà¸Ļ":4485,"à¸²à¸ĩà¹Ħà¸£à¸Ħà¸£":4486,"à¸²à¸ģà¸£à¸°":4487,"à¹Ħà¸Ľà¸Ī":4488,"à¸²à¸Ńà¸²à¸¢":4489,"Ġà¸Ľà¸£à¸°à¸Ī":4490,"à¹ģà¸ģà¸°":4491,"à¸Ļà¸Ľà¸£à¸°à¸¡à¸²à¸ĵ":4492,"à¸ģà¸¥à¸²à¸ĩà¸§":4493,"à¹Ĥà¸ī":4494,"à¸Ħà¸Ļà¹Ħà¸Ĺà¸¢à¹ĥà¸Ļ":4495,"à¹ģà¸¥à¸°à¸Ń":4496,"à¸²à¸Ļà¸ģà¸²à¸£":4497,"Ġdis":4498,"à¸¡à¸ĸ":4499,"à¸²à¹Ĥà¸Ĺà¸£":4500,"Ġapplication":4501,"ush":4502,"à¸Īà¸°à¸¥":4503,"à¸²à¸¢à¸Īà¸²à¸ģ":4504,"à¹Ħà¸Ľà¹ĥà¸«":4505,"Ġà¹Ħà¸Ľà¸Ĺ":4506,"à¸ĩà¹ģà¸Ħ":4507,"Ġ.....":4508,"à¸²à¸£à¸ĵà¸°":4509,"à¸Ħà¸Ļà¹Ħà¸«à¸Ļ":4510,"Ġà¸ļà¸¥":4511,"à¸ľà¸¡à¸Ńà¸¢":4512,"Ġhot":4513,"900":4514,"à¸ļà¹Ģà¸¡":4515,"à¸«à¸²à¸ĭ":4516,"à¸²à¸Ħà¸§à¸²à¸¡à¸ªà¸°à¸Ńà¸²à¸Ķ":4517,"Ġq":4518,"à¸§à¸¢à¸¡":4519,"à¸°à¹ģà¸ķ":4520,"à¸²à¸Ļà¹Ģà¸Ķ":4521,"yota":4522,"Ġà¸Ĥà¸Ńà¸ļ":4523,"à¹Ģà¸¥à¸¢à¸ģ":4524,"à¸Ńà¸ģà¸Ń":4525,"Ġmac":4526,"à¹ĥà¸Ļà¸Ĥ":4527,"à¸°à¹Ģà¸£":4528,"Ġsuper":4529,"à¸Ļà¸¡à¸²à¸Ĺ":4530,"Ġà¹ģà¸ªà¸Ļ":4531,"à¸Ńà¹Ģà¸ŀà¸¥à¸ĩ":4532,"à¸§à¸¢à¹Ħà¸Ķ":4533,"à¸Ńà¸ĩà¸ģà¸²à¸£à¹ĥà¸«":4534,"ep":4535,"à¸²à¸ĩà¸²à¸Ļà¸Ńà¸¢":4536,"à¸Ĺà¸§":4537,"Ġor":4538,"à¸´)":4539,"à¸Ńà¸ĩà¹Ģà¸Ń":4540,"à¸Ńà¸¢à¸¥":4541,"à¸įà¹ģà¸Ī":4542,"à¸ļà¸Ńà¸£":4543,"à¸¢à¸§à¸ļ":4544,"à¸Ļà¹Ĥà¸Ķà¸¢":4545,"à¸§à¸Ļà¸ª":4546,"à¸ģà¸²à¸£à¸Ĭ":4547,"à¸ĩà¹Ĩà¸ģ":4548,"à¸°à¹Ħà¸¡":4549,"à¸Ńà¸²à¸§":4550,"à¸Ńà¸¢à¸Ĥ":4551,"Ġfr":4552,"à¸ļà¸«à¸¡":4553,"à¸§à¸¢à¸£":4554,"à¸¢à¸Ļà¹Ħà¸¡":4555,"Ġ120":4556,"à¸¡à¸²à¹Ģà¸ģ":4557,"Ġà¹ĥà¸Ļà¸Ĥà¸ĵà¸°à¸Ĺ":4558,"à¸²à¸§à¸«à¸Ļ":4559,"Ġà¹Ģà¸£à¸²à¸ŀ":4560,"à¸Ľà¸£à¸°à¸¡à¸²à¸Ļ":4561,"à¸Ńà¸ĩà¸Ĭà¸²à¸¢":4562,"à¹ĥà¸Ļà¸¢":4563,"iy":4564,"à¸²à¸ļà¸¥":4565,"âĢĵ":4566,"à¸²à¸Ńà¸°à¹Ħà¸£à¹Ħà¸¡":4567,"à¸Ńà¹Ģà¸ķ":4568,"à¸§à¸¢à¹Ģà¸£":4569,"à¸²à¹Ģà¸£à¸²à¹Ģà¸Ľ":4570,"à¸²à¹Ģà¸ĺ":4571,"à¸²à¸Ļà¸Ľ":4572,"à¹Ħà¸«à¸Ļà¹Ħà¸Ķ":4573,"à¸¤à¸«":4574,"à¸ªà¸Ńà¸Ļ":4575,"Ġmar":4576,"à¸ķà¸²à¸¡à¸Ľà¸ģà¸ķ":4577,"ear":4578,"à¹Į\"":4579,"à¸ĩà¸¥à¸°":4580,"à¸Ľà¸łà¸²à¸ŀ":4581,"à¸ĺà¸¢":4582,"à¸²à¸¢à¸Ĭ":4583,"ame":4584,"à¹Ģà¸Ĥà¸²à¹Ħà¸Ľ":4585,"Ġà¹Ĥà¸ĭ":4586,"à¸²à¸ĩà¸²à¸Ļà¸ķ":4587,"à¸Ĥà¸Ńà¸ĸà¸²à¸¡":4588,"à¸¢à¸Ķà¸¡à¸²à¸ģ":4589,"à¸Ńà¸¢à¹Ģà¸Ľ":4590,"à¸Ńà¸¢à¸²à¸ģà¹Ģà¸£":4591,"à¸¤à¸©à¸łà¸²à¸Ħà¸¡":4592,"à¸²à¸Īà¸°à¹ĥà¸Ĭ":4593,"à¸Ńà¸ĩà¹ĥà¸ª":4594,"à¸ĩà¹Ħà¸ĩà¹ĥà¸«":4595,"Ġà¸Ħà¸£à¸²à¸§à¸Ļ":4596,"à¸Īà¸°à¹Ģà¸Ľà¸¥":4597,"à¸¢à¸¨":4598,"47":4599,"à¸ģà¸Ĺà¸²à¸¢":4600,"Ġà¸ļà¸²à¸Ĺà¸Ħ":4601,"à¸¢à¸ĩà¸ķ":4602,"à¸£à¸ļà¸ģà¸§à¸Ļà¸ªà¸Ńà¸ļà¸ĸà¸²à¸¡":4603,".......":4604,"à¸Ħà¸ª":4605,"à¸²à¹Ģà¸£à¸²à¸¡":4606,"à¸¢à¹Ĩ":4607,"à¸Ĥà¸²à¸¢à¸Ĺ":4608,"ys":4609,"à¸ļà¸Ħà¸£à¸Ńà¸ļà¸Ħà¸£":4610,"Ġep":4611,"Ġà¹ĥà¸Ħà¸£à¸Ĺ":4612,"à¸£à¸²à¸©à¸İà¸£":4613,"à¸²à¹Ģà¸«à¸¥":4614,"à¸ªà¸§à¸¢à¹Ĩ":4615,"31":4616,"Ġà¹Ģà¸£à¸²à¹Ħà¸Ķ":4617,"Ġcr":4618,"Ġche":4619,"à¸§à¸¡à¸¡":4620,"à¸§à¸¡à¸Ĺ":4621,"à¸ĩà¸Īà¸°à¹Ħà¸Ķ":4622,"à¹Ģà¸¢à¸²à¸§":4623,"Ġà¸£à¸ļà¸ģà¸§à¸Ļà¸Ķ":4624,"à¸ŀà¸ļà¸ģ":4625,"à¸£à¸ĸà¸Ĺ":4626,"à¸Ħà¸ķ":4627,"à¸Ķà¸«à¸ĩ":4628,"Ġonline":4629,"à¸¸à¹ĭ":4630,"à¹ģà¸Ĺà¸ļà¹Ħà¸¡":4631,"Ġà¹ĥà¸Ļà¸Ĺ":4632,"à¸Ĵà¸Ļà¸ĺà¸£à¸£à¸¡":4633,"à¹Ģà¸ļà¸²à¹Ĩ":4634,"à¸ļà¸²à¸ĩà¸Ħà¸£":4635,"Ġà¸Ħà¸²à¸Ķ":4636,"à¸Ńà¸Ļà¸ģà¸§":4637,"à¸ģà¸²à¸¢à¸Ļ":4638,"à¸Ľà¸£à¸°à¹Ģà¸Ĺà¸¨à¸Ń":4639,"à¸²à¸ĵà¸²à¸Ī":4640,"à¹ĥà¸Ļà¸«à¸Ļ":4641,"à¸ĩà¸²à¸Ļà¸ģ":4642,"à¹ģà¸£à¸ģà¸Ĥà¸Ńà¸ĩ":4643,"à¸Ńà¸¢à¸Ļà¸°à¸Ħ":4644,"à¸Ńà¸ĩà¸Ńà¸Ńà¸ģ":4645,"Ġaf":4646,"à¸Ńà¸ģà¸ª":4647,"bl":4648,"à¸Ńà¸ķà¸Ńà¸Ļ":4649,"à¸²à¸£à¸ģ":4650,"à¸Ńà¸¢à¸²à¸ģà¹Ħà¸Ľ":4651,"à¸Ńà¸°à¹Ħà¸£à¸Ħà¸£":4652,"à¸ģà¹Ģà¸ĩ":4653,"à¹Ĥà¸ģà¸«":4654,"à¸Ńà¹Ģà¸£à¸²à¸ģ":4655,"à¹Ģà¸Ħà¸¢à¸Ķ":4656,"à¸ªà¸Ĭà¸²à¸ķ":4657,"à¸§à¸ĩà¸ª":4658,"à¸Ļà¸£à¸°à¸¢à¸°":4659,"Ġà¹Ħà¸Ľà¸ģ":4660,"à¸ģà¹Ģà¸¡":4661,"ian":4662,"Ġplus":4663,"à¸§à¸Ļà¸Ħ":4664,"à¸§à¸Ļà¸°à¸Ħà¸°":4665,"à¸²à¸ĩà¹Ħà¸Ķ":4666,"à¸Ļà¹Ħà¸Ľà¸Ķ":4667,"à¸²à¸Ļà¸Ĺà¸²à¸ĩ":4668,"à¸ĵà¸¡à¸²à¸ģ":4669,"à¸ªà¸ļà¸²à¸¢à¹ĥà¸Ī":4670,"à¹ģà¸ļà¸ĩà¸Ħ":4671,"à¸²à¹ģà¸Ļ":4672,"Ġplay":4673,"à¹Ĥà¸¥à¹Ģà¸¡à¸ķà¸£":4674,"à¹ģà¸¥à¸°à¸ĭ":4675,"à¸ªà¹Ģà¸ķà¸Ńà¸£":4676,"à¸¹à¹ĭ":4677,"Ġà¸ģà¸¡":4678,"à¸¡à¸Ńà¸ĩà¸§":4679,"Ġ2013":4680,"à¸§à¹Ĥà¸¥à¸ģ":4681,"à¹Ĥà¸ļà¸£à¸²à¸ĵ":4682,"à¸«à¸²à¸Ħ":4683,"à¸Ńà¸¡à¹ģà¸ĭ":4684,"à¸²à¸ĩà¸«à¸£":4685,"Ġà¸Īà¸Ļà¸§":4686,"à¹Ģà¸ĭà¸¥":4687,"à¸¡à¸¡à¸²à¸ģ":4688,"à¸ĩà¹Ģà¸Ĺà¸ŀà¸¡à¸«à¸²à¸Ļà¸Ħà¸£":4689,"à¸Ńà¸Ħà¸Ļà¸Ĺ":4690,"à¸ģà¸²à¸£à¸¢":4691,"à¹Ģà¸£à¸²à¹Ģà¸Ĥ":4692,"Ġà¸£à¸ļà¸ģà¸§à¸Ļà¸Ĭ":4693,"à¹ĥà¸Ļà¸£à¸°à¸Ķ":4694,"à¸Ńà¸Ńà¸²à¸Ī":4695,"à¹Ģà¸Łà¸Ńà¸£":4696,"à¸Ĭà¸Ńà¸ļà¸ģ":4697,"à¸Ķà¹Ģà¸ķ":4698,"à¸²à¸Īà¸°à¹Ģà¸¥":4699,"à¸ļà¸ģà¸²à¸£à¸Ĺ":4700,"à¸Ļà¸¡à¸²à¹Ħà¸Ķ":4701,"à¸²à¸ªà¸£":4702,"à¸ªà¸£à¸£à¸ŀ":4703,"à¸Ħà¸²à¸£":4704,"Ġà¹Ģà¸Ńà¸ĩ":4705,"Ġà¸ĸà¸Ļà¸Ļ":4706,"Ġshop":4707,"à¸Ķà¹ģà¸ļà¸ļ":4708,"à¸°à¹Ĩ":4709,"Ġà¸ĸà¸²à¸¡à¸§":4710,"à¸Ļà¹ģà¸Łà¸Ļà¸ģ":4711,"à¸Ļà¸²à¸¡à¸ļ":4712,"Ġà¸§à¸ĩ":4713,"ĠĠĠĠĠĠĠĠĠĠĠĠĠĠĠĠĠĠĠĠĠĠĠĠĠĠĠĠĠĠĠĠ":4714,"à¸¢à¸ĩà¹Ħà¸¡":4715,"à¸Ħà¸§à¸²à¸¡à¸Ī":4716,"à¹Ĥà¸Ľà¸£à¸Ķ":4717,"Ġà¹ĥà¸Ļà¸ª":4718,"à¸Ńà¸ĩà¸ªà¸²à¸¡":4719,"Ġà¸ģà¸²à¸ĩà¹Ģà¸ģ":4720,"à¸ĩà¸ĩà¸²à¸Ļà¸ģ":4721,"à¸Ļà¸¡à¸²à¸§":4722,"à¹ģà¸Ńà¸Ľ":4723,"à¸ķà¸¥":4724,"à¸Ĥà¸Ńà¸ĩà¸¥":4725,"Ġà¹Ģà¸£à¸²à¸Ļ":4726,"à¸§à¸¢à¸Ļà¸°à¸Ħ":4727,"Ġ34":4728,"à¸Ĥà¸Ńà¸ĩà¸Ń":4729,"à¸ķà¹Ģà¸ķà¸Ńà¸£":4730,"à¸ĩà¹ĥà¸ª":4731,"à¸Ńà¸ĩà¹ģà¸¥à¸°":4732,"à¸Ńà¸ĩà¸Īà¸£":4733,"ode":4734,"à¸£à¸£à¸Ħ":4735,"vice":4736,"à¸²à¹Ħà¸Ľà¸ª":4737,"Ġà¹Ģà¸ŀà¸£à¸²à¸°à¹Ģà¸Ľ":4738,"à¸Ńà¸¡à¸Ķ":4739,"89":4740,"à¸ģà¸¡à¸²":4741,"à¸²à¹Ģà¸£à¸²à¸Ĺ":4742,"à¸ģà¹Ħà¸§":4743,"à¸Ĥà¸Ńà¸§":4744,"à¸ķà¸ļà¸Ńà¸¥à¸Ń":4745,"à¸«à¸²à¸£à¸Ī":4746,"che":4747,"à¸¢à¸Ļà¹ģà¸¥":4748,"à¸²à¸«à¸¡à¸Ķ":4749,"à¸ģà¸Ħà¸Ļà¸Ļ":4750,"à¸²à¸¢à¸ģà¸²à¸£":4751,"à¸Ńà¹Ģà¸¥à¸¢à¸Ħ":4752,"à¸§à¹Ģà¸Ńà¸ĩà¸§":4753,"à¸¢à¸ļà¹Ĩ":4754,"à¸Ļà¹ģà¸«":4755,"à¸Ļà¹Ģà¸Ľà¸¥":4756,"à¸Ńà¸¢à¸Ń":4757,"à¹Ģà¸ģà¸ĵà¸ĳ":4758,"à¸Ļà¹ģà¸Ķà¸Ķ":4759,"Ġ----":4760,"à¸§à¸Ļà¸ģ":4761,"avel":4762,"à¸¢à¹Ģà¸Ķ":4763,"Ġ2016":4764,"à¸£à¸ĸà¹Ħà¸Łà¸Ł":4765,"Ġ45":4766,"Ġà¹Ģà¸¢à¸Ńà¸°":4767,"à¸Ļà¸Ĥà¸Ńà¸ĩà¸ķ":4768,"à¸¢à¸Ļà¹ĥà¸«":4769,"Ġà¸ľà¸Ĭ":4770,"à¸²à¸¡à¸²à¹ĥà¸Ĭ":4771,"Ġà¸¡à¸²à¸ķ":4772,"Ġapple":4773,"à¸Ļà¸¡à¸²à¸ģà¸ģà¸§":4774,"à¸ļà¹Ģà¸ļ":4775,"à¸¡à¸²à¸ģà¸ģ":4776,"à¸²à¸«à¸į":4777,"à¸²à¹Ģà¸Ĥà¸²":4778,"Ġà¹Ģà¸¨":4779,"à¹Ģà¸Ĥà¸²à¹Ģà¸Ľ":4780,"à¸ŀà¸¤à¸ķ":4781,"à¸²à¸ĩà¸Ħà¸§à¸²à¸¡":4782,"à¸²à¸ĩà¸Ħà¸Ļ":4783,"Ġcar":4784,"orld":4785,"à¸Ļà¸Ħà¸Ļà¸Ķ":4786,"à¸²à¹Ģà¸ªà¸Ļà¸Ń":4787,"à¸¥à¸Ľà¸°":4788,"à¹Ĥà¸Ńà¸¥":4789,"à¸¥à¹Ģà¸¥":4790,"ory":4791,"à¸§à¸ľà¸¡à¸ģ":4792,"Ġsy":4793,"Ġso":4794,"à¸²à¸Ħà¸Ļà¸Ļ":4795,"Ġà¸¥à¸°à¸Ħà¸£":4796,"à¸²à¸Ķà¹Ģà¸Ī":4797,"à¸²à¸§à¸Ń":4798,"à¸¢à¸ĩà¸Ļ":4799,"à¸Ķà¸«à¸¥":4800,"Ġres":4801,"à¸Ńà¸ĩà¹Ħà¸§":4802,"à¸ĩà¸ĩà¸ĩà¸ĩ":4803,"à¸Ļà¸Ħà¸§à¸²à¸¡à¸£":4804,"à¸Ńà¸Ļà¹Ģà¸Ħ":4805,"à¸¡à¸«à¸£":4806,"à¸ķà¹Ħà¸¡":4807,"à¹ģà¸ªà¸ĩ":4808,"à¸¡à¸²à¸ļà¸Ńà¸ģà¸§":4809,"à¸Ļà¸ªà¸²à¸¢":4810,"à¸¢à¸Ļà¸Ī":4811,"à¸²à¹ģà¸£":4812,"à¸²à¸§à¸ĸ":4813,"à¸ªà¸ļ":4814,"------------------------------------------------":4815,"Ġà¹Ĥà¸Ĺà¸£à¸¨":4816,"à¸ģà¹Ĩà¸Ĺ":4817,"à¸ķà¹Ħà¸Ķ":4818,"à¸²à¸ģà¸²à¸£à¸Ĺ":4819,"à¹ģà¸ĸà¸§à¸Ļ":4820,"à¹Ħà¸Ĥà¸¡":4821,"à¸ĸà¸²à¸ļ":4822,"à¸ªà¸§à¸¢à¸ĩà¸²à¸¡":4823,"à¹Ħà¸Ľà¸£à¸©à¸ĵ":4824,"à¸ĵà¸¢":4825,"à¸Ńà¸ªà¹Ģà¸ķà¸£à¹Ģà¸¥":4826,"à¸²à¸ĩà¸«à¸²à¸ģ":4827,"Ġtop":4828,"Ġcanon":4829,"ier":4830,"à¸²à¸Ĭà¸Ļà¸°":4831,"à¹Ħà¸Ľà¸Ĭ":4832,"Ġà¸£à¸²à¸Ħà¸²à¹Ħà¸¡":4833,"à¸£à¸Ńà¸ļà¸Ĥ":4834,"à¸²à¸ĩà¸ĭ":4835,"à¸ĩà¹ģà¸£à¸ģà¸Ĺ":4836,"vo":4837,"à¹Ģà¸Ĥà¸²à¸Īà¸°":4838,"à¸Ļà¸ļà¸Ļ":4839,"à¹Ģà¸Ĥà¸²à¸£":4840,"à¸²à¸ĩà¹Ħà¸«à¸¡":4841,"800":4842,"à¸Ķà¸Īà¸°":4843,"Ġà¹ģà¸¥à¸°à¸§":4844,"ph":4845,"à¸ķà¸ªà¸²à¸«à¸ģà¸£à¸£à¸¡":4846,"Ġà¹Ģà¸¡à¸©à¸²à¸¢à¸Ļ":4847,"+++":4848,"à¸²à¸ĩà¹ģà¸ķ":4849,"à¸Ńà¸Ļà¸«":4850,"bec":4851,"à¸Īà¸²à¸ģà¸Ļ":4852,"à¸¤à¸ģà¸©":4853,"à¸įà¸«à¸²à¸Ļ":4854,"à¸°à¹Ģà¸ŀ":4855,"Ġ>>>":4856,"à¸²à¸ĺà¸£à¸£à¸¡à¹Ģà¸Ļ":4857,"Ġà¸łà¸²à¸©":4858,"à¸ĩà¸Ľà¸¥":4859,"Ġpower":4860,"à¸Ńà¸¢à¸¢":4861,"à¸Ļà¸«à¸¥à¸²à¸¢":4862,"à¸§à¹ģà¸¡":4863,"Ġà¸¡à¸²à¸Ĺ":4864,"ll":4865,"à¸Ńà¸ĩà¹Ģà¸ĩ":4866,"à¸ģà¹ĥà¸Ĭ":4867,"à¹Ģà¸Ħà¸¢à¹Ģà¸Īà¸Ń":4868,"à¸§à¹ĥà¸«à¸¡":4869,"à¸ķà¸¥à¸Ńà¸Ķà¹Ģà¸§à¸¥à¸²":4870,"Ġinternet":4871,"à¹ĥà¸Īà¸¡à¸²à¸ģ":4872,"à¸²à¹Ģà¸¢":4873,"land":4874,"à¸Ļà¸¥à¸°à¸Ħà¸£":4875,"à¹Ĥà¸Ħà¸ķà¸£":4876,"Ġmir":4877,"à¸¢à¸§à¸ª":4878,"à¸¢à¸Ļà¸«à¸Ļ":4879,"à¹Ħà¸«à¸Ļà¸Ħà¸°":4880,"à¹ī\"":4881,"Ġà¹Ħà¸Ľà¸Ķ":4882,"ada":4883,"Ġam":4884,"ãĤ":4885,"à¸§à¹Ģà¸Ĺ":4886,"à¹Ģà¸£à¸²à¹ĥà¸Ĭ":4887,"400":4888,"à¸Īà¸ª":4889,"Ġà¸Ľà¸£à¸°à¹Ģà¸Ķ":4890,"à¸²à¸£à¸²à¸Ĭà¸ģà¸²à¸£":4891,"à¸¥à¸°à¸Ĺ":4892,"à¸Ħà¸§à¸²à¸¡à¸Ļ":4893,"à¸Ńà¸ĩà¹ģà¸ģ":4894,"à¹ģà¸ļà¸ļà¸§":4895,"à¸ķà¸ĭ":4896,"à¸ªà¸²à¸§à¹Ĩ":4897,"à¸²à¹Ģà¸ĺà¸Ń":4898,"Ġà¹ģà¸¥à¸°à¸ŀ":4899,"Ġmini":4900,"à¸ķà¸Ĭ":4901,"ocial":4902,"à¸ĩà¸ļà¸Ńà¸ģ":4903,"à¸Ńà¸£à¸²à¸Ħ":4904,"à¹ī,\"":4905,"Ġandroid":4906,".\"":4907,"à¸ļà¹ģà¸¥à¸°":4908,"à¸Ķà¸Ĥà¸²à¸Ķ":4909,"à¸ģà¸£à¸°à¸ļà¸°":4910,"pop":4911,"à¹Ħà¸Ĺà¸¢à¸Ĺ":4912,"à¸Ĭà¸¡à¸Ľ":4913,"à¸ķà¸Ńà¸ļà¸ģà¸¥":4914,"à¸Ķà¸ľà¸¡":4915,"à¸Ńà¸¢à¸²à¸ģà¹Ģà¸¥":4916,"à¹ģà¸Ńà¸Ļ":4917,"à¸Ńà¹Ħà¸Ľà¸Ļ":4918,"ml":4919,"à¸ģà¸²à¸£à¸Īà¸£à¸²à¸Īà¸£":4920,"à¸ģà¹Ģà¸Ĭ":4921,"Ġà¹ĥà¸Ļà¹Ģà¸¡":4922,"honda":4923,"à¸²à¸ĩà¹ģà¸ľ":4924,"à¸²à¸ĩà¹Ģà¸ķ":4925,"à¸Ļà¸łà¸²à¸©":4926,"Ġà¹ģà¸¥à¸°à¸Ĭ":4927,"à¸Ńà¸ĩà¸«à¸£":4928,"à¸Ńà¸¢à¸²à¸ģà¸Ķ":4929,"à¸Ķà¸£à¸²à¸¡":4930,"à¸Ńà¸Ļà¹Ģà¸ŀ":4931,"Ġà¸ŀà¸Ńà¸ĸ":4932,"à¸§à¸²":4933,"à¸Ńà¸¢à¸Ļà¸°":4934,"à¸²à¸ĩà¸łà¸²à¸ŀ":4935,"à¸Ļà¸¡à¸²à¸ģà¹Ĩ":4936,"à¸Ķà¸¥à¸ĩ":4937,"Ġà¸Ľà¸£à¸°à¸ķ":4938,"à¸Ńà¸¡à¸Ļ":4939,"à¸²à¸¢à¸Ļà¸Ńà¸ģ":4940,"att":4941,"à¸£à¸²à¸Ħà¸²à¹Ħà¸¡":4942,"à¸«à¸¥à¸²à¸¢à¹Ĩà¸Ħà¸Ļ":4943,"à¸Ĳà¸Ńà¹Ģà¸¡à¸£":4944,"à¸²à¸¡à¸ģ":4945,"Ġnik":4946,"à¸¡à¹Ģà¸Ĺ":4947,"à¸ķà¹ĥà¸Ļà¸ķ":4948,"à¸Ńà¸¢à¸²à¸ģà¸Ħ":4949,"Ġà¸Ńà¸¢à¸²à¸ģà¸Ĺà¸£à¸²à¸ļ":4950,"Ġà¸ªà¸ĸà¸²à¸Ļà¸Ĺ":4951,"à¹Ģà¸Ĥà¸²à¸§":4952,"Ġà¹Ĥà¸£à¸ĩà¹ģà¸£":4953,"à¸Ńà¸Ńà¸Ļ":4954,"Ġ1000":4955,"à¹Ģà¸Ħà¸¡":4956,"à¸ŀà¸Ńà¸Ĺà¸£à¸²à¸ļ":4957,"à¸§à¸¢à¹Ĩ":4958,"ann":4959,"à¸Ĥà¸Ńà¸ĩà¹ĥà¸«à¸¡":4960,"à¸²à¹Ģà¸ģà¸¥":4961,"à¸¢à¸Ńà¸ĩ":4962,"à¸ĭà¸Ńà¸¢":4963,"à¸Ķà¹Ģà¸«à¸¡":4964,"à¸²à¸Ľà¸£à¸°à¹Ģà¸Ĺà¸¨":4965,"à¸²à¹ģà¸Łà¸Ļ":4966,"Ġà¸£à¸²à¸Ħà¸²à¹Ģà¸ķ":4967,"tc":4968,"à¸ģà¹Ģà¸Ħà¸£":4969,"icros":4970,"à¸ŀà¸¡":4971,"à¹ĳ":4972,"à¸£à¸²à¸Ħà¸²à¸ĸ":4973,"box":4974,"Ġsw":4975,"à¸Ļà¸ªà¸Ļ":4976,"à¸Ļà¸²à¸¢à¸«à¸Ļ":4977,"à¸Ńà¸Ľà¸Ľ":4978,"à¸ļà¹Ģà¸Ĭ":4979,"Ġà¸«à¸į":4980,"à¸²à¸ĩà¹Ħà¸«à¸¡à¸Ħà¸£":4981,"à¸ĩà¸©":4982,"book":4983,"à¸²à¸Ĭà¸²à¸ķ":4984,"à¸Ķà¸Īà¸£":4985,"Ġfa":4986,"à¸ģà¸Īà¸£":4987,"à¸ĩà¸ģà¸£à¸²à¸Ļà¸ķ":4988,"ãĥ":4989,"Ġ----------------":4990,"Ġ199":4991,"à¸Ļà¸Ĺà¸²à¸ĩà¸Īà¸²à¸ģ":4992,"Ġ2015":4993,"à¸Ħà¸ĩà¸Īà¸°":4994,"à¸²à¸Ļà¸«":4995,"Ġà¹Ģà¸ģà¸£":4996,"à¸Ĺà¸Ĭ":4997,"à¹Ģà¸§à¸¥à¸²à¹Ħà¸Ľ":4998,"ave":4999,"à¸Ĵà¸Ļà¸²":5000,"à¸²à¸Ļà¹Ģà¸ģ":5001,"à¸ĩà¸¢à¸²à¸ģ":5002,"Ġout":5003,"à¸Ļà¹Ģà¸ŀà¸¥à¸ĩ":5004,"ull":5005,"Ġà¹Ģà¸¥à¸¢à¸Ńà¸¢à¸²à¸ģà¸Īà¸°":5006,"à¸Ļà¸ļà¸Ńà¸ģà¸§":5007,"à¹ģà¸£à¸ģà¹Ĩ":5008,"à¸łà¸²à¸§à¸°":5009,"Ġà¸Ħà¸§à¸²à¸¡à¸ª":5010,"à¹Ħà¸Ľà¸¡":5011,"iq":5012,"Ġà¸ªà¸ķ":5013,"à¸ģà¸©à¸²à¸Ĺ":5014,"à¸²à¸¡à¸²à¸ķ":5015,"à¸ĩà¸¥à¸ĩ":5016,"à¸Ħà¸¡":5017,"Ġ........":5018,"à¸Ķà¸Ńà¸ģ":5019,"à¸¡à¸²à¹ģà¸Ĭà¸£":5020,"à¸«à¸Ļà¸²à¸§":5021,"uch":5022,"à¸ģà¸£à¸Ńà¸ģ":5023,"Ġà¸Ħà¸ĩà¹Ħà¸¡":5024,"Ġà¸ķà¸¥à¸²à¸Ķ":5025,"à¸µà¹Ī,":5026,"Ġà¹Ģà¸§à¸¥à¸²à¸Ĺ":5027,"ina":5028,"à¹ĥà¸Ķà¸Ĺ":5029,"Ġà¸Ńà¸²à¸Īà¸Īà¸°":5030,"à¹Ħà¸Ľà¹Ģà¸Ľ":5031,"Ġss":5032,"à¹Ģà¸Ĥà¸²à¸ķ":5033,"Ġbts":5034,"à¸ĩà¸Ļà¸°à¸Ħà¸°":5035,"Ġios":5036,"à¸°à¸£":5037,"à¸ªà¸Ńà¸ļà¸ĸà¸²à¸¡à¸§":5038,"ath":5039,"à¹Ģà¸Ńà¸ĩà¸Ĺ":5040,"à¸£à¸ļà¸ģà¸§à¸Ļà¸Ĭ":5041,"à¸²à¸£à¸²":5042,"Ġ09":5043,"ĠâĻ":5044,"à¸Ļà¸²à¸Ļà¹Ĩ":5045,"Ġsim":5046,"à¸Ħà¸ļ":5047,"Ġà¹ģà¸ĸà¸¡à¸¢":5048,"à¸ĵà¸ľ":5049,"Ġla":5050,"Ġà¹Ģà¸Ĥà¸²à¹Ħà¸¡":5051,"à¸²à¸¢à¸Ľ":5052,"amp":5053,"à¸ģà¸Ĺà¸¡":5054,"à¸Ķà¹Ģà¸ľ":5055,"à¸¢à¹Ģà¸Ľ":5056,"à¸²à¸ĸà¸²à¸¡à¸§":5057,"à¸įà¸«à¸²à¸§":5058,"tv":5059,"à¸§à¸Ħà¸°":5060,"à¸§à¸ļà¸£à¸§à¸¡":5061,"à¸Ľà¸£à¸°à¸ªà¸ļà¸Ħà¸§à¸²à¸¡à¸ª":5062,"Ġà¹ģà¸¥à¸°à¸ģà¸²à¸£":5063,"à¸¡à¸²à¸ľ":5064,"à¸²à¸Ļà¹Ģà¸ŀ":5065,"à¸ļà¸²à¸ĩà¸ª":5066,"à¹ģà¸«à¸¥à¸°à¸Ħà¸£":5067,"pr":5068,"à¸ģà¸Ħà¸Ļà¸¡":5069,"à¸ĩà¸Ĭà¸Ńà¸ļ":5070,"à¸¢à¸§à¸¡":5071,"à¸²à¸Ńà¸Ńà¸ģà¸Īà¸²à¸ģ":5072,"à¸ģà¸Ļà¸°":5073,"à¸²à¸Īà¸°à¹Ģà¸£":5074,"ug":5075,"à¸Ļà¹Ģà¸ªà¸£":5076,"à¸Ńà¸Ļà¸Ļà¸°à¸Ħà¸°":5077,"à¸Ĺà¸£à¸ĩà¸Ī":5078,"à¸Ļà¸ļà¸Ńà¸ģ":5079,"Ġà¸Īà¸°à¸Ķ":5080,"Ġpc":5081,"à¸²à¸ķà¸²":5082,"à¸¥à¸Ńà¸¢":5083,"à¸ļà¸£à¸£à¸Ĺ":5084,"Ġà¸Īà¸°à¹ĥà¸«":5085,"à¸¢à¸«à¸Ļ":5086,"à¸¢à¹ĥà¸Ļ":5087,"à¸ĩà¸ŀà¸£à¸°":5088,"à¸Ļà¸Ħà¸ĩ":5089,"à¸Ļà¸ªà¸²à¸¡à¸²à¸£à¸ĸ":5090,"Ġà¸¢à¸ģà¹Ģà¸§":5091,"à¸²à¸Ĥà¸Ńà¸ĩà¸ģà¸£à¸°à¸Ĺ":5092,"à¸²à¸ĩà¹ĥà¸Ķ":5093,"à¸¥à¸¢à¸ģà¸£à¸£à¸¡":5094,"à¸Ļà¸®":5095,"à¸ĺà¸²à¸ķ":5096,"à¸§à¸ĩà¸Īà¸£":5097,"ited":5098,"à¸ģà¹Ħà¸«à¸¡":5099,"à¹Ģà¸§à¸¥à¸²à¸ģ":5100,"Ġà¸ģà¸£à¸ģ":5101,"Ġig":5102,"à¹ģà¸Łà¸Ļà¹ģà¸¥":5103,"à¸ĩà¸ªà¸²à¸¡":5104,"à¸²à¹ĥà¸ļ":5105,"à¸ĩà¸Ĥà¸²à¸¢":5106,"à¸§à¸ĩà¸ģà¸²à¸£":5107,"à¸Ħà¸Ļà¸ª":5108,"à¸Ńà¸Ľà¸£à¸°à¸¡à¸²à¸ĵ":5109,"à¸ģà¸İ":5110,"à¸Ńà¸¢à¸¥à¸°":5111,"à¸¢à¹ĥà¸«":5112,"à¸²à¸ªà¸²à¸¡":5113,"Ġnetwork":5114,"à¸ľà¸¡à¸Ļ":5115,"à¸²à¸Īà¸°à¸ĸ":5116,"à¸Ķà¸Ńà¸ģà¹Ħà¸¡":5117,"à¹Ģà¸§à¸Ľ":5118,"gmail":5119,"à¸ĩà¹Ħà¸«à¸¡":5120,"Ġà¹Ģà¸Ĥà¸²à¸ļà¸Ńà¸ģà¸§":5121,"à¸ļà¸ľà¸¥":5122,"à¸²à¹Ħà¸Ł":5123,"ason":5124,"ei":5125,"à¹ģà¸Ńà¸Ķà¸¡":5126,"à¸§à¸²à¸¢":5127,"à¸²à¸Ļà¹Ģà¸¥à¸¢":5128,"à¸ľà¸¡à¸Īà¸°":5129,"à¸ģà¸¥à¸ĩà¸Ĺ":5130,"à¸²à¹ģà¸Ĭà¸£":5131,"à¸Īà¸¡":5132,"à¸ģà¸Īà¸²à¸ģ":5133,"ust":5134,"ouch":5135,"à¸ªà¸ĭ":5136,"à¸ĩà¸ªà¸¡":5137,"à¸ªà¹Ħà¸ķà¸¥":5138,"Ġag":5139,"à¸²à¹Ħà¸«à¸¡":5140,"à¸įà¸Ħ":5141,"Ġà¹ģà¸ļà¸ļà¸§":5142,"vel":5143,"Ġ^^\"":5144,"à¸Ļà¹ģà¸ŀ":5145,"à¸Ļà¸£à¸§à¸¡":5146,"à¸Ńà¸Ļà¸Ľ":5147,"à¸²à¸Īà¸°à¹Ģà¸ģ":5148,"à¸ļà¸Ľà¸£à¸°":5149,"à¸«à¸¡à¸Ķà¹Ģà¸¥à¸¢":5150,"uji":5151,"à¸Ĺà¸²à¸ĩà¸£":5152,"à¸ķà¸Ńà¸ļà¸§":5153,"à¸Ļà¸¢à¸²à¸§":5154,"à¸ģà¸²à¸£à¹Ģà¸Ľà¸¥":5155,"79":5156,"à¸ĵà¹Ģà¸Ľ":5157,"à¸²à¹Ħà¸¡à¸¡":5158,"à¸²à¹Ħà¸Ľà¸Ń":5159,"à¸¡à¹ĥà¸Ļ":5160,"à¸Ńà¸Ļà¸«à¸£":5161,"Ġ?,":5162,"à¹Ĥà¸Ńà¸ģà¸²à¸¨":5163,"à¸Ĺà¸£à¸²à¸¢":5164,"à¸Ļà¸ļà¸²à¸Ĺ":5165,"à¸Ķà¹ģà¸Ħ":5166,"Ġà¸Ĥà¸Ńà¸Ń":5167,"à¸£à¸ģà¸£à¸£à¸¡":5168,"à¸«à¸Ńà¸¡":5169,"ign":5170,"à¸Īà¸°à¹Ģà¸«":5171,"à¸´à¹ĭ":5172,"à¸Ħà¸§à¸²à¸¡à¹Ģà¸ª":5173,"Ġà¸ķà¸£à¸§à¸Ī":5174,"à¸§à¸¢à¹Ģà¸«à¸ķ":5175,"à¸Ńà¸ĩà¸¡à¸²à¸ģ":5176,"à¸²à¹Ħà¸Ĺà¸¢":5177,"à¸§à¸Ļà¸°à¸Ħà¸£":5178,"à¸²à¸¡à¹Ģà¸Ļ":5179,"à¹Ħà¸Ńà¸Ķ":5180,"Ġweb":5181,"à¸Ńà¸Īà¸£":5182,"à¹ģà¸Ĺà¸£":5183,"68":5184,"à¸ļà¹Ħà¸Ľà¸Ĺ":5185,"à¹Ģà¸Ħà¸¢à¸ķ":5186,"à¸ģà¸²à¸£à¸ĭ":5187,"à¸§à¸ĩà¹Ģà¸Ķ":5188,"à¸Ńà¸Ļà¹Ģà¸¥":5189,"à¸ļà¹Ģà¸ĺà¸Ń":5190,"à¸Ńà¸Ļà¹ģà¸ķ":5191,"à¸²à¸§à¸¡":5192,"à¹Ħà¸Ľà¹Ģà¸¥":5193,"à¸²à¸Īà¸°à¸ª":5194,"à¸¥à¸Ĭ":5195,"à¹Ģà¹Ģà¸Ļà¸°à¸Ļ":5196,"à¸Ľà¸£à¸°à¹Ģà¸¡":5197,"à¸Ńà¸ļà¸ª":5198,"à¸ļà¹ģà¸Łà¸Ļà¹Ģà¸ģ":5199,"à¸ģà¸²à¸£à¸ķà¸¥à¸²à¸Ķ":5200,"à¹Ĥà¸Ĩà¸©à¸ĵà¸²":5201,"à¸ŀà¸²à¸£":5202,"Ġà¸Ńà¸²à¸£":5203,"à¸Īà¸°à¸Ńà¸Ńà¸ģ":5204,"Ġà¹Ģà¸ĺà¸Ń":5205,"à¸²à¸¡à¸²à¸ģà¸ģà¸§":5206,"à¹Ħà¸Ľà¸ļ":5207,"********************************":5208,"à¸Ļà¸ľà¸¡à¸ģ":5209,"à¸ŀà¸£à¸£à¸ĵ":5210,"à¹Ģà¸£à¸²à¹Ģà¸«":5211,"à¹Ģà¸Ĥà¸²à¹Ħà¸Ķ":5212,"à¹ĥà¸Ħà¸£à¸ģ":5213,"Ġmas":5214,"à¸ģà¹Ģà¸ī":5215,"à¸²à¸Ľà¸£à¸°à¸Ĭ":5216,"à¸Ļà¸¡à¸²à¸Ļ":5217,"à¸Ńà¸Ļà¸¡à¸²à¸ģ":5218,"Ġà¸Ħà¸£à¸Ńà¸ļà¸Ħà¸£":5219,"à¸Ńà¸ĩà¸Ħà¸Ļà¸Ļ":5220,"à¸łà¸£à¸£à¸¢":5221,"à¹Ģà¸§à¸¥à¸²à¹Ģà¸Ķ":5222,"à¸²à¹ģà¸Ī":5223,"à¸§à¹Ģà¸Ńà¸ĩà¸ģ":5224,"ens":5225,"++++++++++++++++++++++++++++++++":5226,"Ġà¸Īà¸°à¸£":5227,"Ġtravel":5228,"à¸Ńà¸Ļà¸Ħà¸Ļ":5229,"Ġà¸īà¸²à¸ģ":5230,"à¹Ģà¸§à¸¥à¸²à¸¡":5231,"à¸ľà¸¡à¸Ī":5232,"Ġà¹Ģà¹Ģà¸¥à¸°":5233,"à¸Ļà¸Īà¸°à¹Ħà¸¡":5234,"à¸Ľà¸¡":5235,"à¸Ńà¸Ħà¸¥":5236,"à¸Ńà¸ģà¸£":5237,"Ġà¸ģà¸ªà¸Ĺ":5238,"à¸Ļà¹Ħà¸ŀà¸£":5239,"à¹ģà¸ļà¸ļà¸ķ":5240,"Ġà¸Ĥà¸§à¸ļ":5241,"icrosoft":5242,"Ġà¸¡à¸Ńà¹Ģà¸ķà¸Ńà¸£":5243,"à¸ĺà¸¢à¸²":5244,"à¸Ńà¸ĩà¸ģà¸²à¸£à¸Ĺ":5245,"à¸ĩà¹ĥà¸Īà¹ĥà¸«":5246,"à¸ĩà¹ģà¸£à¸ĩ":5247,"à¸¡à¹Ģà¸ģ":5248,"à¸²à¸§à¸ªà¸²à¸£":5249,"view":5250,"unt":5251,"ome":5252,"à¸¡à¹ĥà¸«à¸¡":5253,"à¸ĩà¹Ģà¸§":5254,"ult":5255,"Ġtot":5256,"à¸¢à¸§à¸§":5257,"sc":5258,"à¸Ļà¸ªà¸¡à¸²à¸Ĭ":5259,"à¸ģà¸©à¸²à¸ķ":5260,"à¸¡à¸²à¸ķà¸£à¸Ĳà¸²à¸Ļ":5261,"à¸Īà¸Ńà¸¡":5262,"Ġfan":5263,"à¹Ħà¸Ľà¹Ħà¸¡":5264,"à¹Ħà¸ª":5265,"à¸¢à¸§à¸¢":5266,"à¸£à¸²à¸¢à¸Ĭ":5267,"à¹Ģà¸Łà¸ĭ":5268,"à¸£à¸²":5269,"Ġph":5270,"à¸¨à¸ŀ":5271,"_^":5272,"à¸Ļà¸ªà¸²à¸¡":5273,"à¸Ħà¸Ļà¹Ģà¸Ĥ":5274,"aka":5275,"à¸µà¹ī\"":5276,"à¸ªà¸ĸà¸²à¸Ļà¸ģà¸²à¸£à¸ĵ":5277,"à¸ļà¹Ģà¸Ń":5278,"à¸ŀà¸²à¹Ħà¸Ľ":5279,"Ġwal":5280,"Ġà¸ŀà¸¤à¸¨à¸Ī":5281,"à¸ªà¸ĩà¸Ħà¸£à¸²à¸¡":5282,"à¸ĩà¸²à¸Ļà¸Ĥà¸²à¸¢":5283,"à¸²à¸ĩà¹Ģà¸¥à¸¢":5284,"à¸²à¸¡à¸²à¸Ħ":5285,"78":5286,"à¸īà¸°à¸Ļ":5287,"à¸Ļà¸Ħà¸Ļà¹Ħà¸¡":5288,"à¸Ķà¸Ńà¸°à¹Ħà¸£à¸Ĥ":5289,"à¸²à¹ĥà¸Īà¸ģ":5290,"à¸Ńà¸Ħà¸§à¸²à¸¡à¸ª":5291,"à¸ªà¸ĩà¸ªà¸²à¸£":5292,"Ġà¸¡à¸²à¸Īà¸²à¸ģ":5293,"à¹ĥà¸ļà¸«à¸Ļ":5294,"Ġper":5295,"à¸²à¸ĩà¸²à¸Ļà¸Ķ":5296,"à¸ķà¸Ńà¸Ļà¹Ģà¸Ĭ":5297,"ipad":5298,"à¸²à¸¢à¸¢":5299,"à¸Ĥà¸Ńà¸ĩà¸ģ":5300,"à¸¡à¹ģà¸¥à¸°":5301,"Ġall":5302,"à¸ªà¹Ģà¸ķ":5303,"à¸°à¸°":5304,"à¸Ńà¸ļà¸ķ":5305,"à¸²à¸Ļà¸§à¸ĵ":5306,"Ġà¹ģà¸¥à¸°à¹Ģà¸¡":5307,"Ġà¹Ģà¸£à¸²à¸ª":5308,"à¸Ĺà¸¢à¸²à¸Ļ":5309,"à¹ģà¸ĸà¸§à¹Ĩ":5310,"à¸²à¹Ģà¸¢à¸Ńà¸°":5311,"Ġworld":5312,"à¹Ħà¸ŀà¸£":5313,"à¸ĩà¹Ĥà¸Ķà¸¢":5314,"ii":5315,"à¸Ńà¸«à¸²":5316,"à¸§à¸ŀà¸Ń":5317,"Ġà¸ľà¸¡à¸Ļ":5318,"à¸§à¹Ħà¸«à¸Ļà¸Ķ":5319,"Ġà¸ªà¸Ļà¹ĥà¸Īà¸ķ":5320,"pe":5321,"à¹ĥà¸Ļà¸Ī":5322,"à¹Ģà¸£à¸²à¸¥":5323,"à¸²à¸Ļà¹ģà¸¥à¸°":5324,"à¸²à¸Īà¸°à¸Ħ":5325,"Ġà¸ĩà¸ļ":5326,"Ġ2017":5327,"à¸ģà¸ĩà¸²à¸Ļà¸Ĺ":5328,"à¸¤à¸©à¸İ":5329,"Ġà¸Ľà¸£à¸²à¸ģà¸İà¸§":5330,"à¸²à¸ĩà¹Ħà¸§":5331,"à¸§à¸ķà¸Ńà¸Ļà¸Ļ":5332,"à¹Ģà¸£à¸²à¸ļ":5333,"à¸«à¸ĩ":5334,"à¸Ľà¸ģà¸Ľ":5335,"à¸ĩà¸£à¸ĸà¸¢à¸Ļà¸ķ":5336,"à¸²à¸¢à¸Ńà¸¢":5337,"à¸Ńà¸²à¸Īà¸Īà¸°à¹Ħà¸¡":5338,"à¸Ńà¹Ģà¸«":5339,"à¸£à¸¢":5340,"à¸Ľà¸ĸ":5341,"à¸ļà¹Ħà¸Ĺà¸¢":5342,"à¸²à¹Ģà¸£à¸²à¸ķ":5343,"à¹ģà¸Ļà¸§à¸Ĺà¸²à¸ĩ":5344,"Ġ38":5345,"Ġ57":5346,"à¹Ħà¸Ńà¹Ĥà¸Łà¸Ļ":5347,"à¸§à¹Ģà¸Ńà¸ĩà¹Ħà¸¡":5348,"à¸¡à¸²à¹Ħà¸¡":5349,"Ġvis":5350,"Ġram":5351,"Ġà¸Ħà¸§à¸£à¸Ĺ":5352,"à¸ļà¸¡à¸²à¹Ģà¸Ľ":5353,"''":5354,"à¸Ńà¸Ńà¸Łà¸Ł":5355,"Ġà¸¡à¸²à¸ĸ":5356,"à¸¤à¸Ĺà¸ĺ":5357,"à¸ļà¹Ģà¸Ĺ":5358,"à¸§à¸Ĥà¸²à¸§":5359,"à¹Ħà¸¥à¸Ħ":5360,"à¸´,":5361,"Ġà¹Ģà¸£à¸²à¹Ģà¸£":5362,"à¸Ĥà¸Ńà¸ĩà¸Ĭ":5363,"à¸ĩà¹Ħà¸«à¸Ļ":5364,"Ġà¹ģà¸¥à¸°à¸ľ":5365,"à¸µà¹ī)":5366,"à¸ĩà¸¨à¸£":5367,"à¸Ķà¸Ľà¸£à¸°à¸ķ":5368,"à¸ģà¸£à¸°à¸Ĭ":5369,"Ġà¸ļà¸£à¸£à¸¢à¸²à¸ģà¸²à¸¨":5370,"à¸ĩà¹Ģà¸ŀà¸£à¸²à¸°":5371,"à¸Ńà¸ĩà¹ģà¸ļà¸ļà¸Ļ":5372,"à¸ļà¹Ģà¸ŀà¸£à¸²à¸°":5373,"à¸Ħà¹Ģà¸ģà¸Ī":5374,"à¹Ģà¸¥à¸¢à¸Ńà¸¢à¸²à¸ģ":5375,"Ġà¸ľà¸¡à¸¢":5376,"Ġ58":5377,"à¹Ģà¸¥à¸¢à¸Ļà¸°à¸Ħà¸£":5378,"ium":5379,"à¸ªà¸ĸà¸²à¸ļ":5380,"à¸²à¸¡à¸Ħ":5381,"Ġà¸Ńà¸²à¸£à¸¡à¸ĵ":5382,"à¸ĩà¹Ģà¸Ľà¸¥":5383,"Ġà¸ŀà¸£à¸°à¹Ģà¸Ńà¸ģ":5384,"à¸Ļà¹Ģà¸Ħà¸¢":5385,"à¸§à¸Ļà¸ľà¸ªà¸¡":5386,"à¸²à¸ĩà¹Ħà¸«à¸¡à¸Ħà¸°":5387,"à¸Ľà¸Ńà¸£":5388,"à¸¢à¹ģà¸¥à¸°":5389,"Ġ600":5390,"à¹ģà¸ļà¸ļà¹Ģà¸Ķ":5391,"ction":5392,"à¸ĵà¸Ļ":5393,"à¸ŀà¸²à¸ģà¸©":5394,"Ġà¸Ķà¸²à¸§":5395,"my":5396,"à¸²à¹Ģà¸£à¸²à¸Ħ":5397,"Ġà¸«à¸²à¸¢":5398,"à¹Ģà¹Ģà¸¥à¸°":5399,"à¸Ńà¸ĩà¹Ģà¸ķà¸£":5400,"Ġà¹ĥà¸Ļà¸ģà¸²à¸£":5401,"à¸Ńà¸Ļà¹Ģà¸Ĺ":5402,"à¸Īà¸°à¸Ń":5403,"à¸§à¸¢à¸Ħà¸°":5404,"à¹Ģà¸Ĺà¸¨à¸ģà¸²à¸¥":5405,"itter":5406,"à¸Ľà¸¥à¸Ńà¸¡":5407,"Ġà¸Ħà¸Ļà¸Ń":5408,"à¸§à¸Ļà¹Ģà¸£":5409,"55555":5410,"inal":5411,"à¸²à¸ĩà¹Ģà¸ŀ":5412,"Ġà¹Ģà¸¨à¸£":5413,"à¸Ńà¸¡à¸£à¸ĸ":5414,"à¸Ļà¸¡à¸²à¸ķ":5415,"à¸§à¸¥à¸°":5416,"Ġà¸ŀà¸Ńà¸Īà¸°à¸¡":5417,"Ġ180":5418,"à¸¢à¸§à¹Ħà¸¡":5419,"à¹ģà¸¥à¸°à¸ªà¸£":5420,"à¹Ģà¸£à¸²à¸Ħà¸§à¸£":5421,"à¸Ħà¸Ńà¸Ļà¹Ģà¸ª":5422,"à¸Ĥà¸Ńà¸ĩà¹Ģà¸Ĥà¸²":5423,"à¸§à¸¢à¸«à¸£":5424,"à¸ľà¸¡à¹Ģà¸£":5425,"Ġà¸Ĥà¸Ńà¹Ĥà¸Ĺà¸©":5426,"gr":5427,"Ġdes":5428,"à¸ģà¸¡à¸²à¸ģà¹Ĩ":5429,"à¸²à¸Ļà¸ļà¸Ļ":5430,"à¸²à¸ģà¸²à¸ģ":5431,"à¸Ļà¹ģà¸Ķ":5432,"à¸ļà¸Ĺà¸ļà¸²à¸Ĺ":5433,"à¸²à¹Ģà¸Ľà¸£":5434,"à¸Ĥà¸²à¸Ķà¸Ĺ":5435,"à¹Ĥà¸Ńà¸ģà¸²à¸ªà¸Ĺ":5436,"Ġà¹Ĥà¸¡à¸ĩ":5437,"à¹Ħà¸Ļà¹Ģà¸ķ":5438,"Ġà¸£à¸°à¸Ķ":5439,"Ġà¸£à¸²à¸¢à¸¥à¸°à¹Ģà¸Ń":5440,"Ġà¸Ľà¸²à¸ģ":5441,"Ġpart":5442,"à¸Ļà¸Īà¸°à¸ķ":5443,"600":5444,"à¸²à¹Ĥà¸Ķ":5445,"à¸ªà¸²à¸£à¸°":5446,"à¸¡à¸²à¸Ļà¸²à¸Ļ":5447,"à¸ĵà¸«à¸ł":5448,"à¸Ńà¸Ļà¹Ģà¸ª":5449,"Ġà¸ªà¸¡à¸¡":5450,"à¹ģà¸£à¸ĩà¸ĩà¸²à¸Ļ":5451,"à¸Ńà¹Ħà¸Ĺà¸¢":5452,"à¸ľà¸¡à¸ª":5453,"à¸Ńà¸ĩà¸¥à¸ĩ":5454,"à¸ļà¹Ģà¸Ľà¸¥":5455,"à¸Ńà¸ĩà¹Ħà¸Ľà¸Ĺ":5456,"Ġà¸īà¸ļ":5457,"à¸ļà¸£à¸¡":5458,"Ġà¸Ľà¸£à¸°à¸¡à¸²à¸ĵà¸Ļ":5459,"à¸§à¸ĩà¸«à¸¥":5460,"à¸²à¹ģà¸ĸ":5461,"à¸£à¸°à¸Ķà¸²à¸©":5462,"Ġà¹Ĥà¸Ķà¸Ļ":5463,"à¹ģà¸«à¸¥à¸°à¸Ħ":5464,"Ġà¹Ĥà¸Ńà¹Ģà¸Ħ":5465,"à¸²à¹ĥà¸Īà¸ľ":5466,"à¸«à¸¥à¸²à¸¢à¸Ńà¸¢":5467,"à¸²à¸¢à¸¥":5468,"à¸¢à¸²à¸ĩ":5469,"à¸£à¸²à¸Ĭà¸ª":5470,"à¸Ļà¸¡à¸²à¸£":5471,"à¸²à¹Ħà¸«à¸¥":5472,"à¸¢à¸Ļà¸Ń":5473,"à¹ģà¸ŀà¸ĩà¸¡à¸²à¸ģ":5474,"à¸§à¸Ĭà¸Ńà¸ļ":5475,"à¸²à¸Īà¸°à¹Ģà¸Ń":5476,"Ġà¹Ģà¸Ķà¸£à¸ª":5477,"à¹Ģà¸ŀà¸¥à¸ĩà¸Ļ":5478,"à¸Ļà¹Ĥà¸¢à¸ļ":5479,"à¹Ģà¸Ńà¸ĩà¸Ħ":5480,"à¸¢à¹Ģà¸ģ":5481,"à¸¢à¸§à¸ł":5482,"??,\"":5483,"à¸Ńà¸ĩà¹Ģà¸ķ":5484,"à¸ģà¹Ģà¸ļ":5485,"igh":5486,"à¹Ģà¸£à¸²à¸ĸ":5487,"à¸ĩà¸£à¸²à¸Ħ":5488,"ence":5489,"à¹ģà¸¥à¸ķ":5490,"Ġ59":5491,"à¸´.":5492,"Ġà¸ŀà¸¤à¸©à¸łà¸²à¸Ħà¸¡":5493,"Ġey":5494,"à¹Ģà¸ŀà¸Ĭà¸£":5495,"à¸Ĭà¸Ĺ":5496,"Ġà¹Ģà¸ģà¸²à¸°":5497,"à¸Ļà¹Ģ":5498,"à¸Ńà¸¡à¹Ģà¸¡":5499,"Ġmr":5500,"Ġexp":5501,"Ġà¸Īà¸°à¹Ħà¸Ľ":5502,"Ġà¸¡à¸Ļ":5503,"à¸¢à¸ĸ":5504,"Ġà¹Ģà¸£à¸²à¹Ħà¸Ľ":5505,"62":5506,"à¹Ĥà¸Īà¸Ĺà¸¢":5507,"à¸ªà¸¡à¸²à¸Ħà¸¡":5508,"Ġmirror":5509,"Ġà¸Īà¸ļ":5510,"à¸ĩà¸Ĥà¸Ļà¸²à¸Ķ":5511,"Ġcpu":5512,"Ġemail":5513,"ical":5514,"à¹Ģà¸ĺà¸Ńà¸£":5515,"ser":5516,"à¸Ļà¸ī":5517,"à¸²à¸ĩà¹Ģà¸Ĥ":5518,"à¹Ģà¸Ńà¸²à¹ģà¸ķ":5519,"inter":5520,"à¸§à¹ĥà¸«à¸į":5521,"à¸ģà¸ªà¸Ļ":5522,"à¹Ģà¸£à¸²à¸Ĥ":5523,"à¸ķà¸²à¸¡à¸¥":5524,"à¹Ģà¸¥à¸¢à¸¡":5525,"à¸Ľà¸£à¸°à¸ªà¸²à¸Ĺ":5526,"enc":5527,"Ġà¸ľà¸¡à¸Ĺ":5528,"Ġwith":5529,"à¸§à¹Ģà¸Ļ":5530,"à¸ģà¹ģà¸¡":5531,"à¸¡à¸ģà¸§":5532,"Ġà¸ģà¸£à¸ģà¸İ":5533,"à¸µ\"\"":5534,"à¸Ļà¸Ħà¸Ļà¸Ń":5535,"à¸²à¸Īà¸°à¹Ģà¸Ĥ":5536,"à¸įà¸¥":5537,"à¹Į(":5538,"à¹Ĥà¸Īà¸¡à¸ķ":5539,"à¸§à¸¢à¸ĩà¸²à¸¡":5540,"à¸Ļà¸ªà¸Ķ":5541,"Ġà¸£à¸²à¸¢à¸ģà¸²à¸£":5542,"à¸°à¹ģà¸¥":5543,"à¹Ĩà¸Ħ":5544,"orm":5545,"à¸ļà¸£à¸²à¸Ħ":5546,"Ġà¹ģà¸§à¸°":5547,"à¸Ńà¸Ļà¹Ģà¸ģ":5548,"à¹Ĥà¸«à¸§à¸ķ":5549,"à¸²à¸Ĥà¸Ńà¸ĩà¸£":5550,"atch":5551,"à¸Ļà¹ģà¸ĸ":5552,"à¸Ļà¹ĥà¸ª":5553,"à¸Ĭà¸į":5554,"à¸Ļà¹Ĩà¸Ĺ":5555,"à¸Ļà¹ģà¸ľ":5556,"da":5557,"à¸§à¸¢à¹Ħà¸¡":5558,"à¸²à¸¥à¸°":5559,"à¸Ļà¸²à¸¨":5560,"à¸ĸà¸²à¸¡à¸ľ":5561,"à¸²à¸Ļà¹Ģà¸Ħ":5562,"Ġà¹ģà¸¥à¸°à¸Ī":5563,"anc":5564,"à¸¢à¸ĩà¸Ĥ":5565,"à¸Ļà¸ģà¸²à¸£à¸Ĺ":5566,"à¸§à¹Ģà¸Ī":5567,"à¸ķà¸ģà¹ĥà¸Ī":5568,"à¸Ńà¸°à¹Ħà¸£à¹Ħà¸¡":5569,"à¸łà¸²à¸£à¸°":5570,"à¸Ļà¸¡à¸²à¹ģà¸¥":5571,"à¸ĩà¸Ľà¸£":5572,"Ġà¸Ĥà¸Ńà¸ĩà¸Ĺ":5573,"à¸Ńà¸ĩà¸¢à¸Ļà¸ķ":5574,"à¸Ńà¸ģà¸«":5575,"con":5576,"Ġà¹Ĥà¸Ķà¸¢à¹ĥà¸Ĭ":5577,"à¸§à¸£à¸£à¸©":5578,"à¸ĩà¸ľà¸¡à¸ģ":5579,"à¸§à¹Ģà¸Ń":5580,"à¸ļà¸£à¸£à¸Ī":5581,"Ġà¸Ħà¸§à¸²à¸¡à¸Ħ":5582,"à¸Ļà¸Īà¸°à¸Ĺ":5583,"à¸ļà¸ļà¸ļà¸ļ":5584,"à¸Ļà¸¢à¸²à¸ģ":5585,"Ġà¸Ħà¸§":5586,"à¸Ļà¹Ħà¸Ľà¹Ģà¸£":5587,"cc":5588,"à¸«à¸¡à¸Ń":5589,"à¸Ļà¸Ĺà¸ļ":5590,"à¸Ħà¸ĩà¸ķ":5591,"ata":5592,"Ġà¹Ģà¸£à¸²à¸Ĭà¸Ńà¸ļ":5593,"à¸Ľà¹Ħà¸¡":5594,"à¸Ľà¸£à¸°à¸ģà¸§":5595,"Ġtime":5596,"à¸ĵà¹Ħà¸Ķ":5597,"Ġà¸£à¸ĸà¸¢à¸Ļà¸ķ":5598,"à¸Ľà¸ģà¸Ħà¸£à¸Ńà¸ĩ":5599,"à¹ĥà¸Ļà¸Ħà¸£":5600,"à¸§à¸ĩà¹Ģà¸ĩ":5601,"à¸Ħà¸Ńà¸¡à¹Ģà¸¡":5602,"à¹Ĥà¸¡à¹Ĥà¸«":5603,"à¸£à¸Ńà¸ĩà¸£":5604,"à¸Ļà¸Ĺà¸²à¸ĩà¸Ĺ":5605,"à¸ļà¸£à¸Ńà¸ĩ":5606,"à¸Ĥà¸Ńà¸ĩà¸ģà¸²à¸£":5607,"à¸Īà¸°à¸ļà¸Ńà¸ģ":5608,"à¸²à¸Īà¸°à¸¢":5609,"à¸Ĭà¸Ńà¸ļà¸Ķ":5610,"ĠâĢĺ":5611,"à¸ľà¸¡à¹Ħà¸Ľ":5612,"à¸ĩà¸§à¸Ķ":5613,"à¹Ī,\"":5614,"à¸Ńà¹ģà¸ģ":5615,"à¹Ħà¸«à¸Ļà¸¡":5616,"Ġblack":5617,"à¸²à¸§à¸¥":5618,"à¸¥à¸Īà¸²à¸ģ":5619,"à¸ĩà¸Ľà¸£à¸°à¹Ģà¸Ĺà¸¨à¹Ħà¸Ĺà¸¢":5620,"à¸¢à¸§à¸Ħà¸£":5621,"à¸Ļà¸¡à¸²à¸Īà¸²à¸ģ":5622,"à¹ģà¸Ķà¸Ķ":5623,"à¸Ĺà¸ĺà¹Ģà¸Ī":5624,"Ġà¹Ĥà¸Ķà¸¢à¸ª":5625,"Ġà¸£à¸²à¸¢à¹Ħà¸Ķ":5626,"à¸°à¸Ĥ":5627,"à¸Ħà¸§à¸²à¸¡à¸Ķ":5628,"à¸¢à¹Ħà¸Ľ":5629,"à¸¡à¸²à¸¡":5630,"à¹Ģà¸Ńà¸ģà¸Ĭà¸Ļ":5631,"à¸Ļà¸Ńà¸Ļà¸§":5632,"Ġmon":5633,"à¸Ľà¸£à¸°à¸ªà¸²à¸Ļ":5634,"Ġà¸£à¸Ń":5635,"opp":5636,"à¸¢à¸«à¸£":5637,"à¹ģà¸Ĺà¸Ļà¸Ĺ":5638,"Ġint":5639,"Ġà¹Ħà¸Ĥ":5640,"à¸Ĳà¸¡":5641,"à¸¥à¸Ńà¸ĩà¸Ĺ":5642,"à¹ģà¸¥à¸°à¸Ī":5643,"à¸Īà¸°à¸§":5644,"à¸Ļà¹Ģà¸Ļà¸Ńà¸£":5645,"à¸²à¸ĩà¸²à¸Ļà¹Ħà¸Ķ":5646,"à¸¢à¸ģà¹Ħà¸Ķ":5647,"Ġà¸ģà¸²à¸£à¹ĥà¸Ĭ":5648,"mac":5649,"à¸Ńà¸¡à¹ģà¸ĭà¸¡à¸ļ":5650,"à¸Ķà¹Ģà¸Ńà¸ĩ":5651,"à¸Ļà¹Ģà¸¥à¸¢à¸Ħà¸£":5652,"à¸²à¸£à¸°à¸ļà¸ļ":5653,"à¸Ļà¸ŀà¸¥":5654,"Ġà¹ģà¸¥à¸°à¹Ģà¸£":5655,"à¸Ńà¸ĩà¹ĥà¸«à¸į":5656,"à¸ģà¸¥à¸ĩ":5657,"à¸²à¸ģà¸£à¸£à¸¡":5658,"à¸²à¸Ĥà¸Ńà¸ĩà¸Ĺ":5659,"der":5660,"à¸²à¹Ģà¸ªà¸£":5661,"à¸ģà¸Ľà¸£à¸°à¸¡à¸²à¸ĵ":5662,"Ġfb":5663,"à¸Ńà¸ĩà¸Ĥà¸Ńà¸Ńà¸ł":5664,"à¸²à¸£à¸§à¸¡":5665,"à¸ľà¸¡à¹Ģà¸Ĥ":5666,"à¹Ģà¸ľà¸¥":5667,"Ġscb":5668,"Ġback":5669,"à¸ŀà¸¢à¸²à¸¢à¸²à¸¡à¸Ĺ":5670,"à¸Ĥà¸Ńà¸ĩà¹Ģà¸Ħ":5671,"Ġà¹Ģà¸¥à¸¢à¸Ńà¸¢à¸²à¸ģà¸£":5672,"à¸²à¸§à¸Ħà¸°":5673,"slr":5674,"à¸Ħà¸ĭ":5675,"les":5676,"à¸¥à¸ĩà¸ķ":5677,"à¸¥à¹Ģà¸ŀ":5678,"à¹Ģà¸«à¸£à¸Ńà¸Ħà¸°":5679,"à¸²à¸¢à¸ľ":5680,"à¹Ĩà¸«à¸Ļ":5681,"Ġà¹Ģà¸£à¸²à¸ªà¸²à¸¡à¸²à¸£à¸ĸ":5682,"à¹Ħà¸¥à¸Ĺ":5683,"à¸Ħà¸Ļà¹ĥà¸«à¸¡":5684,"à¸¢à¸Ħà¸§à¸²à¸¡à¸£":5685,"Ġà¸£à¸Ńà¸ĩà¹Ģà¸Ĺ":5686,"à¸Ļà¸Ńà¸Ńà¸ģà¸¡à¸²":5687,"Ġà¸Ńà¸ĩà¸Ħ":5688,"à¸ŀà¸ķ":5689,"oss":5690,"Ġ56":5691,"à¸ĩà¹Ģà¸§à¸¥à¸²":5692,"à¹Ĩà¸¡":5693,"à¹Į)\",":5694,"85":5695,"à¸¡à¹Ģà¸«à¸¥":5696,"à¹Ģà¸¥à¸¢à¸Ķ":5697,"à¸Ĥà¸Ļà¸²à¸Ķà¹ĥà¸«à¸į":5698,"à¸łà¸²à¸¢à¸Ļà¸Ńà¸ģ":5699,"à¸ģà¹ĥà¸«à¸į":5700,"à¸Ķà¹ģà¸¢":5701,"à¹Ħà¸Ńà¹Ģà¸Ķ":5702,"à¸§à¸¢à¹Ģà¸ķ":5703,"Ġà¹ĥà¸Ļà¸ģà¸£à¸ĵ":5704,"à¸ģà¸©à¸²à¸ª":5705,"à¸ªà¸ĸà¸²à¸Ļà¸°":5706,"à¸ļà¸ªà¸²à¸¡":5707,"uter":5708,"à¸Ľà¹ģà¸¥":5709,"à¸ľà¸¡à¹Ģà¸¥":5710,"~~":5711,"à¸ģà¸£à¹Ħà¸Ĺà¸¢":5712,"à¸Ńà¹Ģà¸¥à¸¢à¸Ħà¸£":5713,"à¸ģà¸©à¸²à¸ģ":5714,"à¸Ļà¹Ĩà¸ģ":5715,"ana":5716,"à¸Ħà¸£à¸£à¸ł":5717,"à¹Ģà¸Ļà¸ķ":5718,"à¸Ĥà¸Ńà¸ĩà¸ļ":5719,"Ġà¸£à¸°à¸ļ":5720,"à¸Ļà¹Ħà¸«à¸¡à¸Ħà¸£":5721,"à¸Ĺà¸ķ":5722,"à¸ŀà¸£à¸°à¸£à¸²à¸¡":5723,"à¹Ĥà¸Ĺà¸£à¸¡à¸²":5724,"Ġps":5725,"\"\"\"\"":5726,"à¸Ńà¸Ļà¹Ĩà¸ŀ":5727,"Ġ::":5728,"à¸²à¹Ĥà¸Ķà¸¢":5729,"Ġ2555":5730,"Ġà¸Ĥà¸²à¸Ķ":5731,"à¹Ģà¸Ĥà¸²à¸¢":5732,"à¹Ĥà¸Ńà¸ĭà¸²à¸ģ":5733,"à¸§à¸§à¸§":5734,"à¸Ľà¸£à¸°à¸«à¸²à¸£":5735,"à¸¢à¹Ģà¸§à¸¥à¸²":5736,"à¸ģà¸£à¸°à¸Ķà¸²à¸©":5737,"Ġà¹Ģà¸¥à¸¢à¸Ĺ":5738,"à¸ģà¹Ģà¸Ī":5739,"Ġà¸«à¸¥à¸²à¸¢à¸Ħà¸Ļ":5740,"à¸ĩà¸¥à¸ĩà¸Ĺà¸°à¹Ģà¸ļ":5741,"à¹Ģà¸Ńà¸ģà¸Ĭ":5742,"ff":5743,"95":5744,"à¸«à¸²à¹Ģà¸ĩ":5745,"shop":5746,"à¹Ĥà¸Ħà¸£à¸ĩà¸ªà¸£":5747,"Ġà¸¨à¸²à¸¥":5748,"à¸Ńà¸ĩà¹Ģà¸«":5749,"à¹Ģà¸Łà¸£":5750,"Ġnikon":5751,"à¸ĸà¸²à¸¡à¸Ħ":5752,"Ġà¸ľà¸¡à¹ĥà¸Ĭ":5753,"men":5754,"à¸¡à¸²à¸Ŀ":5755,"à¸¥à¸§":5756,"à¸Ĥà¸Ńà¸ĩà¸Ī":5757,"Ġstore":5758,"Ġ2000":5759,"à¸Ĥà¸Ńà¸ĩà¸§":5760,"Ġà¹Ģà¸¥à¸Ĥ":5761,"à¸Ńà¸ģà¸Ħ":5762,"Ġà¹Ģà¸£à¸²à¸ģà¸¥":5763,"à¹Ģà¸ŀà¸¨à¸Ĺ":5764,"à¸¡à¹Ģà¸ļ":5765,"Ġà¹Ĥà¸ŀ":5766,"à¸¢à¸ŀ":5767,"à¹Ĥà¸ĺ":5768,"Ġhonda":5769,"Ġà¸ªà¸²à¸§":5770,"à¸²à¹ģà¸ªà¸Ķ":5771,"ga":5772,"à¹Ħà¸Ľà¸ŀ":5773,"à¸Ļà¸Ĺà¸²à¸ĩà¸ģà¸²à¸£":5774,"à¹Ģà¸Ĥà¸²à¸Ķ":5775,"à¸Ļà¹Ħà¸Ľà¸ķà¸²à¸¡":5776,"Ġà¸¥à¸ĩà¸Ĺ":5777,"à¹Ģà¸Ķà¸Ńà¸°":5778,"à¹ģà¸¥à¹ģà¸¥à¸°à¸ĭ":5779,"Ġinst":5780,"à¹Ģà¸Ĺà¸£":5781,"à¸Ĺà¸£à¸ĩ":5782,"à¹Ħà¸Ńà¸Ī":5783,"à¹ģà¸¥à¸°à¸ŀ":5784,"Ġwar":5785,"Ġfib":5786,"ama":5787,"à¸ĩà¸ķà¸Ńà¸Ļ":5788,"à¸²à¸ĩà¸Ħà¸Ļà¸ķ":5789,"à¸ªà¸²à¸ĺà¸²à¸£à¸ĵà¸°":5790,"à¸Ńà¸¨":5791,"ux":5792,"Ġà¸ªà¸¥":5793,"à¸Ńà¸ĩà¸Ļà¸Ńà¸Ļ":5794,"à¸ģà¸£à¸°à¸Ľ":5795,"Ġà¸«à¸¡à¸²à¸¢à¸ĸ":5796,"Ġà¸ķà¸²à¸¡à¸Ĺ":5797,"à¹Ģà¸¥à¸¢à¸Ń":5798,"à¸£à¸²à¸Ħà¸²à¸Ĺ":5799,"Ġbus":5800,"way":5801,"à¸Ńà¸ĩà¹Ħà¸«à¸Ļ":5802,"à¸ķà¸£à¸Ļà¸²à¸¢à¸«à¸Ļ":5803,"à¹Ħà¸Ľà¸Ĥ":5804,"à¸°à¸ĩ":5805,"à¸ªà¸Ĭ":5806,"à¸²à¹Ģà¸ķà¸Ńà¸£":5807,"Ġà¸Ĥà¸Ļà¸¡":5808,"à¸Ńà¸ĩà¹Ģà¸Ī":5809,"à¸¥à¸°à¸§":5810,"à¸«à¸¥à¸²à¸¢à¸Ľ":5811,"Ġà¹ģà¸¥à¸°à¸Ĥ":5812,"à¹ĥà¸Ļà¸¥":5813,"Ġà¸Ńà¸²à¸Īà¸²à¸£à¸¢":5814,"à¸ļà¸ģà¸£à¸°":5815,"à¹Ĥà¸¢à¸ļ":5816,"à¸ĩà¸ļà¸£":5817,"Ġà¸Ļà¸²à¸Ļ":5818,"à¸£à¸ļà¸ģà¸§à¸Ļà¸ľ":5819,"Ġà¹Ģà¸ĺà¸Ńà¸ģ":5820,"à¸ľà¸¥à¸ķ":5821,"à¸Ķà¹Ģà¸ľà¸¢":5822,"à¸«à¸£à¸Ńà¸ģà¸Ħà¸£":5823,"ware":5824,"à¸ĩà¸ŀà¸Ń":5825,"Ġà¸¢à¸Ńà¸¡à¸£":5826,"à¸¥à¸Ńà¸ĩà¸Ķ":5827,"à¸Ļà¹Ģà¸¥à¸¢à¸Ĺ":5828,"Ġà¸£à¸²à¸Ĭ":5829,"à¸«à¸¥à¸²à¸¢à¹Ĩà¸Ńà¸¢":5830,"à¹Ģà¸¥à¸¢à¸ª":5831,"Ġà¸ģà¸Ķ":5832,"à¸Ļà¸ģà¸£":5833,"à¸¢à¸ģà¸ķ":5834,"à¸²à¸ĩà¸ļà¸Ļ":5835,"à¸ķà¸£à¸Ĺ":5836,"à¸²à¸Ľà¸²à¸ģ":5837,"à¸£à¸§à¸¡à¸ģ":5838,"à¸Ļà¸Īà¸°à¹Ħà¸Ķ":5839,"à¸ŀà¸§à¸ģà¸Ħ":5840,"à¹ģà¸¥à¸°à¸§":5841,"Ġcomp":5842,"67":5843,"à¹Ĩà¹Ĩà¹Ĩà¹Ĩà¹Ĩà¹Ĩà¹Ĩà¹Ĩ":5844,"à¸²à¸Ļà¸«à¸£":5845,"à¸Ĺà¸ª":5846,"Ġbig":5847,"Ġcf":5848,"à¸īà¸¥à¸²à¸Ķ":5849,"à¸Ĥà¸Ńà¸ĩà¹Ģà¸£":5850,"à¸²à¸ĩà¹Ĩà¸Ĺ":5851,"Ġav":5852,"Ġà¸Ĺà¸§":5853,"à¸Ĥà¸Ńà¸ļà¸ŀà¸£à¸°à¸Ħ":5854,"à¸Ńà¹Ģà¸ĩ":5855,"à¸ģà¸Ńà¸Ńà¸ģ":5856,"ne":5857,"à¸Ĥà¸Ńà¸ĩà¹Ģà¸¥":5858,"à¸Ļà¸Ľà¸£à¸°à¹Ĥà¸¢à¸Ĭà¸Ļ":5859,"xxx":5860,"à¸§à¸ĩà¹Ģà¸§à¸¥":5861,"à¸ģà¸ĩà¸²à¸Ļà¸ģ":5862,"à¹ģà¸ĸà¸§à¸ļ":5863,"à¸Ńà¸Ļà¸ł":5864,"à¸Ľà¸ĭ":5865,"à¸Ļà¸£à¸°à¸«à¸§":5866,"...\"":5867,"à¸ĩà¹ģà¸Ļ":5868,"à¸ģà¸Ħà¸Ļà¸ģ":5869,"à¹Ħà¸ĭà¸Ļ":5870,"65":5871,"à¸§à¹Ģà¸Ĥà¸²à¸ģ":5872,"Ġà¸ªà¸²à¸Ĥà¸²":5873,"à¸§à¸Īà¸²à¸ģ":5874,"à¸²à¸Ľà¸£à¸°à¸ª":5875,"à¹Ĥà¸Īà¸£":5876,"Ġà¹Ģà¸Ĥà¸²à¸ļà¸Ńà¸ģ":5877,"à¸ļà¸Ļà¸Ĺ":5878,"à¸Ńà¸Ļà¹Ģà¸ĩ":5879,"à¸¡à¹ĥà¸Ī":5880,"à¹Ģà¸ŀà¸£à¸²à¸°à¸ķ":5881,"Ġà¸Īà¸Ļà¸ķà¸Ńà¸Ļà¸Ļ":5882,"à¸Īà¸Ķà¸Ĺà¸°à¹Ģà¸ļ":5883,"à¸ģà¸²à¸£à¹Ģà¸Ĥ":5884,"à¸¢à¸Ĥ":5885,"à¹Ģà¹Ģà¸ģ":5886,"Ġ900":5887,"à¸Ħà¸ĵ":5888,"à¸²à¸Ĥà¸Ļà¸¡":5889,"à¸įà¹Ģà¸ª":5890,"à¸ĩà¸Ļà¸°à¸Ħà¸£":5891,"à¸²à¸§à¸ª":5892,"à¸Ļà¸Ĺà¸²à¸ĩà¸Ķ":5893,"à¸ĩà¹Ĩà¸Ħà¸£":5894,"à¸§à¸Ńà¸¥à¹Ģà¸¥à¸¢":5895,"\"\"\",\"":5896,"à¸¡à¹ģà¸Ĥ":5897,"apan":5898,"à¸²à¹ģà¸ľ":5899,"à¸ŀà¸£à¸£à¸Ħà¸ģà¸²à¸£à¹Ģà¸¡":5900,"à¸²à¸£à¸°à¹Ģà¸ĩ":5901,"à¸Ńà¹Ģà¸§à¸¥":5902,"à¹Ģà¸Ħà¸ª":5903,"à¸²à¸ĸà¸²à¸¡à¸Ħ":5904,"à¸Ħà¹Ģà¸ģà¸Ńà¸£":5905,"à¸Ļà¸Ńà¸°à¹Ħà¸£à¸Ĺ":5906,"Ġasus":5907,"Ġà¸¡à¸²à¸ª":5908,"à¹Ģà¸ģà¸£à¸Ķ":5909,"à¸£à¸²à¸ªà¸²à¸Ĺ":5910,"à¹ģà¸Ŀ":5911,"à¸²à¸£à¸Ńà¸ļ":5912,"Ġà¹Ģà¸£à¸²à¸Ħà¸§à¸£à¸Ĺ":5913,"à¸§à¸ļà¸Ńà¸ģà¸§":5914,"à¸Ļà¹ģà¸¥à¸°à¸ģ":5915,"Ġà¸Ńà¸ĩà¸¨":5916,"Ġgt":5917,"à¸Ľà¹Ģà¸Ķ":5918,"à¸ĩà¹Ħà¸ĩà¸ķ":5919,"à¸Ļà¸Ļà¸²à¸Ļ":5920,"à¸ģà¸¤à¸ķ":5921,"à¸Ńà¸Ńà¸ģà¸ķ":5922,"à¸Ĥà¸Ńà¸ĩà¸«à¸Ļ":5923,"à¸ĩà¸²à¸Ļà¸Ļ":5924,"Ġ><":5925,"à¸Ńà¸ĩà¸ķà¸²à¸¡":5926,"à¸¢à¸Ļà¸ŀ":5927,"à¸Ļà¸°à¸Ĺ":5928,"à¹ģà¸¥à¸°à¹Ģà¸Ľ":5929,"ary":5930,"à¸§à¸Ļà¸£":5931,"Ġ02":5932,"à¸²à¸¢à¸ģà¸¯":5933,"Ġ33":5934,"à¸Ļà¸¡à¸²à¸ģà¸Ĥ":5935,"à¸Ļà¸Ńà¸²à¸¢":5936,"Ġà¹Ģà¸¥à¸¢à¸¡":5937,"Ġdslr":5938,"à¸Ńà¸Ńà¸¢à¸²à¸ģ":5939,"Ġà¹Ĥà¸Ĺ":5940,"Ġfree":5941,"à¹Ģà¸Īà¸Ńà¸Ľ":5942,"à¸§à¸¢à¹Ģà¸¥":5943,"à¸ģà¸²à¸ĩà¹Ģà¸ģ":5944,"Ġmirrorless":5945,"08":5946,"à¸Ńà¸ģà¸Ķ":5947,"Ġà¸Īà¸°à¹ĥà¸Ĭ":5948,"Ġà¹Ģà¸ŀà¸£à¸²à¸°à¸£":5949,"à¸¢à¸§à¹Ħà¸Ķ":5950,"à¹Ģà¸§à¸¢":5951,"à¸Ńà¹Ģà¸£à¸²à¹Ħà¸¡":5952,"à¹Ģà¸ŀà¸£à¸²à¸°à¸Ĺ":5953,"à¹Ĥà¸Ķà¸Ķà¹Ģà¸Ķ":5954,"Ġà¸ŀà¸ļà¸§":5955,"Ġà¸Ĥà¸Ńà¸£":5956,"à¹ĥà¸Ļà¹Ģà¸Ħà¸£":5957,"à¸§à¹Ģà¸Ńà¸ĩà¹Ģà¸Ľ":5958,"à¹ĥà¸Ļà¸ģà¸£":5959,"à¸Ńà¸²à¸«à¸²à¸£à¹Ģà¸ªà¸£":5960,"à¸²à¸Ļà¸ģà¸£à¸°à¸Ĺ":5961,"à¸Ļà¸Ńà¸°à¹Ħà¸£à¸ģ":5962,"à¸ģà¹ĥà¸Ħà¸£":5963,"Ġà¸¡à¸²à¹Ģà¸Ľ":5964,"okia":5965,"à¸Ńà¸ļà¸Ħà¸¥":5966,"à¸Ńà¸ĩà¹ģà¸¡":5967,"à¸Ńà¸¡à¹Ģà¸ĩ":5968,"oh":5969,"à¸ļà¸¡à¸²à¸§":5970,"à¸§à¹ģà¸ļà¸ļ":5971,"à¸ĩà¸ªà¸ĸà¸²à¸Ļ":5972,"à¸¢à¸Ńà¸¡à¹ĥà¸«":5973,"à¸Ĥà¸§à¸Ķ":5974,"à¸Ļà¸ģà¸¥à¸²à¸ĩ":5975,"Ġ???":5976,"Ġà¸Ńà¸Ńà¸ģà¸Īà¸²à¸ģ":5977,"à¸Ńà¸ªà¸²à¸¢":5978,"Ġmark":5979,"à¸Ńà¸Ľà¸£":5980,"à¸ļà¸łà¸²à¸ŀ":5981,"à¸Īà¸ķ":5982,"à¸Ńà¸°à¹Ħà¸£à¸¡à¸²à¸ģ":5983,"Ġlink":5984,"à¹ģà¸Ńà¸¥":5985,"à¹Ĵ":5986,"à¹Ĥà¸ģà¸°":5987,"à¸Ĥà¸Ńà¸ĩà¸Ħà¸Ļ":5988,"à¸Ńà¸²à¸ĵà¸²à¸Ī":5989,"à¸¥à¸²à¸§":5990,"Ġà¸ģà¸£à¸ģà¸İà¸²à¸Ħà¸¡":5991,"à¸²à¸¡à¸²à¸Īà¸²à¸ģ":5992,"à¸Ńà¸°à¹Ħà¸£à¹Ħà¸Ķ":5993,"à¸ļà¸£à¸Ńà¸ļ":5994,"à¹ĥà¸Ļà¸Ńà¸Ļà¸²à¸Ħà¸ķ":5995,"à¸Ľà¸£à¸°à¹Ģà¸Ĺà¸¨à¸Ĺ":5996,"à¸Ĥà¸Ńà¸ĩà¸ļà¸£":5997,"à¸¨à¸§à¸°":5998,"Ġtab":5999,"à¸§à¸¥à¸ĩ":6000,"Ġà¸ģà¸ªà¸Ĺà¸Ĭ":6001,"à¸Ļà¹Ģà¸Ĥà¸²":6002,"Ġà¸Ĭà¸Ļ":6003,"à¸Īà¸°à¸¡à¸²":6004,"à¸¢à¸¡à¸Ĺ":6005,"à¸ĩà¹ģà¸Ĺ":6006,"à¸§à¹Ģà¸Ńà¸ĩà¸Ĺ":6007,"à¸¡à¸²à¸Ľà¸£à¸°à¸¡à¸²à¸ĵ":6008,"à¸Ľà¸£à¸°à¸¡à¸²à¸ĵà¹Ģà¸Ĺ":6009,"à¸²à¸¨à¸²à¸¥":6010,"à¹ģà¸Łà¸Ļà¸Ĺ":6011,"à¸ĵà¸Ľ":6012,"Ġgl":6013,"Ġlum":6014,"Ġà¸ģà¸£à¸¡":6015,"à¸«à¸Ńà¸ŀ":6016,"à¸¥à¸ĭ":6017,"Ġgo":6018,"à¸Ķà¹Ħà¸Ľà¹Ģà¸Ńà¸ĩ":6019,"Ġà¸Ńà¸°":6020,"aut":6021,"à¸Īà¸°à¹Ģà¸ª":6022,"à¸Ĥà¸Ńà¸Ħà¸§à¸²à¸¡à¸Ĭ":6023,"à¹ģà¸Łà¸Ļà¸ķ":6024,"Ġà¸Ļà¸Ńà¸Ļ":6025,"Ġà¸ģà¸²à¸£à¹Ģà¸Ķ":6026,"à¸ģà¸²à¸£à¹ĥà¸«":6027,"à¸¢à¸§à¸Ĭà¸²à¸į":6028,"à¹Ģà¸Ńà¸²à¹ĥà¸Ī":6029,"à¸Ńà¸¡à¹ĥà¸«":6030,"Ġbook":6031,"à¸ģà¹ģà¸¢":6032,"à¸ĩà¸Ĺà¸£":6033,"à¹ĥà¸Ļà¸Ħ":6034,"à¸Ńà¸Ķà¸ģ":6035,"à¹Ĥà¸Ĺà¸£à¹Ģà¸Ĥ":6036,"à¸ľà¸¡à¸Ĭà¸Ńà¸ļ":6037,"Ġ64":6038,"à¸²à¸¢à¸¡à¸²à¸ģ":6039,"à¸ĸà¸²à¸¡à¸Ĺ":6040,"à¸²à¸¢à¹Ĩà¸ģ":6041,"à¸Ľà¹Ħà¸Ķ":6042,"à¸łà¸²à¸ŀà¸ļ":6043,"à¸ģà¸²à¸£à¸Ľ":6044,"à¸ĩà¹Ħà¸ĩà¸Ħ":6045,"ãĢ":6046,"à¸²à¸¡à¸²à¸ª":6047,"ition":6048,"Ġqu":6049,"à¸ļà¸§à¸Ĭ":6050,"ashion":6051,"à¸²à¸ĩà¹Ģà¸¥":6052,"à¸²à¸Ļà¹Ģà¸¥":6053,"à¸Ńà¸ģà¸ļ":6054,"à¸¡à¸Ŀ":6055,"ater":6056,"à¸Ħà¸§à¸²à¸¡à¸Ŀ":6057,"à¸Ĥà¸ģ":6058,"âĢľ":6059,"Ġà¹ģà¸ļà¸ķ":6060,"à¸ģà¸²à¸£à¸¥":6061,"à¸ķà¸¨à¸²à¸ªà¸ķà¸£":6062,"à¸Ħà¸§à¸²à¸¡à¸«à¸§":6063,"à¸¥à¸°à¸Ħà¸£à¹Ģà¸£":6064,"à¸²à¸¢à¹Ģà¸Ĥ":6065,"à¸¢à¸§à¸Ń":6066,"à¸Ľà¸£à¸°à¹Ģà¸Ĺà¸¨à¸į":6067,"à¹Ģà¸¢à¸Ńà¸°à¹ģà¸¢à¸°":6068,"à¸²à¹Ĥà¸Ħà¸£":6069,"oll":6070,"à¸ģà¹ģà¸ļà¸ļà¸Ļ":6071,"à¸Ńà¸ĩà¸ĸà¸Ļà¸Ļ":6072,"à¸¨à¸§à¸ģà¸£à¸£à¸¡à¸¨à¸²à¸ªà¸ķà¸£":6073,"à¸ªà¸¢":6074,"osh":6075,"à¸§à¸Īà¸°à¸¡":6076,"à¸łà¸²à¸Ħà¹ĥà¸ķ":6077,"à¸¡à¸²à¸«à¸¥à¸²à¸¢":6078,"ox":6079,"à¹ĥà¸Ļà¹Ħà¸Ĺà¸¢":6080,"à¸ªà¸°à¸ŀ":6081,"à¸ļà¸Ľà¸§à¸Ķ":6082,"à¹Ĥà¸ģà¸ĩ":6083,"Ġà¸Ĥà¸Ńà¸Ńà¸ł":6084,"à¸ģà¸Ķà¸Ķ":6085,"à¹Ĥà¸Ľà¸£à¸ķ":6086,"Ġà¹Ħà¸Ľà¹Ģà¸Ĺ":6087,"Ġà¹Ģà¸Ĥà¸²à¸¡":6088,"pro":6089,"à¹Ģà¸¢à¸Ńà¸°à¸ģà¸§":6090,"à¹Ĥà¸¢à¸Ļ":6091,"à¸ķà¸¢à¸ªà¸²à¸£":6092,"à¸²à¸ĩà¸ģà¸¥":6093,"Ġà¸Ķà¸£":6094,"à¹Ģà¸Ħà¸¢à¹Ģà¸¥":6095,"à¸ŀà¸§à¸ģà¸Ĺ":6096,"à¸ĩà¸¡à¸²à¸ģà¹Ĩ":6097,"à¸Ńà¹Ģà¸ªà¸Ļà¸Ń":6098,"à¹Ģà¸Ħà¸¢à¸Ń":6099,"à¸¡à¸ļà¸Ńà¸ģ":6100,"à¹Ģà¸ªà¸²à¸£":6101,"à¸Ńà¸¢à¸Ĭ":6102,"à¸Ńà¸¢à¸²à¸ģà¹Ģà¸«":6103,"Ġà¸ŀà¸Ńà¹Ħà¸Ľ":6104,"Ġsing":6105,"à¸²à¸Ńà¸²à¸ģà¸²à¸¨":6106,"Ġ800":6107,"à¸²à¸ķà¸Ńà¸ļà¸Ĺ":6108,"à¹Ħà¸Ńà¸Ĺ":6109,"Ġhy":6110,"Ġho":6111,"à¸ªà¸§à¸£à¸£à¸Ħ":6112,"âĺ":6113,"à¸Ħà¸Ļà¹Ħà¸¡":6114,"à¸Ħà¸Ļà¸¡":6115,"à¸Ľà¸°":6116,"à¸£à¸ļà¸ģà¸§à¸Ļà¸Ķ":6117,"à¸²à¸¢à¸ŀ":6118,"à¸ªà¸¡à¸¡":6119,"Ġà¹Ģà¸¥à¸¢à¸Ńà¸¢à¸²à¸ģà¸Ĺà¸£à¸²à¸ļà¸§":6120,"à¸ĵà¸§":6121,"à¸²à¸Ľà¸£à¸°à¸ķ":6122,"à¹ģà¸¥à¸°à¸ľ":6123,"Ġà¸Ħà¸²à¸Ķà¸§":6124,"Ġ700":6125,"à¸Ļà¹ģà¸Ľà¸¥":6126,"à¹Ĥà¸ĭà¹Ģà¸Ĭ":6127,"à¸ķà¸¥à¸²à¸Ķà¸«à¸¥":6128,"à¸Ĥà¸§à¸²":6129,"à¹Ģà¸ĺà¸Ńà¹Ħà¸¡":6130,"¸Į":6131,"à¸ĩà¸®":6132,"à¸²à¸¢à¸¥à¸°à¹Ģà¸Ń":6133,"Ġpe":6134,"à¸ĩà¸Ńà¸²à¸Ī":6135,"à¸ļà¸£à¸£à¸¢à¸²à¸¢":6136,"à¸²à¹ģà¸Ľà¸¥":6137,"à¸ĩà¸Īà¸°à¹Ħà¸¡":6138,"Ġà¸ªà¸ļà¸²à¸¢":6139,"à¸ļà¸ªà¸ĸ":6140,"à¸ģà¸²à¸£à¸Ĥ":6141,"agram":6142,"à¹Ģà¸Ńà¸²à¸ķ":6143,"à¸§à¸¢à¸ķà¸Ńà¸ļà¸«à¸Ļ":6144,"à¸§à¹Ģà¸«":6145,"à¸Ļà¸¡à¸²à¸Ń":6146,"à¸§à¸¡à¸²":6147,"à¸¢à¸ĩà¸§":6148,"à¸ĩà¸²à¸Ļà¸§":6149,"Ġml":6150,"à¸¡à¸¡à¸¡à¸¡":6151,"à¸§à¸Ļà¸¥":6152,"à¸²à¸§à¸ļ":6153,"à¸Ńà¸¢à¹Ģà¸Ĥ":6154,"à¸ģà¹ģà¸ªà¸Ķà¸ĩà¸«à¸į":6155,"à¸¢à¹Ģà¸ŀ":6156,"Ġà¸Ľà¸§à¸Ķ":6157,"à¸§à¹Ģà¸Ńà¸ĩà¹Ħà¸Ķ":6158,"à¸°à¹Ģà¸¥à¸¢":6159,"à¸²à¸ķà¸ģ":6160,"à¸Į":6161,"à¸Ķà¸Ĺà¸£":6162,"à¸²à¸Īà¸°à¸Ī":6163,"à¸¥à¸°à¸Ħ":6164,"à¸Ĺà¸²à¸ĩà¸ļ":6165,"à¹ģà¸Ħà¸¥":6166,"ual":6167,"à¸ģà¸Ħà¸§à¸²à¸¡à¸ĩà¸²à¸¡":6168,"à¸¢à¸Ļà¹Ģà¸£":6169,"à¸Ľà¸¥à¸²à¸¢à¸Ľ":6170,"Ġwe":6171,"à¸ĩà¸²à¸Ļà¸Ķ":6172,"à¸Ļà¹Ħà¸«à¸§":6173,"à¸«à¸¥à¸²à¸Ķ":6174,"à¸²à¸Ŀà¸²à¸ģ":6175,"à¸Ķà¸ŀà¸£à¸°":6176,"à¹ĥà¸Ļà¸Ħà¸£à¸Ńà¸ļà¸Ħà¸£":6177,"Ġà¹Ĥà¸Ħà¸£à¸ĩà¸ģà¸²à¸£":6178,"à¸²à¸ķà¸²à¸Ķ":6179,"à¸²à¹Ģà¸Ńà¸²":6180,"à¸§à¸Ļà¹ģà¸£à¸ģ":6181,"Ġbrow":6182,"à¸ľà¸¡à¹Ģà¸«":6183,"uc":6184,"à¸²à¸ľà¸¡à¹Ħà¸¡":6185,"à¹ĥà¸Ļà¹Ģà¸Ļ":6186,"à¸§à¸¢à¸Ĥ":6187,"à¸Ńà¸²à¸«à¸²à¸£à¹Ħà¸Ĺà¸¢":6188,"à¸²à¸ĩà¸ľ":6189,"à¸ļà¸Ńà¸ģà¸Ĺ":6190,"Ġ|":6191,"Ġà¸Īà¸Ļà¹Ģà¸£":6192,"à¸ªà¸¥à¸²à¸¡":6193,"à¸Ńà¸Ńà¸Ńà¸ģ":6194,"à¸¡à¸Ļà¸ķ":6195,"à¸ģà¸²à¸£à¸§":6196,"à¸¡à¹Ģà¸¨à¸£":6197,"à¸ģà¹Ĩà¸Ļ":6198,"à¹Ĥà¸Ľà¸£à¹Ģà¸Ī":6199,"cess":6200,"orn":6201,"Ġà¸Ńà¸²à¸ģà¸²à¸¨":6202,"à¹Ģà¹Ģà¸ļà¸ļà¸Ļ":6203,"Ġjr":6204,"à¸ľà¸¥à¹Ħà¸¡":6205,"Ġsn":6206,"à¸²à¸ķà¸£à¸Ĳà¸²à¸Ļ":6207,"à¸§à¸ģà¸²à¸¨":6208,"Ġà¸¡à¸²à¹ģà¸¥":6209,"à¸²à¸¢à¸Ħà¸£":6210,"à¹Ĥà¸ľà¸¥":6211,"Ġà¹ģà¸ĭ":6212,"à¸²à¸ļà¸£à¸£":6213,"à¹ģà¸Ļà¸§à¸Ħ":6214,"à¸Īà¸²à¸ģà¸£":6215,"à¸ģà¹Ĩà¸ģ":6216,"Ġface":6217,"à¸²à¸ĩà¹Ģà¸Ħ":6218,"à¸Ńà¸¢à¹ģà¸ķ":6219,"à¸Ļà¹ģà¸Ĥ":6220,"Ġchar":6221,"à¸Ķà¹ĥà¸ª":6222,"à¸ªà¸Ķà¹ĥà¸ª":6223,"à¸²à¸Īà¸°à¸ŀ":6224,"Ġà¹Ģà¸ŀà¸£à¸²à¸°à¸ª":6225,"à¸Ļà¸Ľà¸£":6226,"à¸ļà¸Ŀ":6227,"à¹ģà¸Ľà¸¥à¸ģà¹ĥà¸Ī":6228,"Ġà¹Ħà¸Ľà¸£":6229,"Ġ37":6230,"à¸¡à¸«à¸¥":6231,"à¸Ńà¸¢à¹Ģà¸ģ":6232,"à¸ĩà¸ļà¸Ńà¸ģà¸§":6233,"à¸²à¸ĸà¸²à¸¡à¸Ĺ":6234,"à¸Ļà¸«à¸²":6235,"69":6236,"reen":6237,"âĢ¢":6238,"à¹Ģà¸Ńà¸Ł":6239,"à¸ĩà¹ģà¸§à¸Ķà¸¥":6240,"à¹Ĥà¸¥à¸ģà¸£":6241,"à¸ļà¸ģà¸§à¸Ļà¸Ĺ":6242,"à¸¢à¸Ļà¹Ģà¸ģ":6243,"Ġmobile":6244,"Ġà¹ģà¸¥à¸°à¹ĥà¸«":6245,"à¸Ńà¸ĩà¹ģà¸ļà¸ļ":6246,"à¸Ĭà¸Ńà¸ļà¸ľ":6247,"à¸§à¸¢à¸ļà¸Ńà¸ģà¸«à¸Ļ":6248,"à¸Ńà¹ģà¸Łà¸Ļ":6249,"à¸§à¸Ľà¸£à¸°à¹Ģà¸Ĺà¸¨":6250,"à¸ĩà¸«à¸¡à¸Ķà¸Ĺ":6251,"à¸Ńà¸ĩà¹Ģà¸¡":6252,"))":6253,"à¸Ľà¸Ľà¸ª":6254,"Ġsale":6255,"à¸¡à¸²à¹Ģà¸ŀ":6256,"Ġher":6257,"à¸Ļà¹Ħà¸Ľà¸Ń":6258,"à¸§à¸ĩà¸ļ":6259,"à¸ªà¸²à¸¡à¸²à¸£à¸ĸà¸ķ":6260,"Ġbu":6261,"à¸Īà¸°à¸Ľ":6262,"à¸£à¸²à¸ķ":6263,"à¹Ĥà¸łà¸Ĭà¸Ļ":6264,"fl":6265,"à¸«à¸¡à¸²à¸ģ":6266,"à¸²à¸§à¸Ĥ":6267,"à¸Ļà¹Ħà¸Ľà¹Ħà¸¡":6268,"à¸²à¸ķà¸£à¸§à¸Ī":6269,"à¸Ļà¸¡à¸²à¸Ķ":6270,"Ġà¹Ĥà¸Ī":6271,"à¸Īà¸°à¹Ħà¸Ľà¹Ģà¸Ĺ":6272,"Ġà¹Ģà¸Ķà¸Ńà¸°":6273,"à¸ģà¸Ĺà¸²à¸¢à¹ģà¸Łà¸Ļà¸Ħà¸¥":6274,".,":6275,"à¹ĮâĢĿ":6276,"Ġusb":6277,"à¹ĥà¸Ļà¸ģà¸²à¸£à¸ķ":6278,"Ġ450":6279,"à¸²à¸Ħà¸ĩà¹Ħà¸¡":6280,"à¸Ļà¸ŀà¸Ń":6281,"Ġà¸ªà¸²à¹Ģà¸«à¸ķ":6282,"à¸²à¸¢à¹Ģà¸ŀ":6283,"à¹Ģà¸Ħà¸¢à¸ŀ":6284,"Ġà¹Ģà¸Ĥà¸²à¹Ģà¸Ľ":6285,"Ġà¹ģà¸¥à¸°à¹Ģà¸ŀ":6286,"à¸Ľà¸£à¸°à¸ģà¸Ńà¸ļà¸Ķ":6287,"à¹Ħà¸Ľà¸«à¸¡à¸Ķ":6288,"à¸¢à¸§à¹Ĩ":6289,"Ġvi":6290,"à¸Ńà¸²à¸Ħà¸²à¸£":6291,"à¸Ļà¸Ķà¸²à¸¥":6292,"à¸Ļà¸ŀà¸Ļ":6293,"Ġ----------------------------------------------------------------------------------------------------------------":6294,"à¸Ķà¸¥à¸¡":6295,"à¹Ģà¸ĺà¸Ńà¸¡":6296,"à¸Ńà¹Ģà¸«à¸¡":6297,"Ġlog":6298,"à¸Ńà¸ķà¸²à¸¡":6299,"ange":6300,"entr":6301,"Ġà¹Ģà¸£à¸²à¸Ńà¸¢":6302,"Ġà¹ģà¸®":6303,"à¹Ĥà¸Ķà¸¢à¹ĥà¸Ĭ":6304,"Ġà¸£à¸ļà¸ģà¸§à¸Ļà¹ģà¸Ļà¸°à¸Ļ":6305,"à¸§à¸²à¸¥":6306,"à¸Ńà¸Ŀ":6307,"Ġsec":6308,"à¸ŀà¸£à¸£à¸Ķ":6309,"à¸ļà¹Ģà¸«":6310,"ivers":6311,"à¹Ģà¸ĺà¸Ńà¸Ĺ":6312,"Ġ2561":6313,"à¸ĩà¸£à¸ĸà¹Ħà¸Ł":6314,"à¹Ĥà¸Ĺà¸£à¸Ħ":6315,"Ġms":6316,"à¸°à¸ļ":6317,"à¸²à¸¢à¸ģà¸§":6318,"Ġà¸Īà¸Ļà¸¡":6319,"à¸ļà¸¡à¸²à¸Ń":6320,"à¹Ģà¸ŀà¸£à¸²à¸°à¸Ħ":6321,"tf":6322,"à¸§à¸¢à¸ļ":6323,"à¸Ńà¸¡à¸Ħ":6324,"à¸²à¹Ģà¸§à¸¥":6325,"à¸Ńà¸¢à¸Ńà¸¢":6326,"à¸Ļà¹Ĥà¸Ķà¸Ļ":6327,"Ġà¹Ģà¸ŀà¸£à¸²à¸°à¸Ļ":6328,"à¸²à¸Īà¸°à¸ģà¸¥":6329,"Ġaut":6330,"à¸ĩà¸Īà¸°à¸Ĺ":6331,"à¸łà¸²à¸Ħà¹Ģà¸«à¸Ļ":6332,"à¸Ńà¸ĩà¸ªà¸¡":6333,"à¸Ļà¹Ģà¸ĸà¸Ńà¸°":6334,"à¸Ļà¸£à¸°à¸ļà¸ļ":6335,"à¸ģà¸Ńà¸°à¹Ħà¸£":6336,"à¸Ńà¸Ļà¸Ļà¸°à¸Ħà¸£":6337,"à¸įà¸įà¸²à¸ģ":6338,"à¸Ńà¸Īà¸°à¹Ħà¸Ķ":6339,"à¸Ĺà¸²à¸ĩà¸Ļ":6340,"à¸ļà¸Ľà¸£à¸°à¸Ĺà¸²à¸Ļ":6341,"à¸ľà¸¡à¸«à¸Ļ":6342,"Ġà¸Ľà¸£à¸°à¸ģà¸²à¸¨":6343,"à¹Ģà¸Ńà¸°":6344,"à¸ģà¹ĥà¸«à¸¡":6345,"à¸Ħà¸ĩ":6346,"à¸Ĭà¸Ńà¸ļà¸ŀ":6347,"41":6348,"play":6349,"Ġà¸Ļà¸²à¸ĩà¹Ģà¸Ńà¸ģ":6350,"à¸¡à¸²à¸Ħà¸£":6351,"à¸§à¹Ģà¸Ńà¸ĩà¸Ķ":6352,"Ġà¸ľà¸¡à¸Īà¸°":6353,"ise":6354,"à¸¢à¸«à¸²à¸¢à¸ª":6355,"Ġphone":6356,"43":6357,"à¸ŀà¸¥à¸²à¸ªà¸ķ":6358,"à¹Ĥà¸Ķà¸¢à¸ķà¸£à¸ĩ":6359,"Ġà¹Ģà¸¡à¸Ļ":6360,"à¸¡à¹ģà¸ķ":6361,"à¸«à¸²à¹Ħà¸¡":6362,"à¸°à¸Ľà¸¥":6363,"Ġà¸ľà¸¡à¸Ħà¸§à¸£":6364,"à¹Ħà¸£à¸ģ":6365,"date":6366,"à¹Ĥà¸¥à¸«":6367,"à¸§à¸Ħà¸£à¸²à¸§":6368,"à¸¢à¸ģà¸ģ":6369,"à¹Ģà¸¥à¸Ĥà¸Ĺ":6370,"à¸²à¸ªà¸²à¸¢":6371,"Ġà¹Ģà¸Ńà¸²à¹Ħà¸§":6372,"à¸Ļà¹Ģà¸¢":6373,"à¸Ńà¸Ħà¸§à¸£":6374,"---------":6375,"à¸įà¸²à¸ĵ":6376,"à¸Ķà¸Ŀ":6377,"à¸Ľà¸£à¸°à¸Ĭà¸²à¸ģà¸£":6378,"à¸ģà¸£à¸ŀà¸£à¸£à¸Ķ":6379,"Ġà¸Ĭà¸Ļà¸°":6380,"Ġà¹ģà¸¥à¸°à¸¥":6381,"à¸ģà¸£à¸ĸ":6382,"à¸Ńà¸Ńà¸°à¹Ħà¸£à¸ģ":6383,"à¸Ńà¸ĩà¸Ĥà¸§":6384,"à¸²à¸¡à¸Ļ":6385,"à¸Ķà¹Ģà¸Ļ":6386,"à¸Ĳà¸¨à¸²à¸ªà¸ķà¸£":6387,"à¸¢à¸Ļà¸łà¸²à¸©":6388,"à¸°à¸Ī":6389,"à¸²à¸Ńà¸°à¹Ħà¸£à¸Ĺ":6390,"à¸Ĥà¸Ńà¸ĩà¸Ķ":6391,"à¸¢à¸ģà¹Ģà¸§":6392,"à¸Ĥà¸²à¸¢à¸ķ":6393,"à¹Ģà¸«à¸ĩà¸²":6394,"à¹Ģà¸Īà¸ķà¸Ļ":6395,"à¸ģà¹ģà¸«":6396,"Ġtwitter":6397,"Ġfashion":6398,"à¸Ħà¸Ħà¸¥à¸Ĺ":6399,"à¸²à¸ķà¸¥à¸²à¸Ķ":6400,"à¹Ħà¸Ľà¸«à¸Ļ":6401,"à¸ģà¸²à¸£à¹ģà¸ªà¸Ķà¸ĩ":6402,"Ġà¸ģà¸Ńà¸ĩà¸Ĺ":6403,"Ġà¸ŀà¸¢":6404,"à¸Ĥà¸²à¸¢à¸ª":6405,"ster":6406,"à¹Ģà¹Ģà¸Ļ":6407,"à¸Ńà¸ĩà¸Īà¸°":6408,"à¸Ńà¸Īà¸°à¸¡":6409,"à¸ļà¸ģà¸²à¸£à¸ķ":6410,"à¸ģà¹ģà¸ģ":6411,"à¹ģà¸Ļà¸§à¸Ļ":6412,"à¸Ļà¸²à¸¨à¸ł":6413,"Ġà¸ŀà¸Ńà¸ķ":6414,"à¹ģà¸¥à¸ľ":6415,"Ġà¹ĥà¸Ļà¸£":6416,"à¸ļà¸Ńà¸°à¹Ħà¸£":6417,"Ġà¹Ģà¸ģà¸¥":6418,"à¸Ĥà¸Ńà¸ĩà¸«à¸§à¸²à¸Ļ":6419,"à¸Ńà¸Ńà¸ģà¸¡à¸²à¹Ģà¸Ľ":6420,"à¹ī\"\"":6421,"à¸Ļà¸Ĭà¸¡":6422,"kyo":6423,"à¸ĩà¸ļà¸Ļ":6424,"à¸Ļà¸Ħà¸§à¸£":6425,"social":6426,"à¸ĩà¸Īà¸°à¸ķ":6427,"Ġà¸ªà¹Ģà¸Ľ":6428,"Ġà¸ģà¸²à¸£à¸ķ":6429,"à¸§à¹Ģà¸ķ":6430,"à¸²à¸£à¸°à¸«à¸§":6431,"à¸ļà¸ķà¸²à¸¡":6432,"Ġà¸ŀà¸£à¸°à¸Ńà¸ĩà¸Ħ":6433,"à¸²à¸¡à¸ķ":6434,"Ġà¹ģà¸Ńà¸£":6435,"à¸¥à¸²à¸Ńà¸Ńà¸ģ":6436,"ton":6437,"à¸ĩà¹ĥà¸Īà¸Ĺ":6438,"à¸ĩà¸Ĩ":6439,"à¸¢à¸²à¸Ĺ":6440,"................................................................":6441,"à¹Ģà¸£à¸²à¸ĭ":6442,"irl":6443,"Ġcam":6444,"05":6445,"à¸ģà¸£à¸°à¸ļà¸§à¸Ļ":6446,"à¸ļà¸£à¸£à¸Ķ":6447,"ĠĠĠĠĠĠĠĠĠĠĠĠĠĠĠĠĠĠĠĠĠĠĠĠ":6448,"à¸¢à¸Ļà¹Ģà¸Ħà¸£":6449,"à¸Ĥà¸Ńà¸ĩà¹Ģà¸Ķ":6450,"à¸²à¸ģà¸£à¸°à¸Ĺ":6451,"à¸¡à¸²à¹Ģà¸¥à¸¢":6452,"à¸Ńà¸Ļà¹Ģà¸£à¸²à¸ģ":6453,"âĻ¥":6454,"Ġdo":6455,"à¸Ħà¸Ħà¸Ńà¸¡":6456,"à¸²à¹Ĥà¸¥":6457,"à¸ªà¸°à¸Ķ":6458,"chn":6459,"à¸Ļà¸Ħà¸Ļà¸ķ":6460,"à¸ģà¸ģà¸£à¸°":6461,"Ġà¸ķà¸Ńà¸Ļà¹ģà¸£à¸ģà¸ģ":6462,"à¸§à¸¢à¹Ģà¸¥à¸¢":6463,"lex":6464,"à¸¡à¹ĥà¸Ĭ":6465,"à¸¢à¸Ļà¸ªà¸²à¸¢":6466,"à¸ļà¸ī":6467,"à¹Ĥà¸Ħà¸¥":6468,"à¸ĺà¸Ļà¸²à¸Ħà¸²à¸£à¸ģà¸£":6469,"à¸Ļà¸Ħà¸Ļà¹Ģà¸Ķ":6470,"à¸Ļà¸Ħà¸Ļà¸Ĥ":6471,"à¸§à¸¢à¹ģà¸¥":6472,"Ġà¹Ģà¸ŀà¸£à¸²à¸°à¸īà¸°à¸Ļ":6473,"à¸Ńà¸Ńà¸ģà¹ģà¸ļà¸ļà¹ģà¸¥à¸°à¸ªà¸£":6474,"à¸²à¸Ħà¸§à¸£à¸Ĺ":6475,"à¸ĩà¸łà¸²à¸ŀ":6476,"à¹Ħà¸Ľà¸ĸà¸²à¸¡":6477,"à¸Ļà¸Īà¸ļ":6478,"à¸ķà¸Ļà¹Ģà¸Ńà¸ĩ":6479,"à¸Ĥà¸Ńà¸Ĥà¸Ńà¸ļà¸Ħ":6480,"à¸²à¸¡à¸²à¹ĥà¸«":6481,"à¸²à¸¥à¸ĩà¸Ĺ":6482,"à¹Ģà¸Ļà¸¢":6483,"à¸¢à¸ĩà¸£":6484,"à¸ĩà¸²à¸Ļà¸Ħ":6485,"à¹ģà¸ļà¸ļà¸¡":6486,"à¸Ļà¸²à¸Ļà¹ģà¸¥":6487,"à¸ģà¸©à¸²à¸Ķ":6488,"à¸ĩà¸ŀà¸£":6489,"à¸Ħà¸²à¸Ķà¸§":6490,"à¸¡à¹Ħà¸Ľà¸Ķ":6491,"Ġà¸ķà¸£à¸ĩà¸Ļ":6492,"à¸Ĺà¹Ĥà¸ĺ":6493,"ody":6494,"à¸Ńà¸²à¸Īà¸Īà¸°à¸¡":6495,"à¹Ģà¸£à¸²à¸«":6496,"à¸Ńà¸²à¸«à¸²à¸£à¹Ģà¸Ĭ":6497,"Ġne":6498,"à¸ļà¸£à¸²à¸ĩà¸§":6499,"oth":6500,"à¸ľà¸¡à¹Ģà¸¥à¸¢":6501,"Ġfuji":6502,"à¸²à¸Ńà¸¢à¸²à¸ģà¹Ħà¸Ķ":6503,"à¸łà¸ŀ":6504,"Ġgu":6505,"à¸Ĥà¸Ńà¸ĩà¸Ľà¸£à¸°à¹Ģà¸Ĺà¸¨":6506,"------------":6507,"à¸²à¸łà¸²à¸©":6508,"à¸Ļà¸ķà¸Ļ":6509,"à¸«à¸¥à¸²à¸¢à¸Ĺ":6510,"à¸¨à¸²à¸Ī":6511,"Ġà¸Ľà¸£à¸°à¹Ģà¸łà¸Ĺ":6512,"à¸ģà¸©à¸²à¸Ħà¸§à¸²à¸¡":6513,"Ġspeed":6514,"à¸²à¸¡à¸²à¹Ģà¸¥":6515,"à¸£à¸²à¸§":6516,"à¹ģà¸¥à¸°à¸¢":6517,"Ġà¸¡à¸²à¸Ħ":6518,"à¸Ļà¸ĺà¸£à¸£à¸¡à¸Ĭà¸²à¸ķ":6519,"à¸ľà¸¡à¸ģà¸¥":6520,"à¹Ĥà¸łà¸Ĭà¸Ļà¸²à¸ģà¸²à¸£":6521,"à¸ļà¸¡à¸²à¸Ķ":6522,"Ġà¸ŀà¸Ļà¸ĩ":6523,"à¸¡à¸Ļà¸²à¸Ħà¸¡":6524,"à¸ļà¹ģà¸ģ":6525,"à¸Ńà¸Ļà¹Ĩà¸Ħ":6526,"sr":6527,"à¸Ńà¸ģà¹ĥà¸«":6528,"oint":6529,"Ġà¸£à¸ªà¸Ĭà¸²à¸ķ":6530,"à¸Ļà¹Ģà¸ģà¸¢":6531,"01":6532,"à¹Ģà¸Ħà¸²à¸£à¸ŀ":6533,"à¸£à¸°à¸¢à¸°à¹Ģà¸§à¸¥":6534,"à¸¢à¹Ģà¸§à¸¥":6535,"Ġà¹Ģà¸Īà¸Ń":6536,"à¸ģà¸¡à¸²à¸ģà¸¡à¸²à¸¢":6537,"à¹Ģà¸ĭà¸Ł":6538,"Ġà¸ķà¸ģà¸¥":6539,"à¸µ(":6540,"aph":6541,"à¸Ļà¸²à¸Ħ":6542,"à¸Ļà¸°à¸Ī":6543,"Ġà¸ªà¸²à¸¡à¸²à¸£à¸ĸà¹ĥà¸Ĭ":6544,"à¸įà¸§":6545,"not":6546,"à¸²à¸ŀà¸¥":6547,"à¸ĩà¸Ľà¸£à¸°à¸¡à¸²à¸ĵ":6548,"Ġbank":6549,"Ġà¸£à¸²à¸Ħà¸²à¸ĸ":6550,"à¸ģà¹Ģà¸Ļ":6551,"à¸¡à¸Ńà¸ĩà¹Ģà¸«":6552,"à¸Ļà¸¡à¸²à¹Ģà¸Ľ":6553,"maz":6554,"à¸£à¸°à¹ģ":6555,"à¸²à¸¡à¸²à¹ģà¸¥":6556,"à¸Ńà¸ļà¹Ĩ":6557,"à¸µà¹ī,\"":6558,"à¸Ńà¸Ļà¸°":6559,"à¸²à¸ŀà¹Ģà¸Ī":6560,"à¸Ľà¹ĥà¸«":6561,"à¸Ńà¸ĩà¸Ľà¸ģà¸ķ":6562,"Ġà¹Ģà¸ŀà¸£à¸²à¸°à¸ķà¸Ńà¸Ļà¸Ļ":6563,"Ġà¹Ĥà¸Ńà¸ģ":6564,"Ġà¸ŀà¸£à¸°à¹Ģà¸Ī":6565,"à¸Ļà¹Ģà¸«à¸Ļ":6566,"à¸Ļà¸¡à¸²à¸ª":6567,"à¹Ħà¸Ľà¹Ģà¸Ķ":6568,"à¹ĥà¸Ļà¸ģà¸£à¸°à¸Ĺ":6569,"vd":6570,"à¸ĩà¹Ħà¸Ľà¸Ĺ":6571,"à¸ĩà¸²à¸Ļà¸ķ":6572,"à¸¡à¹Ģà¸ª":6573,"Ġà¹Ģà¸£à¸²à¹Ģà¸¥":6574,"Ġpack":6575,"à¸Ħà¸Ńà¸Ļà¹Ĥà¸Ķà¸¡":6576,"à¸Ħà¸Ļà¸Ī":6577,"à¸Ķà¸ªà¹Ģà¸Ľ":6578,"à¸Ńà¸Ńà¸ģà¸Īà¸²à¸ģà¸ļ":6579,"Ġhotel":6580,"oucher":6581,"??,":6582,"à¸Ħà¸§à¸²à¸¡à¸Ĺ":6583,"Ġnex":6584,"à¸²à¹Ģà¸£à¸²à¸£":6585,"à¸²à¸¡à¸²à¸Ĭ":6586,"à¸ĩà¸Ħà¸§à¸²à¸¡à¸£":6587,"à¸Ļà¹ĥ":6588,"Ġskin":6589,"à¸Ľà¸£à¸°à¹Ģà¸ł":6590,"à¸Ķà¸Ĺà¸²à¸ĩ":6591,"à¹ĥà¸Ļà¹ģà¸ķ":6592,"oice":6593,"à¹ĥà¸Ļà¸ģ":6594,"________________________________":6595,"Ġà¹ģà¸ļà¸ļà¸Ĺ":6596,"à¸¡à¸«à¸²à¸Ĭà¸Ļ":6597,"à¸ľà¸¡à¸ŀ":6598,"à¹Ĥà¸Ķà¸Ļà¸ķ":6599,"à¸Ńà¸¡à¸Ń":6600,"à¸«à¸¥à¸Ńà¸Ķ":6601,"à¸ĩà¸Ńà¸Ļ":6602,"à¸Ĥà¸Ńà¸ĩà¹Ģà¸ŀ":6603,"à¸¡à¸ģà¸²à¸£":6604,"à¹ģà¸¥à¸°à¸Ķ":6605,"à¸²à¸£à¸°à¸Ħ":6606,"########":6607,"à¸Ħà¸§à¸²à¸¡à¸ģà¸£":6608,"Ġ2018":6609,"à¸Ĺà¸Ķ":6610,"à¸Ļà¸Ħà¸Ļà¸£":6611,"à¸ĩà¸ľà¸¥à¹ĥà¸«":6612,"à¸ķà¹ģà¸¥":6613,"Ġ2012":6614,"à¸Ķà¸Ńà¸²à¸ģà¸²à¸£":6615,"à¸¢à¸Ļà¸Īà¸²à¸ģ":6616,"Ġà¸ŀà¸£à¸£à¸Ħ":6617,"à¸Ļà¸Īà¸°à¸Ķ":6618,"à¹Ģà¸¥à¸¢à¸Ļ":6619,"à¸²à¸Ļà¸Ńà¸Ļ":6620,"à¸ľà¸¡à¸ĭ":6621,"à¸ĩà¹ģà¸ģà¸£":6622,"Ġtruemove":6623,"rom":6624,"à¸ŀà¸Ńà¹Ħà¸Ķ":6625,"Ġà¸Ĥà¸ĵà¸°":6626,"à¹Ħà¸Ľà¹ĥà¸Ĭ":6627,"Ġtokyo":6628,"Ġ1500":6629,"à¸²à¹Ĥà¸£":6630,"à¸Ļà¸ªà¸£":6631,"Ġà¸Ńà¸¢à¸²à¸ģà¸¡":6632,"à¸²à¸ĩà¸²à¸Ļà¹Ģà¸Ľ":6633,"à¸ĵà¸Ħà¸°":6634,"à¸ģà¸Ĭà¸Ļ":6635,"Ġlip":6636,"à¸ģà¸£à¸²à¸Ł":6637,"à¸§à¸Ļà¹Ģà¸ģ":6638,"à¸ĩà¸Ĥà¸Ń":6639,"à¹ģà¸ĸà¸¥à¸ĩ":6640,"à¸Ńà¸Ńà¸ģà¸¡à¸²à¸Īà¸²à¸ģ":6641,"à¸Īà¸ļà¹ģà¸¥":6642,"à¹Ģà¸ģà¸£à¸ĩà¹ĥà¸Ī":6643,"à¸°à¸ŀà¸£":6644,"à¹Ģà¸Ļà¸Ńà¸£":6645,"à¸²à¸¢à¸«":6646,"à¸¢à¸¡à¸²à¸ģ":6647,"Ġà¸ģà¸£à¸£à¸¡":6648,"à¸Ļà¹Ħà¸Ľà¸ª":6649,"Ġà¸Ľà¸£à¸°à¸¡à¸²à¸ĵà¸§":6650,"à¹Ģà¸£à¸²à¸ªà¸²à¸¡à¸²à¸£à¸ĸ":6651,"à¸²à¸Ļà¸§à¸¢":6652,"à¹Ģà¸Ħà¸¥à¸¡":6653,"à¸Ńà¹Ħà¸Ľà¸Ĺ":6654,"à¸Ļà¸Ħà¸Ķ":6655,"uck":6656,"à¸¢à¸§à¹Ģà¸Ĭ":6657,"à¸¢à¸¢à¸¢à¸¢à¸¢à¸¢à¸¢à¸¢":6658,"à¸ķà¸²à¸¡à¸«à¸²":6659,"à¸Ńà¹Ħà¸Ľà¸Ķ":6660,"à¸Ńà¸Ļà¹Ĩà¸§":6661,"bs":6662,"à¸Ļà¸Ńà¸Ļà¸Ħ":6663,"à¸Ńà¸°à¹Ħà¸£à¹ĥà¸«":6664,"Ġà¸Ħà¸ļà¸ģ":6665,"à¸Ħà¸§à¸²à¸¡à¸¢":6666,"à¸Ļà¹ĥà¸Ļà¸Ĺ":6667,"?)":6668,"à¸«à¸¡à¸²à¸¢à¹Ģà¸«à¸ķ":6669,"à¸łà¸²à¸¢à¸«à¸¥":6670,"Ġer":6671,"Ġà¹ģà¸ªà¸Ķà¸ĩà¸§":6672,"à¸µ-":6673,"à¸Ńà¸Ħà¸°":6674,"tra":6675,"à¹Ħà¸«à¸Ļà¸¡à¸²":6676,"à¸²à¸Ħà¸ļà¸ģ":6677,"Ġyour":6678,"à¸Ħà¸Ļà¸£à¸Ńà¸ļà¸Ĥ":6679,"à¸ļà¸ģà¸²à¸£à¹ĥà¸Ĭ":6680,"à¸Ľà¸£à¸²à¸ģà¸ıà¸§":6681,"à¹Ĩà¹ģà¸¥":6682,"à¸§à¸¢à¸¢":6683,"à¹Ģà¸ľà¸¢à¹ģà¸ŀà¸£":6684,"à¸ģà¸ĩ":6685,"Ġà¹ĵ":6686,"à¸ģà¸²à¸£à¸Ľà¸£":6687,"à¸Ľà¸«à¸Ļ":6688,"Ġà¸¡à¸²à¹Ģà¸¥":6689,"à¸¡à¸Ł":6690,"à¸ªà¸¢à¸²à¸¡":6691,"à¹Ģà¸ĭà¹Ģà¸§":6692,"à¹Ģà¸¥à¸¢à¸£":6693,"Ġà¸ģà¸Ľà¸Ľà¸ª":6694,"à¸ĩà¸ģà¸²à¸£à¸Ĺ":6695,"Ġà¸«à¸¥à¸²à¸¢à¹Ĩ":6696,"à¹Ģà¸ļà¹Ģà¸ģà¸Ńà¸£":6697,"à¸£à¸°à¸¥":6698,"Ġsl":6699,"à¸ģà¸¥à¸°":6700,"à¸Ńà¹Ģà¸¢":6701,"fc":6702,"à¸ģà¹Ģà¸¢à¸Ńà¸°":6703,"à¸ķà¹ĥà¸«":6704,"à¸Ĥà¸Ńà¸ªà¸Ńà¸ļà¸ĸà¸²à¸¡":6705,"oney":6706,"Ġeng":6707,"Ġà¸ĩà¸²à¸Ļà¸Ļ":6708,"Ġà¸Īà¸°à¹Ģà¸¥":6709,"tain":6710,"à¸«à¸¡à¸Ńà¸ģ":6711,"à¸Ļà¹Ħà¸Ł":6712,"à¸²à¸Ļà¸ľà¸¡":6713,"à¸£à¸ªà¸Ĭà¸²à¸ķ":6714,"à¹Ģà¸Ńà¸ĩà¹Ħà¸Ķ":6715,"à¹Ģà¸ļà¸£à¸Ħ":6716,"à¸¢à¹Ģà¸¥":6717,"à¸²à¸ªà¸²à¸§":6718,"Ġà¸ªà¸°à¸Ķà¸§à¸ģ":6719,"à¸Ļà¸Ńà¸Ńà¸ģà¹Ħà¸Ľ":6720,"à¸²à¸ķà¸Ńà¸ļà¸§":6721,"à¸¥à¸ĩà¸£":6722,"Ġà¸ªà¸²à¸£":6723,"à¸ŀà¸Ńà¸Īà¸°à¸Ĺà¸£à¸²à¸ļ":6724,"à¸Ļà¸Ĥà¸Ń":6725,"ream":6726,"à¸Īà¸²à¸ģà¸ķ":6727,"à¸Ĺà¸²à¸ĩà¹Ģà¸Ķ":6728,"ae":6729,"à¸Ńà¹Ģà¸£à¸²à¹Ģà¸Ľ":6730,"à¸§à¸¢à¹Ģà¸Ľ":6731,"à¸Ńà¸Ķà¸ª":6732,"à¸ķà¸£à¸Ļ":6733,"à¸Ńà¸Ńà¸Ń":6734,"à¹ģà¸Ļà¸Ļà¸ĭ":6735,"get":6736,"à¸ķà¸Ńà¸ļà¸£":6737,"à¸¢à¸łà¸²à¸©":6738,"à¸Ĥà¸Ńà¸ĩà¹ģà¸ķ":6739,"à¹Ģà¸ļà¸¥":6740,"Ġà¸Ńà¸¢à¸²à¸ģà¸Ĺ":6741,"à¸Ķà¸¢à¸²à¸§":6742,"à¸Ļà¸Ħà¸Ļà¸Ĭà¸Ńà¸ļ":6743,"à¸²à¸¡à¸²à¹Ģà¸Ľ":6744,"à¸Ńà¸Ńà¸ģà¸Ńà¸²à¸ģà¸²à¸¨":6745,"Ġà¹Ģà¸ŀà¸¥":6746,"Ġà¸Īà¸²à¸ģà¸£à¸²à¸Ħà¸²":6747,"à¸²à¹ĥ":6748,"à¸Ľà¸²à¸£":6749,"à¸²à¸¡à¸Ĺ":6750,"ao":6751,"Ġà¹ģà¸¢":6752,"à¸¡à¸²à¹Ģà¸Ĺ":6753,"à¹ĥà¸ļà¹Ģà¸ªà¸£":6754,"à¹Ĥà¸Ĥ":6755,"à¹Ģà¸¥à¸¢à¸«à¸£":6756,"à¸²à¸¢à¸Ĺà¸Ńà¸Ķà¸ªà¸Ķ":6757,"à¹Ģà¸ģà¸¡à¸Ħà¸Ńà¸¡à¸ŀ":6758,"ems":6759,"Ġà¸Ļà¸Ħà¸£":6760,"à¸«à¸¥à¸²à¸¢à¸§":6761,"à¸Ľà¸Ń":6762,"ift":6763,"à¹Ħà¸Ľà¸Ħà¸£":6764,"à¹ĥà¸Ļà¸ªà¸¡":6765,"à¸ģà¹ģà¸Ħ":6766,"Ġsoft":6767,"Ġà¹Ģà¸ŀà¸£à¸²à¸°à¹Ģà¸Ħ":6768,"...,\"":6769,"à¸«à¸¡à¸Ķà¸Ńà¸²à¸¢":6770,"Ġà¸łà¸²à¸ŀà¸¢à¸Ļà¸ķà¸£":6771,"à¸²à¸ĩà¸£à¸§à¸Ķà¹Ģà¸£":6772,"appy":6773,"à¹Ģà¸Ńà¸²à¸Ĺ":6774,"à¹ģà¸Łà¸Ļà¹Ģà¸£à¸²":6775,"Ġà¸Ĭà¸²à¸¢":6776,"Ġà¸¡à¸²à¹ĥà¸«":6777,"à¹Ħà¸«à¸§à¹ģà¸¥":6778,"à¸§à¸¢à¸¥":6779,"à¸Ļà¹ĥà¸Ļà¸Ĭ":6780,"à¸ķà¸£à¸Ńà¸²à¸«à¸²à¸£":6781,"Ġà¹Ģà¸ģà¸²à¸«à¸¥":6782,"à¹Ģà¸ŀà¸²à¸°":6783,"à¸Ļà¸Ĺà¸«à¸²à¸£":6784,"nk":6785,"Ġà¹Ģà¸£à¸²à¸Ĥ":6786,"à¸ŀà¸Ńà¸ģ":6787,"à¸¢à¸Ļà¸Ĥ":6788,"à¸§à¸£à¸ĸ":6789,"à¹Ģà¸Ĥà¸²à¸ļà¸Ńà¸ģà¸§":6790,"à¸²à¸Īà¸°à¸Ńà¸¢":6791,"à¹Ģà¸ŀà¸£à¸²à¸°à¹Ģà¸Ľ":6792,"à¸ĩà¸²à¸Ļà¹ĥà¸«":6793,"à¸²à¹Ħà¸Ľà¸ķ":6794,"à¸²à¸£à¸²à¸ĩ":6795,"à¸§à¸Ļà¸Ķ":6796,"Ġà¹Ħà¸¥":6797,"Ġà¹ģà¸«à¸¥":6798,"Ġà¸ģà¸²à¸£à¸Ī":6799,"Ġà¸ļà¸¥à¸²":6800,"Ġà¸Ĥà¸Ńà¸Ńà¸Ļ":6801,"à¸Ĥà¸Ļà¸²à¸Ķà¹Ħà¸«à¸Ļ":6802,"à¸²à¸ªà¸ĩà¸ªà¸²à¸£":6803,"Ġà¸Īà¸°à¹Ģà¸«":6804,"Ġà¸Ĥà¸Ńà¸ĩà¸Ħ":6805,"à¹Ĥà¸Ķà¸Ļà¸Ķ":6806,"à¹Ģà¸Īà¸Ńà¸«à¸Ļ":6807,"à¸¡à¸Ńà¸Ńà¸Ļà¹Ħà¸¥à¸Ļ":6808,"à¸²à¸£à¸°à¸Ķ":6809,"Ġà¸Ńà¸¢à¸²à¸ģà¸ĸà¸²à¸¡à¸§":6810,"Ġà¸Īà¸°à¸ª":6811,"Ġà¹Ħà¸Ľà¸ĸ":6812,"Ġà¸ŀà¸Ńà¸£":6813,"à¸²à¹Ħà¸Ľà¸Ħ":6814,"à¸²à¸Ńà¸²à¸ģà¸²à¸£":6815,"à¸ĭà¸°à¸ĩ":6816,"à¹Ģà¸ŀà¸¥à¸ĩà¸ª":6817,"à¸Ńà¸ķà¸Ńà¸ļ":6818,"à¹Ģà¸Ķà¸Ĭ":6819,"à¸ĩà¸ī":6820,"!!!!!!!!":6821,"Ġà¸¢à¸ģà¸ķ":6822,"à¸¡à¸²à¸Ļà¸²à¸Ļà¹ģà¸¥":6823,"à¸ģà¸©à¸²à¹Ģà¸£":6824,"Ġà¹ĥà¸Ļà¸«":6825,"à¸²à¹Ħà¸Ľà¹ĥà¸Ļ":6826,"09":6827,"à¹Ģà¸Ĥà¸²à¸Ńà¸¢":6828,"à¸Ķà¹ĥà¸«à¸į":6829,"à¹ģà¸¥à¸°à¸Ĥ":6830,"à¸Ļà¸ļà¸Ĺ":6831,"à¸¡à¸²à¸ģà¹ģà¸¥":6832,"microsoft":6833,"à¸§à¸¢à¹ģà¸ķ":6834,"min":6835,"à¸ĩà¸ĩà¹Ĩ":6836,"à¸²à¹Ģà¸Ħà¸¢":6837,"à¸¢à¸§à¹ģà¸¥":6838,"*-":6839,"à¸§à¸£à¸£à¸ĵà¸ł":6840,"à¸ģà¸«à¸¡à¸²à¸¢à¹Ģà¸¥à¸Ĥ":6841,"Ġop":6842,"à¸§à¸¢à¹ģà¸Ĭà¸£":6843,"hd":6844,"à¸ģà¸£à¸°à¸Īà¸ģ":6845,"à¸ĩà¸ķà¸¥à¸Ńà¸Ķ":6846,"Ġ99":6847,"Ġlot":6848,"Ġhigh":6849,"Ġà¸Īà¸°à¸ĭ":6850,"Ġà¹Ģà¸Ńà¸ģ":6851,"à¸Ļà¸§à¸²à¸¢":6852,"à¸Ńà¸ŀà¸§à¸ģ":6853,"à¹ģà¸¥à¸°à¸Ĭ":6854,"ague":6855,"Ġclass":6856,"à¸ªà¸Ńà¸ļà¸ĸà¸²à¸¡à¸ľ":6857,"à¸²à¸Ĥà¸Ńà¸ĩà¸ļ":6858,"à¸¡à¸²à¸ģà¹Ĩà¸Ħ":6859,"Ġà¸Ĥà¸Ńà¸ĩà¹ģà¸Ĺ":6860,"à¸ĵà¸Ńà¸¢":6861,"à¸Ĺà¸²à¸ĩà¸Ń":6862,"à¸Ńà¹ģà¸Ļà¸°à¸Ļ":6863,"à¸²à¸Ńà¸°à¹Ħà¸£à¹Ħà¸Ķ":6864,"à¸Ńà¸ĩà¸Ŀ":6865,"à¸¡à¸²à¹Ģà¸¥à¹Ģà¸ĭ":6866,"à¹Ģà¸§à¸¥à¸²à¸§":6867,"ret":6868,"64":6869,"Ġà¹Ģà¸«à¸£":6870,"Ġà¸ŀà¸Ńà¹Ħà¸Ķ":6871,"Ġà¸Ľà¸ı":6872,"à¸²à¸ĩà¹Ħà¸Ľ":6873,"Ġ220":6874,"à¸Ļà¸ĺà¸£à¸£à¸¡":6875,"à¸ĩà¸Ħà¸Ļà¸Ĺ":6876,"à¸ĩà¸ªà¸²à¸§":6877,"Ġgen":6878,"Ġà¹ģà¸¥à¸°à¸Ľ":6879,"na":6880,"Ġà¸Ĥà¸§à¸Ķ":6881,"à¸ģà¸Ľà¸¥":6882,"à¹Ĥà¸Łà¸ģ":6883,"à¸Ńà¸Ļà¸Ļà¸°":6884,"toyota":6885,"à¹ģà¸ªà¸Ķà¸ĩà¸Ńà¸Ńà¸ģ":6886,"à¸Ĭà¸Ńà¸ļà¸Ħ":6887,"à¸®à¸²":6888,"à¹ĥà¸ļà¸Ĥ":6889,"à¸Ļà¸«à¸²à¸¢":6890,"Ġben":6891,"Ġpar":6892,"Ġà¹ģà¸ª":6893,"à¸Ńà¸¢à¸²à¸ģà¸ģ":6894,"Ġhar":6895,"à¸²à¸Ļà¹Ģà¸Ī":6896,"à¹Ģà¸ŀà¸¨à¸ª":6897,"à¸Ļà¸ŀà¸¤à¸«":6898,"à¸Ļà¸¢à¸Ńà¸Ķ":6899,"Ġmus":6900,"Ġà¸ªà¸ģ":6901,"à¸§à¸ĩà¹Ģà¸§à¸¥à¸²à¸Ĺ":6902,"à¹ģà¸ļà¸ļà¸ª":6903,"à¸²à¸ķà¸Ńà¸ļà¸Ħ":6904,"à¸¥à¸¢à¸ģà¸£à¸£à¸¡à¸Ħà¸§à¸²à¸¡à¸ĩà¸²à¸¡":6905,"à¸²à¸Ļà¸Ļà¸Ńà¸ģ":6906,"à¸²à¸¢à¹Ģà¸ª":6907,"à¸¢à¸ĩà¸ŀà¸Ń":6908,"à¹ģà¸Ľà¸¥à¸§":6909,"sk":6910,"à¸Ĥà¸Ńà¸ĩà¸ŀà¸§à¸ģ":6911,"à¸Ńà¸ĩà¸ļà¸Ńà¸ģ":6912,"à¸²à¸ĩà¸ªà¸£à¸£à¸Ħ":6913,"à¸Ĥà¸Ńà¸ĩà¹Ģà¸ĺà¸Ń":6914,"à¹Ĥà¸Ķà¸¢à¸ª":6915,"à¸ļà¸²à¸Ĺà¸ªà¸¡à¹Ģà¸Ķ":6916,"à¸§à¸¢à¸ļà¸Ńà¸ģà¸Ĺ":6917,"à¸Ħà¸§à¸²à¸¡à¸ªà¸Ļà¹ĥà¸Ī":6918,"à¸°à¹Ģà¸Ĺ":6919,"Ġà¸«à¸²à¸ģà¸¡":6920,"à¸°à¸ĸ":6921,"à¸Ħà¸¥à¸²à¸ª":6922,"à¸Ħà¸§à¸²à¸¡à¸ļ":6923,"Ġà¸Ńà¸ĺ":6924,"Ġ48":6925,"order":6926,"à¸§à¹Ģà¸Ĭ":6927,"à¸²à¹Ģ":6928,"à¸ĩà¸²à¸Ļà¹Ħà¸¡":6929,"à¸Ńà¹ģà¸Ķà¸ĩ":6930,"Ġà¸ªà¸ĩà¸ªà¸²à¸£":6931,"Ġking":6932,"à¸Ľà¸£à¸°à¸«à¸¥à¸²à¸Ķ":6933,"à¹Ģà¸Ķà¸ļ":6934,"à¸Ľà¹Ģà¸Ľà¸Ńà¸£":6935,"à¸ļà¸ģà¸²à¸£à¸£":6936,"Ġà¹Ĥà¸Ľà¸£à¹ģà¸ģà¸£":6937,"à¹Ĥà¸Ńà¸Ĺ":6938,"à¸²à¸¢à¸²à¸ģ":6939,"à¸Ļà¹Ĥà¸ķ":6940,"à¸Ļà¸Ħà¸Ļà¸¥à¸°":6941,"à¸§à¸ĩà¸Ī":6942,"à¸Īà¸°à¸ľ":6943,"à¹Ģà¸Ńà¸²à¸ģ":6944,"à¸£à¸²à¸ĭ":6945,"à¹Ģà¸ªà¸Ķ":6946,"à¹Ħà¸«à¸Ļà¸Ħ":6947,"à¸«à¸¥à¸²à¸ļ":6948,"à¸²à¸ľà¸¡à¸ģ":6949,"à¸£à¸§à¸¡à¸Ĺ":6950,"à¸²à¹Ģà¸Ĺà¸Ńà¸¡":6951,"à¸Ńà¸¢à¹Ħà¸¡":6952,"à¸ªà¸²à¸¡à¸²à¸£à¸ĸà¹Ģà¸Ĥ":6953,"à¹ī...":6954,"Ġà¸Ĥà¸Ńà¸ļà¸ŀà¸£à¸°à¸Ħ":6955,"Ġà¹Ģà¸ģà¸¡":6956,"à¸²à¸Ĭà¸²à¸¢":6957,"à¸²à¸Ļà¸ģà¸²à¹ģà¸Ł":6958,"à¸Ńà¸°à¹Ħà¸£à¸Ħ":6959,"à¸ķà¸Ńà¸Ļà¸ģà¸¥à¸²à¸ĩà¸Ħ":6960,"à¸ģà¸łà¸²à¸ŀ":6961,"Ġà¸Ńà¸°à¹Ħà¸£à¸Ĺ":6962,"à¹Ĥà¸¥à¸ģà¸Ļ":6963,"à¸¡à¹ĥà¸ª":6964,"Ġà¸Ĥà¸§":6965,"à¸Ļà¸Ńà¸²à¸Ĭ":6966,"à¸Ļà¹Ģà¸ģà¸¥":6967,"ano":6968,"à¸«à¸²à¸«à¸¡à¸Ń":6969,"à¸²à¸§à¹Ģà¸Ĺ":6970,"à¹ĥà¸Īà¹ĥà¸«":6971,"à¹ģà¸Ļà¸§à¹Ĥà¸Ļ":6972,"à¹ģà¸Łà¸£":6973,"à¸£à¸²à¸Ħà¸²à¸ķ":6974,"à¸ªà¸ļà¸²à¸¢à¹Ĩ":6975,"à¸§à¸ģà¸£":6976,"à¸ķà¸¥à¸²à¸Ķà¸Ļ":6977,"à¹ĥà¸Īà¸ķ":6978,"Ġwork":6979,"à¸²à¸Ĥà¸²à¸Ķ":6980,"à¸Ĭà¸²à¸¢à¸ģ":6981,"à¸Ľà¸£à¸²à¸ģà¸²à¸£":6982,"à¸²à¹ĥà¸ģà¸¥":6983,"à¸²à¹Ĥà¸ķ":6984,"à¸§à¸¢à¸¡à¸²à¸ģ":6985,"à¸Ńà¸¢à¸²à¸ģà¸ĭ":6986,"à¹Ħà¸Ĥà¸Ľ":6987,"à¸ŀà¸Ńà¸ķ":6988,"à¸Ńà¸Ķà¸¡":6989,"à¸Ħà¸§à¸²à¸¡à¹Ģà¸Ĥ":6990,"à¸²à¹Ħà¸Ľà¹ĥà¸Ĭ":6991,"azada":6992,"Ġmax":6993,"à¸ģà¸ªà¸²à¸¡":6994,"à¸²à¸Ľà¸£à¸°à¸Ī":6995,"à¸Ļà¸ģà¸²à¸£à¸ķ":6996,"pg":6997,"à¸Ńà¸¡à¸¢":6998,"Ġsk":6999,"Ġfir":7000,"Ġà¸Ħà¸²à¸£":7001,"à¸Ķà¹ģà¸ģ":7002,"à¸łà¸²à¸¢à¹ĥà¸ķ":7003,"à¸²à¹ģà¸Ļà¸§":7004,"à¸²à¸ĩà¸Īà¸£":7005,"à¸²à¸£à¸Ńà¸ĩ":7006,"à¹ĥà¸Īà¸Ħ":7007,"à¸Ļà¸¡à¸²à¸Ļà¸²à¸Ļ":7008,"à¹ģà¸ľà¸Ļà¸ģ":7009,"à¸Ĺà¹Ĥà¸ĺà¸Ľà¸ģà¸£à¸ĵ":7010,"à¸Ńà¹Ģà¸ŀà¸£à¸²à¸°":7011,"cd":7012,"à¸Ńà¸ģà¹Ħà¸Ķ":7013,"Ġà¹Ģà¸ŀà¸£à¸²à¸°à¸¢":7014,"Ġà¹Ĥà¸®":7015,"Ġà¹Ģà¸ªà¸²à¸£":7016,"à¹Ģà¸Ħà¸¢à¸ª":7017,"à¸ĩà¹Ĩà¸¡":7018,"à¸Ķà¸Ļà¸°":7019,"à¸Ļà¸Ľà¸£à¸°à¸ģ":7020,"Ġcoach":7021,"à¸¢à¸§à¹Ĥà¸ķ":7022,"à¹Ī\"":7023,"Ġ39":7024,"Ġà¸ļà¸²à¸Ĺà¸ķ":7025,"à¸Ļà¸Ĺà¸²à¸ĩà¸ģ":7026,"Ġà¹ģà¸Łà¸Ĭ":7027,"à¸²à¸¡à¸²à¹Ħà¸Ķ":7028,"à¸§à¸Ńà¸Ńà¸ģ":7029,"à¸§à¸ĩà¸¥":7030,"à¹ģà¸¥à¸°à¸¥":7031,"à¹Ħà¸Ľà¸ķà¸²à¸¡":7032,"à¸£à¸ļà¸ģà¸§à¸Ļà¹ģà¸Ļà¸°à¸Ļ":7033,"à¸Ńà¸°à¹Ħà¸£à¸Ļ":7034,"à¸«à¸£à¸Ńà¸ģà¸Ħ":7035,"Ġ;":7036,"à¸¥à¸Ńà¸ĩà¹ĥà¸Ĭ":7037,"Ġphot":7038,"Ġà¹Ģà¸Ħà¸¥":7039,"à¹Ķ":7040,"à¸Ńà¸¢à¸²à¸ģà¸ķ":7041,"à¸ģà¸Ħà¸Ļà¸Ħ":7042,"Ġà¹ģà¸¢à¸ģ":7043,"à¸¢à¸ļà¹Ģà¸£":7044,"à¸ļà¸£à¸Ħà¹Ģà¸ģà¸Ńà¸£":7045,"Ġgold":7046,"à¸Īà¸Ļà¸ģà¸§":7047,"Ġà¸Īà¸°à¹Ģà¸£":7048,"à¹Ģà¸ĭà¸Ļà¸ķ":7049,"à¹ģà¸Łà¸Ļà¸ľà¸¡":7050,"à¸¡à¸ī":7051,"à¸Ľà¸£à¸°à¹Ĥà¸¢à¸Ħ":7052,"à¸Ńà¸ĩà¸Ħà¸§à¸²à¸¡à¸£":7053,"Ġà¹ģà¸¥à¸°à¹ĥà¸Ĭ":7054,"à¸£à¸ĸà¹Ģà¸¡à¸¥":7055,"à¸¡à¸ŀà¸£":7056,"à¸°à¹Ģà¸Ĥ":7057,"à¸¢à¸ģà¹Ģà¸ģ":7058,"novo":7059,"windows":7060,"à¸ģà¸©à¸²à¸Ħ":7061,"à¹ĥà¸Ļà¹Ĥà¸¥à¸ģ":7062,"150":7063,"Ġvol":7064,"Ġlike":7065,"à¹Ģà¸Łà¸ĭà¸ļ":7066,"à¸Ńà¸°à¹Ħà¸£à¹Ģà¸ģ":7067,"à¸Ńà¸¡à¸Ī":7068,"à¸Łà¸Ĺ":7069,"Ġ555555":7070,"à¸ŀà¸Ńà¸Īà¸°à¸£":7071,"////////":7072,"à¸Ńà¸Ĥà¸Ń":7073,"Ġ$":7074,"à¸Ńà¸ī":7075,"à¹Ģà¸ĭà¸Ļ":7076,"à¹ģà¸Ļà¸°à¹ģà¸Ļà¸§":7077,"à¸ĵà¸Ń":7078,"à¸¢à¸Ķà¸ģ":7079,"ng":7080,"Ġà¹Ĥà¸£à¸ĩ":7081,"Ġsun":7082,"oy":7083,"à¸Ķà¹Ħà¸£":7084,"à¸²à¸Ļà¹ĥà¸«à¸¡":7085,"à¸ĵà¸Īà¸°":7086,"ura":7087,"à¸ļà¸Ńà¸Ļ":7088,"ats":7089,"à¹ĥà¸Īà¸£":7090,"à¸Ĥà¸ĵà¸°à¸Ļ":7091,"ict":7092,"à¸Ľà¸£à¸°à¸ģà¸²à¸£à¹ĥà¸Ķ":7093,"Ġvoucher":7094,"à¸Ķà¸ģà¸§":7095,"à¸¡à¸²à¸Ŀà¸²à¸ģ":7096,"Ġà¸ģà¸£à¸°à¹Ĥà¸Ľà¸£":7097,"à¸´\"":7098,"à¸ģà¸Īà¸°à¸¡":7099,"à¸²à¸Ĥà¸²à¸§":7100,"à¹Ĥà¸¢à¸ĺ":7101,"à¸Ńà¹Ģà¸£à¸²à¸¡":7102,"à¸Ńà¸Ļà¸Ħà¸Ļà¸Ń":7103,"à¸²à¸ĩà¹Ģà¸«":7104,"à¸²à¸ĩà¹ģà¸Ļ":7105,"à¸£à¸§à¸¡à¸ĸ":7106,"Ġà¹Ģà¸ŀà¸£à¸²à¸°à¹Ģà¸«":7107,"700":7108,"250":7109,"Ġmv":7110,"à¸¥à¸°à¸ķ":7111,"à¹ģà¸Ļà¸ļ":7112,"à¸Ĺà¸²à¸ĩà¸ģà¸²à¸£à¹Ģà¸¡":7113,"à¸²à¸Ļà¸Ńà¸ĩà¸Ļ":7114,"à¸ģà¸£à¸°à¹Ĥà¸Ķ":7115,"Ġà¸ľà¸¡à¹Ģà¸«":7116,"à¸Ńà¸ĩà¸ĩà¸²à¸Ļ":7117,"à¸§à¹ĥà¸ª":7118,"à¸²à¸Ļà¹ģà¸ķ":7119,"à¹Ģà¸Ńà¸²à¸£":7120,"Ġà¸Ľà¸£à¸°à¸ĺà¸²à¸Ļ":7121,"wi":7122,"à¸Ļà¹ĥà¸Īà¸Ĺ":7123,"ica":7124,"à¸²à¸§à¹Ħà¸¡":7125,"à¹Ĥà¸¥à¸ģà¸Ĺ":7126,"Ġfull":7127,"ics":7128,"à¸«à¸¡à¸Ķà¸Ĺ":7129,"à¹Ģà¸Ĥà¸²à¸ŀ":7130,"à¸²à¸Ļà¸Ļà¸Ĺ":7131,"à¸Ĥà¸²à¸¢à¸Ķ":7132,"à¹Ģà¸§à¸¥à¸²à¹ĥà¸«":7133,"à¹Ĥà¸Ĺà¸£à¸«à¸²":7134,"à¸ķà¸Ī":7135,"Ġà¹Ħà¸Ľà¹ģà¸¥":7136,"ĠâĻ¥":7137,"à¸Ńà¸Ļà¹ģà¸¥à¸°":7138,"à¸Ńà¸ĩà¸Ļà¸Ńà¸ģ":7139,"à¸Ľà¸Ħà¸£":7140,"Ġà¸Ĺà¸«à¸²à¸£":7141,"Ġpark":7142,"à¸Ĥà¸ĵà¸°":7143,"à¸²à¸¥à¸°à¸Ħà¸£":7144,"Ġcream":7145,"à¸ļà¸²à¸£":7146,"Ġà¹ģà¸Ľà¸¥à¸§":7147,"à¹ĥà¸Ļà¸ģà¸£à¸ĵ":7148,"à¸Ńà¸¡à¹ģà¸¥":7149,"à¸ļà¸¨":7150,"Ġà¸Ħà¸§à¸²à¸¡à¹Ģà¸£":7151,"à¸Ļà¸Ĺà¸²à¸ĩà¸ģà¸¥":7152,"à¸Ĥà¸Ńà¸ĩà¹Ģà¸Ī":7153,"à¸²à¸¢à¸Ńà¸Ķ":7154,"ife":7155,"Ġlive":7156,"à¸ļà¸¥à¸ĩ":7157,"63":7158,"à¹Ģà¸£à¸¢":7159,"Ġà¸ģà¸°à¸§":7160,"Ġuniq":7161,"à¸Ńà¹ģà¸Ķ":7162,"à¸Ńà¸°à¹Ħà¸£à¸Ħà¸°":7163,"à¹Ģà¸§à¸¥à¸²à¸ķ":7164,"à¸Ĥà¸Ńà¸ĩà¸Ľ":7165,"à¸Ńà¸¢à¹ģà¸Ħ":7166,"à¸ĩà¹ģà¸Ĭà¸¡à¸Ľ":7167,"à¸¢à¸ģà¸°":7168,"arch":7169,"à¸įà¸Ĭà¸²à¸ķ":7170,"Ġind":7171,"à¸¡à¸¡à¸²":7172,"à¸Ńà¸Ńà¹Ģà¸Ķà¸Ńà¸£":7173,"à¸Ľà¸£à¸°à¸¢":7174,"Ġà¸Ħà¸Ļà¹Ħà¸Ĺà¸¢":7175,"à¸¥à¹Ģà¸ģ":7176,"à¹Į\",\"":7177,"à¸£à¸ĸà¸Ħ":7178,"Ġà¹ģà¸¥à¸°à¹ģà¸¥":7179,"à¸Ńà¸ģà¸£à¸°":7180,"à¸¢à¸Ļà¸ļà¸Ĺ":7181,"à¸ªà¸°à¸ŀà¸²à¸Ļ":7182,"à¸£à¸²à¸Ħà¸²à¸ª":7183,"à¸²à¸ģà¸²à¸£à¸ļ":7184,"à¸²à¸¡à¸²à¸Ī":7185,"à¸°à¸ªà¸¡":7186,"à¸¥à¸°à¸¥à¸²à¸¢":7187,"à¸ķà¸£à¸Ľà¸£à¸°à¸Ĭà¸²à¸Ĭ":7188,"à¸ģà¸²à¸¥à¸Ĺ":7189,"à¸§à¸ĩà¹Ģà¸Ĭ":7190,"cel":7191,"à¸«à¸²à¸ª":7192,"à¸Ńà¸ģà¹ĥà¸Ĭ":7193,"à¸Ńà¸ĩà¸Ĺà¸Ńà¸ĩ":7194,"à¸§à¸¢à¸ŀ":7195,"Ġà¸Īà¸°à¸ĸ":7196,"à¸²à¸¢à¹Ģà¸£":7197,"à¸ģà¸²à¸£à¸ľ":7198,"à¸ĩà¸Ľà¸£à¸°à¹Ģà¸Ĺà¸¨":7199,"à¸Ļà¹Ħà¸ĩà¸ļ":7200,"à¸Īà¸²à¸ģà¸ª":7201,"dit":7202,"Ġà¹Ģà¸Ľà¸£":7203,"à¸Ľà¹Ģà¸Ľ":7204,"à¸łà¸²à¸©à¸²à¸ķ":7205,"à¸Ńà¸§à¸²à¸Ļà¸Ļ":7206,"à¸²à¸Ńà¸¢à¸²à¸ģà¹ĥà¸«":7207,"à¸¡à¸ĩà¸Ħà¸¥":7208,"à¸§à¸ĩà¸ŀ":7209,"à¹Ģà¸£à¸²à¹ĥà¸«":7210,"à¸Ħà¸Ńà¸£":7211,"à¹Ģà¹Ģà¸Ĺ":7212,"à¸ĵà¸Ĭà¸²à¸¢":7213,"à¸²à¸ĩà¹Ĩà¸ģ":7214,"bank":7215,"à¸Ńà¸ĩà¸ģà¸²à¸£à¹ĥà¸Ĭ":7216,"à¸¢à¸Ļà¸ľ":7217,"Ġà¸Ŀà¸£":7218,"à¸²à¹Ģà¸ŀà¸¥à¸ĩ":7219,"à¸ģà¸²à¸£à¹Ħà¸Ķ":7220,"à¹Ĥà¸£à¸¡":7221,"à¸²à¸ĩà¹Ģà¸¡":7222,"Ġ-------------------":7223,"à¸µà¹ī...":7224,"à¸Ļà¸łà¸²à¸¢à¹ĥà¸Ļ":7225,"à¸ĩà¸ģà¸°":7226,"Ġ^_^":7227,"à¹ĥà¸Ļà¸Ĳà¸²à¸Ļà¸°":7228,"Ġà¸ŀà¸§à¸ģà¸Ļ":7229,"Ġwin":7230,"à¸ªà¹Ħà¸Ķ":7231,"aid":7232,"à¸²à¹Ħà¸Ľà¸ĭ":7233,"à¸ĩà¹Ĥà¸Ķ":7234,"à¹ĥà¸Ļà¸ĩà¸²à¸Ļ":7235,"Ġà¹Ģà¸¥à¸Ĥà¸Ĺ":7236,"à¹Ĥà¸¥à¸ģà¸ª":7237,"Ġstr":7238,"Ġà¹Ģà¸Ħà¸¢à¸¡":7239,"à¹Ĩà¸Ķ":7240,"à¸ļà¹ģà¸Ħ":7241,"à¸ģà¸Ĭà¸Ńà¸ļ":7242,"uaw":7243,"à¸Ļà¹ĥà¸Ļà¸§":7244,"Ġà¸ģà¸ģ":7245,"à¸Ķà¸Ńà¸°à¹Ħà¸£à¸ģ":7246,"à¹Ħà¸£à¸ĩ":7247,"Ġà¸Īà¸°à¸¢":7248,"à¸¢à¸§à¹Ģà¸¥à¸¢":7249,"à¸Ńà¹Ħà¸«à¸Ļ":7250,"à¸ļà¸¡à¸²à¸ļ":7251,"à¹Ĥà¸¡à¸¢":7252,"à¸²à¸¥à¸Ńà¸ĩ":7253,"à¸²à¸ģà¸£à¸ĵ":7254,"Ġà¹Ģà¸ŀà¸£à¸²à¸°à¸Ķ":7255,"Ġtag":7256,"à¸¢à¸ĩà¹Ģà¸Ķ":7257,"à¸²à¹Ģà¸Ĥà¸²à¹Ħà¸¡":7258,"Ġ......":7259,"à¸¥à¸Ķà¸Ļ":7260,"ney":7261,"Ġà¹ģà¸ĸà¸§":7262,"à¸Ħà¸Ļà¸ŀ":7263,"ior":7264,"à¸ļà¹Ĥà¸Ĺà¸£à¸¨":7265,"à¸²à¸Ļà¸ĸ":7266,"Ġpay":7267,"à¸Īà¸°à¸ļ":7268,"à¸Ńà¸¢à¸«à¸Ļ":7269,"Ġpan":7270,"à¸Ļà¸Ĥà¸Ńà¸ĩà¸Ĺ":7271,"à¸¡à¸Ńà¸ļ":7272,"à¸§à¹Ģà¸Ńà¸ĩà¹ĥà¸«":7273,"à¸Īà¸£à¸£à¸¢":7274,"à¸¢à¸Ļà¸«":7275,"à¸ĺà¸ł":7276,"Ġà¸¡à¸²à¸Ļ":7277,"Ġrouter":7278,"à¸ĩà¹ĥà¸Ļà¸ļ":7279,"ven":7280,"Ġlumia":7281,"à¸²à¸¡à¸«à¸²à¸¥":7282,"udio":7283,"à¹Ĥà¸Ĺà¸£à¸«":7284,"Ġà¸Ħà¸Ļà¸£":7285,"à¸Ĥà¸²à¸¢à¹Ħà¸Ķ":7286,"à¸Ńà¸¢à¸ĸ":7287,"à¹Ģà¸£à¸²à¸Ĭ":7288,"à¸Īà¸Ļà¸ļ":7289,"à¹ģà¸Īà¸ģ":7290,"à¸Ļà¹Ħà¸Ĥ":7291,"à¹Ģà¸Ĥà¸²à¸ģà¸¥":7292,"à¸Ńà¸¢à¸²à¸ģà¹ĥà¸Ĭ":7293,"à¸§à¸ĩà¸Ħ":7294,"Ġ~":7295,"ital":7296,"à¹Ģà¸Ĥà¸²à¸ļà¸Ńà¸ģ":7297,"à¸¢à¸¡à¸ģ":7298,"à¸ģà¹Ħà¸Ĺà¸¢":7299,"Ġlg":7300,"à¸Ńà¸ĩà¸Īà¸²à¸ģà¸¡":7301,"à¸Ĥà¸Ńà¸¢":7302,"à¹Ģà¸®à¸ĩ":7303,"à¸ĩà¸ªà¸Ļ":7304,"page":7305,"à¸Ļà¸¡à¸²à¹ĥà¸«":7306,"à¸Ķà¸«à¸¢":7307,"à¹ĥà¸Ļà¸Ķ":7308,"à¸Ľà¸£à¸ģà¸ķ":7309,"à¸Ńà¸¢à¸«à¸¥":7310,"à¸£à¸²à¸Ĭà¸§à¸ĩà¸¨":7311,"à¸ģà¸ĩà¸²à¸Ļà¸ļà¸£":7312,"à¸Ńà¸¢à¸²à¸ģà¸ĸà¸²à¸¡à¸§":7313,"à¸ļà¹Ĥà¸¥à¸ģ":7314,"à¸Ńà¸ļà¸ģ":7315,"à¸¢à¸Ńà¸Ķà¹Ģà¸¢":7316,"à¸ľà¸¡à¸Ń":7317,"Ġred":7318,"à¸Ńà¸Ńà¸ģà¸¡à¸²à¹Ħà¸Ķ":7319,"à¸Ńà¸Ńà¸²à¸¢":7320,"à¹ģà¸Łà¸Ļà¸Ńà¸¢":7321,"à¸Ńà¸Ļà¹Ĩà¸Ĭ":7322,"Ġbox":7323,"à¸²à¸ļà¸Ĺ":7324,"à¸ľà¸¥à¸§":7325,"à¸ªà¸Ńà¸ļà¸ĸà¸²à¸¡à¹Ģà¸ģ":7326,"à¸ĩà¹Ĥà¸ļà¸£à¸Ħà¹Ģà¸ģà¸Ńà¸£":7327,"à¹Ĥà¸Ńà¸£":7328,"Ġà¸Ľà¸£à¸°à¸ģà¸Ńà¸ļà¸Ķ":7329,"à¸¥à¹Ħà¸Ķ":7330,"Ġà¹Ģà¸ŀà¸£à¸²à¸°à¸ŀ":7331,"à¸Ķà¹ĥà¸Ļà¹ĥà¸Ī":7332,"à¹ģà¸Łà¸Ļà¹ĥà¸«à¸¡":7333,"à¸²à¹Ģà¸£à¸²à¸Ĭà¸Ńà¸ļ":7334,"à¸ĩà¹Ħà¸ĩà¹Ħà¸¡":7335,"98":7336,"à¹Ģà¸Ńà¸ĩà¸Ħà¸£":7337,"à¸ªà¸²à¸ĺà¸²à¸£à¸ĵ":7338,"mart":7339,"à¸Ńà¸Īà¸²à¸ģà¸Ļ":7340,"à¸²à¹Ģà¸łà¸Ń":7341,"à¹Ģà¸Ĥà¸²à¸ª":7342,"Ġà¹ģà¸Ĭà¸£":7343,"à¸§à¹Ħà¸§":7344,"à¸²à¸Ļà¹ĥ":7345,"Ġnotebook":7346,"Ġok":7347,"à¸įà¸«à¸²à¸Ĥà¸Ńà¸ĩ":7348,"uawei":7349,"à¹Ģà¸Ńà¸²à¸£à¸ĸ":7350,"à¸Ĳà¸¯":7351,"à¸Ńà¸ĩà¸ļà¸Ńà¸ģà¸§":7352,"à¸²à¸ªà¸Ľà¸Ńà¸£":7353,"à¸¢à¸Ľ":7354,"à¸ªà¸Ńà¸ĩà¸Ħà¸Ļ":7355,"à¸§à¸¥à¸Ĭà¸Ļ":7356,"Ġgrand":7357,"Ġà¸Ļà¸²à¸ĩà¸ģ":7358,"à¸²à¸²à¸²à¸²à¸²à¸²à¸²à¸²":7359,"à¸Ķà¹Ģà¸¢":7360,"à¸ļà¹ĥà¸ª":7361,"à¸ģà¸©à¸²à¸ŀ":7362,"à¸²à¹ģà¸«à¸ĩ":7363,"à¸ľà¸¥à¸ģ":7364,"à¸¡à¸²à¸ģà¸¡":7365,"à¹Ģà¸§à¸¥à¸²à¸Ľà¸£à¸°à¸¡à¸²à¸ĵ":7366,"à¹ĥà¸Ļà¸Ľà¸£à¸°à¹Ģà¸Ĺà¸¨à¹Ħà¸Ĺà¸¢":7367,"à¸łà¸²à¸ŀà¸Ļ":7368,"à¹ĵ":7369,"off":7370,"à¸ģà¹ģà¸Ļ":7371,"???,\"":7372,"à¹Ĥà¸«à¸¡à¸Ķ":7373,"Ġuniqlo":7374,"à¸ĩà¹Ħà¸ĩà¸ĸ":7375,"à¸Ĥà¸¡":7376,"Ġà¹Ģà¸£à¸²à¹ĥà¸Ĭ":7377,"à¹ĥà¸Ļà¸ķà¸Ńà¸Ļà¸Ļ":7378,"à¸ļà¹ģà¸ļà¸ļ":7379,"à¸²à¹ģà¸ļ":7380,"à¸ļà¸¡à¸²à¸£":7381,"à¸Ĭà¸¡à¸§":7382,"Ġà¸ŀà¸Ńà¸§":7383,"new":7384,"à¹Ħà¸Ĺà¸¢à¸ŀà¸²à¸ĵ":7385,"à¹ī(":7386,"Ġanal":7387,"à¸ļà¹Ģà¸«à¸¡":7388,"à¸²à¸Īà¸°à¸Ļ":7389,"Ġcat":7390,"à¸ĩà¸ªà¸Ńà¸ĩà¸Ħà¸Ļ":7391,"Ġjapan":7392,"Ġà¹ģà¸¥à¸°à¸ģà¸¥":7393,"à¸¢à¸§à¸ĭ":7394,"à¸µ...":7395,"à¸Ńà¸ĩà¸ĩ":7396,"à¸Īà¸Ķà¸«à¸¡à¸²à¸¢":7397,"à¹ģà¸ļà¸Ħ":7398,"à¸¢à¸ĩà¸Ĭ":7399,"à¹Ĥà¸ĭà¸Ļ":7400,"à¸¢à¸Ļà¸ĭ":7401,"à¸Īà¸Ļà¸Ĺ":7402,"à¸¢à¸Ļà¹ģà¸ļà¸ļ":7403,"à¹Ģà¸§à¸¥à¸²à¸Ħ":7404,"itt":7405,"ef":7406,"à¸Ļà¹ĥà¸Īà¹Ħà¸¡":7407,"à¸Ľà¸¥à¸²à¸¢à¸Ĺà¸²à¸ĩ":7408,"à¸ĩà¹ģà¸«":7409,"à¹Ħà¸Ľà¹Ģà¸Īà¸Ń":7410,"à¹ģà¸ªà¸Ķà¸ĩà¸Ħà¸§à¸²à¸¡à¸Ħ":7411,"à¸¡à¸²à¸Ľà¸£":7412,"à¸Ľà¸£à¸°à¸ĸ":7413,"à¹Ģà¸Ĥà¸²à¸Ļ":7414,"à¸ģà¸²à¸£à¸Ńà¸Ńà¸¡à¹Ģà¸ĩ":7415,"76":7416,"à¸łà¸²à¸Ħà¸Ń":7417,"à¸£à¸²à¸Ĭà¸ļ":7418,"à¸Ńà¸Ļà¸¡à¸²":7419,"à¸Ńà¸²à¸ļà¸Ļ":7420,"Ġsport":7421,"à¸Ńà¹Ħà¸Ľà¸ģ":7422,"à¸²à¸Ļà¸Ħà¸Ļ":7423,"à¸Ĥà¸Ńà¹Ģà¸Ľ":7424,"à¸Ńà¸²à¸Īà¹Ħà¸¡":7425,"à¸°à¹Ģà¸Ľ":7426,"Ġà¹Ĥà¸£à¸Ħ":7427,"à¸©à¸Ĳà¸²à¸Ļ":7428,"à¹Ĥà¸Ħà¸Ļ":7429,"à¸Ńà¹ģà¸Ĺ":7430,"à¸Ĺà¸²à¸ĩà¸Ĭ":7431,"à¹ģà¸Łà¸Ļà¹Ģà¸Ľ":7432,"Ġà¹Ģà¸Ńà¸²":7433,"à¸Ńà¸Ńà¸ģà¹Ģà¸Ķ":7434,"à¹ģà¸ªà¸Ķà¸ĩà¸§":7435,"à¸Ńà¸¢à¸²à¸ģà¹Ģà¸Ĥ":7436,"Ġà¹ģà¸¥à¸°à¸«":7437,"à¸Īà¸°à¸ļà¸Ńà¸ģà¸§":7438,"à¸Ńà¸°à¹Ħà¸£à¸ķ":7439,"à¸ªà¸¡à¸ģ":7440,"à¸Ļà¹ģà¸Ļà¸°à¸Ļ":7441,"à¸²à¸Ĥà¸Ńà¸ļà¸Ħ":7442,"à¹ĥà¸ļà¸Ļ":7443,"Ġsupp":7444,"à¹ģà¸¡à¸Ļ":7445,"à¸²à¸¢à¹Ģà¸ļà¸Ńà¸£":7446,"à¸ļà¸ł":7447,"à¸²à¹Ħà¸Ľà¹Ģà¸Ĺ":7448,"à¹ģà¸£à¸ģà¸Ħ":7449,"à¸²à¸Ļà¹Ģà¸Ĭ":7450,"Ġmot":7451,"Ġcop":7452,"à¸¢à¸Ķà¸Ĺ":7453,"à¸®à¸Ńà¸¥":7454,"à¸«à¸¥à¸²à¸¢à¸£à¸Ńà¸ļ":7455,"à¸¨à¸§à¸ģà¸£":7456,"à¹ģà¸¥à¸°à¹Ģà¸ŀ":7457,"à¸ĩà¸ªà¸²à¸£":7458,"02":7459,"stem":7460,"à¸Ľà¸ł":7461,"à¸²à¸§à¹Ħà¸Ķ":7462,"à¸¢à¸Ķà¸ª":7463,"à¸¢à¸Ļà¸Ľ":7464,"à¸Ļà¸ĺà¸¡":7465,"à¸Ľà¸ªà¸£à¸£à¸Ħ":7466,"à¸Ħà¸§à¸²à¸¡à¹Ħà¸¡":7467,"à¸Ļà¹ĥà¸Ļà¸ļ":7468,"à¸Ľà¸¥à¸²":7469,"à¸²à¸¢à¸ģà¸£":7470,"à¸Ķà¸Ľà¸£à¸°à¸ªà¸ĩà¸Ħ":7471,"à¹Ģà¸§à¸¥à¸²à¸ľ":7472,"à¸¡à¸²à¸ģà¸ģà¸ģà¸ģà¸ģ":7473,"à¸¡à¸²à¸ģà¹Ģà¸¥à¸¢à¸Ħ":7474,"à¹ĥà¸Ļà¸ģà¸²à¸£à¹Ģà¸¥":7475,"à¸ªà¸Ńà¸ļà¸ļ":7476,"à¹ĥà¸Ļà¸«à¸¡":7477,"à¹ĥà¸Ħà¸£à¸ª":7478,"ational":7479,"Ġà¹Ģà¸Ńà¸²à¹Ģà¸Ľ":7480,"network":7481,"à¹Ģà¸«à¸Ńà¸°":7482,"à¹Ħà¸Ĭ":7483,"à¸Ńà¸£à¸ĸà¸¢à¸Ļà¸ķ":7484,"Ġ42":7485,"à¸¢à¸Ļà¸¢":7486,"à¸ªà¸ĩà¸Ĩ":7487,"Ġà¸Ħà¸§à¸²à¸¡à¸Īà¸£":7488,"à¹Ģà¸Ħà¸¢à¸ĭ":7489,"à¸ķà¸Ľà¸£à¸°à¸Ī":7490,"Ġlight":7491,"à¸Ĥà¸Ńà¹Ĥà¸Ĺà¸©à¸Ķ":7492,"Ġvisa":7493,"à¸²à¸¡à¸²à¸Ļ":7494,"à¹ĸ":7495,"Ġà¸Ķà¸²à¸£":7496,"Ġà¸Ĭà¸§à¸Ļ":7497,"à¸¢à¹Ģà¸¥à¸¢":7498,"à¸Ļà¸ķà¸ģà¸£à¸£à¸¡":7499,"à¸²à¸Ńà¸ĺ":7500,"à¸Ĳà¸§":7501,"Ġcore":7502,"à¸£à¸ĸà¸ģà¸£à¸°à¸ļà¸°":7503,"à¸²à¸¡à¸²à¸«":7504,"à¸ģà¸Ľà¸£":7505,"Ġà¸ķà¸Īà¸§":7506,"à¸²à¹Ģà¸«à¸Ļ":7507,"à¹Ĥà¸ģà¸Ļ":7508,"à¸¢à¸ĩà¸¡":7509,"à¸¡à¸²à¸ģà¸ģà¸ģ":7510,"à¹ģà¸Ľà¸°":7511,"à¸Ńà¸°à¹Ħà¸£à¹ģà¸ļà¸ļà¸Ļ":7512,"================================":7513,"à¸²à¹ģà¸¢":7514,"à¸Ķà¸ķà¸¥à¸Ńà¸Ķ":7515,"Ġà¹Ģà¸Ńà¸ģà¸ªà¸²à¸£":7516,"Ġà¹Ģà¸Īà¸Ńà¸ģ":7517,"à¸ķà¸Ńà¸Ļà¹Ģà¸Ķ":7518,"à¸²à¸ĩà¸²à¸Ļà¸Ľà¸£à¸°à¸Ī":7519,"à¸²à¸ľà¸¡à¹Ģà¸Ľ":7520,"à¸Ħà¸§à¸²à¸¡à¸Ľà¸¥à¸Ńà¸Ķà¸ł":7521,"à¹Ħà¸«à¸¡à¸§":7522,"à¸ļà¸Ńà¸ģà¸ķ":7523,"à¸Ļà¸°à¹Ģà¸¥":7524,"era":7525,"Ġà¹Ħà¸¥à¸Ļ":7526,"à¹ģà¸ģà¸ģ":7527,"à¸ªà¸²à¸¡à¸²à¸£à¸ĸà¸£":7528,"à¸Ľà¸£à¸°à¸ŀ":7529,"à¸ªà¸ķà¸£":7530,"Ġà¸ŀà¸Ńà¹Ģà¸Ĥ":7531,"à¹Ħà¸Ľà¹Ģà¸Ĭ":7532,"Ġdel":7533,"Ġà¸ľà¸¡à¹Ģà¸£":7534,"Ġà¸ļà¸§à¸ģà¸ģ":7535,"à¹Ĥà¸Ĺà¸£à¸ģà¸¥":7536,"à¸²à¹ģà¸Ńà¸ļ":7537,"à¹Ģà¸Ńà¸²à¸Ħ":7538,"Ġà¹ģà¸¥à¸°à¸ļ":7539,"à¸Ķà¸ģà¸²à¸£à¸Ĺ":7540,"à¸Ļà¸¡à¸Ļ":7541,"à¹ĥà¸Ħà¸£à¹ĥà¸Ĭ":7542,"à¸Ķà¸ģà¸²à¸£à¸ģ":7543,"à¸ģà¸©à¸²à¸«à¸Ļ":7544,"Ġà¸ļà¸²à¸ĩà¸§":7545,"à¸§à¸¢à¸Ľ":7546,"Ġcle":7547,"à¸ĩà¹Ģà¸¢à¸Ńà¸°":7548,"à¸ļà¸¡à¸²à¸Īà¸²à¸ģ":7549,"Ġà¸ŀà¸Ńà¸Ĺ":7550,"Ġà¹ĥà¸Ļà¹Ģà¸£":7551,"Ġà¹Ģà¸Ńà¸Ł":7552,"google":7553,"à¸ļà¸Ńà¸ģà¹Ħà¸Ķ":7554,"Ġ3000":7555,"à¸ªà¸¡à¸Ħà¸§à¸£":7556,"uz":7557,"able":7558,"à¸¢à¸ĩà¸Ń":7559,"Ġà¹ģà¸¥à¸°à¹Ģà¸£à¸²à¸ģ":7560,"à¸įà¸įà¸²à¸ķà¸£":7561,"oil":7562,"à¸Ļà¸¡à¸²à¸¡":7563,"Ġma":7564,"yc":7565,"fr":7566,"à¸ªà¸ĸà¸²à¸Ľ":7567,"à¸¥à¹ĥà¸«":7568,"à¸ģà¹Ĩà¸§":7569,"à¸Ķà¸Ħà¸°":7570,"à¹Ħà¸ĸ":7571,"à¸¹,":7572,"Ġà¹ĥà¸ļà¸Ĺ":7573,"à¸²à¸ªà¸Ńà¸ļ":7574,"max":7575,"à¸Ĭà¸Ľ":7576,"à¸Ħà¸§à¸²à¸¡à¸¥":7577,"Ġâľ":7578,"Ġel":7579,"à¸²à¹Ģà¸Īà¸Ń":7580,"à¸Ķà¹ģà¸Ĺ":7581,"Ġke":7582,"à¸²à¸ķà¸²à¸¢":7583,"kk":7584,"à¸Ļà¸£à¸Ńà¸ļ":7585,"à¸ĵà¸łà¸²à¸ŀà¸Ķ":7586,"Ġà¸ªà¸łà¸²à¸ŀà¸Ķ":7587,"à¹Ħà¸Ĥà¸¢":7588,"à¸Ļà¸łà¸²à¸©à¸²à¸Ń":7589,"Ġà¸¡à¸²à¹ĥà¸Ĭ":7590,"à¸Ńà¹Ģà¸§à¸¥à¸²":7591,"à¸Ħà¸§à¸²à¸¡à¸Ĺà¸£à¸ĩà¸Ī":7592,"agon":7593,"à¹Ī?":7594,"Ġà¸Ĥà¸ĵà¸°à¸Ļ":7595,"Ġtoyota":7596,"à¸§à¹Ĩà¸Ļ":7597,"à¹Ģà¸¥à¸¢à¸¢":7598,"inet":7599,"Ġà¸ªà¸Ľ":7600,"à¸Ķà¸ªà¸£à¸£":7601,"à¹Ģà¸£à¸²à¹Ģà¸Ķ":7602,"à¸²à¹Ģà¸ªà¸¡à¸Ń":7603,"à¸Ńà¸Ħà¸Ńà¸¢":7604,"aa":7605,"à¹Ĥà¸ļà¸£":7606,"Ġà¹Ģà¸£à¸²à¹Ģà¸«":7607,"top":7608,"à¸ģà¸²à¹ģà¸Ł":7609,"à¸ĩà¸ŀà¸¥":7610,"à¸Ĥà¸Ńà¸ĩà¹Ħà¸Ĺà¸¢":7611,"à¸Ĺà¸£à¸¡à¸²à¸Ļ":7612,"à¸²à¹ĥà¸Īà¹Ħà¸Ķ":7613,"à¹Ħà¸«à¸Ļà¹Ħà¸¡":7614,"à¸Ńà¸²à¸Īà¸¡":7615,"à¸ªà¸²à¸Ĥà¸²":7616,"à¸²à¸ĩà¹Ģà¸Ħà¸£":7617,"à¹Ģà¸Ńà¸ĩà¹Ħà¸¡":7618,"Ġkey":7619,"Ġbb":7620,"its":7621,"Ġà¸Ĥà¸Ńà¸Ĥà¸Ńà¸ļà¸Ħ":7622,"day":7623,"Ġà¸ļà¸²à¸ĩà¸Ħà¸Ļà¸ģ":7624,"à¹Ī..":7625,"à¸Ļà¹ĥà¸Ķ":7626,"Ġà¸Ĳà¸²à¸Ļ":7627,"à¸²à¹Ħà¸Ľà¸¢":7628,"à¸Ńà¸¢à¸ģà¸¥":7629,"à¸Ńà¸¡à¸²à¸Īà¸²à¸ģ":7630,"à¸ľà¸¥à¸ģà¸£à¸°à¸Ĺ":7631,"à¸Ńà¸Ļà¹ĥà¸«à¸¡":7632,"à¸Ļà¹Ģà¹Ģà¸¥":7633,"à¸Īà¸Ńà¸ĩà¸ķ":7634,"à¸²à¸Ľà¸ı":7635,"à¸Ńà¹Ģà¸ŀà¸¥":7636,"à¸Ħà¸¥à¸²à¸¢":7637,"Ġà¸Īà¸°à¹Ģà¸Ĥ":7638,"à¹Ģà¸ĺà¸Ńà¸ķ":7639,"à¸£à¸°à¸¢à¸°à¸¢à¸²à¸§":7640,"à¸Ńà¸ĩà¸ľà¸¡":7641,"à¸¥à¸°à¸¡":7642,"à¸ĩà¸¡à¸²à¸Ĺ":7643,"angk":7644,"à¸ķà¸²à¸¡à¸ª":7645,"du":7646,"Ġà¹Ģà¸£à¸²à¸ļà¸Ńà¸ģ":7647,"à¸ªà¸°à¸Ĺ":7648,"Ġà¹Ĥà¸«à¸¥":7649,"à¹Ģà¸Ńà¸¡":7650,"à¸²à¸łà¸²à¸¢à¹ĥà¸Ļ":7651,"à¸²à¸Īà¸°à¸Ĭ":7652,"à¸¡à¸Ĭà¸Ļ":7653,"Ġà¸Ħà¸ĩà¸ķ":7654,"à¸ªà¸ĩà¸ļ":7655,"à¸Ľà¸£à¸°à¸ģà¸Ńà¸ļà¸ģà¸²à¸£":7656,"à¸Ńà¸¢à¸²à¸ģà¸¥à¸Ńà¸ĩ":7657,"à¹ģà¸Ļà¸§à¸Ĥ":7658,"à¸Īà¸°à¹ģà¸ģ":7659,"à¸Ķà¹Ģà¸ļà¸Ńà¸£":7660,"Ġà¹Ģà¸¥à¸Ļà¸ª":7661,"Ġà¸«à¸Ńà¸¡":7662,"86":7663,"à¸«à¸¡à¸Ńà¸Ķ":7664,"Ġà¹Ģà¸£à¸²à¹Ģà¸Ĥ":7665,"Ġà¹Ħà¸«à¸¡à¸Ħà¸£":7666,"à¹ĥà¸Ļà¸£à¸°à¸ļà¸ļ":7667,"ns":7668,"à¸¡à¹Ģà¸ļà¸Ńà¸£":7669,"à¹Ģà¸Ĥà¸²à¹Ģà¸¥":7670,"à¸ķà¸«à¸£":7671,"à¸ķà¸§à¸£à¸£à¸©":7672,"à¸²à¹Ħà¸¡à¸Ħ":7673,"à¸£à¸ĸà¹Ģà¸ģ":7674,"à¸Ļà¸«à¸Ńà¸¡":7675,"Ġà¸ģà¸²à¸ĩà¹Ģà¸ģà¸ĩ":7676,"à¹Ģà¸Ńà¸²à¸Ļ":7677,"à¸Ĥà¸Ńà¸ķ":7678,"à¸ļà¸ģà¸£":7679,"à¸«à¸²à¸¢à¸²à¸ģ":7680,"à¸ģà¸²à¸£à¹ģà¸ģ":7681,"Ġà¹Ģà¸Ĥà¸²à¸Ħ":7682,"Ġà¸ľà¸¡à¹Ģà¸Ĥ":7683,"à¸Ńà¸²à¸į":7684,"à¸§à¹Ģà¸«à¸¥":7685,"à¸Ĭà¸²à¸Ĭ":7686,"à¸²à¸¢à¸¡à¸²":7687,"à¸²à¸ĩà¸Ļà¸°à¸Ħà¸°":7688,"à¸²à¸Ńà¸°à¹Ħà¸£à¸ļ":7689,"à¸¢à¸ģà¹ĥà¸«":7690,"à¹Ĥà¸ĭà¸¥":7691,"à¸ķà¸Īà¸£":7692,"à¸²à¹Ħà¸Ľà¹Ģà¸£":7693,"à¸¨à¸Ĺà¸²à¸ĩ":7694,"à¹ĥà¸Ļà¸ģà¸²à¸£à¸£":7695,"à¹ĥà¸Ļà¹Ģà¸Ķ":7696,"à¸ĩà¸Ńà¸²à¸«à¸²à¸£":7697,"à¸Ńà¸ĩà¹Ģà¸£à¸²":7698,"Ġtrip":7699,"à¸ŀà¸ĩà¸©":7700,"à¸ģà¹Ģà¸ªà¸ļ":7701,"à¸ĩà¸«à¸¡à¸Ķà¸Ļ":7702,"à¸ķà¸Ńà¸Ļà¹Ģà¸¢":7703,"à¸Ĥà¸Ńà¸Ħà¸§à¸²à¸¡à¹Ģà¸«":7704,"ins":7705,"à¸Ńà¸Ńà¸²à¸Ĭ":7706,"Ġot":7707,"Ġà¹Ģà¸§à¸Ńà¸£":7708,"à¸ķà¸Ńà¸Ļà¸ķ":7709,"à¸ªà¸Ńà¸ļà¸ĸà¸²à¸¡à¹Ģà¸ŀ":7710,"à¸¡à¹Ģà¸¡à¸Ńà¸£":7711,"aby":7712,"à¹Ģà¸Ħà¸¢à¸ģ":7713,"::::":7714,"à¸°à¸Ĭ":7715,"à¸²à¸£à¸ĩà¸ķ":7716,"à¸Ļà¸Ĭà¸²à¸§":7717,"à¹Ģà¸§à¸¥à¸²à¸Ńà¸¢":7718,"Ġ75":7719,"à¸¥à¸Ńà¸ģ":7720,"à¸łà¸²à¸ŀà¸Ķ":7721,"à¸Ļà¸Ńà¸£":7722,"à¹Ģà¸Ħà¸Ĭ":7723,"à¹ģà¸Ļà¸°à¹ģà¸Ļà¸§à¸ģà¸²à¸£à¸¨":7724,"à¸«à¸¥à¸²à¸Ļ":7725,"Ġmod":7726,"à¸¥à¸ĩà¸¡":7727,"à¸²à¸ĩà¹Ģà¸£à¸²":7728,"à¸¹à¹Ī\",":7729,"Ġhdd":7730,"vis":7731,"à¹Ī\"\"":7732,"à¸ģà¸²à¸£à¹Ģà¸ģ":7733,"à¸Ļà¹Ħà¸Ľà¸ĸ":7734,"à¸Ńà¸ĩà¸£à¸Ń":7735,"be":7736,"à¸ªà¸Ńà¸ļà¹Ģà¸Ĥ":7737,"Ġà¸Ĥà¸Ńà¸ĩà¹ĥà¸«à¸¡":7738,"à¸Ļà¸«à¸§":7739,"à¸ĵà¸ĳà¸¥":7740,"à¹Ħà¸Ĺà¸¢à¸ŀà¸£":7741,"à¸Ļà¸Ĭà¸²à¸ķ":7742,"03":7743,"à¸²à¸Ļà¸²à¸į":7744,"à¸Ĺà¸Ńà¸Ķ":7745,"Ġà¸ģà¸²à¸£à¸£":7746,"à¸Ľà¸£à¸°à¹Ģà¸Ĺà¸¨à¸Ī":7747,"à¸Ħà¸£à¸ĩà¸²à¸Ļ":7748,"à¸¡à¹ĥà¸«à¸į":7749,"à¸§à¸ĩà¹ģà¸£à¸ģ":7750,"à¸Ńà¸Ħà¸Ń":7751,"à¸²à¹Ĩà¹Ĩ":7752,"à¸£à¸°à¸¢à¸°à¹Ģà¸§à¸¥à¸²":7753,"à¸§à¸¢à¸«":7754,"à¸Ńà¸¢à¸Ĭà¸Ńà¸ļ":7755,"à¸ļà¸Ħà¸Ļà¸Ļ":7756,"à¸²à¸ĩà¸²à¸Ļà¹Ħà¸¡":7757,"rome":7758,"\",\"[":7759,"à¹Ģà¸Īà¸Ńà¸Ħ":7760,"à¸ªà¸²à¸¡à¸²à¸£à¸ĸà¸Ķ":7761,"Ġcont":7762,"à¹ĥà¸Ļà¸ģà¸²à¸£à¹ĥà¸Ĭ":7763,"à¸Ķà¸Ħà¸¥":7764,"Ġà¸Ńà¸²à¸Ĭ":7765,"à¸Ħà¸²à¸§":7766,"à¸Ľà¸İ":7767,"à¸Ńà¸Ħà¸§à¸²à¸¡à¸£":7768,"à¹ģà¸¥à¸°à¹ĥà¸«":7769,"à¸ģà¸²à¸ģ":7770,"à¸Ńà¸®":7771,"à¸Ħà¸Ļà¹Ģà¸¥":7772,"à¸Ļà¸īà¸ļ":7773,"entral":7774,"Ġoffice":7775,"à¸£à¸£à¸¢à¸²":7776,"à¸Ńà¸¢à¸ŀ":7777,"à¸Ļà¸ķà¸Ļà¸²à¸ģà¸²à¸£":7778,"thailand":7779,"à¹Ģà¸Ķà¸Ĭà¸Ļ":7780,"à¸²à¸¢à¸ĸ":7781,"à¸²à¹ģà¸Ľ":7782,"à¹Ĩà¸§":7783,"à¸Ńà¸°à¹Ħà¸£à¸Ń":7784,"à¸ĩà¹ĥà¸Īà¸§":7785,"à¸¢à¸ĩà¸Ńà¸¢":7786,"à¸²à¹Ħà¸«à¸¡à¸Ħà¸£":7787,"Ġà¸ģà¸²à¸£à¹Ģà¸¥":7788,"à¸¢à¸ĩà¸Ī":7789,"à¹Ģà¸Ńà¸Ń":7790,"Ġà¸Ľà¸£à¸°à¸ªà¸ļà¸ģà¸²à¸£à¸ĵ":7791,"à¸ļà¹Ħà¸Ľà¹ģà¸¥":7792,"à¹ģà¸Ĺà¸ļà¸Ĺ":7793,"Ġà¹Ģà¸ŀà¸£à¸²à¸°à¸ģà¸¥":7794,"à¸Ńà¸Ńà¸ģà¸Ĺ":7795,"Ġà¹Ħà¸Ľà¸¢":7796,"à¸°à¸Ńà¸²à¸Ķ":7797,"eek":7798,"à¸²à¹Ĥà¸Ĭ":7799,"à¸²à¸«à¸§à¸²à¸Ļ":7800,"Ġà¹ģà¸Ĺà¸Ļà¸Ĺ":7801,"à¹Ħà¸Ľà¸Ĺà¸²à¸ĩ":7802,"à¸¢à¸§à¸Ī":7803,"à¸²à¸Ńà¸²à¸Ĭ":7804,"Ġà¸ļà¸Ļ":7805,"Ġen":7806,"à¸¥à¸°à¹Ģà¸¡":7807,"à¹Ĥà¸ª":7808,"ones":7809,"Ġinstagram":7810,"Ġà¸Īà¸Ļà¸ķ":7811,"Ġà¸Ĭà¸¡à¸ŀ":7812,"à¹Ģà¸¥à¸¢à¹Ħà¸Ķ":7813,"à¸¢à¹ģà¸ķ":7814,"à¸Ļà¹Ģà¸Ĥà¸²à¸ģ":7815,"à¸²à¸ĩà¹Ĥà¸¥à¸ģ":7816,"à¸Ħà¸£à¸²à¸§à¸Ļ":7817,"à¹Ĥà¸¡à¹Ģà¸Ķ":7818,"à¸Ļà¸ģà¸²à¸£à¸ª":7819,"à¸Ńà¸¡à¹Ħà¸¡":7820,"ba":7821,"à¸įà¸²à¸ķà¹ĥà¸«":7822,"à¹ģà¸ŀà¸ĩà¸ģà¸§":7823,"Ġà¹ķ":7824,"à¸Ńà¸¥à¸¥à¸²à¸£":7825,"à¸Ļà¹Ģà¸¢à¸Ńà¸°à¸¡à¸²à¸ģ":7826,"à¸ģà¸£à¸§à¸²à¸¥":7827,"à¸Ńà¸¢à¸Ńà¸Ķ":7828,"à¸īà¸²à¸ģà¸Ĺ":7829,"à¸Ħà¸Ńà¸¥":7830,"Ġà¸¡à¸²à¹ģà¸Ĭà¸£":7831,"à¸ķà¹Ģà¸Ľ":7832,"à¸Ńà¹Ģà¸«à¸¥":7833,"à¸ŀà¸Ńà¹Ģà¸Ĥ":7834,"à¸Ķà¸£à¸ĸ":7835,"à¸Ĥà¸Ļà¸²à¸Ķà¹Ģà¸¥":7836,"à¸ĩà¸¡à¸²à¸Īà¸²à¸ģ":7837,"à¸¡à¹ģà¸¡":7838,"à¸ĩà¹ĥà¸Ļà¸Ĭ":7839,"à¸ķà¸£à¸ģ":7840,"à¸Īà¸Īà¸£":7841,"à¹ģà¸ļà¸£":7842,"Ġare":7843,"à¸Ĺà¸Ľà¸£à¸°à¸ģ":7844,"Ġà¸Īà¸°à¸Ħ":7845,"à¸ļà¸ķà¸Ńà¸Ļà¸Ļ":7846,"Ġosaka":7847,"à¸¢à¸ģà¸Ĭ":7848,"à¸°à¹Ģà¸¥à¸²à¸°":7849,"à¸¢à¹ĥà¸Īà¸¡à¸²à¸ģ":7850,"à¸Ļà¹ĥà¸Ļà¸Ľ":7851,"à¸°à¸«à¸Ļ":7852,"à¸ĩà¹Ģà¸«à¸ķ":7853,"à¹ĥà¸ļà¹Ħà¸¡":7854,"à¹ģà¸¡à¸Ļà¸ķ":7855,"à¸ģà¹ģà¸ªà¸Ķà¸ĩà¸Ĭà¸²à¸¢":7856,"à¸Ļà¸Ĥà¸Ļà¸²à¸Ķ":7857,"à¸ĵà¸¡à¸²à¸ģà¹Ĩà¸Ħ":7858,"à¸ģà¸Ńà¸²à¸¢":7859,"à¸ľà¸į":7860,"à¸Ļà¹ģà¸£à¸ģà¸Ĺ":7861,"à¸Īà¸²à¸ģà¸Ń":7862,"à¸Ļà¸Ħà¸Ļà¸«à¸Ļ":7863,"à¹Ģà¸ļà¸²à¸°":7864,"à¸Ńà¹ģà¸Ī":7865,"Ġà¸ªà¸ļ":7866,"à¸ļà¸Ĺà¸£":7867,"Ġà¸Ļà¸Ńà¸ģ":7868,"Ġupdate":7869,"Ġà¸Īà¸²à¸ģà¸£à¸²à¸Ħà¸²à¹Ģà¸ķ":7870,"à¸Łà¸¥":7871,"à¸Ńà¸Ļà¹Ĩà¸ģ":7872,"à¹Ģà¸ļà¸²":7873,"Ġ2100":7874,"à¸²à¸ĺà¸²à¸£à¸ĵ":7875,"à¸ĸà¸²à¸Ļà¸ģà¸²à¸£à¸ĵ":7876,"à¸Ĥà¸²à¸¢à¸ģ":7877,"à¸ģà¸²à¸£à¸ģà¸£à¸°à¸Ĺ":7878,"à¸ģà¸²à¸£à¸ªà¸£":7879,"mi":7880,"ner":7881,"à¸²à¹ģà¸«à¸¥":7882,"à¸£à¸²à¸Ħà¸²à¸Ļ":7883,"Ġà¹Ģà¸Ńà¸Ń":7884,"à¸Ńà¸¢à¸²à¸ģà¹Ģà¸Ľà¸¥":7885,"Ġà¸¡à¸²à¸Ĭ":7886,"Ġ5000":7887,"Ġà¹Ģà¸¥à¸¢à¸ªà¸ĩà¸ª":7888,"Ġà¸«à¸²à¸¢à¹Ħà¸Ľ":7889,"à¸įà¸ª":7890,"à¸Ĺà¸²à¸ĩà¹Ģà¸¥":7891,"à¸ļà¹Ģà¸ķ":7892,"à¸Ńà¸ĩà¹Ģà¸Ħà¸£":7893,"à¸Ĩà¸²à¸ķ":7894,"à¸Ńà¸ĩà¸Ĥà¸Ńà¹Ĥà¸Ĺà¸©":7895,"à¸ªà¸²à¸¡à¸²à¸£à¸ĸà¸Ļ":7896,"à¸įà¸«à¸²à¸¡":7897,"à¸Ħà¸§à¸²à¸¡à¸ªà¸°à¸Ķà¸§à¸ģ":7898,"à¸ĩà¹Ĩà¸Ļà¸°":7899,"ny":7900,"Ġà¹Ģà¸ŀà¸£à¸²à¸°à¸ģ":7901,"à¸ģà¹Ģà¸ŀà¸£à¸²à¸°":7902,"à¸²à¹Ħà¸Ľà¸£":7903,"à¸²à¸¢à¸ģà¸¥":7904,"à¸¢à¸Ķà¹Ģà¸ŀ":7905,"à¸ĸà¸²à¸¡à¸ŀ":7906,"à¸ªà¸«":7907,"à¹Ģà¸ŀà¸¥à¸ĩà¸Ĺ":7908,"Ġspec":7909,"à¸§à¸ī":7910,"à¸²à¸¡à¸ģà¸¥à¸²à¸ĩ":7911,"Ġsystem":7912,"à¸ĩà¹Ģà¹Ģà¸ķ":7913,"Ġ95":7914,"à¸Ħà¸ĩà¹Ģà¸Ľ":7915,"à¸Ĥà¸Ńà¸ª":7916,"à¹Ħà¸«à¸Ļà¹ģà¸Ļà¸°à¸Ļ":7917,"Ġà¸ªà¸²à¸¡à¸²à¸£à¸ĸà¸Ĺ":7918,"à¸Ńà¸ļà¸Ľ":7919,"à¸ŀà¸Ńà¹ĥà¸Ĭ":7920,"Ġà¹Ħà¸Ľà¸ķ":7921,"à¸ģà¸©à¸°":7922,"à¸²à¸ģà¸²à¸£à¸ķ":7923,"à¸ĩà¸Ķà¸ĩà¸²à¸¡":7924,"à¸¡à¸²à¹ģà¸ķ":7925,"Ġopp":7926,"à¸ķà¸²à¸¡à¸ķ":7927,"Ġà¸£à¸§à¸¡à¸ª":7928,"Ġsky":7929,"Ġenter":7930,"à¹ĥà¸Īà¹Ħà¸Ķ":7931,"555555":7932,"à¸ªà¸¡à¸£":7933,"à¸²à¹Ģà¸¥à¸¢à¸Ħ":7934,"à¸Ļà¸°à¹ģà¸ķ":7935,"à¹Ħà¸Łà¸Ĺ":7936,"à¸²à¸Ļà¸ģà¸¥à¸²à¸ĩ":7937,"Ġà¸ŀà¸Ńà¸ģ":7938,"pantip":7939,"à¸«à¸¡à¸Ķà¸ª":7940,"Ġ160":7941,"à¸£à¸°à¸ĩ":7942,"à¸ģà¸²à¸£à¸ľà¸¥":7943,"à¸ªà¸²à¸§à¸£":7944,"à¸²à¸«à¸¥à¸²à¸¢à¹Ĩ":7945,"à¸ľà¸¥à¸Ķ":7946,"à¸ªà¸łà¸²":7947,"à¸°à¸¢":7948,"à¸Ļà¸ªà¸²à¸§":7949,"Ġà¸¡à¸²à¸¥":7950,"à¹ĥà¸Īà¹Ħà¸¡":7951,"à¸²à¸Ħà¸ĵà¸°":7952,"Ġzen":7953,"Ġà¹Ĥà¸Ĭà¸Ħà¸Ķ":7954,"à¸Ĺà¸£à¸Ľà¸£à¸²à¸ģà¸²à¸£":7955,"à¹Ĥà¸Ļà¹Ģà¸§à¸Ĺ":7956,"Ġà¹Ħà¸Łà¸¥":7957,"à¸Ķà¹Ħà¸«à¸¡":7958,"à¸ªà¸Ńà¸ļà¸ªà¸§à¸Ļ":7959,"ild":7960,"à¸¢à¹ĥà¸«à¸¡":7961,"Ġlan":7962,"à¸§à¸ĩà¸Ķà¸Ļà¸ķà¸£":7963,"à¹Ģà¸Īà¸Ńà¸¡":7964,"à¸įà¸ķ":7965,"à¸Ńà¸Ļà¸Ł":7966,"Ġdown":7967,"sony":7968,"à¸łà¸²":7969,"Ġà¸ģà¸²à¸£à¹Ģà¸£":7970,"à¸Ńà¸Ļà¹ĥà¸Ĭ":7971,"à¸§à¸ģà¸£à¸°à¸Ĺ":7972,"Ġoly":7973,"à¸Ńà¸Ļà¸ĺ":7974,"à¸Ńà¸Ļà¸°à¸Ħà¸°":7975,"à¹ĥà¸ļà¸£":7976,"à¸ģà¸¤à¸Ķ":7977,"à¸Ľà¸Ĳà¸¡":7978,"à¸²à¸Ļà¸²à¸ĩ":7979,"à¸ĩà¸¡à¸²à¹ĥà¸«":7980,"Ġvios":7981,"à¸ĩà¸«à¸²":7982,"à¸ģà¹Ģà¸Ĥà¸²":7983,"Ġ]":7984,"Ġà¸ľà¸¡à¸Ħà¸§à¸£à¸Ĺ":7985,"à¸Ĺà¸Ħ":7986,"à¸²à¸Ľà¸£à¸°à¸ªà¸ļà¸ģà¸²à¸£à¸ĵ":7987,"Ġà¹Ĥà¸Ńà¸ģà¸²à¸ª":7988,"à¹Ģà¸¡à¸Ńà¸£":7989,"à¸²à¸«à¸£à¸Ńà¸ģ":7990,"à¸Ļà¸Ħà¸§à¸²à¸¡à¸ª":7991,"à¸ĩà¸Īà¸°à¸Ķ":7992,"à¸Ĭà¸²à¸Ĺ":7993,"à¹Ĩà¸ļ":7994,"à¸¡à¸«à¸²à¸ģ":7995,"Ġà¹ģà¸Ļà¸§à¸Ĥ":7996,"ysis":7997,"à¹Ĥà¸Ķà¸¢à¸£à¸§à¸¡":7998,"à¸Ļà¹Ģà¸ļà¸Ńà¸£":7999,"à¹Ģà¸£à¸²à¸Ħà¸ļà¸ģ":8000,"à¸Īà¸²à¸ģà¸ľ":8001,"à¹Ģà¸¢à¸Ńà¸£à¸¡à¸Ļ":8002,"à¸§à¸Ľà¸¥":8003,"à¸Ńà¸Ķà¸Ńà¸Ńà¸ģ":8004,"à¸¢à¸ĩà¸Ĥà¸Ńà¸ĩ":8005,"à¹Ģà¸¥à¸¢à¸¥":8006,"à¸«à¸Ń":8007,"iko":8008,"à¹ģà¸¥à¸°à¹Ħà¸Ķ":8009,"Ġà¸£à¸²à¸ĩà¸§":8010,"à¸Ĺà¸Ń":8011,"Ġà¸ªà¸¡à¹Ģà¸Ķ":8012,"à¹Ģà¸Ħà¸¢à¸ļà¸Ńà¸ģ":8013,"à¸²à¸ŀà¸Ļ":8014,"Ġsch":8015,"à¸ĩà¹Ģà¸Ńà¸ĩ":8016,"à¸Ķà¸ļà¸£":8017,"à¹ģà¸ļà¸Ļ":8018,"Ġfo":8019,"à¸²à¸ĩà¹Ħà¸£à¸Ħà¸°":8020,"à¸Ħà¸§à¸²à¸¡à¸ŀà¸£":8021,"à¸Ńà¸ĩà¹Ģà¸Ļ":8022,"à¹Ĩà¸¡à¸²":8023,"à¸Ńà¸¡à¹Ģà¸ŀ":8024,"Ġà¹ĥà¸Ļà¸ķ":8025,"à¹Ģà¸§à¸ĵà¸Ĺ":8026,"à¸Ńà¸¡à¸²à¹Ħà¸Ķ":8027,"à¸Ńà¸°à¹Ħà¸£à¸ª":8028,"à¸²à¸¡à¹Ģà¸®à¸ĩ":8029,"Ġà¹ģà¸¥à¸°à¸«à¸¥":8030,"à¸§à¸¢à¹Ģà¸Ĭ":8031,"Ġà¹Ģà¸Ńà¸²à¸¡":8032,"Ġ*****":8033,"Ġà¸Ľà¸£à¸°à¹Ģà¸Ĺà¸¨à¹Ħà¸Ĺà¸¢":8034,"Ġà¸Ĭà¸²à¸£":8035,"we":8036,"à¸Ļà¹ĥà¸ģà¸¥":8037,"à¸ģà¸²à¸£à¸¡":8038,"uro":8039,"à¸²à¸Ńà¸²à¸ĩà¸Ħ":8040,"à¸§à¸ĩà¹Ģà¸§à¸¥à¸²":8041,"à¸ľà¸¥à¸ķà¸Ńà¸ļ":8042,"Ġà¹Ģà¸¥à¸¢à¸Ħà¸£":8043,"Ġste":8044,"\",\"\"\"":8045,"à¸§à¸Ħà¸Ļ":8046,"Ġà¸£à¸°à¸§":8047,"à¸²à¹ģà¸ŀà¸ĩ":8048,"à¸§à¸Ļà¸ľ":8049,"à¹Ģà¸¡à¸¥à¸¥":8050,"Ġbar":8051,"à¸²à¸Ĩ":8052,"à¸µà¹ī,":8053,"Ġà¹Ģà¸ŀà¸£à¸²à¸°à¸ľà¸¡":8054,"à¸ģà¸ªà¸£":8055,"à¸«à¸¡à¸§à¸ģ":8056,"iam":8057,"à¸Ńà¸ĩà¹Ĥ":8058,"Ġà¸Ĥà¸Ńà¸ĩà¸§":8059,"à¸§à¸Ķà¸¡à¸Ļà¸ķ":8060,"uki":8061,"à¸Ńà¸²à¸Īà¸Īà¸°à¹Ģà¸Ľ":8062,"à¸¢à¸§à¹Ģà¸Ĺ":8063,"Ġreview":8064,"ita":8065,"à¸Ķà¸²à¸§à¸Ļ":8066,"Ġà¸ģà¸²à¸£à¸ª":8067,"Ġà¹Ģà¸£à¸²à¸Ń":8068,"à¹Ģà¸§à¸¥à¸²à¸ª":8069,"à¹Ĥà¸Ķà¸¢à¸ķà¸¥à¸Ńà¸Ķ":8070,"Ġà¹Ģà¸Ĥà¸²":8071,"à¸ĩà¸Ĥà¸Ļà¸²à¸Ķà¸Ļ":8072,"à¸ªà¸Ħ":8073,"à¸¢à¸²à¸§à¹Ĩ":8074,"awa":8075,"Ġà¹Ģà¸¥à¸¢à¸¥à¸Ńà¸ĩ":8076,"à¹Ģà¸ľà¸Ĭ":8077,"Ġsub":8078,"à¹Ģà¸§à¸¥à¸²à¸Ń":8079,"à¸§à¸ļà¸Ńà¸ģ":8080,"Ġà¹Ģà¸§à¸¥à¸²à¸Ļ":8081,"à¹ģà¸¥à¸ģ":8082,"à¸Ľà¸¥à¸²à¸¢à¹Ģà¸Ķ":8083,"à¹ģà¸£à¸ĩà¸¡à¸²à¸ģ":8084,"à¸²à¹Ħà¸£à¸ģ":8085,"à¸Īà¸²à¸ģà¸ģà¸£à¸°à¸Ĺ":8086,"à¸Ńà¸Ħà¸ķ":8087,"ta":8088,"ions":8089,"à¹Ģà¸¡à¸Ļà¸ķ":8090,"Ġà¸īà¸°à¸Ļ":8091,"à¸ģà¸Ļà¸²à¸Ļ":8092,"à¸Ķà¸ģà¸£":8093,"à¸²à¸ŀà¸¢à¸²à¸¢à¸²à¸¡":8094,"à¸ļà¸łà¸²à¸©":8095,"à¸ļà¹Ħà¸Ľà¸Ķ":8096,"à¸ĩà¸Īà¸°à¸£":8097,"Ġservice":8098,"à¸Ļà¸ķà¸Ńà¸Ļà¸Ĺ":8099,"Ġà¹Ĥà¸Ļ":8100,"à¸¢à¸¡à¸²":8101,"Ġà¹Ħà¸ĭà¸ª":8102,"à¸©à¸ķà¸£":8103,"à¸Ļà¹Ħà¸«à¸¡à¸Ħà¸°":8104,"à¸ģà¹Ģà¸ĺà¸Ń":8105,"à¸ģà¹ĥà¸ª":8106,"apple":8107,"à¸¡à¸¨":8108,"à¸Ńà¸ļà¸ļ":8109,",,":8110,"Ġgirl":8111,"à¸ĩà¹Ĩà¸Ļ":8112,"à¸Ĭà¸Ķ":8113,"à¸¢à¸Ļà¸Ħà¸£":8114,"à¸£à¸°à¸¢à¸°à¸Ĺà¸²à¸ĩ":8115,"Ġà¸ľà¸¡à¸ª":8116,"à¸²à¸Īà¸Ńà¸Ķ":8117,"à¸Ļà¹ģà¸¢":8118,"à¸Ńà¸¢à¸²à¸ģà¸Ńà¸¢":8119,"ĠâĢĿ":8120,"ideo":8121,"à¸§à¸Ļà¸Ĥ":8122,"à¸Ļà¹ģà¸Ī":8123,"à¸¢à¸Ľà¸£à¸°à¸ģ":8124,"lin":8125,"Ġseason":8126,"à¸Īà¸²à¸ģà¸Ħ":8127,"à¹Ģà¸§à¸¥à¸²à¹Ħà¸¡":8128,"Ġà¹Ģà¸Ĥà¸²à¸Ĺ":8129,"07":8130,"à¸Ļà¸Łà¸£":8131,"Ġà¹Ģà¸£à¸²à¸ŀà¸¢à¸²à¸¢à¸²à¸¡":8132,"à¸¡à¹Ģà¸Ľà¸į":8133,"Ġà¸Ńà¸¢à¸²à¸ģà¸Ķ":8134,"à¸£à¸°à¸¡":8135,"à¹Ģà¸§à¸£":8136,"Ġcap":8137,"à¹Ĥà¸ķà¸£":8138,"à¸Ļà¸ķà¸²à¸¢":8139,"à¸Ĥà¸Ńà¹Ģà¸¥":8140,"à¸Ńà¹Ģà¸£à¸²à¸Ńà¸¢à¸²à¸ģ":8141,"à¸Ńà¸Ńà¸ģà¸§":8142,"à¸ķà¸²à¸¡à¸Ĥ":8143,"à¸²à¹Ĥà¸Ĺà¸£à¸¨":8144,"Ġseries":8145,"à¹Ģà¸Ńà¸²à¹Ģà¸Ńà¸ĩ":8146,"à¸Īà¸°à¸Ĭà¸Ńà¸ļ":8147,"à¹ģà¸£à¸ĩà¸ļ":8148,"à¸²à¸Ĥà¸Ļà¸²à¸Ķ":8149,"à¹Ģà¸Ħà¸¢à¹Ģà¸Ĥ":8150,"à¸§à¹Ģà¸ĩ":8151,"à¸Ńà¹Ĥà¸Ĺà¸£à¸¨":8152,"à¸ĩà¸Ľà¸ģà¸ķ":8153,"Ġanalysis":8154,"ley":8155,"à¸ĸà¸²à¸¡à¸ģ":8156,"board":8157,"site":8158,"bur":8159,"Ġà¸ŀà¸£à¸ļ":8160,"Ġadv":8161,"81":8162,"à¸Ńà¹Ģà¸«à¸ķ":8163,"Ġà¸«à¸¡à¸²à¸¢à¹Ģà¸¥à¸Ĥ":8164,"à¸¢à¸Īà¸£":8165,"à¸Ńà¸ĩà¹Ģà¸«à¸¡":8166,"à¸²à¹Ģà¸£à¸²à¸¢":8167,"à¸ĵà¸Ķ":8168,"à¸²à¸Ńà¸°à¹Ħà¸£à¸Ķ":8169,"à¸ªà¸Ń":8170,"à¸²à¹ĥà¸Īà¸Ħ":8171,"Ġcheck":8172,"à¸Īà¸°à¸ªà¸²à¸¡à¸²à¸£à¸ĸ":8173,"Ġà¸§à¸Ńà¸¥à¹Ģà¸¥à¸¢":8174,"à¹Ħà¸Ĺà¸¡":8175,"à¸Ħà¸§à¸£à¸¡":8176,"à¹Ħà¸Ľà¹Ģà¸Ńà¸ĩ":8177,"à¸Ĥà¸²à¸¢à¸ļ":8178,"Ġ?\"":8179,"à¸§à¸¢à¸ķà¸Ńà¸ļà¸Ĺ":8180,"à¸ĩà¹ģà¸ļà¸ļà¸Ļ":8181,"à¸²à¸¡à¸§":8182,"à¸Ńà¸ĩà¸«à¸¥à¸§à¸ĩ":8183,"à¸Ļà¸ļà¸Ńà¸¥":8184,"Ġà¸Īà¸°à¸§":8185,"à¹ģà¸Łà¸Ļà¸Ħ":8186,"à¸Ńà¸¡à¹Ħà¸Ķ":8187,"à¸ªà¸Ńà¸ļà¸ĸà¸²à¸¡à¸«à¸Ļ":8188,"à¹Ħà¸Ńà¹Ģà¸Ńà¸ª":8189,"à¹Ģà¸Īà¸£à¸Ī":8190,"à¹Ħà¸Ľà¸«à¸²":8191,"87":8192,"Ġà¹Ħà¸«à¸¡":8193,"by":8194,"à¸¡à¸Ńà¸ĩà¸«à¸Ļ":8195,"Ġà¸ľà¸¡à¸Ĭà¸Ńà¸ļ":8196,"à¸Ńà¸²à¸«à¸²à¸£à¸Ĺ":8197,"Ġà¹ĥà¸Ħà¸£à¹Ģà¸Ľ":8198,"à¹Ħà¸Ĺà¸¢à¸ģ":8199,"à¸Ķà¸Īà¸°à¸Ĺ":8200,"à¹ĥà¸Ħà¸£à¸Ķ":8201,"Ġlazada":8202,"Ġ!!!!":8203,"à¹Ģà¸ŀà¸¥à¸ĩà¸ªà¸²à¸ģà¸¥":8204,"Ġ49":8205,"à¸¢à¸Ļà¸ĸ":8206,"mpus":8207,"à¹ģà¸§à¸§":8208,"à¸²à¸¡à¸²à¸ģà¸¡à¸²à¸¢":8209,"à¸Ļà¸«à¸²à¸¢à¹Ħà¸Ľ":8210,"à¸Ńà¸¢à¸²à¸ģà¹Ģà¸ª":8211,"à¸Ńà¸ģà¸²à¸£à¸Ĺ":8212,"Ġart":8213,"à¹Ģà¸ĺà¸Ńà¹Ħà¸Ľ":8214,"à¸¥à¸²à¸Ķà¸ŀà¸£":8215,"à¸ľà¸¥à¸Ľà¸£à¸°à¹Ĥà¸¢à¸Ĭà¸Ļ":8216,"à¸Ĥà¸Ńà¸ĩà¸ªà¸°à¸ªà¸¡":8217,"à¸Ħà¸Ļà¹Ģà¸ģ":8218,"à¸Ļà¸§à¸¥":8219,"Ġà¸ĩà¸§à¸Ķ":8220,"à¸ķà¸²à¸¡à¹ĥà¸Ī":8221,"à¸Ńà¸¢à¸²à¸ģà¸ģà¸¥":8222,"Ġà¸ŀà¸Ńà¸ģà¸¥":8223,"à¸£à¸²à¸ģ":8224,"à¸Ļà¸²à¸¢à¸ģ":8225,"Ġatm":8226,"à¹Ĥà¸ķà¸°":8227,"Ġthai":8228,"Ġà¹Ģà¸«à¸¡à¸²à¸°à¸ª":8229,"à¸Īà¸°à¹Ģà¸Ĭ":8230,"à¸Ļà¸¢à¸²à¸Ħ":8231,"à¸Ńà¸Ńà¸²à¸«à¸²à¸£":8232,"à¸Ńà¸ĩà¸ŀà¸§à¸ģà¸Ļ":8233,"à¹ģà¸¢à¸ģà¸ģ":8234,"à¸Ńà¸Ħà¸§à¸²à¸¡à¸Ĺ":8235,"à¸§à¹ģà¸ļà¸ļà¸Ļ":8236,"à¸¡à¸°à¹Ģà¸£":8237,"à¸¹à¹Ī)":8238,"set":8239,"à¸Ķà¹Ģà¸ľà¸¢à¸§":8240,"Ġà¸Ńà¸°à¹Ħà¸£à¸ģ":8241,"Ġà¹Ģà¸Ńà¸²à¹ģà¸ļà¸ļ":8242,"à¸§à¹Ģà¸ŀà¸£à¸²à¸°":8243,"angkok":8244,"à¸²à¹Ģà¸Ł":8245,"Ġvoice":8246,"à¸Ļà¸ģà¸¥à¸²à¸¢à¹Ģà¸Ľ":8247,"à¸ļà¸Ľà¸²à¸ģ":8248,"à¸Ńà¸Īà¸°à¹Ģà¸Ľ":8249,"à¸ĭà¸ĭ":8250,"à¹Ĳà¹Ĳ":8251,"à¸²à¸¢à¸²à¸Ĺ":8252,"Ġhr":8253,"à¸ļà¸ŀà¸£à¸°":8254,"à¸Ļà¸£à¸°à¹Ģà¸ļ":8255,"à¹Ģà¸£à¸²à¹Ģà¸Ńà¸ĩ":8256,"à¸Ķà¸ģà¸İà¸«à¸¡à¸²à¸¢":8257,"à¹ĥà¸Ļà¸ļà¸£":8258,"à¸¥à¸²à¸Ļ":8259,"Ġà¸Ħà¸Ļà¸Ķ":8260,"à¸Ļà¸Ĥà¸²à¸Ķ":8261,"à¸§à¸Ļà¸¡":8262,"pal":8263,"à¸Ħà¸Ļà¸ĭ":8264,"à¸²à¸Ļà¹Ģà¸Ńà¸ĩ":8265,"à¹Ģà¸£à¸²à¹Ģà¸ŀ":8266,"à¸Ńà¸ľà¸¡à¸ģ":8267,"à¸£à¸²à¸ļà¸§":8268,"Ġ[+":8269,"à¸ĩà¸¡à¸²à¸£":8270,"à¸Ńà¸¢à¸²à¸ģà¸ŀ":8271,"à¸ģà¸£à¸¢":8272,"à¸ĩà¸Ħà¸§à¸²à¸¡à¸Ħ":8273,"à¸²à¸¢à¹Ģà¸ģ":8274,"à¸¢à¸§à¸«à¸£":8275,"à¸Ńà¸ĩà¸ģà¸£":8276,"à¸ģà¸²à¸£à¹ģà¸ķ":8277,"à¸Ńà¸¡à¸Ľ":8278,"à¸¢à¸Ńà¸Ķà¸Ĥà¸²à¸¢":8279,"à¸¡à¹Ģà¸Ń":8280,"à¸¨à¸ģ":8281,"à¹ĥà¸Ħà¸£à¹Ģà¸Ħà¸¢à¹ĥà¸Ĭ":8282,"à¸Ńà¸¢à¸¡à¸²à¸ģà¹Ĩ":8283,"à¸²à¸²à¸²à¸²à¸²":8284,"à¸Ļà¸²à¸Ħà¸²à¸£":8285,"à¸ĩà¸²à¸Ļà¸ļ":8286,"Ġ65":8287,"à¸Ļà¹Ħà¸ª":8288,"à¸£à¸°à¸¢à¸Ńà¸ĩ":8289,"à¸°à¹Ģà¸¢":8290,"à¸Ńà¸ĩà¸¢à¸Ńà¸¡à¸£":8291,"à¸Ķà¸Ķà¸Ķà¸Ķà¸Ķà¸Ķà¸Ķà¸Ķ":8292,"à¸Ļà¸¡à¸²à¸Ħ":8293,"à¸§à¸Ļà¸ŀ":8294,"à¸Ľà¸¢":8295,"à¸Ļà¹Ĥà¸ªà¸Ķ":8296,"à¸Ļà¸¡à¸²à¹Ģà¸£":8297,"à¸Ľà¸£à¸°à¸Ĭà¸²à¸ª":8298,"Ġà¹ģà¸Łà¸Ļà¹Ģà¸£":8299,"à¸²à¸Īà¸°à¸Ĥ":8300,"Ġà¹Ĥà¸Ķà¸¢à¹ĥà¸«":8301,"à¸ģà¸ıà¸«à¸¡à¸²à¸¢":8302,"à¸ľà¸Ĭ":8303,"à¸§à¹Ħà¸Ľà¸Ĺ":8304,"à¸Ńà¸ĩà¸ģà¸²à¸£à¸Ħ":8305,"à¸ģà¹Ģà¸Ń":8306,"à¹Ģà¸§à¸¥à¸²à¸Ļà¸²à¸Ļ":8307,"à¸ģà¸Ħà¸Ļà¸ķ":8308,"à¹Ģà¹Ģà¸ļà¸ļ":8309,"à¸Ńà¸¡à¹Ģà¸Ľ":8310,"à¸ĩà¹ģà¸Ĥ":8311,"à¸Ńà¸Ńà¸Ł":8312,"à¸²à¹Ĩà¸ģ":8313,"à¸Ķà¹Ģà¸ļ":8314,"à¸ĩà¸ªà¸§":8315,"Ġà¸¡à¸«":8316,"à¸Ļà¸ķà¸£à¸ĩ":8317,"à¸Ļà¸ģà¸²à¸£à¹Ģà¸Ķ":8318,"à¸¥à¸Ńà¸ĩà¸Ħ":8319,"à¸Ľà¸£à¸°à¸ģà¸Ńà¸ļà¸Ħ":8320,"à¸Ļà¸Ħà¸£à¸Ńà¸ļà¸Ħà¸£":8321,"à¹ĥà¸Ħà¸£à¹Ħà¸¡":8322,"à¹ģà¸Ńà¸ļà¸Ħ":8323,"Ġà¹Ģà¸§à¸¥à¸²à¸¡":8324,"à¸²à¸ĩà¸²à¸Ļà¹ģà¸¥":8325,"à¸²à¸Ĥà¸Ńà¸ĩà¸ķ":8326,"à¸Ļà¹Ģà¸ŀà¸£à¸²à¸°à¸Ńà¸°à¹Ħà¸£":8327,"à¸ŀà¸£à¸«à¸¡":8328,"à¸Ńà¸Ļà¹ĥà¸Ī":8329,"à¸Ńà¸ĩà¸¡à¸²à¸Ļ":8330,"à¸²à¹Ħà¸Ń":8331,"Ġà¸¡à¸²à¸§":8332,"Ġà¸ªà¸¡à¸²à¸£":8333,"Ġà¸ģà¸İà¸«à¸¡à¸²à¸¢":8334,"à¹Ģà¸Ħà¸¢à¸Ļ":8335,"à¸²à¸Ĥà¸Ńà¸ĩà¸ģ":8336,"à¸²à¸Ħà¸¥à¸Ńà¸Ķ":8337,"ha":8338,"à¹ĥà¸Ļà¸ĭ":8339,"à¸Ńà¸ĩà¸¡à¸²à¸Ĺ":8340,"Ġsd":8341,"à¸¢à¸ģà¸¢":8342,"à¸Ħà¸§à¸²à¸¡à¸ģ":8343,"à¸ªà¸²à¸¡à¸²à¸£à¸ĸà¹Ģà¸¥":8344,"à¸²à¸ĩà¹Ħà¸ģà¸¥":8345,"à¸§à¸Ł":8346,"Ġà¸Ńà¸²à¸Īà¸Īà¸°à¸¡":8347,"à¸¥à¸Ĥà¸Ńà¸ĩ":8348,"à¸Ļà¹Ħà¸Ľà¹Ģà¸Ĺ":8349,"va":8350,"à¸§à¸ķà¸Ńà¸Ļ":8351,"Ġà¹Ĥà¸«":8352,"à¸£à¸Ńà¸ļà¸Ļ":8353,"à¸Ħà¸²à¸¢":8354,"1000":8355,"ani":8356,"uture":8357,"à¸§à¸¢à¸¥à¸Ķ":8358,"à¸«à¸¥à¸²à¸¢à¸£":8359,"à¸Īà¸²à¸ģà¸ļ":8360,"à¸Ļà¸Ŀà¸²à¸ģ":8361,"Ġinv":8362,"ency":8363,"à¸¢à¸ļà¸ª":8364,"à¸Ĥà¸Ńà¸ŀ":8365,"ward":8366,"à¸Ńà¸Ļà¸Īà¸°à¸¡":8367,"à¹ĥà¸Ħà¸£à¸ķ":8368,"à¹Ģà¸ĸà¸Ńà¸°à¸Ħà¸£":8369,"à¸ľà¸¡à¸ĸ":8370,"light":8371,"à¸Ńà¸Ńà¸ģà¸¡à¸²à¹ģà¸¥":8372,"à¸Ļà¹ģà¸ļ":8373,"à¸ģà¸²à¸£à¸Ĥà¸Ńà¸ĩ":8374,"à¸²à¸Īà¸°à¹Ģà¸Ľà¸¥":8375,"à¹ģà¸ļà¸ķà¹Ģà¸ķà¸Ńà¸£":8376,"Ġled":8377,"à¸ĩà¹Ĩà¸§":8378,"Ġà¹Ģà¸£à¸²à¸Ķ":8379,"à¸ĺà¸£":8380,"Ġ2010":8381,"Ġà¹Ķ":8382,"à¹Ĥà¸Ķà¸¢à¸¡":8383,"à¸µà¹Ī\"":8384,"à¸ĩà¸ĩà¸°":8385,"à¸įà¸¡":8386,"Ġtrinet":8387,"à¸ªà¸¡à¸¡à¸ķ":8388,"à¹Ģà¸Ńà¸ģà¸¥":8389,"Ġà¸Ħà¸«":8390,"à¸Ńà¸ŀà¸£à¸°":8391,"à¸Ńà¸Ļà¸ķà¸Ńà¸Ļ":8392,"Ġà¹Ģà¸Ĥà¸ķ":8393,"à¹ĥà¸ļà¸Ńà¸Ļ":8394,"à¸²à¹ĥà¸Ļà¸ª":8395,"à¹Ħà¸ķà¸£à¸Ľ":8396,"mot":8397,"à¸²à¸ªà¸§":8398,"Ġnight":8399,"à¸Ķà¸ªà¸§à¸Ļ":8400,"Ġ++":8401,"Ġà¹ģà¸§":8402,"à¸Ļà¸¡à¸²à¸ļ":8403,"Ġà¸Īà¸°à¸ŀ":8404,"à¸¡à¸²à¹Ģà¸Ĥ":8405,"à¸ļà¸ŀà¸£":8406,"à¸²à¸Ĺà¸°à¹Ģà¸¥":8407,"à¸£à¸Ńà¸ļà¸ķ":8408,"à¸ĩà¹Ģà¸¥à¸¢à¸Ħ":8409,"à¸²à¸ľà¸¡à¸Ĺ":8410,"à¸²à¹Ĥà¸Ļ":8411,"à¸Ķà¸Ńà¸ģà¹Ģà¸ļ":8412,"commer":8413,"à¸²à¸ģà¸²à¸£à¸ª":8414,"à¸²à¸£à¸²à¸¡":8415,"Ġà¸Ĥà¸Ńà¹Ģà¸Ľ":8416,"à¸²à¸«à¸¥à¸²à¸¢à¸Ľ":8417,"à¸ĺà¸Ĺ":8418,"à¸²à¹Ħà¸Ľà¸Ńà¸¢":8419,"Ġver":8420,"à¸²à¸Ļà¸§à¸Ļà¹Ģà¸ĩ":8421,"do":8422,"Ġà¹ģà¸£à¸ģà¹Ĩ":8423,"à¸Ľà¹Ģà¸¥":8424,"à¸Ķà¸Ļà¸Ħà¸£":8425,"Ġà¹Ģà¸ģà¸¡à¸ª":8426,"à¸²à¸Īà¸²à¸£à¸¢":8427,"à¸Ĭà¸¡à¸ģ":8428,"à¸²à¸ĩà¹ģà¸¥à¸°":8429,"Ġmer":8430,"à¸²à¸¡à¸²à¸Ńà¸¢":8431,"à¹Ģà¸Ĥà¸²à¸Ń":8432,"Ġfcp":8433,"Ġà¹Ģà¸£à¸²à¸¥":8434,"à¹Ģà¸Ńà¸²à¹Ģà¸£":8435,"Ġab":8436,"à¸§à¸¢à¹Ģà¸ŀ":8437,"à¸Ļà¸Ļà¸Ļ":8438,"à¸¡à¸²à¸ģà¹Ģà¸ģ":8439,"à¸Ńà¸Ńà¸ģà¸¡":8440,"à¹ĥà¸Ļà¸ģà¸²à¸£à¸Ķ":8441,"à¸Ĺà¸ļ":8442,"Ġà¸įà¸²à¸ķ":8443,"imited":8444,"Ġà¸¢à¸²à¸ģ":8445,"Ġ170":8446,"à¹Ĥà¸ļà¸ªà¸ĸ":8447,"à¸²à¸Ńà¸°à¹Ħà¸£à¹ĥà¸«":8448,"à¸Ľà¸£à¸°à¸Ĭà¸²à¸Ĭà¸Ļà¸Ĺ":8449,"à¹ĥà¸Ļà¸Ńà¸Ķ":8450,"Ġà¹Ģà¸īà¸ŀà¸²à¸°":8451,"à¸¥à¹Ģà¸¥à¸Ńà¸£":8452,"à¹Ģà¸Ĥà¸²à¹Ģà¸£":8453,"Ġà¸Ľà¸Ĭà¸Ľ":8454,"à¹Ģà¸ĺà¸Ńà¹Ħà¸Ķ":8455,"Ġà¸«à¸²à¸ģà¹Ħà¸¡":8456,"à¸Ńà¸ĩà¸«à¸²":8457,"à¸Īà¸°à¸ªà¸£":8458,"Ġà¸Ńà¹Ģà¸¡à¸£":8459,"à¹Ģà¸§à¸¥à¸²à¹Ģà¸£":8460,"à¸Ńà¸ĩà¹ģà¸£à¸ģ":8461,"wifi":8462,"à¸ĺà¸£à¸£à¸¡à¸¨à¸²à¸ªà¸ķà¸£":8463,"à¹Ģà¸ŀà¸£à¸²à¸°à¸£":8464,"à¸ªà¸¡à¸£à¸ª":8465,"à¹ģà¸ģà¸Ļ":8466,"à¸²à¸ĩà¹ĥà¸ª":8467,"Ġmusic":8468,"ĠĠĠĠĠĠĠĠĠ":8469,"à¸°à¸Ļà¸²à¸§":8470,"à¸Ńà¸¥à¸ĩ":8471,"à¸«à¸²à¸£à¸²à¸¢à¹Ħà¸Ķ":8472,"à¸²à¸ķà¸²à¸ģ":8473,"oul":8474,"à¸°à¹Ģà¸ģ":8475,"à¸Ļà¹Ħà¸Ľà¸Ħ":8476,"à¸§à¹Ģà¸Ńà¸ĩà¸Ńà¸¢":8477,"à¸Ńà¸ĩà¸ļà¸Ńà¸ģà¸ģ":8478,"Ġà¸ľà¸¡à¸ģà¸¥":8479,"Ġblue":8480,"à¸«à¸¥à¸§à¸ĩà¸ŀ":8481,"!!!,\"":8482,"à¸£à¸ĸà¸¡":8483,"Ġà¸Ĺà¸²à¸ĩà¸£":8484,"Ġà¸łà¸²à¸©à¸²à¸Ń":8485,"à¸²à¹Ħà¸Ľà¹Ħà¸Ķ":8486,"à¸²à¸ľà¸¡à¸ķ":8487,"tern":8488,"à¸ļà¸£à¸¡à¸£à¸²à¸Ĭ":8489,"à¸¢à¸ĩà¹Ħà¸Ķ":8490,"à¸¢à¸ĭ":8491,"à¸Ħà¸Ļà¹Ģà¸Ľ":8492,"Ġà¹Ģà¸Ĥà¸²à¸¢":8493,"à¸Ĳà¸Ľà¸£à¸°à¸«à¸²à¸£":8494,"à¸Ķà¸Ļà¸°à¸Ħà¸°":8495,"Ġà¸Ħà¸Ļà¸Ĥ":8496,"à¸ķà¸Īà¸²à¸ģ":8497,"à¹Ģà¸Īà¸¡à¸ª":8498,"âĢĶ":8499,"à¸Ĺà¸²à¸ĩà¸§":8500,"Ġà¸Ħà¸Ļà¸¥à¸°":8501,"à¸ĸà¸²à¸Ľ":8502,"à¸§à¸ķà¸²à¸¢":8503,"mon":8504,"84":8505,"sme":8506,"à¸ļà¸¡à¸²à¸«":8507,"à¸Ħà¸Ļà¹Ħà¸Ĺà¸¢à¹ĥà¸Ļà¸Ńà¹Ģà¸¡à¸£":8508,"à¸ķà¸²à¸¡à¸Ħ":8509,"à¹Ģà¸Īà¸Ńà¹ģà¸ļà¸ļà¸Ļ":8510,"tb":8511,"Ġsoftware":8512,"Ġà¸Ĥà¸Ńà¹ģà¸Ħ":8513,"à¸£à¸Ļ":8514,"04":8515,">>>>":8516,"à¸ļà¸Ńà¸ģà¹Ģà¸Ħ":8517,"à¸Ńà¸Ļà¹Ģà¸¡à¸©":8518,"Ġmrt":8519,"à¸²à¸Ħà¹Ģà¸Ļà¸¢":8520,"Ġà¸£à¸²à¸Ħà¸²à¸Ľà¸£à¸°à¸¡à¸²à¸ĵ":8521,"à¹ī\",":8522,"ds":8523,"à¸ļà¹ģà¸Ī":8524,"à¸«à¸²à¸ĩà¸²à¸Ļ":8525,"à¹Ģà¸£à¸²à¹Ģà¸ª":8526,"à¸įà¸Ĥà¸Ńà¸ĩ":8527,"à¹Ģà¸Īà¸Ńà¹ģà¸ķ":8528,"Ġà¹ģà¸«à¸¡":8529,"à¸Ļà¸²à¸¬":8530,"à¹Ĩà¹Ģà¸ŀ":8531,"Ġà¸¥à¸°à¸ģ":8532,"Ġasia":8533,"à¸Ńà¸²à¸Īà¹Ģà¸Ľ":8534,"à¸ļà¸£à¸°à¸ļà¸ļ":8535,"à¸Ĭà¸Ļà¸¡":8536,"Ġà¸ŀà¸Ńà¸¥":8537,"à¸Ļà¸²à¸¡à¸ªà¸ģ":8538,"à¸¢à¸Ļà¸°":8539,"à¸ļà¸²à¸¢à¹ĥà¸Ī":8540,"Ġlet":8541,"Ġà¸Ńà¸²à¸Īà¸Īà¸°à¹Ģà¸Ľ":8542,"à¸łà¸²à¸©à¸²à¸Ī":8543,"à¸Ķà¸¥à¸°":8544,"à¹Ģà¸Īà¸Ńà¸Ĺ":8545,"Ġà¸Ħà¸Ļà¸ģ":8546,"à¸Ńà¸ĩà¸¡à¸²à¸Īà¸²à¸ģ":8547,"à¸¡à¹Ħà¸Ľà¸«à¸¡à¸Ķ":8548,"à¸²à¹ĥà¸Īà¹Ħà¸¡":8549,"Ġà¸ķà¸²à¸¡à¸£":8550,"à¸²à¸ĩà¸ĩà¸²à¸Ļ":8551,"à¹Ģà¸¨à¸£à¸©à¸Ĳà¸¨à¸²à¸ªà¸ķà¸£":8552,"à¸Ńà¸Ļà¹Ĩà¸¡":8553,"à¸´\"\"":8554,"à¹Ħà¸¥à¸Ł":8555,"à¸Ľà¸§à¸Ķà¸«":8556,"+)":8557,"Ġà¸ľà¸¡à¸Ńà¸¢":8558,"à¹Ĥà¸ŀà¸ĺ":8559,"à¹Ħà¸Ńà¸Ķà¸Ńà¸¥":8560,"à¸ģà¸£à¸°à¹Ĥà¸Ľà¸£":8561,"à¸«à¸²à¹Ħà¸Ķ":8562,"à¹Ģà¸łà¸ª":8563,"à¸§à¸²à¸ª":8564,"à¸Ĭà¸²à¸§à¸ķ":8565,"Ġmask":8566,"à¸«à¸²à¸Ĺà¸²à¸ĩ":8567,"à¸§à¸Ķà¸Ĺ":8568,"Ġ00":8569,"ily":8570,"Ġdesign":8571,"Ġform":8572,"à¸°à¸Ļà¸°":8573,"Ġà¹Ĥà¸Ķà¸¢à¸ķ":8574,"à¸¢à¸§à¹ĥà¸Ļ":8575,"à¸ªà¸²à¸ļ":8576,"Ġref":8577,"Ġà¹Ĥà¸£à¸ĩà¹ģà¸£à¸¡":8578,"Ġà¸Īà¸°à¸Ļ":8579,"Ġap":8580,"à¸¢à¸Ļà¹Ħà¸§":8581,"à¸ģà¸Ħà¸¥":8582,"à¸ĩà¸Ħà¸ļà¸ģ":8583,"à¸²à¸ĩà¸²à¸Ļà¸Ĥà¸Ńà¸ĩ":8584,"à¸ģà¸©à¸²à¸§":8585,"à¸¡à¸²à¹Ģà¸¡":8586,"à¸ķà¸£à¸Ľà¸£à¸°à¸Ĭà¸²à¸Ĭà¸Ļ":8587,"à¸²à¸Īà¸°à¸ģ":8588,"à¹Ģà¸Ĺà¸¨à¸ļà¸²à¸¥":8589,"à¸Ķà¸Īà¸²à¸ģà¸Ńà¸°à¹Ħà¸£":8590,"Ġà¸ªà¸²à¸¢à¸ģà¸²à¸£à¸ļ":8591,"Ġà¸Ńà¸ĩà¸¨à¸²":8592,"Ġ44":8593,"à¸²à¸¢à¸²":8594,"à¸Łà¸ģ":8595,"ĠĠĠĠĠĠĠĠĠĠĠ":8596,"star":8597,"à¸Ĥà¸²à¸¢à¹ĥà¸«":8598,"à¸£à¸¨":8599,"à¸Ńà¸Ļà¸ªà¸¡à¸²à¸Ĭ":8600,"Ġà¹ģà¸Ĺà¸Ļ":8601,"à¸Ħà¸Ļà¸ļà¸Ńà¸ģà¸§":8602,"à¸Ĺà¸¯":8603,"à¸£à¸Ńà¸ļà¹Ĩ":8604,"à¸¡à¹ģà¸£à¸ģ":8605,"à¸įà¹ĥà¸«":8606,"Ġà¹ģà¸ļà¸£à¸Ļà¸Ķ":8607,"à¹Ģà¸Ńà¸²à¸Ĭà¸Ļà¸°":8608,"à¸ĩà¸ķà¸£":8609,"à¹ĺ":8610,"à¸¨à¸¥":8611,"à¸ĩà¹Ħà¸Ľà¹ģà¸¥":8612,"à¸ĩà¹Ĩà¹Ħà¸¡":8613,"à¸Ļà¹Ģà¸Ķà¸Ńà¸£":8614,"à¹ģà¸Ħà¸Ļ":8615,"à¸Īà¸°à¸Ľà¸£":8616,"à¹Ģà¸¡à¸Ĭ":8617,"à¸ļà¸²à¸Ķà¹Ģà¸Ī":8618,"ose":8619,"à¸Ĺà¸²à¸ĩà¸ª":8620,"à¸įà¸«à¸²à¸ģà¸²à¸£":8621,"Ġà¸¥à¸Ńà¸ĩà¸Ķ":8622,"Ġbody":8623,"Ġà¸Ńà¸¥":8624,"à¸ĩà¸²à¸Ļà¸ª":8625,"Ġà¹Ģà¸£à¸²à¹Ģà¸Ħà¸¢":8626,"à¸§à¸ĩà¸ģà¸¥":8627,"à¸Ńà¸¡à¸«":8628,"à¸«à¸¥à¸²à¸¢à¸ķ":8629,"Ġunivers":8630,"à¸²à¸Ħà¸Ļà¹Ģà¸Ķ":8631,"à¹ĥà¸Ļà¸ģà¸²à¸£à¸Ī":8632,"Ġà¹Ĵà¹ķ":8633,"à¸Ķà¹ģà¸Ĥ":8634,"à¸²à¸ķà¸²à¹Ħà¸«à¸¥":8635,"à¸¢à¸§à¸£":8636,"à¹Ģà¸£à¸²à¸ļà¸Ńà¸ģ":8637,"à¸²à¸ªà¸ĸà¸²à¸Ļà¸Ĺ":8638,"72":8639,"à¸Ļà¸Ĥà¸Ļà¸²à¸Ķà¸Ļ":8640,"à¸Ļà¹Ģà¸Ńà¸ģà¸ªà¸²à¸£":8641,"à¸ªà¸ļà¸Ķ":8642,"Ġnokia":8643,"à¸ĩà¸Īà¸²à¸ģà¸§":8644,"Ġfanpage":8645,"à¸ķà¹ģà¸¥à¸°":8646,"54":8647,"Ġunited":8648,"à¸Ńà¸ĩà¸«à¸¢":8649,"à¹ģà¸ļà¸ģ":8650,"à¸ļà¹Ģà¸«à¸ķ":8651,"à¸ŀà¸Ńà¹ģà¸¥":8652,"à¹Ĩà¸Ńà¸¢":8653,"Ġà¸¡à¸²à¹Ģà¸£":8654,"à¸ļà¸Ħà¸¥":8655,"à¸§à¸²à¸£":8656,"à¹Ĥà¸Ķà¸Ļà¸Ĺ":8657,"06":8658,"à¹Ħà¸Łà¹ģà¸Ļà¸Ļà¸ĭ":8659,"à¸²à¸§à¸Ĥà¸Ńà¸ĩ":8660,"à¸Ńà¸ļà¸Ļ":8661,"à¸Ļà¸Ŀà¸£":8662,"Ġperf":8663,"commerce":8664,"à¸²à¸ĩà¸ľà¸¡":8665,"à¹Ģà¸¡à¸ķà¸ķ":8666,"Ġà¸Ĥà¸²à¸§":8667,"à¸²à¸Ļà¸¥à¸°":8668,"à¸Ķà¸£à¸ĺà¸²à¸Ļ":8669,"à¸ŀà¸£à¸°à¸£à¸²à¸Ĭà¸Ĺà¸²à¸Ļ":8670,"à¸ĸà¸²à¸¡à¸ķ":8671,"à¸²à¹Ħà¸«à¸Ļ":8672,"Ġà¹Ģà¸«à¸ĩ":8673,"à¸Ļà¸£à¸Ńà¸¢":8674,"ko":8675,"à¸Ńà¸ªà¸ķ":8676,"Ġà¸«à¸²à¸ĭ":8677,"à¸Ńà¸¡à¹Ĥ":8678,"à¸ģà¹Ħà¸«à¸¡à¸Ħà¸£":8679,"à¸ļà¹Ħà¸Ľà¸Ħ":8680,"à¸¡à¹ģà¸ļà¸ļ":8681,"à¸¡à¸²à¹ĥà¸«à¸¡":8682,"à¹Ģà¸£à¸²à¹ģà¸¥":8683,"à¸Ńà¸ģà¸²à¸£à¸£":8684,"à¸Īà¸²à¸ģà¸Ĭ":8685,"à¸§à¹Ģà¸Ĥà¸²":8686,"à¸ŀà¹Ģà¸ªà¸£":8687,"à¸Ļà¹ĥà¸Ļà¸«":8688,"Ġà¹ģà¸¥à¸°à¹Ģà¸Ĥ":8689,"à¸Ķà¹Ģà¸Ħ":8690,"à¸Ļà¸¡à¸²à¸ĸ":8691,"Ġfre":8692,"à¸Ļà¸ªà¸ĸà¸²à¸Ļ":8693,"Ġà¸ªà¸Ļà¸²à¸¡":8694,"à¸ģà¸Ĥà¸§":8695,"à¹Ģà¸¥à¸¢à¹ĥà¸Ĭ":8696,"à¸ĩà¸ªà¸ķ":8697,"à¸²à¸ĩà¹Ħà¸ĩ":8698,"à¸ģà¸²à¸£à¹Ģà¸ķ":8699,"à¸²à¸ķà¸²à¸¡à¸Ĺ":8700,"à¸Ķà¸«à¸¡":8701,"à¸Ńà¸ģà¸²à¸£à¹ĥà¸Ĭ":8702,"à¸ļà¹Ģà¸Ńà¸ĩ":8703,"à¸Ńà¸ģà¸¢":8704,"à¸ªà¸²à¸ģà¸¥":8705,"à¸²à¸§à¹Ģà¸Ľ":8706,"à¸Ļà¸Ńà¸Ļà¹Ħà¸¡":8707,"à¸Ķà¸£à¸°à¹Ģà¸ļ":8708,"à¸ļà¹ģà¸Ĥ":8709,"à¸Ńà¸ģà¹Ģà¸£":8710,"à¸Ļà¸Ķà¸²à¸¥à¹ĥà¸Ī":8711,"à¸Ļà¸Ħà¸ķ":8712,".........":8713,"à¸Ļà¸Ħà¸§":8714,"à¸²à¸¢à¹ģà¸¥à¸°":8715,"à¹Ĥà¸Ļà¹Ģà¸§à¸Ĺà¸ļ":8716,"à¸Ńà¸ĩà¸«à¸¡à¸²à¸¢":8717,"Ġà¹Ħà¸®":8718,"à¸²à¹Ħà¸Ľà¸Ĭ":8719,"Ġhouse":8720,"à¸Ļà¸Ńà¸Ńà¸ģà¸Īà¸²à¸ģ":8721,"((":8722,"à¸Ķà¸ŀà¸£":8723,"à¹Ħà¸Ńà¹Ĥà¸Ł":8724,"à¸Ķà¹Ģà¸ŀà¸£à¸²à¸°":8725,"à¸ļà¸£à¸ĸà¹Ħà¸¡":8726,"à¸ļà¸¢à¸Ńà¸Ķ":8727,"à¸Ńà¸Ħà¸Ńà¸¡":8728,"Ġà¸Īà¸°à¸Ī":8729,"Ġà¹Ĥà¸Ķà¸¢à¸Ļ":8730,"2014":8731,"à¸Ľà¸Ĥ":8732,"erm":8733,"à¹Ģà¸Ńà¸²à¹Ģà¸Ĥ":8734,"à¸ŀà¸ĺ":8735,"à¸Ķà¹ģà¸¡":8736,"à¸²à¸¢à¸Ĭà¸²à¸¢":8737,"????????":8738,"à¹Ĥà¸ŀà¸¥":8739,"à¸Ĺà¸²à¸ĩà¸ģà¸²à¸£à¹Ģà¸ĩ":8740,"à¸Ħà¸²à¸Ķà¸«à¸§":8741,"à¸Ńà¸¢à¸ĭ":8742,"à¸ĩà¸Ńà¸²à¸Ĺ":8743,"à¸Ļà¸Ńà¸Ļà¸Ħà¸£":8744,"Ġ750":8745,"à¸ĵà¸¢à¸²à¸¢":8746,"Ġopt":8747,"Ġ61":8748,"à¸ļà¸ģà¸£à¸°à¸Ĺ":8749,"Ġà¸ķà¸²à¸¡à¸«":8750,"à¸ľà¸Ļ":8751,"à¸²à¸¢à¹Ģà¸Ĺ":8752,"à¸Ļà¸ŀà¸Ńà¸Ķ":8753,"à¸ŀà¸Ńà¸Ħ":8754,"à¸Ļà¹ĥà¸Īà¸ĭ":8755,"à¸Ńà¸¢à¹Ģà¸Ĭ":8756,"à¹ģà¸Łà¸Ļà¹Ħà¸¡":8757,"à¸§à¸«à¸¡":8758,"Ġgro":8759,"Ġmat":8760,"Ġhard":8761,"à¸²à¸§à¹ģà¸¥":8762,"à¹Ģà¸«à¸§":8763,"à¸Ńà¸ĩà¸Ľà¸¥":8764,"Ġ-----":8765,"à¸¢à¸ģà¸Ħ":8766,")\",\"":8767,"à¹Ģà¸ŀà¸ĵ":8768,"à¸ªà¸²à¸«":8769,"Ġà¹Ģà¸Ľà¸Ńà¸£":8770,"Ġà¸£à¸Ńà¸ĩà¸£":8771,"à¸ªà¸Ńà¸Ķ":8772,"Ġ081":8773,"à¸§à¸ģà¸£à¸°":8774,"auty":8775,"à¹Ĩà¸Ħà¸£":8776,"à¸Ľà¸£à¸°à¸¡à¸²à¸Ĺ":8777,"à¸¢à¸Ļà¹ĥà¸«à¸¡":8778,"à¸²à¸§à¸«":8779,"à¸Ńà¸ĩà¸¥à¸°":8780,"Ġà¸£à¸ĸà¹Ħà¸Ł":8781,"Ġ130":8782,"Ġà¸ķà¸Ńà¸Ļà¹Ģà¸Ĭ":8783,"de":8784,"à¸ĩà¸Īà¸°à¹Ģà¸£":8785,"à¸²à¸Ńà¸Ļ":8786,"à¸Ħà¸ģà¸²à¸£à¸ĸ":8787,"à¹Ģà¸Ħà¸¢à¸ľ":8788,"à¸ķà¸ļà¸Ńà¸¥à¹Ĥà¸¥à¸ģ":8789,"à¸Ńà¹Ģà¸ļà¸Ńà¸£":8790,"ari":8791,"à¹ĥà¸Ħà¸£à¹Ħà¸Ķ":8792,"Ġà¹ĥà¸Ļà¹Ģà¸Ķ":8793,"à¸ģà¸©à¸²à¸Ńà¸¢":8794,"à¸ļà¸²à¸¢à¹ĥà¸«":8795,"à¸¥à¹Ħà¸¡":8796,"à¸ļà¸Ĺà¸ª":8797,"à¸ĵà¸Ī":8798,"Ġ089":8799,"à¹Ĥà¸¡à¸Ĭ":8800,"à¸²à¸ĩà¸Ŀ":8801,"à¸²à¸įà¸Īà¸Ļà¸ļ":8802,"à¸Ńà¹Ģà¸£à¸²à¸ķ":8803,"à¸Ĥà¸Ńà¸ĩà¹ģà¸¡":8804,"Ġà¸Īà¸Ńà¸Ķ":8805,"à¹Ģà¸¥à¸Ńà¸£":8806,"à¸Ļà¸ĸà¸Ļà¸Ļ":8807,"à¸ķà¸Ħà¸£":8808,"Ġfuture":8809,"à¹Ģà¸Īà¸Ńà¸ª":8810,"Ġbal":8811,"à¸ļà¸Ħà¸§à¸²à¸¡à¸Ļ":8812,"Ġget":8813,"à¹Ħà¸Ľà¹Ģà¸¡":8814,"Ġtour":8815,"à¸Ļà¸¡à¸²à¸ķà¸¥à¸Ńà¸Ķ":8816,"à¸Īà¹Ħà¸¡":8817,"à¸ļà¸Ĭà¸¡":8818,"à¸Ľà¸Īà¸²à¸ģ":8819,"à¸ģà¸Ļà¸°à¸Ħà¸°":8820,"à¹ĥà¸Īà¸Ń":8821,"à¸Ľà¸£à¸²à¸ģà¸İà¸§":8822,"Ġà¸£à¸§à¸¡à¹Ħà¸Ľà¸ĸ":8823,"à¸Ńà¸Ļà¹ģà¸£à¸ģ":8824,"à¹ĥà¸Ķà¸ģ":8825,"à¸Ńà¸Ńà¸ģà¸Ħ":8826,"aya":8827,"à¹Ģà¸Ĺà¸Ńà¸¡":8828,"à¸Ńà¸ĩà¹ģà¸Ī":8829,"à¸²à¹Ħà¸Ľà¸ĸ":8830,"Ġpa":8831,"à¸¢à¸ĩà¸ľ":8832,"à¸Ļà¸Ļà¸°à¸Ħ":8833,"Ġoppo":8834,"à¸Īà¸Ļà¹Ģà¸ģ":8835,"à¸ģà¸£à¸°à¸¢à¸°":8836,"à¸Ĵà¸Ļà¸°":8837,"Ġ,\"":8838,"à¸Ĥà¸Ńà¸Ĺ":8839,"à¸Ķà¸Ľà¸¥":8840,"à¸²à¸§à¸Īà¸²à¸ģ":8841,"à¸ªà¸Ńà¸ļà¸ĸà¸²à¸¡à¸Ħ":8842,"à¸²à¸ĩà¸Ļà¸²":8843,"à¸²à¸Ļà¸ģà¸¥":8844,"à¹Ģà¸Ńà¸²à¹Ħà¸Ľà¸Ĺ":8845,"à¹ĥà¸Ħà¸£à¸Ħ":8846,"à¸Ħà¸£à¸ļà¸Ĺ":8847,"Ġact":8848,"à¸ĩà¸Īà¸°à¹Ģà¸Ĥ":8849,"à¸ļà¸ļà¸ļ":8850,"Ġà¸Ħà¸Ńà¸¡à¸ŀ":8851,"à¸²à¹ĥà¸Īà¸Ķ":8852,"à¸Ńà¸Ńà¸£":8853,"à¸ģà¹Ĩà¸Ńà¸¢":8854,"à¹Ģà¸Ńà¸²à¸ª":8855,"à¸Ńà¹Ģà¸ļ":8856,"à¸¢à¹ģà¸Ħ":8857,"à¸Ńà¸¢à¹Ģà¸¥à¸¢":8858,"Ġmag":8859,"Ġà¸ķà¸£à¸ĩ":8860,"fone":8861,"Ġcode":8862,"Ġà¹Ģà¸Ĥà¸²à¸Īà¸°":8863,"Ġmem":8864,"Ġà¸¥à¸Ķà¹Ģà¸«à¸¥":8865,"à¸Ńà¸ģà¸¡":8866,"à¸¥à¸°à¸ª":8867,"à¸²à¸ĩà¸²à¸Ļà¸£":8868,"à¹Ģà¸¢à¸Ńà¸°à¹ģà¸¥":8869,"à¸įà¸įà¸²à¸Ļ":8870,"à¸Ķà¸Ħà¸§à¸²à¸¡à¸£":8871,"à¸Ķà¹ĥà¸Ļà¹Ĥà¸¥à¸ģ":8872,"à¸Ńà¸ĩà¸£à¸²à¸§à¸Ĺ":8873,"à¸ĩà¸Ħà¸Ļà¸«à¸Ļ":8874,"à¸Ļà¹ģà¸ªà¸Ļ":8875,"Ġthis":8876,"wh":8877,"à¹Ģà¸£à¸²à¸¡à¸²à¸ģ":8878,"à¸ªà¸¡à¸Ńà¸ĩ":8879,"à¸²à¸ĩà¹Ģà¸«à¸¡":8880,"à¹Ĥà¸§à¸¢à¸§":8881,"97":8882,"à¹Ļ":8883,"à¸¢à¸ģà¸¥":8884,"à¸ģà¹Ĩà¸Ħ":8885,"à¸²à¸«à¸²à¸¢":8886,"à¹Ĥà¸¥à¸ģà¸Ħà¸£":8887,"à¹ĥà¸Ļà¸ģà¸²à¸£à¹Ģà¸Ķ":8888,"Ġmet":8889,"à¸²à¸¢à¸«à¸į":8890,"à¸ļà¸Ĺà¸Ħà¸§à¸²à¸¡":8891,"Ġii":8892,"à¸Ļà¸Ħà¸Ļà¸Ħ":8893,"à¸ļà¸Ľà¸£à¸°à¹Ģà¸Ĺà¸¨":8894,"à¸Ļà¹Ħà¸Ľà¸Ļ":8895,"à¸¢à¸§à¸ŀ":8896,"à¸¡à¹Ģà¸«":8897,"à¸ĩà¹Ħà¸Ł":8898,"à¸ŀà¸£à¸¡":8899,"à¸ļà¸§à¸ģ":8900,"Ġà¸«à¸²à¸Ķ":8901,"Ġhome":8902,"à¸§à¸¢à¸ľ":8903,"à¸Ķà¸Ľà¸²à¸ģ":8904,"à¸įà¸«à¸²à¸Ńà¸¢":8905,"à¸²à¸ĩà¹Ĩà¸Ļ":8906,"Ġà¹Ħà¸ģ":8907,"à¹ģà¸ªà¸Ķà¸ĩà¹ĥà¸«":8908,"à¸ļà¸¡à¸²à¹ģà¸¥":8909,"à¸ĩà¸Ħà¸§à¸²à¸¡à¸ª":8910,"à¸ĩà¸ªà¸Ļà¸²à¸¡à¸ļ":8911,"à¸ļà¸Ńà¸ģà¸ŀ":8912,"à¸ĩà¸Īà¸°à¸ĭ":8913,"à¸Ńà¸§à¸ģà¸²à¸¨":8914,"à¹Ħà¸Ľà¸¥":8915,"à¸²à¹Ħà¸Ľà¸§":8916,"à¸ķà¸¥à¸²à¸Ķà¸«":8917,"Ġà¸ľà¸¡à¸Ķ":8918,"à¹Ħà¸Ĺà¸¢à¸Ļ":8919,"Ġà¸£à¸²à¸Ħà¸²à¸Ļ":8920,"à¸Ĥà¸Ńà¸Ĥ":8921,"gmm":8922,"à¸¢à¸Ļà¸«à¸£":8923,"à¸¢à¸²à¸ģà¸¡à¸²à¸ģ":8924,"à¸ŀà¸ĩà¸¨":8925,"à¸ĺà¸Ļà¸ļ":8926,"ert":8927,"pre":8928,"à¸Ļà¸²à¸Ļà¸ģ":8929,"à¹ĥà¸ļà¸ª":8930,"à¸Ńà¸¢à¸«":8931,"à¸²à¹Ģà¸Ĥà¸²à¸¡":8932,"à¹ģà¸¥à¸°à¸ĸ":8933,"à¸²à¸ľà¸¡à¸¡":8934,"Ġsecret":8935,"à¸ĩà¸ķà¸£à¸ĩà¸Ļ":8936,"Ġà¸Īà¸°à¸Ĭ":8937,"à¸§à¸ĩà¸Īà¸£à¸Ľ":8938,"à¸ķà¸ľ":8939,"Ġà¸Īà¸²à¸ģà¸ģà¸²à¸£":8940,"à¸²à¸Ħà¸¡à¸Ļ":8941,"len":8942,"à¸Ķà¹Ĥà¸Ħ":8943,"à¸Ńà¸¢à¸²à¸ģà¸Īà¸°à¸£":8944,"à¸²à¹Ĥà¸ŀà¸ĩ":8945,"à¸ģà¸ķà¸²à¸¡":8946,"Ġ550":8947,"à¹ģà¸Łà¸Ļà¸ļà¸Ńà¸¥":8948,"à¸ķà¸£à¸ĩà¸«à¸Ļ":8949,"Ġà¸Ńà¸²à¸Īà¹Ģà¸Ľ":8950,"Ġdvd":8951,"ino":8952,"Ġà¸Ķà¸§à¸ĩ":8953,"à¸²à¹Ħà¸Ľà¸Ļ":8954,"à¸²à¹Ħà¸£à¸Ħà¸£":8955,"Ġrun":8956,"à¸Ļà¹Ħà¸Ľà¹Ģà¸¥à¸¢":8957,"à¸Ķà¹ģà¸Ńà¸£":8958,"à¸¡à¸²à¸ķà¸£à¸²":8959,"à¸Ļà¸£à¸²à¸¢":8960,"à¸£à¸ĸà¸ļ":8961,"Ġà¸ľà¸¡à¹Ģà¸¥":8962,"à¸¨à¸Ļà¸Ħà¸ķ":8963,"à¸ļà¸ŀà¸Ļ":8964,"à¸²à¸ĩà¹Ģà¸Ĺ":8965,"Ġlong":8966,"à¸²à¸§à¹ĥà¸«":8967,"Ġfe":8968,"à¹Ĥà¸Ķà¸Ļà¸¥":8969,"53":8970,"Ġà¸ŀà¸£à¸°à¸£à¸²à¸Ĭ":8971,"à¸²à¸ĩà¸¥à¸°":8972,"à¸Ĺà¹Ħà¸¡":8973,"Ġport":8974,"à¹ģà¸Łà¸Ļà¹Ĩ":8975,"Ġà¹ģà¸¥à¸°à¸ķà¸Ńà¸Ļà¸Ļ":8976,"à¸ļà¸ŀà¸Ńà¸Ķ":8977,"à¸ĩà¸łà¸²à¸¢à¹ĥà¸Ļ":8978,"à¸ĩà¹Ģà¸Ĥà¸²":8979,"Ġà¸ªà¹Ĥà¸¡à¸ªà¸£":8980,"à¸£à¸§à¸¡à¸Ħ":8981,"à¹ĥà¸Ļà¹Ģà¸Łà¸ª":8982,"à¸ļà¸Ńà¸ģà¸«à¸Ļ":8983,"Ġà¹ĥà¸Ħà¸£à¸ŀà¸Ńà¸¡":8984,"à¸Ķà¸Īà¸Ń":8985,"à¸įà¸įà¸²à¹Ĥà¸Ĺ":8986,"à¹ģà¸Ĺà¸ļà¸Īà¸°à¹Ħà¸¡":8987,"à¸ĩà¸£à¸°à¸Ķ":8988,"Ġà¸«à¸²à¹Ģà¸ŀ":8989,"Ġshin":8990,"à¹Ģà¸«à¸¡à¸²à¸°à¸ªà¸¡à¸ģ":8991,"à¹Ģà¸£à¸²à¹Ģà¸Ħà¸¢":8992,"à¸Ńà¸Ļà¸ģà¸£":8993,"à¸ģà¸ģà¸£à¸°à¸Ĺ":8994,"à¸ķà¸£à¸ĩà¸ģà¸¥à¸²à¸ĩ":8995,"à¸ŀà¸§à¸ģà¸¡":8996,"Ġwallet":8997,"Ġnar":8998,"Ġwhite":8999,"à¸Ļà¸ķà¸²":9000,"Ġà¸«à¸²à¸ģà¸ķ":9001,"à¸§à¸£à¸²à¸Ħ":9002,"à¸¨à¸ķà¸§à¸£à¸£à¸©":9003,"Ġsur":9004,"à¸²à¸ĩà¹Ģà¸¢à¸Ńà¸°":9005,"Ġà¹Ħà¸Ľà¹Ģà¸£":9006,"à¸²à¸ĩà¸²à¸Ļà¸«à¸Ļ":9007,"à¹Ĥà¸§":9008,"à¸¥à¸ĩà¸§":9009,"Ġà¸¡à¸²à¸ķà¸£":9010,"à¸ģà¸Ħà¸°":9011,"à¹Ħà¸§à¸£":9012,"à¸Ńà¸Ńà¸ģà¸¡à¸²à¸Ķ":9013,"à¸ļà¸ŀà¸¥":9014,"mar":9015,"à¸Ńà¸ĩà¸£à¸²à¸Ĭ":9016,"à¸Īà¸°à¹Ħà¸Ľà¸Ĺ":9017,"à¸Ļà¸Ńà¸²à¸ģà¸²à¸£":9018,"à¸£à¸°à¸ļà¸Ńà¸ļ":9019,"Ġpackage":9020,"à¸§à¸ĩà¹Ģà¸¢":9021,"à¸ľà¸¡à¹Ģà¸ŀ":9022,"à¹Ħà¸«à¸Ļà¸Ļ":9023,"à¸Ńà¸Ļà¸°à¸Ħà¸£":9024,"à¸Ńà¹Ħà¸«à¸Ļà¸Ķ":9025,"à¸¢à¸£à¸ĸ":9026,"Ġà¹ģà¸¥à¸°à¸«à¸Ļ":9027,"à¸²à¹Ħà¸¡à¸Ĺ":9028,"à¸Ńà¹ĥà¸ª":9029,"Ġà¸Īà¸Ļà¸ª":9030,"à¸Ļà¹Ģà¸§à¸Ĺ":9031,"à¹Ģà¸£à¸²à¸Īà¸°à¹Ħà¸Ķ":9032,"à¸¡à¸²à¸ģà¹Ĩà¹Ģà¸¥à¸¢":9033,"à¸²à¸§à¸¢":9034,"à¸Ńà¸°à¹Ħà¸£à¸¡":9035,"à¸¢à¸ģà¸Ļ":9036,"Ġtax":9037,"à¸Ńà¸ĩà¹ģà¸Ħ":9038,"ern":9039,"Ġà¹ģà¸Ľà¸£":9040,"à¸ķà¸²à¸¡à¸Ķ":9041,"à¸ĩà¸Ħà¸Ļà¸Ń":9042,"à¸ģà¸£à¸²à¸Ĭ":9043,"Ġà¸Ńà¸°à¸Ħà¸£":9044,"à¸ķà¸£à¸ĩà¸ª":9045,"à¹ģà¸¥à¹Ģà¸£":9046,"Ġcup":9047,"à¸Ļà¸Ńà¸°":9048,"à¸Ļà¸Īà¸°à¸£":9049,"à¹Ĥà¸¢à¸ķ":9050,"Ġà¹Ģà¸¥à¸¢à¸£":9051,"à¸£à¸£à¸ŀ":9052,"à¸ļà¸ģà¸²à¸£à¸¨":9053,"Ġ650":9054,"Ġmom":9055,"à¸²à¸ĩà¸ģà¸°à¸Ľ":9056,"reet":9057,"issan":9058,"à¸Ļà¸Ħà¸ĩà¹Ħà¸¡":9059,"Ġlenovo":9060,"à¸Ķà¸ŀà¸¥à¸²à¸Ķà¸Ľà¸£à¸°à¸ģà¸²à¸£à¹ĥà¸Ķ":9061,"Ġà¹Ģà¸Ńà¸²à¸Īà¸£":9062,"à¸ĩà¸²à¸Ļà¹ģà¸ķ":9063,"à¸Ńà¸ĩà¹Ĥà¸Ĺà¸£à¸¨":9064,"ement":9065,"à¸Īà¸Ĥà¸Ńà¸ĩ":9066,"à¸¥à¸ĩà¹Ĥà¸Ĺà¸©":9067,"Ġcolor":9068,"à¸µà¹ī(":9069,"à¹Ģà¸ĺà¸Ńà¹Ģà¸Ľ":9070,"à¸ģà¹ģà¸£":9071,"igital":9072,"à¹Ħà¸Ķà¸£":9073,"à¸°à¹Ģà¸ŀà¸£à¸²à¸°":9074,"à¹ģà¸¥à¸ģà¹Ģà¸Ľà¸¥":9075,"Ġà¸Ľà¸£à¸°à¸ģà¸Ńà¸ļà¸ģ":9076,"à¹Ģà¸Ńà¸²à¸Ĥ":9077,"asy":9078,"à¸²à¹Ĥà¸£à¸ĩà¹Ģà¸£":9079,"à¸Ńà¸ĩà¹ĥà¸Ī":9080,"à¹Ħà¸Ľà¸Ľ":9081,"Ġintel":9082,"Ġmarket":9083,"à¸Ļà¹ģà¸Ľ":9084,"à¸¡à¸²à¸ķà¸Ńà¸ļ":9085,"à¸ķà¸£à¸°à¸ģ":9086,"à¹ģà¸ļà¸ļà¸Ń":9087,"à¸£à¸ļ":9088,"Ġentertain":9089,"à¹Ģà¸ķà¸°":9090,"à¸įà¸£":9091,"à¸ļà¹Ģà¸Ħà¸¥":9092,"à¹Ģà¸£à¸²à¸ľ":9093,"Ġà¹Ģà¸«à¸¡à¸²à¸°à¸ģ":9094,"à¹Ĥà¸£à¸ĩà¸łà¸²à¸ŀà¸¢à¸Ļà¸ķà¸£":9095,"Ġà¸ģà¸²à¸£à¸¨":9096,"Ġfirst":9097,"à¸ķà¸£à¸²à¸ģà¸²à¸£":9098,"à¸²à¸ĩà¸²à¸Ļà¹Ģà¸ģ":9099,"à¹Ģà¸Ĺà¸²":9100,"à¹Ħà¸ķà¸£à¸¡à¸²à¸ª":9101,"à¸Ķà¹ģà¸Ľà¸¥à¸ĩ":9102,"à¹Ĥà¸«à¸£":9103,"à¸Ńà¸¡à¸²à¸Ĺ":9104,"à¸Īà¸²à¸ģà¸ģ":9105,"à¸Ħà¸Ļà¹ģà¸£à¸ģ":9106,"à¸ģà¹ģà¸Ĺ":9107,"à¸ĩà¸Ħà¸¡à¹Ħà¸Ĺà¸¢":9108,"Ġà¹Ĥà¸¡à¸ĩà¹Ģà¸Ĭ":9109,"à¸²à¸§à¸ľ":9110,"à¹Ģà¸Ńà¸²à¸¥":9111,"à¸ģà¸ĺ":9112,"à¸²à¸Ļà¹Ģà¸ª":9113,"Ġà¸ķà¸£à¸§à¸Īà¸ªà¸Ńà¸ļ":9114,"à¸Ńà¸¢à¸Ľ":9115,"à¸Ļà¸Ĭà¸²à¸¢":9116,"à¸²à¸Ļà¸¡à¸²à¹ģà¸¥":9117,"illa":9118,"Ġem":9119,"à¸¢à¸«à¸¥":9120,"à¸¢à¸ĩà¹Ģà¸Ľ":9121,"à¸Ĥà¸Ńà¸ĩà¸ķà¸Ļà¹Ģà¸Ńà¸ĩ":9122,"à¸Ļà¸°à¸Ħà¸°à¸§":9123,"à¸Ńà¸ŀà¸£":9124,"Ġfrom":9125,"à¸¡à¹Ħà¸§":9126,"à¸Ļà¹Ĩà¸Ń":9127,"à¸Ļà¹ģà¸«à¸¥à¸°à¸Ħà¸£":9128,"Ġà¸ļà¸Ĺà¸Ĺ":9129,"à¸Ŀà¸²à¸ģà¸Ħà¸£à¸£à¸ł":9130,"à¸¢à¸Ļà¸¡à¸«à¸²à¸¥":9131,"Ġà¹ģà¸Ĺà¸ļ":9132,"au":9133,"à¸ģà¸¢à¸łà¸²à¸ŀ":9134,"à¹ģà¸Ļà¸°à¸Ķ":9135,"Ġover":9136,"à¸ªà¸£à¸£à¸ŀà¸ª":9137,"à¸Ļà¸¡à¸²à¸Ī":9138,"sd":9139,"à¸§à¹Ģà¸£à¸²à¹Ģà¸Ńà¸ĩ":9140,"à¸Ļà¸Ħà¸Ļà¸Ī":9141,"à¸Ļà¸ģà¸²à¸£à¸¨":9142,"Ġà¹Ģà¸£à¸²à¹Ģà¸Ńà¸ĩà¸ģ":9143,"Ġà¸£à¸²à¸¢à¸ĩà¸²à¸Ļ":9144,"à¸ģà¸£à¸£à¸¡à¸Ĺ":9145,"Ġhtc":9146,"à¸§à¸¢à¸ŀà¸£":9147,"à¸Ńà¸ģà¹Ģà¸Ľ":9148,"à¸ĺà¸Ļà¸²à¸Ħà¸²à¸£à¸ģà¸ª":9149,"Ġwalk":9150,"à¹Ħà¸Ńà¸ĭ":9151,"à¸¥à¸£":9152,"à¸²à¸¢à¸«à¸£":9153,"aki":9154,"Ġà¹ĥà¸«à¸į":9155,"Ġà¸Ńà¸²à¸Ħà¸²à¸£":9156,"ollow":9157,"Ġà¸Ĥà¸Ńà¸Ĺ":9158,"à¹Ī(":9159,"à¹Į\">":9160,"à¸ļà¹Ģà¸£à¸²à¸§":9161,"à¸²à¸ŀà¸Ńà¸Ķ":9162,"à¸¹)":9163,"Ġlife":9164,"à¸²à¸ĩà¹Ģà¸ª":9165,"à¸Ńà¸¡à¸Ĺà¸£":9166,"à¸ļà¸Ńà¸ģà¸£":9167,"à¸£à¸²à¸Ĭà¸ĺà¸²à¸Ļ":9168,"Ġ,[":9169,"à¹Ħà¸ģà¸¥à¸ģ":9170,"à¸Ńà¸ĩà¸Ĥà¸Ńà¸ĩà¹Ģà¸£":9171,"Ġmm":9172,"Ġà¹Ģà¸Ĥà¸²à¹Ħà¸Ķ":9173,"Ġev":9174,"à¹Ģà¹Ģà¸«":9175,"à¹Ģà¸¥à¸ª":9176,"Ġusa":9177,"à¹Ģà¸ĺà¸Ńà¸Ħ":9178,"Ġà¹Ģà¸¨à¸£à¸©à¸Ĳ":9179,"à¸²à¸Ĭà¸¡":9180,"à¸Ļà¸²à¸Ļà¸²à¸Ĭà¸²à¸ķ":9181,"à¸Ńà¸¢à¸ļ":9182,"Ġ320":9183,"Ġà¸Ħà¸§à¸²à¸¡à¸¢à¸²à¸§":9184,"Ġ''":9185,"à¸ªà¸²à¸£à¸ŀ":9186,"à¸Ļà¹Ħà¸Ľà¸Ńà¸¢":9187,"à¸ŀà¸²à¸¥":9188,"à¸²à¸Ķà¸Ĺ":9189,"à¸²à¸Ļà¸§à¸¢à¸ģà¸²à¸£":9190,"à¹Ĥà¸Ĺà¸£à¸ķ":9191,"à¸ģà¸ļà¸£":9192,"à¸Ľà¸£à¸°à¹Ģà¸Ĺà¸¨à¹Ģà¸ģà¸²à¸«à¸¥":9193,"à¸²à¸Ńà¸°à¹Ħà¸£à¹Ģà¸¥à¸¢":9194,"à¹Ģà¸Ĥà¸²à¸ĸ":9195,"à¸Ļà¸Ļà¸²à¸ĩ":9196,"Ġolympus":9197,"à¸£à¸²à¸Ħà¸²à¹Ģà¸Ĺ":9198,"Ġmg":9199,"à¸£à¸ĸà¸ģ":9200,"Ġflash":9201,"Ġà¸Īà¸°à¹Ģà¸ģ":9202,"Ġstation":9203,"à¸²à¸¢à¹Ģà¸¥à¸¢":9204,"à¸Ļà¸Ħà¸§à¸²à¸¡à¸ľ":9205,"à¸¸,":9206,"berry":9207,"à¸²à¸¢à¸Ńà¸Ńà¸ģ":9208,"load":9209,"à¸²à¸«à¸²à¸¢à¹Ħà¸Ľ":9210,"à¹Ģà¸Ńà¸²à¸¡à¸²":9211,"à¸ľà¸Ńà¸¡":9212,"à¸¢à¸Ļà¹Ģà¸ŀ":9213,"à¸ĸà¸²à¸¡à¸«à¸Ļ":9214,"Ġrest":9215,"à¸²à¹Ĥà¸Ħ":9216,"uku":9217,"à¸ĩà¹Ģà¸ģà¸ķà¸§":9218,"big":9219,"à¸Ļà¸«à¸£à¸Ńà¸ģ":9220,"à¸Ńà¸Ķà¸Ħ":9221,"à¸¥à¹ģà¸¥":9222,"à¸²à¹Ģà¸£à¸²à¹Ħà¸Ķ":9223,"Ġà¸ľà¸¡à¸Ńà¸¢à¸²à¸ģ":9224,"à¸Ńà¸Ńà¸¡à¸ª":9225,"à¸²à¹Ĥà¸Ńà¹Ģà¸Ħ":9226,"à¸ŀà¸ŀ":9227,"à¹Ħà¸ģà¸¥à¹Ĩ":9228,"à¸²à¸ı":9229,"à¸łà¸²à¸Ħà¸ģà¸¥à¸²à¸ĩ":9230,"Ġul":9231,"à¹Ĺ":9232,"Ġà¹ģà¸Ķ":9233,"à¸Īà¸°à¸Ľà¸¥":9234,"à¸ĩà¸ªà¸Ńà¸ĩà¸Ŀ":9235,"Ġà¸Ħà¸Ķ":9236,"Ġà¹Ģà¸ŀà¸£à¸²à¸°à¹Ģà¸£à¸²à¹Ħà¸¡":9237,"à¹Ģà¸£à¸²à¸«à¸Ļ":9238,"à¸Ļà¹Ģà¸īà¸ŀà¸²à¸°":9239,"Ġà¹Ģà¸Ńà¸²à¹Ħà¸Ľ":9240,"àº":9241,"à¸«à¸²à¸£à¸²à¸Ĭ":9242,"Ġà¸Ľà¸£à¸°à¸§":9243,"à¸§à¹Ĩà¹Ħà¸Ľ":9244,"à¸Ļà¹Ģà¸£à¸²à¹Ħà¸¡":9245,"à¹Ĥà¸Ĭà¸Ħ":9246,"à¸£à¸ĸà¹Ĥà¸Ķà¸¢à¸ªà¸²à¸£à¸Ľà¸£à¸°à¸Ī":9247,"à¸²à¸¢à¹ģà¸ļà¸ļ":9248,"à¹Ģà¸Ńà¸²à¸Ńà¸Ńà¸ģ":9249,"à¹Ĥà¸Ķà¸Ļà¸Ī":9250,"à¹ģà¸ŀà¸Ħ":9251,"à¹Ģà¸Ńà¸Ĺ":9252,"à¸ģà¸²à¸£à¸Ľà¸ı":9253,"à¸ĩà¹ĥà¸Ħà¸£":9254,"Ġà¹Ĥà¸Ħà¸¥":9255,"à¸²à¸Ĥà¸Ńà¹Ĥà¸Ĺà¸©":9256,"à¸ŀà¸Ńà¸ĸ":9257,"à¹Ģà¹Ģà¸ŀ":9258,"à¸¢à¸Ļà¹Ĩ":9259,"à¸łà¸²à¸Ħà¸ķà¸°à¸§":9260,"à¸Ńà¸Ĭà¸Ńà¸ļ":9261,"à¸Ļà¹Ģà¸ĭà¸Ńà¸£":9262,"Ġthat":9263,"à¸ªà¸ªà¸ªà¸ª":9264,"Ġà¸¤à¸Ķ":9265,"Ġà¸Ĥà¸Ńà¸ĩà¸ľà¸¡":9266,"à¸§à¸¢à¸Ńà¸¢":9267,"à¸Īà¸²à¸ģà¸Ĥ":9268,"à¸²à¸ªà¸¡à¸¡":9269,"à¸¢à¸ģà¸¡":9270,"à¹ģà¸¥à¸°à¹Ģà¸£":9271,"Ġà¸Ħà¸Ńà¸¡à¸¡":9272,"à¸²à¸ģà¸¢":9273,"à¹Ħà¸«à¸Ļà¸ĸ":9274,"à¸Ńà¸ĩà¸Ńà¸²à¸«à¸²à¸£":9275,"à¸Ļà¸ĺà¸£à¸£à¸¡à¸Ķà¸²":9276,"ject":9277,"à¸Ķà¹Ģà¸ªà¸£":9278,"Ġà¸ªà¸«à¸£":9279,"à¸²à¹Ģà¸Ĥà¸²à¸ģ":9280,"Ġ:\"":9281,"à¸İà¸ģ":9282,"à¸łà¸²à¸£à¸ģ":9283,"Ġcase":9284,"Ġà¸Īà¸°à¸Ĥ":9285,"go":9286,"à¸Ńà¸ĩà¹Ħà¸Ľà¸ķ":9287,"Ġshe":9288,"à¸Ńà¸ģà¸«à¸Ļ":9289,"à¸ĵà¸Īà¸°à¸Ĺ":9290,"à¸¢à¸§à¸Ńà¸¢":9291,"à¸¡à¸Ħà¸§à¸²à¸¡":9292,"à¸ĩà¹ĥà¸Īà¸ģ":9293,"à¸Ńà¹ģà¸Ĥ":9294,"à¸Ńà¸ªà¸²à¸¡":9295,"à¹Ģà¸Ĥà¸²à¹ĥà¸«":9296,"Ġmhz":9297,"Ġcor":9298,"à¹Ĥà¸¥à¸ķ":9299,"2016":9300,"iend":9301,"à¸¢à¸ľ":9302,"à¸Ļà¸Ħà¸Ļà¸¡":9303,"à¸ģà¸ªà¸Ļà¸²à¸Ļ":9304,"Ġak":9305,"Ġà¸Ńà¸°à¹Ħà¸£à¸Ľà¸£à¸°à¸¡à¸²à¸ĵà¸Ļ":9306,"à¸ļà¸£à¸ļà¸ģà¸§à¸Ļ":9307,"à¸ªà¸Ļà¸Ńà¸ĩ":9308,"sen":9309,"à¸Ļà¹Ĥà¸Ľà¸£":9310,"à¸ĩà¹ģà¸¢à¸ģ":9311,"à¹ĥà¸Ļà¸ģà¸²à¸£à¸ª":9312,"Ġà¹ģà¸¡à¸§":9313,"à¹Ģà¸Ĺà¸Ħ":9314,"à¸¢à¸²à¸§à¸Ļà¸²à¸Ļ":9315,"à¸ģà¹Ĩà¸Ľ":9316,"à¸¢à¸ĩà¹Ģà¸Ĺ":9317,"à¸§à¸²à¸Ĺ":9318,"à¸¡à¸¥à¸ĩ":9319,"à¸Ļà¸Ķà¸Ļà¸ķà¸£":9320,"Ġà¸«à¸²à¸Ĥ":9321,"à¸Ńà¸ĩà¸Īà¸²à¸ģà¸§":9322,"à¸ĸà¸²à¸¡à¸Ħà¸Ļà¸Ĺ":9323,"à¸ģà¸©à¸²à¸¡":9324,"à¸§à¹Ģà¸Ńà¸ĩà¸Ħ":9325,"à¸Ńà¸ģà¸Ĥ":9326,"à¸Ļà¸¡à¸²à¸ģà¸¡à¸²à¸¢":9327,"à¸Ńà¸ĩà¸Ľà¸£à¸°à¸Ķ":9328,"à¸Ńà¹ĥà¸Ħà¸£à¸¡":9329,"à¸ļà¸ģà¸²à¸£à¹Ģà¸¥":9330,"à¸ģà¸Ńà¸²à¸Ĺ":9331,"Ġà¸Ĥà¸Ńà¸ª":9332,"96":9333,"!!!!!":9334,"à¸ªà¸§à¸¢à¸¡à¸²à¸ģ":9335,"à¸²à¸Īà¸°à¸ľ":9336,"Ġà¸Ħà¸Ļà¸ª":9337,"à¸Ļà¸¥à¸ĩà¸Ĺ":9338,"à¸Ļà¸ªà¸ķ":9339,"Ġedge":9340,"Ġà¸Īà¸Ļà¸ľà¸¡":9341,"Ġeye":9342,"à¹ģà¸§à¸Ķà¸¥":9343,"à¸Ļà¸Ĥà¸Ńà¸ĩà¸Ħ":9344,"à¸§à¸ģà¸²à¸£":9345,"à¸ĩà¹ĥà¸Ļà¸Ļ":9346,"à¸Ķà¸£à¸°à¸§":9347,"Ġdrive":9348,"áĦ":9349,"Ġà¸Ńà¸Ńà¸ģà¸ģ":9350,"asia":9351,"à¹ģà¸£à¸ĩà¹Ĩ":9352,"Ġà¸Ħà¸Ńà¸¡":9353,"à¹Ĥà¸ģà¸«à¸ģ":9354,"count":9355,"à¸«à¸¥à¸²à¸¢à¸ª":9356,"à¹Ģà¸§à¸¥à¸²à¸Ķ":9357,"à¸Ńà¸Ńà¸°à¹Ħà¸£à¸Ħà¸£":9358,"Ġà¸Ĥà¸¢":9359,"Ġcd":9360,"Ġà¹ģà¸¥à¸°à¸ľà¸¡à¸ģ":9361,"à¸ļà¸Īà¸£":9362,"à¸Ĥà¸Ńà¸ĩà¸ģà¸¥":9363,"à¸²à¹ģà¸£à¸ĩ":9364,"à¸ĩà¸ĩà¸ĩ":9365,"à¸²à¸£à¸²à¸¢à¹Ħà¸Ķ":9366,"à¸Ļà¹Ħà¸ģ":9367,"à¹Ĥà¸Ķà¸Ļà¸«à¸¥à¸Ńà¸ģ":9368,",[":9369,"à¸Ĺà¸¥":9370,"à¸Ľà¸£à¸°à¸¡à¸§à¸¥":9371,"à¸²à¸¡à¸ªà¸ģ":9372,"à¸Ńà¸¡à¸²à¹ģà¸¥":9373,"à¹Ģà¸¥à¸¢à¸¥à¸Ńà¸ĩ":9374,"Ġà¸Ľà¸£à¸°à¸Ĭà¸²à¸Ĭ":9375,"à¸ĩà¸ŀà¸§à¸ģ":9376,"à¸§à¹ģà¸£à¸ģ":9377,"à¸Ĥà¸Ńà¸Ħà¸§à¸²à¸¡à¸£":9378,"à¸²à¸ģà¸£à¸°à¹Ģà¸Ľ":9379,"à¸ľà¸¡à¸Ĥ":9380,"à¸ŀà¹Ģà¸Ķà¸ķ":9381,"à¸ģà¸£à¸°à¹Ģà¸ļ":9382,"à¸¢à¸ĩà¸«":9383,"à¸ĩà¸ķà¸£à¸ĩà¸Ĥ":9384,"à¸ļà¸ªà¸łà¸²à¸ŀ":9385,"à¹ĥà¸Ħà¸£à¸ŀà¸Ńà¸Ĺà¸£à¸²à¸ļ":9386,"à¹ģà¸Ńà¸Ļà¸Ķà¸£":9387,"à¸Ńà¸ĩà¸§à¸ĩà¸Īà¸£à¸Ľ":9388,"à¹ĥà¸Īà¸Īà¸£":9389,"à¸§à¹ģà¸Ĺà¸Ļà¸Ľà¸£à¸°à¸ģ":9390,"web":9391,"à¸¥à¸Ńà¸Ķà¸ł":9392,"diy":9393,"2015":9394,"à¸Ńà¸Ĥà¸Ńà¸ĩà¸Ĺ":9395,"Ġà¸£à¸ļà¸ģà¸§à¸Ļà¹Ģà¸ŀ":9396,"à¸ľà¸¡à¸Ńà¸²à¸¢":9397,"Ġfiber":9398,"à¸ĩà¹Ģà¸£à¸²à¹Ħà¸¡":9399,"Ġà¸ķà¸²à¸¡à¸¥":9400,"à¹ģà¸¥à¸£":9401,"à¸Ńà¹Ĥ":9402,"à¸Ķà¹Ģà¸ŀà¸¥à¸ĩ":9403,"à¸¥à¸Ķà¸Ħ":9404,"Ġà¹Ģà¸ŀà¸£à¸²à¸°à¸Ĭ":9405,"Ġà¹Ģà¸ŀà¸Ĭà¸£":9406,"à¸§à¸¢à¸Ńà¸£":9407,"à¸ļà¸²à¸Ļ":9408,"Ġà¹Ģà¸¥à¸¢à¹Ħà¸Ķ":9409,"à¸ŀà¸²à¸¢":9410,"à¹Ģà¸§à¸¥à¸²à¸ŀ":9411,"à¸Ļà¹Ĥà¸Ķà¸§":9412,".,\"":9413,"à¸Ķà¸¨":9414,"à¸ľà¸¡à¸Ńà¸¢à¸²à¸ģ":9415,"à¸¡à¸ŀà¸¥":9416,"à¹Ģà¸ģà¸¡à¸Ńà¸Ńà¸Ļà¹Ħà¸¥à¸Ļ":9417,"à¹Ħà¸ľ":9418,"à¸§à¹Ģà¸Ľà¸¥":9419,"à¸Īà¸°à¹ģà¸Ī":9420,"à¸²à¹Ĥà¸Ħà¸£à¸ĩà¸ģà¸²à¸£":9421,"à¸ļà¹ģà¸£à¸ģ":9422,"à¸£à¸§à¸¡à¸ª":9423,"à¸£à¸²à¸¢à¸ĩà¸²à¸Ļà¸§":9424,"à¸ŀà¸ģ":9425,"à¸ģà¸Ħà¸Ļà¸«à¸Ļ":9426,"à¸²à¹ĥà¸Ħà¸£à¸¡":9427,"Ġgood":9428,"à¸Ńà¸ĩà¸ģà¸²à¸£à¸ª":9429,"à¸Ļà¸Ħà¸Ļà¹Ħà¸Ĺà¸¢":9430,"à¹Ĥà¸Ľà¸£à¹Ĥà¸¡à¸Ĺ":9431,"à¸ªà¸ľ":9432,"à¹Ĥà¸£à¹ģà¸¡à¸Ļà¸ķ":9433,"à¸¢à¸Ļà¹ĥà¸Ļ":9434,"à¸Ļà¹ģà¸Ķà¸Ļ":9435,"à¸§à¸§à¸§à¸§à¸§à¸§à¸§à¸§":9436,"à¸Ļà¸£à¸°à¸Ķ":9437,"à¸Ļà¸ªà¸ļà¸²à¸¢":9438,"à¸§à¸¡à¸Ķ":9439,"à¸Ħà¸ĵà¸°à¸ģà¸£à¸£à¸¡à¸ģà¸²à¸£":9440,"à¸Ĵà¸Ļà¸²à¸ģà¸²à¸£à¹Ģà¸Ķ":9441,"à¸¡à¸Ńà¸Ńà¸ģ":9442,"à¸Ĭà¸Ļà¸ģ":9443,"à¸ģà¸ķà¸²":9444,"à¸ĵà¸²":9445,"à¸ļà¸Ńà¸ģà¸Ķ":9446,"à¸Ķà¸Ĥà¸§à¸²à¸ĩ":9447,"à¸Ļà¸ªà¸ĸà¸²à¸Ļà¸Ĺ":9448,"à¸Ĺà¸¢à¸²à¸Ļà¹ģà¸«":9449,"Ġkn":9450,"à¸Ļà¹Ħà¸«à¸¥":9451,"à¸Ńà¹Ħà¸Ľà¸Ń":9452,"à¸ĩà¹Ħà¸Ľà¸ģ":9453,"à¸Ķà¹Ģà¸«à¸¥":9454,"à¸Ļà¸¢à¸²":9455,"Ġà¹Ģà¸£à¸²à¸Ńà¸¢à¸²à¸ģà¸£":9456,"Ġà¹Ĥà¸ģ":9457,"Ġkaw":9458,"à¸Ļà¸«à¸į":9459,"à¸Ļà¹ģà¸Ĭà¸¡à¸Ľ":9460,"Ġà¹ĥà¸Ļà¸Ń":9461,"à¸ĵà¸«à¸Ļ":9462,"à¸Ńà¸ĩà¸ģà¸²à¸£à¸ķ":9463,"à¸²à¸ĭà¸²à¸ģ":9464,"à¸ķà¸£à¸²à¸ª":9465,"à¸Ľà¹Ģà¸ŀ":9466,"à¸²à¸Łà¸£":9467,"à¸Ļà¹Ħà¸Ľà¸ķ":9468,"Ġà¸ªà¸Ļà¸²à¸¡à¸ļ":9469,"à¸²à¹Ħà¸£à¸ķ":9470,"à¸¨à¸Īà¸£à¸£à¸¢":9471,"Ġà¸ķà¸¡":9472,"à¸§à¸ĩà¸«":9473,"à¸²à¸Īà¸°à¹Ģà¸Ķ":9474,"à¸Īà¸ŀà¸£à¸°à¹Ģà¸Ī":9475,"à¸ļà¸¡à¸²à¹ĥà¸Ĭ":9476,"à¸Ķà¸ĸà¸Ļà¸Ļ":9477,"à¸Ĥà¸Ńà¸Ħà¸§à¸²à¸¡à¸Ħ":9478,"à¸¡à¹Ĥ":9479,"à¸ŀà¸Ńà¸Īà¸°à¹ģà¸Ļà¸°à¸Ļ":9480,"à¸ģà¹Ĩà¸Ħà¸Ļ":9481,"à¸Ĥà¸§à¸ļ":9482,"à¸ķà¸£à¸łà¸²à¸ŀ":9483,"Ġà¸£à¸ĸà¸ķ":9484,"Ġsil":9485,"à¸§à¸Ļà¸ģà¸¥":9486,"áŀ":9487,"Ġà¸Ľà¸£à¸°à¹Ĥà¸¢":9488,"à¸§à¹ģà¸ģ":9489,"Ġentertainment":9490,"à¸Ńà¹Ħà¸«à¸¡":9491,"Ġà¹Ĥà¸Ĺà¸£à¹Ħà¸Ľ":9492,"à¸²à¸ĩà¹ĥà¸«à¸į":9493,"Ġ41":9494,"ere":9495,"à¸Ļà¹ĥà¸Ļà¸ª":9496,"à¸§à¸²à¸ĩà¹Ħà¸§":9497,"à¸²à¸¡à¸²à¸¢":9498,"à¹Ĩà¹Ģà¸¥à¸¢":9499,"à¸Ħà¹Ħà¸Ķ":9500,"Ġuk":9501,"à¸Īà¹Ģà¸£":9502,"Ġà¹ĥà¸Ļà¸Ļ":9503,"Ġ................":9504,"à¸Ħà¹ĥà¸«":9505,"à¸Ĭà¸¥à¸ļ":9506,"à¸Ħà¸£à¸Ńà¸ļà¸Ħà¸¥":9507,"à¸Ļà¹Ħà¸«à¸Ļà¸Ĺ":9508,"Ġà¸®à¸²à¸£":9509,"à¹Ĥà¸ķà¸Ĥ":9510,"à¸£à¸²à¸Ĭà¸ł":9511,"Ġexpress":9512,"à¹Ĥà¸£à¸ĩà¹ģà¸£à¸¡à¸Ĺ":9513,"à¸Ķà¹Ħà¸Ĺà¸¢":9514,"à¸Ńà¹Ģà¸Ĥà¸²":9515,"%)":9516,"à¸²à¹Ģà¸ģà¸²à¸«à¸¥":9517,"à¸²à¸§à¸Ńà¸¢":9518,"à¸ļà¸Ńà¸²à¸ģà¸²à¸¨":9519,"à¸Īà¸Ńà¸¢":9520,"à¹Ĩà¸Ĭ":9521,"à¸²à¸Ļà¹ģà¸¡":9522,"à¸²à¹Ģà¸Ĥà¸²à¸Ħ":9523,"à¸Ńà¸ľà¸¥":9524,"Ġà¹Ĥà¸¥à¸ģ":9525,"à¸ĩà¹ģà¸Łà¸Ļ":9526,"à¹ĥà¸Ħà¸£à¸Ĺà¸£à¸²à¸ļ":9527,"Ġhi":9528,"Ġval":9529,"erry":9530,"à¸£à¸ĸà¸ª":9531,"à¸£à¸ļà¸ģà¸§à¸Ļà¹Ģà¸ŀ":9532,"obe":9533,"à¸§à¸ĩà¸Ķ":9534,"à¸¡à¸ķà¸²à¸¡":9535,"à¸µ?":9536,"à¸Ķà¹Ģà¸Ń":9537,"à¸Ļà¹Ħà¸Ĺà¸Ļ":9538,"à¸²à¸¢à¹ģà¸ŀ":9539,"à¸¢à¸ĩà¹ĥà¸«":9540,"à¹Ģà¸£à¸ķà¸ķ":9541,"yo":9542,"à¸Ĥà¸Ńà¸ĩà¸¢":9543,"Ġà¸Ńà¸¢à¸²à¸ģà¹Ģà¸«":9544,"à¸ĩà¹Ĥà¸¡":9545,"Ġà¹ģà¸¥à¸°à¸Ńà¸¢":9546,"à¸Ħà¸§à¸²à¸¡à¸ĸ":9547,"à¸¢à¸ĩà¸ŀ":9548,"à¸ªà¸²à¸¡à¸²à¸£à¸ĸà¸ª":9549,"Ġà¸ªà¸¢à¸²à¸¡":9550,"Ġà¸ŀà¸Ńà¹Ģà¸Ľ":9551,"à¸ģà¸Ĺà¸²à¸ĩ":9552,"à¸²à¸Ńà¸²à¸ģà¸²à¸¨à¸¢à¸²à¸Ļ":9553,"mg":9554,"à¸ļà¸Ńà¸ģà¹Ħà¸Ľà¸§":9555,"à¸²à¸Ńà¸ģ":9556,"à¸ªà¸ªà¸²à¸§":9557,"à¸Ľà¸Ńà¸¢":9558,"à¸²à¸Ļà¸°à¸Ħ":9559,"à¸²à¸ªà¸²":9560,"à¸Ħà¸Ļà¹ĥà¸Ĭ":9561,"part":9562,"Ġà¸ģà¸ª":9563,"Ġà¸Ļà¸²à¸¢à¸ģ":9564,"word":9565,"youtube":9566,"???,":9567,"à¸Ļà¸ĺà¸£à¸£à¸¡à¸Ķ":9568,"à¸Īà¸Ńà¸¡à¹Ģà¸ģà¸¥":9569,"Ġà¸ľà¸¥à¸ĩà¸²à¸Ļ":9570,"à¹Ģà¸ŀà¸£à¸²à¸°à¸Ńà¸°à¹Ħà¸£":9571,"à¸¢à¸Ļà¸¡à¸²":9572,"Ġà¸Īà¸Ļà¸ļ":9573,"à¸£à¸°à¸Ļ":9574,"à¸ļà¸Ńà¸Ķ":9575,"à¸Ļà¹Ħà¸ĭ":9576,"à¸įà¸«à¸²à¸ķ":9577,"à¸Ńà¹Ģà¸£à¸²à¸Ħ":9578,"à¸²à¹ĥà¸Ļà¸Ĭ":9579,"Ġ++++":9580,"Ġà¹Ĥà¸£à¸ĩà¸ŀà¸¢à¸²à¸ļà¸²à¸¥":9581,"à¸¡à¹Ģà¸Ļ":9582,"ute":9583,"yn":9584,"à¸®à¸Ńà¸£":9585,"à¸¢à¹Ģà¸Ļ":9586,"itch":9587,"Ġdec":9588,"Ġà¸ªà¸¡à¸¡à¸ķ":9589,"Ġà¸Ńà¸Ńà¸ģà¸¡à¸²":9590,"à¸«à¸§à¸²à¸Ļà¹Ĩ":9591,"à¸Ļà¸Ķà¸²à¸£":9592,"à¹Ħà¸Ľà¹Ģà¸ģ":9593,"Ġà¸Ĭà¸Ńà¸ļà¸Ĺ":9594,"à¸ļà¸¡à¸²à¸Ńà¸¢":9595,"à¸Īà¸²à¸ģà¸ŀ":9596,"à¸²à¸Ĥà¸Ńà¸ĩà¸Ħ":9597,"à¸Ńà¸Ńà¸ģà¸¡à¸²à¸ģ":9598,"à¹Ĥà¸ģà¸¥":9599,"Ġà¹ĥà¸Ļà¸Ĳà¸²à¸Ļà¸°":9600,"à¸Ńà¸¢à¸¡à¸²":9601,"à¸ļà¸Ĺà¸£à¸²à¸ļ":9602,"à¸¢à¸Ńà¸°à¹Ħà¸£":9603,"à¸łà¸²à¸©à¸²à¸į":9604,"Ġà¹Ĥà¸Ķà¸¢à¹Ħà¸Ķ":9605,"Ġà¹Ģà¸¥à¸¢à¸ģ":9606,"à¹ģà¸ŀà¸Ħà¹Ģà¸ģà¸Ī":9607,"anel":9608,"Ġinf":9609,"à¸Ńà¸ļà¸¥":9610,"à¹ĥà¸Ļà¸Ĺà¸²à¸ĩ":9611,"à¸¢à¸¡à¸ª":9612,"à¸§à¹Ģà¸Ńà¸ĩà¸¡":9613,"à¸¢à¹Ģà¸Ħ":9614,"Ġtouch":9615,"à¸¡à¸²à¸ģà¹Ĩà¹Ģà¸¥à¸¢à¸Ħ":9616,"Ġà¸Ħà¸Ļà¸Ħ":9617,"à¸Ļà¸£à¸ĸà¹Ħà¸Ł":9618,"Ġà¹ģà¸«à¸°à¹Ĩ":9619,"Ġgtx":9620,"à¸Ħà¹Ħà¸Ĺ":9621,"à¹Ĥà¸Ķà¸¢à¸ģà¸²à¸£":9622,"à¸Ńà¸ĩà¸Īà¸²à¸ģà¹Ģà¸Ľ":9623,"à¹ĥà¸Ħà¸£à¸ªà¸Ļà¹ĥà¸Ī":9624,">>>":9625,"à¸ĩà¹Ģà¸ĭ":9626,"à¸Ńà¸ĩà¸ģà¸²à¸£à¸ĭ":9627,"à¸ģà¸£à¸Ĺ":9628,"à¹Ģà¸£à¸²à¸Ł":9629,"à¸§à¸¥à¸°à¸Ħà¸£à¸Ĺ":9630,"à¹Ģà¸Ĥà¸²à¸Ī":9631,"à¸¡à¹Ħà¸Ĺà¸¢":9632,"à¸ĩà¹Ħà¸«à¸¡à¸Ħà¸£":9633,"à¸Ļà¸Ħà¸Ļà¸ª":9634,"ont":9635,"Ġ_":9636,"Ġà¹Ĥà¸Ĭà¸§":9637,"à¸ĵà¸«à¸¡à¸Ń":9638,"à¹ģà¸Łà¸Ļà¸¡":9639,"à¹Ĥà¸¡à¸ĩà¹Ģà¸¢":9640,"Ġà¸Ńà¸°à¹Ħà¸£à¹ģà¸ļà¸ļà¸Ļ":9641,"Ġà¹ĥà¸Ħà¸£à¸ģ":9642,"à¸°à¹Ģà¸Ļ":9643,"à¹Ħà¸«à¸¡à¸Ĺ":9644,"ĠĠĠĠĠĠĠĠĠĠ":9645,"..........":9646,"à¸ļà¸Ńà¸ģà¸Ħ":9647,"à¸Īà¸Ļà¸ķ":9648,"à¸¡à¸²à¸Ł":9649,"à¸Ńà¸Ļà¸Ŀ":9650,"Ġsearch":9651,"Ġà¹ģà¸Ń":9652,"Ġà¹Ħà¸Ľà¸ª":9653,"à¸£à¸§à¸¢":9654,"Ġmake":9655,"à¸²à¸Ķà¸«à¸§":9656,"Ġtom":9657,"à¸²à¸¢à¸Ħà¸¥":9658,"à¸£à¸²à¸Ħà¸²à¸ģ":9659,"à¸²à¸¡à¸²à¸ķà¸Ńà¸ļ":9660,"à¸Ħà¸§à¸²à¸¡à¹ģà¸ķà¸ģà¸ķ":9661,"\",(":9662,"à¸²à¸Ļà¸§à¸Ļà¸Ļ":9663,"Ġà¹Ĥà¸¡à¸ĩà¹Ģà¸¢":9664,"à¸Ľà¸ļ":9665,"à¸Ĭà¸Ńà¸ļà¸Ļ":9666,"à¹Ĩà¹Ħà¸¡":9667,"à¸Ľà¹ĥà¸Ļ":9668,"à¸ĩà¸£à¸°à¸ļà¸ļ":9669,"à¸²à¸£à¸°à¸¢à¸°":9670,"à¸²à¸¡à¸Ń":9671,"à¸Ĥà¸Ńà¸ĩà¸Ĥ":9672,"Ġà¹Ģà¸ŀà¸£à¸²à¸°à¸Ńà¸°à¹Ħà¸£":9673,"à¸²à¸¢à¸Ĺà¸«à¸²à¸£":9674,"à¸ķà¸«":9675,"Ġà¸Ħà¸Ļà¹Ģà¸Ķ":9676,"à¸Ĭà¸įà¸²":9677,"Ġà¸Ķà¸Ńà¸ģ":9678,"à¸Ľà¸¥à¸Ńà¸ļ":9679,"à¸Ńà¹Ģà¸ĭ":9680,"Ġà¸Ńà¸²à¸Īà¸¡":9681,"à¹Ģà¸§à¸Ĭ":9682,"à¹Ģà¸Īà¸Ńà¸Ħà¸Ļà¸Ĺ":9683,"à¸Ħà¸Ļà¸Ńà¸¢":9684,"à¸²à¹ģà¸ĭ":9685,"à¸Ńà¹Ģà¸ĺà¸Ń":9686,"!!,\"":9687,"à¸Ńà¹Ģà¸Ńà¸ĩ":9688,"à¸ĩà¹ĥà¸Īà¹Ģà¸£":9689,"à¸§à¸¢à¸Ńà¸ĺ":9690,"à¸ĩà¸Ħà¸ĩà¸¡":9691,"à¸Ńà¸¡à¸¥":9692,"Ġreal":9693,"à¸£à¸²à¸Ĳ":9694,"à¸Ńà¸Ľà¸ģà¸ķ":9695,"à¸Īà¸°à¸¥à¸ĩ":9696,"à¹ģà¸£à¸ĩà¸Ķ":9697,"à¸ĩà¹ģà¸Ī":9698,"Ġchrome":9699,"Ġmp":9700,"2017":9701,"à¹Ĩà¹Ĩà¹Ĩà¹Ĩà¹Ĩ":9702,"2013":9703,"à¸Ńà¸Ļà¹ģà¸¡":9704,"à¹Ģà¸£à¸²à¹Ģà¸ģ":9705,"à¸²à¸ĩà¸ģà¸§":9706,"Ġà¸Ĥà¸Ńà¸ĩà¸ŀ":9707,"à¹ģà¸«à¸¡":9708,"Ġ110":9709,"à¹ĥà¸Ļà¹ģà¸ĩ":9710,"Ġcentral":9711,"Ġà¸¡à¸Ńà¸ĩ":9712,"Ġant":9713,"à¸Ľà¸£à¸²à¸ļ":9714,"call":9715,"Ġweek":9716,"à¸²à¸¡à¸«":9717,"Ġinvest":9718,"à¸Ńà¸Ńà¸¢à¸²à¸ģà¸£":9719,"Ġà¸łà¸²à¸¢à¹ĥà¸ķ":9720,"Ġà¸ªà¸§à¸Ļ":9721,"à¸ĩà¸¢à¸Ńà¸Ķ":9722,"à¸ļà¸ĺà¸Ļà¸²à¸Ħà¸²à¸£":9723,"à¸²à¸ĩà¸Ļà¸°":9724,"Ġà¸ªà¹Ħà¸ķà¸¥":9725,"74":9726,"à¸Ķà¸Ļà¸°à¸Ħà¸£":9727,"à¸Īà¸Ħ":9728,"ude":9729,"à¸«à¸£à¸Ńà¸Ħ":9730,"à¸¡à¸²à¸ģà¸Īà¸£":9731,"à¸Ļà¸Ĺà¸²à¸ĩà¸ķ":9732,"à¸§à¸¢à¹ģà¸ģ":9733,"Ġà¹ģà¸Ńà¸Ķ":9734,"à¸ĸà¸²à¸¡à¹Ģà¸Ħ":9735,"à¸²à¸Ħà¸§à¸²à¸¡à¸ª":9736,"à¸Ńà¸ĩà¸ŀà¸£":9737,"eld":9738,"Ġà¸ļà¸Ńà¸ģà¹ĥà¸«":9739,"à¸²à¸¡à¸²à¸ģà¸Ĥ":9740,"à¸Ĺà¸²à¸ĩà¹Ģà¸Ĥ":9741,"à¹Ħà¸Ľà¹Ģà¸Ĥ":9742,"à¸²à¸ªà¸§à¸¢":9743,"à¹Ģà¸«à¸¡à¸²à¸°à¸ª":9744,"à¸¡à¸ĵà¸ĳà¸¥":9745,"à¸ģà¸²à¸£à¹Ģà¸Ĭ":9746,"à¸§à¸²à¸Ļ":9747,"Ġà¸Ĺà¸°à¹Ģà¸¥à¸²à¸°à¸ģ":9748,"à¹Ģà¸Īà¸Ļ":9749,"à¸Ľà¸£à¸°à¸ģà¸§à¸Ķ":9750,"à¸§à¸Ļà¹ĥà¸«":9751,"Ġhappy":9752,"à¸ļà¹Ģà¸£à¸²à¸ģ":9753,"à¸Ĺà¹Ħà¸Ķ":9754,"à¸Ļà¸Ńà¸Ļà¸ģ":9755,"à¸Ķà¸ŀà¸¥":9756,"à¹įà¹ī":9757,"52":9758,"à¸¢à¸«":9759,"Ġ++++++++++++++++++++++++++++++++":9760,"à¹Ģà¸§à¸Ł":9761,"à¸Ńà¸ªà¸²à¸¡à¸²à¸£à¸ĸ":9762,"ra":9763,"à¸«à¸¥à¸²à¸¢à¹Ĩà¸Ĺ":9764,"à¸Ńà¸ĩà¹Ģà¸Ĥà¸²":9765,"à¹Ģà¸£à¸²à¹Ģà¸Ĭ":9766,"Ġà¸ŀà¸Ńà¸Ħ":9767,"à¸§à¸ĩà¹Ĩ":9768,"bbtv":9769,"à¸²à¹Ĥà¸ģ":9770,"à¹Ħà¸Ĥà¸Ńà¸¢":9771,"à¸Ļà¹Ĥà¸¢à¸ļà¸²à¸¢":9772,"à¸Ļà¹Ħà¸Ľà¸£":9773,"Ġ850":9774,"à¸Ĭà¸ģà¸²à¸¥à¸Ĺ":9775,"à¸įà¸«à¸²à¸Ķ":9776,"à¸Ľà¸Ĥà¸Ńà¸ĩ":9777,"Ġà¹Ģà¸Ńà¸²à¸¥":9778,"à¸Ļà¹Ģà¸¥à¸¢à¸Ķ":9779,"à¸²à¹Ħà¸ª":9780,"à¸įà¸Ī":9781,"à¸Ńà¸¡à¹Ĩ":9782,"ango":9783,"alk":9784,"à¸Ĺà¹Ĥà¸Ł":9785,"Ġà¹Ģà¸£à¸²à¹ģà¸Ħ":9786,"Ġà¸ľà¸¡à¸¥à¸Ńà¸ĩ":9787,"Ġà¸Ĥà¸²à¸ģà¸¥":9788,"Ġà¸ľà¸¡à¸Ĥà¸Ń":9789,"à¸²à¹Ģà¸ļà¸Ńà¸£":9790,"Ġà¹ģà¸Łà¸Ļà¸Ħà¸¥":9791,"à¹Ģà¸Ńà¸¢":9792,"à¸Ńà¸ĩà¸Ķà¸Ļà¸ķà¸£":9793,"Ġbro":9794,"à¸ĩà¸ŀà¸¢à¸²à¸¢à¸²à¸¡":9795,"à¸Ļà¹Ģà¸Ł":9796,"à¸ĩà¸Ĥà¸Ńà¸ĩà¸Ĺ":9797,"à¸²à¸Ńà¸Ńà¸ģà¸ģ":9798,"à¸Ĵà¸Ļà¸²à¸ĭ":9799,"chnical":9800,"à¸°à¸«à¸¡":9801,"à¸Ķà¸ķà¸²à¸¡à¸Ĥ":9802,"à¸§à¸ĩà¸¡":9803,"Ġà¸Ĭà¸²à¸ķ":9804,"à¸ĩà¸Ħà¸ĩà¹Ģà¸Ľ":9805,"lan":9806,"Ġà¸Ħà¸Ńà¸£":9807,"à¸Ļà¸Ĥà¸²à¸¢":9808,"à¸ļà¸¡à¸²à¸ĸ":9809,"à¸§à¹Ģà¸Ħà¸¥":9810,"à¸ĩà¸Ħà¸¡à¸Ĺ":9811,"Ġkid":9812,"à¹ģà¸¥à¸°à¸ģà¸¥":9813,"à¸§à¸Ħà¸¥":9814,"à¸Ńà¸ĩà¹ģà¸Ľ":9815,"à¸Ńà¸°à¹Ħà¸£à¸ľ":9816,"à¸Ĺà¸°à¹Ģà¸ļ":9817,"à¸ģà¹Ħ":9818,"à¸Īà¸°à¸«à¸¢":9819,"à¸Ħà¸§à¸²à¸¡à¸ªà¸ĩà¸ª":9820,"à¸«à¸²à¸ļ":9821,"à¸Ĺà¹Ħà¸Ńà¸Ĺ":9822,"Ġpink":9823,"à¸¡à¸łà¸²à¸£à¸°":9824,"Ġà¹Ĥà¸Ķà¸¢à¹Ģà¸Ľ":9825,"Ġà¸Ħà¸ĵ":9826,"à¸ŀà¸£à¸°à¹Ħà¸ķà¸£à¸Ľ":9827,"à¹Ģà¸¡à¸¢":9828,"âĸ":9829,"Ġà¸Ńà¸ł":9830,"à¸²à¸Ľà¸£à¸°à¸Ĺ":9831,"à¸ļà¸¡à¸²à¹Ģà¸¥":9832,"à¸ļà¸ģà¸£à¸°à¹Ģà¸Ľ":9833,"à¸ģà¸Ħà¸§à¸²à¸¡à¹Ģà¸«":9834,"Ġà¸ģà¸²à¸£à¸ŀ":9835,"Ġà¸ļà¸Ńà¸ģà¸ķà¸£à¸ĩà¹Ĩ":9836,"à¸ĩà¹Ģà¸Ħà¸£à¸²à¸°à¸«":9837,"à¸Īà¸į":9838,"à¸Ļà¸«à¸Ļà¸²à¸§":9839,"à¸Ńà¸ĩà¸²à¸Ļ":9840,"à¸Ļà¸ķà¸¥à¸²à¸Ķ":9841,"ple":9842,"à¸§à¹Ģà¸£à¸²à¹Ħà¸¡":9843,"à¸ķà¸¢à¸ģà¸£à¸£à¸¡":9844,"Ġà¹ģà¸Łà¸Ļà¹Ģà¸ģ":9845,"à¸ģà¸Ħà¸Ļà¸Ń":9846,"Ġà¹Ģà¸Ĥà¸²à¸£":9847,"Ġbangkok":9848,"à¸ģà¸Ķà¹Ģà¸ĩ":9849,"à¸£à¸°à¸¢":9850,"à¸¨à¸ķà¸°à¸§":9851,"à¸Ļà¹Ĥà¸Ĺà¸£à¸¨":9852,"à¸Ļà¸Ħà¸ļà¸ģ":9853,"à¸ģà¸ķà¸¥à¸Ńà¸Ķ":9854,"à¸²à¸ĩà¹Ģà¸Ľà¸¥":9855,"à¸§à¸¢à¸Ħà¸§à¸²à¸¡à¸£":9856,"]]":9857,"à¹Ģà¸Ħà¸¢à¹Ģà¸£":9858,"à¸«à¸²à¸«à¸¡":9859,"à¸²à¸«à¸Ļà¸Ķà¹ĥà¸«":9860,"à¹Ħà¸Ľà¹Ģà¸«":9861,"Ġà¸ģà¸²à¸£à¸Ķ":9862,"à¸Ļà¹ģà¸ªà¸Ķ":9863,"à¸¡à¸²à¸Ĥà¸Ń":9864,"Ġà¸Īà¸°à¸Ńà¸¢":9865,"à¸Ńà¸ĩà¸Ľà¸£à¸°à¸ģ":9866,"à¸Ħà¸Ĥà¸Ńà¸ĩ":9867,"à¸ľà¸¡à¸ļ":9868,"à¸Īà¸°à¹Ģà¸ŀ":9869,"Ġà¸Ńà¸²à¸Īà¸Īà¸°à¹Ħà¸¡":9870,"Ġrock":9871,"à¸²à¸Ļà¹Ģà¸Ļ":9872,"Ġend":9873,"à¸§à¹Ħà¸ĩ":9874,"Ġ140":9875,"à¹Į/":9876,"à¸¢à¸Ĭà¸Ļà¸°":9877,"peria":9878,"Ġà¸ļà¸Ńà¸¥":9879,"à¸Ńà¸Ļà¸Īà¸£":9880,"à¸«à¸²à¸Ķà¹ĥà¸«à¸į":9881,"à¸Īà¸²à¸£à¸ĵà¸²":9882,"à¸²à¸Ļà¸¡à¸²à¸Ļ":9883,"à¸ŀà¸Ńà¹Ĩà¸ģ":9884,"à¸Ńà¸¢à¹Ĩà¸ģ":9885,"à¸¢à¹Ģà¸Ĺ":9886,"à¸łà¸²à¸§":9887,"Ġwater":9888,"à¸ļà¸ļà¸Ńà¸ģà¸§":9889,"à¸²à¸ģà¸ģ":9890,"___":9891,"à¹Ģà¸ŀà¸£à¸²à¸°à¸ģà¸¥":9892,"Ġà¸ªà¸²à¸¡à¸²à¸£à¸ĸà¸ķ":9893,"à¸Īà¸°à¸«à¸¥":9894,"à¸ĩà¹Ħà¸Ľà¸Ķ":9895,"à¸Ľà¸£à¸°à¹Ģà¸Ĺà¸¨à¸Ļ":9896,"à¸§à¹ģà¸Łà¸Ļ":9897,"Ġ47":9898,"Ġwebsite":9899,"à¸ģà¹Ģà¸«à¸¥":9900,"à¸ĩà¹Ħà¸ĩà¹Ħà¸Ķ":9901,"Ġà¸ľà¸¡à¹Ģà¸Ĭ":9902,"Ġâĺ":9903,"Ġà¸Ľà¸£à¸°à¸Ĺ":9904,"à¸ľà¸¡à¸ªà¸ĩà¸ª":9905,"Ġ==":9906,"âĢĶâĢĶ":9907,"à¸£à¸²à¸ł":9908,"Ġ2011":9909,"à¸Ľà¸£à¸°à¹Ģà¸łà¸Ĺà¸Ļ":9910,"à¸Ĺà¸«à¸¥":9911,"Ġ43":9912,"Ġà¹Ģà¸£à¸²à¸Īà¸°à¹Ħà¸Ķ":9913,"à¸¡à¸Ńà¸ĩà¹Ħà¸¡":9914,"à¹ĥà¸Ķà¹Ĩà¸Ĺ":9915,"à¹Ģà¸Ĺà¸¥":9916,"à¸§à¹Ģà¸Ńà¸ģ":9917,"à¸Ńà¸ļà¸²à¸ĩà¸Ĺ":9918,"à¸ļà¸¥à¸£à¸²à¸Ĭà¸ĺà¸²à¸Ļ":9919,"Ġbnk":9920,"à¸Ļà¸Ħà¸§à¸²à¸¡à¸ĸ":9921,"à¸¡à¸²à¹Ģà¸¢":9922,"à¸ģà¸ģà¸°":9923,"à¸«à¸¢à¸²à¸ļ":9924,"Ġfibre":9925,"à¸Ĥà¸Ńà¸Ķ":9926,"à¹ģà¸¢à¸ģà¸¢":9927,"à¸ŀà¸Ńà¹Ģà¸Ľ":9928,"à¸§à¸Ļà¸Ĭ":9929,"à¸Ĥà¸łà¸²à¸ŀà¸Ķ":9930,"à¸Ľà¸§à¸Ķà¸Ĺ":9931,"à¸¢à¸ĩà¹Ģà¸£":9932,"à¸Ķà¸ªà¸¡":9933,"Ġà¸Ĺà¸°à¹Ģà¸¥":9934,"Ġà¸Ļà¸²à¸Ļà¹Ĩ":9935,"à¸Ńà¸Ļà¸Īà¸°à¹Ģà¸Ľ":9936,"à¸Ĺà¸ĺà¸¨à¸²à¸ªà¸Ļ":9937,"Ġopen":9938,"Ġleague":9939,"Ġà¸Īà¸Ļà¹Ħà¸Ķ":9940,"Ġà¹ģà¸Ĭ":9941,"à¸¡à¸²à¸£à¸¢à¸²à¸Ĺ":9942,"Ġiso":9943,"à¸ĩà¹Ģà¸Ńà¸ģà¸ªà¸²à¸£":9944,"à¸²à¸Ļà¹ģà¸Ļà¸°à¸Ļ":9945,"à¸²à¸ļà¸²à¸ĩ":9946,"à¸ģà¸©à¸ĵà¸°à¸Ļ":9947,"Ġrich":9948,"xxxx":9949,"Ġmiss":9950,"à¸Ķà¸²à¸Ļ":9951,"à¸Ħà¸Ļà¸Ĭ":9952,"Ġà¹ĥà¸Ļà¹ĥà¸Ī":9953,"à¸ģà¸§à¸²à¸Ķ":9954,"Ġtrans":9955,"à¹Ĩà¹ĥà¸«":9956,"à¸ģà¸£à¸°à¸Īà¸²à¸¢":9957,"à¸²à¹ĥà¸Īà¸Ĺ":9958,"à¸ļà¹Ħà¸¥":9959,"à¸Ńà¸¡à¸ģà¸¥":9960,"Ġà¹ģà¸¥à¸°à¹Ģà¸Ķ":9961,"à¸ĩà¸²à¸Ļà¸Ń":9962,"à¸Ńà¸Ļà¸Ļà¸Ńà¸Ļ":9963,"à¸§à¸Īà¸°à¹Ħà¸¡":9964,"à¸ķà¸¥à¸ģ":9965,"à¸Ķà¸Ħà¸§à¸²à¸¡à¸Ń":9966,"à¹Ģà¸Ńà¸²à¸Ĥà¸Ńà¸ĩ":9967,"à¸²à¸Īà¸°à¸«":9968,"Ġpat":9969,"ahoo":9970,"à¸Ńà¸²à¸«à¸²à¸£à¸į":9971,"à¸ĩà¸ªà¸ĩà¸ª":9972,"à¸§à¸Īà¸°à¸Ĺ":9973,"à¸²à¸¡à¸²à¸§":9974,"à¸įà¸¡à¸²à¸ģ":9975,"Ġà¸ªà¸ĸà¸²à¸ļ":9976,"à¸ķà¸£à¸Ħ":9977,"à¹ģà¸Łà¸Ļà¸ķà¸²à¸ĭ":9978,"à¹Ģà¸Īà¸Ńà¸Ń":9979,"Ġtre":9980,"à¸¢à¸ĩà¸Ħà¸£":9981,"à¸Ńà¸Ļà¹ĥà¸Ļà¸ģà¸¥":9982,"à¸²à¸ªà¸¥":9983,"à¹Ģà¸Ħà¸¢à¸Ī":9984,"Ġà¸ŀà¸Ńà¸ª":9985,"Ġ1800":9986,"à¹Ĥà¸£à¸Ħà¸Ī":9987,"Ġà¸Īà¸Ń":9988,"à¸ªà¸Ńà¸ĩà¸Ľ":9989,"à¸įà¸«à¸²à¹Ģà¸ģ":9990,"à¸Ńà¸Ļà¹Ģà¸Ĭ":9991,"à¹Ħà¸Ńà¹ģà¸ŀ":9992,"à¸²à¸¡à¸Ī":9993,"à¸Ĭà¸²à¸¢à¸«à¸Ļ":9994,"à¸ĩà¸Ļà¸²à¸Ļ":9995,"à¸Īà¸²à¸ģà¸«à¸Ļ":9996,"à¹Ģà¸Ńà¸²à¸Īà¸£":9997,"à¸ģà¸²à¸£à¹ģà¸ŀà¸Ĺà¸¢":9998,"Ġà¸£à¸°à¸¢à¸°à¸Ĺà¸²à¸ĩ":9999,"à¸²à¸ĩà¸ªà¸£à¸£à¸ŀà¸ª":10000,"à¹Ĥà¸Ħà¸§":10001,"Ġà¹Ģà¸ŀà¸£à¸²à¸°à¹Ģà¸£":10002,"à¹Ģà¸Ńà¸²à¸ľ":10003,"à¸²à¹ģà¸£à¸ģ":10004,"à¹ģà¸ļà¸ļà¹Ħà¸«à¸Ļà¸Ķ":10005,"Ġ--------------------------------------------------------------------------------------------------------------------":10006,"à¸ķà¸²à¸¡à¸§":10007,"à¸Ļà¹Ħà¸Ľà¸ĭ":10008,"Ġà¹Ģà¸ŀà¸£à¸²à¸°à¸Ńà¸¢":10009,"à¸īà¸¥à¸Ńà¸ĩ":10010,"Ġà¹ģà¸¥à¸°à¹Ģà¸¥":10011,"Ġà¸Ńà¸²à¸§":10012,"Ġ->":10013,"Ġà¸ŀà¸Ńà¸Ļ":10014,"à¸ĺà¸£à¸£à¸¡à¸ģà¸²à¸¢":10015,"à¸ĩà¹Ģà¸§à¸¥à¸²à¸Ĺ":10016,"Ġà¸ĸà¸Ńà¸Ķ":10017,"Ġà¹Ģà¸Ńà¹Ģà¸Ĭ":10018,"à¸²à¸¡à¸°":10019,"à¸ģà¹Ģà¸ģà¸Ī":10020,"à¸µâĢĿ":10021,"à¸ķà¸£à¸²à¸Ķ":10022,"Ġà¸Ħà¸Ńà¸Ļà¹Ĥà¸Ķ":10023,"Ġ85":10024,"Ġblu":10025,"à¸Ļà¸Ĥà¸Ńà¸ĩà¸Ĥà¸§":10026,"Ġ2554":10027,"à¸Ĭà¸Ńà¸ļà¸ª":10028,"Ġwindow":10029,"à¹Ģà¸Īà¸Ńà¸ľ":10030,"áĦı":10031,"à¸ģà¹ĥà¸Īà¸ģ":10032,"à¸Ĥà¸Ńà¸ĩà¸ŀà¸£à¸°":10033,"Ġpi":10034,"icial":10035,"Ġà¸ģà¸£à¸°à¸Ĺà¸£à¸§à¸ĩ":10036,"à¸Łà¹Ģà¸§à¸Ńà¸£":10037,"à¸ģà¸²à¸£à¹Ħà¸¡":10038,"à¹Ģà¸¨à¸©à¸Ĺ":10039,"à¸Ńà¸Ķà¸Ĺà¸Ļ":10040,"à¹Ģà¸Īà¸Ńà¹Ģà¸ŀ":10041,"à¸²à¸¡à¸²à¹Ģà¸£":10042,"à¸ŀà¸£à¸°à¸£à¸²à¸Ĭà¸ļ":10043,"à¸ģà¹Ģà¸¥à¸¢à¸Ħ":10044,"à¸Ļà¸«à¸¥à¸²à¸¢à¸Ħà¸Ļ":10045,"à¸²à¸«à¸¢à¸²à¸ļ":10046,"à¹Ħà¸«à¸Ļà¸Ń":10047,"à¸ģà¹Ģà¸¢":10048,"à¸ģà¸Ļà¸°à¸Ħà¸£":10049,"Ġ-->":10050,"à¸Ĥà¸²":10051,"à¸²à¸¡à¸²à¸Ĥ":10052,"à¸ķà¸£à¸²":10053,"!,\"":10054,"Ġbur":10055,"Ġ086":10056,"Ġinbox":10057,"oon":10058,"à¸ĩà¸Ħà¸¡à¸Ĭà¸²à¸§à¸ŀ":10059,"Ġcover":10060,"à¹Ģà¸Ńà¸Ļ":10061,"à¸ļà¸¡à¸²à¸¡":10062,"à¹ģà¸ļà¸ļà¸Ħ":10063,"ya":10064,"à¸Ĺà¸Ķà¸¥à¸Ńà¸ĩ":10065,"à¸Ħà¸Ļà¹Ħà¸Ĺà¸¢à¹ĥà¸Ļà¸Ń":10066,"à¸Ĵà¸Ļà¸²à¸ĭà¸Ńà¸Łà¸ķ":10067,"à¸ŀà¸į":10068,"à¸²à¸ģà¸²à¸£à¸£":10069,"ating":10070,"val":10071,"à¸Ļà¸²à¸Ļà¸¡à¸²à¸ģ":10072,"à¸ģà¹Ģà¸£à¸²à¸ģ":10073,"aha":10074,"Ġpol":10075,"Ġà¹ģà¸¥à¸°à¹Ģà¸ª":10076,"Ġà¸£à¸²à¸Ħà¸²à¹Ģà¸Ĺ":10077,"à¸łà¸²à¸Ħà¸Ļ":10078,"Ġà¸ªà¸Ńà¸ĩ":10079,"à¸²à¸Ļà¹ĥà¸Ķà¸¡":10080,"à¸°à¸«à¸£":10081,"à¸Īà¸Ļà¹Ħà¸¡":10082,"à¸²à¸ŀà¸§à¸ģà¸Ļ":10083,"à¸Īà¸²à¸Ļ":10084,"à¸¡à¸Ľà¸£":10085,"Ġà¸£à¸²à¸Ħà¸²à¸ģ":10086,"Ġmanag":10087,"à¸²à¸ŀà¸£à¸£à¸Ħ":10088,"à¸ķà¸Ńà¸Ļà¸Īà¸ļ":10089,"à¸ģà¸©à¸²à¹Ģà¸ŀ":10090,"Ġbut":10091,"à¸Ńà¸¡à¹Ĩà¸ģ":10092,"Ġà¹Ģà¸¢à¸Ļ":10093,"Ġsum":10094,"une":10095,"à¸¨à¸²à¸ªà¸Ļà¸²à¸Ń":10096,"à¹ģà¸«à¸§à¸Ļ":10097,"Ġyear":10098,"à¸Ńà¸°à¹Ħà¸£à¹Ģà¸ŀ":10099,"Ġà¹Ģà¸£à¸²à¹Ģà¸Ķ":10100,"Ġà¸¡à¸²à¸¢":10101,"à¸ķà¸²à¸ģ":10102,"à¸²à¹ģà¸Ĭà¸¡à¸Ľ":10103,"à¸¡à¸²à¸ŀà¸£":10104,"à¹ģà¸ľà¸Ļà¸ģà¸²à¸£":10105,"Ġà¸ŀà¸£à¸°à¸ŀ":10106,"Ġzenfone":10107,"à¸Ńà¸¢à¹Ģà¸£":10108,"à¸£à¸°à¹ģà¸§à¸ĩ":10109,"à¸²à¸¢à¹Ģà¸ļ":10110,"à¹Ħà¸Ħà¸£":10111,"Ġà¸ľà¸¡à¸ŀ":10112,"à¸Ļà¸Ĥà¸Ļà¸¡":10113,"à¸ģà¹ģà¸ªà¸Ķà¸ĩà¹Ħà¸Ĺà¸¢":10114,"à¹Ģà¸Īà¸Ńà¸ķ":10115,"à¹Ģà¸§à¸ĵà¸Ļ":10116,"à¸§à¸Īà¸°à¸ķ":10117,"Ġgps":10118,"à¸Ńà¹Ħà¸Ľà¸Ħ":10119,"à¸ĩà¸¡à¸²à¸ģà¸Ĺ":10120,"à¸ķà¸Ĥ":10121,"à¸ªà¸²à¸«à¸ģ":10122,"à¸Ķà¹Ģà¸Ľà¸¥":10123,"Ġ54":10124,"à¸Ńà¸ģà¹ĥà¸Ī":10125,"à¸²à¹Ģà¸£à¸²à¸Ħà¸§à¸£":10126,"Ġà¸¡à¸«à¸²à¸¥":10127,"ron":10128,"à¸Ńà¸«à¸§":10129,"à¸ģà¸£à¸²à¸¢":10130,"à¸Ńà¸ĩà¹Ģà¸«à¸¥":10131,"à¸ģà¸²à¸£à¸Ńà¸ļà¸£à¸¡":10132,"Ġ52":10133,"à¸Ķà¸®":10134,"âĢ¢âĢ¢":10135,"à¸ªà¸Ńà¸ļà¸ĸà¸²à¸¡à¸Ħà¸£":10136,"à¸Ļà¹Ĩà¸Ķ":10137,"Ġciv":10138,"Ġom":10139,"bit":10140,"à¸ĩà¸Ńà¸¢à¸²à¸ģà¸Īà¸°":10141,"à¸«à¸²à¸Ń":10142,"à¸Ńà¸¢à¸²à¸ģà¸¢":10143,"à¹Ĥà¸Ĥà¸Ĺ":10144,"à¸§à¸ĩà¸¡à¸²à¸¥":10145,"à¸¢à¸Ļà¸Ħà¸ĵà¸°":10146,"à¸²à¸ĺà¸²à¸£à¸ĵà¸°":10147,"à¹Ģà¸¥à¸¢à¸Īà¸£":10148,"à¸¢à¸ĩà¸«à¸Ļ":10149,"à¸²à¸Ħà¸§à¸²à¸¡à¹Ģà¸Ĥ":10150,"à¸Ĭà¸¥":10151,"áħ":10152,"à¸¢à¸§à¹ĥà¸«":10153,"à¸Ńà¸Ļà¹Ģà¸Ļ":10154,"à¸ļà¸£à¸£à¸¥":10155,"à¸Ļà¹ģà¸«à¸¥à¸°à¸Ħ":10156,"mark":10157,"à¸Ńà¸ľà¸¡à¹Ħà¸¡":10158,"à¹Ħà¸Ľà¸ģà¸§":10159,"Ġcamera":10160,"pa":10161,"à¸ģà¸ķà¸£":10162,"à¸ļà¸Ńà¸Ńà¸ģ":10163,"Ġà¸Īà¸°à¸ģà¸¥":10164,"Ġà¸¡à¸²à¸Ń":10165,"unz":10166,"à¸Ļà¸ŀà¸£à¸°à¹Ģà¸Ńà¸ģ":10167,"à¸²à¸ĩà¸Īà¸°":10168,"à¸ļà¸ķà¸²":10169,"Ġpage":10170,"Ġà¸ŀà¸Ńà¸Īà¸°":10171,"à¸²à¸¢à¸ĭ":10172,"à¹Ģà¸ģà¸©à¸ķà¸£à¸ģà¸£à¸£à¸¡":10173,"à¸£à¸ĸà¸£":10174,"à¸ķà¸ģà¸¥à¸ĩà¸ģ":10175,"à¸²à¸Ļà¹Ģà¸«à¸¥":10176,"à¸ģà¸²à¸£à¹ģà¸Ī":10177,"à¹Ĥà¸ļà¸Ļ":10178,"yle":10179,"à¹Ģà¸Īà¸Ńà¸Ļ":10180,"à¸£à¹Ĥà¸Ĺà¸©":10181,"à¸Ĭà¸Ńà¸ļà¹ĥà¸«":10182,"à¸²à¸ĩà¸²à¸¡":10183,"à¸²à¹ĥà¸Īà¸ĸ":10184,"à¸ĩà¸¡à¸²à¸ģà¸ģà¸§":10185,"à¸¢à¹Ħà¸§":10186,"Ġ46":10187,"à¸²à¸ĩà¸Ļà¸°à¸Ħà¸£":10188,"à¹ĥà¸Ļà¸§à¸ĩ":10189,"à¸§à¸ªà¸¡":10190,"83":10191,"?\"\"":10192,"à¹ģà¸¥à¹Ģà¸ª":10193,"à¹ģà¸Ńà¸Ħ":10194,"Ġkm":10195,"à¸ģà¸²à¸£à¹Ģà¸ŀ":10196,"à¸§à¸Ĺà¸²à¸ĩ":10197,"à¸Ħà¸Ļà¹Ĩà¸Ļ":10198,"à¸Ļà¸§à¸Ļ":10199,"à¹Ħà¸¡à¸¥":10200,"à¸²à¹Ģà¸¥à¸Ļà¹Ħà¸Ĺà¸Ļ":10201,"à¸²à¸Ĥà¸²":10202,"à¸ĸà¸Ńà¸Ļ":10203,"à¸ļà¸ļà¸Ĺà¹Ģà¸Ľ":10204,"à¸§à¸ĩà¸Ĭ":10205,"Ġà¸Ĥà¸Ńà¸ĩà¸ķ":10206,"à¸ģà¸Īà¸°à¹Ģà¸Ľ":10207,"à¸¡à¹Ģà¸Ħà¸£":10208,"à¸Ļà¸Ļà¸²à¸ĩà¹Ģà¸Ńà¸ģ":10209,"à¹Ĥà¸Ķà¸Ļà¹ģ":10210,"à¸Ĭà¸ķ":10211,"à¸²à¸Ļà¹Ģà¸§":10212,"Ġ+++":10213,"à¸Ľà¸£à¸°à¸ģà¸Ńà¸ļà¸Ħà¸Ńà¸¡à¸ŀ":10214,"à¸§à¹Ģà¸ªà¸£":10215,"à¸ļà¸§à¸¡":10216,"Ġà¸£à¸ļà¸ģà¸§à¸Ļà¸Ĥà¸Ńà¸Ħ":10217,"à¸£à¸²à¸¢à¸ģà¸²à¸£à¸Ĺ":10218,"à¸Ńà¸°à¹Ħà¸£à¸¢":10219,"à¸ĸà¸²à¸¡à¸ĸ":10220,"à¸Ļà¹ĥà¸Ļà¸£":10221,"à¸«à¸¥à¸²à¸¢à¹Ģà¸£":10222,"Ġà¸«à¸¡à¸²à¸¢à¹Ģà¸«à¸ķ":10223,"à¸Ńà¸¢à¸ľ":10224,"Ġcredit":10225,"à¸¡à¸«à¸²à¸ģà¸©":10226,"à¸Ŀà¸Ļà¸ķ":10227,"à¸²à¸ŀà¸£à¸°à¸¢à¸²":10228,"Ġshow":10229,"à¸Ĵà¸Ļà¸²à¸ķ":10230,"à¸ĩà¸£à¸§à¸¡":10231,"à¸£à¸©à¸ĵ":10232,"à¹Ģà¹Ģà¸Ĭ":10233,"à¸ĸà¸Ńà¸¢":10234,"à¸¢à¸§à¹Ģà¸Ĥ":10235,"à¸Ĥà¸Ńà¸ĩà¹Ģà¸¡":10236,"à¸ģà¸²à¸£à¸Ńà¸Ńà¸ģà¹ģà¸ļà¸ļ":10237,"à¸įà¸ŀ":10238,"à¸¡à¸§à¸¥":10239,"à¸¢à¸§à¹Ģà¸Ńà¸ĩ":10240,"à¸ŀà¸£à¸°à¸Ńà¸²à¸Ĺ":10241,"Ġà¹Ģà¸¥à¸¢à¸Ńà¸¢à¸²à¸ģà¸ĸà¸²à¸¡à¸§":10242,"Ġà¸£à¸²à¸Ħà¸²à¸ķ":10243,"à¸ļà¸Ńà¸ģà¹Ģà¸£à¸²à¸§":10244,"à¹ģà¸Ńà¸Ľà¹Ģà¸Ľ":10245,"à¸²à¸ĩà¹Ħà¸£à¹ĥà¸«":10246,"à¸²à¹ĥà¸Ļà¸Ľ":10247,"www":10248,"à¸¢à¸ļà¸Ĺ":10249,"à¸Ńà¸¥à¹Ģà¸¥":10250,"ford":10251,"à¸Ķà¹ģà¸«":10252,"à¸¥à¸Ł":10253,"à¸§à¸ŀà¸£":10254,"à¹ĥà¸Ļà¸Ĥà¸ĵà¸°à¸Ļ":10255,"Ġà¹ĥà¸ļà¸Ļ":10256,"à¸Ńà¸¢à¹Ģà¸«":10257,"à¸Ļà¸ļà¸Ńà¸£":10258,"à¸²à¸ĩà¹ģà¸Ĺ":10259,"à¸ĩà¸ªà¸§à¸¢":10260,"mazda":10261,"à¸¡à¸²à¸ģà¸§":10262,"à¸ģà¸²à¸£à¸Ńà¸¢":10263,"à¹Ģà¸ĺà¸Ńà¸¢":10264,"à¹Ħà¸Ľà¸ªà¸¡":10265,"à¸¢à¸§à¸°":10266,"Ġà¹ģà¸Ńà¸Ļ":10267,"à¸Ńà¸ģà¸²à¸£à¸¨":10268,"Ġdigital":10269,"à¸¢à¸Ļà¸¥":10270,"à¸ŀà¸Ļà¸ĺ":10271,"à¸ķà¸£à¹Ģà¸Ķà¸ļ":10272,"à¹Ģà¸¢à¸²à¸§à¸Ĭà¸Ļ":10273,"à¸Ńà¸ĩà¸ªà¸Ńà¸ļ":10274,"à¸Ĺà¹Ģà¸¡":10275,"à¸£à¸°à¸«à¸Ļ":10276,"à¹Ģà¸Łà¸£à¸¡":10277,"Ġà¹Ģà¸Ļà¸Ħà¹Ħà¸Ĺ":10278,"2560":10279,"à¸Ļà¸ķà¸Ńà¸ļ":10280,"Ġà¸Ľà¸£à¸°à¸«à¸¢":10281,"à¹ģà¸«à¸¥à¸°à¸Ĺ":10282,"à¸Ħà¸«":10283,"@@@":10284,"à¸¥à¹ĥà¸Ļ":10285,"Ġà¹Ģà¸ĸ":10286,"à¸ŀà¹Ģà¸£":10287,"à¸²à¸ĩà¸Ńà¸Ńà¸ģ":10288,"à¹Ģà¸¢à¸Ńà¸°à¹Ģà¸¥à¸¢":10289,"à¸«à¸ĩà¸ª":10290,"à¸Ħà¸§à¸²à¸¡à¸¢à¸²à¸§":10291,"à¹Ģà¸ģà¸¢":10292,"à¸Ĥà¸Ńà¸Ļà¹ģà¸ģ":10293,"à¸Ńà¸¢à¸²à¸ģà¸Ń":10294,"à¸²à¹Ħà¸£à¹Ħà¸¡":10295,"à¸Ľà¸£à¸°à¹Ģà¸ŀà¸ĵ":10296,"Ġddr":10297,"Ġà¸Īà¸Ļà¸¡à¸²à¸ĸ":10298,"Ġnon":10299,"à¸ĵà¸°à¸ģà¸£à¸£à¸¡à¸ģà¸²à¸£":10300,"à¸Ńà¸ĩà¸ģà¸Ķ":10301,"à¸ªà¸ŀ":10302,"à¸Ľà¸ģà¸²à¸£":10303,"à¸ģà¸£à¸²à¸Ħ":10304,"à¹ĥà¸Ļà¸ģà¸²à¸£à¸ŀ":10305,"Ġà¸ģà¸£à¸°à¸ķ":10306,"à¸²à¸Ĥà¸Ńà¸ĩà¸Ļ":10307,"à¹ģà¸Ĺà¸Ļà¸£à¸²à¸©à¸İà¸£":10308,"national":10309,"à¸ķà¸²à¸¡à¸Ĭ":10310,"82":10311,"oud":10312,"à¸²à¸ĩà¸²à¸Ļà¸ļ":10313,"à¸¡à¸²à¸ģà¸ª":10314,"à¸Ļà¸Ħà¸Ļà¸ľ":10315,"à¸Ļà¸Ńà¸Ļà¸Ķ":10316,"à¸Ĺà¸ŀ":10317,"Ġà¹Ģà¸ŀà¸¨":10318,"à¸ģà¸£à¸¢à¸²à¸Ļà¸¢à¸Ļà¸ķ":10319,"à¸ķà¸²à¸¡à¸¡à¸²":10320,"à¸°à¸ŀà¸²à¸Ļ":10321,"à¸Ļà¹ĥà¸Īà¹Ħà¸Ķ":10322,"à¸ªà¸Ļà¹ĥà¸Īà¸ķ":10323,"à¸²à¹Ĥà¸¡":10324,"à¸§à¸¢à¸ĸ":10325,"iness":10326,"à¸¡à¸Īà¸°":10327,"à¹Ĥà¸Ħà¸£à¸²à¸Ĭ":10328,"à¸Ļà¹Ĥà¸Ħ":10329,"à¸Ļà¸Ńà¸¥":10330,"Ġwill":10331,"à¸£à¸²à¸Ħà¸²à¸Ħ":10332,"à¸įà¸įà¸²à¸Ĺ":10333,"à¸Īà¸°à¸¡à¸²à¸£":10334,"à¸Ńà¸Ļà¸Ħà¸Ļà¸Ĺ":10335,"ĠÂ":10336,"Ġà¸¡à¸²à¸ģà¹Ĩ":10337,"à¹Ĥà¸Ķà¸Ļà¸¢":10338,"à¸²à¸¡à¸²à¹ĥà¸Ļ":10339,"à¹ĥà¸¢":10340,"à¸°à¸Ńà¸¢":10341,"à¸ģà¸ļà¸Ńà¸¥":10342,"à¸¢à¸¡à¸Ń":10343,"à¸¡à¸²à¸ģà¹Ĩà¸Ħà¸£":10344,"à¸£à¸§à¸¡à¸ķ":10345,"à¸§à¸Ļà¸§":10346,"à¸ļà¸ģà¸²à¸£à¹Ģà¸ĩ":10347,"à¹Ģà¸£à¸²à¸Ńà¸²à¸¢":10348,"Ġà¹ĥà¸Ļà¸ŀ":10349,"à¸Ńà¸¡à¸²à¹ĥà¸Ĭ":10350,"ston":10351,"Ġà¸ķà¸¥":10352,"Ġà¸Ķà¸Ńà¸ģà¹Ģà¸ļ":10353,"à¸Ļà¸²à¸£":10354,"à¸Īà¸²à¸ģà¸ģà¸²à¸£à¸Ĺ":10355,"à¸ļà¹Ħà¸Ľà¸§":10356,"à¸Ļà¸¢à¸Ļà¸ķ":10357,"Ġà¹Ħà¸Ľà¸ĭ":10358,"à¸ģà¸²à¸£à¸ĩà¸²à¸Ļ":10359,"amily":10360,"à¸Ńà¸Ńà¸Ńà¸Ńà¸Ńà¸Ńà¸Ńà¸Ń":10361,"à¸ŀà¸¥à¸Ńà¸¢":10362,"à¸ļà¹Ħà¸Ľà¸ģ":10363,"Ġcolle":10364,"Ġà¸ģà¸£à¸°à¸Ī":10365,"Ġim":10366,"à¸ŀà¸£à¸£à¸Ħà¸Ľà¸£à¸°à¸Ĭà¸²à¸ĺ":10367,"à¸Ļà¹ģà¸Ĺà¸Ļ":10368,"à¸Ħà¸«à¸Ļ":10369,"à¸ķà¸ģà¸¥à¸ĩ":10370,"à¸¡à¸Ńà¹Ħà¸ĭà¸Ħ":10371,"à¸ļà¸¡à¸²à¸ª":10372,"à¹ĥà¸Ħà¸£à¹Ģà¸Ħà¸¢à¹Ģà¸Ľ":10373,"à¹Ģà¸¥à¸§":10374,"Ġauto":10375,"Ġairport":10376,"à¸ķà¹ĥà¸Ļ":10377,"à¸Ĭà¸§à¸Ļà¸Ħ":10378,"à¸¢à¸Ńà¸ĩà¸Ĥà¸§":10379,"à¸Ļà¸Ńà¸Ńà¸ģà¹Ģà¸ī":10380,"à¸ļà¸¡à¸²à¹Ħà¸Ķ":10381,"à¸¢à¹Ĥà¸Ĺà¸£à¸¨":10382,"à¸ļà¹ĥà¸«à¸¡":10383,"à¸ĸà¸ĸ":10384,"Ġà¸£à¸Ńà¸Ķ":10385,"à¸²à¹Ħà¸¡à¸¢":10386,"à¸²à¸§à¹Ģà¸Ķ":10387,"led":10388,"à¸¡à¸²à¹Ģà¸ķ":10389,"à¹Ģà¸Ńà¸²à¸Ĭ":10390,"Ġà¸£à¸ļà¸ģà¸§à¸Ļà¸«à¸Ļ":10391,"à¸²à¸ĩà¸²à¸Ļà¹ĥà¸«":10392,"à¸²à¸ģà¸²à¸£à¸Ī":10393,"à¸Ħà¸§à¸²à¸¡à¸Ĥ":10394,"à¹Ģà¸Ħà¸²à¸Ļ":10395,"à¹Ģà¸Īà¸Ńà¸ŀ":10396,"à¸ŀà¸§à¸ģà¹Ģà¸Ĥà¸²":10397,"à¸²à¹Ģà¸ªà¸ŀà¸ķ":10398,"à¸¢à¸¢à¸¢à¸¢à¸¢":10399,"Ġà¸¢à¸Ńà¸¡":10400,"Ġele":10401,"à¸ĭà¸°à¹ģà¸¥":10402,"à¸£à¸²à¸ķà¸£":10403,"à¸Ńà¸¢à¹Ģà¸Ĺ":10404,"à¸²à¹Ĥà¸£à¸ĩ":10405,"à¸Ńà¸Ļà¸ļà¸Ńà¸ģà¸§":10406,"à¸ļà¸¡à¸²à¸Ļ":10407,"à¸«à¸²à¹Ģà¸£":10408,"à¹Ĥà¸ļà¸ģ":10409,"à¹ģà¸¥à¸°à¹Ģà¸ª":10410,"à¸ģà¸²à¸£à¸«à¸¥":10411,"à¹Ģà¸Ńà¸²à¸Ķ":10412,"à¸¡à¹Ģà¸«à¸¡":10413,"à¸Ľà¸£à¸°à¸ĺà¸²à¸Ļà¸²à¸ĺ":10414,"ishi":10415,"à¸Ńà¹Ģà¸ķà¸£":10416,"Ġgame":10417,"à¸Ńà¹Ħà¸Ľà¹Ģà¸£":10418,"à¹Ħà¸ģà¸£":10419,"à¹Ĥà¸Ńà¸ģà¸²à¸ªà¹ĥà¸«":10420,"Ġà¸łà¸²à¸¢à¸«à¸¥":10421,"Ġà¹Ģà¸īà¸¥":10422,"Ġà¸Ħà¸§à¸ļà¸Ħ":10423,"à¸¢à¸ģà¸Ĺ":10424,"à¸Ĭà¸ģ":10425,"à¸²à¸Īà¸²à¸ģà¸Ĺ":10426,"à¸ķà¸²à¸¡à¸ģ":10427,"Ġà¹Ĥà¸Ľà¸£à¹Ĥà¸¡à¸Ĭ":10428,"à¸ĵà¸Ĭ":10429,"à¹Ĥà¸ļà¸§":10430,"Ġà¹Ģà¸Ķà¸£":10431,"à¸Ĭà¸Ńà¸ļà¸Ń":10432,"Ġà¹Ģà¸Ĥà¸²à¸ķ":10433,"à¸Īà¸²à¸ģà¸¥":10434,"à¹ĥà¸Ļà¸Ŀ":10435,"Ġà¸ªà¸²à¸§à¹Ĩ":10436,"Ġà¹ģà¸¡à¸Ļ":10437,"à¸²à¸ĸà¸²à¸¡à¸Ļ":10438,"à¸ķà¸£à¸ª":10439,"à¸«à¸¥à¸²à¸¢à¹Ģà¸Ķ":10440,"oppo":10441,"à¸Ļà¹Ģà¸ľ":10442,"à¸ŀà¸£à¸°à¸Ĺ":10443,"à¸Ķà¸ī":10444,"Ġ155":10445,"à¸ĩà¹ĥà¸ģà¸¥":10446,"Ġà¸¡à¸²à¹Ħà¸Ķ":10447,"Ġà¸£à¸Ńà¸ļà¸Ļ":10448,"à¸Ļà¸Ħà¸Ļà¸ŀ":10449,"bts":10450,"à¸²à¹Ħà¸Ľà¹Ģà¸¥":10451,"à¸Ļà¹Ħà¸Ľà¸¡":10452,"à¸Ħà¸£à¸Ńà¸ĩ":10453,"à¸²à¸£à¸¢à¸²à¸Ĺ":10454,"à¸Ķà¹ģà¸Ļ":10455,"à¸ĩà¸«à¸¢":10456,"2557":10457,"à¹Ĥà¸Ĺà¸£à¹Ħà¸Ľà¸ĸà¸²à¸¡":10458,"à¸ķà¸£à¸Ķ":10459,"à¸ģà¸£à¸Ń":10460,"à¸²à¹Ĩà¸Ĺ":10461,"à¸¡à¸Ļà¸¡":10462,"à¸ģà¸²à¸£à¸«":10463,"à¸¢à¸Ńà¸¡à¸Ĺ":10464,"Ġà¹Ģà¸£à¸²à¸Īà¸°à¸Ĺ":10465,"à¸ĩà¹ĥ":10466,"Ġà¸ģà¸²à¸£à¸Ħ":10467,"Ġà¹Ĥà¸Ķà¸¢à¸Ħ":10468,"à¸Ħà¸Ļà¹Ħà¸Ĺà¸¢à¹ĥà¸Ļà¸į":10469,"à¸Ĥà¸Ķ":10470,"à¹Ħà¸Ľà¸«à¸²à¸«à¸¡à¸Ń":10471,"à¸¡à¹Ħà¸«à¸¡":10472,"à¸ģà¸ł":10473,"à¸¡à¸¡à¸Ńà¸ĩà¸Ĥà¸Ńà¸ĩ":10474,"à¹ģà¸¥à¸°à¸ļ":10475,"olog":10476,"à¸Ļà¸¡à¸²à¸Ńà¸¢":10477,"azz":10478,"à¹Ģà¸Ħà¸¢à¸Ĥ":10479,"à¹Ĥà¸£à¸Ħà¸ķ":10480,"à¸²à¸Ĥà¸Ļà¸²à¸Ķà¸Ļ":10481,"à¸Ļà¸¡à¸²à¸Ĥ":10482,"à¸§à¸Ńà¸°à¹Ħà¸£":10483,"à¸²à¸ķà¸Ńà¸ļà¸¥":10484,"à¸Ħà¸§à¸²à¸¡à¸ģà¸¥":10485,"à¸Ķà¹ģà¸£à¸ģ":10486,"à¸¥à¸°à¸Ĭ":10487,"Ġà¸«à¸¡à¸²à¸¢à¸Ħà¸§à¸²à¸¡à¸§":10488,"à¸Ńà¸ĩà¸£à¸°à¸§":10489,"Ġà¸Ļà¸²à¸¢à¸«à¸Ļ":10490,"73":10491,"à¸§à¸Ļà¸ģà¸¥à¸²à¸ĩ":10492,"à¸Ļà¸Ľà¸£à¸°à¹Ģà¸Ķ":10493,"Ġà¹Ģà¸ŀà¸£à¸²à¸°à¹Ģà¸ŀ":10494,"à¸²à¸Ńà¸²à¸§":10495,"very":10496,"Ġbest":10497,"à¸¢à¸Ńà¸Ļ":10498,"chester":10499,"à¹Ĥà¸¢à¸ļà¸²à¸¢":10500,"à¸Ĭà¸²à¸¢à¸Ħà¸Ļà¸«à¸Ļ":10501,"à¸Ĥà¸Ńà¸ĩà¸«":10502,"à¹Ģà¸ĺà¸Ńà¸§":10503,"âĻ¥âĻ¥":10504,"à¸ªà¸²à¸¡à¸²à¸£à¸ĸà¹Ģà¸Ľ":10505,"à¸¡à¹Ģà¸Ľà¸¥":10506,"à¸¡à¹Ģà¸Ĭ":10507,"Ġà¹ģà¸Łà¸Ļà¸ģ":10508,"Ġà¸§à¸²à¸ĩà¹ģà¸ľ":10509,"à¸Ńà¸ĩà¸£à¸ĸ":10510,"à¸Ńà¸Ńà¸ª":10511,"à¸²à¸Ļà¹ĥà¸Ĭ":10512,"ger":10513,"Ġà¸łà¸²à¸ŀà¸Ĺ":10514,"Ġà¹Ģà¸Ńà¸Łà¸ĭ":10515,"./":10516,"Ġà¹Ģà¸¡à¸¥":10517,"adget":10518,"afe":10519,"à¸ķà¸²à¸¡à¸Ń":10520,"à¸ģà¸¥à¸²à¸ĩà¹Ģà¸¡":10521,"à¸ģà¸¨à¸£":10522,"à¸Ļà¹Ħà¸Ľà¸¢":10523,"Ġtak":10524,"à¸Ńà¸ĩà¸ī":10525,"à¸²à¹ĥà¸Ļà¸§":10526,"à¸¨à¸ķà¸§à¸£à¸£à¸©à¸Ĺ":10527,"à¸ªà¸§à¸¡":10528,"Ġà¹Ģà¸£à¸²à¸Ħà¸ļà¸ģ":10529,"à¸Ķà¹Ģà¸¥à¸¢à¸§":10530,"à¸Ļà¹ĥà¸Īà¸ģ":10531,"à¸²à¸ŀà¸Ń":10532,"Ġà¹ģà¸ĸà¸¡à¸¡":10533,"à¸¡à¹ģà¸ģ":10534,"Ġà¸ģà¸ģà¸ķ":10535,"à¸ģà¸©à¸²à¸Ľ":10536,"à¸§à¸ľà¸¡à¹Ģà¸Ńà¸ĩ":10537,"Ġà¸Ľà¸£à¸°à¸ª":10538,"à¸²à¸Ħà¸Ńà¸¡":10539,"à¸Ķà¹ĥà¸Ļà¸Ĭ":10540,"à¹Ĥà¸Ķà¸Ļà¸ģ":10541,"à¸µà¹ī\"\"":10542,"51":10543,"ho":10544,"à¸¥à¸ŀ":10545,"Ġà¸Ľà¸§à¸ª":10546,"!?":10547,"à¸§à¸¢à¸ķà¸Ļà¹Ģà¸Ńà¸ĩ":10548,"à¸Ħà¸Ħà¸¥à¸Ħ":10549,"à¸²à¸¢à¹Ģà¸¥":10550,"Ġ53":10551,"à¹ĥà¸Ļà¸Ħà¸¥":10552,"Ġmay":10553,"Ġà¹ģà¸¥à¸°à¸ĭ":10554,"à¹Ĥà¸Ĺà¸£à¸Ħà¸¡à¸Ļà¸²à¸Ħà¸¡":10555,"à¸¡à¸²à¸ģà¹ģà¸ķ":10556,"Ġà¸Īà¸°à¸ģ":10557,"à¸²à¸¡à¸Ľ":10558,"à¸įà¸įà¸²à¸§":10559,"à¸²à¸¢à¹ģà¸ķ":10560,"Ġà¹Ģà¸ĭà¸Ļà¸ķ":10561,"Ġà¸Ļà¸Ńà¸ģà¸Ļ":10562,"adow":10563,"à¸£à¸§":10564,"à¸ķà¹Ģà¸ŀ":10565,"à¹Ģà¸£à¸²à¸ªà¸Ńà¸ĩà¸Ħà¸Ļ":10566,"à¹Ģà¸Ńà¸²à¹Ģà¸Ľà¸£":10567,"à¸²à¸Ńà¸°à¹Ħà¸£à¸ľ":10568,"à¹ģà¸Ļà¸§à¸£":10569,"à¸ĩà¸ĩà¸§":10570,"Ġkit":10571,"à¸¢à¸§à¸Īà¸°":10572,"à¸Ńà¸¡à¸²à¸ģà¸ģà¸§":10573,"à¸ŀà¸«à¸¥":10574,"à¹Ģà¸¥à¸¢à¸ļà¸Ńà¸ģà¸§":10575,"à¸Ńà¹Ħà¸Ľà¸¢":10576,"à¸²à¸ªà¸°à¸ŀ":10577,"Ġà¹Ģà¸§à¸¥à¸²à¸ľ":10578,"à¸²à¸Ļà¸§à¸¢à¸Ħà¸§à¸²à¸¡à¸ªà¸°à¸Ķà¸§à¸ģ":10579,"Ġstreet":10580,"à¸ļà¹Ģà¸£à¸²à¸Ĺ":10581,"Ġret":10582,"à¸Ļà¸ģà¸²à¸£à¸£":10583,"Ġà¸¥à¸ĩà¸Ĺà¸°à¹Ģà¸ļ":10584,"Ġà¹Ĥà¸Ķà¸¢à¸ģ":10585,"à¸ĩà¸Īà¸²à¸ģà¹Ħà¸Ķ":10586,"Ġprem":10587,"à¸ģà¸ģà¸ģà¸ģà¸ģ":10588,"à¸Ļà¸Īà¸°à¸Ĥ":10589,"ula":10590,"à¸²à¸Īà¸Ļà¸ĸ":10591,"Ġ4000":10592,"à¸¡à¸Ħà¸£à¸Ńà¸ĩ":10593,"club":10594,"Ġsocial":10595,"à¸²à¹Ĥà¸Ķà¸Ļ":10596,"à¸ļà¸ģà¸²à¸£à¸Ī":10597,"ivo":10598,"à¹ģà¸ªà¸ķ":10599,"à¸Ķà¹Ģà¸Īà¸Ļà¸§":10600,"à¸²à¹Ħà¸ĩà¸Ħà¸£":10601,"à¸§à¸«à¸²à¸¢":10602,"à¹ĥà¸Īà¸Ļ":10603,"Ġà¸Īà¸Ļà¸ģà¸§":10604,"*****":10605,"à¸Ńà¸Ļà¹Ģà¸ĭà¸Ńà¸£":10606,"à¸ĸà¸²à¸¡à¸Ļ":10607,"Ġssd":10608,"à¸ªà¸Ńà¸ĩà¹Ģà¸Ķ":10609,"à¸ªà¸Ńà¸ļà¸ĸà¸²à¸¡à¸Ĺ":10610,"Ġ06":10611,"à¸²à¸Ķà¸£":10612,"Ġà¹ĥà¸Ħà¸£à¸ŀà¸Ńà¸Ĺà¸£à¸²à¸ļ":10613,"à¹Ģà¸ķà¸¢":10614,"à¸ģà¸©à¸²à¸ģà¸²à¸£":10615,"à¸ļà¸Ħà¸§à¸²à¸¡à¸Ħ":10616,"à¸Ĭà¸²à¸¢à¸Ħ":10617,"à¸¥à¸ĩà¹Ģà¸£":10618,"ke":10619,"à¹ģà¸£à¸°":10620,"à¸Ĥà¸ļà¸§à¸Ļ":10621,"à¹Ģà¸Ńà¸§":10622,"à¸Ĭà¸Ńà¸ļà¸¡":10623,"à¸Ĥà¸Ńà¸£à¸ļà¸ģà¸§à¸Ļ":10624,"à¸ģà¸£à¸°à¸ª":10625,"à¸ļà¹ĥà¸Ħà¸£à¸Ĺ":10626,"à¹Ĥà¸®à¸¡":10627,"à¸ĩà¹ĥà¸Ļà¸ģà¸²à¸£":10628,"à¸įà¸²à¸į":10629,"ero":10630,"à¸Ńà¸ĩà¸ģà¸²à¸£à¸£":10631,"à¸Ńà¸Ńà¸ªà¹Ģà¸ķà¸£à¹Ģà¸¥":10632,"à¸ģà¸Ĥà¸Ńà¸ĩà¹Ģà¸£à¸²":10633,"à¸Ńà¸Ĭà¸²à¸ķ":10634,"à¹Ģà¸ŀà¸¥à¸¢":10635,"à¸Ńà¸ľà¸¡à¹Ģà¸Ľ":10636,"à¸Ļà¸«à¸¡à¸Ķà¹ģà¸¥":10637,"Ġ??,\"":10638,"à¸¢à¹Ģà¸«à¸¡":10639,"à¸¡à¸ķà¸¥à¸Ńà¸Ķ":10640,"à¸ļà¹Ģà¸ĭ":10641,"à¸ªà¸Ńà¸¢":10642,"Ġkc":10643,"à¸ĩà¸²à¸Ļà¸Ŀ":10644,"à¸ĩà¹Ģà¸¥à¸¢à¸Ħà¸£":10645,"Ġpow":10646,"Ġà¸Ħà¸§à¸²à¸¡à¹Ģà¸Ľ":10647,"à¸§à¸ĩà¸Ń":10648,"à¸ŀà¸Ńà¸¥":10649,"Ġà¸Ńà¸²à¸¨":10650,"ring":10651,"à¸Ħà¹ģà¸¥":10652,"Ġà¹Ħà¸«à¸¥":10653,"à¹Ĥà¸¡à¹Ģà¸¡":10654,"à¸ĩà¸«à¸²à¸ģ":10655,"tot":10656,"à¸Īà¸°à¸Ĥà¸²à¸¢":10657,"à¸ģà¸£à¸£":10658,"à¸²à¸Ħà¸Ļà¹Ĥà¸ªà¸Ķ":10659,"à¸²à¸¡à¸²à¸ŀ":10660,"à¸Ĥà¸Ńà¸ĩà¸ĭ":10661,"à¸Ķà¸Ńà¸Ļà¹Ģà¸¡":10662,"à¸ŀà¸Ńà¸ª":10663,"à¸Ļà¹Ĩà¸Ļ":10664,"Ġà¸Ļà¸²à¸¬":10665,"à¸²à¸Ļà¸Ļà¸°à¸Ħà¸°":10666,"Ġà¸ģà¸²à¸£à¸ļ":10667,"à¸¢à¸Ķà¸Ķ":10668,"à¸Ļà¸ģà¸²à¸£à¸Ī":10669,"à¸Ĭà¸ª":10670,"à¹Ĥà¸¥à¹Ĥà¸ģ":10671,"à¸Ļà¹Ĥà¸£":10672,"à¸§à¸¢à¸Ńà¸°à¹Ħà¸£":10673,"à¸Ķà¹Ģà¸§":10674,"za":10675,"à¸ªà¸²à¸¡à¸²à¸£à¸ĸà¸Ī":10676,"à¸¥à¸ĩà¹Ģà¸¥":10677,"à¹Ħà¸Ĺà¸¢à¸£":10678,"Ġà¹ĥà¸Ļà¸¢":10679,"Ġà¸ªà¸²à¸Ĥà¸²à¸Ń":10680,"à¸²à¸Īà¸Ńà¸¡":10681,"à¸²à¹Ĥà¸Ľà¸£":10682,"à¸¢à¸§à¹ģà¸¥à¸°":10683,"à¸Ļà¸ªà¸²à¹Ģà¸«à¸ķ":10684,"à¸²à¸Ĥà¸Ńà¸ĩà¸Ń":10685,"à¸ģà¸Ħà¸§à¸²à¸¡à¸Ħ":10686,"à¸¡à¸«à¸²à¸¨à¸²à¸¥":10687,"à¸ĩà¸«à¸į":10688,"à¸²à¹Ģà¸Ĥà¸²à¹Ģà¸Ľ":10689,"à¸ĵà¸Ļà¸°à¸Ħà¸°":10690,"à¸ļà¸ģà¸¥à¸²à¸¢à¹Ģà¸Ľ":10691,"à¸²à¸Ķà¸²":10692,"Ġacer":10693,"à¸ģà¸Ĭà¸²à¸ķ":10694,"à¸łà¸²à¸ľ":10695,"à¸Ńà¹Ħà¸ĩ":10696,"à¸Ńà¸ĩà¸Ħà¸¥":10697,"à¹ģà¸ļà¸ļà¸Ķ":10698,"ific":10699,"à¸²à¹Ģà¸§à¸¥à¸²":10700,"à¸¡à¸²à¹Ģà¸Ķ":10701,"à¸¡à¸²à¸Ĭà¸Ńà¸ļ":10702,"à¸¡à¸²à¸ģà¸ģà¸ģà¸ģ":10703,"à¹ī..":10704,"Ġà¸ļà¸²à¸Ĺà¹Ģà¸Ĺ":10705,"Ġbike":10706,"Ġ125":10707,"à¸ģà¸©à¸²à¸Ļ":10708,"Ġspf":10709,"Ġà¸ľà¸¡à¹Ģà¸Ńà¸ĩà¸ģ":10710,"à¸Ńà¸Ļà¹Ĥà¸ķ":10711,"à¸Ļà¸¡à¹ģà¸¡":10712,"à¹Ģà¸£à¸²à¸Īà¸°à¸Ĺ":10713,"Ġdata":10714,"Ġà¸¡à¸²à¸ŀà¸£":10715,"Ġinvestment":10716,"à¸°à¸ķà¸Ńà¸Ļà¸Ļ":10717,"à¸ªà¸£à¸£":10718,"à¸Ĥà¸Ńà¸ĩà¹ģà¸Ĺ":10719,"à¸Ńà¸¡à¸«à¸Ļ":10720,"Ġà¸ģà¸£à¸°à¹Ĥà¸Ľà¸£à¸ĩ":10721,"à¸²à¸§à¹Ģà¸§à¸Ńà¸£":10722,"rop":10723,"Ġà¸Ļà¸°à¸Ħ":10724,"à¸ĩà¸ł":10725,"à¸²à¹Ģà¸£à¸²à¸Ń":10726,"Ġà¸Ĩ":10727,"à¹Ģà¸Ħà¸¢à¸Ĭ":10728,"Ġmode":10729,"à¸«à¸²à¸ģà¸¡":10730,"à¹Ģà¸ĺà¸Ńà¸Ļ":10731,"à¸ģà¸Ħà¸Ļà¸£":10732,"à¸¢à¸§à¹ģà¸ķ":10733,"à¸Ļà¹Ģà¸¢à¸Ńà¸°à¹Ĩ":10734,"Ġà¸¡à¸²à¸Ħà¸£":10735,"à¸ļà¸²à¸ĩà¸Ħà¸Ļà¸ģ":10736,"à¸Ńà¸ģà¸Ĭ":10737,"à¹ģà¸£à¸ģà¸§":10738,"sm":10739,"Ġmen":10740,"à¹Ģà¸¥à¸¢à¸Ńà¸¢à¸²à¸ģà¸Īà¸°":10741,"Ġxperia":10742,"Ġà¸Ńà¸Ļà¸²à¸Ħà¸ķ":10743,"à¸²à¸¡à¸²à¸ĸ":10744,"à¸²à¸Ķà¸§":10745,"Ġnat":10746,"à¸ģà¸ģà¸ģà¸ģà¸ģà¸ģà¸ģà¸ģà¸ģà¸ģà¸ģà¸ģà¸ģà¸ģà¸ģà¸ģ":10747,"à¸Ĭà¹Ģà¸Ĭ":10748,"à¸Ĥà¸Ńà¸ĩà¸Ĥà¸§":10749,"à¸Ĺà¸²à¸ĩà¸Ńà¸Ńà¸ģ":10750,"à¸«à¸¡à¸Ķà¸ģ":10751,"à¸¡à¹Ģà¸Ħ":10752,"à¸ģà¸£à¸§à¸£":10753,"dis":10754,"à¸Ľà¸ªà¸ķ":10755,"à¸²à¸ķà¸²à¸Ļ":10756,"à¸Ĺà¸²à¸ĩà¸ģ":10757,"93":10758,"120":10759,"à¸²à¹Ħà¸«à¸¡à¸Ħà¸°":10760,"à¹Ĥà¸£à¸Ħà¸ľ":10761,"à¸ķà¸¥à¸Ńà¸Ķà¸Ĺ":10762,"à¸Ĥà¸Ńà¸ĩà¸Ħà¸Ļà¸Ĺ":10763,"à¸²à¸Ŀà¸£":10764,"ense":10765,"Ġà¸Ľà¸¥à¸²à¸¢":10766,"à¸ĩà¹ĥà¸Ļà¸Ľ":10767,"à¸ĩà¸§à¸¥à¸§":10768,"à¸Ńà¸Ńà¸ģà¸¡à¸²à¹ĥà¸«":10769,"à¹Ģà¸£à¸²à¸Ħà¸§à¸£à¸Ĺ":10770,"Ġà¸ľà¸¡à¸Ńà¸¢à¸²à¸ģà¸£":10771,"à¸Īà¸°à¸ķà¸Ńà¸ļ":10772,"à¸Ķà¹Ħà¸Ľà¹ģà¸¥":10773,"à¹Ģà¸Ħà¸¢à¸ĸ":10774,"à¸ĭà¸°à¸Ĺ":10775,"à¸²à¸ĩà¸¥à¸°à¹Ģà¸Ń":10776,"à¸Ļà¸Ńà¸¢à¸²à¸ģ":10777,"Ġà¸Łà¸Ńà¸£":10778,"à¸Ļà¹ģà¸ľà¸¥":10779,"à¸ĩà¸Ľà¸£à¸°à¸ķ":10780,"à¸Ĭà¸Ńà¸ļà¹Ģà¸£à¸²":10781,"Ġ********************************":10782,"Ġvers":10783,"Ġhand":10784,"Ġ5555555":10785,"à¸ģà¸£à¸§à¸£à¸£à¸Ķ":10786,"tw":10787,"à¹ĥà¸Īà¹Ģà¸¢":10788,"à¸Ķà¹Ĩà¸«à¸Ļ":10789,"Ġà¸ģà¸²à¸£à¸ģ":10790,"Ġà¹ĥà¸Ļà¸ģà¸²à¸£à¸Ĺ":10791,"à¸²à¸£à¸°à¸ļà¸²à¸¢":10792,"à¸Ļà¸²à¸¢à¸ģà¸£":10793,"à¸Ĳà¸Ĺ":10794,"à¸²à¸¢à¹Ħà¸Ľà¸Ńà¸¢":10795,"à¸Ńà¸²à¸Īà¸Īà¸°à¸ķ":10796,"Ġmil":10797,"à¸²à¸ĩà¸²à¸Ļà¹ĥà¸Ļ":10798,"Ġbrowser":10799,"à¹Ħà¸ģà¸¥à¸Īà¸²à¸ģ":10800,"spoil":10801,"Ġ07":10802,"à¸Ļà¹ģà¸ļà¸ļà¹Ħà¸«à¸Ļ":10803,"à¸²à¹Ħà¸Ľà¸Ī":10804,"à¸²à¸Ļà¹Ģà¸£à¸²à¸ģ":10805,"à¸ªà¸²à¸¡à¸²à¸£à¸ĸà¸ŀ":10806,",\"-":10807,"à¹ī.":10808,"à¸Ńà¸Ļà¸Ķà¸Ńà¸Ļ":10809,"à¹Ģà¸£à¸²à¸ķà¸¥à¸Ńà¸Ķ":10810,"à¸ģà¸ŀà¸£":10811,"à¸Ńà¸Ļà¹Ĩà¸Ħà¸Ļà¹Ħà¸«à¸Ļ":10812,"à¸Ńà¸¡à¸²à¸Ħ":10813,"Ġà¸Ĺà¸²à¸ĩà¸Ĭ":10814,"à¸²à¸ĩà¹ĥà¸«à¸¡":10815,"à¸¥à¹Ģà¸Ķ":10816,"à¹ĥà¸Ħà¸£à¸Ńà¸¢":10817,"Ġà¸Īà¸Ļà¹Ģà¸¡":10818,"à¸¢à¹ģà¸«":10819,"à¹Ħà¸¡à¸Ħ":10820,"à¸ļà¸£à¸²à¸Ĭà¸ģà¸²à¸£":10821,"2000":10822,"jor":10823,"à¸Ńà¸ĩà¸Īà¸²à¸ģà¸ķ":10824,"à¹Ģà¸Īà¸Ńà¸ļ":10825,"à¸²à¹Ħà¸¡à¸ľ":10826,"à¸ĩà¸¡à¸²à¸§":10827,"à¸²à¹ģà¸Ķà¸ĩ":10828,"à¸²à¸Ļà¹Ģà¸«à¸£":10829,"Ġà¹Ģà¸ŀà¸£à¸²à¸°à¸Ń":10830,"Ġpoint":10831,"Ġà¹Ģà¸¥à¸¢à¸Ī":10832,"à¹Ģà¸©":10833,"Ġbre":10834,"à¸Īà¸°à¹Ģà¸Ńà¸²":10835,"Ġmaster":10836,"à¹ģà¸ļà¸ļà¹Ģà¸Ľ":10837,"à¸Ļà¸¨à¸²à¸¥":10838,"ane":10839,"à¸ģà¹ģà¸Łà¸Ļ":10840,"à¹Ĥà¸«à¸Ļ":10841,"note":10842,"à¸²à¸¡à¸ª":10843,"à¹ĥà¸Ļà¸£à¸Ńà¸ļ":10844,"à¸Ńà¸°à¹Ħà¸£à¸«à¸£":10845,"ume":10846,"à¸¢à¸ĵ":10847,"à¹Ĥà¸Ńà¹Ģà¸Ħà¸£":10848,"nect":10849,"à¸ªà¸Ķà¸Ĭ":10850,"gen":10851,"à¹Ĥà¸Ķà¸Ļà¸«":10852,"à¸Ńà¸Īà¸°à¹Ħà¸Ľ":10853,"Ġlow":10854,"unter":10855,"à¸Ļà¸Ńà¸Ķ":10856,"oshop":10857,"à¸Ħà¹Ģà¸ķà¸Ńà¸£":10858,"à¹Ĥà¸Ķà¸Ļà¸ļ":10859,"à¸¡à¸²à¸«à¸¥":10860,"à¸²à¸£à¸ĸà¸ķ":10861,"à¸Ļà¹Ģà¸£à¸²à¸Ĺ":10862,"à¸Īà¸ļà¸¥à¸ĩ":10863,"Ġà¸Ħà¸ªà¸Ĭ":10864,"à¸§à¸Ļà¸Ī":10865,"à¸²à¸Ńà¸£":10866,"ora":10867,"à¸ļà¸ªà¸²à¸§":10868,"à¸ĺà¸£à¸£à¸¡à¸£à¸²à¸Ĭ":10869,"omi":10870,"à¸£à¸²à¸§à¹Ĩ":10871,"Ġà¸Ĺà¸Ńà¸ĩ":10872,"à¹Ħà¸Ĺà¸£":10873,"'t":10874,"990":10875,"à¸§à¸Ŀ":10876,"à¹Ĥà¸Ńà¸£à¸ª":10877,"à¹Ģà¹Ģà¸¢":10878,"Ġà¸£à¸ļà¸ģà¸§à¸Ļà¸Ĺ":10879,"à¸Ķà¸²à¸§à¹Ģà¸Ĺ":10880,"à¸Ĥà¸Ńà¸ĩà¸ī":10881,"à¸ŀà¸£à¸°à¸ļà¸²à¸Ĺà¸ªà¸¡à¹Ģà¸Ķ":10882,"Ġà¸Ńà¸¢à¸²à¸ģà¹Ģà¸£":10883,"à¹Ħà¸Ńà¸¨":10884,"à¸§à¸Ľà¸£à¸°à¸¡à¸²à¸ĵ":10885,"Ġà¹Ģà¸Ĥà¸²à¸Ī":10886,"à¸Ńà¸Ļà¹Ħà¸§":10887,"à¸ģà¸²à¸£à¸Ľà¸£à¸°à¸Ĭ":10888,"à¸²à¸¢à¹Ħà¸«à¸Ļ":10889,"à¹ģà¸ļà¸ļà¸Ĭ":10890,"à¹Ģà¸Ńà¸²à¹Ħà¸Ľà¹ĥà¸Ĭ":10891,"Ġ.......":10892,"à¸ģà¸ķà¸Ńà¸Ļà¸Ļ":10893,"à¹ģà¸Ĥà¸Ļ":10894,"à¸¢à¸Īà¸²à¸ģ":10895,"à¹Ģà¸§à¸¥à¸²à¸ģà¸¥":10896,"Ġà¸§à¸²à¸ĩ":10897,"Ġtem":10898,"à¸¥à¸ĩà¸¡à¸²":10899,"à¸Ńà¸¢à¹Ģà¸¥":10900,"à¸Ńà¸ĩà¸¡à¸²à¸£":10901,"pass":10902,"asonic":10903,"à¸²à¸ĩà¸£à¸²à¸¢à¹Ħà¸Ķ":10904,"à¸ļà¸Ńà¸ģà¸¡":10905,"à¸ªà¸¡à¸²à¸ĺ":10906,"Ġfind":10907,"macbook":10908,"Ġà¸ģà¸ŀ":10909,"Ġsol":10910,"à¸Ńà¹Ħà¸Ľà¹ģà¸¥":10911,"Ġmult":10912,"Ġ2500":10913,"à¸ªà¸²à¸¢à¸Ļ":10914,"à¸²à¹ģà¸Ķ":10915,"à¸Ľà¸Ĺà¸£":10916,"à¸Ļà¸ģà¸²à¸£à¹ĥà¸«":10917,"à¹ĥà¸ł":10918,"Ġà¹Ģà¸£à¸²à¸«":10919,"Ġà¸ķà¸²à¸¡à¸Ļ":10920,"à¸¡à¸²à¸Ĥà¸Ńà¸Ħ":10921,"à¸ĩà¸²à¸Ļà¸ŀ":10922,"à¸ĸà¸²à¸¡à¹Ģà¸ģ":10923,"à¸Ńà¸ľà¸¡à¸¡":10924,"à¸Ńà¸Ńà¸ģà¹Ħà¸Ķ":10925,"à¸²à¸Ļà¸ļà¸Ńà¸ģà¸§":10926,"à¸²à¸¥à¸ĩà¸ģà¸£à¸ĵ":10927,"à¸²à¹ĥà¸Ļà¸ģà¸²à¸£":10928,"à¸ķà¸²à¸¡à¸«à¸¥":10929,"à¸Ķà¸¥à¸ļ":10930,"à¸²à¹Ħà¸Ĥ":10931,
[...]
